<pad>	0
<unk>	0
<s>	0
</s>	0
<2sxr>	0
<2zh>	0
▁	-2.1933
a	-2.30484
,	-3.32199
'	-3.38482
。	-3.58464
.	-3.60411
o	-4.43433
?	-4.54274
i	-4.5744
的	-4.79714
na	-5.05422
ka	-5.34447
了	-5.42172
ana	-5.42197
ʉ	-5.43218
▁hla	-5.48009
▁ko	-5.62679
ko	-5.6912
ia	-5.70621
isa	-5.74157
是	-5.75873
▁ma	-5.7627
▁kana	-5.76472
▁coco	-5.80457
我	-5.87088
co	-5.87501
▁kani	-5.9289
▁tam	-5.96729
▁ia	-6.02416
有	-6.04298
!	-6.04324
在	-6.05144
▁ta	-6.05372
ako	-6.06733
嗎	-6.0876
▁maro	-6.23637
要	-6.30312
會	-6.36221
、	-6.36844
▁maci	-6.37063
說	-6.39901
不	-6.41766
n	-6.4215
▁我	-6.45809
▁ocani	-6.48987
ta	-6.4968
他	-6.5092
▁"	-6.50967
子	-6.57786
到	-6.57855
▁mamaini	-6.58831
你	-6.60453
▁amihla	-6.62672
▁i	-6.62987
▁mʉmʉa	-6.6543
人	-6.66191
hla	-6.67877
▁你	-6.72617
kia	-6.73008
:「	-6.73327
很	-6.74025
和	-6.74978
▁pi	-6.75688
ina	-6.79112
▁pa	-6.80884
▁hli	-6.8128
一	-6.81576
ma	-6.83071
▁mo	-6.8576
▁salia	-6.86814
sa	-6.87547
把	-6.87978
上	-6.88277
來	-6.88867
我們	-6.9012
也	-6.90643
用	-6.90685
isana	-6.91862
去	-6.94805
▁ihlako	-6.9495
好	-6.95268
就	-6.96303
:	-6.96409
水	-6.96997
mo	-6.9769
hli	-6.97727
▁mavacangʉ	-6.99412
被	-6.99669
▁ahlaina	-6.99846
▁sa	-7.01936
▁po	-7.04273
都	-7.0479
▁mosa	-7.0479
ra	-7.07188
▁na	-7.07517
u	-7.10217
li	-7.10941
吃	-7.11032
時	-7.12047
kana	-7.12483
▁tako	-7.14353
沒有	-7.1475
▁kiariari	-7.14758
pa	-7.15308
大	-7.1537
著	-7.15992
ona	-7.16618
▁si	-7.17434
▁我們	-7.17662
mana	-7.2398
▁oka	-7.2496
可以	-7.24982
▁kio	-7.26888
l	-7.27404
aloa	-7.28171
iarʉ	-7.28343
她	-7.29346
▁tomoa	-7.29477
▁langica	-7.31027
家	-7.31377
。」	-7.32191
hl	-7.3268
."	-7.32911
▁ihlao	-7.34787
▁arinani	-7.34826
nga	-7.34828
▁matomohlo	-7.35934
k	-7.36088
ca	-7.36092
▁miararoma	-7.36989
vo	-7.3786
▁mi	-7.39304
對	-7.39518
▁tamo	-7.40202
▁hlahlosa	-7.40932
;	-7.41392
下	-7.4289
因為	-7.43032
▁ama	-7.43672
▁ngasa	-7.45017
▁ina	-7.45022
他們	-7.47209
地	-7.47435
▁macahlia	-7.47556
得	-7.48665
so	-7.4871
lo	-7.48933
▁komita	-7.50169
▁pakiatoroa	-7.51134
▁sasaroana	-7.52057
▁caihli	-7.52572
而	-7.52618
做	-7.52991
▁naani	-7.53775
過	-7.55124
看	-7.55277
hlamo	-7.55373
▁mara	-7.55964
pi	-7.56071
v	-7.5629
r	-7.56309
工作	-7.57175
▁他	-7.57283
▁sahlomo	-7.57299
▁toahlʉ	-7.57783
▁maroa	-7.57817
naia	-7.57908
小	-7.58461
ahlʉ	-7.59724
▁romahlaʉ	-7.61293
▁rianʉ	-7.61426
ri	-7.62896
頭	-7.62932
天	-7.6299
又	-7.63218
▁maaro	-7.63338
▁tahlana	-7.64004
▁ka	-7.64045
▁kari	-7.64382
▁ahla	-7.64727
現在	-7.64832
▁mana	-7.64914
po	-7.65021
叫	-7.65291
出	-7.67096
tʉ	-7.67295
▁koli	-7.67343
ita	-7.67765
mi	-7.68013
▁co	-7.68357
ngo	-7.6837
為	-7.68602
iara	-7.68635
在哪裡	-7.68991
to	-7.69353
▁tikoro	-7.69697
這	-7.69719
年	-7.69858
▁to	-7.70578
▁sohlatʉ	-7.70752
的時候	-7.71218
▁poaili	-7.71307
媽媽	-7.71603
▁kokia	-7.71683
▁ihlaisa	-7.72332
▁ngahlaisa	-7.72551
魚	-7.73473
呢	-7.73543
amo	-7.7392
山	-7.74525
想	-7.74814
ngʉ	-7.75039
帶	-7.75356
中	-7.75938
▁maromoko	-7.77376
▁mahlokoa	-7.7789
▁Hla	-7.78164
▁osoa	-7.79555
草	-7.79855
多	-7.80877
起來	-7.81574
裡	-7.81584
ti	-7.8221
後	-7.82211
跟	-7.82415
▁maniki	-7.82507
我的	-7.83249
▁mairahlo	-7.83486
"	-7.83522
打	-7.83626
樹	-7.8384
▁aari	-7.84697
▁m	-7.84746
▁ahlaloa	-7.85307
▁ahlainana	-7.85821
的地方	-7.85876
▁cacihli	-7.86593
▁我的	-7.86848
▁no	-7.87279
▁vovolonga	-7.8797
種	-7.88811
部落	-7.89219
!」	-7.89545
放	-7.89618
rʉ	-7.90095
▁tomahlaʉ	-7.90464
▁miongo	-7.90496
ani	-7.91421
從	-7.92178
所	-7.92265
很多	-7.92683
大家	-7.93268
si	-7.93564
之	-7.93672
▁oomo	-7.93881
▁mata	-7.9469
▁ahlama	-7.94742
生	-7.94776
看到	-7.95344
▁koako	-7.95375
▁toma	-7.9552
▁sia	-7.95896
▁mosala	-7.96274
▁akoisa	-7.96815
▁koco	-7.97237
但是	-7.97288
開	-7.97327
?」	-7.97475
▁ahlamʉ	-7.97797
sʉ	-7.97922
花	-7.9836
所以	-7.98425
▁volahlʉ	-7.98572
▁vahlitoko	-7.99018
吧	-7.99095
請	-7.99467
長	-7.99488
再	-7.99807
▁macarʉmʉ	-8.00096
▁takoa	-8.00221
讓	-8.00583
非常	-8.00746
coco	-8.01249
▁ara	-8.01692
走	-8.0182
一個	-8.02399
mʉ	-8.02443
還	-8.0255
拿	-8.03011
將	-8.03233
▁sala	-8.03396
▁acahli	-8.0411
▁aonini	-8.04431
人們	-8.04772
▁takacicihli	-8.04841
hlʉ	-8.05088
▁這是	-8.05247
▁tʉnʉmʉ	-8.05302
▁pia	-8.06251
此	-8.06263
▁pasakolai	-8.06324
▁patʉkʉ	-8.06972
▁ariatʉkʉrana	-8.08297
▁ari	-8.08686
你們	-8.08926
買	-8.09195
ahlingo	-8.0951
▁mataingalʉ	-8.09572
等	-8.09955
一起	-8.10093
▁apa	-8.10283
coa	-8.10666
▁mai	-8.10985
aro	-8.11265
但	-8.11374
老師	-8.11445
自己	-8.11448
太	-8.11717
火	-8.11765
與	-8.1182
ami	-8.12154
▁pasaolaola	-8.12219
▁marapihli	-8.12238
▁mʉcʉkʉhlʉ	-8.12694
▁tokoco	-8.13454
住	-8.13786
東西	-8.1409
▁osomanʉ	-8.14288
名	-8.14373
▁omaro	-8.14726
!"	-8.15804
▁takoliacʉ	-8.15813
一直	-8.16281
ola	-8.16327
個	-8.16441
當	-8.16711
那	-8.16762
▁ngahla	-8.169
▁tomalʉlʉvʉ	-8.17358
▁tihla	-8.1744
族人	-8.17687
▁moasa	-8.17759
▁sitakoamia	-8.18781
的人	-8.18874
小孩	-8.19083
coka	-8.19117
錢	-8.1925
▁hlamama	-8.19256
▁maini	-8.19266
▁ihlahlamo	-8.1927
「	-8.1962
Avina	-8.1977
▁taisa	-8.19818
▁aroamia	-8.20056
給	-8.20332
naka	-8.20639
▁parana	-8.20698
▁pakisoahlai	-8.20922
狗	-8.21002
煮	-8.21195
不會	-8.212
衣服	-8.21442
就會	-8.21619
▁mamainina	-8.21867
▁ocanika	-8.21981
飛	-8.22243
聽	-8.22267
路	-8.22981
牠	-8.23707
▁以前	-8.2446
鳥	-8.2516
▁p	-8.2591
maco	-8.26095
▁mari	-8.26343
s	-8.26398
▁votokohlo	-8.26648
lʉ	-8.26873
▁angahli	-8.27026
神	-8.27284
開始	-8.27313
▁ki	-8.27468
ico	-8.27553
kari	-8.27769
c	-8.2862
▁aosi	-8.28806
tomohlo	-8.28866
ari	-8.28873
快	-8.29027
先	-8.29179
以	-8.29255
向	-8.29393
口	-8.29406
喝	-8.2982
▁kohlaisai	-8.30173
最	-8.30308
▁omaroa	-8.30313
不要	-8.30477
高	-8.3102
?"	-8.31139
都是	-8.3115
▁kilaliali	-8.31538
法	-8.31538
▁karʉkʉhlʉ	-8.3159
▁pahlivinga	-8.31595
▁hlatomoa	-8.31641
▁alamoro	-8.31695
▁aanʉ	-8.31726
十	-8.32009
mia	-8.32072
朋友	-8.32094
▁para	-8.32422
出來	-8.32692
有人	-8.32751
方	-8.32798
只有	-8.33276
的衣服	-8.33332
ihlico	-8.338
▁moro	-8.33803
動物	-8.33814
▁omala	-8.33853
一點	-8.34003
ava	-8.34518
kani	-8.34749
▁我要	-8.35173
ahla	-8.35231
ahli	-8.35514
或	-8.35728
飯	-8.35853
t	-8.36011
太陽	-8.36052
▁masasangarʉ	-8.36066
▁tomamahlʉngʉ	-8.36078
▁mahlava	-8.36381
▁papa	-8.36667
▁maiatohlohlo	-8.36858
p	-8.37087
族	-8.37471
三	-8.38265
燒	-8.38321
流	-8.3835
地瓜	-8.38378
ala	-8.38418
▁hlahlosana	-8.38547
▁cocovovolonga	-8.38583
▁tasao	-8.38979
教	-8.38987
mʉmʉa	-8.39031
▁macoka	-8.3922
腳	-8.39338
原住民	-8.39462
aomo	-8.39509
▁mia	-8.39592
▁今天	-8.39672
▁tahliaria	-8.40082
能	-8.40337
點	-8.40482
掉	-8.40536
跑	-8.40588
今天	-8.40614
到了	-8.40683
更	-8.4073
坐	-8.40737
以後	-8.40784
▁ovora	-8.40806
我要	-8.40867
前	-8.41191
▁hlamo	-8.41418
▁hlimilavaʉna	-8.41576
玩	-8.41954
的話	-8.42623
菜	-8.43013
白	-8.43096
往	-8.43111
祭	-8.43129
行	-8.43138
四	-8.43154
/	-8.43164
▁opiaini	-8.43164
alua	-8.43418
▁oma	-8.43637
事	-8.43955
才	-8.44344
Avi	-8.44998
不是	-8.45064
很好	-8.4508
便	-8.45385
一樣	-8.45419
ngahlangahla	-8.45461
黑	-8.45628
▁tainini	-8.45648
食物	-8.45671
olo	-8.46018
手	-8.46489
▁hlamona	-8.46525
▁vato	-8.46559
▁matata	-8.46939
成	-8.46956
可	-8.47797
起	-8.47877
▁voovolonga	-8.48197
已經	-8.48198
▁taratʉahlʉ	-8.48213
maisasavosavoanʉ	-8.48236
▁otolo	-8.4825
▁moromita	-8.48758
Hla	-8.49007
▁這個	-8.49682
月	-8.49973
▁omao	-8.4999
這個	-8.50184
▁aocaocani	-8.50363
牛	-8.50493
溪	-8.50618
及	-8.50784
▁ini	-8.50833
老	-8.50913
▁likihli	-8.5122
▁tʉkʉisa	-8.51254
們	-8.5126
這裡	-8.51292
▁omiiapʉ	-8.51422
分	-8.51761
▁那	-8.51874
」	-8.51931
▁那個人	-8.52206
ahlo	-8.52385
祖先	-8.5258
是誰	-8.53064
學校	-8.53216
米	-8.53413
雨	-8.53462
老鷹	-8.53496
tʉahlʉ	-8.53741
一下	-8.53988
ngahla	-8.54026
原住民族	-8.54074
▁kiia	-8.54393
oro	-8.54996
▁那是	-8.55193
▁hlimilavaʉ	-8.55289
▁moto	-8.55437
▁macici	-8.55503
▁mati	-8.55608
▁媽媽	-8.55751
回來	-8.55871
少	-8.55983
iaraisa	-8.56028
▁manganʉ	-8.5604
不能	-8.56141
如果	-8.56156
愛	-8.56232
書	-8.56246
政府	-8.56246
▁mairangʉ	-8.56254
▁omahlikoa	-8.56259
▁tiaraisa	-8.56305
asarʉ	-8.56402
▁你的	-8.56427
▁老師	-8.56542
青蛙	-8.5655
喜歡	-8.566
iaraisaka	-8.56793
有很多	-8.56945
▁vahlita	-8.57231
▁hlip	-8.57292
我們的	-8.57329
arʉ	-8.57823
▁mali	-8.58012
▁ap	-8.58173
▁kapitanʉ	-8.58423
▁「	-8.58429
kio	-8.58949
穿	-8.59011
▁takoliliongo	-8.591
▁mangosipi	-8.59137
isaka	-8.5914
晚上	-8.59141
▁matavohlio	-8.59176
這是	-8.59414
tam	-8.59692
知道	-8.59715
▁pakiiatoroa	-8.59731
anʉ	-8.59855
山豬	-8.60046
▁macikia	-8.60469
▁ro	-8.60779
ʉhla	-8.60912
▁malicʉcʉ	-8.61207
像	-8.61332
▁siiho	-8.61354
▁alʉmʉhlʉ	-8.61356
兩	-8.61444
▁tamociakʉ	-8.61713
問	-8.61855
色	-8.61926
雞	-8.61963
包	-8.61967
蛋	-8.62011
▁iniciki	-8.62037
▁kopa	-8.62074
maro	-8.6209
▁ooro	-8.62155
他的	-8.62339
okoi	-8.62575
▁這	-8.6286
心	-8.63059
h	-8.63114
tʉkʉ	-8.63421
新	-8.63657
ongo	-8.64174
cʉ	-8.64276
▁pihlingi	-8.64574
這些	-8.64901
發	-8.64914
▁Pi	-8.64959
酒	-8.64969
-	-8.65019
▁pahlosahli	-8.65019
希望	-8.65019
▁tomapaʉ	-8.65019
身體	-8.65023
sana	-8.65215
就是	-8.65384
以前	-8.66155
hlahlosa	-8.66391
▁mapohli	-8.66571
▁不要	-8.6671
日	-8.66726
ngʉtʉhlʉ	-8.66822
▁那個	-8.67136
omo	-8.67159
▁moasala	-8.67309
▁aosii	-8.67477
邊	-8.67541
vʉ	-8.676
變	-8.67882
完	-8.68008
阿	-8.68106
陷阱	-8.6812
學習	-8.68123
▁maco	-8.68327
▁ti	-8.68465
祭典	-8.68594
▁kona	-8.6862
▁paka	-8.68783
名字	-8.69086
進	-8.69648
▁mapaci	-8.70343
學	-8.70883
動	-8.711
重	-8.71163
因	-8.71199
遠	-8.712
洗	-8.71252
麻	-8.71305
乾	-8.71309
拉	-8.71312
▁kihlamohlamo	-8.7132
卻	-8.7132
發現	-8.71327
▁komakita	-8.71329
土	-8.71337
iko	-8.71358
▁talovoco	-8.71364
▁nani	-8.71399
m	-8.71451
▁raco	-8.7149
▁macoa	-8.71502
▁mapoahlʉ	-8.7207
koco	-8.72325
▁pasa	-8.72614
lʉsʉ	-8.73335
▁api	-8.73525
信	-8.73765
Atai	-8.73972
▁aariaari	-8.74277
▁cocomaco	-8.74464
美	-8.74506
作	-8.74535
了很多	-8.74559
ʉraisa	-8.74566
皮	-8.74575
意	-8.74579
畫	-8.74588
近	-8.746
眼	-8.74625
倒	-8.74625
經常	-8.74633
這樣	-8.74644
小米	-8.74672
amisana	-8.74691
弟弟	-8.74794
Usona	-8.74838
▁hlita	-8.74996
找	-8.75048
2	-8.75148
自己的	-8.75321
▁varo	-8.75363
▁tomimahla	-8.75374
▁apo	-8.75387
▁inaisa	-8.75431
▁tamooco	-8.75474
▁pahlo	-8.75712
▁inio	-8.76157
▁tapi	-8.76224
tai	-8.76423
想要	-8.7674
▁tara	-8.76811
apʉ	-8.76993
▁pari	-8.77091
▁hlipo	-8.77113
▁hlohlongo	-8.7742
salia	-8.77593
回家	-8.7764
豬	-8.77979
記	-8.77984
傷	-8.77994
紅	-8.77994
力	-8.78003
斷	-8.7802
族群	-8.78027
寫	-8.78039
▁kalavongo	-8.78045
▁okikirimi	-8.78045
▁rovana	-8.78045
▁hlatʉngʉ	-8.78047
▁moso	-8.78327
▁sasaroanana	-8.78456
別人	-8.78492
貝神	-8.78561
幫	-8.78664
我是	-8.78897
正	-8.78927
▁savoanʉ	-8.79263
apasʉ	-8.7938
▁cocotahlana	-8.79385
沒	-8.79928
hlosohloso	-8.80118
▁korarao	-8.80156
肉	-8.80528
族語	-8.81081
▁mao	-8.81177
熱	-8.81413
文化	-8.81484
接	-8.81495
病	-8.81541
清	-8.81556
自	-8.81575
跳	-8.81579
女生	-8.81583
砍	-8.81585
蟲	-8.81585
▁ninao	-8.81587
準備	-8.81587
arivongoa	-8.81587
▁takaokao	-8.81588
▁toraraporo	-8.81591
▁mosotoro	-8.81601
▁micalivi	-8.81614
maci	-8.8163
▁tavahlihla	-8.81849
taroa	-8.82034
valʉ	-8.82238
唱歌	-8.82675
mao	-8.82686
真	-8.82938
家裡	-8.83101
並	-8.83105
toro	-8.83317
▁kopi	-8.83343
▁hliangahli	-8.83353
都會	-8.8365
▁malangihlo	-8.83775
taisa	-8.83894
讀書	-8.8397
maini	-8.84027
▁hlicaliva	-8.8421
▁amako	-8.84242
正在	-8.84293
avi	-8.84374
▁如果	-8.84583
下來	-8.84741
還有	-8.84795
▁tataisa	-8.84801
社	-8.84856
ingi	-8.84937
lʉpʉngʉ	-8.85124
can	-8.85131
木	-8.85154
▁mii	-8.85156
取	-8.85164
外	-8.85179
場	-8.85189
風	-8.85245
需要	-8.85254
刀	-8.85255
▁mʉrʉcʉka	-8.85255
▁omosahlʉ	-8.85255
語言	-8.85258
織布	-8.85259
醫生	-8.85261
▁sikilaliali	-8.85282
▁tomoakia	-8.85841
▁Palii	-8.85862
ili	-8.85993
園	-8.8609
aini	-8.86167
ngahlʉ	-8.86855
coako	-8.8712
nan	-8.87331
hlivo	-8.87348
▁sakʉrahlʉ	-8.8761
▁sahli	-8.87644
ʉrʉ	-8.88158
cikia	-8.88431
於	-8.88659
難	-8.88946
▁inako	-8.88976
藥	-8.8901
田	-8.89024
親	-8.89048
照	-8.89058
由	-8.89064
養	-8.89064
▁paninao	-8.89065
休息	-8.89065
▁maninao	-8.89065
▁papiaini	-8.89065
猴子	-8.89075
▁tapʉ	-8.89085
之後	-8.89125
capacapangʉ	-8.89136
ahlivi	-8.89186
▁cocosalia	-8.89429
早	-8.89649
居住	-8.89705
為了	-8.89758
▁apohlo	-8.89786
▁maroaro	-8.89911
▁masi	-8.90243
lika	-8.90445
▁把	-8.90531
生活	-8.90813
▁hlimiongo	-8.90934
公	-8.91196
離開	-8.91276
它	-8.91406
借	-8.91477
抓	-8.91515
▁koka	-8.91687
刺	-8.91941
avangʉ	-8.91979
偷	-8.92297
▁varatʉ	-8.92359
滿	-8.92547
▁sapi	-8.9273
你好	-8.92745
歌	-8.92754
為什麼	-8.92833
剛	-8.92897
期	-8.9298
關	-8.93
布	-8.93016
挖	-8.93018
玉米	-8.93026
▁olavaisa	-8.93026
笑	-8.93026
顏色	-8.93026
老鼠	-8.93029
▁roavici	-8.93035
▁arinaani	-8.93039
可能	-8.93061
經過	-8.93063
▁micohlo	-8.93093
▁saonga	-8.93102
▁ariari	-8.93104
數	-8.93145
回	-8.93153
cohlo	-8.9316
kakoa	-8.93199
▁t	-8.93222
oka	-8.93329
河	-8.93365
▁他們	-8.93574
▁amo	-8.93746
▁ihlamo	-8.94041
ʉna	-8.94075
面	-8.94305
ihlo	-8.94388
▁mamisa	-8.94447
在這裡	-8.94528
▁caalʉ	-8.94542
▁pali	-8.94865
不知道	-8.95156
▁masoki	-8.95182
▁是的	-8.95261
oma	-8.95969
▁opatʉ	-8.96117
▁maroka	-8.96405
裝	-8.96771
機	-8.96914
也是	-8.96972
明天	-8.96991
痛	-8.9703
▁hlima	-8.9706
球	-8.9707
妳	-8.97128
實	-8.97131
者	-8.97136
落	-8.97137
睡	-8.97143
比較	-8.97148
電腦	-8.9715
▁sʉsʉngʉ	-8.9715
喔	-8.9715
▁ahlahlaloa	-8.9715
山羌	-8.9715
▁ahlahlapa	-8.9715
比賽	-8.9715
▁kisoahlahlama	-8.97152
▁laihla	-8.97155
外面	-8.97165
▁kipohlo	-8.97167
▁ihlata	-8.9717
白色	-8.97181
ʉlʉvʉ	-8.97222
kita	-8.97458
兩個	-8.97515
▁mavacangio	-8.97563
傳統	-8.97856
我們要	-8.97924
▁amaisa	-8.98019
二	-8.98031
orai	-8.98129
▁maromokoako	-8.98265
▁pata	-8.983
hlu	-8.98788
使用	-8.98898
iia	-8.99186
hlimo	-8.99409
cisa	-8.99459
osoa	-8.99621
使	-8.99658
▁paahlivinga	-8.99989
▁pat	-9.00529
地方	-9.00668
▁kavoroa	-9.00789
▁maria	-9.00829
來了	-9.00956
變成	-9.01022
指	-9.0108
物	-9.01192
今年	-9.01264
氣	-9.01335
石頭	-9.01369
哭	-9.0137
害	-9.01428
受	-9.01429
線	-9.01434
光	-9.01451
貓頭鷹	-9.01451
鹿	-9.01451
▁rahlʉngʉ	-9.01453
應該	-9.01453
活動	-9.0146
頭目	-9.01464
▁misaini	-9.01489
走路	-9.01525
▁sasoa	-9.01597
努力	-9.01633
aili	-9.01721
▁omai	-9.02053
角	-9.02253
老人	-9.02436
oco	-9.02486
val	-9.02954
▁我把	-9.02984
媽媽說	-9.0326
台灣	-9.03402
出現	-9.03429
▁torokoka	-9.03431
▁tarisia	-9.03567
oso	-9.03927
有一個	-9.04072
▁litoka	-9.04119
一定	-9.0425
▁他的	-9.044
那是	-9.04432
▁pakipohlo	-9.04473
▁sangalʉ	-9.04557
的工作	-9.04805
女人	-9.04813
▁maroco	-9.05097
kona	-9.05241
mahl	-9.05262
pas	-9.05346
死	-9.05724
類	-9.05745
定	-9.05821
香	-9.05824
告訴	-9.05838
女孩	-9.05878
筆	-9.05882
蓋	-9.05893
妹妹	-9.05899
狩獵	-9.0592
道	-9.05928
聲	-9.05938
提	-9.0594
蛇	-9.05943
殺	-9.05945
元	-9.05947
ˋ	-9.05947
吹	-9.05947
認識	-9.05948
兔子	-9.05951
製作	-9.05955
▁moaloalo	-9.06024
▁malosapʉ	-9.06056
很高	-9.06228
sapo	-9.0653
▁sip	-9.06789
男	-9.06855
▁kiira	-9.06973
▁hloohlongo	-9.06975
▁taorongo	-9.06975
歲	-9.07265
lavaʉ	-9.07357
mahlʉngʉ	-9.07432
topo	-9.07676
cihli	-9.07729
▁hlaamaama	-9.08505
啊	-9.08514
▁Apʉ	-9.08557
iarana	-9.08592
▁pasamanganʉ	-9.08605
pihli	-9.08767
於是	-9.09197
ihlako	-9.09377
vora	-9.09802
▁vohli	-9.09835
拉阿魯哇	-9.09915
▁弟弟	-9.09976
Usu	-9.09997
傳	-9.1047
翻	-9.10547
iao	-9.10571
常	-9.106
平	-9.10605
1	-9.10609
改	-9.10613
工	-9.10628
唱	-9.10639
換	-9.10644
背	-9.10648
船	-9.10649
您	-9.10652
▁votohlo	-9.10653
▁ʉvʉcʉngʉ	-9.10653
依	-9.10653
▁kiahlahlamo	-9.10653
賣	-9.10653
湯	-9.10653
至	-9.10653
越	-9.10653
▁ahlamacicia	-9.10654
▁hlimilavai	-9.10655
▁mosoraovo	-9.10655
橘子	-9.10658
▁malitʉnʉlʉ	-9.10658
女性	-9.1066
▁mipihlihli	-9.10665
紅色	-9.10666
身上	-9.10667
▁Una	-9.10686
小男孩	-9.10699
▁mahlatʉra	-9.1073
▁kotoahlʉ	-9.10821
▁tahlakʉ	-9.10823
pangʉ	-9.11106
拉阿魯哇族	-9.11187
▁tar	-9.11194
mavacangʉ	-9.11248
語	-9.11297
話	-9.11536
cita	-9.1159
帶著	-9.11688
真的	-9.11761
▁aonana	-9.11958
vʉrʉ	-9.12078
▁hlitakʉ	-9.12439
不好	-9.1248
▁Caʉpʉna	-9.12753
新的	-9.128
是用來	-9.12868
▁tarʉana	-9.13276
的朋友	-9.135
五	-9.13876
▁ngahlana	-9.13912
icoa	-9.13938
ohlo	-9.1398
每天	-9.14427
sahlomo	-9.14439
▁mahlo	-9.14645
則	-9.15263
身	-9.15313
一隻	-9.15379
兒	-9.15435
收	-9.15515
▁vilanganʉ	-9.15523
稱	-9.1554
▁hlimiaili	-9.15555
部	-9.15559
ʉnʉmʉ	-9.15562
無	-9.15567
練習	-9.15591
tarʉtatʉatʉkʉhlʉ	-9.15592
▁makacani	-9.15592
咬	-9.15592
夢	-9.15593
▁olima	-9.15598
▁kiʉlʉsʉ	-9.15599
獵物	-9.15602
▁makolai	-9.15605
▁omohli	-9.15614
植物	-9.15747
長得	-9.15773
sooro	-9.15778
▁koacahli	-9.15871
ihla	-9.15925
inani	-9.16096
acʉ	-9.16101
▁rahloaco	-9.16327
tʉkʉhlʉ	-9.16396
女	-9.16578
▁alʉmʉhlʉna	-9.16721
▁apaihlipihla	-9.16727
▁maromana	-9.17001
manga	-9.17194
kiia	-9.1756
▁請	-9.17582
ocani	-9.17959
▁tasaona	-9.18151
tara	-9.18512
各	-9.1857
▁maron	-9.18674
很久	-9.18792
用來	-9.18962
生長	-9.19151
的名字	-9.19185
caihli	-9.19507
如何	-9.19516
mahlʉmahlʉngʉ	-9.1952
很會	-9.19831
其他	-9.19914
情	-9.20311
▁hlamamana	-9.20353
葉	-9.20603
的孩子	-9.20614
片	-9.20669
見	-9.20679
已	-9.20721
男孩	-9.20736
ici	-9.20746
整	-9.20749
講	-9.20768
pici	-9.20771
約	-9.20774
餐	-9.20775
跳舞	-9.20779
比	-9.20783
圓	-9.20786
▁omacʉka	-9.20786
▁omalivalʉ	-9.20788
▁somohlatʉ	-9.20788
游泳	-9.20788
飛鼠	-9.20794
▁有一天	-9.20796
▁ahlaama	-9.20839
許多	-9.20846
一些	-9.20856
別	-9.20929
▁omoma	-9.2093
▁moroahlʉ	-9.20973
sala	-9.21349
滿了	-9.21383
在家	-9.21504
▁apoaili	-9.21616
amika	-9.21716
在那裡	-9.21725
▁volaihli	-9.21875
▁mavacangʉa	-9.21975
我會	-9.2214
akʉ	-9.22148
▁tʉtʉrʉ	-9.22522
▁apara	-9.22648
▁omiapʉ	-9.22764
cavo	-9.2282
vacangʉ	-9.22911
你看	-9.22979
▁好	-9.22995
走了	-9.23039
讓我	-9.23228
好了	-9.235
去哪裡	-9.23621
高興	-9.23847
▁makahlo	-9.2391
Hlak	-9.23959
lava	-9.23992
趕快	-9.24051
▁mʉlʉngʉsʉ	-9.24106
國	-9.24561
▁rʉrʉmanʉ	-9.24764
住在	-9.24892
kʉhla	-9.2497
每	-9.25086
因此	-9.25529
她的	-9.26055
海	-9.26068
原	-9.26072
▁siangosipi	-9.26168
▁ahlokakoa	-9.26176
亂	-9.26182
洞	-9.26187
經	-9.2619
明	-9.26198
羊	-9.26224
離	-9.26233
假	-9.26236
ʉlʉkʉ	-9.2624
六	-9.26245
內	-9.26248
結果	-9.26255
食	-9.26255
品	-9.26256
化	-9.26257
文	-9.26258
項鍊	-9.26258
槍	-9.26259
香蕉	-9.26261
旁邊	-9.26267
毛	-9.26268
vacavacangʉ	-9.26273
▁matisangalʉ	-9.26275
▁koacahlia	-9.26278
▁araohloso	-9.26285
paiatohlohlo	-9.26288
無法	-9.26296
天空	-9.26297
時間	-9.26301
▁makini	-9.26352
▁Tamaohlona	-9.2637
有一天	-9.26383
▁vaakʉ	-9.26427
lʉmʉlʉmʉ	-9.26435
▁pakita	-9.26441
▁tatara	-9.26464
▁tapaʉ	-9.26574
要去	-9.26758
▁vahlitongana	-9.26816
cara	-9.26857
▁pakiatoroana	-9.26963
▁sita	-9.27035
▁maromia	-9.27083
才會	-9.2721
▁cocoari	-9.27255
還是	-9.27347
成為	-9.2746
aloana	-9.27531
uta	-9.27606
lʉhlʉ	-9.28117
個人	-9.28196
▁sarapongo	-9.2827
▁vaciki	-9.2827
▁macoisa	-9.2845
langica	-9.28547
aci	-9.28615
▁kira	-9.28794
留	-9.28817
▁tʉkʉ	-9.29179
▁pahla	-9.29203
▁不是	-9.29541
roamia	-9.29589
擦	-9.29799
很快	-9.29957
tako	-9.29959
man	-9.30219
▁langʉlangʉ	-9.30373
▁tapohlacʉngʉ	-9.30562
▁rahloa	-9.30578
的東西	-9.30587
▁ʉvʉraʉ	-9.30612
了一	-9.31005
tahlana	-9.3124
送	-9.31338
▁atʉhlʉngʉ	-9.31429
屋	-9.31646
▁kokana	-9.31677
同	-9.31763
睡覺	-9.31808
處	-9.31871
竹	-9.31897
森林	-9.31898
感	-9.31921
隻	-9.31937
晚	-9.31953
戴	-9.31973
理	-9.3199
▁pao	-9.31998
加	-9.3204
推	-9.32049
入	-9.32049
嘴巴	-9.32053
踩	-9.32053
射	-9.32058
綁	-9.32059
合	-9.32061
張	-9.32061
騙	-9.32064
烏	-9.32065
桃源	-9.32066
煙	-9.32066
S	-9.32066
acangʉrahlʉ	-9.32066
▁moacʉkʉhlʉ	-9.32066
份	-9.32066
掛	-9.32066
巫師	-9.32067
▁poaroma	-9.32067
房間	-9.32067
辛苦	-9.32067
父親	-9.32068
姐姐	-9.32069
房子	-9.32069
決定	-9.32069
▁angatʉ	-9.3207
ʉlʉnganʉ	-9.3207
▁hlahlito	-9.32072
代表	-9.32073
母親	-9.32073
▁hliaromia	-9.32074
害怕	-9.32075
常常	-9.32081
一次	-9.32089
慢慢	-9.32091
阿公	-9.32093
乾淨	-9.321
vaaso	-9.32101
▁osahlʉ	-9.32115
▁hliparana	-9.32124
生病	-9.32126
▁pariavaratʉ	-9.32139
▁matalakiahlʉ	-9.32166
ʉraisamana	-9.322
▁pasamia	-9.32208
▁pii	-9.3222
上學	-9.32268
送給	-9.32443
後來	-9.3253
快樂	-9.32566
ngu	-9.32605
▁langicana	-9.3283
要把	-9.33057
家族	-9.33067
oisa	-9.33076
▁omaroamia	-9.33112
土地	-9.3314
▁roma	-9.33343
takoliacʉ	-9.33406
▁tamociakʉna	-9.33407
學生	-9.33755
▁macahliao	-9.33802
國家	-9.33844
▁Hlako	-9.3391
ʉisa	-9.34123
onga	-9.34148
cahlia	-9.34201
mamaini	-9.34236
vu	-9.34527
▁mako	-9.34562
此地	-9.34705
大家都	-9.34794
▁tavoa	-9.34832
ngoso	-9.34995
pohlo	-9.35251
上的	-9.35266
的生活	-9.35455
▁lilionga	-9.35472
isanaka	-9.35594
▁lovoco	-9.35761
▁takoliacʉa	-9.35765
pahlo	-9.36119
牠的	-9.36664
幫我	-9.36806
▁taia	-9.36985
▁tomo	-9.37007
tʉkʉrʉ	-9.37137
kohlo	-9.37253
要用	-9.3735
Usai	-9.37554
老人家	-9.37613
除	-9.3777
一位	-9.37934
代	-9.37946
獵	-9.37949
小孩子	-9.37953
壞	-9.37959
其	-9.3798
第	-9.38128
認	-9.38171
主	-9.38175
野	-9.38186
亮	-9.382
床	-9.38201
交	-9.38202
管	-9.38202
表	-9.38206
料	-9.3821
婚	-9.38215
立	-9.38218
牙	-9.3822
客	-9.38221
▁Koatʉ	-9.38222
▁alokala	-9.38222
▁malisʉhlʉ	-9.38222
▁mimiliki	-9.38222
▁你怎麼	-9.38222
▁你有幾個	-9.38222
橡皮擦	-9.38222
血	-9.38222
裏	-9.38222
轉	-9.38222
Kuatʉ	-9.38222
▁makarikari	-9.38222
保護	-9.38223
幫忙	-9.38228
平安	-9.38228
ringai	-9.38232
▁sianata	-9.38234
是一個	-9.38234
▁palisia	-9.38237
Amahlʉ	-9.38248
▁laarʉ	-9.38248
▁akoainita	-9.38258
山羊	-9.38271
▁miaʉlʉsʉ	-9.38272
只	-9.38282
繩子	-9.38282
▁omani	-9.38292
▁ʉlʉkʉna	-9.38304
totoro	-9.38324
▁ikatomahlana	-9.38337
▁koatomohlo	-9.38342
▁cara	-9.3838
人類	-9.38406
看起來	-9.38478
▁va	-9.38529
Apʉʉna	-9.38586
ihli	-9.38626
▁paoso	-9.3869
▁hlarangirangi	-9.3884
▁aariaaria	-9.38897
▁la	-9.38933
langʉlangʉ	-9.39067
tolo	-9.39322
▁siihona	-9.39645
▁omi	-9.39801
Palii	-9.39871
的腳	-9.40427
很大	-9.40454
我想	-9.40608
▁於是	-9.40708
sasala	-9.40732
oloso	-9.40889
paci	-9.40964
▁sap	-9.41048
站	-9.41063
有的	-9.41078
父母	-9.41116
▁tomoako	-9.41334
也會	-9.417
osa	-9.41732
哪裡	-9.4179
最後	-9.42271
▁camai	-9.42309
不可以	-9.42459
▁maroamia	-9.42505
▁hlimaro	-9.42528
▁oalo	-9.42533
▁我不	-9.4257
ika	-9.42593
▁ahlaloana	-9.42641
tikoro	-9.4266
▁kiariarika	-9.42939
▁hlim	-9.43007
都有	-9.43108
▁vongo	-9.43233
好多	-9.43272
深	-9.43275
居	-9.43654
▁maromokoa	-9.44012
車	-9.44548
回答	-9.4461
本	-9.44626
mai	-9.44648
▁小孩子	-9.44661
voi	-9.44667
存	-9.4473
曬	-9.44739
性	-9.4474
掃	-9.4474
sʉkʉra	-9.44744
味	-9.44745
丟	-9.44757
油	-9.44764
拔	-9.4477
3	-9.44774
圍	-9.44775
排	-9.44779
躲	-9.44781
8	-9.44781
▁siasamoso	-9.44781
殼	-9.44781
爺爺說	-9.44781
▁pasaʉlʉsʉ	-9.44781
短	-9.44781
吐	-9.44781
復	-9.44781
▁hitai	-9.44781
▁palongo	-9.44781
戰爭	-9.44781
池	-9.44781
▁hlicohloko	-9.44782
祝福	-9.44782
▁movavilihli	-9.44783
▁mosoatoro	-9.44784
okohloco	-9.44785
安全	-9.44785
vʉrʉnganʉ	-9.44786
屋頂	-9.44789
▁taloavaʉlana	-9.44795
▁omaiiapʉ	-9.44797
受傷	-9.44805
▁maloliri	-9.4481
出門	-9.44816
asopi	-9.44822
▁raahli	-9.44825
才能	-9.44843
▁mʉlʉvʉ	-9.4485
大的	-9.44869
很漂亮	-9.44877
長大	-9.44886
小山豬	-9.44902
▁motongoso	-9.44906
▁omari	-9.44917
▁cocovanana	-9.44949
▁kiso	-9.44963
cʉrʉ	-9.44977
男子	-9.44987
aimao	-9.4499
tahloro	-9.4509
▁ci	-9.45175
roro	-9.45334
hlana	-9.45337
▁macaca	-9.45354
服	-9.45378
▁lʉmʉmʉkʉ	-9.45443
ʉrʉcʉ	-9.45477
我們一起	-9.45674
Usuna	-9.45713
很好吃	-9.45748
▁我沒有	-9.45766
誰	-9.45864
位	-9.45888
▁tamalʉngalʉna	-9.45903
hlʉngasʉ	-9.45928
▁ahliki	-9.46011
下去	-9.46034
▁alo	-9.46072
hliki	-9.46224
▁talovaʉlʉ	-9.46397
▁tahliariana	-9.46666
ilikoso	-9.46727
裡的	-9.46879
mika	-9.47102
masaihla	-9.47123
▁angahlahlana	-9.47196
▁雖然	-9.47423
她是	-9.47522
天上	-9.4754
likihli	-9.4779
幾	-9.47827
出去	-9.47873
comi	-9.48267
toko	-9.48293
aloalo	-9.4834
moso	-9.48457
▁masaihla	-9.48561
ahlai	-9.48615
ʉngʉ	-9.4867
我很	-9.48762
▁romia	-9.48873
▁masia	-9.48922
▁Tamauhlu	-9.48982
inaia	-9.49942
▁pita	-9.49959
▁vi	-9.50019
好吃	-9.50382
▁sipiamia	-9.50753
竹子	-9.50852
條	-9.50982
▁tapo	-9.51027
▁ahlahlaina	-9.51121
一起去	-9.51158
我媽媽	-9.51268
ʉtʉ	-9.5141
現	-9.51492
▁aropa	-9.51519
芋頭	-9.51542
請問	-9.51565
還沒	-9.51624
鍋	-9.51632
髒	-9.51676
▁從前	-9.5168
原來	-9.51682
區	-9.51687
失	-9.51692
▁maka	-9.51694
形	-9.51699
體	-9.51782
5	-9.51783
颱風	-9.51785
巴	-9.51786
夜	-9.51789
嘴	-9.51792
型	-9.51792
繼續	-9.51795
弄	-9.51795
編	-9.51797
追	-9.51797
祭儀	-9.51799
封	-9.518
貓	-9.518
遊	-9.518
什麼時候	-9.518
爬	-9.518
▁Taotao	-9.51801
採	-9.51801
選	-9.51801
▁aromokao	-9.51801
▁somokohlo	-9.51801
姊姊	-9.51801
警察	-9.51801
酸	-9.51801
Tautau	-9.51801
▁hliolavalava	-9.51801
羽毛	-9.51801
敬	-9.51801
aropakakita	-9.51801
▁kirihli	-9.51801
▁moritoroa	-9.51802
必須	-9.51802
▁makahlangolo	-9.51802
▁Tahai	-9.51803
10	-9.51804
pohlipohli	-9.51804
終於	-9.51805
曾經	-9.51805
una	-9.51806
paotoamaco	-9.51807
春天	-9.51807
ahlaina	-9.51807
▁hlalangʉ	-9.51807
結婚	-9.51808
全部	-9.51812
▁kʉlʉpʉngʉ	-9.51813
▁ahlanʉ	-9.51814
改變	-9.51827
肚子	-9.51829
小矮人	-9.5183
天氣	-9.51839
▁tomatotoro	-9.51842
而且	-9.51844
▁ngosoisa	-9.51844
看見	-9.51861
總是	-9.51866
▁mokakakoa	-9.51877
才不會	-9.51882
開心	-9.51885
▁omaosahlʉ	-9.51899
▁moliohlo	-9.51901
本來	-9.51912
mii	-9.51933
▁omaromia	-9.51935
poco	-9.51978
很痛	-9.52008
這個地方	-9.52012
papaci	-9.52013
很遠	-9.52069
事情	-9.52173
過去	-9.52173
錯了	-9.52187
▁avavo	-9.52414
▁maisana	-9.52429
orac	-9.52539
一條	-9.52625
把它	-9.52927
孩子們	-9.53018
takoamia	-9.53043
oia	-9.53096
acalai	-9.53117
mahlʉ	-9.53179
一種	-9.53197
Ataina	-9.53241
▁vongoka	-9.53375
▁osoanganai	-9.53447
ʉlʉ	-9.53488
▁papo	-9.53604
▁tahla	-9.53784
▁sitakoamiaisa	-9.53998
讓人	-9.54031
iama	-9.54466
poaili	-9.5451
▁som	-9.55086
▁lolonga	-9.55352
雖然	-9.55536
故事	-9.55575
▁pingahla	-9.55591
hliangahli	-9.55607
買了	-9.55681
▁ocanii	-9.55986
二十	-9.56033
▁arataisa	-9.5625
sasaroana	-9.56266
這裡有	-9.56343
▁ihlo	-9.56604
sasoa	-9.56618
▁amao	-9.56752
還要	-9.56795
的心	-9.56921
iatʉhlʉnga	-9.56937
民	-9.57146
▁hlasʉnga	-9.573
▁以前的	-9.57699
▁他是	-9.5781
acahli	-9.57962
的水	-9.58128
ʉcʉ	-9.58359
▁lʉhlʉ	-9.58386
儀式	-9.58469
▁青蛙	-9.58525
車子	-9.58755
有一隻	-9.58836
」。	-9.59023
次	-9.59058
捉	-9.59198
▁maso	-9.59202
直	-9.59208
全	-9.59288
骨	-9.59299
念	-9.59306
maivʉvʉrʉnga	-9.59309
tongoso	-9.59315
古	-9.59323
黃	-9.59326
泡	-9.59328
領	-9.59334
禮	-9.59336
結	-9.59339
南	-9.59345
救	-9.59346
該	-9.59347
若	-9.59349
影	-9.5935
望	-9.5935
~	-9.5935
▁hlimihlimilavaʉ	-9.5935
▁tahloavʉ	-9.5935
▁tennao	-9.5935
▁tʉpʉhlana	-9.5935
▁valacoko	-9.5935
塔	-9.5935
細	-9.5935
肥	-9.5935
蝦	-9.5935
alapongo	-9.5935
▁holicʉ	-9.5935
▁pakaritʉkʉhlʉ	-9.5935
任	-9.5935
雲	-9.5935
▁kamosia	-9.5935
▁tavacihli	-9.5935
替	-9.5935
順	-9.59351
鬼	-9.59351
聖貝	-9.59351
貴	-9.59351
ʉpʉcʉ	-9.59351
▁hlomavo	-9.59351
跌倒	-9.59351
▁paiciana	-9.59351
誤	-9.59352
專門	-9.59353
等一下	-9.59354
moroacʉka	-9.59355
okarahla	-9.59356
▁mitahlahlʉ	-9.59356
▁lokohlo	-9.59358
電話	-9.59358
▁tomahlʉpʉngʉ	-9.59361
相信	-9.59365
剛剛	-9.59377
maraiahlʉ	-9.59379
▁siasohlatʉ	-9.59388
的部落	-9.59392
▁cacalaisa	-9.59407
和解	-9.59424
▁saliia	-9.59436
alivatʉ	-9.59438
多少	-9.59439
吃飯	-9.59493
poavahli	-9.59498
miamia	-9.5951
的大	-9.59517
上面	-9.59551
吃完	-9.59556
tohlohlo	-9.59597
▁mosasala	-9.59624
paotoahlangi	-9.59659
人的	-9.59688
累了	-9.59697
tu	-9.59735
▁pahlomiamiaisa	-9.59783
mahlisarʉ	-9.59833
lahl	-9.59934
大便	-9.59991
hlipi	-9.59993
ahlʉisa	-9.60107
種子	-9.60138
▁ahlamata	-9.60151
很大的	-9.60528
▁hliomo	-9.60852
▁pira	-9.60968
▁maripoco	-9.61031
▁saliaisa	-9.61166
天天	-9.61228
paliina	-9.61347
回去	-9.61482
▁mahlʉ	-9.621
▁rʉhlʉcʉ	-9.62154
▁taʉhlʉkai	-9.62158
▁poailico	-9.6216
▁tararianʉ	-9.62176
alalangʉ	-9.62232
▁too	-9.62308
sali	-9.62475
▁tom	-9.62479
▁viaro	-9.62521
後面	-9.62564
聽到	-9.62622
laili	-9.62752
koka	-9.62819
tʉkʉra	-9.62825
lisi	-9.62898
vahlitoko	-9.62927
vongo	-9.63097
▁posiamʉ	-9.63196
▁talicia	-9.63196
▁lamoro	-9.63234
做的	-9.63372
一直在	-9.63684
rito	-9.637
mamahlipapo	-9.64026
地名	-9.64037
畫圖	-9.64112
osomanʉ	-9.64191
謝謝你	-9.64258
那個	-9.64337
▁老人	-9.64623
▁kiariariia	-9.64671
Caʉpʉna	-9.64756
tʉtʉrʉ	-9.64812
likoso	-9.65174
吃了	-9.65203
vato	-9.65367
男人	-9.65496
▁sapahlʉ	-9.65604
臉	-9.65629
▁tokohlolo	-9.65773
tarikiacangihli	-9.6602
▁tamalʉngalʉ	-9.66137
也有	-9.66432
興	-9.66543
arʉmʉ	-9.66579
漂亮	-9.66585
▁pakiatoro	-9.66611
sara	-9.66618
小狗	-9.66761
▁takiiarʉ	-9.66843
錯	-9.67051
破	-9.67062
路上	-9.6721
部落裡	-9.67214
兄弟姊妹	-9.67364
石	-9.67387
硬	-9.67393
危險	-9.67395
相	-9.67404
你喜歡	-9.67415
製	-9.67421
活	-9.67457
的食物	-9.67458
字	-9.67458
calivi	-9.67462
輕	-9.67463
灰	-9.67471
鬆	-9.67487
熟	-9.67495
4	-9.67499
台	-9.67502
另	-9.67503
問題	-9.67506
夫	-9.67509
如	-9.67511
的方式	-9.67512
八	-9.67515
岸	-9.67516
幫助	-9.67516
紙	-9.67516
狀	-9.67517
絕	-9.67517
暗	-9.67517
aropakiahlahlamo	-9.67517
▁kicovanana	-9.67517
▁valahlʉvahlʉ	-9.67517
七	-9.67517
▁ahlaosahla	-9.67517
Vanau	-9.67517
▁maiiatohlohlo	-9.67517
▁那是什麼	-9.67517
啦	-9.67517
尿	-9.67517
屁	-9.67517
縫	-9.67517
很美麗	-9.67517
村	-9.67517
▁mahloarianʉ	-9.67517
撞	-9.67517
餓	-9.67517
厚	-9.67517
壓	-9.67517
穿山甲	-9.67518
設	-9.67518
引	-9.67518
醫院	-9.67519
表示	-9.67519
牆壁	-9.6752
老虎	-9.6752
▁makakilingi	-9.6752
播種	-9.6752
容易	-9.6752
▁tarʉtatʉkʉhlʉ	-9.67522
釀酒	-9.67523
木材	-9.67523
藍色	-9.67523
▁pacʉpʉcʉpʉngʉ	-9.67525
▁tahloko	-9.67525
道歉	-9.67528
▁micikiri	-9.67528
tasau	-9.67529
alʉmʉsa	-9.67529
並且	-9.6753
跑步	-9.67532
來的	-9.67535
maiauna	-9.67537
同學	-9.67541
▁masarʉmʉ	-9.67544
▁omarocarocakʉ	-9.67546
▁aihlana	-9.67548
▁aropakari	-9.67548
釣魚	-9.67554
tatahlamʉ	-9.67556
畫畫	-9.67558
在下雨	-9.67562
▁hlipata	-9.67564
sapoarʉ	-9.67565
▁mahlokakoa	-9.67572
完成	-9.67575
▁cokahlangʉ	-9.67579
為主	-9.6758
▁soli	-9.67616
發生	-9.67617
▁kitaʉ	-9.67618
明天要	-9.67622
記得	-9.67657
▁sohlatʉkari	-9.67708
穿著	-9.67714
▁molavaʉ	-9.67734
兒子	-9.67755
▁mavacang	-9.67792
說話	-9.67815
傳說	-9.67818
▁rianico	-9.67926
跟著	-9.68024
▁tapaʉisa	-9.68045
家屋	-9.68097
除了	-9.68124
takoacahlia	-9.68179
▁hlito	-9.68259
liohlo	-9.68273
▁tapohlaihlia	-9.68352
不夠	-9.68427
aira	-9.68578
▁moromitaco	-9.68638
▁taiaco	-9.68648
▁hlimi	-9.68782
▁謝謝	-9.68789
▁tiarao	-9.68879
koro	-9.6889
好像	-9.68927
posi	-9.68927
▁mak	-9.6906
▁tokocoko	-9.69159
▁mikoa	-9.69182
他們的	-9.69383
▁hlihlala	-9.69454
▁intavangʉ	-9.69665
asoro	-9.69824
ʉvʉ	-9.70382
▁hlako	-9.70538
找到	-9.70912
▁mori	-9.71402
▁tavʉhlʉvʉhlʉ	-9.71701
ihlao	-9.71726
macoako	-9.71779
讓他	-9.71855
▁kʉ	-9.71857
母	-9.72248
的事	-9.72372
▁Paliina	-9.72583
▁hlamamaisa	-9.72615
回到	-9.72666
lang	-9.72775
的手	-9.72789
tav	-9.72844
山上	-9.72928
▁你們的	-9.7325
▁tarikicangihli	-9.73337
akoko	-9.73532
▁saliako	-9.73549
iaili	-9.73577
我可以	-9.73765
所有	-9.73774
▁maataata	-9.74006
▁hlikomita	-9.74055
sohlatʉ	-9.74135
的頭髮	-9.74153
varo	-9.74233
tʉnʉmʉ	-9.74251
intavangʉ	-9.74267
▁Ta	-9.74288
就好	-9.74457
感謝	-9.74477
▁miatongoso	-9.74551
給我	-9.74564
▁marahlopo	-9.74749
0	-9.74853
有一位	-9.74961
▁maki	-9.74973
的眼睛	-9.75529
有許多	-9.75537
▁Taivangʉ	-9.75735
Angai	-9.75835
polo	-9.7588
胖	-9.75952
▁poto	-9.75956
▁mal	-9.75995
vʉkʉ	-9.76049
有好多	-9.76082
做什麼	-9.76111
▁saparongahla	-9.76118
▁miararomaisa	-9.76125
然	-9.76127
門	-9.76221
isisi	-9.76231
稻	-9.76245
達	-9.76249
根	-9.76269
切	-9.76297
利	-9.76303
支	-9.76314
Malala	-9.76335
且	-9.76339
青	-9.7634
巨人	-9.76345
通	-9.76362
打獵	-9.76363
產	-9.76372
怕	-9.76376
量	-9.76378
醒	-9.76382
九	-9.76384
綠	-9.76392
戰	-9.76393
音	-9.76393
善	-9.76394
摸	-9.76398
突然	-9.76398
不然	-9.76399
互相	-9.76405
節	-9.76406
搖	-9.76406
歉	-9.76406
標	-9.76406
世界	-9.76407
易	-9.76408
算	-9.76408
戶	-9.76409
段	-9.76409
7	-9.7641
桶	-9.7641
燈	-9.7641
aratingi	-9.7641
maisavosavoanʉ	-9.7641
▁ariiatʉkʉrana	-9.7641
▁pacʉcʉpʉngʉ	-9.7641
智慧	-9.7641
百合花	-9.7641
6	-9.7641
tamauhlu	-9.7641
涼	-9.7641
瓶	-9.7641
不聽話	-9.76411
剪	-9.76411
彩虹	-9.76411
王	-9.76411
術	-9.76411
▁atʉatʉhlʉngʉ	-9.76411
越來越	-9.76411
▁hlipatoaiaili	-9.76411
躺	-9.76411
▁comavo	-9.76411
烏克蘭	-9.76412
法律	-9.76412
toaporo	-9.76412
▁malavalʉ	-9.76414
▁mahlorianʉ	-9.76415
否則	-9.76415
▁maracani	-9.76415
▁calinga	-9.76416
kitomao	-9.76417
▁hlimahlava	-9.76417
獸皮	-9.7642
▁cahlo	-9.7642
舉行	-9.76421
▁paomala	-9.76423
玩具	-9.76425
寫字	-9.76428
綠色	-9.76429
aimanai	-9.76434
是紅色的	-9.76435
▁oroamitana	-9.76436
▁patasooro	-9.76436
進入	-9.76436
樹枝	-9.7644
▁ahlamakiariari	-9.7644
月亮	-9.7644
lʉhlʉvʉ	-9.76443
▁mahlipapo	-9.76443
多少錢	-9.76443
▁aracahlia	-9.76465
tapirasʉ	-9.76466
再見	-9.7647
黑色	-9.76476
▁saviki	-9.76481
▁ocaniaari	-9.76492
▁matolohlo	-9.76497
木頭	-9.76535
▁opito	-9.76536
未來	-9.76544
心想	-9.76547
▁ivavo	-9.76579
小溪	-9.76594
malialoalo	-9.76602
taraʉnʉ	-9.76618
tomatapaʉ	-9.76631
▁弟弟把	-9.76646
一半	-9.76662
你要	-9.76693
去山上	-9.76697
獵人	-9.76718
vira	-9.76727
遇到	-9.7679
會變	-9.76804
arakicacʉ	-9.76838
▁我喜歡	-9.76964
▁maahlʉ	-9.77025
有些	-9.77061
▁mosiri	-9.77062
▁miama	-9.77075
▁sarʉ	-9.77078
讓我們	-9.77079
在家裡	-9.77087
空	-9.77134
都不	-9.77169
有一	-9.77209
molikapʉ	-9.77255
ngahlana	-9.77287
社會	-9.77357
▁caihlisa	-9.77448
很小	-9.77484
我沒有在	-9.77668
▁kaio	-9.77692
oahloso	-9.77793
裡面	-9.78026
下雨了	-9.78072
因為他	-9.78083
▁pahli	-9.78208
靈	-9.78251
謝謝	-9.78675
▁ahlaloako	-9.78794
▁saliana	-9.78955
▁miongoco	-9.79006
▁mamainisa	-9.79032
▁cocovovolongana	-9.79086
▁soka	-9.79143
不用	-9.79351
romia	-9.79438
▁好的	-9.79533
▁tak	-9.79548
niako	-9.79617
他在	-9.79763
▁takohlo	-9.79802
iri	-9.80019
iiapʉ	-9.80108
su	-9.80219
這時	-9.80342
的族人	-9.80614
voto	-9.80712
給他	-9.81264
▁maaco	-9.81274
romo	-9.81527
▁Caʉpʉ	-9.81611
▁sohlatʉna	-9.81796
▁ramoco	-9.81854
▁tikorona	-9.81883
那裡	-9.81898
座山	-9.81958
isi	-9.81967
kotomohlo	-9.82264
過來	-9.8244
▁tokocoisa	-9.82483
▁sahlomona	-9.82632
moto	-9.82672
vararʉ	-9.82753
aloliri	-9.82815
likapʉ	-9.83078
喝酒	-9.83436
停	-9.83548
lu	-9.83624
rʉkʉcʉ	-9.83808
▁miararomana	-9.839
男生	-9.84462
去學校	-9.84515
貝神祭	-9.84664
放在	-9.84684
e	-9.84772
tapaʉ	-9.84809
壯	-9.85071
視	-9.85213
volahlʉ	-9.85317
papa	-9.85448
會有	-9.85455
pito	-9.85473
不同	-9.85606
▁comac	-9.85611
akaio	-9.85713
累	-9.85721
▁vahliongo	-9.85836
吃的	-9.85978
祖母	-9.85983
游	-9.85991
衣	-9.86028
日本	-9.86047
寶	-9.86051
林	-9.86085
瓜	-9.86087
▁tomoro	-9.86096
taivangʉ	-9.86098
釣	-9.86106
就可以	-9.86109
粒	-9.86128
藏	-9.86129
命	-9.86135
kʉhlʉ	-9.86145
承	-9.86146
舉	-9.86151
聚	-9.86153
訪	-9.86153
業	-9.86154
圖	-9.86156
舞	-9.86156
避	-9.86156
舊	-9.86157
尖	-9.86159
集	-9.86161
度	-9.86166
atahlamʉ	-9.86167
足	-9.86169
印	-9.86169
搬	-9.86169
觀	-9.86169
踏	-9.8617
歷	-9.8617
高雄	-9.86171
吵	-9.86171
防	-9.86171
美麗的	-9.86171
政策	-9.86171
苦	-9.86172
板	-9.86172
揹	-9.86172
烤	-9.86172
kaopaopangʉ	-9.86172
▁korovarovana	-9.86172
▁ngiao	-9.86172
▁siakilia	-9.86172
▁taipakʉ	-9.86172
▁tenao	-9.86172
格	-9.86172
Muakai	-9.86172
汁	-9.86172
臺灣	-9.86172
pahloasahli	-9.86172
pipasamia	-9.86172
▁toporo	-9.86172
tihlaravai	-9.86172
抱	-9.86172
摩托車	-9.86172
蘭	-9.86172
▁kihlahlamo	-9.86173
吞	-9.86173
▁cohlaomangʉ	-9.86173
熊	-9.86173
窩	-9.86173
驅魔	-9.86173
▁apahlapa	-9.86173
固	-9.86173
▁mocapi	-9.86173
膀	-9.86173
排剪社	-9.86173
獨	-9.86174
稱呼	-9.86175
tomangora	-9.86176
sirangʉ	-9.86176
▁asʉkʉcaʉ	-9.86176
tasʉmʉ	-9.86177
▁hlipimia	-9.86178
課本	-9.86178
木柴	-9.86178
siarina	-9.86179
邀請	-9.86179
▁masalangʉsangʉ	-9.8618
hlipatoaiiailia	-9.8618
體型	-9.86183
那些	-9.86185
hlikipohlo	-9.86185
congohlo	-9.86187
▁patasoro	-9.86187
晚餐	-9.8619
味道	-9.8619
▁koatalakiahlʉ	-9.86193
▁malivoto	-9.86193
▁miacikiri	-9.86194
▁那個男人	-9.86195
柱子	-9.86197
此地區	-9.862
獲得	-9.86201
民族	-9.86204
起床	-9.86207
要好好	-9.86207
生命	-9.86208
cacani	-9.86213
然後	-9.86217
▁tomasʉkʉra	-9.86228
▁maliaili	-9.86232
talangahlʉ	-9.86232
打掃	-9.86232
飛機	-9.8624
溪邊	-9.86241
上課	-9.86246
可愛	-9.86251
大巨人	-9.86261
▁koaromoko	-9.86266
▁miataisa	-9.86267
talʉlʉvʉ	-9.86271
▁patako	-9.86278
▁toahlio	-9.86286
到達	-9.86328
變得	-9.86375
lalangica	-9.86379
▁taparana	-9.86379
白天	-9.86381
小鳥	-9.86434
很勤勞	-9.8647
兩個人	-9.86524
就不會	-9.86592
▁tatolo	-9.86593
喝水	-9.86604
aolia	-9.8662
原來是	-9.86632
所有的	-9.86759
▁kikoco	-9.86773
akoisana	-9.86833
很長	-9.8695
▁anaʉa	-9.86986
▁mili	-9.86989
有幾	-9.87024
▁omaosaosahlʉ	-9.87184
▁kalasʉkasʉ	-9.87184
的聲音	-9.87185
他說	-9.87191
▁ahlii	-9.87194
打到	-9.87254
lolo	-9.87341
開會	-9.87347
這種	-9.87373
要先	-9.87457
回來了	-9.87888
pasalangʉlangʉ	-9.88141
▁saloa	-9.88177
▁cocomacona	-9.88225
▁coo	-9.8829
talakiahlico	-9.88422
▁palongana	-9.8852
去買	-9.88566
mala	-9.88725
▁lalima	-9.888
都很	-9.88873
▁maami	-9.88924
▁vongoisa	-9.88937
mu	-9.8913
aravangʉ	-9.89307
aomona	-9.89345
pikakoa	-9.89419
▁votokohlona	-9.89485
macarʉmʉ	-9.89895
十分	-9.9031
▁karisa	-9.90399
ravacangʉ	-9.9054
koiangʉtʉ	-9.9091
▁sasoana	-9.91022
去找	-9.9123
非常的	-9.91724
▁paranaisa	-9.9174
kahlangʉ	-9.91919
▁naana	-9.92282
是學生	-9.92404
oongo	-9.92464
▁hliom	-9.92586
▁takopihli	-9.92626
paani	-9.92665
▁hlapa	-9.92775
ongali	-9.92951
也很	-9.92954
limo	-9.92989
Ang	-9.93036
naani	-9.9316
sokasʉ	-9.93211
lana	-9.93218
ihlaisa	-9.93297
matavohlio	-9.93371
▁poso	-9.93778
ahlavo	-9.94166
▁maialalang	-9.94258
▁sipangʉhlʉva	-9.9429
▁aroami	-9.94442
▁tapai	-9.94738
很喜歡	-9.94889
kakakoa	-9.94903
一個人	-9.95127
arakoka	-9.95242
碗	-9.95266
hlovo	-9.95341
洗衣服	-9.95485
rapa	-9.95533
hlopo	-9.95564
瘦	-9.95673
▁pitʉkʉ	-9.96261
▁Pani	-9.96316
hlimahlotaisa	-9.96325
▁miapihlihli	-9.9633
▁pahlomiamia	-9.96392
▁sohlat	-9.96419
vovolonga	-9.96477
▁ikako	-9.96551
求	-9.96799
A	-9.96805
Apʉ	-9.9681
volonga	-9.96811
浪費	-9.96853
臭	-9.96856
共	-9.96864
甜	-9.96867
幾歲	-9.96867
kiariari	-9.96897
飽	-9.96905
不喜歡	-9.96934
島	-9.96938
的動物	-9.96939
待	-9.96945
金	-9.96953
院	-9.96957
器	-9.96965
loaili	-9.96965
兄弟	-9.9697
電	-9.9697
安	-9.96974
左	-9.96974
基	-9.96974
低	-9.96976
毒	-9.96976
屬	-9.96976
套	-9.96976
特	-9.96976
言	-9.96978
某	-9.96978
籃	-9.96979
棵	-9.9698
9	-9.9698
西	-9.96981
強	-9.96982
濕	-9.96983
惡	-9.96984
20	-9.96985
東	-9.96986
精	-9.96988
守	-9.96989
準	-9.96989
雅	-9.96989
吸	-9.9699
彎	-9.9699
愈	-9.9699
迎	-9.9699
幼	-9.96991
蒼蠅	-9.96991
配	-9.96991
員	-9.96991
孫	-9.96991
軟	-9.96991
釘	-9.96991
hlitinʉna	-9.96991
omohlono	-9.96991
▁Moakai	-9.96991
▁cingarʉ	-9.96991
▁kalahlapa	-9.96991
▁karaioro	-9.96991
▁koparaiahlʉ	-9.96991
▁pahloasasahli	-9.96991
▁sikoatitipa	-9.96991
▁sʉʉsʉngʉ	-9.96991
▁tahliariia	-9.96991
▁tavaivala	-9.96991
▁vanokanoka	-9.96991
口簧琴	-9.96991
烏龜	-9.96991
爐	-9.96991
舒	-9.96991
ararovana	-9.96991
w	-9.96991
▁karʉkʉhli	-9.96991
▁sikisoahlahlama	-9.96991
▁冬天	-9.96991
唸	-9.96991
彈	-9.96991
粗	-9.96991
藤	-9.96991
削	-9.96991
哇	-9.96991
搗	-9.96991
盪	-9.96991
知識	-9.96991
美瓏社	-9.96991
贏	-9.96991
kakamalʉ	-9.96991
沉	-9.96991
甘	-9.96991
急	-9.96991
Vintia	-9.96991
雁爾社	-9.96991
盛	-9.96991
禁忌	-9.96991
集會所	-9.96992
嚇	-9.96992
manitʉkʉ	-9.96992
習慣	-9.96992
禁止	-9.96992
下大雨	-9.96992
仍然	-9.96992
成功	-9.96993
老婆	-9.96993
竹筒	-9.96993
參加	-9.96993
▁taloavaʉlʉ	-9.96993
工寮	-9.96994
▁ahlavʉngʉlaia	-9.96994
kaino	-9.96994
▁iacapa	-9.96994
海龜	-9.96994
的照片	-9.96994
感冒	-9.96994
▁mavahlaʉvaʉ	-9.96995
▁pasarana	-9.96995
豐收	-9.96997
▁mataingalico	-9.96998
▁anʉanʉ	-9.96999
箭竹	-9.97
sʉpʉ	-9.97001
30	-9.97002
通常	-9.97003
能夠	-9.97003
教導	-9.97003
▁maivʉtʉraʉ	-9.97006
年糕	-9.97006
原本	-9.97007
第一次	-9.97007
▁ararataʉ	-9.97008
隔天	-9.97013
其實	-9.97014
▁matialo	-9.97014
講話	-9.97016
hlalongo	-9.97017
canicani	-9.97018
黃色	-9.97018
美味	-9.97019
vavahlira	-9.9702
樹豆	-9.97027
▁apatalʉlʉvʉ	-9.97028
▁koosi	-9.97028
力氣	-9.97032
開門	-9.97035
vilanganʉ	-9.97035
上班	-9.97038
▁omaiapʉ	-9.97045
動作	-9.97049
青年	-9.9705
整個	-9.97052
前面	-9.97056
鳥類	-9.97058
漢人	-9.97062
能力	-9.97066
▁mosalasala	-9.97067
不敢	-9.9707
palihli	-9.97075
傷口	-9.97075
會議	-9.97087
年輕人	-9.97092
早上	-9.971
以及	-9.97101
▁laʉlaʉvʉisa	-9.97133
tomorotoro	-9.97135
▁kotararianʉ	-9.97137
▁macooisa	-9.97142
作為	-9.97152
tavava	-9.97168
▁molikihli	-9.97181
kilaliali	-9.97181
▁maliahlʉ	-9.97215
鍋子	-9.97216
▁moara	-9.97218
從此	-9.97243
到處	-9.97264
剛好	-9.97268
▁vʉkʉisa	-9.97273
▁cocokiariari	-9.97306
只要	-9.97331
▁mongahlʉ	-9.97349
ahlokakoa	-9.9735
Ciiatingina	-9.97351
從前	-9.97357
moasa	-9.9736
▁arʉʉ	-9.97369
從小	-9.97397
alali	-9.97474
tatavahlihla	-9.97495
macahlia	-9.97518
但他	-9.97543
拿著	-9.97548
破了	-9.97605
弟弟的	-9.97606
apomia	-9.97622
▁asapo	-9.97657
hlimahlotaisana	-9.97661
難過	-9.97718
▁minisoaco	-9.97731
請問你	-9.97754
▁ahlava	-9.9779
我們來	-9.97806
▁hlilʉmʉka	-9.97815
Angaina	-9.97827
vong	-9.97832
▁koocani	-9.97882
不同的	-9.97948
▁amiami	-9.98018
▁tavahlihlaisa	-9.98057
▁aatʉ	-9.98125
▁paotohlangi	-9.98141
去了	-9.98167
人家	-9.98218
▁maihli	-9.98277
過去的	-9.9833
▁tatahl	-9.98337
是布農族	-9.98431
可是	-9.98445
▁sapara	-9.98707
▁今天是	-9.98735
▁kavoroana	-9.98742
aracici	-9.99091
▁moasako	-9.99131
ilipi	-9.99216
▁ngahlako	-9.99293
hlohlo	-9.99381
toahlʉ	-9.99515
第二	-9.99551
takacicihli	-9.99573
要帶	-9.99668
tamahlʉngʉ	-9.99792
taiisa	-9.99827
ulu	-9.99871
Apʉʉ	-9.9989
▁tapohlacʉngʉna	-9.99946
▁akita	-10.0004
▁torokokana	-10.0027
ngoro	-10.0049
不讓	-10.0049
coami	-10.0092
好看	-10.0116
走到	-10.0117
manganʉ	-10.0126
山上的	-10.0139
一定要	-10.0162
▁mosalaco	-10.0178
rahlosohloso	-10.0179
hlʉmʉ	-10.0179
▁kiana	-10.0188
▁ahlamʉna	-10.0197
tipi	-10.0219
趕	-10.0221
▁sihlangʉ	-10.0237
▁hlipao	-10.0254
樹下	-10.0254
很快就	-10.0259
ova	-10.029
kʉrʉ	-10.0344
祖父	-10.0346
tat	-10.0359
ngahlaisa	-10.0366
就把	-10.04
vʉcʉ	-10.0422
要買	-10.05
nani	-10.0534
▁maahla	-10.0536
uku	-10.0548
醉	-10.0555
深山	-10.0566
▁apikaonga	-10.0633
在唱歌	-10.0649
acici	-10.0652
kima	-10.0655
很早	-10.0686
ramang	-10.0735
▁atʉhlʉng	-10.0748
▁kar	-10.076
在樹上	-10.0764
rahli	-10.0765
rahloa	-10.0779
在這	-10.0802
塊	-10.0808
panai	-10.0808
最喜歡	-10.0828
分享	-10.0837
roahlʉ	-10.0838
▁isikana	-10.0844
▁ʉm	-10.0846
▁tamatito	-10.0846
很重	-10.0848
解	-10.0854
超過	-10.0867
勤勞	-10.0872
parana	-10.0877
lʉngʉsʉ	-10.0884
U	-10.0888
死掉	-10.0891
太多	-10.0894
樣	-10.0894
步	-10.0895
覺得	-10.0897
裙	-10.0897
底	-10.0898
個孩子	-10.0898
ʉsʉ	-10.0899
因為有	-10.09
許	-10.0906
世	-10.0906
反	-10.0906
豆	-10.0908
titipa	-10.0908
枝	-10.0908
拍	-10.0909
價	-10.0909
緊	-10.091
隨	-10.091
育	-10.091
箭	-10.091
忙	-10.0911
保	-10.0911
搭	-10.0911
割	-10.0911
農	-10.0911
消	-10.0912
季	-10.0912
制	-10.0912
岩	-10.0912
壁	-10.0912
界	-10.0912
平埔族	-10.0912
歡	-10.0912
小白兔	-10.0912
耳	-10.0912
談	-10.0912
Sʉkalu	-10.0912
景	-10.0912
遍	-10.0912
刮	-10.0912
摘	-10.0912
橋	-10.0912
燙	-10.0912
號	-10.0912
驚	-10.0912
沖	-10.0912
ahliacovonga	-10.0912
patohlanga	-10.0912
tongatonga	-10.0912
▁cocovoovolonga	-10.0912
▁corovana	-10.0912
▁hlasavaʉ	-10.0912
▁hlatikasʉ	-10.0912
▁hlitocalʉa	-10.0912
▁kirovana	-10.0912
▁milakopo	-10.0912
▁oapapalo	-10.0912
夾	-10.0912
姑婆芋	-10.0912
局	-10.0912
碎	-10.0912
Arooai	-10.0912
▁mairoroma	-10.0912
▁ripasʉ	-10.0912
▁tokapʉ	-10.0912
嚼	-10.0912
薄	-10.0912
雨停了	-10.0912
Aruuai	-10.0912
kʉsʉngʉ	-10.0912
▁tokotokocoa	-10.0912
啄木鳥	-10.0912
arisakai	-10.0912
▁maparapa	-10.0912
剩	-10.0912
吃水果	-10.0912
磨	-10.0912
這麼多	-10.0912
▁omalalai	-10.0912
▁sihlianʉ	-10.0912
疊	-10.0912
籐	-10.0912
aupan	-10.0912
▁sapahliko	-10.0912
慕	-10.0912
太陽出來了	-10.0912
漲	-10.0912
hlialovo	-10.0912
sikonga	-10.0912
穀倉	-10.0912
客廳	-10.0912
耳朵	-10.0912
korivoro	-10.0912
Sincyang	-10.0912
▁hlilʉmʉlʉmʉka	-10.0912
▁matiasangalʉ	-10.0912
豐富	-10.0913
歷史	-10.0913
piaAkuahlʉ	-10.0913
吵架	-10.0913
同伴	-10.0913
阿美族	-10.0913
▁hlimini	-10.0913
pakacani	-10.0913
▁ravongota	-10.0913
資源	-10.0913
罵	-10.0913
在海上	-10.0913
祈求	-10.0913
▁tomahlaico	-10.0913
婦女	-10.0913
編織	-10.0913
talimao	-10.0913
arisangʉ	-10.0913
地震	-10.0913
消失	-10.0913
你是不是	-10.0913
▁masino	-10.0913
▁malooliiri	-10.0913
sʉsʉma	-10.0913
pikolo	-10.0914
社群	-10.0914
▁hlilʉmʉmʉkʉ	-10.0914
另外	-10.0914
逃跑	-10.0914
傳承	-10.0914
▁aposiri	-10.0914
▁aonani	-10.0914
▁mʉcʉkʉhlico	-10.0914
vangarʉ	-10.0914
202	-10.0914
矮人	-10.0914
禮物	-10.0914
教育	-10.0915
敵人	-10.0915
▁avalia	-10.0915
女兒	-10.0915
平原	-10.0915
會說族語	-10.0915
ʉmʉmʉcʉ	-10.0915
▁tarʉtarʉ	-10.0915
趕鳥	-10.0915
平常	-10.0915
父母親	-10.0916
▁kiapohlo	-10.0916
▁marisangihli	-10.0916
小心	-10.0916
門口	-10.0916
▁那個女人	-10.0916
parasingasinga	-10.0917
▁mitalʉvʉngʉ	-10.0917
ricapi	-10.0918
atavilao	-10.0918
▁你們家	-10.0918
關心	-10.0918
▁alʉisa	-10.0918
▁mikasʉkasʉ	-10.0918
女朋友	-10.0919
海鳥	-10.0919
▁koamamahlipapo	-10.0919
她是我的	-10.0921
掉下來	-10.0921
marino	-10.0921
▁maiaona	-10.0922
▁Malalana	-10.0923
▁pihlalopo	-10.0923
長期	-10.0924
米飯	-10.0924
▁mavacangʉkai	-10.0924
▁osia	-10.0924
都很喜歡	-10.0925
樹木	-10.0925
▁masarapongo	-10.0926
▁tarianʉ	-10.0927
到底	-10.0927
▁caihlicaihli	-10.0927
便當	-10.0927
失去	-10.093
很危險	-10.0931
園地	-10.0931
要小心	-10.0931
小女孩	-10.0931
從事	-10.0932
不要亂	-10.0932
▁somasohlat	-10.0933
要求	-10.0934
arahlasʉ	-10.0934
▁cocoaari	-10.0935
▁papohla	-10.0936
▁paohli	-10.0937
▁papapaci	-10.094
▁mavʉhlʉ	-10.0942
iarako	-10.0942
感到	-10.0944
其他人	-10.0945
回答說	-10.0945
▁angahlicoisana	-10.0946
打開	-10.0946
葉子	-10.0947
女子	-10.0948
▁tii	-10.0949
這就是	-10.095
祖先們	-10.0953
oongoisa	-10.0953
▁atamahlʉnga	-10.0954
的意思	-10.0954
▁korahloa	-10.0954
▁hlavatʉ	-10.0956
拉阿魯哇族人	-10.0956
▁ramocoisa	-10.0959
▁milico	-10.0959
▁mainimana	-10.0967
▁masoisa	-10.0969
▁loma	-10.0969
▁hlitolakoana	-10.0971
▁maroacoco	-10.0975
手機	-10.0976
▁tamatitona	-10.098
看看	-10.0981
把菜	-10.0985
matingahlangahla	-10.1005
isiparʉ	-10.1008
還沒有	-10.1021
你拿	-10.1022
▁pitaro	-10.1024
重視	-10.1028
▁takao	-10.1029
▁aonanaia	-10.1037
Usaina	-10.1049
這是我的	-10.1058
▁angahlico	-10.1058
taʉvʉ	-10.1066
tavohlio	-10.107
今天的	-10.1074
pihlingi	-10.1086
會洗衣服	-10.1096
atʉhlʉngʉ	-10.1098
pakisoahlai	-10.1108
朋友們	-10.111
pasakolai	-10.111
langicana	-10.1111
家人	-10.1115
▁voo	-10.1116
ʉkʉn	-10.1117
hlohlongo	-10.1153
cali	-10.1159
toahli	-10.1175
▁karina	-10.118
借我	-10.1184
還不	-10.1194
五個人	-10.12
▁likihliko	-10.1204
▁paro	-10.1216
▁kapitanʉna	-10.1217
▁sapahlʉisa	-10.1222
▁toto	-10.1247
停在	-10.1252
在一起	-10.1265
koasapo	-10.1265
的祖先	-10.128
在深山	-10.128
人民	-10.1282
▁tikoroisa	-10.1292
upu	-10.1301
▁Tai	-10.1339
我叫	-10.1341
抓到	-10.1343
▁ahlainaisa	-10.1364
vatʉ	-10.1375
好啊	-10.1412
▁kopat	-10.1415
到山上	-10.1445
▁siia	-10.146
iaro	-10.1487
這塊土地	-10.1496
▁motov	-10.1505
祖	-10.1508
在山上	-10.1534
▁matomohloco	-10.1553
viki	-10.1572
ʉmʉcʉ	-10.158
▁acan	-10.1608
田裡	-10.1621
留下	-10.1651
vavo	-10.166
並不	-10.1663
去吧	-10.1672
vohli	-10.1708
lili	-10.1712
森林裡	-10.1715
ososo	-10.1733
okoso	-10.1735
我們是	-10.1738
可以吃	-10.1751
tataisa	-10.1764
hlikoa	-10.1792
喜歡讀書	-10.1833
很多人	-10.1844
hlivoro	-10.1869
▁aanʉna	-10.1894
▁siki	-10.1908
ʉhlʉ	-10.1909
vahlʉ	-10.1909
▁mariko	-10.1909
現代	-10.1932
哪	-10.194
oahlaina	-10.1941
▁pakis	-10.1943
alangʉ	-10.1953
apor	-10.1955
去工作	-10.1981
acarʉmʉ	-10.1995
的傳統	-10.2006
▁hlitakacicihl	-10.2012
cʉcʉ	-10.2022
的角	-10.2028
▁caaca	-10.2034
▁下雨	-10.2038
nganʉ	-10.2061
別的	-10.2065
▁hlica	-10.2071
都用	-10.2094
▁hlikico	-10.2123
▁avava	-10.2129
要趕快	-10.2132
曾	-10.2136
時候	-10.2153
有空	-10.2171
vacangico	-10.2171
voro	-10.2184
▁omara	-10.2192
▁minisoa	-10.2203
Uso	-10.2207
冷	-10.2217
很難過	-10.2221
▁hlitolakoa	-10.2226
洗澡	-10.2231
▁kalʉvʉnga	-10.2233
群	-10.2234
kasʉkasʉ	-10.2239
▁koaroami	-10.225
秋天	-10.225
ongohlo	-10.2253
的臉	-10.2256
在學校	-10.2259
間	-10.2275
袋	-10.2278
褲	-10.2279
繩	-10.2279
件	-10.2281
課	-10.2282
耕	-10.2287
捕	-10.2287
目	-10.2287
年輕	-10.2288
電視	-10.2288
具	-10.2289
atimahla	-10.229
守護	-10.2291
應	-10.2291
織	-10.2291
染	-10.2291
右	-10.2291
錄	-10.2291
▁takʉmʉ	-10.2292
非	-10.2292
牆	-10.2292
童	-10.2292
遷	-10.2292
擊	-10.2292
修	-10.2292
遺	-10.2292
較	-10.2292
搶	-10.2293
caocao	-10.2293
例	-10.2293
祈	-10.2293
柬埔寨	-10.2293
蜂	-10.2293
必	-10.2293
貨	-10.2293
virisi	-10.2293
醃	-10.2293
斑	-10.2293
莊	-10.2293
溫泉	-10.2293
勤	-10.2293
喪	-10.2293
黏	-10.2293
滑	-10.2293
繁	-10.2293
案	-10.2293
鹹	-10.2293
cʉpʉngʉ	-10.2293
tahlivaʉ	-10.2293
升	-10.2293
炒	-10.2293
盡	-10.2293
臟	-10.2293
C	-10.2293
laihlaolima	-10.2293
paosakisakiri	-10.2293
▁poasipi	-10.2293
▁sitiapili	-10.2293
▁tangalohlo	-10.2293
amʉmʉkʉ	-10.2293
kolikoli	-10.2293
mapohlarʉ	-10.2293
▁maingororo	-10.2293
▁mairararahlo	-10.2293
▁matarongahlʉ	-10.2293
▁mikacico	-10.2293
▁motovavʉrʉnga	-10.2293
▁opapalo	-10.2293
▁otoataposana	-10.2293
▁palʉmʉhlʉ	-10.2293
▁picomapaci	-10.2293
▁sinkoan	-10.2293
▁taraokohla	-10.2293
▁tarʉvavotongai	-10.2293
▁tomangi	-10.2293
劈	-10.2293
堆	-10.2293
忌	-10.2293
爾	-10.2293
要吃什麼	-10.2293
▁aromokaisa	-10.2293
▁oakikirimi	-10.2293
折	-10.2293
抹	-10.2293
暈	-10.2293
載	-10.2293
農作物	-10.2293
tomahliasosolo	-10.2293
埋	-10.2293
滾	-10.2293
致	-10.2293
證	-10.2293
▁嬰兒	-10.2293
呀	-10.2293
噴	-10.2293
連	-10.2293
陷	-10.2293
盤	-10.2293
嚨	-10.2293
aromokako	-10.2293
勇敢	-10.2293
找不到	-10.2293
即	-10.2293
梳	-10.2293
用右手	-10.2293
▁tarotʉahlʉ	-10.2293
▁爸爸說	-10.2293
千	-10.2293
章	-10.2293
飲料	-10.2293
▁aparanasʉ	-10.2293
里	-10.2293
撿	-10.2293
溫暖	-10.2293
tovakʉ	-10.2293
來不及	-10.2293
熄滅	-10.2293
ungali	-10.2293
▁tavotoko	-10.2293
護士	-10.2293
遷移	-10.2293
製造	-10.2294
rahlʉnga	-10.2294
停止	-10.2294
側	-10.2294
蜜蜂	-10.2294
▁lomalʉmʉkʉ	-10.2294
領域	-10.2294
▁imarʉ	-10.2294
是黑色的	-10.2294
omorahla	-10.2294
覆蓋	-10.2294
乾枯	-10.2294
例如	-10.2294
趕緊	-10.2294
▁omopangʉ	-10.2294
麻煩	-10.2294
農夫	-10.2294
sangʉra	-10.2294
圍牆	-10.2294
aopan	-10.2294
我的名字是	-10.2294
▁pakitoro	-10.2294
朵花	-10.2294
裝飾	-10.2294
▁masahli	-10.2294
hlahlamʉ	-10.2294
▁acalaiaʉ	-10.2294
南瓜	-10.2294
▁tʉkʉtʉkʉa	-10.2294
▁maiini	-10.2294
尋找	-10.2294
▁saliri	-10.2295
▁tʉraa	-10.2295
tokamia	-10.2295
故意	-10.2295
洗臉	-10.2295
期間	-10.2295
隊長	-10.2295
重要的	-10.2295
放棄	-10.2295
rocakʉ	-10.2295
相處	-10.2295
寶物	-10.2295
病毒	-10.2295
hlalopo	-10.2295
▁maopatʉhlʉ	-10.2295
▁tomototoro	-10.2295
▁aropapia	-10.2296
▁kʉlʉsʉ	-10.2296
ʉngʉcʉ	-10.2296
aomosikonga	-10.2296
▁miapoalʉ	-10.2296
位於	-10.2296
有兩種	-10.2297
▁paomahlʉngʉ	-10.2297
成熟	-10.2297
魚網	-10.2297
▁malimahlʉ	-10.2297
▁vooro	-10.2297
等待	-10.2297
一起去打獵	-10.2298
▁pahloamia	-10.2298
▁ropohlo	-10.2298
捕魚	-10.2298
唯一	-10.2298
▁koatitipa	-10.2298
這個國家	-10.2298
小時候	-10.2299
只能	-10.2299
▁toahliko	-10.2299
▁hliangahlahlana	-10.2299
▁komakiki	-10.2299
野生	-10.2299
▁Ukʉlanna	-10.23
他們天天看電視	-10.23
想念	-10.2301
▁koamaivʉvʉrʉnga	-10.2301
開車	-10.2301
▁siiasohlati	-10.2301
小米酒	-10.2301
各個	-10.2302
▁paritʉahlʉ	-10.2302
山區	-10.2302
ngʉhlʉvʉ	-10.2302
有三個	-10.2303
不懂	-10.2303
海裡	-10.2304
幾天	-10.2304
lalʉngʉsʉ	-10.2304
▁taivangʉna	-10.2304
▁siaravacangʉ	-10.2304
一件	-10.2305
tʉhlʉ	-10.2305
原住民族群	-10.2305
不久	-10.2305
收起來	-10.2306
很冷	-10.2306
每年	-10.2306
去打獵	-10.2306
一家人	-10.2307
tomotoro	-10.2307
sopohlo	-10.2307
稱為	-10.2307
aranganʉ	-10.2307
所以取	-10.2307
vaʉlʉ	-10.2308
上衣	-10.2309
▁karitahlana	-10.231
起火	-10.2311
一切	-10.2311
▁hlitapaʉ	-10.2312
時代	-10.2313
▁這裡是	-10.2314
同時	-10.2314
下面	-10.2316
之前	-10.2316
稻子	-10.2316
sico	-10.2317
對於	-10.2318
想起	-10.2319
saamahlʉmahlʉngʉ	-10.232
pipihlihli	-10.2321
▁makoakoa	-10.2321
▁tamocoako	-10.2321
不然會	-10.2322
▁mitaisa	-10.2323
▁volaihlisa	-10.2324
▁momoa	-10.2326
ivingi	-10.2326
▁ngosoo	-10.2326
開花	-10.2327
▁mapatʉkʉ	-10.2327
家鄉的	-10.2329
▁mianʉ	-10.2329
在做什麼	-10.2332
很香	-10.2333
她們	-10.2333
▁marakakaco	-10.2334
在路上	-10.2336
▁mocohlo	-10.2337
出生	-10.2339
▁masokasʉ	-10.234
▁pakahli	-10.2341
一樣大	-10.2341
進來	-10.2342
我明天要去	-10.2344
了解	-10.2346
溪水	-10.2348
▁mahlavaʉa	-10.2351
喝太多	-10.2354
過後	-10.2354
▁paot	-10.2356
▁taopang	-10.2361
日子	-10.2362
▁mongahlangahla	-10.2364
胖了	-10.2367
ahlahlama	-10.2371
▁hlikita	-10.2373
▁tapangʉ	-10.2374
學會	-10.2375
▁tamotamoa	-10.2375
▁你今天	-10.2381
ʉvʉana	-10.2385
ahlamarʉ	-10.2386
▁arataisaco	-10.2386
則是	-10.239
不一樣	-10.2394
長大了	-10.2394
▁maromaro	-10.2394
高山	-10.2402
▁mokoa	-10.2406
看著	-10.2409
coro	-10.2413
一塊	-10.2415
是用	-10.2415
▁kim	-10.2416
了許多	-10.2422
toahlico	-10.2425
tapongo	-10.2429
patʉkʉ	-10.2437
才有	-10.2441
死了	-10.2442
opatʉ	-10.2447
一天	-10.2449
atʉngʉ	-10.245
▁他沒有	-10.245
變成了	-10.2451
▁camaina	-10.2451
不再	-10.2452
vʉhlʉ	-10.2456
還會	-10.2457
的儀式	-10.2458
▁taarʉ	-10.2464
都可以	-10.2468
▁你媽媽	-10.2468
aroamimia	-10.2472
kisia	-10.2501
或是	-10.2508
▁Apʉna	-10.2515
也沒有	-10.2523
sosolo	-10.2526
▁matasa	-10.2527
河邊	-10.2532
不過	-10.2542
▁apapaci	-10.2543
老了	-10.2552
是男生	-10.2555
不能吃	-10.2563
▁這是第	-10.2573
每個	-10.2582
▁hlipana	-10.2582
刺到	-10.2589
雨傘	-10.259
mac	-10.2601
▁acahlico	-10.2603
很深	-10.2612
它的	-10.2617
地上	-10.2622
分給	-10.2633
鐵	-10.2638
做成	-10.2642
▁palii	-10.2642
▁saaʉ	-10.2643
▁avora	-10.266
頭髮	-10.2667
現代的	-10.267
的信	-10.2676
▁目前	-10.2677
hlasʉnga	-10.2693
hlikomita	-10.2698
rʉrʉmanʉ	-10.27
tasao	-10.2704
malicʉcʉ	-10.2707
mapohli	-10.2707
macici	-10.271
mataingalʉ	-10.2711
aonini	-10.2712
tomahlaʉ	-10.2713
ahlamahlamo	-10.2714
cʉng	-10.2714
torokoka	-10.2715
camai	-10.2716
sangalʉ	-10.2718
的尾巴	-10.2729
moasala	-10.2744
tʉnga	-10.2752
pakipohlo	-10.2784
mairahlo	-10.2791
maataata	-10.2816
Am	-10.282
在讀書	-10.2825
▁koita	-10.285
maahlʉ	-10.2865
hlicaliva	-10.2868
pali	-10.2875
樹上	-10.2915
▁atʉahlʉ	-10.2924
一座	-10.2959
只是	-10.297
tokoco	-10.2978
hliomia	-10.2979
把他	-10.2983
▁hlaamaamana	-10.2984
macoamo	-10.2995
進去	-10.302
的故事	-10.3048
ranga	-10.3102
lomo	-10.3173
▁aanʉisa	-10.3219
種樹	-10.3237
的肉	-10.3257
豬肉	-10.3336
poalʉ	-10.334
mohlo	-10.3344
沒有看到	-10.337
特別	-10.3374
ʉcʉmʉ	-10.3389
▁cocomiararoma	-10.3398
大樹	-10.34
尾巴	-10.3409
為此	-10.341
miararomahlamo	-10.3413
怎麼樣	-10.3433
▁ikarʉ	-10.3436
▁tomata	-10.3486
長很多	-10.3539
兩人	-10.3586
住過	-10.3646
▁hlamamaco	-10.3646
▁masalia	-10.3656
可以做	-10.366
出去玩	-10.366
心裡	-10.3671
每天都	-10.3684
是你的	-10.3731
網	-10.3734
不想	-10.375
大河	-10.3763
▁arom	-10.3767
▁inalo	-10.3792
不但	-10.38
樂	-10.3801
▁tomahl	-10.3819
人數	-10.3831
會唱歌	-10.3835
▁tamaohlo	-10.3837
▁hlipasa	-10.3841
tʉnʉ	-10.3841
的學校	-10.3848
▁tamociak	-10.385
▁marakaka	-10.3854
未	-10.3871
海邊	-10.3877
tʉnʉlʉ	-10.3878
論	-10.3879
聞	-10.3881
杯	-10.3881
簡單	-10.3884
層	-10.3884
退	-10.3886
Ukʉlan	-10.3888
civoka	-10.3889
頂	-10.3889
結束	-10.3889
髮	-10.3891
坡	-10.3891
▁tarʉta	-10.3892
故	-10.3892
ahlipapo	-10.3892
旁	-10.3892
塞	-10.3893
嚐	-10.3893
運	-10.3894
鮮	-10.3894
獸	-10.3894
薯	-10.3894
友	-10.3895
護	-10.3895
置	-10.3895
鹽	-10.3895
市	-10.3895
專	-10.3895
容	-10.3895
考	-10.3895
喜	-10.3895
試	-10.3895
喊	-10.3895
福	-10.3896
浪	-10.3896
延	-10.3896
勇	-10.3896
薩	-10.3896
侵	-10.3896
粉	-10.3896
奇	-10.3896
費	-10.3896
犯	-10.3896
萬	-10.3896
商	-10.3896
伸	-10.3896
奉	-10.3896
滅	-10.3896
負	-10.3896
selep	-10.3896
嫁	-10.3896
報	-10.3896
廚房	-10.3896
冰	-10.3896
▁不論是快樂的故事或是悲傷的故事	-10.3896
啄	-10.3896
寬	-10.3896
爛	-10.3896
積	-10.3896
炭	-10.3896
環境	-10.3896
兵	-10.3896
戀	-10.3896
蒸	-10.3896
打瞌睡	-10.3896
晃	-10.3896
潭	-10.3896
紋	-10.3896
▁hlisorakʉ	-10.3896
▁hlitimahla	-10.3896
程	-10.3896
胸	-10.3896
補	-10.3896
]	-10.3896
akitikiti	-10.3896
arisapʉta	-10.3896
hlasunga	-10.3896
omasasapa	-10.3896
pacʉcʉpʉnga	-10.3896
tarocovongo	-10.3896
▁Akoahlʉna	-10.3896
▁araparapa	-10.3896
▁cohlaomangi	-10.3896
▁kolivoovolonga	-10.3896
▁maisikici	-10.3896
▁makisʉmʉrʉ	-10.3896
▁malavalico	-10.3896
▁mavoovolonga	-10.3896
▁motopiakʉ	-10.3896
▁osomaanʉ	-10.3896
▁pangʉtahlʉ	-10.3896
▁saringoso	-10.3896
▁takihlahlavaʉ	-10.3896
他是我的老師	-10.3896
在桌上	-10.3896
扁	-10.3896
浴室	-10.3896
瞎	-10.3896
訂	-10.3896
責	-10.3896
週	-10.3896
陰	-10.3896
隆	-10.3896
餵	-10.3896
[	-10.3896
poalisʉhla	-10.3896
▁maroapangʉhlʉvʉ	-10.3896
▁masongoli	-10.3896
▁你今天從哪裡來	-10.3896
予	-10.3896
壞掉了	-10.3896
月亮出來了	-10.3896
級	-10.3896
索	-10.3896
螢火蟲	-10.3896
▁pasakamoso	-10.3896
密	-10.3896
擠	-10.3896
橫	-10.3896
淡	-10.3896
糖	-10.3896
臼	-10.3896
解決	-10.3896
踢	-10.3896
kiatarari	-10.3896
▁aramasahli	-10.3896
▁makovao	-10.3896
▁takoapiaʉ	-10.3896
靜	-10.3896
▁alalamoroa	-10.3896
▁paritatʉpʉhl	-10.3896
孕	-10.3896
平地人	-10.3896
灶	-10.3896
▁maipapo	-10.3896
矮黑人	-10.3896
針	-10.3896
Uusu	-10.3896
▁tavangahla	-10.3896
▁我只是在	-10.3896
哪些	-10.3896
鼓勵	-10.3896
對不起	-10.3896
排灣族	-10.3896
會下雨	-10.3896
吊	-10.3896
看不起	-10.3896
▁makiahlohloa	-10.3896
▁malihlʉlʉhlʉ	-10.3896
故鄉	-10.3896
兇	-10.3896
貝殼	-10.3896
▁rahlooa	-10.3896
似	-10.3896
藉	-10.3896
那瑪夏	-10.3896
▁tatiahla	-10.3896
畢業	-10.3896
處罰	-10.3896
▁taroamacici	-10.3896
擔任	-10.3896
mitova	-10.3896
窗戶	-10.3896
權利	-10.3896
旅遊	-10.3896
arocarocakʉ	-10.3896
擾	-10.3896
增加	-10.3896
▁makatavahlihla	-10.3896
▁roapohlo	-10.3896
死亡	-10.3896
山蘇	-10.3896
kiakokoco	-10.3896
▁ngongoro	-10.3897
季節	-10.3897
▁piracaocao	-10.3897
▁很久以前	-10.3897
強壯	-10.3897
發展	-10.3897
減少	-10.3897
位置	-10.3897
公告	-10.3897
pakiapohlo	-10.3897
參與	-10.3897
▁pacani	-10.3897
爭取	-10.3897
通通	-10.3897
黃金	-10.3897
的頭髮很長	-10.3897
進倉祭	-10.3897
餐具	-10.3897
19	-10.3897
▁pararana	-10.3897
40	-10.3897
50	-10.3897
omavali	-10.3897
▁patʉpatʉkʉ	-10.3897
▁tavola	-10.3897
運動	-10.3898
Uoso	-10.3898
▁mavacoko	-10.3898
聚在一起	-10.3898
▁maiakaka	-10.3898
不見了	-10.3898
下雪	-10.3898
osomani	-10.3898
打架	-10.3898
▁matahlʉkʉtʉkʉ	-10.3898
進步	-10.3898
提醒	-10.3898
▁mangalai	-10.3898
相傳	-10.3898
屬於	-10.3898
▁moaliohlo	-10.3898
嚐新	-10.3898
本書	-10.3898
▁hlitakomia	-10.3898
papanara	-10.3899
▁vahlici	-10.3899
交換	-10.3899
整理	-10.3899
pacaca	-10.3899
守護神	-10.3899
▁mahlolangica	-10.3899
日本政府	-10.3899
▁直到	-10.3899
多久	-10.39
▁civokako	-10.39
▁kirakakoa	-10.39
之間	-10.39
通往	-10.39
美國	-10.3901
laloihl	-10.3901
▁maisokasʉ	-10.3901
滿滿	-10.3902
▁koiasa	-10.3902
▁siatamahlʉngʉ	-10.3902
少女	-10.3903
不知	-10.3903
▁pamaiatohlohlo	-10.3903
樹林	-10.3903
▁liohloisa	-10.3903
▁tahlamʉ	-10.3904
視為	-10.3904
公雞	-10.3904
生氣	-10.3904
lʉvʉngʉ	-10.3905
▁maritara	-10.3905
到台北	-10.3905
hlakorapa	-10.3905
▁talasa	-10.3906
斷掉	-10.3908
到河邊	-10.3908
進行	-10.3908
其中	-10.3908
▁makokoa	-10.3908
▁大家好	-10.3909
吃飽	-10.3909
sakasakavʉ	-10.391
分成	-10.391
據說	-10.391
▁siaocani	-10.3911
還需要	-10.3912
akolai	-10.3912
▁aramaini	-10.3913
omaracʉ	-10.3913
褲子	-10.3913
不論	-10.3913
之外	-10.3913
而已	-10.3914
paroaro	-10.3914
▁hlingoa	-10.3915
▁poliohlo	-10.3916
▁miaongo	-10.3916
快一點	-10.3916
▁ocanipihlingi	-10.3917
樹皮	-10.3917
煮飯	-10.3917
▁siasasangarʉ	-10.3918
hliasasangar	-10.3919
▁matisʉngʉ	-10.3919
ravʉkʉ	-10.3921
▁orohla	-10.3921
很硬	-10.3921
▁apoami	-10.3922
太太	-10.3922
有時候	-10.3925
這次	-10.3926
▁siliatʉnʉlʉ	-10.3926
並沒有	-10.3929
▁ilangicana	-10.3931
小朋友	-10.3938
他是老師	-10.3939
▁maronani	-10.394
族人們	-10.394
▁isikanako	-10.3944
▁somahli	-10.3948
▁hlivora	-10.395
liili	-10.3953
▁vahliongoisa	-10.3953
▁tavali	-10.3953
就像	-10.3954
▁paahlo	-10.3955
maimaini	-10.3957
romakoa	-10.3957
一群	-10.3958
lalʉvʉ	-10.3963
山頭	-10.3965
幫他	-10.3973
▁我今年	-10.3974
不熱	-10.3978
上方	-10.398
▁媽媽把	-10.3981
叫做	-10.3983
▁mamaci	-10.3984
aʉrʉkʉcʉ	-10.3984
tatap	-10.3987
不動	-10.3987
▁matikoro	-10.3989
家中	-10.3993
takiarʉ	-10.3994
都長	-10.3995
▁oasa	-10.3996
帶雨傘	-10.3997
裝在	-10.3998
分享給	-10.3999
▁Panina	-10.3999
▁miapihlihlina	-10.3999
▁rami	-10.4001
跑到	-10.4001
aiiaili	-10.4014
▁Taivangʉna	-10.4023
▁老師說	-10.4024
是指	-10.4027
過頭	-10.4028
▁aopatʉ	-10.403
▁takiiarʉna	-10.4035
ahloko	-10.4039
▁anii	-10.4039
▁pataco	-10.4049
patingahlangahla	-10.4052
我們為	-10.4055
對著	-10.4058
▁cocotahlanaisa	-10.4066
▁piti	-10.4073
一個小	-10.4073
▁kaamo	-10.4086
manani	-10.4092
tahlivoro	-10.4097
十五	-10.411
hlilʉmʉk	-10.4113
▁你叫	-10.4117
回家了	-10.413
都沒有	-10.4131
▁kokoco	-10.4138
可以出去玩	-10.4143
家在山上	-10.4144
的學生	-10.4145
還有很多	-10.4154
kicomia	-10.4162
▁komak	-10.4166
把竹子	-10.4169
給我們	-10.4172
部落的人	-10.4177
000	-10.418
▁likihlina	-10.4182
ahlici	-10.4188
其他的	-10.4189
▁varatʉna	-10.4192
借給	-10.4211
oalo	-10.4225
▁asapoco	-10.4227
▁tavahlihlana	-10.4229
以前的人	-10.4249
▁tahlanata	-10.4249
sahlʉ	-10.4271
如果你	-10.4278
▁mapohlina	-10.4289
hlova	-10.4294
天氣如何	-10.4322
我的腳	-10.4333
▁aonanaco	-10.4339
iaraco	-10.4343
我知道	-10.4358
asahlʉpʉ	-10.4443
特別的	-10.4449
們是原住民	-10.4461
不方便	-10.4486
裡有好多	-10.45
▁inaisana	-10.4507
lavoko	-10.4514
Caʉpʉ	-10.4529
▁saap	-10.4529
▁koapa	-10.4536
我們就	-10.4547
savongo	-10.4555
▁tala	-10.4555
lʉvʉ	-10.4567
lovoco	-10.4577
給你	-10.4602
Tamauhlu	-10.4604
tomoa	-10.4612
mʉlʉngʉsʉ	-10.4613
korarao	-10.4613
malangihlo	-10.4614
sakʉrahlʉ	-10.4616
▁litokana	-10.4618
ramoco	-10.4631
各種	-10.4632
oroca	-10.4685
都好	-10.4693
要離開	-10.4697
公車	-10.47
pingahla	-10.4721
▁kokiap	-10.4736
走過	-10.4764
kir	-10.4776
tokoto	-10.4795
aonana	-10.482
叫他	-10.4865
kococo	-10.487
hlava	-10.4882
高興的	-10.4898
hlimaroka	-10.4913
▁marahli	-10.4927
▁tavoana	-10.495
看過	-10.4991
tongo	-10.5068
們說	-10.5089
▁sas	-10.5093
talakiahlʉ	-10.5149
pasamanganʉ	-10.5187
十歲	-10.5219
去教會	-10.526
花園	-10.5272
年前	-10.5281
很久沒	-10.531
▁rahl	-10.5376
土裡	-10.538
kʉna	-10.538
lʉmʉka	-10.5414
▁mail	-10.5425
典	-10.5483
tahliso	-10.5489
▁hlimari	-10.5526
蓋起來	-10.5545
▁hlitako	-10.5551
久	-10.5562
夠	-10.5581
▁sipasaolaola	-10.5593
騎	-10.5602
siparʉ	-10.5651
▁tatai	-10.5676
山頂	-10.5688
▁sasaroa	-10.5691
rasʉ	-10.5705
幾個	-10.5708
工具	-10.5719
逃	-10.572
真正	-10.5727
tamotamo	-10.5732
半	-10.5748
但我	-10.5749
座	-10.5752
ngosipi	-10.5767
losapʉ	-10.5771
山坡	-10.5772
看電視	-10.5773
ʉnʉ	-10.5774
hlatʉra	-10.5776
sʉkʉca	-10.5777
矮	-10.5779
需	-10.5787
據	-10.5787
議	-10.5787
▁mavac	-10.5788
lasahlʉ	-10.5791
雙	-10.5791
▁cacal	-10.5791
lʉmʉkʉ	-10.5792
洗乾淨	-10.5794
源	-10.5794
asihlangʉ	-10.5795
今	-10.5796
飾	-10.5798
lʉpingico	-10.5798
官	-10.5799
太多了	-10.5799
醫	-10.5799
獲	-10.5799
腿	-10.5799
聊	-10.58
tomalʉlʉv	-10.58
鼠	-10.58
柴	-10.58
首	-10.5801
hlivihlivi	-10.5802
lʉvʉnga	-10.5802
治	-10.5802
導	-10.5802
乘	-10.5802
務	-10.5803
傘	-10.5803
習	-10.5803
尋	-10.5803
向原住民族道歉	-10.5803
持	-10.5804
婦	-10.5804
初	-10.5804
簍	-10.5804
▁paomamaini	-10.5804
示	-10.5804
繞	-10.5804
團	-10.5804
弟	-10.5804
姐	-10.5804
計	-10.5804
閉	-10.5804
象	-10.5804
溫	-10.5805
祝	-10.5805
貼	-10.5805
腳踏車	-10.5805
單	-10.5805
蜜	-10.5805
鳳	-10.5805
項	-10.5805
館	-10.5805
歩	-10.5805
I	-10.5805
胡	-10.5805
喜歡用左手的人	-10.5805
榮	-10.5805
沒關係	-10.5805
票	-10.5805
繡	-10.5805
介	-10.5805
付	-10.5805
砰	-10.5805
討	-10.5805
辣	-10.5805
境	-10.5805
茄	-10.5805
侵略	-10.5805
凹	-10.5805
奪	-10.5805
忍	-10.5805
戴著帽子	-10.5805
瓢	-10.5805
眾	-10.5805
腸	-10.5805
苗	-10.5805
棒	-10.5805
tosoro	-10.5805
兄弟姐妹	-10.5805
句	-10.5805
垮	-10.5805
富	-10.5805
斤	-10.5805
眼鏡蛇	-10.5805
鑽	-10.5805
Aomosikonga	-10.5805
Dahu	-10.5805
alasongoli	-10.5805
apalata	-10.5805
hlalohlaloso	-10.5805
hlasʉngʉsʉng	-10.5805
hlatarʉaʉ	-10.5805
maihlʉmʉhlʉmʉ	-10.5805
malicʉlicʉcʉ	-10.5805
omosahlico	-10.5805
palitatalalo	-10.5805
pamavahlaʉvaʉ	-10.5805
pitʉtʉra	-10.5805
riasangi	-10.5805
sipakatʉra	-10.5805
tarococovongo	-10.5805
tʉlʉlahlʉ	-10.5805
▁Daho	-10.5805
▁Vanaona	-10.5805
▁ahlakahlamara	-10.5805
▁alokacalai	-10.5805
▁aranganico	-10.5805
▁aropapoaliohlo	-10.5805
▁caʉpʉ	-10.5805
▁inipaninao	-10.5805
▁kamicico	-10.5805
▁koarovarovana	-10.5805
▁koasasangarʉ	-10.5805
▁kongokongo	-10.5805
▁lʉmʉhlana	-10.5805
▁masavaʉ	-10.5805
▁ngsa	-10.5805
▁romariringi	-10.5805
▁sasaovohlo	-10.5805
▁sipakakarikari	-10.5805
▁tahliiariia	-10.5805
▁tahlooro	-10.5805
▁taripaohlo	-10.5805
▁tiapili	-10.5805
▁vavarara	-10.5805
▁vosiakʉ	-10.5805
▁ʉngi	-10.5805
▁你有幾隻	-10.5805
俊	-10.5805
傻	-10.5805
剁	-10.5805
吃早餐	-10.5805
吻蝦虎	-10.5805
我忘了帶	-10.5805
澀	-10.5805
真是太棒了	-10.5805
舂	-10.5805
蹲	-10.5805
雷	-10.5805
marahlivohlivo	-10.5805
▁hlaparangʉ	-10.5805
▁hlikitarari	-10.5805
▁pakoatoa	-10.5805
▁pamahlatʉra	-10.5805
▁taravasʉ	-10.5805
▁tomatangora	-10.5805
▁vitonga	-10.5805
檢查	-10.5805
saliamiapihlihli	-10.5805
vangʉhlarʉ	-10.5805
▁Sapolo	-10.5805
▁koavacoko	-10.5805
▁laʉlaʉvi	-10.5805
▁我的孫子	-10.5805
握	-10.5805
晒	-10.5805
沾	-10.5805
的器具	-10.5805
膿	-10.5805
蓮	-10.5805
護身符	-10.5805
趁	-10.5805
奮	-10.5805
灑	-10.5805
hlahloahloso	-10.5805
▁aropakakari	-10.5805
協助	-10.5805
投	-10.5805
挑	-10.5805
杵	-10.5805
詢	-10.5805
谷	-10.5805
▁tangʉtia	-10.5805
不斷地	-10.5805
串	-10.5805
籠	-10.5805
陸	-10.5805
▁vokori	-10.5805
獨角仙	-10.5805
賣完了	-10.5805
▁hlamasia	-10.5805
▁mitaro	-10.5805
插	-10.5805
▁taroihla	-10.5805
matahlisao	-10.5805
▁ʉrangʉ	-10.5805
倉庫	-10.5805
辣椒	-10.5805
障	-10.5805
討厭	-10.5805
賞	-10.5805
▁apoaroma	-10.5805
也穿上	-10.5805
卑南族	-10.5805
purikuru	-10.5805
▁mitahloaari	-10.5805
▁poponga	-10.5805
僅	-10.5805
勇猛神	-10.5805
感覺	-10.5805
權益	-10.5805
獎	-10.5805
用左手	-10.5805
尺	-10.5805
有下雨	-10.5805
沒有辦法	-10.5805
謝謝您的	-10.5805
距	-10.5805
聚會所	-10.5805
肯	-10.5805
▁atorotoro	-10.5805
丈夫	-10.5805
陪伴	-10.5805
積極	-10.5805
陽光	-10.5805
▁hliopang	-10.5805
商店	-10.5805
俄國	-10.5805
卡蒂烏莎	-10.5805
miahlaʉrʉ	-10.5805
▁tilongocohlai	-10.5805
閃電	-10.5805
▁atʉatʉhlʉnga	-10.5805
賽夏族	-10.5805
我的名字叫	-10.5805
鐵絲	-10.5805
▁maorohla	-10.5805
▁siatatar	-10.5805
pihlacʉ	-10.5805
▁tavohlo	-10.5805
考試	-10.5805
呼吸	-10.5805
賺錢	-10.5805
足夠	-10.5805
tarʉana	-10.5805
害羞	-10.5805
的由來	-10.5805
計算	-10.5805
刷牙	-10.5805
有禮貌	-10.5805
混合	-10.5805
▁poalaʉvʉ	-10.5806
▁那個女孩子喜歡	-10.5806
長尾鳥	-10.5806
▁salapoana	-10.5806
▁piatamo	-10.5806
地區	-10.5806
捲起來	-10.5806
▁arataico	-10.5806
材料	-10.5806
▁hlomanʉ	-10.5806
▁makarimikimi	-10.5806
▁marivakʉsʉ	-10.5806
▁alʉngʉ	-10.5806
擔心	-10.5806
▁hlikaraioro	-10.5806
昨天去山上	-10.5806
舌頭	-10.5806
跟我說	-10.5806
▁hliomosahlʉ	-10.5806
▁alaali	-10.5806
制度	-10.5806
鹽巴	-10.5806
▁hlimasarapongo	-10.5806
注意	-10.5806
不好意思	-10.5806
祖父祖母	-10.5806
▁tomatimahla	-10.5806
▁tapakia	-10.5806
iaakaaka	-10.5806
遷居	-10.5806
congocongohlo	-10.5806
▁aramoamoarʉ	-10.5806
相聚	-10.5806
發芽	-10.5806
樹幹	-10.5806
周邊	-10.5806
100	-10.5806
最終	-10.5806
▁hloongo	-10.5806
被迫	-10.5806
治病	-10.5806
男士	-10.5806
綁緊	-10.5806
這件事	-10.5807
石灰	-10.5807
▁hliasasa	-10.5807
遲到了	-10.5807
takʉmʉnʉ	-10.5807
步蛇	-10.5807
透過	-10.5807
▁vʉki	-10.5807
▁comacohlo	-10.5807
有一處	-10.5807
深夜	-10.5807
loasangalʉ	-10.5807
承受	-10.5808
外套	-10.5808
▁patapoahlana	-10.5808
tahlongohlongo	-10.5808
裂開	-10.5808
那隻狗	-10.5808
講故事	-10.5808
木瓜	-10.5808
▁小布	-10.5808
ucu	-10.5808
▁macaalai	-10.5808
屋內	-10.5808
力量	-10.5808
腰帶	-10.5808
隨便	-10.5809
塞住	-10.5809
真相	-10.5809
訪問	-10.5809
▁malilimo	-10.5809
直接	-10.5809
▁paʉcʉng	-10.5809
▁paomamainiaʉ	-10.581
水缸	-10.581
蓋房子	-10.581
可怕	-10.581
▁aratavohlio	-10.581
頭飾	-10.581
聊天	-10.581
青菜	-10.581
前門	-10.581
曬乾	-10.581
製成	-10.581
▁hliohli	-10.5811
▁mailʉngʉsʉ	-10.5811
同意	-10.5811
▁oavora	-10.5811
parokocoa	-10.5812
兩隻	-10.5812
12	-10.5812
那隻	-10.5812
▁matarʉngʉrʉ	-10.5812
▁pasaʉrʉkʉcʉ	-10.5813
曬太陽	-10.5813
它們	-10.5813
▁paranganʉ	-10.5813
麻線	-10.5813
架子	-10.5813
▁pitaʉhlʉkai	-10.5813
▁這隻	-10.5814
▁tapiaili	-10.5814
個性	-10.5814
再次	-10.5814
回到部落	-10.5814
大家穿著	-10.5814
一顆	-10.5815
小島	-10.5815
▁raima	-10.5815
▁以前老人家	-10.5815
不願意	-10.5815
viaaro	-10.5815
碰到	-10.5816
ialakop	-10.5817
存放	-10.5817
很矮	-10.5817
▁sipasa	-10.5818
製做	-10.5819
後代	-10.5819
▁vori	-10.5819
▁takoalangʉlangʉ	-10.5819
洗手	-10.5819
paisasavosavoanʉ	-10.582
很簡單	-10.582
是拉阿魯哇族的	-10.582
認為	-10.5821
最近	-10.5821
樹葉	-10.5821
sipamia	-10.5821
valaisa	-10.5822
發燒	-10.5822
▁koavacangʉ	-10.5822
下次	-10.5822
取名	-10.5822
石家	-10.5822
杯子	-10.5823
很慢	-10.5823
我家的	-10.5824
往前	-10.5825
袋子	-10.5826
一共	-10.5826
▁marapici	-10.5827
很甜	-10.5828
利用	-10.5829
方法	-10.583
山藥	-10.583
這位	-10.583
arohliaona	-10.583
最高	-10.583
有一個妹妹	-10.583
▁你幾歲	-10.5831
▁tasʉkʉca	-10.5832
日本人	-10.5833
▁oroahlʉ	-10.5833
▁vara	-10.5833
分開	-10.5834
pahlaʉ	-10.5834
地球	-10.5835
▁poailisalia	-10.5835
在海邊	-10.5835
poamahlʉngʉ	-10.5835
▁masarʉ	-10.5835
我們的祖先	-10.5838
場地	-10.5839
很髒	-10.5841
▁我早上	-10.5842
一起住	-10.5842
▁ahlʉaʉ	-10.5843
等等	-10.5843
哭著	-10.5844
▁Ciapocaina	-10.5845
▁paongoa	-10.5846
tapihlana	-10.5847
接著	-10.5853
ongohloisa	-10.5853
litoporo	-10.5855
▁comao	-10.5856
大學	-10.5858
▁mahlʉkʉ	-10.5859
▁isikanaisa	-10.5861
▁caacaal	-10.5863
▁roamiaco	-10.5865
要把它	-10.5865
好像在	-10.5866
▁hlamairahlo	-10.5867
▁tavaro	-10.5867
美好	-10.5868
傳統文化	-10.5868
▁maomana	-10.5869
▁saparongahlaco	-10.5872
冷了	-10.5872
▁現在是	-10.5874
ahlonga	-10.5875
有芋頭	-10.5878
alʉkʉlʉkʉ	-10.5878
超過了	-10.5881
pingi	-10.5885
心情	-10.5885
▁patama	-10.5886
▁cocoosomanʉ	-10.5888
▁tamaohlona	-10.5888
之地	-10.5889
趕走	-10.5891
iapio	-10.5892
真正的	-10.5893
的工具	-10.5893
▁mipolatico	-10.5893
▁cocotahlanata	-10.5902
▁kalʉvʉngana	-10.5902
把飯	-10.5905
為什麼要	-10.5906
你要買	-10.5918
回到了	-10.5926
maraiiahlʉ	-10.5933
▁siacalai	-10.5935
田裡的	-10.5939
我最喜歡	-10.5949
是啊	-10.5955
▁paari	-10.5955
▁pahlomi	-10.5956
很少	-10.597
▁miang	-10.5973
manik	-10.5974
▁sʉsʉsʉngʉa	-10.5975
▁mahlipi	-10.5975
▁我今天	-10.5981
▁viarona	-10.599
上山	-10.599
▁moti	-10.6
會不會	-10.6002
▁ahlahlainana	-10.6005
riasʉ	-10.6006
我的眼睛	-10.6007
騎車	-10.6012
好久	-10.6017
▁vaak	-10.6027
masaihlaco	-10.6046
▁當我	-10.6048
▁tapohl	-10.6069
hai	-10.6098
me	-10.6098
▁maaki	-10.6119
偷吃	-10.6169
oroko	-10.6183
parahlivo	-10.6185
ngio	-10.6207
popoco	-10.6216
koatʉkʉra	-10.6218
miatongosona	-10.6248
▁tokohlolona	-10.625
irahlo	-10.6257
▁moalikap	-10.6271
▁apikaongana	-10.6278
lovoi	-10.6282
幾點鐘	-10.6294
這兩	-10.6312
▁anʉisa	-10.6327
我們所	-10.6358
ikakoana	-10.6358
masihla	-10.6371
talʉlʉva	-10.6386
的花園	-10.6389
在睡覺	-10.639
喜歡吃	-10.64
▁takohlona	-10.6408
酒醉	-10.6412
幾年	-10.6415
roavi	-10.6435
一個月	-10.6486
topi	-10.6621
族人也	-10.6644
要擦	-10.6646
sit	-10.6664
真好	-10.6666
▁我不要	-10.6669
▁molal	-10.6723
rais	-10.682
lamoro	-10.6838
▁今天天氣	-10.6899
komita	-10.6954
pakiatoro	-10.6961
talicia	-10.6961
tavʉhlʉvʉhlʉ	-10.6961
posiamʉ	-10.6964
viaro	-10.6972
hlimiongo	-10.6976
lolonga	-10.6979
mʉcʉkʉhlʉ	-10.6982
cocotahlana	-10.699
▁hlamar	-10.6992
▁hlitamahlʉng	-10.6996
lʉlʉ	-10.6997
▁paki	-10.7
mahlokoa	-10.7008
tarisia	-10.7042
我很喜歡	-10.7078
那個人	-10.7091
rianʉ	-10.7093
▁paahlivingana	-10.7156
第一個	-10.7166
▁romi	-10.7174
▁那個孩子	-10.7177
▁hlimil	-10.7216
lavaico	-10.7279
方便	-10.7338
▁alohli	-10.7344
hlʉpʉ	-10.7376
前往	-10.7404
的雨傘	-10.7435
roto	-10.7475
要去哪	-10.7476
比特幣	-10.7502
hlitarikicangihl	-10.7541
risi	-10.7573
用鐵	-10.7574
點鐘睡覺	-10.758
kito	-10.7601
hlangi	-10.7645
那就	-10.765
▁siaiiap	-10.7651
paitʉahlʉ	-10.7675
河裡	-10.7677
▁poria	-10.7698
rotoro	-10.7727
avang	-10.7738
▁mahlavaki	-10.7748
▁早期	-10.7769
ʉkʉtʉ	-10.7817
布農族	-10.7838
樟樹	-10.7852
asarʉmʉ	-10.7855
langʉkia	-10.7878
請給我	-10.792
們的家	-10.7937
▁lioso	-10.794
▁mʉrʉ	-10.7943
▁tarat	-10.7948
刻	-10.7951
ovonga	-10.7955
paopa	-10.7956
polatʉ	-10.8006
akini	-10.801
端	-10.8012
▁mahlotaisa	-10.8035
siacalaia	-10.8036
會死	-10.8041
▁riani	-10.805
要努力	-10.8056
遇	-10.8058
氏家族	-10.8062
lʉkʉlʉk	-10.8075
takahlangʉ	-10.8078
意思	-10.8081
種植物	-10.8085
▁cocovana	-10.8104
我們今天要去	-10.8108
tisʉngʉ	-10.8108
一層	-10.8111
intavang	-10.8121
ngʉtʉhl	-10.8124
▁hliahlomia	-10.8132
▁laʉlaʉvʉ	-10.8133
tʉahlico	-10.8134
volahl	-10.8143
懂	-10.8149
顆	-10.815
碰	-10.815
台北	-10.8152
天天看電視	-10.8154
▁tiara	-10.8154
aomangʉ	-10.8155
avilao	-10.8155
班	-10.8156
roatahla	-10.8156
vʉtʉraʉ	-10.8159
隔	-10.8161
一個妹妹	-10.8161
腰	-10.8161
衣物	-10.8162
自然	-10.8162
aromokoako	-10.8162
裂	-10.8162
vaʉlico	-10.8162
父	-10.8162
造	-10.8163
差	-10.8163
遲	-10.8164
材	-10.8164
科	-10.8164
決	-10.8164
士	-10.8164
思	-10.8164
爭	-10.8164
妻	-10.8164
釀	-10.8164
liliongo	-10.8164
芽	-10.8164
周	-10.8164
藍	-10.8164
題	-10.8164
助	-10.8164
告	-10.8164
充	-10.8165
脫	-10.8165
確	-10.8165
豐	-10.8165
建	-10.8165
否	-10.8165
權	-10.8165
們昨天去	-10.8165
氏	-10.8165
調	-10.8165
尾	-10.8165
讚	-10.8165
識	-10.8165
▁masakʉ	-10.8165
域	-10.8165
穀	-10.8165
抗	-10.8165
pihlihli	-10.8165
史	-10.8165
妹	-10.8166
備	-10.8166
含	-10.8166
絲	-10.8166
判	-10.8166
姊妹	-10.8166
招	-10.8166
繫	-10.8166
簡	-10.8166
醫療	-10.8166
維	-10.8166
北斗七星	-10.8166
乎	-10.8166
克	-10.8166
年期約	-10.8166
怒	-10.8166
綠綠的	-10.8166
浮	-10.8166
蔥	-10.8166
謠	-10.8166
限制	-10.8166
▁爸爸要去	-10.8166
列	-10.8166
菸	-10.8166
嗨	-10.8166
散	-10.8166
白頭翁	-10.8166
第一名	-10.8166
老師問大家	-10.8166
舊遺址	-10.8166
cakici	-10.8166
嫩	-10.8166
Rʉhlʉcʉ	-10.8166
勸	-10.8166
我的爸爸是	-10.8166
搓	-10.8166
斜	-10.8166
晴	-10.8166
hloroania	-10.8166
kolalongo	-10.8166
taroacocovongo	-10.8166
▁Sinciangʉ	-10.8166
▁hlitopanara	-10.8166
▁makitʉlʉrʉ	-10.8166
▁sapisapia	-10.8166
▁tarorapʉ	-10.8166
▁大約要	-10.8166
▁我昨天	-10.8166
▁那些男孩子正在	-10.8166
▁雖然不一定可靠	-10.8166
旱	-10.8166
腫	-10.8166
Amiroko	-10.8166
Hlatingai	-10.8166
alokavilao	-10.8166
arivovoa	-10.8166
asongolo	-10.8166
atarongaahl	-10.8166
inguru	-10.8166
isʉngʉrʉ	-10.8166
kavolohlo	-10.8166
kopatarʉkʉhla	-10.8166
makoahlahlaloa	-10.8166
pakitorohlipimia	-10.8166
paoahlahlaina	-10.8166
sapʉngʉ	-10.8166
taroacocovongana	-10.8166
tʉrʉtʉrʉ	-10.8166
▁acacacihli	-10.8166
▁atainini	-10.8166
▁comongohlo	-10.8166
▁hlakʉsaiiana	-10.8166
▁hlaovohlana	-10.8166
▁hlatiorana	-10.8166
▁hliaposiri	-10.8166
▁hlimihlimilavai	-10.8166
▁hlimilavaona	-10.8166
▁hlipalavalʉ	-10.8166
▁hlipivivila	-10.8166
▁hliʉrʉcʉkaisa	-10.8166
▁inalotatapihli	-10.8166
▁kopalavalʉ	-10.8166
▁kopamasavaʉ	-10.8166
▁kotipatipa	-10.8166
▁maiirangʉ	-10.8166
▁mairaroroma	-10.8166
▁mamiararoma	-10.8166
▁marikimiahlʉ	-10.8166
▁marisʉmʉtʉ	-10.8166
▁motovilao	-10.8166
▁ngiiao	-10.8166
▁omaroasapahlʉ	-10.8166
▁pakatipitipi	-10.8166
▁paocipan	-10.8166
▁papacʉcʉpʉngʉ	-10.8166
▁paroavici	-10.8166
▁pasamamanganʉ	-10.8166
▁pataramoarʉ	-10.8166
▁patoarʉmʉrʉmʉ	-10.8166
▁pitʉtʉrico	-10.8166
▁samʉsamʉ	-10.8166
▁sialʉngʉngʉ	-10.8166
▁siangosipa	-10.8166
▁sitahliasolo	-10.8166
▁tahliapʉta	-10.8166
▁tainiini	-10.8166
▁tomahlisoa	-10.8166
▁tomahlisolo	-10.8166
▁tʉmʉlʉlahlʉ	-10.8166
▁ʉrosʉna	-10.8166
但是通常是很靈	-10.8166
加密貨幣	-10.8166
原民會	-10.8166
圈	-10.8166
夏天時	-10.8166
嶺	-10.8166
序	-10.8166
很營養	-10.8166
徵	-10.8166
捏	-10.8166
摔	-10.8166
擋	-10.8166
新冠病毒	-10.8166
是誰教你的	-10.8166
核	-10.8166
測	-10.8166
獻	-10.8166
癢	-10.8166
目的地	-10.8166
私	-10.8166
笨	-10.8166
缺	-10.8166
舔	-10.8166
藤心湯	-10.8166
途	-10.8166
這張桌子很重	-10.8166
那些孩子在玩耍	-10.8166
鑽木取火	-10.8166
阻	-10.8166
霉	-10.8166
風雨神	-10.8166
hlisohlata	-10.8166
lapalapangʉ	-10.8166
matatotosoro	-10.8166
patavʉhlʉrʉ	-10.8166
sʉkʉlʉ	-10.8166
▁hlilimiki	-10.8166
▁koacʉkʉhlʉ	-10.8166
▁makovaao	-10.8166
▁maohlaohlang	-10.8166
▁miatalʉvʉngʉ	-10.8166
▁oatapihli	-10.8166
▁omalilʉpʉngʉ	-10.8166
▁osomano	-10.8166
▁romaposo	-10.8166
▁savangʉana	-10.8166
▁tahliavʉla	-10.8166
▁tangosohlo	-10.8166
▁你從哪裡來	-10.8166
脹	-10.8166
voovola	-10.8166
▁maliamococo	-10.8166
▁talavavalʉ	-10.8166
包粽子	-10.8166
敲	-10.8166
築巢	-10.8166
肚子餓了	-10.8166
舖	-10.8166
菇	-10.8166
蛀	-10.8166
蝨	-10.8166
螫	-10.8166
託	-10.8166
謊	-10.8166
青竹絲	-10.8166
高中村	-10.8166
sampolo	-10.8166
sirisiri	-10.8166
▁Ahlii	-10.8166
▁asohlata	-10.8166
▁pakacalai	-10.8166
▁你們家有幾個	-10.8166
現在是夏天	-10.8166
▁maropangʉhlʉvʉ	-10.8166
▁omalovo	-10.8166
▁以前老人的腳	-10.8166
▁如果傍晚時聽見青蛙叫	-10.8166
乳	-10.8166
墓	-10.8166
微	-10.8166
拳	-10.8166
撒	-10.8166
施	-10.8166
流血了	-10.8166
燻	-10.8166
被山豬挖	-10.8166
診	-10.8166
vovola	-10.8166
▁kiaʉlʉsʉ	-10.8166
▁patakoarianʉ	-10.8166
冰箱	-10.8166
晨	-10.8166
痊	-10.8166
鉤	-10.8166
sihlangico	-10.8166
▁Ingoro	-10.8166
▁hliarovongoa	-10.8166
▁salasapoarʉna	-10.8166
▁kikiari	-10.8166
下過雨	-10.8166
們常常去探望祖父	-10.8166
喚	-10.8166
狀元神	-10.8166
石斑魚	-10.8166
研	-10.8166
窄	-10.8166
聰明神	-10.8166
高中里	-10.8166
▁posipiapohlo	-10.8166
建築	-10.8166
稀	-10.8166
崩	-10.8166
廣	-10.8166
掌	-10.8166
松鼠	-10.8166
混濁	-10.8166
pasicamai	-10.8166
tomalolovo	-10.8166
▁hliatavo	-10.8166
▁omarihlahlapʉtʉ	-10.8166
▁vakatʉ	-10.8166
▁他看見了	-10.8166
akisʉmʉr	-10.8166
rarasakara	-10.8166
到我的槍口	-10.8166
勇士	-10.8166
答應	-10.8166
驅懶神	-10.8166
▁那個人是我的	-10.8166
余	-10.8166
誠	-10.8166
大型的	-10.8166
每一年	-10.8166
Aocoo	-10.8166
avahlʉvahlʉ	-10.8166
府	-10.8166
禱告	-10.8166
tovarʉ	-10.8166
優秀的	-10.8166
在都市	-10.8166
歸	-10.8166
薪資	-10.8166
軍隊	-10.8166
荖濃	-10.8166
tarosia	-10.8166
toarʉrʉ	-10.8166
天黑了	-10.8166
▁caipo	-10.8166
▁刮颱風	-10.8166
一整天	-10.8166
asilaʉ	-10.8166
▁mosoaraovo	-10.8166
又大又	-10.8166
嘗試	-10.8166
響起	-10.8166
膝蓋	-10.8166
在石頭上	-10.8166
sipoamia	-10.8166
回娘家	-10.8166
小凱正在和	-10.8166
思考	-10.8166
lipilipi	-10.8166
一下子就	-10.8166
tamahlimahlisarʉ	-10.8166
▁risakʉ	-10.8166
asaʉlahlʉ	-10.8166
俄羅斯	-10.8166
參觀	-10.8166
影響	-10.8166
sipatakoa	-10.8166
▁maliatʉnʉlʉ	-10.8166
▁tahloki	-10.8166
很有力量	-10.8166
肺炎	-10.8166
防止	-10.8166
▁maramacomaco	-10.8166
騎腳踏車	-10.8166
▁siaiapʉ	-10.8166
▁vanau	-10.8166
降低	-10.8166
總共	-10.8166
ponoso	-10.8166
▁apatisangal	-10.8166
那間房子很大	-10.8166
近年來	-10.8166
包紮	-10.8166
隔壁	-10.8166
hliarimia	-10.8166
起了大	-10.8166
▁lohloa	-10.8167
北方	-10.8167
我來畫	-10.8167
▁moamoamoarʉ	-10.8167
雅美族	-10.8167
▁maliiahlʉ	-10.8167
▁takaakaa	-10.8167
根據	-10.8167
排隊	-10.8167
按照	-10.8167
印象	-10.8167
2019	-10.8167
明顯	-10.8167
alaliamʉ	-10.8167
▁mangʉsa	-10.8167
▁ʉtʉvʉ	-10.8167
調味	-10.8167
多年的	-10.8167
▁omororo	-10.8167
他的名字是	-10.8167
海洋	-10.8167
總理	-10.8167
▁omacʉkamatata	-10.8167
立刻	-10.8167
▁lomalili	-10.8167
▁paakiao	-10.8167
團結	-10.8167
vahliri	-10.8167
支持	-10.8167
的妻子	-10.8167
疼愛	-10.8167
的機會	-10.8167
最喜歡吃	-10.8167
服飾	-10.8167
▁moroapohlo	-10.8167
takatakacicihli	-10.8167
正義	-10.8167
paotomaco	-10.8167
▁marihlamasʉ	-10.8167
▁makʉngʉcʉ	-10.8167
捕捉	-10.8167
koritʉahlʉ	-10.8167
充滿	-10.8167
是圓的	-10.8167
在當時	-10.8168
岩石	-10.8168
▁omaramahlʉ	-10.8168
的重要	-10.8168
花朵	-10.8168
祭師	-10.8168
▁taroatʉahlʉ	-10.8168
旅行	-10.8168
hliparahlia	-10.8168
摸摸	-10.8168
保存	-10.8168
飯盒	-10.8168
弄濕	-10.8168
▁komali	-10.8168
修理	-10.8168
▁mʉlʉmʉlʉmʉ	-10.8168
▁posipi	-10.8168
兩顆	-10.8168
科學	-10.8168
▁hlipasasapo	-10.8168
paotatoro	-10.8168
自治	-10.8168
limaʉ	-10.8168
▁這個小孩有幾個	-10.8168
輕鬆	-10.8168
▁miatatarʉ	-10.8168
▁ahlaamakiariari	-10.8169
marikava	-10.8169
一棵樹	-10.8169
背籃	-10.8169
留在家裡	-10.8169
lapai	-10.8169
▁ʉrʉkʉhlʉ	-10.8169
事務	-10.8169
新鮮	-10.8169
收集	-10.8169
某物	-10.8169
右邊	-10.8169
很久很久以	-10.8169
kiramia	-10.8169
部門	-10.8169
期待	-10.8169
染色	-10.817
▁mʉrʉhlʉ	-10.817
交代	-10.817
避難	-10.817
▁makaroro	-10.817
tapasina	-10.817
▁poaliohlo	-10.817
看見一隻	-10.817
基因	-10.817
各位	-10.817
處理	-10.817
15	-10.817
▁moroamita	-10.817
作業	-10.8171
我們拉阿魯哇族的	-10.8171
野生動物	-10.8171
拍手	-10.8171
國內	-10.8171
▁sipamiaisa	-10.8171
▁takoliilio	-10.8171
信仰	-10.8171
carʉm	-10.8171
挖芋頭	-10.8171
各國	-10.8171
▁lavahli	-10.8171
發達	-10.8172
▁korivooro	-10.8172
▁patimahla	-10.8172
喝醉	-10.8172
完全	-10.8172
▁hlimatikoro	-10.8172
▁momoamoarʉ	-10.8172
勤勞神	-10.8172
暖和	-10.8172
▁civokaisa	-10.8172
▁talahlʉ	-10.8172
稻米	-10.8172
古拉	-10.8172
物品	-10.8172
約定	-10.8172
男女	-10.8172
maramisaini	-10.8172
假裝	-10.8172
居住此地	-10.8172
▁miasasa	-10.8173
哪一個	-10.8173
▁aravacangico	-10.8173
▁oalava	-10.8173
沙子	-10.8173
櫃子	-10.8173
篩子	-10.8173
▁akoaini	-10.8173
ʉvʉngʉ	-10.8173
pirasavongo	-10.8173
ivavacavacangʉ	-10.8173
耕種	-10.8173
mamaso	-10.8173
▁mipolatʉ	-10.8173
汗水	-10.8173
各社	-10.8173
鬆掉	-10.8173
▁mosoara	-10.8174
神靈	-10.8174
▁amiamisana	-10.8174
▁koanganʉ	-10.8174
是用來裝	-10.8174
在學校裡	-10.8174
▁mararamoco	-10.8174
公平	-10.8174
patakoaili	-10.8174
的地瓜在哪裡	-10.8174
中間	-10.8174
原因	-10.8174
大自然	-10.8174
發明	-10.8175
▁aposala	-10.8175
假日	-10.8175
嘴巴像	-10.8175
moriparana	-10.8175
▁hlimoro	-10.8175
生氣地	-10.8175
丟掉	-10.8175
偷偷	-10.8176
相當	-10.8176
▁ihlakia	-10.8176
身邊	-10.8176
傷害	-10.8176
▁apolavaʉ	-10.8176
偷取	-10.8176
令人	-10.8176
paravahlaʉvaʉ	-10.8176
▁cocoisanana	-10.8177
更加	-10.8177
▁moricoco	-10.8177
盒子	-10.8177
的說法	-10.8177
▁amahlʉna	-10.8177
藏起來	-10.8177
非常漂亮	-10.8177
▁paracahlia	-10.8178
▁他是你的	-10.8178
數學	-10.8178
▁takiarʉna	-10.8178
收成	-10.8178
反而	-10.8178
有各式各樣的	-10.8178
過世	-10.8178
意外	-10.8178
後門	-10.8178
▁omaopangʉ	-10.8178
山林	-10.8178
acʉvʉ	-10.8178
當地人	-10.8179
火車	-10.8179
紅紅	-10.8179
Ar	-10.8179
▁koori	-10.8179
改成	-10.8179
▁misao	-10.8179
▁omaoaoa	-10.8179
說母語	-10.8179
ngiora	-10.818
▁comohlo	-10.818
很方便	-10.818
手指	-10.818
水源	-10.818
▁ʉahl	-10.818
▁taiacoami	-10.818
妳們	-10.818
▁marʉmʉ	-10.818
▁pakikia	-10.818
雞肉	-10.8181
hlʉpʉngʉ	-10.8181
一雙	-10.8181
但還是	-10.8181
祭歌	-10.8181
重新	-10.8182
▁masiamʉ	-10.8182
做什麼工作	-10.8182
退去	-10.8182
狩獵神	-10.8182
▁maravaro	-10.8182
然而	-10.8182
一個洞	-10.8183
長大後	-10.8183
▁mairangiko	-10.8183
骨頭	-10.8184
vail	-10.8184
▁likihlisalia	-10.8184
▁tatavahlihlana	-10.8184
▁hlipasamanganʉ	-10.8184
▁mariakoan	-10.8185
游家	-10.8185
▁sapimaco	-10.8185
住在部落	-10.8185
hlitamahlʉnga	-10.8185
去田裡	-10.8185
有一對	-10.8186
▁我最喜歡吃	-10.8187
▁panaina	-10.8188
山洞	-10.8188
地形	-10.8188
▁takoavacangʉ	-10.8188
tiaramo	-10.8189
▁miposi	-10.8189
聞到	-10.8189
種類	-10.8189
▁pakiao	-10.819
一步	-10.819
溪流	-10.8191
死後	-10.8191
▁kavilanganʉ	-10.8192
▁masʉrʉpʉ	-10.8192
這支	-10.8192
▁koakita	-10.8192
▁那個小孩	-10.8192
覺得很	-10.8192
▁mahlipihlipi	-10.8193
寶來	-10.8194
上游	-10.8195
▁mavav	-10.8195
很臭	-10.8195
裙子	-10.8197
▁hlipari	-10.8197
不冷	-10.8198
isisisa	-10.8198
▁這個小孩	-10.8199
一根	-10.82
▁hliomohli	-10.82
▁hliahlomiaisa	-10.8201
▁takolangʉlangʉ	-10.8202
燒火	-10.8202
arahlas	-10.8203
過河	-10.8203
戴著	-10.8203
打包	-10.8204
可以用來	-10.8205
地面	-10.8206
▁hlitoma	-10.8206
有三種	-10.8207
▁ngosoko	-10.8207
難得	-10.8207
面對	-10.8208
tapu	-10.8209
問媽媽	-10.8209
走向	-10.821
▁patohlohlo	-10.8211
▁vanao	-10.8211
在地上	-10.8212
海水	-10.8213
▁我喜歡吃	-10.8215
山坡上	-10.8215
一代	-10.8215
▁sinvo	-10.8216
捉到	-10.8216
Piacʉ	-10.8218
▁masiahlʉ	-10.8218
很壞	-10.8219
▁siangosipisa	-10.8219
我們趕快	-10.822
因為以前	-10.822
acaalai	-10.8223
壞人	-10.8224
alosangalʉ	-10.8224
三天	-10.8224
一片	-10.8225
vaʉahl	-10.8225
以為	-10.8227
▁tarari	-10.8228
告訴我們	-10.8229
用石頭	-10.8231
水面	-10.8231
▁maratata	-10.8232
來裝	-10.8235
遭到	-10.8236
他是我	-10.8238
層平台	-10.8239
tohlohl	-10.8242
帶著雨傘	-10.8247
▁akohlamo	-10.8249
▁cocotan	-10.8255
iarʉcʉ	-10.8264
moasacoako	-10.8271
澡	-10.8278
▁talako	-10.829
事物	-10.8291
iacikiri	-10.8319
頂端	-10.8323
我們全家都	-10.8323
送人	-10.8326
risis	-10.8328
▁mahlip	-10.8334
oroamita	-10.8358
rioro	-10.8358
tapisi	-10.8364
ihlicolangica	-10.8371
paramaso	-10.8382
liosoisa	-10.8404
▁siasohlati	-10.8405
網路	-10.8412
曾住	-10.8453
▁雖然他	-10.8467
hlomahl	-10.8472
很瘦	-10.848
lavalava	-10.8481
因此命名	-10.8551
▁miaʉrʉkʉhl	-10.8558
sipiamiaisa	-10.8559
patakahlangʉ	-10.8562
maramaco	-10.8563
把碗	-10.858
karitahla	-10.8587
taongalana	-10.8587
angʉp	-10.8606
▁oroami	-10.8616
軍人	-10.8629
rikiacangihlina	-10.865
maroaroisana	-10.8667
▁marahlopoco	-10.8671
▁tahlak	-10.8721
tapaio	-10.8749
▁romar	-10.8765
臉上	-10.8848
▁miatat	-10.8856
motatongoso	-10.8859
個比特幣	-10.8877
ikarʉna	-10.8918
天氣怎麼樣	-10.8919
misain	-10.8934
▁parip	-10.8983
talʉhlʉ	-10.9013
要前往	-10.9019
學校讀書	-10.9037
家裡來	-10.9058
maroamiako	-10.9066
每天都很	-10.9183
akirisi	-10.9195
angalʉ	-10.9266
是星期日	-10.9267
riatʉkʉ	-10.9299
▁paratahlʉkʉtʉk	-10.9305
▁taraki	-10.9309
takopihlina	-10.9317
在田裡	-10.932
▁maiv	-10.9361
在森林裡	-10.9384
rʉkʉrʉ	-10.9403
liliongana	-10.941
在水裡	-10.941
masala	-10.9451
▁toahl	-10.9507
飛過	-10.9518
快走開	-10.9564
一起玩	-10.9568
▁poali	-10.9618
toalangic	-10.9635
▁hlipati	-10.9646
▁arok	-10.9671
paitat	-10.9791
▁posos	-10.9798
omaoo	-10.9799
tarikicangihlina	-10.9836
tavahlihla	-10.9889
▁koiat	-10.9893
▁今天是星期	-10.9929
caalʉna	-10.9963
vina	-10.9965
很久沒有	-10.9977
nim	-10.9984
molala	-11.001
tararianʉ	-11.002
sarapongo	-11.0025
matata	-11.004
taʉhlʉkai	-11.0043
angahlahlana	-11.0049
rʉhlʉcʉ	-11.0058
akiti	-11.0064
vaciki	-11.0064
hlitakʉ	-11.0067
maiatohlohlo	-11.007
mamisa	-11.0071
savoanʉ	-11.0072
moromita	-11.0076
hlamama	-11.0076
masoki	-11.0077
vahlita	-11.0079
romahlaʉ	-11.008
kohlaisai	-11.0082
cocovovolonga	-11.0086
omiapʉ	-11.0094
arinani	-11.0094
▁somas	-11.0102
▁aosiiki	-11.0204
▁moangahl	-11.021
arapihl	-11.0319
▁motatongos	-11.0394
園裡有	-11.0402
▁kila	-11.0404
patʉahla	-11.043
看得到	-11.0442
祖靈	-11.0562
aniki	-11.0596
▁aiiai	-11.0608
▁tapao	-11.0612
▁aosikan	-11.0621
軍	-11.0664
200	-11.0694
▁poat	-11.0737
命名為	-11.076
遮	-11.0785
▁taongala	-11.0791
▁sipar	-11.0826
聲音	-11.0916
caliva	-11.0919
T	-11.0928
sohlatiko	-11.0944
vahl	-11.096
最深	-11.0986
▁tohlo	-11.0987
我踩到	-11.1
saroana	-11.1013
ataata	-11.1025
aihlisa	-11.1035
raiiahlʉ	-11.1044
我們全家	-11.1052
tamahlʉnga	-11.1084
▁hlipato	-11.1107
鄧	-11.1118
ataisan	-11.1127
lʉmʉlʉm	-11.1152
快樂王子	-11.1156
平台	-11.1162
家鄉	-11.1179
cʉngʉhlʉ	-11.1193
▁Ciapocai	-11.1193
riataisa	-11.1195
▁ikatomahla	-11.1196
▁Tamaohlo	-11.1196
lʉsaita	-11.1196
我很想念	-11.1197
asasangarʉa	-11.1205
▁mʉcʉkʉhl	-11.1213
▁tim	-11.1213
▁siasasangar	-11.1216
▁vahlito	-11.1219
▁talovaʉl	-11.1222
甕	-11.1223
tolohlo	-11.1224
sʉrʉpʉ	-11.1226
總	-11.1227
▁omaosahl	-11.1228
hlipihlipi	-11.1229
漢	-11.1238
ratonga	-11.1239
架	-11.1242
知	-11.1242
天氣很熱	-11.1244
盒	-11.1245
願意	-11.1246
我們家有	-11.1247
令	-11.1247
肚	-11.1247
慢走	-11.1247
母語	-11.1248
▁祖先住	-11.125
唯	-11.125
汗	-11.1251
▁乾脆	-11.1251
候	-11.1253
taloavaʉla	-11.1254
▁marisangi	-11.1254
rʉngʉrʉng	-11.1255
ohlaisai	-11.1255
sʉʉsʉma	-11.1255
tamalʉngal	-11.1256
糕	-11.1257
隊	-11.1257
師	-11.1257
終	-11.1257
kiʉlʉs	-11.1257
▁matarʉngʉ	-11.1257
棄	-11.1257
▁Hlakʉsai	-11.1257
amangamanga	-11.1258
臂	-11.1258
旅	-11.1258
星期幾	-11.1258
迷	-11.1258
倉	-11.1259
輪	-11.1259
ahlangolo	-11.1259
poalangʉlangʉa	-11.1259
麵	-11.1259
▁這個小孩有幾	-11.1259
maopatʉhl	-11.1259
減	-11.1259
龜	-11.1259
渣	-11.1259
注	-11.1259
鼓	-11.1259
尊	-11.126
願	-11.126
展	-11.126
煩	-11.126
義	-11.126
己	-11.126
呼	-11.126
淚	-11.126
亡	-11.126
止	-11.126
洋	-11.126
冒	-11.126
混	-11.126
顯	-11.126
vʉngʉlai	-11.126
刷	-11.126
打工者	-11.126
增	-11.126
續	-11.1261
詐騙集團	-11.1261
庫	-11.1261
窗	-11.1261
▁lopihli	-11.1261
▁taloava	-11.1261
互	-11.1261
降	-11.1261
閃	-11.1261
店	-11.1261
統統	-11.1261
資	-11.1261
偏	-11.1261
須	-11.1261
勢	-11.1261
練	-11.1261
laʉvʉ	-11.1261
外國人	-11.1261
鎖	-11.1261
媽	-11.1261
移	-11.1261
碳	-11.1261
諾	-11.1261
荷蘭人	-11.1261
擺	-11.1261
融	-11.1261
志	-11.1261
感到非常驕傲	-11.1261
皆	-11.1261
禱	-11.1261
羅	-11.1261
限	-11.1261
高麗菜	-11.1261
腦	-11.1261
摺	-11.1261
斯	-11.1261
總統	-11.1261
釀的酒	-11.1261
室	-11.1261
亞	-11.1261
協調	-11.1261
喜歡用右手的人	-11.1261
武	-11.1261
詞	-11.1261
益	-11.1261
複雜	-11.1261
驅	-11.1261
魔	-11.1261
kikirim	-11.1261
calʉhlakurapa	-11.1261
▁部落裡舉辦祭典	-11.1261
▁高中大肚關	-11.1261
世世代代	-11.1261
儘	-11.1261
勝	-11.1261
吼	-11.1261
媒	-11.1261
敗	-11.1261
池塘裡	-11.1261
泣	-11.1261
的後代長得跟	-11.1261
省	-11.1261
衝突	-11.1261
這群人	-11.1261
廢	-11.1261
懇	-11.1261
筍	-11.1261
臺	-11.1261
驪	-11.1261
肺	-11.1261
雜	-11.1261
▁我們部落有竹屋	-11.1261
不會忘記	-11.1261
不耐煩	-11.1261
中國政府	-11.1261
卡車司機	-11.1261
坦	-11.1261
宿	-11.1261
櫸	-11.1261
的工作機會	-11.1261
赴	-11.1261
邪	-11.1261
閉上眼睛	-11.1261
鬧	-11.1261
樓	-11.1261
陪	-11.1261
▁現在是幾點	-11.1261
勉	-11.1261
智	-11.1261
▁從早上到晚上	-11.1261
▁那裡有商店	-11.1261
剖	-11.1261
勁	-11.1261
在東方	-11.1261
布農語	-11.1261
把糖果	-11.1261
拾	-11.1261
揉	-11.1261
有二種	-11.1261
瘡	-11.1261
盆	-11.1261
看誰先	-11.1261
美隴社	-11.1261
莖	-11.1261
錶	-11.1261
麻糬是用	-11.1261
去看病	-11.1261
抽	-11.1261
胎	-11.1261
palopalo	-11.1261
tahlitahliahlʉ	-11.1261
tʉʉtʉrʉ	-11.1261
vʉhlʉvʉhlʉrʉ	-11.1261
▁maraiiaiiahlʉ	-11.1261
▁moalilikihli	-11.1261
▁romokoroko	-11.1261
▁takoliacicoka	-11.1261
▁vatovalacoko	-11.1261
▁那些孩子喜歡玩耍	-11.1261
▁那個男孩子正在	-11.1261
劃	-11.1261
十塊錢	-11.1261
土石流	-11.1261
在潮濕	-11.1261
很誠實	-11.1261
抬	-11.1261
桐	-11.1261
的衣服是白色的	-11.1261
礙	-11.1261
紅嘴鳥	-11.1261
臥	-11.1261
要記得把	-11.1261
鈎	-11.1261
銅	-11.1261
額	-11.1261
)	-11.1261
Inguru	-11.1261
acangʉrahla	-11.1261
amiroko	-11.1261
ararasongo	-11.1261
cakʉarʉ	-11.1261
d	-11.1261
iavavaratʉ	-11.1261
koalingipasʉ	-11.1261
mahlatora	-11.1261
mamalikisasʉ	-11.1261
mangihlala	-11.1261
marisasasangihli	-11.1261
pakaritʉkʉhlaisa	-11.1261
pakoringʉtʉhlʉ	-11.1261
pangili	-11.1261
paocaciri	-11.1261
pariavotokohlo	-11.1261
poalisʉhlʉ	-11.1261
riavakʉsʉ	-11.1261
roasapasapa	-11.1261
sangiao	-11.1261
sapaipohlipohlia	-11.1261
siaropapoaliohlo	-11.1261
siroasalasapoarʉ	-11.1261
tʉsʉkʉ	-11.1261
▁Hʉngʉcon	-11.1261
▁Kolana	-11.1261
▁Liroicangʉ	-11.1261
▁PISSA	-11.1261
▁Sbalay	-11.1261
▁Tilimana	-11.1261
▁Uhan	-11.1261
▁aramahlingico	-11.1261
▁aropatakʉcʉ	-11.1261
▁carokacoka	-11.1261
▁hlangohlangovi	-11.1261
▁hlavolangʉ	-11.1261
▁hlikihlahlamo	-11.1261
▁hlikʉlʉcʉhla	-11.1261
▁hlimiaʉlʉsʉ	-11.1261
▁hlimʉtʉngaʉ	-11.1261
▁kiaariari	-11.1261
▁kiahlahlahlamo	-11.1261
▁kitʉravahlita	-11.1261
▁koakoaromoko	-11.1261
▁koaroiraʉ	-11.1261
▁komakolici	-11.1261
▁kotahlamʉ	-11.1261
▁likisi	-11.1261
▁mahlicongo	-11.1261
▁maiatoatohlohlo	-11.1261
▁maivoasʉ	-11.1261
▁makohlakohla	-11.1261
▁malakʉvʉ	-11.1261
▁malalovihli	-11.1261
▁malipapalakʉ	-11.1261
▁miararangohlo	-11.1261
▁moaʉngʉngʉcʉ	-11.1261
▁molovalakʉ	-11.1261
▁mʉʉmʉa	-11.1261
▁oapapapalo	-11.1261
▁ohlamarʉ	-11.1261
▁omangʉrarʉ	-11.1261
▁omarapipici	-11.1261
▁opapapalo	-11.1261
▁pakamʉtʉmʉta	-11.1261
▁paosasaliri	-11.1261
▁papakalavongo	-11.1261
▁papalaoako	-11.1261
▁papatahlakʉ	-11.1261
▁parivotokohlo	-11.1261
▁pasiakʉkʉngʉcʉ	-11.1261
▁patavilan	-11.1261
▁patoporo	-11.1261
▁patʉrʉmʉrʉmʉ	-11.1261
▁pitalotolo	-11.1261
▁pocarakʉ	-11.1261
▁rʉrʉpʉ	-11.1261
▁sakilaiia	-11.1261
▁siriacacani	-11.1261
▁siriakava	-11.1261
▁takongokongo	-11.1261
▁takotahlamʉ	-11.1261
▁tangaricora	-11.1261
▁tomatatangi	-11.1261
▁vanariko	-11.1261
▁當然是	-11.1261
▁竹屋是我們乘涼	-11.1261
▁要養成每天洗澡的	-11.1261
▁那些女孩子喜歡	-11.1261
一個接一個	-11.1261
你要不要吃	-11.1261
凸	-11.1261
咬人貓	-11.1261
啟	-11.1261
善良農夫	-11.1261
嗣	-11.1261
大部分	-11.1261
好可惜	-11.1261
姓	-11.1261
師徒制	-11.1261
從上面掉下來	-11.1261
患	-11.1261
惱	-11.1261
我們一個接一個走出	-11.1261
我有一個姊姊	-11.1261
振	-11.1261
挺	-11.1261
掘	-11.1261
撒奇萊雅族	-11.1261
撕	-11.1261
攪	-11.1261
是冬天的	-11.1261
是我們祖先發明的樂器	-11.1261
暴	-11.1261
有什麼特	-11.1261
有芭樂	-11.1261
木檞蘭	-11.1261
杖	-11.1261
殘	-11.1261
毛毛雨	-11.1261
沒有取得	-11.1261
波	-11.1261
洽	-11.1261
湖	-11.1261
漆	-11.1261
漩	-11.1261
烏鴉的衣服	-11.1261
爍	-11.1261
珠	-11.1261
甜甜的	-11.1261
生殖器	-11.1261
白鼻心	-11.1261
石洞裡	-11.1261
碩	-11.1261
秘	-11.1261
竊	-11.1261
紛	-11.1261
經濟作物	-11.1261
耶	-11.1261
職	-11.1261
聽得懂	-11.1261
胞	-11.1261
腎	-11.1261
跛	-11.1261
跨	-11.1261
軟軟的	-11.1261
辦公室	-11.1261
這句話的意思是	-11.1261
這場戰爭	-11.1261
這是我種的	-11.1261
那天會下雨	-11.1261
鈍	-11.1261
銳	-11.1261
鋸	-11.1261
頂帽子	-11.1261
頰	-11.1261
餌	-11.1261
arimahlʉnga	-11.1261
hlavorohlao	-11.1261
koarasongo	-11.1261
kʉpʉlʉ	-11.1261
pakarangatʉ	-11.1261
sipacʉcʉpʉngʉ	-11.1261
taisingi	-11.1261
vokovoko	-11.1261
▁hlicavocavo	-11.1261
▁maipapohlipohli	-11.1261
▁miavavacangʉ	-11.1261
▁ngatihli	-11.1261
▁omaiaiapʉ	-11.1261
▁roromano	-11.1261
▁siiaracahliia	-11.1261
▁voraohlona	-11.1261
威	-11.1261
孔	-11.1261
對長輩要	-11.1261
很適合	-11.1261
成兩半	-11.1261
斧頭用來	-11.1261
有一隻畫眉鳥	-11.1261
箕	-11.1261
腐	-11.1261
膽	-11.1261
paraiaiahla	-11.1261
▁airiki	-11.1261
▁apahlipihla	-11.1261
▁hliavava	-11.1261
▁konoto	-11.1261
▁pitilihli	-11.1261
▁sipiatʉtʉrʉ	-11.1261
兄姊	-11.1261
ahlingihlingi	-11.1261
curu	-11.1261
kuru	-11.1261
pipalisia	-11.1261
▁takʉlʉpʉngʉ	-11.1261
▁我要買兩	-11.1261
世襲制	-11.1261
乃	-11.1261
你們有賣	-11.1261
做家事	-11.1261
占	-11.1261
外來者	-11.1261
孤	-11.1261
小關山	-11.1261
忘記帶	-11.1261
我來找你	-11.1261
扁扁的	-11.1261
拐	-11.1261
用力地	-11.1261
痰	-11.1261
細細的	-11.1261
罪	-11.1261
聯	-11.1261
茂	-11.1261
蟬	-11.1261
觸犯禁忌	-11.1261
騰	-11.1261
鵝	-11.1261
aporoohlo	-11.1261
▁macimicalivi	-11.1261
▁palavalʉ	-11.1261
▁takoasʉlʉ	-11.1261
▁tavavoso	-11.1261
▁一個禮拜有	-11.1261
▁紅色的書是	-11.1261
下課了	-11.1261
只剩下	-11.1261
太久了	-11.1261
寒	-11.1261
排剪山	-11.1261
會說拉阿魯哇語	-11.1261
月一日	-11.1261
每年舉辦	-11.1261
礎	-11.1261
美壠社的	-11.1261
臺北	-11.1261
▁karaiaoro	-11.1261
▁mairaahlo	-11.1261
▁paanola	-11.1261
▁paapohla	-11.1261
▁parivaratʉnai	-11.1261
▁tavohlinga	-11.1261
彩虹出來了	-11.1261
ungiu	-11.1261
▁hliopana	-11.1261
▁omahlʉahlʉ	-11.1261
▁pingiramoco	-11.1261
▁poocarak	-11.1261
▁他們跟著青蛙來到了	-11.1261
▁你放學	-11.1261
▁那些孩子	-11.1261
一種藤類	-11.1261
乾脆把	-11.1261
五節芒	-11.1261
去取火	-11.1261
叮	-11.1261
娶	-11.1261
尋求幫助	-11.1261
年青人	-11.1261
所以吃的食物要	-11.1261
散播	-11.1261
斗	-11.1261
最珍惜的	-11.1261
朗	-11.1261
楠	-11.1261
樑	-11.1261
歲時祭儀	-11.1261
深山的畫眉鳥	-11.1261
漸漸	-11.1261
爬上去	-11.1261
番石榴	-11.1261
的功能	-11.1261
睜	-11.1261
空心菜	-11.1261
第三次	-11.1261
系	-11.1261
翹	-11.1261
薏	-11.1261
要好好照顧	-11.1261
要提早	-11.1261
跪	-11.1261
逐漸	-11.1261
際	-11.1261
雨季了	-11.1261
預	-11.1261
▁laihlaopito	-11.1261
去看醫生	-11.1261
天亮了	-11.1261
金線蓮	-11.1261
pakovao	-11.1261
▁hlahlahlamama	-11.1261
▁hlamici	-11.1261
▁maimamaco	-11.1261
▁tiposa	-11.1261
asaliisii	-11.1261
comahlomo	-11.1261
patocici	-11.1261
takitasohlatʉ	-11.1261
▁matapoahli	-11.1261
▁最想寫信給	-11.1261
呆	-11.1261
囉	-11.1261
弓和箭	-11.1261
態	-11.1261
我還要再	-11.1261
每個人都	-11.1261
決策	-11.1261
疏	-11.1261
美壟社	-11.1261
臨	-11.1261
還活著	-11.1261
飄	-11.1261
▁taiialʉ	-11.1261
小嬰兒	-11.1261
漂浮	-11.1261
▁tamaingoro	-11.1261
媳婦	-11.1261
跟朋友去	-11.1261
tangvar	-11.1261
一堆堆	-11.1261
亂七八糟	-11.1261
人們的生活變得	-11.1261
分別是	-11.1261
划	-11.1261
創	-11.1261
去拜訪	-11.1261
塔臘社	-11.1261
幸	-11.1261
很聰明	-11.1261
快樂王子拜託燕子	-11.1261
怪	-11.1261
愛漂亮的女孩	-11.1261
我帶你去	-11.1261
柔	-11.1261
機器狗	-11.1261
派	-11.1261
淫	-11.1261
爆	-11.1261
爪	-11.1261
爸爸和媽媽	-11.1261
的融合	-11.1261
罩	-11.1261
老人會拿	-11.1261
藍寶石	-11.1261
虎頭蜂	-11.1261
貢	-11.1261
返	-11.1261
tamatamatavohlio	-11.1261
▁kalala	-11.1261
▁sipakiao	-11.1261
▁takoaahlama	-11.1261
不客氣	-11.1261
濃	-11.1261
耳環	-11.1261
hlipaomamainiana	-11.1261
▁你等一下要	-11.1261
▁導致	-11.1261
托	-11.1261
撐	-11.1261
的精神	-11.1261
耙	-11.1261
閒	-11.1261
▁maricʉka	-11.1261
▁pahlacani	-11.1261
▁siaramangʉ	-11.1261
我今天從	-11.1261
淹	-11.1261
ngʉrʉhla	-11.1261
一頭牛	-11.1261
今天的午餐	-11.1261
保佑	-11.1261
到月亮上	-11.1261
攻擊	-11.1261
時時刻刻	-11.1261
睡不著	-11.1261
背上有	-11.1261
青蛙在吃	-11.1261
▁papiani	-11.1261
溝通	-11.1261
衝	-11.1261
▁2021	-11.1261
大家一起來	-11.1261
這把刀	-11.1261
培	-11.1261
拿來煮	-11.1261
街	-11.1261
還好沒有	-11.1261
還小的時候	-11.1261
▁maivavʉ	-11.1261
▁omaiiapo	-11.1261
番	-11.1261
─	-11.1262
▁hlipatʉahlʉisa	-11.1262
▁pakaataʉhlʉkai	-11.1262
延續	-11.1262
恩	-11.1262
觀察	-11.1262
靈魂	-11.1262
飛行員	-11.1262
▁maramaso	-11.1262
▁moaomoma	-11.1262
▁vanarʉ	-11.1262
直直的	-11.1262
cahlomani	-11.1262
魚的嘴巴	-11.1262
omahliakoa	-11.1262
roci	-11.1262
▁maiiaoro	-11.1262
▁我問他	-11.1262
一方面	-11.1262
城市	-11.1262
種的植物	-11.1262
▁marasaico	-11.1262
高高的	-11.1262
▁hlikitapos	-11.1262
持續	-11.1262
黑黑的	-11.1262
raʉraʉ	-11.1262
▁somavongo	-11.1262
彎曲	-11.1262
我還要買	-11.1262
▁patahliʉngʉc	-11.1262
交易所	-11.1262
維繫	-11.1262
聲響	-11.1262
麵粉	-11.1262
命令	-11.1262
尾端	-11.1262
▁lomili	-11.1262
▁mocaca	-11.1262
▁mahlivingi	-11.1262
▁sioamia	-11.1262
▁somamoso	-11.1262
amosola	-11.1262
atatavangʉ	-11.1262
▁hlomahlavo	-11.1262
▁malivilao	-11.1262
塗黑	-11.1262
欺騙	-11.1262
現在沒有人	-11.1262
▁mohliso	-11.1262
masamasaihl	-11.1262
地統統種	-11.1262
把家裡打掃	-11.1262
豬舍	-11.1262
siriavahlitokona	-11.1262
▁comapa	-11.1262
搖擺	-11.1262
統治	-11.1262
武漢	-11.1262
餅乾	-11.1262
vahlitoro	-11.1262
vihlio	-11.1262
種的菜	-11.1262
尤其	-11.1262
來看你	-11.1262
▁mavavʉhlʉ	-11.1262
▁tatapihli	-11.1262
▁vʉrʉkaʉ	-11.1262
夜鷹	-11.1262
雉雞	-11.1262
保持	-11.1262
▁cacap	-11.1262
hlitomalʉlʉvʉ	-11.1262
▁ovakoco	-11.1262
lipingico	-11.1262
通知	-11.1262
長長的	-11.1262
強勢	-11.1262
房屋	-11.1262
的高度	-11.1262
▁maticani	-11.1262
▁sipatakoacahlia	-11.1262
▁makʉmʉtʉ	-11.1262
▁paongʉngʉcʉ	-11.1262
不停的	-11.1262
指揮	-11.1262
▁二十二	-11.1262
▁hlimotongoso	-11.1262
穀粒	-11.1262
反抗	-11.1262
曾看過	-11.1262
lokolo	-11.1262
遭受	-11.1262
飛翔	-11.1262
rarahla	-11.1262
▁koatʉatʉhlʉng	-11.1262
咒語	-11.1262
指甲	-11.1262
看不到	-11.1262
Taahlʉna	-11.1262
▁siaroka	-11.1262
夫妻	-11.1262
網袋	-11.1262
avaavao	-11.1262
▁媽媽要我	-11.1262
農耕	-11.1262
arasihlangʉ	-11.1262
飼養	-11.1262
疫情	-11.1262
皮膚	-11.1262
▁talovaili	-11.1262
▁此山區	-11.1262
平埔族群	-11.1262
pakisosoahlai	-11.1262
▁movavi	-11.1262
高雄市	-11.1262
▁sikoami	-11.1262
後悔	-11.1262
建立	-11.1263
搬運	-11.1263
amasahli	-11.1263
soosoko	-11.1263
▁tomatatapaʉ	-11.1263
▁patasilakaco	-11.1263
海裡的動物	-11.1263
第三天	-11.1263
▁hlimolavaʉ	-11.1263
tʉahlio	-11.1263
初次	-11.1263
魚叉	-11.1263
很會射箭	-11.1263
音樂	-11.1263
半夜	-11.1263
▁paiapʉ	-11.1263
saparokakoa	-11.1263
射箭	-11.1263
小小的	-11.1263
圍繞	-11.1263
▁地震的時候	-11.1263
目標	-11.1263
▁paioan	-11.1263
不斷的	-11.1263
前輩	-11.1263
▁hlimongahlʉ	-11.1263
燃燒	-11.1263
稱讚	-11.1263
尊重	-11.1263
惡靈	-11.1263
竹簍	-11.1263
▁hlitomamahlʉngʉ	-11.1263
▁tokalasʉkasʉ	-11.1263
綁腿	-11.1263
我教你	-11.1263
空間	-11.1263
確定	-11.1263
眼淚	-11.1263
鼓動	-11.1263
西瓜	-11.1263
▁komakali	-11.1263
▁vongʉka	-11.1263
搶救	-11.1263
▁sapahlio	-11.1263
▁sipakini	-11.1263
脫落	-11.1263
▁ariapoco	-11.1263
酒渣	-11.1263
遺失	-11.1263
▁saapara	-11.1263
矮人的方式	-11.1263
碰面	-11.1263
麵包	-11.1263
的行為	-11.1263
▁makihlohlo	-11.1263
▁hlitakovacangʉ	-11.1263
追捕	-11.1263
▁miacaciacihli	-11.1263
第一天	-11.1263
iacʉcʉngʉhlʉ	-11.1264
▁siriakoco	-11.1264
roangʉtʉhlʉisa	-11.1264
長輩	-11.1264
召開	-11.1264
射擊	-11.1264
maisasokasʉ	-11.1264
生薑	-11.1264
迷路	-11.1264
▁moalʉvʉ	-11.1264
▁hlikʉ	-11.1264
工友	-11.1264
saliria	-11.1264
korokoro	-11.1264
緊張	-11.1264
sahlangʉ	-11.1264
互相幫助	-11.1264
輪流	-11.1264
臭味	-11.1264
全世界	-11.1264
吃完飯要	-11.1264
繼續看另	-11.1264
兒童	-11.1264
limahlico	-11.1264
▁mavarʉvarʉ	-11.1264
▁mahloahloasʉ	-11.1264
水溝	-11.1264
raovo	-11.1264
▁latipi	-11.1264
記錄	-11.1264
▁sipaoraraisa	-11.1264
共處	-11.1264
▁kimatata	-11.1264
木薯	-11.1264
收割	-11.1265
造成	-11.1265
醫學	-11.1265
三顆	-11.1265
▁tangkapatʉ	-11.1265
搭船	-11.1265
▁hlimatas	-11.1265
povahli	-11.1265
手臂	-11.1265
請你幫	-11.1265
asaihla	-11.1265
▁poatoso	-11.1265
剛出生	-11.1265
sikoraraona	-11.1265
回應	-11.1265
差一點	-11.1265
▁tasahlʉpʉ	-11.1265
▁我們家的	-11.1265
▁takalʉ	-11.1265
▁moarahloa	-11.1265
存活	-11.1265
▁全家	-11.1265
▁hliatʉhlʉnga	-11.1265
幾個月	-11.1265
▁那個女人有幾	-11.1265
舉行一次	-11.1265
正在洗臉	-11.1265
▁laʉvʉisa	-11.1265
乘坐	-11.1265
兩旁	-11.1265
根香蕉	-11.1265
教官	-11.1265
拍照	-11.1265
相同	-11.1265
古代	-11.1265
耕作	-11.1266
apoasala	-11.1266
比較低	-11.1266
▁這個地區	-11.1266
tʉpʉhlʉ	-11.1266
▁hliomʉc	-11.1266
尤家	-11.1266
根部	-11.1266
▁moropahlaʉ	-11.1266
▁ʉahlico	-11.1266
▁家裡面	-11.1266
每次	-11.1266
▁komata	-11.1266
雙方	-11.1266
tinalo	-11.1266
▁maitʉahlico	-11.1266
突然出現	-11.1266
pocopoco	-11.1266
三本書	-11.1266
14	-11.1267
睡醒	-11.1267
paramangʉ	-11.1267
▁romaringai	-11.1267
管理	-11.1267
料理	-11.1267
舊社	-11.1267
lopihlingoso	-11.1267
們很高興	-11.1267
小平台	-11.1267
▁siapao	-11.1267
數量	-11.1267
左邊	-11.1267
柴火	-11.1267
▁sʉʉsʉmaco	-11.1267
▁miahlivihlivi	-11.1267
善於	-11.1267
海拔的	-11.1267
戰場	-11.1267
獵槍	-11.1267
▁opana	-11.1267
otokapʉ	-11.1267
▁taamohlo	-11.1267
數字	-11.1267
戴項鍊	-11.1267
皮衣	-11.1267
相關	-11.1267
全球	-11.1268
兩兄弟	-11.1268
首長	-11.1268
長官	-11.1268
回到家裡	-11.1268
錯藥	-11.1268
最重要的	-11.1268
是日語	-11.1268
颱風來了	-11.1268
▁apahloko	-11.1268
或許	-11.1268
沒問題	-11.1268
天天讀書	-11.1268
領取	-11.1268
▁kopivahlitoko	-11.1268
同住在	-11.1269
▁你的釣	-11.1269
miamʉtʉmʉtʉ	-11.1269
▁kopaloa	-11.1269
母雞	-11.1269
▁我的腿	-11.127
其它	-11.127
lioko	-11.127
▁omariataisa	-11.127
灰色	-11.127
灰心	-11.127
法器	-11.127
價錢	-11.127
▁mitalo	-11.127
▁hlipamia	-11.127
祭典儀式	-11.127
今天是星期幾	-11.127
▁carʉmʉ	-11.127
風很大	-11.127
▁paratarʉng	-11.127
結果實	-11.127
豬油	-11.127
覺得自己	-11.1271
變形	-11.1271
見面	-11.1271
hlimosala	-11.1271
金錢	-11.1271
乾脆買	-11.1271
住院	-11.1271
▁tarahlai	-11.1271
要多喝	-11.1271
sisihlangʉ	-11.1272
九十	-11.1272
起泡	-11.1272
▁toavʉ	-11.1272
▁roapa	-11.1272
唱歌跳舞	-11.1272
死者	-11.1272
推動	-11.1272
▁mailangicana	-11.1272
▁祭典時	-11.1273
▁langoi	-11.1273
形成	-11.1273
氣球	-11.1273
心理	-11.1273
竹雞	-11.1273
mahlolʉpingico	-11.1273
沒有人知道	-11.1274
▁komacoisa	-11.1274
▁piratomohlo	-11.1274
▁大雨	-11.1274
takoliac	-11.1274
飯鍋	-11.1274
▁hlitoroa	-11.1274
▁pakapici	-11.1274
▁kisasoa	-11.1275
▁minis	-11.1275
意指	-11.1276
四處	-11.1276
▁pasasapo	-11.1276
產生	-11.1276
大粒的	-11.1276
ihlicotakoliacʉ	-11.1277
ilipingi	-11.1277
六點	-11.1277
milalaoco	-11.1278
▁moatʉahlʉ	-11.1278
▁讓他們	-11.1278
▁kopakita	-11.1278
aropatalʉlʉvʉ	-11.1278
今天天氣很熱	-11.128
這地區	-11.128
acomoko	-11.128
▁omiap	-11.128
事都要	-11.1281
hliomara	-11.1281
Uata	-11.1282
otatongos	-11.1282
tapoahlʉ	-11.1283
祖先住過	-11.1283
koacapa	-11.1283
pooto	-11.1284
▁romakoco	-11.1284
araratonga	-11.1284
▁hliaropakari	-11.1287
poaiaili	-11.1288
▁aano	-11.1289
▁saaromi	-11.129
apilisi	-11.1291
aoorohla	-11.1293
patakomahlʉngʉ	-11.1293
riatisʉngʉ	-11.1293
會漏水	-11.1294
有一個孩子	-11.1295
▁iatovan	-11.1295
最好的	-11.1297
那座山	-11.1297
ivici	-11.1299
甕裡	-11.13
▁稍等	-11.1301
pativaroa	-11.1301
走的路	-11.1303
一年之	-11.1303
不要浪費	-11.1306
taicio	-11.1306
▁aroamimiaisa	-11.1308
▁pataroak	-11.131
你的筆	-11.1313
angalai	-11.1314
喜歡畫圖	-11.1321
vohlavo	-11.1323
▁ʉrʉhla	-11.1326
很想念祖母	-11.1328
lapingi	-11.1329
喜歡看電視	-11.133
▁kaaio	-11.1334
▁aracicico	-11.1339
vaavo	-11.134
toaiaili	-11.1341
裡沒有水	-11.1342
karasahl	-11.1346
那位	-11.1348
▁ʉkʉtʉna	-11.1352
saparo	-11.136
pasalʉpʉngʉ	-11.1365
喜歡秋天	-11.1368
▁ngang	-11.1372
▁sasahli	-11.1373
▁aihlivor	-11.1378
piakasʉkasʉ	-11.1378
parikiatongosana	-11.1383
aropati	-11.1393
ikingi	-11.1401
逃走	-11.1405
▁她是你	-11.1408
▁matap	-11.1413
mamacikia	-11.1428
抓了一	-11.1439
ʉmʉtʉ	-11.148
聽了很	-11.1482
pimanganʉ	-11.1503
們會在	-11.1544
深刻	-11.156
ʉngana	-11.1597
▁romais	-11.1635
一隻小狗	-11.169
們天天來這裡吃晚餐	-11.1728
還給	-11.1757
遮蓋	-11.1762
hlolʉpʉngico	-11.1766
城裡	-11.1788
vangana	-11.1798
▁tomapohl	-11.1847
sipangʉhlʉvana	-11.1887
▁aocaocanitahla	-11.1895
hlipialalang	-11.1896
▁toat	-11.1899
riavahlitoko	-11.1924
▁koatavohli	-11.1946
sʉʉl	-11.207
maihlivoro	-11.2116
▁tomakahlang	-11.2125
otoapohlo	-11.2145
是哪一	-11.216
▁hlitar	-11.2174
hlipatʉahl	-11.2175
masaliana	-11.2185
italoailipi	-11.227
pailalʉngʉsa	-11.2285
langahla	-11.2296
tʉhlʉngaco	-11.2457
▁omaal	-11.2533
▁hlialolir	-11.2542
alikoc	-11.2593
被風吹	-11.2732
孩子喜歡畫圖	-11.2795
▁pasalangʉlang	-11.2796
takohlohla	-11.2858
▁patakʉsʉl	-11.2875
arakaka	-11.3273
lalima	-11.3449
sihlangʉa	-11.3469
▁inici	-11.3525
車站	-11.3525
生長在水	-11.3549
▁ariat	-11.3657
takʉsʉlʉ	-11.3663
▁tomohlok	-11.3736
風吹到	-11.382
aramahlʉng	-11.3822
的貓是黑色的	-11.402
tamangamanga	-11.4069
ahlamis	-11.426
▁talʉlʉv	-11.4262
▁apasamangan	-11.4321
▁paahliving	-11.4357
目前只	-11.4414
▁italoailip	-11.4483
palongana	-11.4553
hlihlala	-11.4558
osoanganai	-11.4563
talovaʉlʉ	-11.4565
volaihli	-11.4566
apaihlipihla	-11.4569
pasaolaola	-11.457
taorongo	-11.4571
hloohlongo	-11.4572
tomimahla	-11.4575
tamooco	-11.4575
mapoahlʉ	-11.4575
pakiiatoroa	-11.4576
omiiapʉ	-11.4577
maromoko	-11.4581
rovongo	-11.4615
marapihli	-11.4624
kiira	-11.4629
iaʉrʉkʉhlʉ	-11.4979
lʉpʉngico	-11.5019
又高又	-11.5169
alalangico	-11.525
miararomata	-11.5259
些	-11.5268
sʉsʉsʉngʉ	-11.5317
siriako	-11.5374
maripoco	-11.5379
▁mahlisar	-11.5418
cikiri	-11.5426
▁你會唱	-11.5433
itoahlahlam	-11.5485
sitakoami	-11.556
olalavaʉka	-11.5572
micʉngʉ	-11.5574
我沒帶	-11.5596
遭	-11.5611
kʉrahlʉtaongala	-11.5637
paratahlʉkʉtʉka	-11.5641
acapacapang	-11.565
maisasavosavoan	-11.5685
amiatan	-11.5689
▁pariavarat	-11.5692
arohliao	-11.5694
▁mataingal	-11.5714
sakasakav	-11.5716
▁mʉlʉngʉs	-11.5717
▁miaʉlʉs	-11.5718
pangʉhlʉva	-11.5718
▁mapoahl	-11.5721
▁omiiap	-11.5723
iatova	-11.5726
▁mairangi	-11.5726
▁malosap	-11.5732
lalaoco	-11.5736
各式各樣的	-11.5736
niciki	-11.5736
的過程	-11.574
▁opat	-11.5741
lingan	-11.5742
singasinga	-11.5742
▁tamalimalicʉcʉ	-11.5744
moamoarʉ	-11.5745
房	-11.5746
暖	-11.5746
araohlos	-11.5746
櫃	-11.5746
篩	-11.5747
沙	-11.5747
avavahli	-11.5747
柱	-11.5747
猴	-11.5747
angangatʉ	-11.5751
aramisainia	-11.5751
尤	-11.5753
aromokoisa	-11.5754
朵	-11.5754
鄉	-11.5754
patapoahla	-11.5754
ʉpʉhlʉ	-11.5754
▁takʉlʉpʉnga	-11.5754
hlongohlong	-11.5754
雪	-11.5755
輩	-11.5755
震	-11.5755
超	-11.5756
透	-11.5756
tangkapat	-11.5756
春	-11.5756
tapohlacʉng	-11.5756
patʉpatʉk	-11.5756
osiamʉ	-11.5756
芋	-11.5756
atahlʉkʉtʉkʉ	-11.5757
參	-11.5757
ahloahloasʉ	-11.5757
avarʉvarʉ	-11.5757
arisangi	-11.5757
alooliiri	-11.5757
asalangʉsangʉ	-11.5757
幹	-11.5757
薑	-11.5757
邀	-11.5758
召	-11.5758
▁talova	-11.5758
始	-11.5758
caciacihli	-11.5758
tavʉhlʉvʉ	-11.5758
oromita	-11.5758
▁maipohli	-11.5759
oatoso	-11.5759
擔	-11.5759
鷹	-11.5759
▁pitahlo	-11.5759
燃	-11.5759
虎	-11.5759
疼	-11.576
良	-11.576
枯	-11.576
淨	-11.576
颱	-11.576
飼	-11.576
貌	-11.576
按	-11.576
膚	-11.576
羞	-11.576
疫	-11.576
甲	-11.576
覆	-11.576
寮	-11.576
咒	-11.576
賽	-11.576
漂	-11.576
鋪	-11.576
謝	-11.576
欺	-11.576
揮	-11.576
筒	-11.576
匯	-11.5761
協	-11.5761
仍	-11.5761
免	-11.5761
曲	-11.5761
熄	-11.5761
優	-11.5761
普	-11.5761
趟	-11.5761
嘗	-11.5761
效	-11.5761
築	-11.5761
訴	-11.5761
疆	-11.5761
噢	-11.5761
策	-11.5761
脆	-11.5761
儉	-11.5761
異	-11.5761
溼	-11.5761
漫	-11.5761
登	-11.5761
莎	-11.5761
勵	-11.5761
荖	-11.5761
息	-11.5761
查	-11.5761
欸	-11.5761
演	-11.5761
祫	-11.5761
茸	-11.5761
炎	-11.5761
滴	-11.5761
墊	-11.5761
妨	-11.5761
祥	-11.5761
籽	-11.5761
縣	-11.5761
莫	-11.5761
警	-11.5761
質	-11.5761
隱	-11.5761
冠	-11.5761
啃	-11.5761
彩	-11.5761
掐	-11.5761
昏	-11.5761
末	-11.5761
y	-11.5761
b	-11.5761
《	-11.5761
》	-11.5761
亦	-11.5761
亭	-11.5761
仁	-11.5761
伐	-11.5761
佩	-11.5761
催	-11.5761
刑	-11.5761
卵	-11.5761
呱	-11.5761
呵	-11.5761
唐	-11.5761
喵	-11.5761
嗅	-11.5761
嗚	-11.5761
嘖	-11.5761
囊	-11.5761
填	-11.5761
宗	-11.5761
屎	-11.5761
巧	-11.5761
巾	-11.5761
帕	-11.5761
弓	-11.5761
弱	-11.5761
悶	-11.5761
扯	-11.5761
抵	-11.5761
抺	-11.5761
授	-11.5761
撬	-11.5761
擴	-11.5761
旋	-11.5761
暫	-11.5761
棕	-11.5761
椎	-11.5761
毀	-11.5761
渦	-11.5761
渴	-11.5761
滕	-11.5761
潮	-11.5761
澱	-11.5761
炸	-11.5761
熏	-11.5761
爽	-11.5761
瓦	-11.5761
疑	-11.5761
疤	-11.5761
痕	-11.5761
痣	-11.5761
癡	-11.5761
瞪	-11.5761
矢	-11.5761
穗	-11.5761
窮	-11.5761
筌	-11.5761
篇	-11.5761
粽	-11.5761
纍	-11.5761
肝	-11.5761
脊	-11.5761
腥	-11.5761
膩	-11.5761
茶	-11.5761
荷	-11.5761
萍	-11.5761
蒜	-11.5761
蛆	-11.5761
蛔	-11.5761
訊	-11.5761
豹	-11.5761
貫	-11.5761
趾	-11.5761
軌	-11.5761
轟	-11.5761
逗	-11.5761
逛	-11.5761
逾	-11.5761
遙	-11.5761
鄭	-11.5761
頸	-11.5761
Q	-11.5761
眉	-11.5761
頻	-11.5761
廚	-11.5761
適	-11.5761
丁	-11.5761
仇	-11.5761
唷	-11.5761
喘	-11.5761
委	-11.5761
搞	-11.5761
撥	-11.5761
梁	-11.5761
灌	-11.5761
狠	-11.5761
監	-11.5761
磿	-11.5761
虛	-11.5761
誦	-11.5761
賜	-11.5761
鍬	-11.5761
險	-11.5761
酵	-11.5761
囪	-11.5761
惑	-11.5761
朝	-11.5761
液	-11.5761
淋	-11.5761
災	-11.5761
率	-11.5761
痲	-11.5761
痴	-11.5761
礦	-11.5761
縮	-11.5761
腹	-11.5761
舀	-11.5761
葫	-11.5761
邦	-11.5761
颳	-11.5761
扮	-11.5761
裹	-11.5761
契	-11.5761
愉	-11.5761
旺	-11.5761
航	-11.5761
詩	-11.5761
財	-11.5761
魯	-11.5761
鎮	-11.5761
辨	-11.5761
速	-11.5762
鳴	-11.5762
磚	-11.5762
糟	-11.5762
銷	-11.5762
畏	-11.5762
陡	-11.5762
儀	-11.5763
城	-12.2416
慢	-12.3925
稍	-12.3956
漏	-12.398
敢	-12.4004
缸	-12.4067
仰	-12.4071
敵	-12.4071
巨	-12.4075
橘	-12.4081
兔	-12.4081
溝	-12.4084
迫	-12.4084
覺	-12.4087
秋	-12.4089
舌	-12.409
叉	-12.409
響	-12.409
蘇	-12.409
樟	-12.409
陽	-12.409
悔	-12.409
捲	-12.409
播	-12.4091
貝	-12.4091
北	-12.4091
翔	-12.4092
賺	-12.4092
雄	-12.4092
塗	-12.4092
答	-12.4092
功	-12.4092
雉	-12.4092
律	-12.4093
婆	-12.4093
享	-12.4093
紮	-12.4093
餅	-12.4093
顏	-12.4093
舍	-12.4093
統	-12.4093
跌	-12.4093
D	-12.4093
膝	-12.4093
羽	-12.4093
森	-12.4093
捨	-12.4093
伴	-12.4094
丈	-12.4094
俄	-12.4094
埔	-12.4094
飲	-12.4094
罰	-12.4094
灣	-12.4094
廳	-12.4094
伊	-12.4094
尼	-12.4094
氧	-12.4094
莉	-12.4094
轎	-12.4094
辭	-12.4094
違	-12.4094
遞	-12.4094
突	-12.4094
辛	-12.4094
環	-12.4094
束	-12.4094
察	-12.4094
佑	-12.4094
畢	-12.4094
泳	-12.4094
禁	-12.4094
魂	-12.4094
雖	-12.4094
X	-12.4094
估	-12.4094
刊	-12.4094
夕	-12.4094
妥	-12.4094
尚	-12.4094
慌	-12.4094
敏	-12.4094
旬	-12.4094
潰	-12.4094
疲	-12.4094
縱	-12.4094
肆	-12.4094
荽	-12.4094
虐	-12.4094
評	-12.4094
辜	-12.4094
鬥	-12.4094
麴	-12.4094
默	-12.4094
攻	-12.4094
勞	-12.4094
姊	-12.4094
漸	-12.4094
略	-12.4094
挷	-12.4094
曆	-12.4094
媳	-12.4094
箱	-12.4094
泉	-12.4094
療	-12.4094
慣	-12.4094
巢	-12.4094
廖	-12.4094
極	-12.4094
兄	-12.4094
摩	-12.4094
朋	-12.4094
傾	-12.4094
哼	-12.4094
埃	-12.4094
堵	-12.4094
帝	-12.4094
挫	-12.4094
柏	-12.4094
氛	-12.4094
珊	-12.4094
癌	-12.4094
蒂	-12.4094
蒐	-12.4094
蕎	-12.4094
蕗	-12.4094
説	-12.4094
鯨	-12.4094
厭	-12.4094
松	-12.4094
株	-12.4094
梯	-12.4094
椒	-12.4094
筋	-12.4094
誌	-12.4094
濁	-12.4094
複	-12.4094
堂	-12.4095
屜	-12.4095
拌	-12.4095
檢	-12.4095
櫨	-12.4095
瑚	-12.4095
眠	-12.4095
纖	-12.4095
骼	-12.4095
休	-12.4095
既	-12.4095
聖	-12.4095
愧	-12.4095
慧	-12.4095
款	-12.4095
犄	-12.4095
皇	-12.4095
簧	-12.4095
紡	-12.4095
薪	-12.4095
跤	-12.4095
畜	-12.4095
逐	-12.4095
謂	-12.4095
F	-12.4095
Y	-12.4095
f	-12.4095
x	-12.4095
丘	-12.4095
乏	-12.4095
仗	-12.4095
仙	-12.4095
伯	-12.4095
伺	-12.4095
侍	-12.4095
倆	-12.4095
倍	-12.4095
倦	-12.4095
傑	-12.4095
僵	-12.4095
償	-12.4095
兌	-12.4095
兜	-12.4095
凉	-12.4095
凋	-12.4095
凌	-12.4095
凡	-12.4095
募	-12.4095
勻	-12.4095
勿	-12.4095
匠	-12.4095
匹	-12.4095
博	-12.4095
卜	-12.4095
卷	-12.4095
吉	-12.4095
吟	-12.4095
吠	-12.4095
吱	-12.4095
吶	-12.4095
呈	-12.4095
呦	-12.4095
咀	-12.4095
咻	-12.4095
咿	-12.4095
哈	-12.4095
哨	-12.4095
唉	-12.4095
嘎	-12.4095
嘛	-12.4095
嚥	-12.4095
囚	-12.4095
址	-12.4095
坑	-12.4095
垂	-12.4095
垢	-12.4095
執	-12.4095
壤	-12.4095
壺	-12.4095
壽	-12.4095
夷	-12.4095
妄	-12.4095
妒	-12.4095
姦	-12.4095
姿	-12.4095
娜	-12.4095
嫌	-12.4095
孿	-12.4095
宅	-12.4095
宴	-12.4095
寂	-12.4095
寄	-12.4095
寞	-12.4095
寸	-12.4095
屠	-12.4095
岔	-12.4095
峻	-12.4095
峽	-12.4095
崇	-12.4095
川	-12.4095
巷	-12.4095
弧	-12.4095
弭	-12.4095
彿	-12.4095
怠	-12.4095
恨	-12.4095
愇	-12.4095
慘	-12.4095
慾	-12.4095
懲	-12.4095
扔	-12.4095
扛	-12.4095
抖	-12.4095
拆	-12.4095
拙	-12.4095
捆	-12.4095
捧	-12.4095
捻	-12.4095
掩	-12.4095
措	-12.4095
揀	-12.4095
揍	-12.4095
援	-12.4095
搔	-12.4095
搧	-12.4095
搯	-12.4095
摏	-12.4095
撤	-12.4095
撫	-12.4095
撼	-12.4095
攀	-12.4095
敞	-12.4095
旗	-12.4095
曝	-12.4095
杓	-12.4095
杷	-12.4095
枇	-12.4095
枴	-12.4095
柑	-12.4095
柳	-12.4095
栽	-12.4095
梗	-12.4095
梱	-12.4095
橙	-12.4095
檜	-12.4095
檬	-12.4095
檸	-12.4095
欠	-12.4095
欽	-12.4095
歐	-12.4095
殖	-12.4095
毫	-12.4095
氓	-12.4095
污	-12.4095
汰	-12.4095
沈	-12.4095
泊	-12.4095
津	-12.4095
涯	-12.4095
淘	-12.4095
渡	-12.4095
湧	-12.4095
溉	-12.4095
滯	-12.4095
滷	-12.4095
漬	-12.4095
潤	-12.4095
澎	-12.4095
濘	-12.4095
瀉	-12.4095
灘	-12.4095
煎	-12.4095
煞	-12.4095
牌	-12.4095
犛	-12.4095
犬	-12.4095
狼	-12.4095
猜	-12.4095
猶	-12.4095
琳	-12.4095
瑪	-12.4095
瑯	-12.4095
甸	-12.4095
疙	-12.4095
疱	-12.4095
痠	-12.4095
痱	-12.4095
瘀	-12.4095
瘩	-12.4095
盈	-12.4095
眨	-12.4095
睏	-12.4095
督	-12.4095
睦	-12.4095
矛	-12.4095
砌	-12.4095
砸	-12.4095
碴	-12.4095
祂	-12.4095
祐	-12.4095
禍	-12.4095
秒	-12.4095
秩	-12.4095
稜	-12.4095
穩	-12.4095
竭	-12.4095
簪	-12.4095
簸	-12.4095
粥	-12.4095
糞	-12.4095
糠	-12.4095
糢	-12.4095
素	-12.4095
緣	-12.4095
緬	-12.4095
繪	-12.4095
繭	-12.4095
翁	-12.4095
耀	-12.4095
聴	-12.4095
肅	-12.4095
胛	-12.4095
脾	-12.4095
腔	-12.4095
膏	-12.4095
臀	-12.4095
舐	-12.4095
芥	-12.4095
芻	-12.4095
苞	-12.4095
苳	-12.4095
茹	-12.4095
莿	-12.4095
菁	-12.4095
菌	-12.4095
菝	-12.4095
蓄	-12.4095
蓆	-12.4095
蓬	-12.4095
蕀	-12.4095
蕩	-12.4095
藜	-12.4095
藝	-12.4095
藷	-12.4095
藻	-12.4095
蘆	-12.4095
蘊	-12.4095
虱	-12.4095
蚣	-12.4095
蚤	-12.4095
蛹	-12.4095
蜈	-12.4095
蜥	-12.4095
蜴	-12.4095
蠅	-12.4095
蠍	-12.4095
蠹	-12.4095
蠻	-12.4095
衰	-12.4095
衷	-12.4095
裔	-12.4095
褪	-12.4095
褶	-12.4095
誘	-12.4095
誨	-12.4095
誼	-12.4095
謾	-12.4095
譏	-12.4095
豢	-12.4095
賠	-12.4095
跡	-12.4095
蹄	-12.4095
輔	-12.4095
輸	-12.4095
述	-12.4095
逸	-12.4095
酩	-12.4095
醬	-12.4095
鍵	-12.4095
鏟	-12.4095
闖	-12.4095
闢	-12.4095
陌	-12.4095
陳	-12.4095
隙	-12.4095
隧	-12.4095
雌	-12.4095
雹	-12.4095
霍	-12.4095
霜	-12.4095
鞦	-12.4095
韆	-12.4095
飢	-12.4095
馴	-12.4095
驟	-12.4095
骷	-12.4095
髏	-12.4095
髓	-12.4095
髻	-12.4095
魞	-12.4095
鯉	-12.4095
鰍	-12.4095
鱗	-12.4095
鵲	-12.4095
浴	-12.4095
喂	-12.4095
妝	-12.4095
彭	-12.4095
滲	-12.4095
營	-12.4095
脅	-12.4095
鶖	-12.4095
q	-12.4095
企	-12.4095
凅	-12.4095
剷	-12.4095
危	-12.4095
呻	-12.4095
咯	-12.4095
哺	-12.4095
墳	-12.4095
妖	-12.4095
婿	-12.4095
審	-12.4095
憋	-12.4095
戛	-12.4095
擤	-12.4095
昇	-12.4095
桂	-12.4095
概	-12.4095
櫥	-12.4095
殉	-12.4095
洩	-12.4095
湊	-12.4095
澤	-12.4095
症	-12.4095
痺	-12.4095
秤	-12.4095
稿	-12.4095
競	-12.4095
罷	-12.4095
罹	-12.4095
羡	-12.4095
聾	-12.4095
胱	-12.4095
萊	-12.4095
萎	-12.4095
蔬	-12.4095
虧	-12.4095
蠶	-12.4095
衡	-12.4095
釁	-12.4095
鋒	-12.4095
陶	-12.4095
霸	-12.4095
駕	-12.4095
鴨	-12.4095
丐	-12.4095
乞	-12.4095
佈	-12.4095
佔	-12.4095
佛	-12.4095
侶	-12.4095
債	-12.4095
吻	-12.4095
嘆	-12.4095
囤	-12.4095
均	-12.4095
宮	-12.4095
扶	-12.4095
曉	-12.4095
桑	-12.4095
桿	-12.4095
椹	-12.4095
槳	-12.4095
樁	-12.4095
樸	-12.4095
檫	-12.4095
汽	-12.4095
沼	-12.4095
澗	-12.4095
煤	-12.4095
牢	-12.4095
瑣	-12.4095
碌	-12.4095
窪	-12.4095
簷	-12.4095
芙	-12.4095
蓉	-12.4095
詛	-12.4095
諸	-12.4095
譴	-12.4095
贊	-12.4095
逝	-12.4095
鑑	-12.4095
鑲	-12.4095
鑼	-12.4095
鴝	-12.4095
鶇	-12.4095
緻	-12.4095
襲	-12.4095
副	-12.4095
叼	-12.4095
寺	-12.4095
巡	-12.4095
廟	-12.4095
彷	-12.4095
悠	-12.4095
慎	-12.4095
挪	-12.4095
捐	-12.4095
撇	-12.4095
礁	-12.4095
茲	-12.4095
袍	-12.4095
貧	-12.4095
販	-12.4095
迅	-12.4095
邏	-12.4095
酊	-12.4095
鮭	-12.4095
悉	-12.4095
納	-12.4095
牲	-12.4095
懼	-12.4095
犧	-12.4095
竽	-12.4095
騷	-12.4095
鹰	-12.4095
齡	-12.5175
鴿	-12.5176
鬍	-12.5177
餚	-12.5178
頒	-12.5179
韭	-12.518
鞭	-12.5181
鞘	-12.5182
陀	-12.5183
閩	-12.5184
閣	-12.5185
鎚	-12.5186
醋	-12.5187
邵	-12.5188
遵	-12.5189
逆	-12.519
輛	-12.5191
跺	-12.5192
趴	-12.5193
贅	-12.5194
購	-12.5195
賴	-12.5196
貿	-12.5197
譯	-12.5198
謹	-12.5199
諮	-12.52
諧	-12.5201
諒	-12.5202
誕	-12.5203
裳	-12.5204
裕	-12.5205
袷	-12.5206
衍	-12.5207
螺	-12.5208
蔡	-12.5209
蒲	-12.521
葬	-12.5211
華	-12.5212
苔	-12.5213
芝	-12.5214
芎	-12.5215
艘	-12.5216
腺	-12.5217
腋	-12.5218
脂	-12.5219
胰	-12.522
胯	-12.5221
肘	-12.5222
肋	-12.5223
聆	-12.5224
耗	-12.5225
絡	-12.5226
紉	-12.5227
籤	-12.5228
簿	-12.5229
範	-12.523
窿	-12.5231
窟	-12.5232
穴	-12.5233
稚	-12.5234
皂	-12.5235
癮	-12.5236
畚	-12.5237
璃	-12.5238
玻	-12.5239
牽	-12.524
燥	-12.5241
烹	-12.5242
濾	-12.5243
潛	-12.5244
潔	-12.5245
湍	-12.5246
港	-12.5247
涸	-12.5248
涕	-12.5249
沸	-12.525
毆	-12.5251
欒	-12.5252
櫻	-12.5253
槌	-12.5254
棟	-12.5255
棍	-12.5256
晾	-12.5257
昂	-12.5258
擲	-12.5259
損	-12.526
控	-12.5261
拱	-12.5262
拇	-12.5263
扇	-12.5264
戒	-12.5265
憲	-12.5266
憤	-12.5267
憂	-12.5268
慰	-12.5269
悅	-12.527
恐	-12.5271
忽	-12.5272
德	-12.5273
席	-12.5274
帥	-12.5275
巒	-12.5276
峇	-12.5277
屍	-12.5278
姆	-12.5279
奔	-12.528
堪	-12.5281
嚏	-12.5282
嚀	-12.5283
噶	-12.5284
噎	-12.5285
喇	-12.5286
呂	-12.5287
叭	-12.5288
叢	-12.5289
叛	-12.529
勃	-12.5291
劍	-12.5292
准	-12.5293
儲	-12.5294
供	-12.5295
佰	-12.5296
伍	-12.5297
井	-12.5298
乖	-12.5299
j	-12.53
鯝	-12.5301
頑	-12.5302
隴	-12.5303
鐺	-12.5304
銀	-12.5305
鈴	-12.5306
賭	-12.5307
豎	-12.5308
訝	-12.5309
褐	-12.531
蟒	-12.5311
蟑	-12.5312
螂	-12.5313
蝠	-12.5314
蝙	-12.5315
蜘	-12.5316
蛛	-12.5317
蕃	-12.5318
脈	-12.5319
績	-12.532
絆	-12.5321
究	-12.5322
秧	-12.5323
瞭	-12.5324
癒	-12.5325
疾	-12.5326
瑞	-12.5327
獠	-12.5328
犁	-12.5329
焦	-12.533
澆	-12.5331
漿	-12.5332
溢	-12.5333
淺	-12.5334
汲	-12.5335
殊	-12.5336
欣	-12.5337
檞	-12.5338
楓	-12.5339
柚	-12.534
枕	-12.5341
杉	-12.5342
昌	-12.5343
昆	-12.5344
捷	-12.5345
拯	-12.5346
拭	-12.5347
括	-12.5348
憐	-12.5349
恆	-12.535
徒	-12.5351
廠	-12.5352
峭	-12.5353
奏	-12.5354
壟	-12.5355
啤	-12.5356
啡	-12.5357
咖	-12.5358
允	-12.5359
(	-12.536
鷺	-12.5361
鷥	-12.5362
驗	-12.5363
階	-12.5364
陣	-12.5365
闆	-12.5366
鑰	-12.5367
鏽	-12.5368
醜	-12.5369
郭	-12.537
邁	-12.5371
躍	-12.5372
蹈	-12.5373
赤	-12.5374
諱	-12.5375
蠟	-12.5376
蝸	-12.5377
蘿	-12.5378
蔔	-12.5379
葵	-12.538
茫	-12.5381
苡	-12.5382
芭	-12.5383
般	-12.5384
肩	-12.5385
耽	-12.5386
紹	-12.5387
糧	-12.5388
筷	-12.5389
禦	-12.539
盼	-12.5391
瀕	-12.5392
澳	-12.5393
澈	-12.5394
漁	-12.5395
涉	-12.5396
洲	-12.5397
沿	-12.5398
榴	-12.5399
柿	-12.54
攤	-12.5401
操	-12.5402
拼	-12.5403
披	-12.5404
扭	-12.5405
悍	-12.5406
徙	-12.5407
干	-12.5408
帳	-12.5409
壠	-12.541
塵	-12.5411
坍	-12.5412
嘍	-12.5413
嗽	-12.5414
唇	-12.5415
哎	-12.5416
咳	-12.5417
叩	-12.5418
仿	-12.5419
仔	-12.542
R	-12.5421
+	-12.5422
齒	-12.5423
鳩	-12.5424
霧	-12.5425
鈕	-12.5426
鄒	-12.5427
贈	-12.5428
詐	-12.5429
胃	-12.543
耘	-12.5431
耐	-12.5432
緑	-12.5433
紫	-12.5434
符	-12.5435
笆	-12.5436
祀	-12.5437
況	-12.5438
歧	-12.5439
斥	-12.544
恢	-12.5441
徑	-12.5442
宣	-12.5443
孝	-12.5444
央	-12.5445
嘔	-12.5446
咱	-12.5447
齊	-12.5448
鬚	-12.5449
訓	-12.545
觸	-12.5451
螢	-12.5452
蜻	-12.5453
蜢	-12.5454
蜓	-12.5455
蚱	-12.5456
薦	-12.5457
蔗	-12.5458
舅	-12.5459
脖	-12.546
籬	-12.5461
瞌	-12.5462
瞄	-12.5463
瀑	-12.5464
晶	-12.5465
斧	-12.5466
攜	-12.5467
擇	-12.5468
拒	-12.5469
技	-12.547
戚	-12.5471
憶	-12.5472
悄	-12.5473
彼	-12.5474
廁	-12.5475
崖	-12.5476
姻	-12.5477
姨	-12.5478
塌	-12.5479
卑	-12.548
凱	-12.5481
俗	-12.5482
B	-12.5483
露	-12.5484
規	-12.5485
袖	-12.5486
衛	-12.5487
蚯	-12.5488
蚓	-12.5489
莓	-12.549
臘	-12.5491
膠	-12.5492
羨	-12.5493
穫	-12.5494
秀	-12.5495
永	-12.5496
梅	-12.5497
扣	-12.5498
愁	-12.5499
庭	-12.55
塑	-12.5501
喉	-12.5502
N	-12.5503
L	-12.5504
鷸	-12.5505
鰻	-12.5506
鏡	-12.5507
鉛	-12.5508
鈔	-12.5509
鄰	-12.551
蚊	-12.5511
苧	-12.5512
耆	-12.5513
翅	-12.5514
猛	-12.5515
濟	-12.5516
浸	-12.5517
模	-12.5518
梨	-12.5519
懸	-12.552
慶	-12.5521
墾	-12.5522
嘲	-12.5523
傍	-12.5524
值	-12.5525
驕	-12.5526
雀	-12.5527
附	-12.5528
趣	-12.5529
蒼	-12.553
英	-12.5531
組	-12.5532
紀	-12.5533
糬	-12.5534
琴	-12.5535
珍	-12.5536
燕	-12.5537
棉	-12.5538
柬	-12.5539
暑	-12.554
寨	-12.5541
宋	-12.5542
娘	-12.5543
困	-12.5544
厲	-12.5545
剝	-12.5546
傲	-12.5547
偶	-12.5548
龍	-12.5549
鐮	-12.555
郵	-12.5551
郎	-12.5552
蝶	-12.5553
蝴	-12.5554
瓏	-12.5555
泰	-12.5556
李	-12.5557
戲	-12.5558
懷	-12.5559
悲	-12.556
宜	-12.5561
嬤	-12.5562
姑	-12.5563
匙	-12.5564
竿	-12.5565
泥	-12.5566
雁	-12.5567
鋤	-12.5568
股	-12.5569
狸	-12.557
司	-12.5571
係	-12.5572
鞋	-12.5573
蟻	-12.5574
螞	-12.5575
蘋	-12.5576
聰	-12.5577
狐	-12.5578
檳	-12.5579
惰	-12.558
嶼	-12.5581
虹	-12.5582
洪	-12.5583
楚	-12.5584
探	-12.5585
惜	-12.5586
健	-12.5587
鼻	-12.5588
榔	-12.5589
嬰	-12.559
堅	-12.5591
蚌	-12.5592
糯	-12.5593
椅	-12.5594
嚴	-12.5595
卡	-12.5596
顧	-12.5597
蟹	-12.5598
螃	-12.5599
茅	-12.56
橡	-12.5601
擁	-12.5602
垃	-12.5603
圾	-12.5604
芒	-12.5605
耍	-12.5606
康	-12.5607
幣	-12.5608
塘	-12.5609
懶	-12.561
鍊	-12.5611
蕉	-12.5612
靠	-12.5613
鐘	-12.5614
巫	-12.5615
鴉	-12.5616
羌	-12.5617
馬	-12.5618
繼	-12.5619
忘	-12.562
狩	-12.5621
冬	-12.5622
努	-12.5623
百	-12.5624
帽	-12.5625
甚	-12.5626
夏	-12.5627
V	-12.5628
希	-12.5629
麗	-12.563
桃	-12.5631
昨	-12.5632
睛	-12.5633
玉	-12.5634
桌	-12.5635
阱	-12.5636
何	-12.5637
拜	-12.5638
辦	-12.5639
午	-12.564
植	-12.5641
K	-12.5642
讀	-12.5643
蛙	-12.5644
M	-12.5645
式	-12.5646
叔	-12.5647
奶	-12.5648
星	-12.5649
爺	-12.565
校	-12.5651
政	-12.5652
怎	-12.5653
哥	-12.5654
P	-12.5655
果	-12.5656
H	-12.5657
什	-12.5658
孩	-12.5659
爸	-12.566
麼	-12.5661
g	-12.5662
