<pad>	0
<unk>	0
<s>	0
</s>	0
<2tsu>	0
<2zh>	0
▁	-1.80672
'	-2.60495
o	-3.18864
.	-3.43124
,	-3.63796
a	-3.8813
。	-4.14651
▁'	-4.1633
e	-4.29819
▁to	-4.37236
▁ho	-4.52763
▁mo	-4.60819
?	-4.62655
i	-4.67616
▁ta	-4.69935
▁ci	-5.00785
▁na	-5.07398
▁no	-5.11111
的	-5.20424
no	-5.44062
▁la	-5.58105
▁isi	-5.74631
▁si	-5.83136
了	-5.83682
so	-5.85379
▁te	-5.87163
ʉ	-5.92501
▁ne	-5.93502
n	-6.03647
▁mi	-6.09429
!	-6.12209
是	-6.16571
嗎	-6.19087
▁co	-6.21596
在	-6.22817
si	-6.26245
▁zoo	-6.3015
我	-6.31278
▁coo	-6.31806
▁ma	-6.32658
mo	-6.33967
▁我	-6.35969
te	-6.43909
la	-6.46208
▁os	-6.46441
▁yainca	-6.4709
說	-6.48203
他	-6.48505
▁poa	-6.49657
▁oko	-6.5481
▁mico	-6.55019
oko	-6.56586
▁"	-6.57939
、	-6.62675
▁你	-6.63612
要	-6.64686
有	-6.65297
▁mita	-6.65961
你	-6.69905
to	-6.71168
s	-6.7494
子	-6.75201
▁他	-6.7599
▁yo	-6.82136
不	-6.82154
:「	-6.83081
c	-6.84952
到	-6.85852
ko	-6.92414
▁ita	-6.92887
去	-6.94853
▁emoo	-6.95562
和	-6.95619
na	-6.96305
neni	-6.96525
人	-6.96676
▁pasoya	-6.9867
會	-6.99872
va	-7.0315
▁m	-7.04778
co	-7.05208
▁teko	-7.05226
:	-7.05641
mi	-7.06475
我們	-7.07186
把	-7.09376
hi	-7.09864
▁lea	-7.10651
▁homo	-7.12431
一	-7.12865
▁ihe	-7.13117
上	-7.13964
▁c	-7.14474
▁meelʉ	-7.15144
來	-7.15349
他們	-7.15417
ho	-7.15458
▁hioa	-7.1691
▁aiti	-7.17913
時	-7.18344
就	-7.20214
▁p	-7.20424
▁yaa	-7.20729
▁h	-7.23071
▁maica	-7.23378
▁maezo	-7.23437
都	-7.23466
▁man	-7.24203
omo	-7.2514
h	-7.25868
也	-7.26043
▁maitan	-7.26643
▁coma	-7.28466
吃	-7.28969
▁moso	-7.29319
那	-7.30046
▁ohne	-7.30472
ana	-7.31016
。」	-7.31358
eni	-7.31825
▁hia	-7.32078
她	-7.32312
對	-7.32397
▁mamespingi	-7.32481
▁at	-7.32566
ta	-7.32666
▁f	-7.33173
he	-7.34163
▁acʉhʉ	-7.35021
▁kaebʉ	-7.35156
▁ʉmnʉ	-7.35462
emo	-7.35468
▁av	-7.35681
▁hahocngʉ	-7.35696
很	-7.36257
▁hie	-7.36621
▁hosa	-7.38987
▁oh	-7.39007
▁pa	-7.39502
被	-7.39788
▁tomo	-7.39795
▁teto	-7.41122
▁voyo	-7.41487
用	-7.43028
▁tmopsʉ	-7.43244
osno	-7.44627
▁eni	-7.45878
;	-7.45976
▁ak	-7.47956
/	-7.48722
▁soo	-7.4874
ei	-7.49097
nʉ	-7.49167
▁t	-7.49293
▁miko	-7.49513
大	-7.50294
hʉ	-7.52885
▁honci	-7.53562
▁noana	-7.54343
▁ino	-7.55351
▁hafa	-7.5552
ola	-7.55583
▁maine	-7.55837
▁nia	-7.55885
ohʉ	-7.5732
水	-7.57359
看	-7.57621
的人	-7.584
地	-7.58667
▁cono	-7.62496
▁ok	-7.63545
▁tan	-7.6553
▁mio	-7.65607
ng	-7.65736
▁yonta	-7.65993
媽媽	-7.66528
沒有	-7.66614
os	-7.66649
▁eno	-7.67074
可以	-7.67644
▁s	-7.67795
好	-7.68888
▁amo	-7.69198
▁chomo	-7.69394
已經	-7.69741
著	-7.70061
▁panto	-7.70705
這	-7.71105
▁ohto	-7.7291
▁bonʉ	-7.73935
ake	-7.7409
山	-7.74183
▁cohivi	-7.74376
▁eh	-7.74594
cohio	-7.75081
inghi	-7.75246
讓	-7.75577
po	-7.7579
天	-7.76807
▁evi	-7.76876
▁peiso	-7.769
▁taini	-7.77485
▁tanivo	-7.77568
ya	-7.7778
yo	-7.77907
▁foengo	-7.78814
aosna	-7.78951
小孩	-7.80212
▁yoneno	-7.8031
▁tposʉ	-7.80333
工作	-7.80491
▁yopa	-7.81136
▁iachi	-7.81374
vi	-7.82093
avai	-7.82201
▁coni	-7.83472
呢	-7.83959
▁fozo	-7.83998
▁tma	-7.84478
ha	-7.85287
ov	-7.85297
跟	-7.85409
ci	-7.8558
▁mici	-7.85609
在哪裡	-7.8673
小	-7.86807
▁botngonʉ	-7.87034
一起	-7.87194
從	-7.87478
帶	-7.87901
而	-7.87972
部落	-7.88137
大家	-7.8814
m	-7.88295
▁peel	-7.88301
▁po	-7.88769
下	-7.90498
▁hocma	-7.90588
▁pe	-7.90629
▁sʉ	-7.90755
▁lasi	-7.92071
esi	-7.92152
吧	-7.92211
▁lema	-7.92227
▁fato	-7.92252
."	-7.92265
amo	-7.92492
▁ohta	-7.9255
為	-7.92566
▁yonto	-7.93689
▁ea	-7.93864
叫	-7.94349
青蛙	-7.94445
oha	-7.94464
▁ti	-7.94958
的時候	-7.9508
ote	-7.95248
的地方	-7.9532
年	-7.9532
oco	-7.96401
▁yʉsʉ	-7.96424
魚	-7.96494
▁maamespingi	-7.96607
▁yangoi	-7.9661
裡	-7.98082
▁macocoma	-7.98117
給	-7.98524
"	-7.98775
▁那	-7.98799
opo	-7.98926
頭	-7.99524
▁tamo	-7.99961
▁ceonʉ	-8.0047
fo	-8.0051
ot	-8.00589
一個	-8.0097
▁yatatiskova	-8.01207
tʉ	-8.0123
ma	-8.01599
▁ko	-8.01807
▁sia	-8.02291
▁lahe	-8.02644
▁我們	-8.02936
cʉ	-8.03035
oyona	-8.04213
喜歡	-8.05453
ʉmtʉ	-8.05494
▁tena	-8.05501
osni	-8.05768
▁baito	-8.06026
一直	-8.06199
▁yoskʉ	-8.07688
payo	-8.07899
▁tekon	-8.07996
f	-8.08128
還	-8.08807
狗	-8.08848
▁nana	-8.09318
!」	-8.09508
mia	-8.09762
?」	-8.09975
▁pasonaeno	-8.09989
做	-8.10611
p	-8.10687
▁fo	-8.10753
看到	-8.10911
atai	-8.11504
▁hoco	-8.12351
▁tee	-8.12358
ʉhʉ	-8.12551
-	-8.12837
▁hola	-8.13097
▁ahoi	-8.14504
打	-8.14517
花	-8.14575
▁mʉchʉ	-8.14615
▁aʉt	-8.14697
▁tec	-8.14892
很多	-8.14937
走	-8.1497
出	-8.15296
▁pano	-8.1574
因為	-8.15892
▁mosola	-8.16028
▁hoci	-8.16342
lʉ	-8.16386
mza	-8.16475
pasuya	-8.16591
oc	-8.16852
▁ongko	-8.17714
ala	-8.18826
v	-8.18918
▁paicʉ	-8.19004
▁ahto	-8.19146
ocea	-8.20195
▁foo	-8.20632
▁yoni	-8.20827
▁ohe	-8.21234
▁smo	-8.21361
▁miyo	-8.21807
怎麼	-8.21917
▁mimza	-8.22032
中	-8.22033
▁koa	-8.2208
▁mav	-8.22241
▁teav	-8.23083
樹	-8.23199
▁tesi	-8.23281
長	-8.23698
這樣	-8.23727
我要	-8.23845
▁mohco	-8.24557
▁tosvo	-8.247
▁maineno	-8.24903
...	-8.24972
hin	-8.25006
▁ton	-8.25054
▁ohaeva	-8.25816
▁pasuya	-8.2582
▁mameoi	-8.25952
▁mainci	-8.26015
▁cihi	-8.26156
▁他們	-8.26311
▁leako	-8.26317
老師	-8.264
ni	-8.26825
pi	-8.27308
▁ʉmnʉa	-8.27319
買	-8.2763
請	-8.27686
▁asngʉcʉ	-8.27886
我的	-8.28141
▁iko	-8.28624
所	-8.28673
ngi	-8.29586
▁mimo	-8.29739
▁pangka	-8.30105
konge	-8.30108
▁mais	-8.30279
沒	-8.30361
不要	-8.30516
▁yoso	-8.30843
想	-8.3162
▁boa	-8.32218
▁atva	-8.32653
▁titha	-8.32989
▁toocosi	-8.33423
mʉ	-8.33715
非常	-8.33873
問	-8.34221
▁bʉvnʉ	-8.34383
▁faeni	-8.34417
oeha	-8.34517
▁tonoi	-8.34649
za	-8.34859
▁emi	-8.35232
開	-8.35384
家	-8.35417
過	-8.35578
on	-8.35619
但是	-8.35642
多	-8.35739
t	-8.35958
toana	-8.36333
yaeza	-8.36472
▁meoino	-8.36671
▁kaapana	-8.36927
▁anana	-8.37028
自己	-8.37077
▁yongho	-8.37362
你們	-8.37934
又	-8.37995
tanivu	-8.38457
後	-8.38694
▁mamameoi	-8.38732
▁acʉh	-8.38874
▁meesi	-8.38956
▁moc	-8.39074
ate	-8.40314
ʉcʉ	-8.40659
掉	-8.40774
地瓜	-8.40794
▁naho	-8.41085
▁koyai	-8.41195
ia	-8.41348
▁teai	-8.41433
▁mihin	-8.41478
東西	-8.41544
聽	-8.41584
zo	-8.42118
▁esmi	-8.42122
起	-8.43097
▁ya	-8.43205
▁sayongo	-8.43534
▁mainca	-8.43538
▁mooyai	-8.43563
住	-8.4407
錢	-8.44416
▁isico	-8.4444
得	-8.44781
k	-8.44962
nga	-8.45087
▁tako	-8.45554
▁nanghia	-8.45762
知道	-8.45802
▁hpʉhpʉngʉ	-8.45957
▁oengʉtʉ	-8.45969
▁yone	-8.46141
▁Pasuya	-8.46439
他的	-8.47178
回家	-8.47544
草	-8.47852
先	-8.48066
▁yoovei	-8.48381
酒	-8.48412
▁chae	-8.48531
ca	-8.48707
動	-8.48948
cohivi	-8.50011
u	-8.50471
ango	-8.50867
▁mafe	-8.50894
vaho	-8.50907
ka	-8.50941
是什麼	-8.50988
eno	-8.51084
想要	-8.51406
oyo	-8.52505
人們	-8.52687
▁pei	-8.53019
Pasuya	-8.53086
太	-8.53095
▁seolʉa	-8.53262
pa	-8.53262
tohʉngʉ	-8.53602
▁yofna	-8.53604
osa	-8.53925
起來	-8.54585
高	-8.5499
▁ango	-8.55096
▁mon	-8.55257
找	-8.55603
sa	-8.55824
就是	-8.55832
ongko	-8.56086
▁nte	-8.56283
▁fkoi	-8.56307
再	-8.56492
!"	-8.56681
▁ceoa	-8.56904
▁「	-8.57225
▁你們	-8.57283
那個	-8.5735
▁teta	-8.5738
▁temo	-8.58103
▁yaahioa	-8.58122
心	-8.58391
成	-8.5884
行	-8.59013
aveoveoyʉ	-8.59034
一點	-8.59035
」	-8.59051
▁piyo	-8.59059
ngo	-8.59104
是誰	-8.59289
我是	-8.60056
▁不要	-8.60201
不是	-8.60375
as	-8.60404
唱歌	-8.6075
esa	-8.61123
▁tac	-8.61254
能	-8.61605
放	-8.61836
及	-8.6187
sʉ	-8.61871
oahngʉ	-8.61884
ti	-8.61885
▁mahafo	-8.6189
▁kozo	-8.61948
▁teova	-8.61959
到了	-8.61977
這是	-8.62053
們	-8.62902
▁titho	-8.63271
▁mayo	-8.63538
路	-8.63548
zoo	-8.63563
衣服	-8.63825
如果	-8.63933
像	-8.6404
isi	-8.64298
拿	-8.64324
石頭	-8.64568
真的	-8.64622
evi	-8.64645
之	-8.64667
開始	-8.64706
快	-8.64725
門	-8.64735
採	-8.64792
喔	-8.64804
oachomo	-8.64822
▁pania	-8.64831
atʉ	-8.65114
eva	-8.6523
鄒族	-8.6526
ingi	-8.65797
倒	-8.66394
▁ana	-8.66573
ki	-8.66582
nci	-8.66762
▁tela	-8.67013
▁teo	-8.67657
所以	-8.67782
▁se	-8.678
太陽	-8.67803
名	-8.67806
▁haahocngʉ	-8.67812
▁nghoo	-8.67813
▁feohʉ	-8.67833
onga	-8.67961
oanʉ	-8.68096
▁psoseongana	-8.68269
▁ac	-8.68498
▁mocmo	-8.68646
ʉca	-8.68789
現在	-8.69281
▁tola	-8.6942
▁le	-8.69517
▁emʉ	-8.6957
?"	-8.69796
vo	-8.70425
回	-8.70554
重	-8.70836
一下	-8.70897
向	-8.70902
以後	-8.7092
▁faeva	-8.70926
牠	-8.70929
▁Voyu	-8.71022
▁hohocmasi	-8.71083
這個	-8.71609
▁ohaesa	-8.71627
pʉ	-8.71833
▁tenac	-8.72319
很好	-8.72342
▁ic	-8.7262
今天	-8.7276
▁Mo	-8.73045
▁feongo	-8.73595
Voyu	-8.74001
雞	-8.74054
力	-8.74061
跑	-8.74084
▁etʉpʉ	-8.74113
個	-8.7484
名字	-8.74887
喝	-8.75145
om	-8.75469
玩	-8.75566
▁Yangui	-8.75821
神	-8.76427
▁這是	-8.76529
三	-8.76555
家裡	-8.76792
▁那是	-8.76848
回來	-8.77193
只	-8.77207
獵	-8.77267
這些	-8.77286
木	-8.7737
作	-8.77371
蓋	-8.77384
妳	-8.77405
風	-8.77412
▁meemealʉ	-8.77419
▁toehonga	-8.77424
▁mongoi	-8.77431
iama	-8.77737
voyu	-8.77914
▁alʉ	-8.78047
ngʉ	-8.78225
▁kokozo	-8.78586
有很多	-8.78983
▁你的	-8.79806
▁nac	-8.79821
▁lac	-8.79831
▁ca	-8.79883
老	-8.80465
唱	-8.80514
▁pepe	-8.80645
山豬	-8.80713
▁koba	-8.80838
▁tonsoha	-8.80838
oyonatmopsʉ	-8.80845
▁zomʉ	-8.80851
好嗎	-8.81446
當	-8.81558
▁如果	-8.81871
▁poko	-8.81928
ohaesa	-8.81952
▁phingi	-8.82049
▁hov	-8.82174
處	-8.82761
▁我的	-8.82806
▁yahioa	-8.83446
將	-8.83928
與	-8.84364
▁eainca	-8.84378
▁mhia	-8.84389
▁aʉlʉ	-8.84419
engho	-8.8447
最	-8.8449
十	-8.84547
不知道	-8.84564
oongʉ	-8.84762
還有	-8.85181
兩	-8.86176
穿	-8.86191
▁lata	-8.86257
睡覺	-8.86475
口	-8.86771
書	-8.87015
鳥	-8.87131
男孩	-8.87267
菜	-8.87368
fʉ	-8.8751
生活	-8.87805
以	-8.87858
發	-8.87935
火	-8.8797
洗	-8.87997
啦	-8.88048
▁aʉsvʉtʉ	-8.88049
▁ocei	-8.88076
▁mcoo	-8.88148
▁tofko	-8.88224
▁tanivu	-8.887
「	-8.88803
最後	-8.8926
▁haah	-8.89356
▁這	-8.89728
痛	-8.89754
才	-8.90072
▁ohneno	-8.90226
▁sico	-8.90487
蛋	-8.90604
sko	-8.90687
抓	-8.91084
有一個	-8.91258
▁X	-8.91329
fa	-8.91456
就會	-8.91513
等	-8.91691
熱	-8.91717
遠	-8.91789
鹿	-8.91795
fi	-8.9183
學習	-8.91855
▁boem	-8.91858
▁yoyafo	-8.91858
▁toehongo	-8.91858
經過	-8.9189
▁asonʉ	-8.91892
▁yot	-8.91942
ʉmt	-8.92002
▁engha	-8.92009
▁ataveisi	-8.9204
我們的	-8.92053
▁sʉc	-8.92237
在這裡	-8.92274
▁talʉa	-8.92439
▁cnʉmʉ	-8.93208
不會	-8.93216
nana	-8.93996
tena	-8.945
▁那個	-8.95266
進	-8.95572
▁atavei	-8.95632
儀式	-8.95649
以前	-8.95785
yangui	-8.95819
▁taivang	-8.9582
台灣	-8.9582
說話	-8.9584
▁tapangʉ	-8.95868
這裡	-8.96373
有人	-8.9644
lo	-8.9713
l	-8.97814
祭	-8.98301
yʉ	-8.98405
▁pai	-8.98425
x	-8.98944
ang	-8.99318
幫	-8.99479
oh	-8.99588
點	-8.99752
往	-8.99842
白	-8.99872
聲	-8.99874
▁feʉ	-8.99889
祖母	-8.99893
已	-8.999
愛	-8.99937
Paicʉ	-8.99943
▁fcoyo	-8.99943
▁eʉsvʉta	-8.99943
▁yʉteʉ	-8.99943
▁seifo	-8.99944
▁yoyaso	-8.99944
▁feango	-8.99952
▁conoemoo	-8.99954
▁maaya	-8.99956
▁peelʉi	-8.99958
▁tmalʉ	-9.00042
用來	-9.00096
蛇	-9.00126
小米	-9.00485
X	-9.00519
▁talʉi	-9.00526
▁fʉhngoya	-9.00591
yai	-9.00968
▁amoso	-9.01688
出來	-9.02045
前	-9.02224
▁好	-9.02481
▁me	-9.02606
ʉsʉ	-9.02639
zi	-9.02667
的東西	-9.03253
只有	-9.03343
教	-9.03425
li	-9.03483
面	-9.03706
煮	-9.03771
▁她	-9.03774
▁osa	-9.0378
▁maskʉ	-9.03825
▁ocia	-9.03919
邊	-9.04033
▁bankake	-9.04245
桌子	-9.04254
uongʉ	-9.04257
▁peisia	-9.04269
hm	-9.0427
▁bohci	-9.04275
之後	-9.04279
▁yayo	-9.04348
onasi	-9.04369
▁naveo	-9.04551
種	-9.04869
y	-9.0499
▁poe	-9.05066
▁inosi	-9.05098
ima	-9.05297
eʉsʉ	-9.05631
paicʉ	-9.05648
▁fiho	-9.05744
肉	-9.05883
▁pio	-9.05982
opena	-9.0599
啊	-9.0607
但	-9.06106
▁tmo	-9.06465
▁yoo	-9.06472
原來	-9.0651
▁aomo	-9.06559
那是	-9.06583
▁avai	-9.06635
上學	-9.06667
▁aha	-9.06793
Mo	-9.06832
congo	-9.0697
oya	-9.07049
ec	-9.07372
yʉc	-9.07484
▁老師	-9.07713
並	-9.08128
coni	-9.08163
我們要	-9.08277
外	-9.08459
背	-9.08693
關	-9.08725
元	-9.08728
球	-9.08733
貓頭鷹	-9.08738
突然	-9.0874
▁tfoya	-9.08749
女人	-9.08771
▁homeyaya	-9.08779
▁apo	-9.08932
▁emo	-9.08977
下來	-9.09004
▁zonga	-9.09019
▁papai	-9.09032
▁teolʉi	-9.09095
▁sensei	-9.09112
幫忙	-9.09489
veni	-9.09899
▁iheco	-9.10156
腳	-9.10944
過去	-9.10952
學校	-9.11031
▁aot	-9.11254
▁peispak	-9.11268
食物	-9.11394
▁今天	-9.11409
▁mac	-9.11441
一些	-9.11901
koko	-9.11933
▁tov	-9.11984
▁ezoyʉ	-9.12216
▁okosi	-9.1282
生氣	-9.13144
離開	-9.13151
▁fngoo	-9.13253
晚	-9.13351
坐	-9.13399
燒	-9.13431
不能	-9.13443
牛	-9.13445
▁aosohco	-9.13446
▁ngoseo	-9.13446
▁taseona	-9.13446
▁hcoyo	-9.13447
希望	-9.13447
女生	-9.13453
▁mhino	-9.13459
▁yoyoso	-9.13463
晚上	-9.13494
▁bomemealʉ	-9.13508
▁tos	-9.13536
▁koici	-9.13571
▁meoisi	-9.13587
▁hote	-9.13705
老人	-9.13869
你要	-9.13906
▁pat	-9.13963
還是	-9.14216
事	-9.14729
▁kio	-9.14887
病	-9.14918
ʉmnʉ	-9.14939
vʉ	-9.15438
▁teno	-9.15739
手	-9.15808
你的	-9.15973
opi	-9.16298
eoho	-9.16604
來了	-9.16764
物	-9.16939
醫生	-9.1715
▁voyu	-9.17645
▁有一天	-9.18068
車	-9.18179
生	-9.18236
竹	-9.18242
田	-9.18313
米	-9.18324
香蕉	-9.18354
卻	-9.1836
信	-9.18361
舉行	-9.18362
文化	-9.18365
準備	-9.18372
落	-9.18372
擺	-9.18384
▁coeconʉ	-9.18385
▁kaemema	-9.18385
▁amamio	-9.18385
▁televi	-9.18385
Avai	-9.18385
▁asngʉcva	-9.18385
跳舞	-9.18386
經常	-9.18387
直接	-9.18387
sosoyomo	-9.18388
▁popozo	-9.18389
發現	-9.18389
apangʉ	-9.18408
▁pooto	-9.18431
▁ahta	-9.18439
跟著	-9.18556
▁hico	-9.18572
▁fii	-9.18639
▁mah	-9.18912
▁maameoi	-9.19023
▁ofi	-9.19361
族	-9.19483
▁namo	-9.19583
各	-9.19681
▁siya	-9.19709
許多	-9.19718
家族	-9.19869
▁ina	-9.19919
▁yovah	-9.20351
▁pan	-9.20499
aisi	-9.20601
mio	-9.2064
▁meo	-9.20641
很高	-9.20758
▁mei	-9.20942
▁aopcio	-9.21013
▁你怎麼	-9.2105
ʉha	-9.21126
▁yʉ	-9.21357
鄒族的	-9.21366
oho	-9.21553
她的	-9.21706
ici	-9.21823
意	-9.2204
鄒族人	-9.22366
走了	-9.22442
vaha	-9.22484
▁honga	-9.22547
分	-9.22551
由	-9.22808
正	-9.22825
筆	-9.23087
它	-9.23423
常常	-9.23434
山上	-9.23485
稱	-9.23543
跳	-9.23547
四	-9.23547
親	-9.23569
語言	-9.23569
橘子	-9.23578
量	-9.2358
S	-9.2358
▁amaka	-9.23581
回答	-9.23585
▁yongko	-9.23585
▁yafana	-9.23586
▁mcoi	-9.23612
▁cʉecʉ	-9.23627
kio	-9.23732
▁yoi	-9.23796
▁toyo	-9.23804
▁mali	-9.23815
▁noteoyono	-9.23842
▁imza	-9.24028
天氣	-9.24093
▁taico	-9.24384
織布	-9.24479
竹子	-9.24564
少	-9.2502
▁nanat	-9.25249
▁mayasvi	-9.25368
▁mee	-9.25407
▁yoansoo	-9.25448
lako	-9.25668
的衣服	-9.26165
小孩子	-9.26265
▁yon	-9.26271
工寮	-9.26282
▁yokeoaso	-9.26525
孩子們	-9.26801
hisi	-9.26951
cmo	-9.26996
放在	-9.2763
coc	-9.28183
女孩	-9.28319
哪裡	-9.28376
明天	-9.28781
學	-9.28799
ona	-9.28829
並且	-9.28899
那些	-9.289
海	-9.28966
原住民	-9.28976
▁foinana	-9.28991
飛	-9.29004
常	-9.29023
▁boh	-9.29025
色	-9.29036
帽子	-9.29037
氏	-9.29044
壞	-9.29049
月	-9.29051
老鼠	-9.29059
數	-9.29059
擔心	-9.29061
▁emoyafo	-9.29061
▁kokaekaebʉ	-9.29061
▁momhino	-9.29061
▁ngeesangsi	-9.29061
小朋友	-9.29061
蟲	-9.29061
▁simeo	-9.29062
▁oancʉ	-9.29062
▁espayo	-9.29062
▁leaotothomʉ	-9.29062
▁covhi	-9.29063
ahʉyʉ	-9.29063
女性	-9.29065
▁phini	-9.29071
▁eiski	-9.29072
▁iepoepohʉ	-9.29088
▁hoosoa	-9.29096
水果	-9.29108
▁nsoo	-9.29111
▁aaskiti	-9.29115
▁yosohngo	-9.29156
▁ecoo	-9.29185
只要	-9.29279
像是	-9.29384
▁osi	-9.29505
讀書	-9.2976
的小孩	-9.29826
媽媽說	-9.29854
asa	-9.2991
▁pohe	-9.2992
amos	-9.29996
▁amosi	-9.30292
inga	-9.30302
ozo	-9.30427
in	-9.30571
▁emʉm	-9.30814
▁tata	-9.30984
▁teesi	-9.31007
oyʉ	-9.31052
很久	-9.31301
新	-9.31341
土地	-9.31391
得很	-9.31869
▁osko	-9.31903
比	-9.32095
▁kakotia	-9.32176
借	-9.32375
tela	-9.32494
aoko	-9.33228
大的	-9.3337
表	-9.33446
成為	-9.33559
▁mai	-9.3381
▁itac	-9.33812
▁yos	-9.33813
美麗	-9.33884
▁note	-9.34121
於是	-9.34173
氣	-9.34248
都是	-9.34277
▁sboko	-9.34401
歲	-9.34542
待	-9.34639
妹妹	-9.34676
▁tehe	-9.34713
場	-9.34722
收	-9.34762
一次	-9.34782
五	-9.34821
寫	-9.34834
趕快	-9.34854
種植	-9.34854
▁ceopngo	-9.34859
清	-9.34859
oyonsova	-9.3486
▁bʉnʉvhʉ	-9.3486
竟然	-9.3486
▁atohco	-9.3486
應該	-9.3486
▁amako	-9.34861
製作	-9.34863
獵場	-9.3487
▁mongsi	-9.34874
sio	-9.34884
tacvoh	-9.34901
小男孩	-9.34922
▁songo	-9.34967
▁cmʉ	-9.35116
▁vaso	-9.35348
都會	-9.3561
▁soezopʉ	-9.35776
使用	-9.35926
oka	-9.35973
出現	-9.36172
他們的	-9.36827
miyo	-9.3686
的話	-9.36957
為了	-9.36967
幫我	-9.37022
▁tposi	-9.37115
年輕人	-9.37345
afo	-9.37443
帶著	-9.37675
▁iho	-9.37867
變	-9.37882
▁comas	-9.38063
▁pae	-9.38151
ecʉ	-9.3831
講	-9.38466
z	-9.38498
你好	-9.38512
nte	-9.38839
ocʉ	-9.39368
我們一起	-9.39528
N	-9.40063
▁poco	-9.40167
ʉta	-9.40174
▁mate	-9.40427
男人	-9.4044
幾	-9.40479
正在	-9.40591
也會	-9.40627
nano	-9.40662
刀	-9.40784
anan	-9.40837
▁maita	-9.40869
雨	-9.40916
完	-9.40918
電腦	-9.40928
因此	-9.40945
果	-9.40948
▁congo	-9.4095
coma	-9.40951
▁fa	-9.40953
一樣	-9.40954
光	-9.40979
死	-9.40992
布	-9.41006
加	-9.41007
取	-9.41008
苦	-9.41011
為什麼	-9.41015
fafoinana	-9.41015
▁poyave	-9.41015
替	-9.41015
醫院	-9.41015
▁cmoeho	-9.41015
eopsi	-9.41015
▁hoaeca	-9.41016
全部	-9.41017
▁fʉesʉ	-9.41024
釣魚	-9.41032
▁ngiao	-9.4106
▁petohʉyʉ	-9.41084
來到	-9.41086
▁enca	-9.41104
▁aoyosi	-9.41182
族人	-9.4121
▁nahoco	-9.41265
▁koica	-9.41269
▁hopa	-9.4131
vinano	-9.41339
獵物	-9.41387
▁hamo	-9.41572
iso	-9.41585
amoco	-9.41596
▁cohzona	-9.41977
▁kaeba	-9.42077
mzo	-9.42117
oca	-9.42368
opa	-9.4244
▁neno	-9.42749
那邊	-9.42949
poo	-9.43
可能	-9.4317
one	-9.43246
我想	-9.43628
的是	-9.43744
不同	-9.43752
ski	-9.43915
hneni	-9.4396
efʉ	-9.44212
▁ah	-9.44303
國	-9.4437
svʉtʉ	-9.44383
兩個	-9.44539
話	-9.44727
hioa	-9.45121
▁peo	-9.45491
▁smoyo	-9.45554
▁noso	-9.45659
▁不是	-9.46027
lʉa	-9.46368
我會	-9.4651
的孩子	-9.46644
▁nemo	-9.46686
▁他是	-9.46699
is	-9.46906
eng	-9.46934
mʉtʉ	-9.46948
女	-9.47168
陷阱	-9.47267
ami	-9.47296
明	-9.47336
每天	-9.47378
照顧	-9.47405
aeno	-9.47409
習慣	-9.47455
本	-9.47468
奶奶	-9.47534
平	-9.47557
姐姐	-9.47566
池塘	-9.47566
▁veia	-9.4757
貓	-9.47572
綁	-9.47572
玉米	-9.47573
躲	-9.47574
ofeihni	-9.47574
▁ecvʉhʉ	-9.47574
▁soyʉmʉ	-9.47574
臉	-9.47574
▁asohc	-9.47574
▁tʉtpʉtʉ	-9.47576
▁kiokai	-9.47583
▁sʉesʉ	-9.47584
▁mevcongʉ	-9.47588
快樂	-9.47589
如何	-9.47592
▁poepe	-9.47594
▁phieni	-9.47596
之前	-9.47603
人類	-9.47612
小山豬	-9.47651
nʉskʉ	-9.47656
▁amoconi	-9.47656
▁hocieno	-9.47673
▁hopo	-9.47776
後來	-9.47811
▁eimo	-9.47842
也是	-9.48107
▁nama	-9.48125
▁ongkosi	-9.48352
定	-9.48373
eac	-9.48398
很會	-9.48454
的聲音	-9.48455
1	-9.48497
▁akameosʉ	-9.48603
▁hiesi	-9.49226
▁koe	-9.49635
▁mito	-9.49811
eima	-9.49994
▁sieo	-9.50039
在那裡	-9.50412
那裡	-9.5042
▁原來	-9.50523
只是	-9.50651
找到	-9.50758
▁sko	-9.50775
▁mat	-9.50988
lʉi	-9.5106
com	-9.51212
▁toh	-9.51305
▁我把	-9.51374
路上	-9.51469
身體	-9.51483
ohola	-9.51718
出去	-9.51856
▁ohsi	-9.51929
▁pas	-9.5199
洞	-9.52082
ico	-9.52213
的工作	-9.52261
不喜歡	-9.52723
的名字	-9.52885
svʉta	-9.53015
cola	-9.53027
▁tote	-9.53089
二	-9.5309
還沒	-9.53426
送	-9.53626
間	-9.53867
at	-9.53884
歌	-9.54018
在下雨	-9.54051
走路	-9.54136
▁yongo	-9.54204
或	-9.54368
包	-9.54371
傳	-9.54425
毛	-9.54428
房子	-9.54491
終於	-9.54493
船	-9.54504
短	-9.54525
日	-9.54548
流	-9.54574
黑	-9.54575
接	-9.54577
眼	-9.5458
祖父	-9.5458
乾	-9.54581
皮	-9.54583
睡	-9.54589
耳	-9.54591
刺	-9.54593
圍	-9.54593
休息	-9.54594
您	-9.54594
橡皮擦	-9.54594
oisasang	-9.54594
▁atohca	-9.54594
▁heetai	-9.54594
▁socaefi	-9.54594
▁takobingi	-9.54594
兄弟姊妹	-9.54594
繼續	-9.54594
cohivneni	-9.54594
oepona	-9.54594
乾淨	-9.54594
戰爭	-9.54595
寫字	-9.54596
漢人	-9.54599
▁akoeva	-9.54601
▁seikaco	-9.54605
▁pnaa	-9.54618
▁enghova	-9.54624
▁peayofʉ	-9.54629
各種	-9.54663
▁pito	-9.54678
別人	-9.54748
傳說	-9.5475
ʉc	-9.54752
▁sofʉ	-9.54762
那小孩	-9.54809
▁cila	-9.54966
的生活	-9.54992
▁yac	-9.55021
▁yoevaha	-9.55046
下去	-9.551
別	-9.55165
▁aoyo	-9.55392
好像	-9.55527
給我	-9.55557
▁chachae	-9.55705
sneni	-9.55711
一隻	-9.55893
▁tato	-9.55942
kov	-9.5598
▁ʉm	-9.56371
豬	-9.56456
回去	-9.57332
▁coca	-9.57378
隻	-9.57575
osʉ	-9.57887
比較	-9.57917
▁paso	-9.57919
efo	-9.58103
他說	-9.58235
眼睛	-9.58491
我們來	-9.58782
▁sa	-9.5915
ing	-9.59306
kv	-9.59458
eon	-9.59625
iei	-9.597
ihosa	-9.59754
就要	-9.60159
誰	-9.60223
ʉt	-9.60399
▁ima	-9.60701
Sayungu	-9.61032
次	-9.61168
方	-9.61344
oni	-9.61387
達邦社	-9.6175
於	-9.61801
seolʉ	-9.61837
早	-9.61935
同	-9.61987
飯	-9.62034
因	-9.62035
便	-9.62059
長大	-9.62063
約	-9.62075
偷	-9.62078
笑	-9.62094
帶領	-9.62098
工	-9.62099
森林	-9.62109
拔	-9.62113
離	-9.62119
食	-9.62126
殺	-9.6213
服	-9.6213
動物	-9.6213
節	-9.62131
禮	-9.62132
散	-9.62132
烏克蘭	-9.62134
線	-9.62134
立	-9.62138
世界	-9.62138
尋找	-9.62139
翻	-9.62141
Kacaw	-9.62143
▁雖然	-9.62143
強	-9.62143
越	-9.62143
ongteng	-9.62144
▁biebimi	-9.62144
▁bʉbʉvnʉ	-9.62144
▁toalongo	-9.62144
▁topzoha	-9.62144
認識	-9.62144
▁noyʉnʉ	-9.62145
▁aitneni	-9.62145
▁yaoesiesi	-9.62145
無法	-9.62145
▁ciengona	-9.62148
otole	-9.62149
▁homna	-9.6215
豬肉	-9.62152
▁paavi	-9.62152
水管	-9.62159
吃飯	-9.62162
天空	-9.62163
▁請你	-9.62172
看見	-9.62175
▁以前	-9.62185
出生	-9.6219
說族語	-9.62203
▁hikoki	-9.62223
▁toekameosʉ	-9.62223
男子	-9.62249
▁tomaska	-9.62431
其他	-9.62465
▁emoco	-9.625
▁smai	-9.62601
cni	-9.62839
osna	-9.62917
▁mikoco	-9.62928
oyoa	-9.63023
sico	-9.63031
▁ehti	-9.63243
改變	-9.63354
▁小孩	-9.63389
▁誰	-9.63411
人家	-9.63602
因為他	-9.63655
▁ieni	-9.63699
做的	-9.63846
ovei	-9.63907
mico	-9.64035
新的	-9.64235
poya	-9.64311
▁elʉa	-9.6451
▁elʉ	-9.64516
角	-9.64531
▁tʉ	-9.64569
ʉmnʉa	-9.64765
▁是的	-9.65074
▁hof	-9.65272
聽到	-9.65282
▁mas	-9.65535
hoza	-9.65607
▁aopci	-9.66052
ngva	-9.66563
也有	-9.66858
▁ala	-9.67137
入	-9.67207
evo	-9.67213
麻	-9.67233
▁鄒族	-9.673
豆	-9.6742
搬	-9.67783
▁aʉmtʉ	-9.68061
▁motoyʉ	-9.68182
ongʉ	-9.68227
ihe	-9.68908
一起去	-9.68961
很大	-9.69546
挖	-9.69917
拉	-9.69925
▁vcongʉ	-9.70004
覺得	-9.70067
自	-9.70123
然	-9.70147
期	-9.702
身	-9.70202
藥	-9.70236
本書	-9.70245
冷	-9.70245
記	-9.70255
此	-9.70259
反	-9.70259
砍	-9.70269
實	-9.7027
至	-9.7029
照	-9.70291
割	-9.70296
族群	-9.70297
晚餐	-9.703
通	-9.70301
排	-9.70303
換	-9.70304
雨傘	-9.70304
害	-9.70306
合	-9.70309
咬	-9.7031
w	-9.7031
熊	-9.7031
meknoyo	-9.7031
▁fafcoya	-9.7031
▁hiapeoza	-9.7031
午餐	-9.7031
細	-9.7031
擦	-9.7031
弄	-9.70311
enepio	-9.70311
夢	-9.70311
▁vioing	-9.70312
▁mihna	-9.70313
▁mehea	-9.70313
▁ingoyo	-9.70315
特別	-9.70315
神靈	-9.70317
▁malala	-9.70319
而且	-9.7032
問題	-9.7032
▁teomneni	-9.70321
ohkoyo	-9.70321
今年	-9.70322
▁pʉv	-9.70323
活動	-9.70324
▁boacoo	-9.70325
山羊	-9.70347
▁smʉn	-9.70375
心想	-9.70388
感到	-9.70399
▁sopeohʉ	-9.70402
▁teongo	-9.70403
一家人	-9.70411
▁kea	-9.7042
▁taonon	-9.70465
▁aezoho	-9.70512
▁cmoi	-9.70576
下山	-9.70578
▁iceopngo	-9.70596
heʉm	-9.70633
看著	-9.70698
fei	-9.70724
大家都	-9.70726
sayungu	-9.70747
吃的	-9.70974
▁但是	-9.70994
▁loa	-9.71028
4	-9.71084
▁k	-9.71127
▁eino	-9.71169
maica	-9.71192
▁manci	-9.7135
▁yoevaho	-9.71375
kʉ	-9.71375
掉了	-9.71398
送給	-9.7143
▁maya	-9.71512
▁pantola	-9.71512
hong	-9.71669
賣	-9.71733
▁mitac	-9.71813
很高興	-9.72034
▁nat	-9.72104
meʉe	-9.72196
▁sima	-9.72277
天神	-9.72336
oza	-9.7252
ata	-9.72639
▁tith	-9.72778
▁moh	-9.72824
▁你有	-9.72838
一定	-9.72961
of	-9.72994
▁狗	-9.73067
下雨	-9.73131
▁koyo	-9.73328
▁fihngao	-9.73335
裡面	-9.73425
害怕	-9.73525
真	-9.73635
自己的	-9.73661
天上	-9.74141
學生	-9.74145
需要	-9.74264
▁pso	-9.7432
過來	-9.74504
▁imo	-9.7475
▁beahci	-9.7489
▁engʉca	-9.75096
▁kolo	-9.75167
過了	-9.75356
▁ef	-9.75728
父親	-9.75871
住在	-9.76319
▁opena	-9.76529
裝	-9.76544
▁payo	-9.76583
ʉs	-9.76664
的部落	-9.76781
han	-9.77257
▁ahtoo	-9.77355
onto	-9.77396
了很多	-9.77592
還在	-9.77904
ocic	-9.77929
八	-9.77991
▁現在	-9.78034
七	-9.78095
內	-9.78254
hoi	-9.78328
koeno	-9.78475
▁ceo	-9.78495
▁他把	-9.78698
ʉtʉ	-9.78809
▁hin	-9.7884
位	-9.78852
的錢	-9.78899
哭	-9.78974
停	-9.78982
樣	-9.79042
告訴	-9.79078
溪	-9.79095
射	-9.79108
擁有	-9.79122
veo	-9.79129
米糕	-9.79131
公	-9.79132
健康	-9.79135
特富野社	-9.79137
更	-9.79144
代	-9.79152
石	-9.79161
▁pet	-9.79161
古	-9.79169
錯	-9.79175
樂	-9.79182
祭典	-9.79184
拍	-9.79186
碗	-9.79189
到達	-9.79193
改	-9.79193
yovc	-9.79195
台	-9.79196
參加	-9.79197
kulo	-9.79198
思	-9.792
結果	-9.792
戰祭	-9.79201
教育	-9.79202
啄木鳥	-9.79203
)	-9.79204
6	-9.79204
okholan	-9.79204
▁apihana	-9.79204
▁maibayo	-9.79204
▁smaofsoso	-9.79204
▁sopeopeohʉ	-9.79204
▁peongsi	-9.79204
甜	-9.79204
(	-9.79204
侵	-9.79204
游泳	-9.79204
inguyu	-9.79204
姊姊	-9.79204
房間	-9.79205
Malala	-9.79205
▁pooyoyo	-9.79206
教導	-9.79206
umao	-9.79209
邀請	-9.79211
▁nʉthʉ	-9.79214
▁feʉngna	-9.79216
empico	-9.79218
那裏	-9.79222
▁akoyo	-9.79224
▁yotoka	-9.79227
▁那個男人	-9.79228
前面	-9.7923
oheʉ	-9.79238
▁ngoveo	-9.79259
老人家	-9.79268
我們的祖先	-9.79269
oyomza	-9.79315
日本人	-9.79328
mizi	-9.79373
▁阿里山	-9.79389
我可以	-9.79418
車子	-9.7942
▁totoefʉngʉ	-9.79467
或是	-9.7948
nosino	-9.79482
▁hnoo	-9.7949
▁pozo	-9.79531
angmo	-9.79648
▁noezoho	-9.7965
▁akoyono	-9.79659
▁avinano	-9.79724
吃了	-9.79749
九	-9.79766
男	-9.79769
tot	-9.79789
青年	-9.79838
▁maka	-9.79852
▁mioci	-9.80032
剛剛	-9.8019
生命	-9.80298
▁yʉsʉsi	-9.80399
▁tiov	-9.80524
eina	-9.80524
▁feo	-9.80542
hongi	-9.80674
很好吃	-9.80795
▁ongkoso	-9.8086
不好	-9.81062
很喜歡	-9.81565
▁別	-9.81609
你喜歡	-9.81627
老鷹	-9.8165
ocni	-9.81732
變成	-9.81756
pto	-9.82364
園	-9.82565
▁toocosʉ	-9.82569
我沒有在	-9.82665
ʉhi	-9.83157
▁aemo	-9.8328
▁ivah	-9.83414
的腳	-9.83521
這裡有	-9.8353
▁toyaf	-9.83562
還要	-9.83594
▁sʉptʉ	-9.84033
家屋	-9.8411
▁seo	-9.842
他是	-9.84492
年輕	-9.84535
故事	-9.84689
瓶子裡	-9.85344
剛好	-9.85562
我要買	-9.85651
後面	-9.85831
▁efo	-9.85894
看到了	-9.86023
走到	-9.86219
羊	-9.86241
popoha	-9.86251
橋	-9.86324
▁老鷹	-9.86338
▁mʉ	-9.8638
le	-9.86389
要去哪裡	-9.86428
直到	-9.86757
看起來	-9.86827
剛	-9.87229
至少	-9.87545
方式	-9.8765
▁孩子們	-9.87888
▁moyo	-9.87974
土	-9.88413
其	-9.88444
可	-9.88565
法	-9.88769
身上	-9.88793
日本	-9.88799
袋	-9.88807
算	-9.88853
感	-9.88853
見	-9.88857
全	-9.88893
留	-9.88913
者	-9.88914
出門	-9.88926
母	-9.88936
道	-9.88942
壓	-9.88942
長輩	-9.88946
近	-9.88947
如	-9.88948
5	-9.88952
連	-9.88955
片	-9.8896
tiskova	-9.88961
▁mposko	-9.88962
▁sasin	-9.88963
aoesiesi	-9.88964
化	-9.88965
雜	-9.88965
必	-9.88965
砰	-9.88965
彩	-9.88965
▁mahohosa	-9.88965
Tanivu	-9.88966
▁bobaito	-9.88966
▁kamcia	-9.88966
▁momaemaezo	-9.88966
▁ngangcʉngcʉ	-9.88966
▁pkaako	-9.88966
▁tvaezoya	-9.88966
腰	-9.88966
雨停了	-9.88966
▁pofngo	-9.88966
插	-9.88966
橫	-9.88966
農作物	-9.88966
▁aomane	-9.88966
papika	-9.88966
雲	-9.88966
警察	-9.88966
▁potani	-9.88966
未	-9.88966
結束	-9.88967
▁acipa	-9.88967
▁kamae	-9.88967
▁fahei	-9.88967
慢慢	-9.88967
▁meove	-9.88968
播種	-9.88968
那時候	-9.88968
受傷	-9.88968
能夠	-9.8897
今年幾歲	-9.88972
多少錢	-9.88976
toesoso	-9.88981
kulolo	-9.88981
▁toatmopsʉ	-9.88981
▁kololo	-9.88981
再見	-9.88985
▁ngov	-9.88986
外面	-9.88991
然後	-9.88994
▁teongasi	-9.88996
不論	-9.88998
等一下	-9.8901
▁emco	-9.89035
▁kha	-9.89058
sk	-9.89088
幾歲	-9.891
水鹿	-9.89105
▁yʉnʉ	-9.89109
▁yopasʉ	-9.89114
▁smopayo	-9.89136
不一樣	-9.89147
上面	-9.89156
▁esvʉta	-9.89292
下雨了	-9.89301
akak	-9.89304
總是	-9.89336
▁yooveineni	-9.89368
對著	-9.894
alas	-9.89807
▁sme	-9.89889
▁ohaevasi	-9.89948
▁coc	-9.89982
20	-9.90015
A	-9.90054
▁ten	-9.9024
omao	-9.90392
吹	-9.90437
▁Sayungu	-9.90438
▁kahkʉmnʉ	-9.90543
傳統	-9.90545
抓到	-9.90731
pak	-9.908
了我的	-9.90836
▁他們把	-9.90837
eaf	-9.9105
▁temia	-9.91169
achi	-9.91345
▁yahioai	-9.91714
是原住民	-9.92018
paicʉte	-9.92061
大社	-9.92441
▁comasa	-9.92892
的眼睛	-9.93219
去找	-9.93236
在睡覺	-9.93415
▁sono	-9.93418
▁some	-9.93809
Yangui	-9.94005
祭屋	-9.94461
tonzo	-9.94531
▁我在	-9.94705
人的	-9.94934
nova	-9.9498
kai	-9.95176
asoe	-9.95296
怎麼會	-9.95386
panto	-9.95527
男生	-9.95659
禁忌	-9.95925
在讀書	-9.95968
的事	-9.96019
▁mamo	-9.96107
早上	-9.96165
有許多	-9.9624
是不是	-9.96601
是鄒族	-9.96868
▁mayahe	-9.97007
▁momo	-9.97029
▁yono	-9.97117
那隻狗	-9.97257
高興	-9.97519
每	-9.97585
使	-9.97772
asno	-9.97778
河邊	-9.97936
地方	-9.98022
小米祭	-9.98254
oiva	-9.98287
好多	-9.98403
在家	-9.98465
氏族	-9.98502
sola	-9.98799
▁kos	-9.98812
逃	-9.98895
▁tom	-9.99155
▁sayungu	-9.992
▁tm	-9.99216
neng	-9.99303
曾經	-9.99319
我很	-9.99405
haeng	-9.99468
指	-9.99524
主	-9.99548
理	-9.99641
葉	-9.99661
踩	-9.99674
亂	-9.99687
戴	-9.99727
守	-9.99732
相	-9.99734
許	-9.99742
戰	-9.99745
打獵	-9.99751
性	-9.99753
丟	-9.99754
不管	-9.99755
命	-9.99755
亮	-9.99756
整	-9.99762
夜	-9.99763
剝	-9.99765
安	-9.99768
互相	-9.9977
成年禮	-9.99771
客	-9.99773
特	-9.99774
觀	-9.99775
練習	-9.99776
特富野	-9.99776
月亮	-9.99777
足	-9.9978
男子會所	-9.99781
任	-9.99782
造	-9.99782
養	-9.99783
城	-9.99783
埋	-9.99783
uachumu	-9.99784
sngʉsngʉyo	-9.99784
~	-9.99784
▁cmʉcmʉ	-9.99784
▁cofkoya	-9.99784
▁macicihi	-9.99784
▁saiptoko	-9.99784
▁taipaho	-9.99784
▁toapzo	-9.99784
例如	-9.99784
致	-9.99784
▁tengnao	-9.99784
們昨天去	-9.99784
接受	-9.99784
d	-9.99784
▁bit	-9.99785
▁niahosa	-9.99785
▁totiski	-9.99785
勇士	-9.99785
tohʉngva	-9.99785
度	-9.99785
選	-9.99785
若	-9.99785
嬰兒	-9.99785
eohngi	-9.99785
oehanva	-9.99785
放置	-9.99785
▁tengami	-9.99786
稱呼	-9.99786
畫畫	-9.99787
策	-9.99787
▁afnas	-9.99789
▁seito	-9.9979
▁koiyo	-9.9979
男性	-9.99791
▁nanʉhtʉ	-9.99792
▁soiko	-9.99794
女方	-9.99796
▁aasvʉtʉ	-9.99797
跑步	-9.99797
拍手	-9.99798
▁cfoa	-9.99799
▁從前	-9.998
進入	-9.99803
打掃	-9.99805
vhona	-9.99809
認為	-9.9981
▁ehtothomʉ	-9.99811
▁sose	-9.99811
前往	-9.99818
▁yʉmeʉmʉ	-9.9984
以及	-9.99843
來這裡	-9.99849
快一點	-9.99858
▁yahngʉyʉ	-9.99871
▁choa	-9.99873
開心	-9.99886
sakio	-9.99887
▁hophinasi	-9.99911
▁inoconi	-9.99919
喝水	-9.99933
的事情	-10
當時	-10.0001
▁hoomza	-10.0008
▁你幫我	-10.0008
▁tngoo	-10.001
vono	-10.0012
▁那個人	-10.0017
的儀式	-10.0025
的歌	-10.0025
並不	-10.0029
▁mamameoito	-10.0041
tav	-10.0051
也可以	-10.0052
▁mohta	-10.0053
▁mimio	-10.0053
▁cohm	-10.0056
▁aoso	-10.0142
他們要	-10.0144
▁sasmoyʉskʉ	-10.0155
原來是	-10.0155
aihe	-10.0157
的菜	-10.0157
▁eya	-10.0183
▁yoho	-10.0192
我今天	-10.0217
非常好	-10.0232
第二	-10.0234
野	-10.0248
就可以	-10.0257
不同的	-10.026
ongki	-10.0262
poyo	-10.0308
來的	-10.0311
好了	-10.0325
還沒有	-10.0382
回家了	-10.0383
▁noyano	-10.0387
▁lohto	-10.039
▁tetoco	-10.0393
▁你們的	-10.0397
▁mosoco	-10.0419
tan	-10.0425
▁totea	-10.0426
她是	-10.0433
▁peis	-10.0436
會唱歌	-10.0444
▁pono	-10.0465
也要	-10.0503
很久以前	-10.0503
ihin	-10.051
國家	-10.0529
他們在	-10.0538
▁mos	-10.0564
man	-10.0566
▁ciha	-10.0584
漂亮	-10.0614
我要去	-10.0618
▁emooso	-10.062
eongʉ	-10.0649
有沒有	-10.0676
回到	-10.0676
▁tes	-10.0703
kaebʉ	-10.073
▁sno	-10.0736
想到	-10.0754
▁mam	-10.0774
mayasvi	-10.0777
yaezoi	-10.0788
▁pea	-10.0808
▁af	-10.0809
▁yam	-10.0836
otes	-10.0836
的路	-10.0846
坐下	-10.0865
▁temza	-10.0882
▁fih	-10.0901
ʉh	-10.0906
ahto	-10.0927
善	-10.094
▁kaeb	-10.0952
botngonʉ	-10.0969
本來	-10.0975
▁我沒有	-10.0982
去學校	-10.0989
比賽	-10.1018
kola	-10.1026
提	-10.1041
▁那你	-10.1069
ica	-10.1077
teoyon	-10.1084
就好	-10.1089
hʉngʉ	-10.1103
ʉecʉ	-10.1104
▁teolʉ	-10.1119
祖先	-10.1131
▁main	-10.1131
要做	-10.1131
epʉnga	-10.1146
斷	-10.1147
時間	-10.1149
解	-10.1149
槍	-10.1159
通常	-10.117
▁cʉyʉ	-10.1173
罵	-10.1173
社	-10.1176
達邦	-10.1177
香	-10.1178
網	-10.1179
切	-10.1182
站	-10.1183
活	-10.1184
農	-10.1186
試	-10.1186
eoi	-10.1187
釣	-10.1188
傷	-10.1188
輕	-10.1188
婚	-10.1188
縫	-10.1189
語	-10.1189
衣	-10.119
決定	-10.119
搭	-10.119
體	-10.119
日本政府	-10.1191
靠近	-10.1191
品	-10.1191
幫助	-10.1191
洋	-10.1191
紅	-10.1191
圈	-10.1191
器	-10.1191
怕	-10.1191
持	-10.1191
影	-10.1191
交換	-10.1191
聚集	-10.1191
藤	-10.1191
▁ecngi	-10.1191
存	-10.1191
星星	-10.1191
柬埔寨	-10.1191
拜訪	-10.1191
追	-10.1191
牙	-10.1192
套	-10.1192
遷	-10.1192
油	-10.1192
耶	-10.1192
O	-10.1192
W	-10.1192
tibu	-10.1192
30	-10.1192
oyongsova	-10.1192
yanosoyo	-10.1192
▁aepʉngʉ	-10.1192
▁alolongʉ	-10.1192
▁biavovei	-10.1192
▁bitotonʉ	-10.1192
▁cmʉfeʉ	-10.1192
▁hosoyʉma	-10.1192
▁mahcohcoyo	-10.1192
▁oyofnga	-10.1192
▁patongkoonʉ	-10.1192
▁peobanga	-10.1192
▁sapci	-10.1192
▁sincyang	-10.1192
▁tibo	-10.1192
▁tmotmaʉzʉzʉ	-10.1192
▁tokeoya	-10.1192
▁tooyokeo	-10.1192
▁yaineno	-10.1192
半	-10.1192
很勤勞	-10.1192
沖	-10.1192
煩	-10.1192
鋸	-10.1192
▁moezʉ	-10.1192
▁ngohco	-10.1192
▁smopcoko	-10.1192
摩托車	-10.1192
祈福	-10.1192
酸	-10.1192
2022	-10.1192
7	-10.1192
mocaefi	-10.1192
▁abohtʉ	-10.1192
季	-10.1192
▁miteohi	-10.1192
▁sʉngcʉ	-10.1192
賞	-10.1192
▁Tahai	-10.1192
▁congeoha	-10.1192
甘	-10.1192
窗戶	-10.1192
▁asongho	-10.1192
▁eyasasmoyʉskʉ	-10.1192
▁mooyoyai	-10.1192
海龜	-10.1192
▁sopihi	-10.1192
▁kokeo	-10.1192
張	-10.1192
Sincyang	-10.1192
阿姨	-10.1192
的日子	-10.1192
隨便	-10.1192
的想法	-10.1192
中午	-10.1192
用右手	-10.1192
▁topioha	-10.1192
teofz	-10.1192
▁你有幾個	-10.1192
旁邊	-10.1192
河流	-10.1192
女兒	-10.1192
飛鼠	-10.1192
太陽出來了	-10.1193
▁zitensa	-10.1193
提親	-10.1193
▁kali	-10.1193
帶著雨傘	-10.1193
太久	-10.1193
稱為	-10.1193
▁conohie	-10.1193
菜園	-10.1193
講話	-10.1193
搖動	-10.1193
otoli	-10.1194
▁sekai	-10.1194
掉下來	-10.1194
褲子	-10.1194
她是我的	-10.1195
再次	-10.1195
記得	-10.1195
海鳥	-10.1195
長者	-10.1195
▁emoovei	-10.1195
森林裡	-10.1196
▁奶奶說	-10.1197
▁ceoyo	-10.1198
▁peepeoci	-10.1201
ingha	-10.1203
作為	-10.1204
抓魚	-10.1204
▁tenva	-10.1205
想起	-10.1206
主要	-10.1207
穿著	-10.1207
oeno	-10.1208
▁nochʉmʉ	-10.1208
女子	-10.1213
很遠	-10.1213
oachipa	-10.1215
去山上	-10.1216
家人	-10.1216
滿了	-10.1218
鄒語	-10.1219
zonʉ	-10.1222
遇到	-10.1224
▁aepʉnga	-10.1227
▁coveo	-10.1228
獵人	-10.1229
▁mofti	-10.123
▁maafo	-10.1236
▁mooteo	-10.1238
▁ngayo	-10.1239
▁eN	-10.1239
拿到	-10.1239
ngneni	-10.1239
的時間	-10.1248
koyo	-10.1251
toeva	-10.1251
看看	-10.1259
跟我	-10.1269
honga	-10.1271
▁asona	-10.1271
家庭	-10.1281
ovnʉ	-10.1281
▁yʉlʉ	-10.1291
▁fsoyo	-10.1302
▁nate	-10.1305
並沒有	-10.1306
▁mako	-10.1311
▁imia	-10.1316
fʉnʉ	-10.1325
過去的	-10.1348
你可以	-10.1362
pu	-10.1365
tisi	-10.1373
▁isin	-10.1396
▁meoi	-10.1402
▁yata	-10.1404
分給	-10.1405
▁nomʉ	-10.1414
toton	-10.1426
evono	-10.1429
oeso	-10.1434
的頭髮	-10.1435
都要	-10.1436
茶	-10.1443
okosi	-10.1448
▁你來	-10.1451
ngzot	-10.1455
小心	-10.1456
▁ito	-10.1467
那時	-10.1475
的學校	-10.1487
▁anga	-10.1493
眾人	-10.1512
幾個	-10.1537
在一起	-10.1562
河	-10.1562
▁oheco	-10.1579
momza	-10.1585
▁inoso	-10.1589
最好	-10.1593
▁moni	-10.1662
我不	-10.1668
是男生	-10.168
▁mea	-10.1695
▁我和	-10.1696
我叫	-10.1709
個人	-10.1711
▁tekoc	-10.1726
畫圖	-10.1734
很多人	-10.1736
這是我的	-10.1743
的故事	-10.1748
我也	-10.1751
的食物	-10.1764
。「	-10.1767
一起走	-10.1787
g	-10.1787
便當	-10.1792
conia	-10.1799
出去玩	-10.1805
▁hio	-10.1855
▁siho	-10.1894
iy	-10.192
一位	-10.1922
很痛	-10.1924
一天	-10.1931
peohʉ	-10.1956
oz	-10.1961
vneni	-10.1964
meois	-10.202
pin	-10.207
用竹子	-10.2121
yoyo	-10.2122
上山	-10.2122
▁solen	-10.2157
poha	-10.2172
到山上	-10.2209
難過	-10.2217
給你	-10.2279
eisi	-10.2298
我就	-10.2326
ezoho	-10.2348
深	-10.235
▁mion	-10.2383
chomo	-10.2391
titha	-10.2396
aiti	-10.2404
些	-10.2412
ezohi	-10.2415
Ap	-10.2415
sansana	-10.242
yoni	-10.2423
下次	-10.2434
機	-10.2456
▁cong	-10.2483
第	-10.2486
掌	-10.2502
的蛇	-10.2507
滿	-10.2528
我們家	-10.2529
我們都	-10.253
破	-10.254
事情	-10.254
屬於	-10.255
空	-10.2554
受	-10.2559
兒	-10.256
世	-10.256
蝦	-10.256
條	-10.2562
失	-10.2562
▁maito	-10.2564
塊	-10.2564
準	-10.2564
電視	-10.2567
曬	-10.2568
部	-10.2569
在石頭上	-10.2569
熟	-10.2569
步	-10.2569
差	-10.257
屋頂	-10.257
鼠	-10.257
搖	-10.257
寶	-10.2571
錄	-10.2571
肥	-10.2571
味	-10.2571
獸	-10.2571
配	-10.2571
訓	-10.2571
電	-10.2571
衝	-10.2571
8	-10.2572
幸	-10.2572
的作物	-10.2572
護	-10.2572
餓	-10.2572
轉	-10.2572
南	-10.2572
登	-10.2572
阿	-10.2572
標	-10.2572
治	-10.2572
修	-10.2572
大巨人	-10.2572
獨	-10.2572
討	-10.2572
那麼多	-10.2572
勞	-10.2573
姑	-10.2573
敬	-10.2573
項	-10.2573
髒	-10.2573
阿美族	-10.2573
低	-10.2573
格	-10.2573
▁lolko	-10.2573
嚇	-10.2573
朝	-10.2573
脫	-10.2573
Y	-10.2573
]	-10.2573
bochio	-10.2573
▁beoko	-10.2573
▁eoteoteozo	-10.2573
▁kacaw	-10.2573
▁savoloo	-10.2573
▁tʉtpʉta	-10.2573
捉	-10.2573
癢	-10.2573
哇	-10.2573
商店	-10.2573
在都市	-10.2573
稍微	-10.2573
▁nanghiya	-10.2573
▁tmaolalʉ	-10.2573
▁mainsohʉ	-10.2573
▁nivno	-10.2573
▁tomamacongo	-10.2573
[	-10.2573
富	-10.2573
圓	-10.2573
▁yatonga	-10.2573
▁yophi	-10.2573
臺	-10.2573
▁sopepea	-10.2573
什麼時候	-10.2573
Atai	-10.2573
沉	-10.2573
▁hoehongo	-10.2573
祝福	-10.2573
答應	-10.2573
布農族	-10.2573
搭公車	-10.2573
吵架	-10.2573
▁lalaoya	-10.2573
製造	-10.2573
▁kioiko	-10.2573
爭取	-10.2573
▁maviya	-10.2573
▁tongsoha	-10.2573
年糕	-10.2574
想念	-10.2574
▁amso	-10.2574
男方	-10.2574
以為	-10.2574
ahʉya	-10.2574
杯子	-10.2574
隊長	-10.2574
▁小布	-10.2574
▁hiyoyo	-10.2574
ecihi	-10.2574
各自	-10.2574
捕魚	-10.2575
anc	-10.2575
找不到	-10.2575
祖父祖母	-10.2575
人民	-10.2576
▁nooteoyono	-10.2576
▁hovahi	-10.2576
opneni	-10.2576
小鋤頭	-10.2576
▁yʉʉcʉcʉh	-10.2577
▁yoevahneni	-10.2577
各個	-10.2577
收成	-10.2577
茶山	-10.2578
▁tʉpʉ	-10.2578
loʉngʉ	-10.2579
不斷	-10.2579
事先	-10.2579
▁好啊	-10.2579
小米酒	-10.258
▁aoeva	-10.258
一條	-10.2581
喝酒	-10.2581
yonsoo	-10.2582
▁akameosa	-10.2582
▁eyafoo	-10.2582
失去	-10.2583
女人們	-10.2583
受到	-10.2583
長老	-10.2584
ayomonʉ	-10.2584
兒子	-10.2585
大雨	-10.2586
最喜歡	-10.2586
▁keo	-10.2588
水田	-10.2588
▁nenosi	-10.2589
上船	-10.2589
挖到	-10.2592
心裡	-10.2592
pʉya	-10.2593
拿著	-10.2596
▁sokoeva	-10.2597
地上	-10.2599
▁capo	-10.2599
▁要讓	-10.2599
▁eiho	-10.26
教會	-10.2603
那女孩	-10.2608
才會	-10.2609
真是	-10.2609
▁maameoito	-10.261
▁epei	-10.261
兩人	-10.2612
oatee	-10.2615
▁teovahi	-10.2617
▁tmoezoho	-10.2619
你是不是	-10.2622
▁oho	-10.2622
▁mameoihe	-10.2623
所有的	-10.2623
的狗	-10.2625
給他	-10.2627
▁eototaveia	-10.263
peipei	-10.2632
fotng	-10.2635
▁papa	-10.2635
我的陷阱	-10.2635
本來就	-10.265
那男孩	-10.265
▁pop	-10.2653
▁amzo	-10.2653
讓他	-10.2655
了許多	-10.2656
▁loe	-10.2656
不動	-10.2665
每個人	-10.2667
▁ohaesasi	-10.2677
▁sbokono	-10.2687
都有	-10.2689
▁soopozo	-10.2689
ene	-10.2699
下方	-10.2703
回來了	-10.2712
teoyono	-10.2713
會洗衣服	-10.2717
我的孩子	-10.2717
eteoyono	-10.2723
的女孩	-10.2724
▁他們有	-10.2724
我有一隻	-10.2725
我們為	-10.2725
▁ahoisi	-10.2734
▁maeno	-10.2737
汪氏	-10.2744
的地瓜	-10.2747
▁toveoco	-10.2757
種的	-10.2758
的方式	-10.2766
heco	-10.2784
現在是	-10.2806
pova	-10.2806
▁aotothom	-10.2814
sv	-10.2816
▁seolʉano	-10.2833
五個人	-10.2834
他要	-10.2851
▁meha	-10.2853
▁poh	-10.2863
noepohʉ	-10.2866
svovei	-10.2874
▁yopato	-10.2875
▁mimzac	-10.2881
▁moat	-10.2889
不到	-10.2904
你看	-10.2922
三十	-10.2923
的手	-10.2942
▁tanoa	-10.2949
很難過	-10.2961
我知道	-10.2968
lahe	-10.2978
▁nooyo	-10.3005
onana	-10.3019
在山上	-10.3029
但是他	-10.3039
osnia	-10.3039
▁poac	-10.3039
是一個	-10.3042
他沒有	-10.3064
▁smoyoa	-10.3064
▁yaahioai	-10.3095
teona	-10.3113
麻竹	-10.3127
kang	-10.3136
maamtanʉ	-10.3142
為他	-10.3154
hikok	-10.3167
ohaesaso	-10.3182
到處	-10.3185
我很喜歡	-10.3203
▁miso	-10.3207
tave	-10.3208
▁tic	-10.3227
不需要	-10.3233
tho	-10.3256
漂亮的	-10.3271
▁eto	-10.3422
阿里山	-10.3432
tneni	-10.3442
裡有好多	-10.3464
不用	-10.3475
我們是	-10.3477
▁ohno	-10.3477
▁taha	-10.3507
▁osic	-10.3523
的肉	-10.3523
我們在	-10.3531
▁這是第	-10.3542
▁ceon	-10.3568
有兩個	-10.3574
ʉm	-10.3592
少的	-10.3599
nca	-10.3612
的角	-10.3662
的原住民	-10.3698
▁aangae	-10.372
畫	-10.3736
M	-10.3748
愈來愈	-10.3775
掃	-10.3795
▁pah	-10.3798
epohʉ	-10.3827
跟他	-10.3854
tong	-10.3854
會下雨	-10.3882
織布的	-10.3889
ospotʉ	-10.3925
很小	-10.3933
▁tetoc	-10.395
▁eop	-10.3959
的生命	-10.3975
請你	-10.398
▁mosoc	-10.3993
好好	-10.3993
喜歡讀書	-10.4004
原	-10.4013
好吃	-10.4017
要種	-10.4033
員	-10.4051
當我	-10.4053
epe	-10.4066
每個	-10.4069
▁hohocmas	-10.4083
他想	-10.4091
voveia	-10.4094
認	-10.4102
總	-10.4103
mameo	-10.4103
粗	-10.4107
feongo	-10.411
明天要	-10.4116
3	-10.4118
看電視	-10.4135
我來	-10.4137
除	-10.4142
thomʉ	-10.4149
現	-10.415
玉山	-10.4151
掛	-10.4154
apang	-10.4154
▁hophina	-10.4156
類	-10.416
撞	-10.4163
美	-10.4163
注意	-10.4165
願意	-10.4165
▁botas	-10.4165
件	-10.4166
今	-10.4167
區	-10.4168
矮	-10.4168
累	-10.4169
烤	-10.4171
鋤	-10.4172
稻	-10.4172
程	-10.4172
求	-10.4173
應	-10.4173
涼	-10.4173
暖	-10.4174
越來越	-10.4174
讀	-10.4174
料	-10.4174
開車	-10.4174
建	-10.4174
黃	-10.4174
載	-10.4174
閒	-10.4174
候	-10.4174
醫	-10.4174
索	-10.4174
某	-10.4174
願	-10.4174
溫	-10.4174
綠色	-10.4174
鈔	-10.4174
汗	-10.4174
注	-10.4174
乎	-10.4174
hipongana	-10.4174
擊	-10.4174
堆	-10.4174
屬	-10.4174
慢	-10.4175
堅	-10.4175
奏	-10.4175
惜	-10.4175
所以我	-10.4175
鋤頭	-10.4175
舊	-10.4175
▁taivan	-10.4175
吵	-10.4175
腳踏車	-10.4175
惡	-10.4175
祝	-10.4175
絕	-10.4175
I	-10.4175
▁macocono	-10.4175
10	-10.4175
基	-10.4175
童	-10.4175
仍然	-10.4175
退	-10.4175
T	-10.4175
利	-10.4175
單	-10.4175
密	-10.4175
▁老鷹去問	-10.4175
責備	-10.4175
這麼多	-10.4175
揹	-10.4175
烏	-10.4175
貪	-10.4175
XXX	-10.4175
▁lingngoo	-10.4175
跡	-10.4175
hohcʉbʉ	-10.4175
▁aoseoseolʉ	-10.4175
▁bangno	-10.4175
▁bohsifoo	-10.4175
▁boveici	-10.4175
▁engocha	-10.4175
▁kakapana	-10.4175
▁kalalo	-10.4175
▁kangngofo	-10.4175
▁kanpioto	-10.4175
▁ketbʉ	-10.4175
▁kʉehoi	-10.4175
▁maikoyongo	-10.4175
▁meobango	-10.4175
▁nongonongo	-10.4175
▁oepʉngʉ	-10.4175
▁ohsosohco	-10.4175
▁oyofonʉ	-10.4175
▁patkaya	-10.4175
▁pcoknʉ	-10.4175
▁piepiya	-10.4175
▁soetohvʉ	-10.4175
▁tmoepoyʉ	-10.4175
▁tʉfsʉ	-10.4175
▁我的膝蓋	-10.4175
一會兒	-10.4175
他是我的老師	-10.4175
懸崖	-10.4175
椅子上	-10.4175
歷	-10.4175
燙	-10.4175
番石榴	-10.4175
盪	-10.4175
緊	-10.4175
蜻	-10.4175
要做什麼	-10.4175
▁zohco	-10.4175
幼	-10.4175
獨角仙	-10.4175
▁aemana	-10.4175
▁我昨天	-10.4175
列	-10.4175
呀	-10.4175
孫	-10.4175
庭院	-10.4175
棒	-10.4175
盤	-10.4175
知識	-10.4175
是做什麼	-10.4175
醬油	-10.4175
Motoyʉ	-10.4175
sʉlopʉn	-10.4175
懶	-10.4175
相互	-10.4175
▁sopohng	-10.4175
9	-10.4175
▁apngo	-10.4175
▁saipa	-10.4175
南瓜	-10.4175
嘗試	-10.4175
告知	-10.4175
嘲笑	-10.4175
▁lesmo	-10.4175
Sukalo	-10.4175
胡	-10.4175
▁miyapo	-10.4175
護士	-10.4175
討論	-10.4175
限制	-10.4175
靈魂	-10.4175
法術	-10.4175
▁teaph	-10.4175
小小的	-10.4175
▁aʉsvʉta	-10.4175
木柴	-10.4175
立刻	-10.4175
▁vongka	-10.4175
黃金	-10.4175
▁ciengpocai	-10.4175
▁tacʉmʉ	-10.4175
家族成員	-10.4175
滿滿	-10.4176
的頭髮很長	-10.4176
集中	-10.4176
下午	-10.4176
有時候	-10.4176
離開了	-10.4176
▁opco	-10.4176
平原	-10.4176
樂野	-10.4176
▁toapio	-10.4176
念書	-10.4176
稻米	-10.4176
如此	-10.4176
放棄	-10.4176
古早	-10.4176
平安	-10.4176
完全	-10.4176
男女	-10.4177
▁aacni	-10.4177
▁pasonaenva	-10.4177
相信	-10.4177
起床	-10.4177
加入	-10.4177
▁oahtoa	-10.4177
去教會	-10.4177
tiaki	-10.4177
▁tothoc	-10.4177
▁pngoo	-10.4177
頭目	-10.4177
處理	-10.4177
▁nomso	-10.4178
小島	-10.4178
馬上	-10.4178
整個	-10.4178
▁sokalo	-10.4178
完成	-10.4178
命名	-10.4178
▁yim	-10.4178
▁evasʉzʉ	-10.4178
到底	-10.4179
一顆	-10.4179
▁ahngʉ	-10.4179
▁cocvo	-10.4179
tamako	-10.4179
之間	-10.418
山美	-10.418
▁cʉehʉ	-10.418
打算	-10.418
碰到	-10.418
掃地	-10.4181
不敢	-10.4181
責罵	-10.4181
梨子	-10.4181
借錢	-10.4182
▁teopoya	-10.4182
河水	-10.4182
一件	-10.4182
▁hmoi	-10.4183
▁aʉsvʉsvʉtʉ	-10.4184
門口	-10.4184
▁ngʉcʉ	-10.4184
▁keʉpʉsi	-10.4185
▁fifiho	-10.4185
起火	-10.4186
▁yakio	-10.4186
▁atfʉngʉ	-10.4186
去打獵	-10.4186
機會	-10.4187
開門	-10.4187
miome	-10.4187
就不管	-10.4187
去哪裡	-10.4187
這位	-10.419
去河邊	-10.4191
oyʉcʉ	-10.4191
網子	-10.4192
海水	-10.4192
cʉfʉ	-10.4192
▁acʉcʉhʉ	-10.4192
olol	-10.4193
白天	-10.4193
▁聽說	-10.4194
三天	-10.4197
現在在哪裡	-10.4197
▁smohno	-10.4198
sʉfeʉngnʉ	-10.4198
aʉnpʉnpʉ	-10.4198
都是用	-10.4199
▁efoco	-10.4204
▁ehʉngʉ	-10.4207
▁maiho	-10.4208
inhi	-10.4209
來自	-10.4209
是很	-10.4213
有一次	-10.4215
▁ehoha	-10.4215
打小孩	-10.4216
▁feoho	-10.4217
▁mahto	-10.4219
hang	-10.422
▁anooc	-10.4222
再也	-10.4222
▁你的家	-10.4222
她們	-10.4223
拿來	-10.4223
就好了	-10.4229
▁你明天	-10.4229
tu	-10.4231
就這樣	-10.4231
▁ohpoeho	-10.4235
▁yoohngozo	-10.4235
▁paiftonga	-10.4243
長大了	-10.4243
▁miski	-10.4243
mafe	-10.4251
▁kosʉ	-10.4252
▁sooci	-10.4254
▁你今天	-10.4261
找到了	-10.4263
做的事	-10.4267
我的頭	-10.4267
很久了	-10.4268
▁sma	-10.4275
▁今天是	-10.4277
都可以	-10.4282
▁moengʉ	-10.4288
maskʉ	-10.4291
教你	-10.4295
pepe	-10.4296
手機	-10.4299
tmopsʉ	-10.4301
有一天	-10.4302
taini	-10.4303
家的	-10.4305
▁1.	-10.4317
▁loy	-10.4322
▁我想要	-10.4323
的照片	-10.4329
koka	-10.433
▁tahae	-10.4348
angoso	-10.4384
鄒族部落	-10.44
本來就是	-10.4403
soka	-10.4413
▁cei	-10.4415
在路上	-10.4425
▁你媽媽	-10.4427
很深	-10.4443
▁tposʉsi	-10.4446
到河邊	-10.4448
aosnasi	-10.4449
一家	-10.4458
買的	-10.4463
但他	-10.4464
很美麗	-10.4465
要好好	-10.4472
給了	-10.4482
asngʉcʉ	-10.4487
hocma	-10.4491
voyo	-10.4499
▁我已經	-10.4499
我不會	-10.4514
pong	-10.4522
的傳統	-10.4546
的草	-10.4575
cx	-10.4597
她說	-10.4598
的書	-10.4598
ocia	-10.46
真正的	-10.4656
蜜蜂	-10.4659
的樹	-10.4672
會說鄒語	-10.471
00	-10.4713
方便	-10.4714
eopi	-10.4751
yongo	-10.4757
的新	-10.4767
▁讓小孩	-10.4774
engʉ	-10.4782
走過	-10.4803
▁emoosi	-10.4821
pei	-10.4822
瓶子	-10.4822
▁omza	-10.4847
▁coho	-10.4848
▁emoomo	-10.4848
▁isic	-10.4866
ngs	-10.4887
▁ve	-10.491
家鄉的	-10.4912
thi	-10.4918
temoco	-10.4938
tʉi	-10.4939
才有	-10.495
紅色	-10.4967
隻青蛙	-10.4977
eti	-10.5005
yafa	-10.5064
都沒	-10.5102
也很	-10.5105
桌上	-10.5138
▁那我	-10.5145
今天的	-10.5149
沒有人	-10.5153
tva	-10.5188
們的家	-10.5191
是學生	-10.5199
紅色的	-10.5203
是啊	-10.523
家鄉	-10.5261
tosa	-10.5282
tothomʉ	-10.5318
nghi	-10.5346
▁我幫	-10.5385
好喝	-10.5392
anate	-10.5433
嘴巴	-10.5455
▁moson	-10.548
那邊的	-10.5498
▁pap	-10.5504
花園	-10.5514
六	-10.5518
好幾	-10.5548
有些	-10.5567
aocono	-10.5605
▁ovo	-10.5606
趕	-10.5613
來找	-10.5624
洗衣服	-10.5697
的鄒語	-10.5726
oemi	-10.5727
▁bon	-10.5728
十五	-10.5729
不多	-10.5736
▁yomz	-10.5763
說鄒語	-10.5764
peohi	-10.5809
聲音	-10.5817
久	-10.5818
有三個	-10.583
sngʉcʉ	-10.5866
適合	-10.594
把他	-10.5957
peoha	-10.5957
怎麼說	-10.5973
遺	-10.5979
有一位	-10.6004
afeo	-10.6009
2	-10.6026
結婚	-10.6051
居住	-10.6054
aʉnpʉnp	-10.6056
▁bomemeal	-10.6058
經	-10.6059
湯	-10.606
參與	-10.6063
▁jidensa	-10.6064
社會	-10.6065
直	-10.6065
躺在	-10.6066
父	-10.6069
急	-10.607
族語	-10.607
根	-10.6071
何	-10.6072
床	-10.6073
爬	-10.6076
故鄉	-10.6076
吃完	-10.6077
哪	-10.6077
禁止	-10.6078
忙	-10.6078
簍	-10.6079
▁sasing	-10.6079
paceof	-10.608
居	-10.608
具	-10.608
箭	-10.6081
嫁	-10.6081
架	-10.6081
騙	-10.6081
要去哪	-10.6081
的顏色	-10.6081
祖	-10.6081
要吃什麼	-10.6082
金	-10.6082
保	-10.6082
滑	-10.6082
晃	-10.6082
結	-10.6082
引	-10.6082
形	-10.6082
K	-10.6082
傷心	-10.6082
靈	-10.6082
無	-10.6082
情	-10.6082
承	-10.6083
音	-10.6083
依	-10.6083
規	-10.6083
豐	-10.6083
捏	-10.6083
血	-10.6083
保護	-10.6084
該	-10.6084
快樂王子	-10.6084
搭建	-10.6084
那些孩子	-10.6084
升	-10.6084
尊敬	-10.6084
篩	-10.6084
硬	-10.6084
告	-10.6084
騎	-10.6084
業	-10.6084
西方的	-10.6084
東	-10.6084
的貨幣	-10.6084
曾	-10.6084
束	-10.6084
吸	-10.6084
鹽	-10.6084
言	-10.6084
嘴	-10.6084
沒有辦法	-10.6084
牆	-10.6084
殼	-10.6084
混	-10.6084
聯	-10.6084
樑	-10.6084
煙	-10.6084
的情況	-10.6084
汁	-10.6084
的祭儀	-10.6084
談	-10.6084
▁miebi	-10.6084
▁skoskopna	-10.6084
不好意思	-10.6084
彎	-10.6084
G	-10.6084
afafeoi	-10.6084
eatisk	-10.6084
ecvʉha	-10.6084
panathao	-10.6084
▁bitoyange	-10.6084
▁eyabobonʉ	-10.6084
▁eʉskʉ	-10.6084
▁eʉsvʉsvʉta	-10.6084
▁fiifiho	-10.6084
▁lingki	-10.6084
▁meicaefi	-10.6084
▁nananghinghia	-10.6084
▁navconga	-10.6084
▁ngesangsi	-10.6084
▁ngoheʉngʉ	-10.6084
▁otaseoni	-10.6084
▁patoyangz	-10.6084
▁posiahʉ	-10.6084
▁saasmoyʉskʉ	-10.6084
▁saitongo	-10.6084
▁tamayaeana	-10.6084
▁timaviya	-10.6084
▁tmaʉzʉ	-10.6084
▁tongabo	-10.6084
▁tonghifza	-10.6084
▁toococosʉ	-10.6084
一段時間	-10.6084
也穿上	-10.6084
又大又	-10.6084
很懶惰	-10.6084
忍耐	-10.6084
爐	-10.6084
賣完了	-10.6084
郵	-10.6084
papoevʉ	-10.6084
▁hioyapo	-10.6084
▁kokesongo	-10.6084
▁maemoemoo	-10.6084
▁mahfoyo	-10.6084
▁meemelʉ	-10.6084
▁mtoeho	-10.6084
▁tibosongo	-10.6084
▁toococosi	-10.6084
▁yohmoyo	-10.6084
▁yolonana	-10.6084
下課了	-10.6084
▁himeo	-10.6084
▁mayʉmʉ	-10.6084
患	-10.6084
沒辦法	-10.6084
籬	-10.6084
辣	-10.6084
飽	-10.6084
▁ntʉha	-10.6084
▁yooving	-10.6084
▁yopevai	-10.6084
蔥	-10.6084
▁yansoo	-10.6084
笨	-10.6084
苗	-10.6084
號	-10.6084
貼	-10.6084
陷	-10.6084
初	-10.6084
因為牠在	-10.6084
姓	-10.6084
真是太棒了	-10.6084
攻擊	-10.6084
▁sopioi	-10.6084
削	-10.6084
萬	-10.6084
▁kengsaco	-10.6084
勇敢	-10.6084
牆壁	-10.6084
腐	-10.6084
iosongo	-10.6084
阻擋	-10.6084
▁mafofo	-10.6084
古調	-10.6084
▁sohoyo	-10.6084
則	-10.6084
eicha	-10.6084
▁teoteai	-10.6084
番	-10.6084
▁你們家有幾個	-10.6084
yapasuongʉ	-10.6084
虎頭蜂	-10.6084
農夫	-10.6084
姊妹	-10.6084
按照	-10.6084
▁tomʉti	-10.6085
peeseni	-10.6085
很快就	-10.6085
廣場	-10.6085
用左手	-10.6085
也沒了	-10.6085
回娘家	-10.6085
計算	-10.6085
軍隊	-10.6085
Uongʉ	-10.6085
確定	-10.6085
▁yomoyo	-10.6085
點鐘	-10.6085
困難	-10.6085
道歉	-10.6085
▁esongʉ	-10.6085
正確	-10.6085
▁tahza	-10.6085
芒草	-10.6085
▁akokoyo	-10.6085
另外	-10.6085
射擊	-10.6085
味道	-10.6085
▁mivahi	-10.6085
▁fiteo	-10.6085
丟傷	-10.6085
阿公	-10.6085
唸書	-10.6085
裝滿了	-10.6085
安全	-10.6085
教室	-10.6085
楓樹	-10.6085
幾乎	-10.6085
最終	-10.6085
▁這是誰的	-10.6085
▁mayoyoansoo	-10.6086
怎麼辦	-10.6086
▁sinvi	-10.6086
參加祭典	-10.6086
長得很好	-10.6086
大約	-10.6086
方法	-10.6086
推倒	-10.6086
擋住	-10.6086
難得	-10.6086
至於	-10.6086
復	-10.6086
▁tmonoi	-10.6086
Ku	-10.6086
要喝的	-10.6086
▁pahaf	-10.6087
inoli	-10.6087
越來越多	-10.6087
▁taʉza	-10.6087
隔天	-10.6087
成熟	-10.6087
隨著	-10.6087
原住民族群	-10.6087
平常	-10.6087
戰神	-10.6087
臨時	-10.6087
一支	-10.6087
veoveo	-10.6087
少女	-10.6087
在海上	-10.6088
敵人	-10.6088
棉被	-10.6088
為何	-10.6088
鄒族的祖先	-10.6088
對岸	-10.6088
丟掉	-10.6089
肚子	-10.6089
▁hoseoyʉ	-10.6089
籃子	-10.6089
沙子	-10.6089
聽見	-10.6089
聚會	-10.6089
▁aʉlʉlʉa	-10.6089
神話	-10.609
小米田	-10.609
砍草	-10.609
美好	-10.609
masʉecʉ	-10.609
拔草	-10.609
力氣	-10.609
▁cmoho	-10.609
▁patin	-10.609
▁yongt	-10.609
一起去打獵	-10.609
我們的文化	-10.609
洗手	-10.6091
重新	-10.6091
射中	-10.6091
採收	-10.6091
▁那個女人	-10.6091
ohngʉ	-10.6091
▁matvaho	-10.6091
多少	-10.6092
▁memesi	-10.6092
▁notaic	-10.6092
它們	-10.6092
不斷地	-10.6092
樹枝	-10.6092
▁tataka	-10.6093
爬上	-10.6093
▁yant	-10.6093
pʉyʉ	-10.6093
小溪	-10.6093
從此	-10.6094
用鄒語	-10.6095
有些人	-10.6095
鐘	-10.6096
很漂亮	-10.6096
▁大家好	-10.6096
▁cocvi	-10.6096
溪水	-10.6096
▁toyovco	-10.6097
▁soyomi	-10.6097
出發	-10.6097
▁tmasvʉtʉ	-10.6098
不願意	-10.6098
族人們	-10.6099
▁yoepe	-10.6099
就變成	-10.6102
從事	-10.6102
▁ayocʉ	-10.6102
蝦子	-10.6102
走的路	-10.6102
對於	-10.6102
下面	-10.6103
有空	-10.6104
山豬肉	-10.6104
太多	-10.6104
ngcʉngc	-10.6104
踩到	-10.6105
一早	-10.6107
葉子	-10.6107
yavai	-10.6107
▁你們家	-10.6107
小鳥	-10.6107
水面	-10.611
容易	-10.6111
▁kazo	-10.6113
ku	-10.6114
▁pahisi	-10.6114
▁tohco	-10.6116
住的地方	-10.6116
一種	-10.6117
▁hiafa	-10.6124
一邊	-10.6125
▁aoski	-10.6125
大石頭	-10.6126
說話時	-10.6126
vonʉ	-10.6127
▁有的人	-10.6131
停在	-10.6131
▁beahcisi	-10.6133
▁asansana	-10.6136
進去	-10.6137
我們的部落	-10.6137
▁pema	-10.6138
很多錢	-10.6139
吃東西	-10.6139
分享給	-10.6139
老師問	-10.614
種子	-10.6141
不要再	-10.6141
▁soyomo	-10.6142
有點	-10.6146
mome	-10.6147
▁emoemo	-10.6147
▁maskʉveiao	-10.615
回到了	-10.6151
借我	-10.6153
很長	-10.6155
▁這時	-10.6156
是因為	-10.6156
▁eahahafo	-10.6157
▁anova	-10.6159
待在	-10.616
我們一起去	-10.6161
▁soni	-10.6162
的祖先	-10.6164
將要	-10.6165
認真	-10.6165
▁tfo	-10.6166
▁yoyasva	-10.6167
ofeo	-10.6171
回去了	-10.6171
不再	-10.6172
▁mimiyo	-10.6173
▁ntoh	-10.6173
好像是	-10.6178
hx	-10.6182
▁leamza	-10.6185
叫做	-10.6186
longʉ	-10.6191
▁teomi	-10.6193
▁ine	-10.6195
外來	-10.6199
真的很	-10.6205
▁heʉ	-10.621
▁temola	-10.6214
▁peolʉ	-10.6215
▁haengo	-10.6216
hongʉ	-10.6219
ocna	-10.6226
▁aemʉ	-10.6228
我的眼睛	-10.6229
▁aʉmt	-10.6231
煮了	-10.6233
sʉfton	-10.6236
tohʉngʉsi	-10.6242
vh	-10.625
▁hosansana	-10.6253
▁eobako	-10.6253
▁nanghiasi	-10.6254
他將	-10.6265
和媽媽	-10.6276
▁mahno	-10.628
▁topeohʉ	-10.6291
來幫忙	-10.6292
▁pateo	-10.6292
為我	-10.63
▁anoo	-10.6302
▁laoya	-10.632
你們有	-10.6334
時會	-10.6339
▁panomo	-10.6345
▁aʉl	-10.6348
▁我們有	-10.635
▁emoohe	-10.6356
▁phi	-10.6361
psʉ	-10.6372
▁yang	-10.6374
amco	-10.6376
▁avaho	-10.6384
由於	-10.6392
▁他是你	-10.6393
▁hosato	-10.641
▁mic	-10.6443
ngaco	-10.6451
eoza	-10.6493
▁meip	-10.6494
是用	-10.6497
maine	-10.6526
是醫生	-10.6543
▁mioc	-10.6556
看起來很	-10.6581
你還	-10.6591
表現	-10.6599
mayahe	-10.6619
motoyʉ	-10.6632
meem	-10.6633
ezoyʉ	-10.665
窩	-10.6672
的花園	-10.6696
的嘴巴	-10.6756
100	-10.6798
有一些	-10.68
▁coyo	-10.681
是鄒族人	-10.6829
但我	-10.6847
zom	-10.6863
poco	-10.688
服裝	-10.6884
的身體	-10.6934
撿	-10.697
▁miho	-10.699
各式各樣的	-10.7042
vona	-10.7073
hngo	-10.7108
去上學	-10.712
inan	-10.7171
推	-10.7194
我的工寮	-10.7195
hiasi	-10.7218
ʉmtʉs	-10.7255
他們說	-10.7264
▁otmoz	-10.7274
有一隻	-10.7281
有好多	-10.7351
maci	-10.7377
epoh	-10.7416
的土地	-10.7426
vong	-10.7443
我就是	-10.7461
isʉ	-10.7477
sas	-10.7516
要回家	-10.7528
所有	-10.7529
可能會	-10.7665
不方便	-10.7675
amaamtan	-10.768
河裡	-10.7685
那裡的	-10.7736
人都	-10.7869
十年	-10.7878
haeso	-10.7901
macongo	-10.7915
sang	-10.7923
eopʉ	-10.7959
▁sʉmʉ	-10.8026
屋	-10.808
▁sop	-10.8082
▁toaveivei	-10.8103
▁ih	-10.8117
頂	-10.8118
ceoceona	-10.8133
tmozo	-10.8135
這樣子	-10.8187
原本	-10.8202
ngca	-10.821
mʉhʉ	-10.8211
十二	-10.8217
十三	-10.822
sosonʉ	-10.8238
來裝	-10.8245
▁haf	-10.8249
會議	-10.8264
群	-10.8267
的青	-10.8278
瘦	-10.83
ntes	-10.83
tngo	-10.8302
山下	-10.831
ezneni	-10.8319
nveni	-10.8322
搗	-10.8342
soyom	-10.8363
斷了	-10.8364
已經很	-10.8366
他為	-10.8368
分享	-10.8376
▁totmoz	-10.8379
撞到	-10.8383
共	-10.839
要先	-10.8399
難	-10.8405
acvoh	-10.8408
歲了	-10.8408
小時候	-10.841
胖	-10.8411
sʉpta	-10.8412
濕	-10.8413
獲得	-10.8414
地區	-10.8418
▁petohʉy	-10.8419
▁hahocng	-10.8419
生病	-10.842
順	-10.8421
ptʉ	-10.8425
管	-10.8429
牠們	-10.8431
彈	-10.8433
瓶	-10.8433
鍋	-10.8433
梨	-10.8433
聚	-10.8434
聞	-10.8434
達	-10.8435
探望	-10.8435
首	-10.8437
▁我聽說	-10.8437
不見了	-10.8438
坐著的人	-10.8438
餐	-10.844
目	-10.844
字	-10.844
念	-10.8441
四個	-10.8441
領	-10.8441
飾	-10.8441
捕	-10.8441
剩	-10.8441
島	-10.8442
泥巴	-10.8442
針	-10.8442
聖	-10.8442
莊	-10.8443
聽話	-10.8443
製	-10.8443
題	-10.8443
抱	-10.8443
附近的	-10.8443
雙	-10.8443
粒	-10.8443
炸	-10.8443
擔	-10.8443
答	-10.8443
▁pitho	-10.8443
鬼	-10.8444
店	-10.8444
婦女	-10.8444
電話	-10.8444
星期	-10.8444
怪	-10.8444
一群	-10.8444
伸	-10.8444
旁	-10.8444
肩	-10.8444
犁	-10.8444
室	-10.8444
巴	-10.8444
決	-10.8444
習	-10.8444
騎腳踏車	-10.8444
述	-10.8444
▁peipeis	-10.8444
摸	-10.8444
巡	-10.8445
傘	-10.8445
抗	-10.8445
梁	-10.8445
靜	-10.8445
妹	-10.8445
漂	-10.8445
考	-10.8445
貨	-10.8445
頭飾	-10.8445
▁那個女孩子喜歡	-10.8445
困	-10.8445
訂	-10.8445
弓	-10.8445
usungu	-10.8445
印	-10.8445
最高	-10.8445
腦	-10.8445
舉辦	-10.8445
異	-10.8445
記帳	-10.8445
▁vioin	-10.8445
訴	-10.8445
株	-10.8445
維	-10.8445
的環境	-10.8445
丈夫	-10.8445
亡	-10.8445
嘛	-10.8445
良	-10.8445
嫌	-10.8445
在田裡	-10.8445
尼	-10.8445
繩	-10.8445
肯	-10.8445
羅	-10.8445
望	-10.8445
精	-10.8445
祂	-10.8445
陶	-10.8445
險	-10.8445
教導孩子	-10.8445
浮	-10.8445
喪	-10.8445
摘	-10.8445
欺騙	-10.8445
爾	-10.8445
老闆說	-10.8445
彩虹出來了	-10.8445
胸	-10.8445
L	-10.8445
▁他們跟著青蛙來到了	-10.8445
制	-10.8445
的衣服是紅色的	-10.8445
誇	-10.8445
驅	-10.8445
r	-10.8445
健	-10.8445
我的蘋果	-10.8445
的親戚	-10.8445
▁konansoo	-10.8445
▁lanpaosʉ	-10.8445
▁tʉbzʉk	-10.8445
▁那孩子	-10.8445
嚼	-10.8445
尾巴	-10.8445
文字	-10.8445
走來走去	-10.8445
踏	-10.8445
2023	-10.8445
balay	-10.8445
eyasasmoyʉska	-10.8445
tpʉti	-10.8445
▁asngʉca	-10.8445
▁biebiemi	-10.8445
▁boecʉ	-10.8445
▁ciyating	-10.8445
▁eabobonʉ	-10.8445
▁ehohamva	-10.8445
▁himcocoveoi	-10.8445
▁kaahkʉmnʉ	-10.8445
▁kayabongo	-10.8445
▁konkono	-10.8445
▁maikayo	-10.8445
▁manananghia	-10.8445
▁mateolʉlʉ	-10.8445
▁meepeoco	-10.8445
▁msʉptʉhʉ	-10.8445
▁mʉpʉtʉ	-10.8445
▁namosngao	-10.8445
▁ngoheʉnge	-10.8445
▁papcinv	-10.8445
▁peknoi	-10.8445
▁pohcingha	-10.8445
▁sangeava	-10.8445
▁sʉveʉ	-10.8445
▁taaecingea	-10.8445
▁tibangnoa	-10.8445
▁topeasmo	-10.8445
▁totposa	-10.8445
▁xmnx	-10.8445
▁yabʉtnana	-10.8445
▁yapsemeaesi	-10.8445
▁yasakiei	-10.8445
▁yoskʉaʉlʉ	-10.8445
▁yoskʉmaski	-10.8445
▁zotayo	-10.8445
付	-10.8445
剪	-10.8445
創	-10.8445
哦	-10.8445
喊	-10.8445
宴	-10.8445
小凱正在和	-10.8445
局	-10.8445
愈	-10.8445
挑	-10.8445
滾	-10.8445
狠	-10.8445
猴子說	-10.8445
生殖器	-10.8445
甲	-10.8445
的水田只有小小一塊	-10.8445
的芋頭	-10.8445
簡	-10.8445
粉	-10.8445
繳	-10.8445
聽清楚	-10.8445
脆	-10.8445
臟	-10.8445
臭	-10.8445
茄	-10.8445
說母語	-10.8445
謠	-10.8445
那些孩子在玩耍	-10.8445
阿里山的山林	-10.8445
飛來飛去	-10.8445
高海拔	-10.8445
haoke	-10.8445
▁eatatiskova	-10.8445
▁lanyi	-10.8445
▁sapiei	-10.8445
▁tmovci	-10.8445
▁vasavi	-10.8445
▁你有幾隻	-10.8445
工寮的柱子	-10.8445
maceofʉ	-10.8445
saviki	-10.8445
▁aothoma	-10.8445
▁oanlo	-10.8445
▁pefotngʉ	-10.8445
▁sangeao	-10.8445
▁skayʉ	-10.8445
▁thicia	-10.8445
凶	-10.8445
千	-10.8445
繞	-10.8445
裂	-10.8445
逗	-10.8445
鮮	-10.8445
nanʉhta	-10.8445
▁ceayamavana	-10.8445
▁ehohanva	-10.8445
▁eʉsvʉsvʉtʉ	-10.8445
▁lekisi	-10.8445
▁memealʉ	-10.8445
一半了	-10.8445
費	-10.8445
posifoo	-10.8445
▁KALALO	-10.8445
▁ekoyongv	-10.8445
▁mtokʉ	-10.8445
▁tmohco	-10.8445
▁yosohci	-10.8445
共有	-10.8445
勢	-10.8445
娶	-10.8445
怒	-10.8445
有一對	-10.8445
雪	-10.8445
飲	-10.8445
館	-10.8445
▁amamzo	-10.8445
在客廳	-10.8445
獎	-10.8445
禱告	-10.8445
迎	-10.8445
驚	-10.8445
1984	-10.8445
婚役	-10.8445
▁mongtai	-10.8445
安慰	-10.8445
請問你	-10.8445
鎖	-10.8445
閃	-10.8445
你要不要吃	-10.8445
吵鬧	-10.8445
技術	-10.8445
新冠病毒	-10.8445
組	-10.8445
隱密	-10.8445
▁kakaapana	-10.8445
▁veiyo	-10.8445
票	-10.8445
群眾	-10.8445
領域	-10.8445
偏	-10.8445
左	-10.8445
▁noteoyoneni	-10.8445
推擠	-10.8445
天黑了	-10.8445
▁maaseo	-10.8446
▁ʉnmʉ	-10.8446
伊	-10.8446
位置	-10.8446
▁他看見了	-10.8446
折斷樹枝	-10.8446
減少	-10.8446
fihnan	-10.8446
▁mimimio	-10.8446
▁tʉyʉca	-10.8446
我的名字叫	-10.8446
Ciyating	-10.8446
cohiyo	-10.8446
hopson	-10.8446
▁coheʉceʉ	-10.8446
抱歉	-10.8446
旋轉	-10.8446
魯夫都社	-10.8446
▁他種了	-10.8446
▁maotano	-10.8446
▁從此以後	-10.8446
他們家有	-10.8446
救	-10.8446
灰	-10.8446
獻	-10.8446
統治	-10.8446
▁eʉsvʉtʉ	-10.8446
感覺	-10.8446
持續	-10.8446
產生	-10.8446
chipi	-10.8446
停止	-10.8446
養育	-10.8446
信仰	-10.8446
conza	-10.8446
我可以跟你	-10.8446
那間房子很大	-10.8446
▁aoeisis	-10.8446
們常常去探望祖父	-10.8446
▁akozkozoa	-10.8446
塗黑	-10.8446
▁totalʉi	-10.8446
飛行員	-10.8446
鐘起床	-10.8446
法律	-10.8446
▁hoosing	-10.8446
他的名字是	-10.8446
排隊	-10.8446
舉辦成年禮	-10.8446
器具	-10.8446
權益	-10.8446
訪問	-10.8446
▁amiocni	-10.8446
竹筒	-10.8446
akoanʉ	-10.8446
講述	-10.8446
所謂	-10.8446
陽光	-10.8446
傳染	-10.8446
樟樹	-10.8446
思考	-10.8446
洗澡	-10.8446
的家園	-10.8446
順便	-10.8446
▁aepepe	-10.8446
我的名字是	-10.8446
故意	-10.8446
▁evoyʉ	-10.8446
即將	-10.8446
乘坐	-10.8446
吹奏	-10.8446
捏取	-10.8446
你們有賣	-10.8446
成功	-10.8446
藏起來	-10.8446
21	-10.8446
數字	-10.8446
秋天	-10.8446
的動作	-10.8446
流血	-10.8446
配菜	-10.8446
amamza	-10.8446
▁saic	-10.8447
各類	-10.8447
總理	-10.8447
▁meemohʉ	-10.8447
▁hoyoha	-10.8447
木材	-10.8447
sosoae	-10.8447
獸皮	-10.8447
einva	-10.8447
▁toheae	-10.8447
另一邊	-10.8447
飛機	-10.8447
▁veina	-10.8447
古代	-10.8447
▁mongnʉ	-10.8447
▁meiepe	-10.8447
▁soyoi	-10.8447
稻田	-10.8447
▁pasomayasvi	-10.8447
▁yoseʉ	-10.8447
某物	-10.8447
為止	-10.8447
底下	-10.8447
▁tmotmopsʉ	-10.8447
▁kaiyo	-10.8447
這張桌子很重	-10.8447
或者	-10.8447
▁pasocoo	-10.8447
15	-10.8447
海洋	-10.8447
玩具	-10.8447
煮熟	-10.8448
肥肉	-10.8448
鳥類	-10.8448
第一次	-10.8448
▁aothomʉ	-10.8448
▁我們要聽	-10.8448
戴帽子	-10.8448
麻線	-10.8448
住屋	-10.8448
▁keolo	-10.8448
我很擔心	-10.8448
要煮的	-10.8448
母親	-10.8448
▁soovai	-10.8448
▁tmocoo	-10.8448
呼叫	-10.8448
▁ciocio	-10.8448
涼快	-10.8448
引起	-10.8448
蓋屋頂	-10.8448
金錢	-10.8449
打電話	-10.8449
▁maspiyo	-10.8449
多久	-10.8449
曬太陽	-10.8449
喝茶	-10.8449
同學	-10.8449
請求	-10.8449
壞話	-10.8449
最近	-10.8449
逃跑	-10.8449
關於	-10.8449
▁aangaeza	-10.8449
這個國家	-10.845
洗碗	-10.845
方面	-10.845
哪一個	-10.845
很難	-10.845
母雞	-10.845
▁kaingi	-10.845
各國	-10.845
▁peipeisia	-10.845
▁mateongabo	-10.845
▁mvʉecʉ	-10.845
古老	-10.845
長輩們	-10.845
山頂	-10.845
道路	-10.845
ʉmni	-10.845
▁yane	-10.845
居住的地方	-10.8451
兩次	-10.8451
原住民族	-10.8451
撈到	-10.8451
吃早餐	-10.8451
▁singkoo	-10.8451
▁tipeoha	-10.8451
發明	-10.8451
▁cocoya	-10.8451
三次	-10.8451
▁smoftongʉ	-10.8451
▁這個小孩	-10.8451
▁paceofʉ	-10.8451
▁mʉm	-10.8451
壓住	-10.8451
方向	-10.8451
急著	-10.8451
上班	-10.8452
一點點	-10.8452
白色	-10.8452
五元	-10.8452
傷心地	-10.8452
▁對啊	-10.8452
媒人	-10.8452
那棵	-10.8452
洗的衣服	-10.8453
挖地瓜	-10.8453
放陷阱	-10.8453
發生	-10.8453
oehangva	-10.8454
▁pengzot	-10.8454
▁mimh	-10.8454
▁yamci	-10.8454
lx	-10.8454
每年	-10.8454
背袋	-10.8454
放學	-10.8454
鞋子	-10.8455
收起來	-10.8455
不客氣	-10.8455
▁zoton	-10.8455
等等	-10.8455
請給我	-10.8455
試著	-10.8455
站著	-10.8455
很累	-10.8456
很矮	-10.8456
戴著	-10.8457
守著	-10.8457
聞到	-10.8457
種小米	-10.8457
中國	-10.8457
提水	-10.8457
拿出來	-10.8457
▁hikoo	-10.8457
火神	-10.8457
樹幹	-10.8458
鍋子	-10.8458
反而	-10.8458
▁aoyocʉ	-10.8458
七天	-10.8458
▁tibkocʉ	-10.8459
放火	-10.8459
▁hangʉ	-10.8459
只能	-10.8459
▁maapaso	-10.846
plok	-10.846
▁apemz	-10.846
你要買	-10.846
香蕉樹	-10.846
不久	-10.8461
是黑色的	-10.8461
快跑	-10.8461
一塊	-10.8461
▁ihec	-10.8461
能力	-10.8461
父子	-10.8461
▁pcoo	-10.8462
▁atʉkca	-10.8462
eaveivei	-10.8463
山洞	-10.8463
maozi	-10.8463
小女孩	-10.8463
▁mayahehe	-10.8464
最多	-10.8464
幾天	-10.8464
▁ceʉ	-10.8465
很健康	-10.8465
去那邊	-10.8465
▁itoco	-10.8465
大便	-10.8465
很冷	-10.8466
是屬於	-10.8466
▁melʉ	-10.8466
和解	-10.8466
太太	-10.8467
背帶	-10.8469
主人	-10.8469
我們家有	-10.8469
▁meiya	-10.8469
▁toʉlʉlʉ	-10.847
正好	-10.847
▁jidensasi	-10.8471
而已	-10.8471
▁yosongo	-10.8472
罵他	-10.8472
不在家	-10.8473
木頭	-10.8474
袋子	-10.8474
▁tonvo	-10.8474
▁ehohamo	-10.8474
我來找	-10.8474
▁ngei	-10.8475
▁omzasi	-10.8476
生病了	-10.8477
▁topoz	-10.8477
也因此	-10.8477
▁topc	-10.8478
▁ieso	-10.8478
這裡沒有	-10.8478
一定要	-10.8479
小雞	-10.8479
▁toevovei	-10.8481
那樣	-10.8482
從石頭	-10.8482
告訴他	-10.8482
打開	-10.8483
▁他對著	-10.8485
是好的	-10.8485
天天	-10.8485
吃完了	-10.8485
結婚了	-10.8485
說法	-10.8486
▁totovah	-10.8488
放在哪裡	-10.8488
面對	-10.8488
帶回家	-10.8489
▁tmoteoyon	-10.8489
真的可以	-10.849
eʉpng	-10.8491
amakna	-10.8491
▁patmʉta	-10.8491
除了	-10.8491
走走	-10.8491
▁它的	-10.8493
peʉc	-10.8494
▁是我的	-10.8494
之地	-10.8494
子女	-10.8495
▁把那	-10.8495
畫了	-10.8495
potʉ	-10.8497
那是樹	-10.8497
那位	-10.8498
▁ootovai	-10.8499
往上	-10.8499
就不會	-10.8499
▁koisi	-10.85
▁msʉ	-10.85
▁toʉlʉ	-10.8502
隨時	-10.8503
amis	-10.8505
tvaveivei	-10.8506
毛家	-10.8507
了解	-10.851
▁他們看到	-10.8511
▁hʉsʉ	-10.8511
會不會	-10.8511
▁honasi	-10.8512
pici	-10.8514
一開始	-10.8516
他們兩個	-10.8516
▁2.	-10.8517
小的時候	-10.852
ocofn	-10.852
▁peih	-10.8521
好像在	-10.8522
沒有看到	-10.8522
等到	-10.8523
並且說	-10.8523
還可以	-10.8523
覺得很	-10.8524
▁peesi	-10.8526
tmal	-10.8529
▁maitono	-10.8531
▁我每天	-10.8531
▁tahia	-10.8532
醫生說	-10.8532
▁有時	-10.8532
▁3.	-10.8533
我們只有	-10.8533
▁tiyo	-10.8534
▁ceopngosi	-10.8535
到現在	-10.854
tofs	-10.854
▁vcongʉso	-10.8542
tosva	-10.8543
▁king	-10.8546
▁fihno	-10.8547
幫他	-10.8548
另一	-10.855
可以吃	-10.8556
▁fngoosi	-10.8556
emonopeisi	-10.8559
vhʉ	-10.8559
出去了	-10.8562
十六	-10.8566
▁kong	-10.8568
就一直	-10.8574
出來了	-10.8576
▁el	-10.8577
▁emomz	-10.8578
好大	-10.8582
▁paoco	-10.8591
▁acni	-10.8592
▁asvʉtʉ	-10.8592
▁pasovah	-10.8594
▁yoyaeza	-10.8594
▁patvah	-10.8594
唱了	-10.8596
但是我們	-10.8597
已經被	-10.8598
我就會	-10.8599
少了	-10.86
會一直	-10.8604
帶來	-10.8608
vama	-10.8608
▁他又	-10.8612
生氣了	-10.8617
因為我	-10.8617
要給	-10.8625
長得	-10.8629
ʉsʉso	-10.8634
那家	-10.8644
逃走	-10.8652
mneni	-10.8657
haha	-10.866
他正在	-10.8668
他叫	-10.867
▁oveo	-10.8671
中間	-10.8676
▁sotv	-10.8677
pʉta	-10.8678
tataso	-10.8679
▁sova	-10.8689
原本就	-10.8693
▁kma	-10.87
玩了	-10.87
..."	-10.8711
借的	-10.8715
每一個	-10.872
faf	-10.8738
▁oeng	-10.8745
emohi	-10.8747
▁tesic	-10.8749
七個	-10.8754
▁oN	-10.8754
在學校	-10.8756
我正在	-10.8757
還需要	-10.876
toeko	-10.8785
yʉn	-10.8789
要比賽	-10.8814
pov	-10.8825
的都是	-10.8837
三個男孩	-10.8846
也有很多	-10.885
來過	-10.8853
借給	-10.8865
一隻狗	-10.8865
得太	-10.8872
seni	-10.8872
psos	-10.888
ʉmtʉsi	-10.889
▁kako	-10.8893
iv	-10.8919
▁meʉ	-10.894
▁ʉsi	-10.895
就是這樣	-10.8964
pahe	-10.897
▁hai	-10.8993
▁ngoe	-10.9009
fko	-10.9046
fʉn	-10.9068
六個人	-10.9086
afeong	-10.9092
▁pemo	-10.9121
svʉtneni	-10.9121
▁mitoc	-10.9141
那就	-10.9153
可以再	-10.9164
▁fiht	-10.917
你要去哪裡	-10.9172
式	-10.9201
的植物	-10.9202
▁ahno	-10.9203
各樣	-10.9206
同意	-10.9246
leng	-10.9261
▁sof	-10.9273
學校讀書	-10.9275
很辛苦	-10.9302
就是我	-10.9353
▁我的家在	-10.9356
們全家人	-10.9367
ping	-10.938
ʉngc	-10.9402
的禁忌	-10.9402
很驚訝	-10.9404
樹豆	-10.9408
keng	-10.9438
的父親	-10.9467
▁smoes	-10.9475
都很喜歡	-10.9479
hifi	-10.9516
▁pelʉ	-10.9541
看到他	-10.9558
用石頭	-10.9564
▁aaso	-10.9677
▁voe	-10.9713
pliki	-10.9714
beahci	-10.9724
engʉca	-10.9737
kakotia	-10.9739
aemon	-10.974
yokeoaso	-10.974
peispak	-10.9744
▁sm	-10.975
toocosi	-10.9756
skov	-10.9762
▁yʉʉ	-10.9764
在桌上	-10.9792
kolo	-10.9802
ceonʉ	-10.9835
▁atv	-10.9855
ngay	-10.9861
擋	-10.987
▁我把我的	-10.9912
sʉptʉ	-10.9936
真好	-10.9951
的家族	-10.9967
較容易	-10.997
要吃的	-10.9991
的便當	-11.003
teav	-11.0049
在鄒族	-11.0118
我家	-11.0122
把石頭	-11.0191
ohsa	-11.0265
很害怕	-11.0278
我的錢	-11.0292
竹園	-11.0308
沒收	-11.0311
舉	-11.033
我要用	-11.0356
種樹	-11.0393
ekot	-11.0417
那隻	-11.0449
▁我的家	-11.0452
得出	-11.0454
一定會	-11.0468
辛苦你	-11.0481
當天	-11.0502
vovei	-11.0515
都知道	-11.055
得動	-11.0598
九十	-11.06
吃東西時	-11.0601
蜜	-11.0601
蜂窩	-11.0601
真正	-11.0608
的豬	-11.061
拿去	-11.0642
ngvo	-11.0666
喜歡看	-11.0716
僅	-11.0717
的茶	-11.085
▁pesvʉt	-11.087
▁yoevah	-11.0888
paezom	-11.0921
趕走	-11.0937
風吹	-11.1033
讓孩子們	-11.1066
minen	-11.1081
▁ayoc	-11.1082
oskopʉ	-11.1087
▁toveoc	-11.1116
mosola	-11.1135
有下雨	-11.1158
們一起來	-11.1179
40	-11.1212
ngzo	-11.1228
或許	-11.1229
照片	-11.123
我忘了帶	-11.1245
一個一個	-11.1266
mcovhi	-11.1303
▁zong	-11.1342
帶走	-11.1349
遊	-11.136
atoto	-11.1367
ezoha	-11.1396
我天天	-11.1397
另	-11.1397
留下來	-11.1401
▁tpos	-11.1404
maska	-11.1409
▁tvo	-11.1418
不可	-11.142
碰	-11.1423
▁tovcong	-11.1424
借你	-11.1431
鹽巴	-11.1445
▁tik	-11.1447
遇	-11.145
▁你妹妹	-11.1453
隨	-11.1456
mco	-11.1461
fti	-11.1461
海邊	-11.1466
otovai	-11.1469
從哪裡	-11.147
cʉcʉhʉ	-11.1497
折	-11.1502
▁tmaie	-11.1508
askiti	-11.1508
ayomon	-11.1513
▁yahngʉy	-11.1513
留下	-11.1517
幾點鐘	-11.1518
忘記帶	-11.1519
黑色的	-11.1519
其實	-11.152
天天看電視	-11.1521
▁keʉpʉ	-11.1521
ʉehʉ	-11.1522
seafo	-11.1523
幹	-11.1524
他以為	-11.1524
會所的	-11.1525
枝	-11.1526
夠	-11.1527
yafoo	-11.1527
需	-11.1527
棵	-11.1528
鞋	-11.1528
不但	-11.1529
論	-11.1529
敢	-11.1529
軍	-11.153
份	-11.1531
帝	-11.1532
柴火	-11.1532
天氣如何	-11.1532
顆	-11.1532
班	-11.1532
popsohʉ	-11.1533
果實	-11.1533
岸	-11.1534
六個	-11.1534
早餐	-11.1534
迫	-11.1534
棉	-11.1534
視	-11.1534
▁ziten	-11.1535
院	-11.1535
隔	-11.1535
且	-11.1536
呼	-11.1536
隊	-11.1536
豐收	-11.1536
官	-11.1536
尖	-11.1537
遭	-11.1537
假	-11.1537
章	-11.1537
骨	-11.1537
邀	-11.1537
報復	-11.1538
師	-11.1538
辦	-11.1538
盛	-11.1538
避	-11.1538
導	-11.1538
激	-11.1538
魂	-11.1538
個小孩有幾	-11.1538
故	-11.1538
設	-11.1538
ingkoo	-11.1538
終	-11.1538
容	-11.1539
段	-11.1539
確	-11.1539
招	-11.1539
讓孩子	-11.1539
棄	-11.1539
速	-11.1539
材	-11.1539
鬆	-11.1539
王	-11.1539
唸	-11.1539
乘	-11.1539
助	-11.1539
sʉsʉftʉ	-11.1539
▁那些孩子喜歡	-11.1539
較	-11.1539
穀	-11.154
杜	-11.154
織	-11.154
響	-11.154
絲	-11.154
個比特幣	-11.154
無故	-11.154
麵	-11.154
上山打獵	-11.154
壯	-11.154
攤	-11.154
揉	-11.154
擾	-11.154
毀	-11.154
非	-11.154
蛙	-11.154
寮	-11.154
染	-11.154
的時代	-11.154
領導	-11.154
加密貨幣	-11.154
報	-11.154
刷	-11.154
甕	-11.154
識	-11.154
D	-11.154
擲	-11.154
武	-11.154
姊	-11.154
▁那些女孩子喜歡	-11.154
人口數	-11.154
滅	-11.154
藍	-11.154
歉	-11.154
福	-11.154
隆	-11.154
你就穿	-11.154
浪	-11.154
很快地	-11.154
懷	-11.154
村	-11.154
據	-11.154
敗	-11.154
阻	-11.154
莖	-11.154
西	-11.154
尾	-11.154
疫	-11.154
晴	-11.154
繫	-11.154
休	-11.154
勇	-11.154
卡	-11.154
閉	-11.154
也代表	-11.154
卡車司機	-11.154
曲	-11.154
窮	-11.154
編	-11.154
窗	-11.154
伴	-11.154
划	-11.154
務	-11.154
尋求幫助	-11.154
延	-11.154
往下走	-11.154
最珍貴的	-11.154
的後代長得跟	-11.154
的辛苦	-11.154
禁忌規範	-11.154
要遵守	-11.154
讚	-11.154
字典	-11.1541
天傍晚	-11.1541
天神哈漠	-11.1541
療	-11.1541
矮黑人	-11.1541
預	-11.1541
鬥	-11.1541
▁昨天我和	-11.1541
一頭牛	-11.1541
初登庫巴禮	-11.1541
嗨	-11.1541
因為太冷	-11.1541
巾	-11.1541
快走開	-11.1541
敵首祭	-11.1541
浸	-11.1541
私	-11.1541
綠綠的	-11.1541
谷	-11.1541
途	-11.1541
陌生人	-11.1541
▁請問您	-11.1541
來得及	-11.1541
戶	-11.1541
把椅子	-11.1541
Sngʉsngʉyo	-11.1541
yapasuyongʉ	-11.1541
▁今天我要教大家	-11.1541
一小塊	-11.1541
仁	-11.1541
囉	-11.1541
孩子喜歡畫圖	-11.1541
我早上六點	-11.1541
採茶的時候	-11.1541
揍	-11.1541
搭火車	-11.1541
有收穫	-11.1541
欠	-11.1541
添加的	-11.1541
濃	-11.1541
獸骨屋	-11.1541
疊	-11.1541
把香蕉吊	-11.1541
▁bʉyo	-11.1541
▁ebkoc	-11.1541
▁piepii	-11.1541
▁yopteʉl	-11.1541
▁那些男孩子正在	-11.1541
在背簍裡	-11.1541
大後天	-11.1541
我的爸爸是	-11.1541
打棒球	-11.1541
抬	-11.1541
的耳朵	-11.1541
Kuba	-11.1541
alisan	-11.1541
keematmoh	-11.1541
mʉknana	-11.1541
ocoecona	-11.1541
oyonatmopʉ	-11.1541
poepza	-11.1541
smʉpeʉ	-11.1541
tatposa	-11.1541
tipvongʉ	-11.1541
vaevoezoho	-11.1541
voecʉvcʉ	-11.1541
xtx	-11.1541
yoyopasʉ	-11.1541
▁aatiski	-11.1541
▁aekiek	-11.1541
▁ahmohmo	-11.1541
▁angongohia	-11.1541
▁boepono	-11.1541
▁cacʉfea	-11.1541
▁ekobi	-11.1541
▁eopteʉlʉ	-11.1541
▁eyʉskʉ	-11.1541
▁eʉbʉhʉ	-11.1541
▁hʉngchong	-11.1541
▁kilisto	-11.1541
▁kinanongo	-11.1541
▁kinkin	-11.1541
▁letmohco	-11.1541
▁maames	-11.1541
▁mabʉya	-11.1541
▁mazozomʉ	-11.1541
▁meahopa	-11.1541
▁mipsohi	-11.1541
▁mismoyoa	-11.1541
▁mʉvcʉnga	-11.1541
▁ocmʉyʉ	-11.1541
▁ohsohco	-11.1541
▁pahsʉsʉft	-11.1541
▁pahtoteoh	-11.1541
▁patpopsoh	-11.1541
▁pcokngʉ	-11.1541
▁peyayofʉ	-11.1541
▁pkaaki	-11.1541
▁pooftongaveoveo	-11.1541
▁psoetiskoo	-11.1541
▁psʉepʉngneni	-11.1541
▁smohfihci	-11.1541
▁sngʉsnga	-11.1541
▁soaezopʉ	-11.1541
▁soetohva	-11.1541
▁soiziva	-11.1541
▁somposk	-11.1541
▁sotohc	-11.1541
▁taeyongayʉ	-11.1541
▁tafiseongʉ	-11.1541
▁tateoyoyona	-11.1541
▁teofahea	-11.1541
▁tiseit	-11.1541
▁tmaskokoyongo	-11.1541
▁tmoyatatiskova	-11.1541
▁tohbak	-11.1541
▁tomposka	-11.1541
▁tothosana	-11.1541
▁tvofsoya	-11.1541
▁voveiveiyo	-11.1541
▁yoayokeo	-11.1541
▁yobankake	-11.1541
▁yofoyonʉ	-11.1541
▁yohngozo	-11.1541
▁yompoho	-11.1541
▁yongongabo	-11.1541
▁yʉntʉhi	-11.1541
▁yʉʉlʉlʉ	-11.1541
▁zozoya	-11.1541
▁他在這裡我不敢說出來	-11.1541
▁你早上幾點	-11.1541
▁我抱著	-11.1541
不留情	-11.1541
二十四	-11.1541
仔細看	-11.1541
倒閉了	-11.1541
兄弟姐妹	-11.1541
刺殺山豬	-11.1541
句	-11.1541
只要努力	-11.1541
喝到烈酒	-11.1541
在火爐邊	-11.1541
垮	-11.1541
天已經黑了	-11.1541
天氣怎麼樣	-11.1541
它的價錢	-11.1541
守喪期	-11.1541
寬	-11.1541
小米粟神	-11.1541
屎	-11.1541
岩	-11.1541
峭壁	-11.1541
崩塌的路	-11.1541
弱	-11.1541
很有敵意	-11.1541
我有一個哥哥	-11.1541
扮	-11.1541
摔	-11.1541
撫	-11.1541
斗	-11.1541
斤	-11.1541
是我的朋友	-11.1541
有哪些	-11.1541
朗	-11.1541
漂走的衣服	-11.1541
漩	-11.1541
潔淨	-11.1541
炭	-11.1541
獨自割	-11.1541
疼	-11.1541
短袖的衣服	-11.1541
種了小米就不管	-11.1541
穿山甲	-11.1541
箱	-11.1541
腔	-11.1541
膽	-11.1541
薄	-11.1541
負	-11.1541
走到有水的地方	-11.1541
踢	-11.1541
踩到尖銳的玻璃	-11.1541
軟	-11.1541
辦公室	-11.1541
遮	-11.1541
酒醉的人	-11.1541
鉤	-11.1541
鐵	-11.1541
開玩笑	-11.1541
額	-11.1541
aʉnmt	-11.1541
▁ezoezoyʉ	-11.1541
▁linki	-11.1541
▁meemeesi	-11.1541
▁smotokʉ	-11.1541
▁soesoha	-11.1541
▁svʉyʉ	-11.1541
▁那個男孩子正在	-11.1541
下小雨	-11.1541
各家族的	-11.1541
在火塘	-11.1541
常待的	-11.1541
撒	-11.1541
有什麼事	-11.1541
涉水而過	-11.1541
石壓式陷阱	-11.1541
老師要帶我們去	-11.1541
財產	-11.1541
開墾的地	-11.1541
騎著腳踏車	-11.1541
ingenoli	-11.1541
▁caphʉ	-11.1541
▁eovovo	-11.1541
▁hookiyo	-11.1541
▁kopica	-11.1541
▁meahico	-11.1541
▁meiavovei	-11.1541
▁moefoeso	-11.1541
▁posimaskʉ	-11.1541
▁yoftong	-11.1541
▁yoveia	-11.1541
▁yʉskʉ	-11.1541
澀	-11.1541
vayaeana	-11.1541
▁meieepe	-11.1541
▁tnʉyʉ	-11.1541
▁他碰巧	-11.1541
▁別再逗	-11.1541
▁蛙群	-11.1541
一週	-11.1541
上山狩獵	-11.1541
仿	-11.1541
做記號	-11.1541
凝聚團結	-11.1541
卜	-11.1541
吊	-11.1541
吐	-11.1541
周	-11.1541
基督教	-11.1541
好久不見	-11.1541
廚房	-11.1541
打瞌睡	-11.1541
把書寄	-11.1541
把竹筍	-11.1541
揚	-11.1541
樓	-11.1541
武器	-11.1541
湯保福	-11.1541
源自於	-11.1541
糟糕	-11.1541
絲瓜	-11.1541
芽	-11.1541
要祭祀	-11.1541
躲在石頭	-11.1541
鋪	-11.1541
驅邪	-11.1541
▁engohc	-11.1541
▁pahcingh	-11.1541
▁snʉfʉ	-11.1541
▁yopngo	-11.1541
▁小孩和狗	-11.1541
長高了	-11.1541
ateopoptoh	-11.1541
pohcinghi	-11.1541
singenovu	-11.1541
▁psoyask	-11.1541
▁tookeo	-11.1541
一棵樹	-11.1541
佑	-11.1541
到台北	-11.1541
團體	-11.1541
我帶你去	-11.1541
歡迎	-11.1541
的繩子	-11.1541
轉變成人	-11.1541
颱風過後	-11.1541
鼓	-11.1541
射了一次	-11.1541
燒過的	-11.1541
負責	-11.1541
▁tisifoo	-11.1541
射箭	-11.1541
扁	-11.1541
攀爬	-11.1541
kavangsi	-11.1541
sopnana	-11.1541
▁fafato	-11.1541
▁hiaemoza	-11.1541
▁smoepepe	-11.1541
▁爸爸要去	-11.1541
介	-11.1541
佔	-11.1541
參加成年禮的年輕人	-11.1541
境	-11.1541
巫師	-11.1541
aiyaesʉ	-11.1541
▁pokto	-11.1541
▁vohvah	-11.1541
緣	-11.1541
西瓜	-11.1541
阻止	-11.1541
aengoza	-11.1541
C	-11.1541
sngʉyo	-11.1541
veineni	-11.1541
▁eepia	-11.1541
▁epsʉps	-11.1541
▁mahtʉecʉ	-11.1541
▁toevosʉ	-11.1541
俄羅斯	-11.1541
志	-11.1541
感到非常驕傲	-11.1541
捲	-11.1541
搓	-11.1541
機器狗	-11.1541
用左手丟球	-11.1541
的背簍	-11.1541
要記得把	-11.1541
親朋好友	-11.1541
餓著肚子	-11.1541
cacei	-11.1541
在台北	-11.1541
遊戲	-11.1541
充滿	-11.1541
泥土	-11.1541
爛	-11.1541
畢業	-11.1541
▁mahihioa	-11.1541
▁soanono	-11.1541
婚姻	-11.1541
否	-11.1541
微笑	-11.1541
效	-11.1541
看一看	-11.1541
編織	-11.1541
鄰居	-11.1541
▁somayahea	-11.1541
急促	-11.1541
交代	-11.1541
來吉村	-11.1541
感冒	-11.1541
隔壁	-11.1541
堆積	-11.1541
我有二	-11.1541
浪費	-11.1541
禮拜	-11.1541
閉上眼睛	-11.1541
餅乾	-11.1541
▁kengkio	-11.1541
移居	-11.1541
青蛙在吃	-11.1541
▁tokali	-11.1541
▁hooceng	-11.1541
▁toʉsvʉsvʉtʉ	-11.1541
▁etohc	-11.1541
▁yaakaka	-11.1541
延續	-11.1541
▁kohko	-11.1541
收集	-11.1541
增加	-11.1541
穿著綠色的衣服	-11.1541
詐騙集團	-11.1541
量杯	-11.1541
▁apci	-11.1541
祈求	-11.1541
難怪	-11.1541
▁拿出你的	-11.1541
▁pakoci	-11.1541
遷移	-11.1541
50	-11.1541
木瓜	-11.1541
▁atngaso	-11.1541
Losin	-11.1541
打工者	-11.1541
支持	-11.1541
的是什麼呢	-11.1541
seoseo	-11.1541
▁maivhong	-11.1541
pocva	-11.1541
▁yʉhcʉvh	-11.1541
好聽的	-11.1541
困擾	-11.1541
很接近	-11.1541
牽手	-11.1541
芒草莖	-11.1541
非常謝謝您	-11.1541
權	-11.1541
的子民	-11.1541
藍色的	-11.1541
Iusungu	-11.1541
epapa	-11.1541
我們去買	-11.1541
摸索	-11.1541
▁esmʉ	-11.1541
刷牙	-11.1541
渡井三郎	-11.1541
失敗	-11.1541
導致	-11.1541
▁civci	-11.1541
搭飛機	-11.1541
hiehoma	-11.1541
▁pahsioh	-11.1541
喜歡用左手的人	-11.1541
土石流	-11.1541
宗教	-11.1541
▁tomtoeha	-11.1541
聚在一起	-11.1541
飾品	-11.1541
我要買兩瓶	-11.1541
星星出來了	-11.1541
多年的	-11.1541
▁macoconoemoo	-11.1541
搗亂	-11.1541
kelo	-11.1541
▁somso	-11.1541
▁sicngi	-11.1541
科學	-11.1541
遇難	-11.1541
遺失	-11.1541
野餐	-11.1541
月亮出來了	-11.1541
遊客	-11.1541
mexe	-11.1541
▁tofngi	-11.1541
盛飯	-11.1541
▁msiohʉ	-11.1541
假日	-11.1541
影響	-11.1541
強壯	-11.1541
記錄	-11.1541
肥料	-11.1541
▁toatmopsx	-11.1541
公車站	-11.1541
▁seihʉ	-11.1541
▁taoke	-11.1541
從洞裡出來	-11.1541
黃色	-11.1541
招收	-11.1542
▁peiengo	-11.1542
診所	-11.1542
▁mvoe	-11.1542
amngo	-11.1542
堅持	-11.1542
觸口	-11.1542
安靜	-11.1542
▁vhongʉ	-11.1542
pahsah	-11.1542
▁eoveineni	-11.1542
▁nakozo	-11.1542
推翻	-11.1542
巡陷阱	-11.1542
▁moyafo	-11.1542
可惜	-11.1542
500	-11.1542
旅行	-11.1542
玉米粒	-11.1542
▁ken	-11.1542
hpʉngʉ	-11.1542
我很想念	-11.1542
試試	-11.1542
的是什麼東西	-11.1542
祭師	-11.1542
傳承	-11.1542
擺設	-11.1542
王子的	-11.1542
修理	-11.1542
▁aftong	-11.1542
▁kant	-11.1542
kakoi	-11.1542
牽著	-11.1542
米粒	-11.1542
賺錢	-11.1542
犁田	-11.1542
得懂	-11.1542
好多好多	-11.1542
▁mingayo	-11.1542
原因	-11.1542
整理	-11.1542
聚落	-11.1542
認得	-11.1542
▁apaezomo	-11.1542
▁motoevi	-11.1542
美國	-11.1542
amamia	-11.1542
voehipongana	-11.1542
重視	-11.1542
▁thoci	-11.1542
跑得很快	-11.1542
要好好照顧	-11.1542
▁amzocni	-11.1542
眾多	-11.1542
▁psoelʉ	-11.1542
正式	-11.1542
至今	-11.1542
快速	-11.1543
那張椅子很	-11.1543
sosoni	-11.1543
▁ongacv	-11.1543
有一個小女孩	-11.1543
▁nootoefʉngʉ	-11.1543
▁幸好	-11.1543
▁那個女人有幾	-11.1543
真相	-11.1543
holong	-11.1543
nakʉmo	-11.1543
18	-11.1543
睡在一起	-11.1543
▁cicvi	-11.1543
來吉	-11.1543
餓死	-11.1543
▁oemoemo	-11.1543
相同	-11.1543
▁一週有	-11.1543
是這樣的	-11.1543
公車	-11.1543
豬圈	-11.1543
鬼神	-11.1543
住院	-11.1543
撈魚	-11.1543
他拿了	-11.1543
aomeomeoso	-11.1543
避開	-11.1543
拍照	-11.1543
種類	-11.1543
集會所	-11.1543
好久沒	-11.1543
趕鳥	-11.1543
古拉	-11.1543
寶物	-11.1543
部分	-11.1543
載的東西	-11.1543
44	-11.1543
蛇類	-11.1543
八次	-11.1543
▁ciitho	-11.1544
獵具	-11.1544
popc	-11.1544
七次	-11.1544
學鄒語	-11.1544
家附近	-11.1544
聊天	-11.1544
烤火	-11.1544
竹槍	-11.1544
屋頂被風	-11.1544
▁yomak	-11.1544
挖洞	-11.1544
psip	-11.1544
日記	-11.1544
鹿的角	-11.1544
不好的話	-11.1544
等不到	-11.1544
看見一隻	-11.1544
骨頭	-11.1544
米飯	-11.1544
回應	-11.1544
eyaafoo	-11.1544
▁pithopi	-11.1544
聖所	-11.1544
可愛	-11.1544
採梨子	-11.1544
船隻	-11.1545
針走	-11.1545
hicocv	-11.1545
五次	-11.1545
砍竹子	-11.1545
▁pasocoma	-11.1545
想要吃什麼	-11.1545
聚會所	-11.1545
在家等	-11.1545
▁poponga	-11.1545
外公	-11.1545
發亮	-11.1545
停下來	-11.1545
分散	-11.1546
▁hʉsvʉta	-11.1546
剩下	-11.1546
相當	-11.1546
偷吃了	-11.1546
祖先們	-11.1546
這支	-11.1546
voveoh	-11.1546
打架	-11.1546
禮物	-11.1546
一籃	-11.1546
頭飾帶	-11.1546
包米	-11.1546
公鹿	-11.1546
關節	-11.1546
▁ateop	-11.1546
請開門	-11.1546
聽不到	-11.1546
身邊	-11.1546
tpʉtʉ	-11.1547
▁teonghi	-11.1547
大豐收	-11.1547
eftong	-11.1547
去山裡	-11.1547
過世	-11.1547
嫁給	-11.1547
▁kiosico	-11.1547
好不容易	-11.1547
群山	-11.1547
被迫	-11.1547
太好了	-11.1547
入口	-11.1547
寫信	-11.1547
剛開始	-11.1548
▁ahoine	-11.1548
▁請聽	-11.1548
當然	-11.1548
農地	-11.1548
▁opaskeni	-11.1548
外國	-11.1548
明白	-11.1548
cʉph	-11.1548
我的媽媽是	-11.1548
最早	-11.1548
死前	-11.1548
寫下來	-11.1548
不吉利	-11.1548
都很適合	-11.1548
裡的草	-11.1548
很多事情	-11.1548
▁thaiko	-11.1549
▁yopteilʉ	-11.1549
大家一起來	-11.1549
跳過去	-11.1549
鄒族的男人	-11.1549
konvosʉ	-11.1549
▁cocoeconʉ	-11.1549
一下子就	-11.1549
還給他	-11.1549
妻子	-11.1549
蓋房子	-11.1549
忙著	-11.1549
還沒回來	-11.1549
從玉山	-11.1549
▁maspi	-11.1549
還給你	-11.1549
事物	-11.1549
▁minoco	-11.1549
上帝	-11.1549
一份	-11.155
把柴火	-11.155
有一個妹妹	-11.155
▁kaep	-11.155
▁atpʉta	-11.155
那坐著的人	-11.1551
得很快	-11.1551
▁toomoko	-11.1551
▁peoasa	-11.1551
▁tosveni	-11.1551
▁aaceacna	-11.1551
還有好多	-11.1551
活著	-11.1551
▁日子	-11.1551
這些都是	-11.1551
軍人	-11.1551
▁efʉta	-11.1551
▁yosohngi	-11.1551
▁早上我	-11.1551
都不見了	-11.1551
saseolʉ	-11.1552
生火	-11.1552
很容易	-11.1552
kongsʉ	-11.1552
▁timeois	-11.1552
被禁止	-11.1552
幫我拿	-11.1552
▁hoseolʉa	-11.1552
發燒	-11.1552
▁amovoyo	-11.1552
不夠	-11.1552
一首	-11.1552
過於	-11.1553
▁sifʉhngoya	-11.1553
eivho	-11.1553
▁那裡有	-11.1553
射出	-11.1553
eovco	-11.1553
飛行	-11.1553
才不會	-11.1554
▁peohnasi	-11.1554
去探望	-11.1554
很粗的	-11.1554
那一種	-11.1554
▁路被	-11.1554
看不到	-11.1554
▁穿上	-11.1555
三種	-11.1555
▁smoh	-11.1555
雞肉	-11.1555
▁yongm	-11.1555
何時	-11.1555
跳高	-11.1555
幫妳	-11.1555
很多動物	-11.1555
床上	-11.1555
kalo	-11.1555
祭神	-11.1556
一根	-11.1556
▁ekozkozo	-11.1556
很順	-11.1556
不能再	-11.1556
▁tiachi	-11.1556
他的帽子	-11.1557
我要去找	-11.1557
不順	-11.1557
不聽話	-11.1557
▁makaci	-11.1557
飛過	-11.1557
讓其	-11.1557
貴的	-11.1557
▁seiso	-11.1557
aveoveoyʉsoo	-11.1557
場所	-11.1557
四個人	-11.1557
子彈	-11.1558
分開	-11.1558
othoi	-11.1558
mopsʉ	-11.1559
但是卻	-11.1559
才能	-11.1559
進行	-11.1559
▁smaho	-11.1559
aptaptaʉngʉ	-11.1559
▁有啊	-11.1559
▁總共	-11.1559
time	-11.156
穿衣服	-11.156
因而	-11.156
一起吃飯	-11.156
小偷	-11.156
▁多吃	-11.156
更好	-11.156
太熱	-11.1561
準時	-11.1561
▁botasva	-11.1561
放假了	-11.1561
▁ngang	-11.1561
他們天天看電視	-11.1561
▁maseafo	-11.1561
一個洞	-11.1561
▁eafoo	-11.1561
▁nopeaski	-11.1561
生長	-11.1561
學到了	-11.1562
也稱為	-11.1562
ʉhta	-11.1562
▁我忘記帶	-11.1563
抓住	-11.1563
太胖了	-11.1563
笑著	-11.1563
▁meolʉ	-11.1564
其實是	-11.1564
▁cocapo	-11.1564
比較好	-11.1564
注意到	-11.1565
▁你晚上幾點	-11.1565
tvah	-11.1565
快到了	-11.1565
大約要	-11.1565
一切	-11.1565
下次再來	-11.1566
從哪裡來	-11.1566
蓋住	-11.1566
▁它是	-11.1566
種花	-11.1566
去世	-11.1566
少年	-11.1566
▁titacvoh	-11.1567
帶領的人	-11.1567
▁emomcovhi	-11.1567
▁sosv	-11.1567
自己的部落	-11.1568
那些小孩	-11.1569
▁aemoemo	-11.1569
用來做	-11.1569
下車	-11.1569
最長	-11.157
就算	-11.157
吃米糕	-11.157
不滿	-11.157
幾個人	-11.1571
發出	-11.1571
uu	-11.1571
年輕時	-11.1572
在裡面	-11.1572
理會	-11.1572
吃藥	-11.1572
你的筆	-11.1573
在河裡	-11.1573
都是因為	-11.1573
▁這裡是	-11.1574
為祖母	-11.1575
這本書	-11.1575
很短	-11.1575
時期	-11.1576
擁有我們	-11.1576
kisa	-11.1578
這次	-11.1578
▁真的是	-11.1578
湯家	-11.1579
就這樣子	-11.1579
▁我參與	-11.1579
居住在	-11.1579
當兵的	-11.1579
對話	-11.158
▁kis	-11.1581
▁koozo	-11.1581
一起生活	-11.1581
▁imoco	-11.1582
胖了	-11.1582
走路時	-11.1582
poepohʉ	-11.1583
他們終於	-11.1583
也是鄒族	-11.1584
濕了	-11.1584
獲得了	-11.1584
▁kaot	-11.1585
掛在	-11.1585
在玉山	-11.1586
只有一個	-11.1586
▁foinanahe	-11.1587
抓著	-11.1587
▁他們只	-11.1587
回部落	-11.1588
電腦上	-11.1589
比較會	-11.1589
為之	-11.1589
很多東西	-11.1589
eococ	-11.159
▁這是魚	-11.159
大聲	-11.159
出門要	-11.1591
不然	-11.1592
▁efohʉ	-11.1592
重要的	-11.1593
你們的部落	-11.1593
在地上	-11.1593
▁ason	-11.1593
只好	-11.1594
一場	-11.1594
▁cohiona	-11.1594
▁這裡就是	-11.1596
▁我到山上	-11.1596
不懂	-11.1597
▁你來這裡	-11.1597
當地	-11.1598
▁mʉmʉ	-11.1598
▁cʉyʉsi	-11.1598
▁opask	-11.1598
非常喜歡	-11.1598
刀和	-11.16
就不能	-11.1602
我還要買	-11.1602
一起住	-11.1602
▁mohto	-11.1603
要搬	-11.1603
不習慣	-11.1605
▁apeoha	-11.1605
看一下	-11.1605
學會	-11.1605
▁saisi	-11.1605
通常是	-11.1605
這種	-11.1606
去讀書	-11.1607
▁nanaeno	-11.1607
就只有	-11.1608
我的魚	-11.1609
你從哪裡來	-11.1613
但他們	-11.1613
刀子	-11.1614
吃的東西	-11.1614
住著	-11.1615
樹下	-11.1615
手指	-11.1615
破了	-11.1619
分到	-11.162
在哭	-11.162
槍的人	-11.1621
可是	-11.1622
ʉhcʉ	-11.1622
▁tiv	-11.1623
年輕人要	-11.1624
在海邊	-11.1625
問媽媽	-11.1626
媽媽問	-11.1626
到學校	-11.1629
把菜	-11.1629
小狗	-11.1629
說明	-11.163
照顧他	-11.163
cngoh	-11.1632
來家裡	-11.1634
▁yohes	-11.1638
喜歡看電視	-11.1638
部落裡	-11.1639
來回	-11.1639
都能	-11.164
走著	-11.1641
我的腳	-11.1644
進到	-11.1644
書包	-11.1645
▁他常常	-11.1646
asvʉ	-11.1646
▁hici	-11.1646
用過	-11.1647
挖出來	-11.1648
不但可以	-11.165
這些人	-11.1652
不熱	-11.1652
他的話	-11.1653
這是山豬	-11.1656
吃掉	-11.1656
煮好	-11.1659
他的手	-11.166
tovcongʉ	-11.1661
▁ʉng	-11.1662
歌唱	-11.1668
toeha	-11.1668
olos	-11.1669
那是地瓜	-11.1669
粗大	-11.167
不知道你	-11.1676
你曾經	-11.1676
▁toonon	-11.1677
來搗	-11.168
一下子	-11.168
oveos	-11.1683
要當	-11.1685
moseo	-11.1689
▁我吃了	-11.1698
冒出	-11.1702
zoc	-11.1705
土地神	-11.1708
▁我們一起看我們的	-11.1721
▁aaknoes	-11.1721
我剛	-11.1722
▁peepʉng	-11.1724
那石頭	-11.1725
▁emomain	-11.1737
很瘦	-11.1742
我明天要	-11.1746
teezo	-11.1757
momcovhi	-11.1758
你有看	-11.1771
▁soteoyon	-11.1774
▁我要離開	-11.1775
很適合	-11.1786
nonmʉh	-11.1787
要改變	-11.1793
peahngʉyʉ	-11.1822
cngih	-11.1822
▁esoson	-11.1834
我也有	-11.1845
或許是	-11.1864
mamsoz	-11.1868
很多次	-11.1868
你們也	-11.1872
▁titpʉsk	-11.1878
sohpoz	-11.1887
你還是	-11.1898
屋內	-11.1917
好久	-11.1965
200	-11.1975
▁maceoceon	-11.198
▁mif	-11.1991
ayoca	-11.1993
▁sopeoh	-11.2003
八個	-11.2016
▁oaka	-11.2046
hiezoh	-11.2061
用手	-11.2071
singva	-11.209
▁bont	-11.2136
先借	-11.2143
就會把	-11.216
▁aop	-11.2195
▁smop	-11.2228
papay	-11.233
的基因	-11.2377
會畫	-11.243
僅只	-11.2438
▁tmʉ	-11.2439
▁papas	-11.2454
有兩個人來	-11.2535
過橋	-11.2535
隻羊	-11.255
▁請坐	-11.2555
senseiso	-11.2565
honciko	-11.2598
搬得	-11.2626
有各式各樣	-11.2661
了一位	-11.2702
去賣	-11.2705
最大	-11.2724
▁又有	-11.2732
tayaezoi	-11.2765
十個	-11.2806
拿走	-11.2809
的朋友很多	-11.2817
洞口	-11.2843
tmozi	-11.2913
yama	-11.2916
pena	-11.293
▁paepo	-11.2935
已經回家	-11.2955
▁teih	-11.299
mzaco	-11.3035
用自己	-11.3048
講得	-11.3123
在阿里山	-11.3152
一天只	-11.3317
不容易	-11.3326
▁emopeoh	-11.3391
0	-11.3441
要穿的	-11.3447
的石頭推開	-11.3538
要去看	-11.3599
cʉh	-11.3621
▁atvoh	-11.3626
到那裡	-11.3629
要賣	-11.3676
▁peec	-11.3697
再找	-11.3717
我可以出去	-11.3727
ifeoy	-11.3758
▁eplik	-11.3776
▁posvʉt	-11.383
吃過	-11.3837
喜歡畫圖	-11.397
▁esmiz	-11.3974
撿起	-11.3978
差別	-11.4153
傳統服	-11.4161
mʉemʉ	-11.4172
▁nʉt	-11.4199
lohto	-11.4213
toocosʉ	-11.4224
tposʉ	-11.4224
fihngao	-11.4227
sensei	-11.423
tposi	-11.424
yoansoo	-11.4241
haah	-11.4245
cnʉmʉ	-11.4251
phingi	-11.4252
noyano	-11.4258
pasonaeno	-11.426
maitan	-11.4265
kokozo	-11.4276
tosvo	-11.4277
yongho	-11.4304
▁他們的朋友很	-11.432
鄒族的大社	-11.4329
1000	-11.4337
engli	-11.434
hosahe	-11.4388
我們全家	-11.4401
去看病	-11.4438
要帶小孩	-11.4446
個人來幫忙	-11.4665
momz	-11.4702
眾	-11.4737
夾	-11.4794
野獸	-11.4796
mocos	-11.4839
12	-11.487
mahtʉ	-11.5021
頭髮	-11.5072
chia	-11.51
gan	-11.5111
▁pahev	-11.5142
躺	-11.5217
▁mahev	-11.5254
雙方	-11.5321
約定	-11.5326
汪	-11.5409
mamso	-11.5479
▁kav	-11.5502
▁我把雞舍圍	-11.5513
▁sohpo	-11.5522
avina	-11.5524
tpʉskʉ	-11.5532
▁amʉt	-11.5574
soyosi	-11.5576
在部落中	-11.5588
▁eobak	-11.5598
游	-11.561
▁soopoz	-11.5612
ʉesʉ	-11.5686
尋	-11.5729
▁engh	-11.5754
▁yoyasv	-11.5822
▁paiftong	-11.5824
▁eototavei	-11.5825
atvo	-11.5829
papei	-11.5846
veiveia	-11.5848
▁我們鄒	-11.5866
hohoc	-11.5882
toefʉngʉ	-11.5906
那三個	-11.5908
yosohng	-11.5937
懂	-11.5949
計	-11.5955
側	-11.5969
▁aosk	-11.5974
chʉmʉ	-11.5975
aisan	-11.5981
當兵	-11.5986
髮	-11.5995
aemamso	-11.5999
toteoho	-11.6002
ayosi	-11.6005
tfʉngʉ	-11.6006
kameosa	-11.6006
▁tmops	-11.6008
kozkozo	-11.601
豬的腳	-11.601
atʉkc	-11.6011
aptaptaʉng	-11.6012
放假	-11.6012
▁tibkoc	-11.6012
▁aʉsvʉsvʉt	-11.6013
▁yʉmeʉm	-11.6013
▁totoefʉng	-11.6013
▁iepoepoh	-11.6014
太胖	-11.6014
▁peayof	-11.6014
來看你	-11.6015
▁ezoy	-11.6017
籃	-11.6017
圖	-11.6018
otohva	-11.6019
▁maapa	-11.602
▁peohna	-11.602
桌	-11.6021
支	-11.6024
▁meme	-11.6024
撈	-11.6026
底	-11.6026
客氣	-11.6026
妻	-11.6028
民	-11.6028
肚	-11.6028
牠的背	-11.6028
沙	-11.6029
褲	-11.6029
吉利	-11.6029
更多的	-11.603
裏	-11.603
馬	-11.603
ateongabo	-11.6031
敵	-11.6031
議	-11.6031
▁seika	-11.6032
臨	-11.6033
sansano	-11.6033
鄒	-11.6033
eʉngna	-11.6033
糕	-11.6033
hmʉskʉ	-11.6034
玉	-11.6035
陪	-11.6035
▁快樂王子拜託燕子	-11.6036
兵	-11.6036
止	-11.6036
聊	-11.6036
降	-11.6036
姐	-11.6036
覺	-11.6036
依舊	-11.6037
歸	-11.6037
陽	-11.6038
鄉	-11.6038
楓	-11.6038
交易	-11.6038
自行車	-11.6038
始	-11.6038
獲	-11.6038
參	-11.6038
賺	-11.6038
尊	-11.6038
amameoi	-11.6038
芒	-11.6038
藏	-11.6039
旅	-11.6039
按	-11.6039
功	-11.6039
舞	-11.6039
災	-11.6039
觸	-11.6039
gsoha	-11.6039
笛	-11.6039
杵	-11.6039
播	-11.6039
暴	-11.6039
靠	-11.6039
變得越來越	-11.6039
即	-11.6039
育	-11.6039
這塊土地	-11.6039
澡	-11.6039
爭	-11.6039
統	-11.6039
奶	-11.6039
收穫祭	-11.6039
喜	-11.6039
宗	-11.6039
從洞裡	-11.6039
續	-11.6039
探	-11.604
界	-11.604
筒	-11.604
科	-11.604
請再唱	-11.604
互	-11.604
ngpocai	-11.604
廣	-11.604
宣	-11.604
綠	-11.604
都在戰爭中被	-11.604
現代的社會	-11.604
輪	-11.604
婦	-11.604
塗	-11.604
U	-11.604
稀	-11.604
備	-11.604
泥	-11.604
優	-11.604
可以用來購買	-11.604
對政府有信心	-11.604
泰雅族	-11.604
為何人們會相信	-11.604
被當作	-11.604
那間房子	-11.604
吹氣	-11.604
文	-11.604
贈	-11.604
士	-11.604
移	-11.604
蜂	-11.604
知	-11.604
到河的對岸	-11.604
刻	-11.604
葬	-11.604
術	-11.604
夫	-11.604
既	-11.604
互訪	-11.604
這件事	-11.604
驗	-11.604
ipopso	-11.604
藍寶石	-11.604
技	-11.604
火箭	-11.604
svʉsvʉtʉ	-11.604
亞	-11.604
祈	-11.604
壁	-11.604
我來畫	-11.604
Watan	-11.604
▁1971	-11.604
▁2013	-11.604
印製	-11.604
和觀念	-11.604
抵	-11.604
比特幣可以	-11.604
畏	-11.604
目的地	-11.604
縣	-11.604
臺灣也有很多	-11.604
覆蓋著	-11.604
轟	-11.604
這件事情	-11.604
這座島	-11.604
一張紙	-11.604
催	-11.604
姨	-11.604
區域	-11.604
弓箭	-11.604
邪	-11.604
擠	-11.604
▁botng	-11.604
逛	-11.604
到底是怎麼	-11.604
袖	-11.604
贏	-11.604
陣	-11.604
仍	-11.604
倉	-11.604
商	-11.604
易	-11.604
隆隆	-11.604
促	-11.604
1922	-11.604
▁1947	-11.604
也慢慢的消失	-11.604
人的行為	-11.604
他心愛的	-11.604
六歲的時候	-11.604
和日本人妥協	-11.604
咕	-11.604
嗚	-11.604
嚐新酒	-11.604
在找尋	-11.604
奉	-11.604
巫師做法術或	-11.604
恆春半島	-11.604
懼	-11.604
把種子放到	-11.604
指揮	-11.604
旱	-11.604
有兩隻狗	-11.604
欸	-11.604
炎	-11.604
烏克蘭人並不害怕	-11.604
燕子告訴王子	-11.604
生出千百種	-11.604
的小米豐收節	-11.604
肺	-11.604
臺灣人	-11.604
興奮	-11.604
被燒到	-11.604
送神曲	-11.604
逐	-11.604
都會到那裏	-11.604
難民營	-11.604
碎	-11.604
端	-11.604
返	-11.604
▁餵食	-11.604
息	-11.604
召	-11.604
一句話	-11.604
參加成年禮的女子	-11.604
在兒童	-11.604
忍	-11.604
我在這邊	-11.604
粟米倉	-11.604
它的價位	-11.6041
是排灣族	-11.6041
積	-11.6041
英	-11.6041
媽	-11.6041
boht	-11.6041
▁24.	-11.6041
▁冰箱裡有	-11.6041
世界各地	-11.6041
也逐漸	-11.6041
但是左手用	-11.6041
保護自己的家園	-11.6041
像樹葉	-11.6041
到庫巴廣場	-11.6041
到月亮上	-11.6041
到火星上	-11.6041
原住民的文字	-11.6041
去探望祖父	-11.6041
吟	-11.6041
唷	-11.6041
嘆	-11.6041
天上的雲	-11.6041
天神降下	-11.6041
宗教祭祀	-11.6041
將手上的花送給了	-11.6041
從天降	-11.6041
應該是從	-11.6041
爭著要	-11.6041
當作國王一樣	-11.6041
盒	-11.6041
矮人族	-11.6041
穿紅衣	-11.6041
翔	-11.6041
職	-11.6041
臂	-11.6041
芙	-11.6041
荖農溪	-11.6041
貢	-11.6041
辣椒和	-11.6041
這個世界上	-11.6041
這兩張照片有很	-11.6041
醒	-11.6041
錢付給我	-11.6041
離開人世	-11.6041
顏色部落	-11.6041
高速鐵路	-11.6041
鳴	-11.6041
消	-11.6041
▁長者們都說	-11.6041
初試工具禮	-11.6041
糟	-11.6041
搶	-11.6041
稍	-11.6041
uyongʉ	-11.6041
一個家族的成員	-11.6041
們知道祖母明天要來	-11.6041
偷偷跑到別人的	-11.6041
分肉時	-11.6041
去倉庫	-11.6041
去平地	-11.6041
古時人們	-11.6041
吠	-11.6041
在一個部落裡	-11.6041
在火星	-11.6041
埂	-11.6041
寄	-11.6041
很有條理	-11.6041
怎麼捉蝴蝶	-11.6041
成為孩子們的	-11.6041
成長形	-11.6041
我已經預先	-11.6041
拉了一下	-11.6041
拿著釣竿在船	-11.6041
掙	-11.6041
搖動木瓜樹	-11.6041
放到無人島上	-11.6041
板	-11.6041
每次都會	-11.6041
渡	-11.6041
現在是夏天	-11.6041
用黑炭	-11.6041
監	-11.6041
睜	-11.6041
竹筍頂	-11.6041
第一名	-11.6041
耀	-11.6041
舉手遮陽眺望	-11.6041
苔	-11.6041
蛇都到齊	-11.6041
製作成飯	-11.6041
要種的樹豆種子	-11.6041
這隻狗	-11.6041
達德安	-11.6041
釀	-11.6041
▁你搭什麼	-11.6041
▁粽子加上	-11.6041
▁Inguyu	-11.6041
▁sochip	-11.6041
▁下大雨時	-11.6041
▁他們又繼續	-11.6041
▁祭儀時很	-11.6041
▁老師稱讚	-11.6041
▁要上學的小孩提前吃了	-11.6041
▁讓執法者	-11.6041
不要忘記洗	-11.6041
他是我的哥哥	-11.6041
你喜歡吃什麼	-11.6041
像他爸爸	-11.6041
分一半	-11.6041
叉	-11.6041
可是山豬不會	-11.6041
啃骨頭時把牙齒咬	-11.6041
已經忘記	-11.6041
得我頭好	-11.6041
得比較快	-11.6041
怎	-11.6041
摩	-11.6041
用細長的樹枝打了	-11.6041
的雨具是	-11.6041
直形獵刀	-11.6041
絆	-11.6041
繩子用來綁	-11.6041
芋頭混在	-11.6041
這些是學校為	-11.6041
那條河	-11.6041
長直刀	-11.6041
雷	-11.6041
htothom	-11.6041
▁boeta	-11.6041
▁他一直叫那	-11.6041
▁他測量我	-11.6041
▁對面有人	-11.6041
▁已經努力的	-11.6041
▁我家的橫樑斷	-11.6041
▁我該做的工作已經完成	-11.6041
傻	-11.6041
只剩一	-11.6041
我的竹林	-11.6041
禁	-11.6041
%27	-11.6041
15~17	-11.6041
1991	-11.6041
1994	-11.6041
20~24	-11.6041
FTX	-11.6041
ahsoksok	-11.6041
ahsongsong	-11.6041
angangaez	-11.6041
aomeomeosa	-11.6041
ateopehaes	-11.6041
ayovea	-11.6041
butnana	-11.6041
eayʉʉlʉlʉ	-11.6041
hismosmoyo	-11.6041
iyohngi	-11.6041
keobangnoa	-11.6041
kʉyʉpa	-11.6041
obobai	-11.6041
onakocv	-11.6041
ootoovai	-11.6041
opcakv	-11.6041
tesngosng	-11.6041
tibusungu	-11.6041
tihohoi	-11.6041
toalongva	-11.6041
uhtu	-11.6041
yapsoyongana	-11.6041
yayokeo	-11.6041
▁1979	-11.6041
▁23.	-11.6041
▁Balay	-11.6041
▁angongohza	-11.6041
▁aokokoyongo	-11.6041
▁batayʉ	-11.6041
▁bocbochio	-11.6041
▁boeboepono	-11.6041
▁boepa	-11.6041
▁boevovoyo	-11.6041
▁bokeo	-11.6041
▁bʉengʉ	-11.6041
▁bʉkngʉ	-11.6041
▁ceamihoopi	-11.6041
▁choeichio	-11.6041
▁easmoyʉsk	-11.6041
▁eobai	-11.6041
▁eokeokeo	-11.6041
▁etaptak	-11.6041
▁fafahei	-11.6041
▁fainʉsi	-11.6041
▁fofeohva	-11.6041
▁himkaebʉ	-11.6041
▁himnono	-11.6041
▁hocmʉfeʉa	-11.6041
▁honpaosʉ	-11.6041
▁hpxhpxngx	-11.6041
▁ingkina	-11.6041
▁keetʉe	-11.6041
▁loaveica	-11.6041
▁loheacana	-11.6041
▁maanananghia	-11.6041
▁mafkofkoi	-11.6041
▁mafofoengoto	-11.6041
▁maibayʉ	-11.6041
▁mamamei	-11.6041
▁maonpohposo	-11.6041
▁masakici	-11.6041
▁mibako	-11.6041
▁moheoph	-11.6041
▁mpʉtvʉhʉ	-11.6041
▁mʉyʉmcʉ	-11.6041
▁mʉʉlʉlʉ	-11.6041
▁nanaehoehongo	-11.6041
▁noacachiana	-11.6041
▁noapeisoi	-11.6041
▁noepʉngʉ	-11.6041
▁noosohoyo	-11.6041
▁otaseona	-11.6041
▁oʉnpʉnp	-11.6041
▁paikoyongvi	-11.6041
▁panitoko	-11.6041
▁pasoboamangeci	-11.6041
▁pateivha	-11.6041
▁patonkoonʉ	-11.6041
▁patvaveoh	-11.6041
▁peisbabo	-11.6041
▁peothoma	-11.6041
▁phomeo	-11.6041
▁popeoyafa	-11.6041
▁posmoebak	-11.6041
▁pvohc	-11.6041
▁saeiptoko	-11.6041
▁saietongo	-11.6041
▁seʉzʉ	-11.6041
▁singenovo	-11.6041
▁sinyonkha	-11.6041
▁sipaiftonga	-11.6041
▁smafsoso	-11.6041
▁smoaveivei	-11.6041
▁sotpʉsk	-11.6041
▁tasansani	-11.6041
▁teokngʉkng	-11.6041
▁tiatatviei	-11.6041
▁tifkica	-11.6041
▁tihtihskova	-11.6041
▁tmaepʉngʉ	-11.6041
▁tmoengaso	-11.6041
▁tmosangsango	-11.6041
▁tmotaivoyanʉ	-11.6041
▁tmotmasvʉtʉ	-11.6041
▁toaesʉesʉ	-11.6041
▁toalongvi	-11.6041
▁tobkong	-11.6041
▁tonkink	-11.6041
▁toʉsvʉsvʉtneni	-11.6041
▁tvopozoa	-11.6041
▁tvoyohoa	-11.6041
▁yaabobonʉ	-11.6041
▁yabobonʉ	-11.6041
▁yangipia	-11.6041
▁yapasoongʉ	-11.6041
▁yapasoyongʉ	-11.6041
▁yofeongv	-11.6041
▁yoobai	-11.6041
▁yosbok	-11.6041
▁yovehng	-11.6041
▁yʉʉbʉhʉ	-11.6041
▁zensekai	-11.6041
▁不一定要全盤托出	-11.6041
▁不要憂慮說因為我沒錢	-11.6041
▁不要浪費食物	-11.6041
▁不要穿越那坐在一起的長者	-11.6041
▁不要隨便說別人	-11.6041
▁互相擁抱	-11.6041
▁他們把桌子排了	-11.6041
▁他去搬竹筍	-11.6041
▁他否認他	-11.6041
▁他喜歡說一些嚇人的話	-11.6041
▁他喝酒後一直重複他的話	-11.6041
▁他寄少量的豆	-11.6041
▁他常常給菜園澆水	-11.6041
▁他所問的他只	-11.6041
▁他搬竹子搬三次	-11.6041
▁他擔心不能回家	-11.6041
▁他看起來不相信	-11.6041
▁他給菜澆水時沒有澆到水	-11.6041
▁他講對了	-11.6041
▁他跑步超越	-11.6041
▁你們從這裡開始	-11.6041
▁你們把竹子排直	-11.6041
▁你先去茶園我隨後到	-11.6041
▁你就嘗試渡河	-11.6041
▁你想做的事不要猶疑不定	-11.6041
▁你把樹朝下排放著	-11.6041
▁你既然要做事就要實實在在	-11.6041
▁倒下的樹	-11.6041
▁刺刺到我的腳	-11.6041
▁卡蒂烏莎的照片	-11.6041
▁喝酒喝少	-11.6041
▁在庭院擺椅子	-11.6041
▁大夥扛著要當柱子的木頭	-11.6041
▁她也是鄒族人	-11.6041
▁她吃了就走了	-11.6041
▁孩子採很多番石榴	-11.6041
▁對參加祭典漠不關心	-11.6041
▁對鄰居中較	-11.6041
▁小孩在搖動趕鳥器	-11.6041
▁小孩子們一直阻礙我工作	-11.6041
▁我一直都在思念著你	-11.6041
▁我交代的事情她想錯了	-11.6041
▁我以為你年紀比我大	-11.6041
▁我使用小鋤頭挖這些地瓜	-11.6041
▁我們家族有很多	-11.6041
▁我們部落裡的孟宗竹園有很多處	-11.6041
▁我再寄書給我的小孩	-11.6041
▁我在路上壓到狗	-11.6041
▁我坐翻那石頭	-11.6041
▁我很擔心人家以為木頭是我拿的	-11.6041
▁我把他綁不緊的重綁上	-11.6041
▁我把菜往下送	-11.6041
▁我有一台	-11.6041
▁我爸爸的名字是	-11.6041
▁我用背簍	-11.6041
▁我的肝已被酒精浸蝕	-11.6041
▁我的褲子被	-11.6041
▁我給他吃白鼻心他吃得出來	-11.6041
▁我至少要去喪家聊表弔唁	-11.6041
▁我踏在洞裡不動	-11.6041
▁我踩傷你的腳	-11.6041
▁把那狗的包皮退去	-11.6041
▁搶著要	-11.6041
▁椅子在桌子底下	-11.6041
▁水流沖走的樹困陷在石縫中	-11.6041
▁水牛踩	-11.6041
▁水牛踩到梯田邊坡	-11.6041
▁烈酒會喝得比較久一點	-11.6041
▁父親殺死了蛇	-11.6041
▁狐狸中了	-11.6041
▁瓶子裡的東西不要吃過量	-11.6041
▁當我們年	-11.6041
▁盡量不要用黑炭弄污黑自己	-11.6041
▁看得	-11.6041
▁石家向安家提親	-11.6041
▁祝你生日快樂	-11.6041
▁老師今天要帶你們去	-11.6041
▁苦花魚	-11.6041
▁苦花魚和石斑魚混雜在河裡	-11.6041
▁茄苳和雀榕一起生長	-11.6041
▁茶苗已經夠我們種了	-11.6041
▁草已經長滿了水田	-11.6041
▁請問我可以錄	-11.6041
▁請起立	-11.6041
▁讓孩子變換睡之姿以免掉下床	-11.6041
▁豬吃地瓜葉吃得很高興	-11.6041
▁豬猛吃了地瓜葉	-11.6041
▁貓在屋頂上行走	-11.6041
▁這繩子	-11.6041
▁這裡只長杜鵑	-11.6041
▁那小孩捏碎蛋	-11.6041
▁那瓶子不要讓它倒立	-11.6041
▁阻水抓魚的人快速撿魚	-11.6041
▁阿里山主要是屬於鄒族的傳統領域	-11.6041
一個星期有	-11.6041
一封信	-11.6041
一直氣下去	-11.6041
一頂帽子	-11.6041
不曉得是不是住得下	-11.6041
不會腐爛	-11.6041
不需要拐彎抹角	-11.6041
丟得直直的	-11.6041
九穗的小米	-11.6041
也改成了	-11.6041
也是家族成員舉行	-11.6041
了路邊的	-11.6041
事後才	-11.6041
五節芒	-11.6041
人很高興的把他的背袋掛在鹿角上	-11.6041
他們用來騙人的話術	-11.6041
他卻遷怒	-11.6041
他有孩子	-11.6041
他每次	-11.6041
他的兒子們	-11.6041
他終究會生氣了	-11.6041
你們先吃吧	-11.6041
你們再繼續工作	-11.6041
你就到豬舍抓要殺的豬	-11.6041
你所擁有的	-11.6041
你是哪一	-11.6041
你的背蔞	-11.6041
佩	-11.6041
來我家玩	-11.6041
信用卡	-11.6041
俯	-11.6041
們把芋頭	-11.6041
借了不還	-11.6041
做什麼事	-11.6041
做惡夢	-11.6041
偷採我的橘子	-11.6041
傳統女裙	-11.6041
充滿歷史榮耀的語言	-11.6041
再為祖母添一碗飯	-11.6041
凹	-11.6041
切得很大塊	-11.6041
初登會所	-11.6041
初食祭粟禮	-11.6041
到女方家	-11.6041
到遠方	-11.6041
剁	-11.6041
匹	-11.6041
去店鋪	-11.6041
去採茶	-11.6041
去給醫生看	-11.6041
參與政治的權利	-11.6041
受害者	-11.6041
召集	-11.6041
可以計算出	-11.6041
各說各	-11.6041
否則會	-11.6041
吶	-11.6041
吹鼻笛	-11.6041
唱現代歌	-11.6041
唱鄒語歌	-11.6041
喝了一口	-11.6041
喝得出好酒	-11.6041
喧	-11.6041
嘩	-11.6041
嚥	-11.6041
四腳朝天	-11.6041
土地很肥沃	-11.6041
在吃芋頭	-11.6041
在土裡	-11.6041
在山豬路徑	-11.6041
在操場	-11.6041
在晚上出門	-11.6041
在涼亭納涼	-11.6041
在準備甚麼	-11.6041
在耕地工作	-11.6041
在農地的上方	-11.6041
在那裏定居	-11.6041
坍方時河水乾涸	-11.6041
垢	-11.6041
堪	-11.6041
士兵	-11.6041
大家都不想	-11.6041
天色暗了	-11.6041
太陽捕下來	-11.6041
太陽而暖	-11.6041
套頸式	-11.6041
她常常戴帽子	-11.6041
她摸到了	-11.6041
好工具	-11.6041
妝	-11.6041
娘	-11.6041
婿	-11.6041
媳	-11.6041
嫂	-11.6041
孟宗竹	-11.6041
孩子們明天就要	-11.6041
孩子要帶到	-11.6041
寶特瓶	-11.6041
射了四次	-11.6041
射了水鹿	-11.6041
射擊了一次	-11.6041
小米女神	-11.6041
少喝一點	-11.6041
巢	-11.6041
巧	-11.6041
已經很便宜	-11.6041
已經瞄準好他要射的水鹿	-11.6041
席	-11.6041
帶領孩子們去河邊	-11.6041
幫我買一些	-11.6041
弄散了	-11.6041
往前走	-11.6041
很久沒有看到你	-11.6041
很刺眼	-11.6041
很有失落感	-11.6041
很清楚	-11.6041
怯	-11.6041
想吃什麼	-11.6041
想請教	-11.6041
愛霸佔	-11.6041
慈	-11.6041
慮	-11.6041
我們原住民的話	-11.6041
我們部落因為你而變得很乾淨	-11.6041
我會怕蛇	-11.6041
我正好遇見	-11.6041
我的另一半就吃醋了	-11.6041
我的好朋友	-11.6041
房子或工寮	-11.6041
所在的地方	-11.6041
打得太過分了	-11.6041
抄近路	-11.6041
把地瓜切	-11.6041
把石牆沖斷	-11.6041
把錢自己花用	-11.6041
拳	-11.6041
拿一點豆子	-11.6041
按照瓶子的刻度來喝	-11.6041
捏取一小塊米糕	-11.6041
掉到水裡	-11.6041
掉進水裡	-11.6041
搬芋頭	-11.6041
搭高鐵	-11.6041
操	-11.6041
敲	-11.6041
斜眼看	-11.6041
斯	-11.6041
斷竹筍	-11.6041
於是我就乾脆回來了	-11.6041
是作農的	-11.6041
是星期日	-11.6041
是用竹子做	-11.6041
時輕一點	-11.6041
時雙腳跨	-11.6041
智慧	-11.6041
暫	-11.6041
會很快回來	-11.6041
有一點感冒	-11.6041
有帶雨具	-11.6041
有很大的差異	-11.6041
木槲蘭能阻擋邪氣	-11.6041
柔	-11.6041
桌上的灰塵	-11.6041
梯田邊坡	-11.6041
椒	-11.6041
榕	-11.6041
榮	-11.6041
橘子你們分一半	-11.6041
殃	-11.6041
每天都很	-11.6041
民國四十	-11.6041
池塘的水都	-11.6041
沙灘上	-11.6041
泡	-11.6041
洗得很乾淨	-11.6041
淺	-11.6041
渣	-11.6041
渴	-11.6041
湊	-11.6041
漂亮的圖紋	-11.6041
濁水溪	-11.6041
炬	-11.6041
無法動彈	-11.6041
燈	-11.6041
狗追趕山豬	-11.6041
狗關在門外	-11.6041
狠不下心	-11.6041
瓢	-11.6041
生薑沾鹽巴來吃	-11.6041
用力地	-11.6041
用它來	-11.6041
用腳踩住蛇	-11.6041
田邊吃草	-11.6041
男孩和女孩	-11.6041
當柴火燒	-11.6041
疑	-11.6041
疤	-11.6041
痠	-11.6041
發音和語調	-11.6041
百合花	-11.6041
的屁股	-11.6041
的權利	-11.6041
的腳壞掉了	-11.6041
的興趣	-11.6041
的茶園在	-11.6041
的菜園用竹子豎立著	-11.6041
的衣服是白色的	-11.6041
直接採樹豆	-11.6041
省著用	-11.6041
看得很清楚	-11.6041
看起來很可怕	-11.6041
督	-11.6041
砍倒樟樹	-11.6041
確診	-11.6041
社會組成的軸心	-11.6041
祖先的腳蹤	-11.6041
種植芋頭	-11.6041
穿兩件	-11.6041
竊	-11.6041
立柱子	-11.6041
立竹竿	-11.6041
答非所問	-11.6041
算那些在桌上的	-11.6041
篩穀器具	-11.6041
籠	-11.6041
粟	-11.6041
紅寶石	-11.6041
給孩子吃	-11.6041
纍	-11.6041
美鈔	-11.6041
美麗的島嶼	-11.6041
聖粟倉	-11.6041
肝	-11.6041
胃	-11.6041
腫	-11.6041
膀	-11.6041
膚	-11.6041
臀	-11.6041
自我的認同	-11.6041
舒	-11.6041
舔	-11.6041
苦茶樹	-11.6041
茸	-11.6041
菜可以收成了	-11.6041
菸	-11.6041
蒸	-11.6041
蔓	-11.6041
蔭	-11.6041
街	-11.6041
被水帶走	-11.6041
被水沖走了	-11.6041
裙底風光	-11.6041
要尊敬我們的長輩	-11.6041
要提早回去	-11.6041
要種辣椒的地	-11.6041
要給大塊的	-11.6041
要餽贈親友	-11.6041
託	-11.6041
設備	-11.6041
說外語	-11.6041
諸	-11.6041
講習所	-11.6041
謾	-11.6041
警	-11.6041
變換位置	-11.6041
變紅了	-11.6041
讓我進去	-11.6041
豐山村	-11.6041
象	-11.6041
賴	-11.6041
走在我做的	-11.6041
趁	-11.6041
趟	-11.6041
趣	-11.6041
跑出來的雞	-11.6041
距離我們	-11.6041
跟旁邊同學	-11.6041
跳得很高	-11.6041
踏到小蛇	-11.6041
蹤	-11.6041
身體翻轉發亮	-11.6041
辨	-11.6041
這群人	-11.6041
這首歌	-11.6041
進海裡	-11.6041
運動會那天	-11.6041
遍	-11.6041
適合人類居住	-11.6041
邊走邊吃橘子	-11.6041
那小缸的	-11.6041
那頭鹿因為	-11.6041
那首歌	-11.6041
都按讚	-11.6041
錶	-11.6041
鍋子在爐灶內	-11.6041
鍬	-11.6041
鎮	-11.6041
鏡	-11.6041
鑽木取火	-11.6041
開墾要種芋頭的地方	-11.6041
陸	-11.6041
雀	-11.6041
雅	-11.6041
雕	-11.6041
鞭打那隻狗	-11.6041
領受洗禮	-11.6041
願你健康	-11.6041
餌	-11.6041
高又壯	-11.6041
高經濟的農作物	-11.6041
鬚	-11.6041
鬥爭	-11.6041
鴿	-11.6041
鹿射了兩	-11.6041
acngicngi	-11.6041
hisayosi	-11.6041
ngongoheʉnge	-11.6041
tofsʉyʉ	-11.6041
▁bift	-11.6041
▁cʉfea	-11.6041
▁emʉfngʉ	-11.6041
▁eyahahaf	-11.6041
▁kakato	-11.6041
▁katpʉsk	-11.6041
▁paepecngo	-11.6041
▁peemz	-11.6041
▁piepia	-11.6041
▁sayango	-11.6041
▁soanʉthʉ	-11.6041
▁taayaezoihe	-11.6041
▁tapangana	-11.6041
▁tmaayaezoyʉ	-11.6041
▁tmaikokoyongo	-11.6041
▁toeimoha	-11.6041
▁yasiongo	-11.6041
▁yongeov	-11.6041
▁別再耽誤他們要	-11.6041
▁驚訝	-11.6041
你喜歡做什麼	-11.6041
去玩球	-11.6041
已故的	-11.6041
正在洗臉	-11.6041
知道他的名字	-11.6041
誤	-11.6041
Akuanʉ	-11.6041
hisʉngc	-11.6041
omasʉfta	-11.6041
pepecvaza	-11.6041
yoyoskʉ	-11.6041
▁Sakio	-11.6041
▁amiyocni	-11.6041
▁cʉnghʉ	-11.6041
▁losing	-11.6041
▁meehangʉ	-11.6041
▁peiseafi	-11.6041
▁svʉti	-11.6041
▁yaipoko	-11.6041
▁他用守候式	-11.6041
▁傻瓜	-11.6041
▁快進來	-11.6041
▁我們清理	-11.6041
▁走一走	-11.6041
▁那些孩子喜歡玩耍	-11.6041
乾脆回去拿我的	-11.6041
今天是你的生日	-11.6041
他看見一頭	-11.6041
你什麼時候要還	-11.6041
你要給老人的	-11.6041
在切地瓜	-11.6041
在工寮起火	-11.6041
太專注	-11.6041
姑婆芋的葉子	-11.6041
小山豬要畫一	-11.6041
巫術	-11.6041
憶	-11.6041
把甘蔗分成兩段	-11.6041
有力量	-11.6041
有愛心	-11.6041
比賽槌球	-11.6041
狗追山豬	-11.6041
用頭背	-11.6041
看不見	-11.6041
翻過土	-11.6041
脫光衣服	-11.6041
腳上的汙	-11.6041
裝在一個	-11.6041
裡種菜	-11.6041
要參與到底	-11.6041
誇耀他	-11.6041
逗留在	-11.6041
通常都很	-11.6041
那頭牛	-11.6041
鉤子勾到	-11.6041
aafofoo	-11.6041
▁oopci	-11.6041
▁topeap	-11.6041
▁同時也	-11.6041
卡蒂烏莎	-11.6041
▁feezo	-11.6041
▁heesiana	-11.6041
▁htaica	-11.6041
▁poesosv	-11.6041
▁teomeom	-11.6041
▁yohcoy	-11.6041
▁yoifoana	-11.6041
▁他有幾張	-11.6041
▁使喚	-11.6041
▁女人們收割小米	-11.6041
乳房	-11.6041
圍著我	-11.6041
懷孕	-11.6041
設置	-11.6041
ongeʉngeʉ	-11.6041
▁eyʉyʉc	-11.6041
▁himho	-11.6041
▁kokaeka	-11.6041
▁moolʉlʉ	-11.6041
▁smoyafo	-11.6041
▁他們繼續走到了	-11.6041
▁搖動下來的楓果	-11.6041
▁枉費我	-11.6041
▁要是不懶惰	-11.6041
▁要開墾	-11.6041
不停地	-11.6041
不要喝很多	-11.6041
中午過後	-11.6041
二十一	-11.6041
低海拔	-11.6041
們天天來這裡吃晚餐	-11.6041
們正要去學校玩耍	-11.6041
偶爾也會	-11.6041
傳統習俗	-11.6041
優良的傳統文化	-11.6041
動一動	-11.6041
右	-11.6041
吃得飽	-11.6041
啃	-11.6041
噢	-11.6041
團結	-11.6041
在山林裡	-11.6041
在餐廳裡	-11.6041
塞	-11.6041
太遠的地方	-11.6041
她的揹簍在	-11.6041
子司命神	-11.6041
家族的掌門人要先	-11.6041
層	-11.6041
巷	-11.6041
年齡級晉升	-11.6041
廣闊	-11.6041
很紮實	-11.6041
從阿里山來	-11.6041
心裡有數	-11.6041
扛	-11.6041
棕	-11.6041
皇	-11.6041
砸	-11.6041
素	-11.6041
缺	-11.6041
賜	-11.6041
轎	-11.6041
霧	-11.6041
飄	-11.6041
咪	-11.6041
嫩	-11.6041
憂	-11.6041
概	-11.6041
構	-11.6041
液	-11.6041
濾	-11.6041
睦	-11.6041
鱗	-11.6041
省	-11.6041
極	-11.6041
練	-11.6041
勝	-11.6041
奪	-11.6041
扶	-11.6041
淹	-11.6041
漲	-11.6041
盟	-11.6041
莎	-11.6041
擴	-11.6041
池	-11.6041
智	-11.6041
簽	-11.6041
腹	-11.6041
誠	-11.6041
微	-12.2661
庭	-12.3517
冒	-12.382
撐	-12.4017
邦	-12.4306
青	-12.4314
貴	-12.4315
責	-12.433
媒	-12.4341
集	-12.436
杯	-12.4361
擁	-12.4361
房	-12.4361
帽	-12.4361
橘	-12.4362
漢	-12.4364
週	-12.4365
吉	-12.4365
餵	-12.4366
瓜	-12.4367
午	-12.4367
崩	-12.4368
型	-12.4368
牽	-12.4368
顧	-12.4368
奇	-12.4368
興	-12.4368
財	-12.4369
藉	-12.4369
坡	-12.4369
交	-12.4369
秋	-12.4369
柴	-12.437
輩	-12.437
展	-12.4371
診	-12.4371
征	-12.4371
謂	-12.4371
透	-12.4371
置	-12.4371
訪	-12.4371
宿	-12.4372
免	-12.4372
樟	-12.4372
烈	-12.4372
耐	-12.4372
叢	-12.4372
奮	-12.4372
鬧	-12.4372
掩	-12.4372
桶	-12.4372
產	-12.4372
森	-12.4372
典	-12.4373
鷹	-12.4373
例	-12.4373
龜	-12.4373
誕	-12.4373
欺	-12.4373
丈	-12.4373
疾	-12.4373
派	-12.4373
仰	-12.4373
調	-12.4373
虎	-12.4373
享	-12.4373
律	-12.4373
校	-12.4373
減	-12.4373
賽	-12.4373
犯	-12.4373
捆	-12.4373
餅	-12.4373
星	-12.4373
朱	-12.4373
役	-12.4373
仇	-12.4373
儲	-12.4373
克	-12.4373
慘	-12.4373
迅	-12.4373
淨	-12.4373
拜	-12.4373
團	-12.4373
嘲	-12.4373
增	-12.4373
羞	-12.4373
帳	-12.4373
嘗	-12.4373
脈	-12.4373
憐	-12.4373
嬰	-12.4373
域	-12.4373
揮	-12.4373
際	-12.4373
慰	-12.4373
鄰	-12.4373
姻	-12.4374
醬	-12.4374
飼	-12.4374
德	-12.4374
壽	-12.4374
岳	-12.4374
愉	-12.4374
甸	-12.4374
癒	-12.4374
秀	-12.4374
籤	-12.4374
緬	-12.4374
蓮	-12.4374
薰	-12.4374
鄧	-12.4374
充	-12.4374
旋	-12.4374
投	-12.4374
攻	-12.4374
麗	-12.4374
抽	-12.4374
貝	-12.4374
攀	-12.4374
潔	-12.4374
畢	-12.4374
禱	-12.4374
巫	-12.4374
適	-12.4374
兜	-12.4374
控	-12.4374
帥	-12.4374
限	-12.4374
丐	-12.4374
乞	-12.4374
伺	-12.4374
哀	-12.4374
埃	-12.4374
嬉	-12.4374
怨	-12.4374
撂	-12.4374
桿	-12.4374
梭	-12.4374
檔	-12.4374
滌	-12.4374
澗	-12.4374
灑	-12.4374
爪	-12.4374
猥	-12.4374
眉	-12.4374
矛	-12.4374
糧	-12.4374
繁	-12.4374
荒	-12.4374
蓉	-12.4374
蔡	-12.4374
蕎	-12.4374
蕗	-12.4374
蛀	-12.4374
褻	-12.4374
諧	-12.4374
逝	-12.4374
障	-12.4374
颳	-12.4374
騰	-12.4374
孕	-12.4374
益	-12.4374
崖	-12.4374
隱	-12.4374
臥	-12.4374
伏	-12.4374
勵	-12.4374
喂	-12.4374
峭	-12.4374
康	-12.4374
敘	-12.4374
暗	-12.4374
款	-12.4374
歡	-12.4374
泛	-12.4374
泳	-12.4374
潑	-12.4374
猙	-12.4374
獰	-12.4374
綿	-12.4374
胎	-12.4374
荖	-12.4374
衛	-12.4374
闊	-12.4374
陵	-12.4374
喚	-12.4374
J	-12.4374
乖	-12.4374
孽	-12.4374
杓	-12.4374
稼	-12.4374
罪	-12.4374
臼	-12.4374
衪	-12.4374
乳	-12.4374
協	-12.4374
懸	-12.4374
訝	-12.4374
閩	-12.4374
&	-12.4374
ɨ	-12.4374
《	-12.4374
》	-12.4374
乙	-12.4374
予	-12.4374
仙	-12.4374
伐	-12.4374
供	-12.4374
俊	-12.4374
俏	-12.4374
倆	-12.4374
倍	-12.4374
傑	-12.4374
債	-12.4374
凸	-12.4374
剖	-12.4374
劃	-12.4374
劇	-12.4374
劈	-12.4374
匙	-12.4374
占	-12.4374
厚	-12.4374
叭	-12.4374
君	-12.4374
吱	-12.4374
吼	-12.4374
呈	-12.4374
呵	-12.4374
咀	-12.4374
咒	-12.4374
哈	-12.4374
哩	-12.4374
唇	-12.4374
喇	-12.4374
嗜	-12.4374
噁	-12.4374
噎	-12.4374
嚴	-12.4374
囊	-12.4374
固	-12.4374
圃	-12.4374
垂	-12.4374
垣	-12.4374
埔	-12.4374
埸	-12.4374
堂	-12.4374
壺	-12.4374
夷	-12.4374
契	-12.4374
奴	-12.4374
妙	-12.4374
委	-12.4374
姪	-12.4374
孤	-12.4374
封	-12.4374
尤	-12.4374
尿	-12.4374
屁	-12.4374
屠	-12.4374
峻	-12.4374
峽	-12.4374
崇	-12.4374
嶺	-12.4374
巒	-12.4374
州	-12.4374
幕	-12.4374
序	-12.4374
彙	-12.4374
恩	-12.4374
恰	-12.4374
悠	-12.4374
悶	-12.4374
愚	-12.4374
態	-12.4374
憫	-12.4374
憲	-12.4374
扇	-12.4374
扔	-12.4374
扭	-12.4374
扳	-12.4374
抖	-12.4374
拇	-12.4374
拋	-12.4374
拖	-12.4374
拭	-12.4374
拯	-12.4374
拴	-12.4374
挫	-12.4374
振	-12.4374
挿	-12.4374
捶	-12.4374
掐	-12.4374
揀	-12.4374
揪	-12.4374
搔	-12.4374
搜	-12.4374
搞	-12.4374
摺	-12.4374
摻	-12.4374
撕	-12.4374
撤	-12.4374
擤	-12.4374
攙	-12.4374
攪	-12.4374
敏	-12.4374
敞	-12.4374
斜	-12.4374
斧	-12.4374
施	-12.4374
昭	-12.4374
普	-12.4374
景	-12.4374
暇	-12.4374
暈	-12.4374
暑	-12.4374
暢	-12.4374
曉	-12.4374
杖	-12.4374
枕	-12.4374
柑	-12.4374
查	-12.4374
柺	-12.4374
栗	-12.4374
框	-12.4374
桑	-12.4374
梅	-12.4374
梓	-12.4374
梗	-12.4374
梯	-12.4374
梳	-12.4374
棍	-12.4374
棹	-12.4374
楠	-12.4374
榖	-12.4374
榨	-12.4374
槳	-12.4374
檢	-12.4374
櫃	-12.4374
櫸	-12.4374
殊	-12.4374
毫	-12.4374
氓	-12.4374
污	-12.4374
沸	-12.4374
沾	-12.4374
泊	-12.4374
浴	-12.4374
測	-12.4374
湍	-12.4374
溜	-12.4374
滯	-12.4374
滷	-12.4374
漁	-12.4374
漏	-12.4374
漫	-12.4374
漬	-12.4374
濤	-12.4374
濺	-12.4374
炒	-12.4374
炫	-12.4374
焦	-12.4374
煇	-12.4374
煞	-12.4374
熔	-12.4374
燥	-12.4374
燼	-12.4374
燿	-12.4374
爽	-12.4374
犛	-12.4374
犬	-12.4374
狀	-12.4374
珠	-12.4374
瑟	-12.4374
甩	-12.4374
痕	-12.4374
瘧	-12.4374
皂	-12.4374
眷	-12.4374
睏	-12.4374
瞎	-12.4374
瞰	-12.4374
碩	-12.4374
碴	-12.4374
碾	-12.4374
磨	-12.4374
礁	-12.4374
祟	-12.4374
禍	-12.4374
稚	-12.4374
穩	-12.4374
窪	-12.4374
筋	-12.4374
筵	-12.4374
籐	-12.4374
粘	-12.4374
粥	-12.4374
粱	-12.4374
糠	-12.4374
系	-12.4374
糾	-12.4374
紛	-12.4374
縮	-12.4374
繡	-12.4374
繪	-12.4374
纏	-12.4374
罰	-12.4374
翅	-12.4374
翠	-12.4374
耙	-12.4374
肋	-12.4374
胞	-12.4374
胯	-12.4374
脂	-12.4374
脖	-12.4374
腋	-12.4374
腎	-12.4374
腥	-12.4374
腸	-12.4374
腺	-12.4374
膳	-12.4374
膿	-12.4374
舖	-12.4374
航	-12.4374
艘	-12.4374
芝	-12.4374
菇	-12.4374
菊	-12.4374
萌	-12.4374
葱	-12.4374
蒜	-12.4374
蒼	-12.4374
蔴	-12.4374
蕃	-12.4374
蕊	-12.4374
蕨	-12.4374
蕩	-12.4374
薏	-12.4374
藷	-12.4374
虐	-12.4374
蚓	-12.4374
蚤	-12.4374
蚯	-12.4374
蝨	-12.4374
蝸	-12.4374
螢	-12.4374
蟬	-12.4374
蠅	-12.4374
蠢	-12.4374
衰	-12.4374
衷	-12.4374
裁	-12.4374
裳	-12.4374
覽	-12.4374
註	-12.4374
詛	-12.4374
詞	-12.4374
詳	-12.4374
誌	-12.4374
誓	-12.4374
誨	-12.4374
説	-12.4374
謗	-12.4374
豚	-12.4374
賒	-12.4374
賦	-12.4374
贅	-12.4374
赤	-12.4374
赴	-12.4374
趴	-12.4374
跛	-12.4374
踱	-12.4374
蹄	-12.4374
蹈	-12.4374
蹲	-12.4374
軀	-12.4374
迴	-12.4374
違	-12.4374
遞	-12.4374
遣	-12.4374
遼	-12.4374
邏	-12.4374
酋	-12.4374
酬	-12.4374
醃	-12.4374
釘	-12.4374
鈍	-12.4374
鈎	-12.4374
鋒	-12.4374
錐	-12.4374
鎚	-12.4374
鏟	-12.4374
鑲	-12.4374
鑽	-12.4374
闖	-12.4374
陡	-12.4374
陰	-12.4374
隧	-12.4374
隸	-12.4374
雇	-12.4374
雌	-12.4374
霜	-12.4374
鞦	-12.4374
韆	-12.4374
頌	-12.4374
頰	-12.4374
頸	-12.4374
顎	-12.4374
駛	-12.4374
騷	-12.4374
驟	-12.4374
魯	-12.4374
鴞	-12.4374
麥	-12.4374
黏	-12.4374
紫	-12.4374
貧	-12.4374
卸	-12.4374
岔	-12.4374
廚	-12.4374
晒	-12.4374
淋	-12.4374
湧	-12.4374
耗	-12.4374
蚣	-12.4374
蜈	-12.4374
慧	-12.4374
股	-12.4374
凡	-12.4374
剉	-12.4374
咻	-12.4374
哎	-12.4374
唉	-12.4374
嘔	-12.4374
塵	-12.4374
奠	-12.4374
干	-12.4374
弗	-12.4374
忠	-12.4374
懇	-12.4374
柄	-12.4374
桐	-12.4374
漆	-12.4374
焚	-12.4374
砂	-12.4374
禽	-12.4374
競	-12.4374
絮	-12.4374
蓆	-12.4374
蘊	-12.4374
虧	-12.4374
饋	-12.4374
髓	-12.4374
鰍	-12.4374
募	-12.4374
卑	-12.4374
吝	-12.4374
啼	-12.4374
嗣	-12.4374
囚	-12.4374
峰	-12.4374
抹	-12.4374
核	-12.4374
楊	-12.4374
氾	-12.4374
波	-12.4374
澎	-12.4374
濫	-12.4374
爆	-12.4374
珊	-12.4374
瑚	-12.4374
畚	-12.4374
癬	-12.4374
皆	-12.4374
碌	-12.4374
箕	-12.4374
膜	-12.4374
薦	-12.4374
藝	-12.4374
蠻	-12.4374
袍	-12.4374
逢	-12.4374
邁	-12.4374
威	-12.4374
乃	-12.4374
倡	-12.4374
屍	-12.4374
岬	-12.4374
恐	-12.4374
挪	-12.4374
捐	-12.4374
損	-12.4374
撇	-12.4374
昆	-12.4374
氧	-12.4374
煤	-12.4374
犒	-12.4374
碳	-12.4374
礦	-12.4374
脅	-12.4374
莉	-12.4374
融	-12.4374
諾	-12.4374
豔	-12.4374
質	-12.4374
距	-12.4374
軌	-12.4374
辜	-12.4374
防	-12.4374
頒	-12.4375
戲	-12.4375
悲	-12.4375
援	-12.4375
荽	-12.4375
鷴	-12.4375
旗	-12.4375
鵝	-13.3163
鴨	-13.3164
鰻	-13.3165
鯨	-13.3166
魄	-13.3167
餽	-13.3168
餚	-13.3169
飢	-13.317
鞘	-13.3171
霸	-13.3172
霉	-13.3173
階	-13.3174
陳	-13.3175
鍊	-13.3176
醜	-13.3177
醋	-13.3178
遙	-13.3179
輛	-13.318
軸	-13.3181
躍	-13.3182
貿	-13.3183
譏	-13.3184
證	-13.3185
諷	-13.3186
諱	-13.3187
誘	-13.3188
詹	-13.3189
襲	-13.319
補	-13.3191
裕	-13.3192
蜘	-13.3193
蛛	-13.3194
薩	-13.3195
蔬	-13.3196
蔞	-13.3197
萎	-13.3198
華	-13.3199
莓	-13.32
荷	-13.3201
茲	-13.3202
苳	-13.3203
芭	-13.3204
聆	-13.3205
耽	-13.3206
缸	-13.3207
績	-13.3208
紹	-13.3209
納	-13.321
糞	-13.3211
粽	-13.3212
簿	-13.3213
笠	-13.3214
笆	-13.3215
礙	-13.3216
碼	-13.3217
矢	-13.3218
瞧	-13.3219
眺	-13.322
盼	-13.3221
瘟	-13.3222
痺	-13.3223
疲	-13.3224
瑪	-13.3225
猶	-13.3226
猛	-13.3227
犧	-13.3228
牲	-13.3229
牧	-13.323
牢	-13.3231
營	-13.3232
熄	-13.3233
烹	-13.3234
澈	-13.3235
潮	-13.3236
潛	-13.3237
溝	-13.3238
湖	-13.3239
渦	-13.324
泣	-13.3241
汲	-13.3242
汙	-13.3243
槌	-13.3244
棟	-13.3245
柿	-13.3246
枉	-13.3247
晨	-13.3248
昂	-13.3249
斑	-13.325
授	-13.3251
掀	-13.3252
捻	-13.3253
捨	-13.3254
抄	-13.3255
扯	-13.3256
憤	-13.3257
慾	-13.3258
惱	-13.3259
恢	-13.326
忽	-13.3261
徒	-13.3262
弔	-13.3263
寒	-13.3264
孵	-13.3265
娜	-13.3266
娛	-13.3267
姿	-13.3268
姆	-13.3269
妥	-13.327
妖	-13.3271
奔	-13.3272
夥	-13.3273
執	-13.3274
坪	-13.3275
坍	-13.3276
嚨	-13.3277
嚐	-13.3278
喉	-13.3279
唁	-13.328
吳	-13.3281
含	-13.3282
劍	-13.3283
刑	-13.3284
儘	-13.3285
伙	-13.3286
q	-13.3287
H	-13.3288
%	-13.3289
默	-13.329
鵑	-13.3291
鳳	-13.3292
鯝	-13.3293
駁	-13.3294
顯	-13.3295
震	-13.3296
銳	-13.3297
銀	-13.3298
鄭	-13.3299
賭	-13.33
貌	-13.3301
詢	-13.3302
蟻	-13.3303
螞	-13.3304
蝠	-13.3305
蝙	-13.3306
蚊	-13.3307
蘿	-13.3308
薯	-13.3309
薑	-13.331
蔔	-13.3311
舌	-13.3312
羽	-13.3313
纖	-13.3314
綽	-13.3315
築	-13.3316
筌	-13.3317
穴	-13.3318
研	-13.3319
瞬	-13.332
瞌	-13.3321
狸	-13.3322
狐	-13.3323
灘	-13.3324
涸	-13.3325
涕	-13.3326
櫻	-13.3327
槲	-13.3328
桂	-13.3329
晉	-13.333
攜	-13.3331
摑	-13.3332
握	-13.3333
掘	-13.3334
捷	-13.3335
拼	-13.3336
括	-13.3337
悔	-13.3338
悉	-13.3339
恆	-13.334
廠	-13.3341
川	-13.3342
央	-13.3343
壤	-13.3344
塌	-13.3345
坦	-13.3346
嚏	-13.3347
嚀	-13.3348
噴	-13.3349
吞	-13.335
叮	-13.3351
勾	-13.3352
允	-13.3353
仗	-13.3354
井	-13.3355
丁	-13.3356
E	-13.3357
龍	-13.3358
鷲	-13.3359
鵲	-13.336
鴉	-13.3361
鞭	-13.3362
雉	-13.3363
雄	-13.3364
陌	-13.3365
鐮	-13.3366
豎	-13.3367
謹	-13.3368
詐	-13.3369
蝕	-13.337
蚌	-13.3371
蒂	-13.3372
葛	-13.3373
莫	-13.3374
般	-13.3375
聰	-13.3376
級	-13.3377
紋	-13.3378
穗	-13.3379
穌	-13.338
璃	-13.3381
瑞	-13.3382
玻	-13.3383
灶	-13.3384
瀑	-13.3385
濟	-13.3386
濁	-13.3387
澳	-13.3388
演	-13.3389
滴	-13.339
洲	-13.3391
沿	-13.3392
殖	-13.3393
檜	-13.3394
模	-13.3395
昌	-13.3396
擇	-13.3397
拒	-13.3398
拐	-13.3399
慎	-13.34
惑	-13.3401
悅	-13.3402
徙	-13.3403
徑	-13.3404
宰	-13.3405
孟	-13.3406
嘍	-13.3407
啪	-13.3408
咱	-13.3409
叩	-13.341
刮	-13.3411
准	-13.3412
佳	-13.3413
佛	-13.3414
似	-13.3415
亭	-13.3416
串	-13.3417
丘	-13.3418
齡	-13.3419
齒	-13.342
齊	-13.3421
鷺	-13.3422
鷥	-13.3423
須	-13.3424
遲	-13.3425
譯	-13.3426
蜢	-13.3427
蜓	-13.3428
蚱	-13.3429
苧	-13.343
耆	-13.3431
羨	-13.3432
糯	-13.3433
簧	-13.3434
漠	-13.3435
泰	-13.3436
沃	-13.3437
永	-13.3438
欣	-13.3439
桃	-13.344
松	-13.3441
拾	-13.3442
慶	-13.3443
慕	-13.3444
廁	-13.3445
啡	-13.3446
唯	-13.3447
咖	-13.3448
危	-13.3449
凱	-13.345
凝	-13.3451
冰	-13.3452
驕	-13.3453
露	-13.3454
鉛	-13.3455
酵	-13.3456
迷	-13.3457
跨	-13.3458
誡	-13.3459
覆	-13.346
裙	-13.3461
蔗	-13.3462
葵	-13.3463
膠	-13.3464
紮	-13.3465
究	-13.3466
瞭	-13.3467
瞄	-13.3468
盡	-13.3469
淚	-13.347
涉	-13.3471
泉	-13.3472
況	-13.3473
彼	-13.3474
婆	-13.3475
塔	-13.3476
塑	-13.3477
厭	-13.3478
勉	-13.3479
傲	-13.348
俗	-13.3481
B	-13.3482
醉	-13.3483
郎	-13.3484
蘇	-13.3485
薪	-13.3486
茅	-13.3487
糖	-13.3488
筷	-13.3489
秧	-13.349
琴	-13.3491
漸	-13.3492
添	-13.3493
披	-13.3494
宜	-13.3495
堵	-13.3496
厲	-13.3497
傍	-13.3498
係	-13.3499
令	-13.35
+	-13.3501
遵	-13.3502
複	-13.3503
蝶	-13.3504
蝴	-13.3505
腿	-13.3506
示	-13.3507
略	-13.3508
珍	-13.3509
榴	-13.351
柬	-13.3511
春	-13.3512
戚	-13.3513
寨	-13.3514
史	-13.3515
冠	-13.3516
鹹	-13.3517
闆	-13.3518
購	-13.3519
蘋	-13.352
耕	-13.3521
紀	-13.3522
竿	-13.3523
環	-13.3524
澆	-13.3525
檳	-13.3526
榔	-13.3527
枯	-13.3528
杉	-13.3529
廳	-13.353
嶼	-13.3531
北	-13.3532
偶	-13.3533
伯	-13.3534
附	-13.3535
蟹	-13.3536
螃	-13.3537
洪	-13.3538
毒	-13.3539
墾	-13.354
冬	-13.3541
F	-13.3542
虹	-13.3543
膝	-13.3544
穫	-13.3545
托	-13.3546
庫	-13.3547
司	-13.3548
勤	-13.3549
兔	-13.355
仔	-13.3551
j	-13.3552
超	-13.3553
紙	-13.3554
範	-13.3555
祀	-13.3556
惰	-13.3557
嬸	-13.3558
啄	-13.3559
價	-13.356
俄	-13.3561
陀	-13.3562
舍	-13.3563
嘉	-13.3564
鼻	-13.3565
辛	-13.3566
資	-13.3567
百	-13.3568
燕	-13.3569
橡	-13.357
夏	-13.3571
跌	-13.3572
課	-13.3573
舅	-13.3574
狩	-13.3575
源	-13.3576
柱	-13.3577
颱	-13.3578
顏	-13.3579
螺	-13.358
楚	-13.3581
李	-13.3582
座	-13.3583
察	-13.3584
羌	-13.3585
竟	-13.3586
垃	-13.3587
圾	-13.3588
雖	-13.3589
耍	-13.359
幣	-13.3591
運	-13.3592
蟑	-13.3593
螂	-13.3594
義	-13.3595
慣	-13.3596
巨	-13.3597
專	-13.3598
努	-13.3599
希	-13.36
忌	-13.3601
繼	-13.3602
突	-13.3603
市	-13.3604
筍	-13.3605
塘	-13.3606
蘭	-13.3607
椅	-13.3608
蕉	-13.3609
兄	-13.361
植	-13.3611
阱	-13.3612
朵	-13.3613
睛	-13.3614
忘	-13.3615
芋	-13.3616
灣	-13.3617
府	-13.3618
里	-13.3619
猴	-13.362
甚	-13.3621
昨	-13.3622
政	-13.3623
謝	-13.3624
叔	-13.3625
林	-13.3626
儀	-13.3627
哥	-13.3628
V	-13.3629
爺	-13.363
己	-13.3631
弟	-13.3632
朋	-13.3633
友	-13.3634
P	-13.3635
什	-13.3636
爸	-13.3637
麼	-13.3638
孩	-13.3639
b	-13.364
