<pad>	0
<unk>	0
<s>	0
</s>	0
<2xsy>	0
<2zh>	0
▁	-1.9117
'	-2.22571
:	-3.41452
,	-3.61411
▁'	-3.63382
.	-3.71007
。	-3.73883
▁ka	-3.88085
an	-4.38991
▁ila	-4.67707
?	-4.74662
a	-4.76514
i	-4.8451
o	-4.87008
▁ma	-4.95082
!	-5.02637
en	-5.11857
am	-5.12156
▁ray	-5.19683
的	-5.23806
了	-5.56776
▁So	-5.60767
▁hini	-5.63173
ima	-5.64318
▁noka	-5.77719
in	-5.96435
▁siya	-6.00194
▁yako	-6.00357
▁kayzaeh	-6.0133
iyaeh	-6.04432
ae	-6.08812
▁mae	-6.14055
▁hayza	-6.15479
ay	-6.16166
e	-6.18136
▁ra	-6.21471
▁hiza	-6.27325
oe	-6.27341
▁hi	-6.28084
aehae	-6.289
▁ki	-6.28928
▁kin	-6.34291
▁rima	-6.34544
是	-6.36445
我	-6.36656
在	-6.3745
izi	-6.38993
▁korkoring	-6.39129
▁ay	-6.39685
▁Sa	-6.40656
▁"	-6.41
okay	-6.41678
嗎	-6.43114
at	-6.51365
▁pa	-6.51487
oya	-6.52116
oka	-6.54054
說	-6.5502
▁niSo	-6.56418
▁ta	-6.57608
▁ni	-6.58749
▁你	-6.6305
有	-6.65283
要	-6.67611
isa	-6.70033
ila	-6.71509
ra	-6.72069
ka	-6.7311
okik	-6.73268
▁kita	-6.73462
被	-6.78623
taew	-6.79355
他	-6.80475
▁我	-6.80859
、	-6.81114
去	-6.84693
不	-6.85791
你	-6.87167
on	-6.91011
▁Si	-6.91642
ael	-6.91664
人	-6.91686
la	-6.93153
▁min	-6.96438
▁ba	-6.99157
沒有	-7.00981
▁yaba	-7.01444
會	-7.0201
:「	-7.02929
▁wa	-7.03369
▁ya	-7.04822
和	-7.04838
子	-7.05005
ma	-7.06208
▁koSa	-7.07009
到	-7.07421
ita	-7.07787
oemaeh	-7.08668
▁yami	-7.11115
▁nak	-7.13001
來	-7.13438
iw	-7.16632
ol	-7.16695
▁koko	-7.16734
▁lasiya	-7.17669
▁mam	-7.18074
▁si	-7.19094
▁komSa	-7.19162
▁kapa	-7.19273
▁nisiya	-7.19893
就	-7.20249
aewhay	-7.21193
aeh	-7.22381
▁kayba	-7.23999
▁他	-7.2427
▁tatini	-7.24771
用	-7.2581
▁pak	-7.26149
▁sa	-7.26606
aehoe	-7.27812
ino	-7.28097
ataw	-7.29447
▁mowa	-7.29461
▁saboeh	-7.29586
aw	-7.2996
▁kano	-7.30622
我們	-7.31137
aelen	-7.3138
il	-7.31825
▁Sin	-7.33998
▁naehan	-7.34341
al	-7.351
akoey	-7.35519
不要	-7.36698
;	-7.37918
▁kama	-7.38093
▁komoSa	-7.3811
上	-7.38706
▁kakhayza	-7.38929
▁hahila	-7.40224
▁minkoringan	-7.40498
他們	-7.40637
▁nanaw	-7.40899
om	-7.41148
▁tomal	-7.42313
▁rayhil	-7.42326
azem	-7.42897
▁pina	-7.43048
▁komit	-7.43436
aew	-7.44128
▁SaySiyat	-7.44183
水	-7.44401
▁kaehoy	-7.4462
她	-7.44661
▁mari	-7.44661
▁ha	-7.45262
。」	-7.455
很	-7.46427
把	-7.47276
ampowa	-7.47765
好	-7.48228
都	-7.4838
大	-7.48748
▁lobih	-7.49246
也	-7.50446
roSa	-7.51968
▁Say	-7.53172
一	-7.54045
iS	-7.54364
▁nonak	-7.54739
ih	-7.5598
▁hiya	-7.56354
▁這個	-7.5684
吃	-7.57325
▁hin	-7.58591
mowa	-7.5933
著	-7.59697
yaka	-7.59715
▁bak	-7.59872
akoy	-7.61336
▁ralom	-7.61993
▁kina	-7.62318
wa	-7.62351
▁ti	-7.62703
obay	-7.62707
ong	-7.62789
asang	-7.62943
對	-7.63107
az	-7.64993
看	-7.65317
▁hayno	-7.66535
▁nom	-7.6741
叫	-7.68638
▁to	-7.69391
hae	-7.70634
iyakin	-7.71432
zo	-7.71516
tol	-7.73472
ki	-7.7368
sa	-7.73937
oeh	-7.74249
▁minowa	-7.74988
to	-7.76396
is	-7.76878
nra	-7.77597
hoero	-7.78105
可以	-7.78152
▁bo	-7.78984
小孩	-7.79048
kaysa	-7.79658
▁somi	-7.79805
時	-7.80318
▁rini	-7.80482
▁matawaw	-7.81302
ihi	-7.81786
▁我們	-7.81939
喔	-7.82253
ina	-7.82807
裡	-7.83171
過	-7.8369
▁kalih	-7.84046
種	-7.84649
很多	-7.84676
給	-7.84943
bazae	-7.84952
h	-7.85028
▁kawaS	-7.85192
atini	-7.85298
▁tata	-7.85567
▁S	-7.85593
ta	-7.85619
iSka	-7.85655
下	-7.85658
ini	-7.85772
."	-7.86359
ang	-7.86631
tatimae	-7.87127
小	-7.87756
▁pazay	-7.89106
So	-7.89192
▁kamaman	-7.89365
▁takem	-7.89586
k	-7.89762
▁不要	-7.90001
▁tomalan	-7.90085
ibabaw	-7.9012
isahini	-7.90164
▁mina	-7.90234
工作	-7.90262
讓	-7.90341
什麼	-7.90703
nga	-7.90721
iya	-7.90977
▁kak	-7.91225
頭	-7.91605
樹	-7.9164
天	-7.91795
el	-7.92353
做	-7.92811
Si	-7.9304
ana	-7.93222
▁moyo	-7.93412
▁kas	-7.93522
一個	-7.94668
地	-7.95206
山	-7.95416
的地方	-7.95547
alay	-7.95833
ekla	-7.96085
iSo	-7.97537
衣服	-7.99307
rem	-7.99332
walo	-7.994
▁kayni	-7.99787
▁babaw	-8.00929
青蛙	-8.01248
alo	-8.02064
▁tinal	-8.021
▁kasi	-8.02119
拿	-8.02397
狗	-8.02915
在哪裡	-8.02997
oes	-8.03101
菜	-8.03329
oSa	-8.03354
ha	-8.04089
aelaw	-8.04711
oeso	-8.05149
打	-8.06607
ng	-8.07201
走	-8.07229
▁我的	-8.07447
還	-8.07852
▁這	-8.08037
帶	-8.08247
▁boway	-8.08883
跟	-8.09073
看到	-8.09195
長	-8.09505
▁no	-8.10112
▁kala	-8.10124
放	-8.10298
▁k	-8.11363
itol	-8.11581
kita	-8.11826
後	-8.12162
孩子	-8.12637
▁sowiti	-8.13011
▁kamatortoro	-8.13031
ko	-8.13345
而	-8.14284
花	-8.1456
▁kaspengan	-8.14702
?」	-8.14797
▁rae	-8.15283
!」	-8.15994
從	-8.16122
的人	-8.16645
▁hingha	-8.16808
呢	-8.16946
得	-8.17321
自己	-8.17738
ez	-8.17933
eng	-8.18055
▁rengreng	-8.18293
abo	-8.18297
年	-8.18468
家	-8.18798
所	-8.19226
▁kiS	-8.19338
w	-8.19953
這	-8.1998
n	-8.20554
吧	-8.20914
中	-8.20996
魚	-8.21407
awan	-8.22
高	-8.2201
atan	-8.22267
▁howaw	-8.22451
▁maraS	-8.22456
wan	-8.22566
bato	-8.22589
▁這是	-8.22599
現在	-8.23005
▁sin	-8.23865
部落	-8.24288
再	-8.24922
又	-8.25286
▁haeba	-8.25314
oemaw	-8.25353
im	-8.25549
手	-8.25776
先	-8.25932
▁bae	-8.26548
▁kaS	-8.26685
▁pongaeh	-8.26782
piza	-8.2679
一直	-8.27375
▁m	-8.27482
▁minayt	-8.27809
▁「	-8.27891
pe	-8.28056
aS	-8.28209
起來	-8.28247
如果	-8.28469
為	-8.28562
▁mit	-8.28578
▁tom	-8.2882
Sa	-8.28896
amoeh	-8.29313
▁waliSan	-8.29828
aroma	-8.29837
▁bi	-8.30123
錢	-8.30155
出	-8.30193
你們	-8.30219
onhael	-8.30299
▁他們	-8.30302
不會	-8.30573
r	-8.30653
insa	-8.30909
▁Sipa	-8.30909
▁haba	-8.31221
aehael	-8.31536
▁raro	-8.31671
想	-8.32213
的時候	-8.32471
▁nasiya	-8.32873
y	-8.32924
開	-8.33063
▁wasal	-8.33174
已經	-8.33747
▁那個	-8.33898
將	-8.34116
▁tabin	-8.34445
▁Sil	-8.34516
非常	-8.34939
!"	-8.34984
多	-8.35121
▁bin	-8.35534
起	-8.35731
大家	-8.3592
p	-8.35944
請	-8.35995
away	-8.36139
▁may	-8.36149
「	-8.36485
看起來	-8.36601
我的	-8.36701
就會	-8.36877
iyae	-8.36983
有很多	-8.37016
/	-8.37684
▁那	-8.3773
一起	-8.3884
我要	-8.40114
izo	-8.40347
那	-8.40542
與	-8.41031
oehaez	-8.41033
一點	-8.42512
▁haSa	-8.4282
▁你的	-8.43267
買	-8.43687
這個	-8.4378
aewpir	-8.44495
▁koza	-8.44507
es	-8.44806
hi	-8.44898
t	-8.45003
穿	-8.46177
草	-8.46193
omoral	-8.46312
但是	-8.46397
s	-8.46471
米	-8.47286
沒	-8.47566
▁baba	-8.481
ray	-8.48254
▁paza	-8.48845
isan	-8.49193
快	-8.495
知道	-8.49744
▁kaka	-8.49752
飯	-8.49754
▁haysani	-8.49927
因為	-8.5003
▁ho	-8.50492
煮	-8.50959
▁niya	-8.50988
iniman	-8.5192
nmana	-8.52258
yako	-8.52429
l	-8.52668
▁katin	-8.52672
"	-8.52675
hiya	-8.52955
eh	-8.53385
雞	-8.53668
▁rim	-8.53716
▁somingozaw	-8.53721
東西	-8.54068
rahoe	-8.54375
as	-8.54424
正在	-8.54895
pa	-8.55313
waS	-8.55637
ya	-8.56528
mo	-8.56644
lo	-8.56778
ar	-8.56799
不好	-8.57103
onhaelan	-8.57287
問	-8.57654
啊	-8.57679
賽夏族	-8.57722
alak	-8.58662
▁nakhini	-8.59349
這樣	-8.59676
oz	-8.59707
怎麼	-8.59744
▁mwa	-8.5976
奶奶	-8.59974
pae	-8.59983
yoS	-8.60075
papa	-8.60211
ok	-8.60934
這裡	-8.61366
▁Siyae	-8.61628
心	-8.61645
▁biSbiS	-8.61763
喜歡	-8.61784
si	-8.61978
ilaS	-8.62097
pi	-8.62125
那個	-8.62134
▁kakrang	-8.6214
成	-8.62751
住	-8.62922
木	-8.63641
一樣	-8.63782
▁pin	-8.63809
山豬	-8.63833
名	-8.63876
▁rowaSek	-8.63879
▁masay	-8.63943
inowan	-8.64038
▁hae	-8.64058
▁hahi	-8.64069
▁kal	-8.64476
▁tatpo	-8.64525
inay	-8.64672
▁paskayzaeh	-8.65278
▁tal	-8.6585
以	-8.65866
等	-8.65988
▁minay	-8.66033
▁kabina	-8.66042
▁haysiya	-8.66042
api	-8.66446
ayam	-8.66751
像	-8.66769
▁pat	-8.66918
▁kabih	-8.66971
▁kom	-8.67021
ro	-8.68136
當	-8.682
▁kabkabaeha	-8.68252
▁saeboeh	-8.68252
石頭	-8.68315
so	-8.68403
inaSkan	-8.68449
S	-8.68976
老師	-8.68991
這是	-8.69006
酒	-8.69061
以後	-8.69111
toe	-8.69153
▁potngor	-8.70512
▁basang	-8.70512
▁sizaeh	-8.70513
oeloeh	-8.7054
siya	-8.70858
ingo	-8.70897
」	-8.71134
生	-8.71158
▁sopaloy	-8.71207
飛	-8.71282
rara	-8.71438
▁我要	-8.71557
▁小孩	-8.71611
▁paSt	-8.71621
▁tani	-8.72314
anoka	-8.72326
▁kapapama	-8.72418
▁kil	-8.72704
為什麼	-8.72707
hoe	-8.72761
向	-8.72804
給我	-8.7281
▁rikrika	-8.72824
▁tomnon	-8.72824
os	-8.729
▁talka	-8.72957
olae	-8.72993
回	-8.7325
回來	-8.73557
▁kamo	-8.73606
iniya	-8.73609
▁para	-8.73724
太	-8.74471
ata	-8.74638
乾	-8.74785
▁以前	-8.74851
教	-8.74967
ayaeh	-8.75053
aza	-8.75076
貓頭鷹	-8.75085
倒	-8.75177
▁isaa	-8.75431
▁kakiS	-8.75616
amoy	-8.75622
都是	-8.76196
來了	-8.76514
▁papa	-8.76975
學	-8.77431
以前	-8.77497
elan	-8.77538
外	-8.77568
epe	-8.77576
omalep	-8.77652
▁por	-8.78032
織布	-8.78255
▁tikot	-8.78388
▁她	-8.79158
的衣服	-8.79227
hila	-8.79645
火	-8.80055
牛	-8.80087
▁latar	-8.801
aro	-8.80243
papama	-8.81212
▁paka	-8.81416
▁tinawbon	-8.81745
▁hom	-8.81792
喝	-8.82002
個	-8.82449
inaro	-8.826
▁sob	-8.82648
老	-8.82677
不是	-8.82748
好了	-8.8302
rae	-8.83163
aki	-8.83642
腳	-8.84203
▁那是	-8.8436
▁這些	-8.84708
路	-8.84726
人們	-8.84793
女	-8.84938
iy	-8.85103
作	-8.85195
水果	-8.85263
走路	-8.85293
生活	-8.85392
▁lasia	-8.86026
▁kizaw	-8.86158
or	-8.8642
到了	-8.86457
聽	-8.86664
za	-8.868
em	-8.87196
▁kam	-8.8724
今天	-8.87649
使	-8.87785
日	-8.87854
zaw	-8.87862
祭	-8.87896
太陽	-8.87934
▁nimon	-8.87947
▁malnoSaySiyat	-8.87954
▁na	-8.89079
回家	-8.89359
兩個	-8.89502
門	-8.89795
powa	-8.89804
在這裡	-8.89964
▁biya	-8.90154
▁honaehnge	-8.90209
ayna	-8.90294
▁mama	-8.90493
te	-8.90516
抓	-8.90581
oral	-8.90601
蛋	-8.90683
色	-8.90688
alikaeh	-8.90705
oesizo	-8.90759
ngi	-8.91143
出來	-8.91218
▁ri	-8.9128
eS	-8.91524
別人	-8.91628
▁koma	-8.91765
▁tin	-8.91869
們	-8.91912
hini	-8.92136
▁manabih	-8.92165
玩	-8.92293
▁raromaeh	-8.92538
▁Sina	-8.92814
學校	-8.93106
哥哥	-8.93134
之	-8.93301
ho	-8.93453
▁pinob	-8.93493
風	-8.93537
▁tapaS	-8.9372
▁pon	-8.93894
▁tawm	-8.93961
iyo	-8.94232
是誰	-8.94264
▁sem	-8.94564
iban	-8.94692
睡覺	-8.9482
▁langi	-8.9525
hael	-8.95277
kay	-8.95304
aSkan	-8.95569
動	-8.95918
幫	-8.96027
Siyae	-8.96042
於	-8.96274
口	-8.96374
坐	-8.964
賽夏人	-8.96461
房子	-8.96477
唱歌	-8.96594
▁kapatawawen	-8.96603
這些	-8.96658
lapa	-8.96787
等一下	-8.96908
朋友	-8.97614
這麼	-8.97694
▁hosong	-8.97885
▁tiwaS	-8.98006
事	-8.9831
開始	-8.98425
只有	-8.98691
panae	-8.98982
▁mali	-8.99047
行	-8.99299
處	-8.99362
送	-8.99381
鹿	-8.994
十	-8.99424
香蕉	-8.9943
照顧	-8.9945
準備	-8.99454
▁lolongan	-8.9947
▁tatilhaehael	-8.9947
▁taywan	-8.99485
▁hisiya	-8.99735
掉	-8.99794
iyakina	-9.00141
aen	-9.00183
▁so	-9.00258
那是	-9.00656
er	-9.00728
掉了	-9.0081
地瓜	-9.01736
▁SaSo	-9.01959
iyok	-9.02
拉	-9.02193
▁haw	-9.02217
但	-9.02224
▁kawkel	-9.02233
不知道	-9.02252
一下	-9.02328
力	-9.0246
海	-9.02506
白	-9.02507
神	-9.02569
牠	-9.0257
甚麼	-9.02571
東河	-9.02572
▁makakreng	-9.02635
▁rayno	-9.02916
妳	-9.03143
inoka	-9.03165
▁rareme	-9.03535
的話	-9.03636
常常	-9.04833
▁你們	-9.0504
能	-9.05272
▁ko	-9.05274
若	-9.05342
蜂	-9.05767
▁baboy	-9.05771
▁halapaw	-9.05771
▁palono	-9.05772
晚上	-9.05812
owa	-9.05869
過去	-9.06131
三	-9.06603
拿來	-9.06784
重	-9.07144
想要	-9.07172
▁pay	-9.07255
oy	-9.07306
▁如果	-9.07319
rim	-9.07436
死	-9.07691
kalih	-9.07709
hiba	-9.07751
▁pinatiyay	-9.07806
et	-9.07811
tiS	-9.08111
▁maya	-9.08377
▁masa	-9.08766
oma	-9.08805
進	-9.08835
可	-9.08868
洗	-9.0895
▁hopay	-9.09077
幫忙	-9.09079
老人家	-9.09095
▁mayhael	-9.09131
竹子	-9.09135
▁nisia	-9.09143
▁kamakiS	-9.09149
點	-9.09181
不能	-9.09298
▁minSa	-9.09347
▁kan	-9.09368
?"	-9.09571
ti	-9.09588
anhil	-9.09891
他的	-9.09933
分	-9.10166
哪裡	-9.11517
hayza	-9.11588
kizaw	-9.11624
inal	-9.11636
別	-9.11876
意	-9.12084
名字	-9.12133
▁kaeh	-9.12245
背	-9.123
月	-9.12456
砍	-9.12473
祖母	-9.12474
寫	-9.12477
▁bekeS	-9.12496
lala	-9.12547
女人	-9.12584
▁honha	-9.12754
isaza	-9.12852
▁他的	-9.132
很好	-9.13229
inSo	-9.13249
tae	-9.13265
▁watan	-9.13701
oem	-9.13794
▁po	-9.13889
找	-9.13904
才	-9.13957
親	-9.14069
誰	-9.14192
way	-9.14356
族人	-9.14399
▁yo	-9.14541
wak	-9.14565
▁sinsang	-9.14774
z	-9.15116
boSi	-9.1516
Siba	-9.15535
▁kapayak	-9.15665
就是	-9.15758
獵	-9.15859
族	-9.15867
傳	-9.15881
前	-9.15948
關	-9.15975
祖先	-9.15978
養	-9.15983
跳	-9.16002
卻	-9.16013
及	-9.16019
加	-9.16021
那些	-9.16023
弟弟	-9.16036
告訴	-9.16036
發現	-9.16038
aewhaeS	-9.16039
一些	-9.16085
土地	-9.16112
rang	-9.16156
aring	-9.16204
▁San	-9.16327
▁kap	-9.16859
▁現在	-9.16904
masa	-9.17223
▁makakS	-9.17977
inola	-9.18024
aes	-9.18146
inSa	-9.18264
▁pakS	-9.18454
燒	-9.18531
她的	-9.18571
或	-9.18579
跑	-9.18809
雨	-9.18858
oel	-9.19038
裡面	-9.1909
iyaehan	-9.19238
哭	-9.19317
▁komi	-9.19417
還有	-9.19458
肉	-9.19634
在家	-9.19638
氣	-9.1964
學習	-9.19685
蓋	-9.19689
接	-9.1969
者	-9.1969
蛇	-9.19693
▁homoba	-9.19696
呀	-9.19706
▁be	-9.19706
▁kabat	-9.19706
毛	-9.19706
休息	-9.19707
▁tinalek	-9.19708
▁ngangilaehan	-9.19732
天氣	-9.19734
糯米糕	-9.19934
owaz	-9.20063
▁pinaskayzaeh	-9.20201
hiza	-9.20216
araSen	-9.20285
好嗎	-9.20628
oh	-9.20696
▁tapa	-9.20731
明天	-9.20842
▁hinbetel	-9.20853
我們要	-9.20899
我是	-9.21412
oso	-9.21909
ah	-9.22114
賽夏族人	-9.22146
道	-9.22489
▁pit	-9.22908
痛	-9.23
男人	-9.23024
收	-9.23139
家裡	-9.23176
幫我	-9.23185
刀	-9.23334
皮	-9.23469
流	-9.23498
取	-9.23513
▁ripon	-9.23516
▁tiSkob	-9.23516
妹妹	-9.23521
tibae	-9.23562
▁Sapang	-9.23591
elngihan	-9.23751
▁taho	-9.23811
會被	-9.2392
▁maskes	-9.24024
▁pil	-9.24271
araS	-9.24297
借	-9.24488
下雨	-9.24718
走了	-9.24817
山上	-9.25385
▁rokol	-9.25387
也有	-9.25784
你的	-9.26119
▁pi	-9.26211
斷	-9.26431
▁sia	-9.26477
過了	-9.26483
自	-9.26618
inak	-9.26783
很會	-9.27044
tata	-9.27081
ortoro	-9.27179
▁hikor	-9.27269
alep	-9.27355
擦	-9.2737
眼睛	-9.27371
▁kinmae	-9.27373
相	-9.27407
蟲	-9.27449
姓	-9.27453
球	-9.27462
挖	-9.27464
▁SinSinra	-9.27477
那麼	-9.27481
老鼠	-9.27482
橘子	-9.2749
▁pakayzaeh	-9.27564
amet	-9.27572
車	-9.27627
要去	-9.27681
wi	-9.27717
▁ngi	-9.27775
asay	-9.27803
oroe	-9.27809
邊	-9.27907
冷	-9.28108
amiSan	-9.28386
▁lal	-9.285
播種	-9.28742
放在	-9.29003
書	-9.29078
▁kinra	-9.29089
▁tator	-9.29709
ri	-9.30137
木頭	-9.30309
▁tomi	-9.30642
▁sawa	-9.30648
熱	-9.30993
nae	-9.31251
還是	-9.31479
▁man	-9.31516
幾	-9.31519
更	-9.31523
變	-9.3155
臉	-9.31564
比	-9.31566
五	-9.31576
湯	-9.3158
換	-9.31585
苦	-9.3159
由	-9.31601
▁homib	-9.31601
▁samiyan	-9.31601
)	-9.31601
▁homayap	-9.31602
回答	-9.31603
▁Siri	-9.31619
▁bolalasan	-9.31623
經過	-9.31647
oehaz	-9.31836
於是	-9.31851
之後	-9.31928
真的	-9.32025
tortoro	-9.32079
alihan	-9.32138
▁lampez	-9.3216
inokay	-9.32244
tabo	-9.32254
話	-9.32312
aSkanen	-9.32472
m	-9.32679
▁sinsangan	-9.33096
我已經	-9.33111
裝	-9.3313
le	-9.33259
丟	-9.33852
sae	-9.34099
kayba	-9.34183
▁kapay	-9.34731
paSb	-9.34888
一隻	-9.34935
兩	-9.35116
ngas	-9.35195
採	-9.35328
其	-9.35459
▁Siba	-9.35466
聲	-9.3547
▁kaSa	-9.35485
吃飯	-9.3563
來的	-9.35737
年輕人	-9.3574
已	-9.35744
包	-9.35757
信	-9.35821
指	-9.35869
四	-9.35882
講	-9.35892
布	-9.35892
賣	-9.359
壓	-9.35903
罵	-9.35903
▁nakhara	-9.35903
全部	-9.35907
▁makaksi	-9.35913
▁kowaw	-9.35917
▁takil	-9.3604
一次	-9.36054
ker	-9.36281
讀書	-9.36292
男孩	-9.36838
▁你怎麼	-9.36994
▁taheS	-9.37253
▁tati	-9.37282
我們的	-9.37612
很大	-9.37633
下來	-9.38136
ke	-9.38188
所以	-9.38316
alowa	-9.38503
那裡	-9.39135
▁soma	-9.39213
▁奶奶	-9.39545
可以吃	-9.39689
Sinraehoe	-9.39943
身	-9.39969
生氣	-9.40237
便	-9.40275
爬	-9.40293
鳥	-9.40337
豬	-9.40343
機	-9.40361
libi	-9.40362
身體	-9.40388
滿	-9.40393
互相	-9.40394
-	-9.40397
▁titiyon	-9.40398
▁maSangay	-9.40398
濕	-9.40398
▁malahang	-9.40398
▁homlal	-9.40405
看見	-9.40409
▁haseb	-9.40441
小米	-9.40492
帶著	-9.40583
數	-9.40629
▁moto	-9.40902
為了	-9.41051
▁hara	-9.41326
好的	-9.41485
hiwa	-9.415
了嗎	-9.41574
的家	-9.41699
▁paS	-9.41899
我會	-9.41941
唱	-9.4197
在那裡	-9.41984
面	-9.42077
▁好	-9.42306
外面	-9.42392
醫生	-9.42551
nal	-9.42694
▁mayha	-9.43188
落	-9.43191
很好看	-9.43354
食物	-9.43358
▁rom	-9.43361
pong	-9.43385
▁SaS	-9.43493
▁hila	-9.43569
種的	-9.43662
看著	-9.43712
po	-9.43809
▁Sopat	-9.44272
笑	-9.44622
偷	-9.44703
leb	-9.44769
izaeh	-9.44919
上面	-9.44988
算	-9.45028
量	-9.45043
物	-9.45049
apol	-9.45087
線	-9.45095
政府	-9.451
南	-9.451
啦	-9.45104
▁somapih	-9.45104
▁sasbong	-9.45105
▁pinatawaw	-9.45105
客家人	-9.45106
▁homangih	-9.45107
那邊	-9.45175
▁homom	-9.45228
hngae	-9.45269
空	-9.45322
▁hako	-9.45385
其他	-9.45448
死了	-9.45461
▁wang	-9.45471
吃了	-9.45501
▁lalo	-9.45885
小孩子	-9.459
tani	-9.45955
▁狗	-9.46095
roe	-9.46149
了很多	-9.46211
在一起	-9.46406
re	-9.46456
才不會	-9.46507
se	-9.46532
▁pae	-9.46669
li	-9.46828
結	-9.4691
的東西	-9.47805
語言	-9.47812
▁kamari	-9.48078
出來了	-9.48164
二	-9.48296
▁那個人	-9.48342
真	-9.48701
▁atomal	-9.48792
位	-9.49171
▁你有	-9.49401
綁	-9.49454
mi	-9.4947
hingha	-9.49492
場	-9.49501
完	-9.49546
▁今天	-9.49688
留	-9.49698
lih	-9.49795
用的	-9.49816
晚	-9.4989
如何	-9.49899
刺	-9.49926
竹	-9.49939
船	-9.49967
果	-9.49974
比較	-9.49988
黃	-9.50002
理	-9.50017
跳舞	-9.50023
油	-9.50032
阿	-9.50035
姐姐	-9.50039
利	-9.5004
游泳	-9.50043
▁SaiSiyat	-9.50043
▁maehrahrang	-9.50043
▁tomalek	-9.50046
需要	-9.50053
▁hataS	-9.50059
變成	-9.50064
▁SaSinSinraehoe	-9.50127
▁mangowip	-9.50164
▁pino	-9.50197
打獵	-9.50313
過來	-9.50347
Sater	-9.50399
▁mak	-9.50403
oki	-9.50457
kano	-9.50481
kawkel	-9.50588
aSay	-9.50626
性	-9.50629
hil	-9.50801
回去	-9.51025
haehae	-9.51059
去了	-9.514
ak	-9.51583
▁kaSlatar	-9.51598
no	-9.51702
▁haha	-9.51876
謝謝	-9.51926
til	-9.52477
▁toway	-9.52577
▁pal	-9.52983
被我	-9.5315
aenan	-9.53198
waw	-9.53371
▁我沒有	-9.53435
▁Somo	-9.53503
▁kati	-9.53542
Se	-9.53813
ngo	-9.53823
▁he	-9.53908
▁kata	-9.54151
▁hil	-9.54178
好像	-9.54334
▁mal	-9.54361
Siwa	-9.54444
糖	-9.54536
男	-9.54537
兒	-9.54716
kal	-9.54742
壞	-9.54832
跌倒	-9.54847
sapih	-9.54978
停	-9.55118
殺	-9.55152
電腦	-9.55172
原來	-9.55174
傷	-9.55184
部	-9.55194
稱	-9.55212
食	-9.5523
立	-9.55232
睡	-9.55236
眼	-9.55236
芋頭	-9.55237
inkahoelan	-9.55239
▁honasamez	-9.55239
▁naehaen	-9.55239
▁romakep	-9.55239
▁kaskes	-9.55239
▁tiyanaw	-9.55239
媳婦	-9.55239
姊姊	-9.55239
覺得	-9.55243
有人	-9.55249
力量	-9.55252
長大	-9.55254
▁haleb	-9.5531
▁rineme	-9.55354
快樂	-9.55505
大家都	-9.55598
▁tak	-9.5581
放到	-9.55932
▁kola	-9.56365
Sta	-9.56632
它	-9.56641
boway	-9.56726
Sahoe	-9.57064
omal	-9.57601
▁lina	-9.5763
▁tae	-9.57654
▁ngowip	-9.57847
aelae	-9.58169
叫做	-9.58419
只	-9.585
▁Sik	-9.58505
isaa	-9.58821
並	-9.58955
國	-9.59118
▁boe	-9.5923
oetoeh	-9.59696
▁nepen	-9.59755
▁他是	-9.60018
遠	-9.60067
▁babih	-9.60134
ir	-9.60308
小心	-9.60342
少	-9.60379
▁kae	-9.6042
未	-9.60439
旁邊	-9.60545
用來	-9.60553
泰雅族	-9.60555
認識	-9.60571
賽夏	-9.60592
還沒	-9.60596
掛	-9.60666
常	-9.60688
平	-9.60703
紅	-9.60704
切	-9.6071
美	-9.60713
追	-9.60715
牙	-9.60716
搬	-9.60719
▁Tahai	-9.60719
▁habon	-9.60719
▁ngiyaw	-9.60719
酸	-9.60719
▁baseng	-9.60719
▁媽媽說	-9.60719
▁binlengan	-9.6072
飛鼠	-9.60728
可能	-9.60739
▁pinanabih	-9.60742
▁poway	-9.60746
inimon	-9.60747
稻子	-9.60748
▁hapis	-9.6075
家族	-9.60768
小男孩	-9.60769
▁ranaw	-9.60862
▁saksaka	-9.60874
▁hani	-9.60892
▁我把	-9.60899
然後	-9.60929
▁haho	-9.60948
使用	-9.61032
inalep	-9.61085
▁mabasez	-9.61126
niw	-9.61315
iwan	-9.61379
iSin	-9.61528
ow	-9.62266
▁homa	-9.62448
▁lom	-9.62454
apis	-9.62514
▁是的	-9.62753
nonak	-9.62788
▁wal	-9.6282
mari	-9.62918
方	-9.63203
tapaS	-9.63318
para	-9.63413
▁有一天	-9.63463
▁tomkaw	-9.6348
mol	-9.63778
趕快	-9.63823
好多	-9.63834
▁kay	-9.6389
很好吃	-9.64074
▁makS	-9.64258
長得	-9.64383
他說	-9.64397
占卜	-9.644
arol	-9.64669
ayan	-9.64816
sis	-9.65348
engan	-9.65968
發	-9.66196
hang	-9.66253
往	-9.66331
騙	-9.66415
葉	-9.66429
晚餐	-9.66432
最	-9.66438
早	-9.66444
期	-9.66461
推	-9.66485
吐	-9.66487
合	-9.66491
耳	-9.66492
屋	-9.66497
交	-9.66498
削	-9.66502
滑	-9.66504
noba	-9.66506
殼	-9.66508
幫助	-9.66511
光	-9.66511
強	-9.66512
台灣	-9.66512
愛	-9.66512
搶	-9.66513
紙	-9.66515
貓	-9.66516
反	-9.66517
灰	-9.66517
夢	-9.66517
細	-9.66517
灑	-9.66517
嫂嫂	-9.66518
▁hinohaes	-9.66518
▁kakrowaSekan	-9.66518
▁boSok	-9.66518
▁rahoeran	-9.66518
希望	-9.66518
清	-9.66518
存	-9.66518
兄弟姊妹	-9.66518
長輩	-9.66521
桌子	-9.66522
屋頂	-9.66522
▁(	-9.66535
imahowiS	-9.66556
棉被	-9.66556
小鳥	-9.66568
女性	-9.66588
小狗	-9.66716
▁tay	-9.66952
miwa	-9.67082
▁kapatawawan	-9.67113
awpo	-9.67239
成為	-9.67276
▁kateSnenan	-9.67315
▁se	-9.67365
一位	-9.67374
老了	-9.67409
是我	-9.6743
azis	-9.67508
loso	-9.67614
riri	-9.67735
▁ban	-9.67824
▁不是	-9.68293
'?"	-9.68325
▁kaSikar	-9.68364
niSo	-9.68462
▁binae	-9.68521
▁sini	-9.68676
做的	-9.68832
女生	-9.68842
煮的	-9.68896
這裡有	-9.69104
解	-9.6919
洞	-9.69271
做什麼	-9.69275
原住民	-9.69633
kama	-9.69665
母親	-9.69859
新	-9.6997
hiyo	-9.70178
paza	-9.70356
專門	-9.70449
▁hoSa	-9.70532
▁maSr	-9.70767
颱風	-9.70826
儀式	-9.70837
讓他	-9.7119
Sibae	-9.71212
地方	-9.71227
anhi	-9.71369
pil	-9.71522
看到了	-9.7156
青菜	-9.71647
根	-9.71647
都會	-9.71665
titi	-9.71763
娘家	-9.72009
olo	-9.72057
tono	-9.72229
離開	-9.72299
同	-9.72377
久	-9.72491
向天湖	-9.72494
陷阱	-9.72527
han	-9.72528
受	-9.7256
間	-9.72579
naba	-9.72606
害怕	-9.72617
槍	-9.72631
公	-9.72641
時候	-9.72642
香菇	-9.72643
活	-9.72643
如	-9.72658
芒草	-9.72661
語	-9.72663
血	-9.72664
衣	-9.72668
鹽	-9.72672
耶	-9.72673
醫院	-9.72673
髒	-9.72673
▁lamsong	-9.72673
應該	-9.72673
▁hotok	-9.72673
結束	-9.72673
竹筍	-9.72673
▁towanay	-9.72674
老鷹	-9.72674
otobay	-9.72674
玉米	-9.72676
zhe	-9.72677
▁lalangoy	-9.72677
祖靈祭	-9.72678
動物	-9.72688
▁hapoy	-9.72692
▁homngas	-9.72696
▁tonon	-9.7271
這麼多	-9.72723
▁hawaeh	-9.72824
一家人	-9.73009
去山上	-9.73023
在地上	-9.73214
▁Sibo	-9.73249
你會	-9.73292
回娘家	-9.73342
opi	-9.73428
kolo	-9.73429
要去哪裡	-9.73826
我想	-9.74011
rpa	-9.74121
ne	-9.74189
文化	-9.74535
ni	-9.74563
ami	-9.74603
▁pas	-9.74625
boehoe	-9.75083
▁tomo	-9.752
baehi	-9.75216
oS	-9.75394
koSa	-9.75399
打開	-9.75708
在睡覺	-9.76097
的名字	-9.76185
tik	-9.76281
你好	-9.76415
ali	-9.76441
實	-9.76712
翻	-9.76745
iz	-9.76955
不見了	-9.77011
aelan	-9.77058
分享	-9.77413
▁這隻	-9.77511
wasal	-9.77934
▁balong	-9.78093
許多	-9.7838
豬肉	-9.78655
歲	-9.78829
累	-9.78831
忘記	-9.78916
▁tihoero	-9.7894
石	-9.79023
全	-9.7909
入	-9.79132
癢	-9.79155
此	-9.79167
午餐	-9.79168
seb	-9.79168
明	-9.7918
抱	-9.79188
離	-9.79194
羊	-9.79196
圍	-9.79208
▁kaSna	-9.79209
畫	-9.79211
糖果	-9.79214
雨傘	-9.79228
比賽	-9.79228
化	-9.79229
搭	-9.79229
則	-9.7923
泡	-9.79231
abe	-9.79232
iyalatar	-9.79232
▁kaehoey	-9.79232
▁patawaw	-9.79233
▁tiyal	-9.79237
lbe	-9.79238
▁powawan	-9.79242
iri	-9.79249
青年	-9.79256
▁誰	-9.79263
樹枝	-9.79264
▁riza	-9.79271
種子	-9.793
出生	-9.79312
總是	-9.79312
▁mowahil	-9.79329
▁malat	-9.79433
▁pakpaka	-9.79542
很漂亮	-9.7964
拿去	-9.7986
孩子們	-9.79864
我去	-9.79868
▁papi	-9.79891
哭了	-9.7994
個人	-9.79978
▁B	-9.80101
剛剛	-9.80213
▁pama	-9.80298
多少	-9.80341
▁kinbazae	-9.80509
吃完	-9.80546
lawa	-9.80782
田裡	-9.81052
不要讓	-9.81115
▁老師	-9.81186
祖父	-9.81629
▁kamam	-9.81688
讓人	-9.82013
yakina	-9.82125
sas	-9.82147
新的	-9.82185
▁som	-9.82253
沒有了	-9.82275
隻	-9.82339
我就	-9.82629
人家	-9.82702
maya	-9.82777
laleke	-9.8282
才會	-9.83048
▁pawa	-9.83113
來到	-9.83393
amiS	-9.83861
▁pinatiyayan	-9.84009
kayzaeh	-9.84062
▁ngabas	-9.84113
hal	-9.84137
河邊	-9.84249
大的	-9.84283
怕	-9.84702
▁minae	-9.84718
上學	-9.84728
▁paw	-9.84774
▁zi	-9.849
也是	-9.84971
給你	-9.85043
拔	-9.8546
時間	-9.85688
baba	-9.85893
的生活	-9.85911
很久	-9.85912
弄	-9.86038
菜園	-9.86089
▁kabae	-9.86119
嚇	-9.8613
有一個	-9.86152
咬	-9.86158
▁taka	-9.86161
各	-9.86169
出現	-9.8617
病	-9.8623
八	-9.86237
味	-9.8624
節	-9.86241
尿	-9.86243
剝	-9.86244
視	-9.8625
談	-9.8625
轉	-9.86251
雲	-9.86251
福	-9.86251
您	-9.86251
夾	-9.86251
相互	-9.86251
Malala	-9.86251
運	-9.86252
▁kaSangayan	-9.86252
▁minobih	-9.86252
品	-9.86252
插	-9.86252
工寮	-9.86252
▁kanman	-9.86252
繩子	-9.86252
左	-9.86253
omahowiS	-9.86253
▁kakoway	-9.86254
月亮	-9.86256
改變	-9.86258
木材	-9.86258
bilow	-9.86261
不論	-9.86265
舞	-9.86277
▁hekla	-9.8629
▁kalahang	-9.86294
sih	-9.86298
後面	-9.86299
而已	-9.86301
▁bowaw	-9.86315
和解	-9.8635
葉子	-9.86359
跟著	-9.86366
▁taboeh	-9.86408
▁sazeken	-9.86419
▁下雨了	-9.86452
inomaS	-9.8646
果實	-9.86512
▁sinakeban	-9.86602
不一樣	-9.86608
還在	-9.86678
▁pite	-9.86697
我不	-9.86869
pap	-9.8703
oeson	-9.8706
的故事	-9.87066
去打獵	-9.87084
tek	-9.87087
說話	-9.87121
第二	-9.87204
▁maykaSpat	-9.87227
▁patae	-9.87341
▁kinoSa	-9.874
就可以	-9.87712
▁pakra	-9.87755
很高	-9.88146
paeh	-9.88389
yan	-9.88411
otoe	-9.8844
▁hiko	-9.88506
▁rino	-9.88697
學生	-9.88764
住在	-9.89069
▁Sawi	-9.8919
祭典	-9.89223
自己的	-9.89237
▁talek	-9.89278
boeh	-9.89354
aling	-9.89625
我們去	-9.89637
mez	-9.89679
▁lala	-9.89817
▁boeloe	-9.89823
▁Sika	-9.89851
角	-9.89861
每	-9.9
回來了	-9.90524
一起去	-9.90656
▁poti	-9.90792
▁tomowa	-9.90895
nak	-9.90952
也會	-9.91093
▁rin	-9.91168
了一	-9.91392
▁mayaw	-9.91903
▁mob	-9.92292
提	-9.923
inokik	-9.92484
太多	-9.92589
waz	-9.92639
minhae	-9.92657
給他	-9.92658
歌	-9.9281
▁hoehoe	-9.92933
直	-9.92985
因此	-9.93073
筆	-9.93187
熟	-9.93338
然	-9.9335
eme	-9.93367
破	-9.93382
除	-9.93386
黑	-9.93389
▁kapak	-9.93392
田	-9.93523
到山上	-9.93554
居住	-9.93595
原	-9.93604
類	-9.93653
最後	-9.9368
園	-9.93689
▁rokrok	-9.93697
青	-9.93738
甜	-9.93743
枝	-9.9375
出去	-9.93756
主	-9.93764
heb	-9.93766
染	-9.93769
餵	-9.93769
害	-9.93777
通	-9.93786
巴斯達隘	-9.93788
麻	-9.93791
元	-9.93793
無	-9.93793
拍	-9.93797
森林	-9.93798
黏	-9.93798
思	-9.93799
練習	-9.93801
怎樣	-9.93801
▁homses	-9.93802
▁kalhib	-9.93802
▁kapanpanabih	-9.93802
▁payrarongaw	-9.93802
▁wawatos	-9.93802
▁zinowas	-9.93802
針	-9.93802
▁bibi	-9.93802
試	-9.93802
雨停了	-9.93802
ayloSay	-9.93802
夫	-9.93802
▁雖然	-9.93803
繼續	-9.93804
終於	-9.93804
打架	-9.93809
桌上	-9.93814
▁kasnaw	-9.93835
以及	-9.9384
瓶子	-9.93854
認真	-9.93971
▁paSibae	-9.94019
▁tatango	-9.94026
吃起來	-9.94075
tama	-9.94101
」。	-9.94108
編織	-9.94136
angangen	-9.94176
eleb	-9.9422
▁pinak	-9.94347
hobaz	-9.9447
nawan	-9.94546
oyaeh	-9.94606
ataS	-9.94799
tatini	-9.95003
去買	-9.95195
天上	-9.95203
iwaz	-9.95407
幫你	-9.95445
回到	-9.95706
▁tim	-9.95713
omo	-9.95756
▁tako	-9.95925
的事情	-9.96014
▁langpez	-9.96248
▁manman	-9.96299
tal	-9.96471
▁Sam	-9.9649
我也	-9.96526
的小孩	-9.96625
的事	-9.96665
不想	-9.96734
▁maS	-9.9676
owih	-9.96896
你不要	-9.96933
kil	-9.97096
▁這個小孩	-9.97208
教導	-9.97727
nakhini	-9.97764
▁kitoya	-9.97795
在下雨	-9.9823
一個人	-9.98441
pang	-9.98448
osa	-9.98656
alan	-9.98659
▁komo	-9.98898
▁Sipan	-9.99251
kaw	-9.99291
她是	-9.99577
▁kah	-9.99826
故事	-9.99951
藥	-9.9996
難	-10.0005
aSo	-10.0012
▁你為什麼	-10.002
剛	-10.0034
是要	-10.0035
我來	-10.004
roton	-10.0042
族群	-10.0045
▁從前	-10.0057
的錢	-10.0068
獵人	-10.0083
zih	-10.0116
▁tem	-10.0129
曾經	-10.0154
的工作	-10.016
慢慢	-10.0165
便當	-10.0179
腫	-10.0181
▁Som	-10.0185
客	-10.0186
SiS	-10.0186
床	-10.0188
紋	-10.0188
獵物	-10.019
掃	-10.019
告	-10.0195
照	-10.0195
法	-10.0195
烏克蘭	-10.0196
夜	-10.0196
釀	-10.0196
堆	-10.0196
戰	-10.0196
跑步	-10.0197
蝦	-10.0197
wakit	-10.0197
鐵	-10.0197
躺	-10.0197
藤	-10.0197
Sincyang	-10.0197
toba	-10.0197
引	-10.0197
警察	-10.0197
u	-10.0197
▁tawtaw	-10.0197
篩	-10.0197
sibo	-10.0197
▁habiyalan	-10.0197
▁kamamalahang	-10.0197
▁lapowar	-10.0197
▁媽媽在	-10.0197
▁爺爺說	-10.0197
懶	-10.0197
▁wahoer	-10.0197
囉	-10.0197
滾	-10.0197
安靜	-10.0197
蟹	-10.0197
戴	-10.0197
治	-10.0197
▁kashaw	-10.0197
▁wazwaz	-10.0197
▁kangeselan	-10.0197
▁mintawaeh	-10.0197
小姐	-10.0197
雷女	-10.0197
傳承	-10.0198
如此	-10.0198
唸書	-10.0198
今年	-10.0198
春天	-10.0198
聊天	-10.0198
耕作	-10.0198
洗臉	-10.0199
我們的祖先	-10.0199
掉下來	-10.0199
▁rempe	-10.02
▁hororay	-10.02
omangang	-10.0201
▁bori	-10.0205
大便	-10.0207
人類	-10.0208
▁kipazay	-10.0208
▁kinSat	-10.021
就算	-10.021
▁那是什麼	-10.0213
soksok	-10.0215
▁kabo	-10.0221
▁tato	-10.023
San	-10.0233
▁這個孩子	-10.0234
wki	-10.0234
很高興	-10.0237
taboe	-10.0242
後來	-10.0251
▁pinanra	-10.0255
▁bali	-10.0263
來吃	-10.0264
不動	-10.0269
▁taSa	-10.0276
pasay	-10.0292
▁marma	-10.0296
真好	-10.0299
▁rarahoe	-10.0302
群	-10.0306
▁kaehkaehoyan	-10.0311
ahoe	-10.0316
rma	-10.0321
hay	-10.0323
▁bine	-10.0327
▁這個人	-10.0327
iyaka	-10.0328
kik	-10.0336
bong	-10.0338
喝酒	-10.0341
吃的	-10.0349
▁ramo	-10.0357
ameten	-10.0371
沒有看到	-10.0376
見面	-10.038
樹上	-10.0394
▁paSan	-10.0404
▁Somib	-10.0421
kilo	-10.0433
國家	-10.0441
mayaw	-10.0453
ngabas	-10.0453
▁kaSnay	-10.0466
ilika	-10.047
nta	-10.0475
kaehoy	-10.0477
saboeh	-10.0481
男生	-10.0482
隻狗	-10.0489
law	-10.049
▁Sayt	-10.0492
tih	-10.0511
躲在	-10.0535
koko	-10.0561
▁hon	-10.0571
是你的	-10.0577
那個人	-10.0592
造	-10.0611
▁tintin	-10.0616
也可以	-10.062
哪裡去了	-10.062
sawa	-10.0621
▁panra	-10.0647
姓氏	-10.0653
paskayzaeh	-10.0662
pot	-10.0671
naw	-10.0681
▁kakoring	-10.0702
是學生	-10.0714
奶	-10.0725
▁atomalan	-10.0732
hahila	-10.0737
房間	-10.0744
結果	-10.0745
tim	-10.0757
▁toma	-10.0762
都沒有	-10.0773
▁bengez	-10.0775
▁男子	-10.0777
ehe	-10.0786
方式	-10.0818
三個	-10.0818
婚	-10.082
深	-10.0824
Sama	-10.0827
nazip	-10.0846
▁taSi	-10.0849
ilo	-10.0901
op	-10.0902
窗戶	-10.0908
alibih	-10.0911
老人	-10.0917
▁我在	-10.0921
▁makak	-10.0923
結婚	-10.093
▁Lohok	-10.0935
Skira	-10.0936
▁那隻	-10.0937
網	-10.0937
不同	-10.0939
tang	-10.0959
胖	-10.0985
地上	-10.0988
早上	-10.1002
omaS	-10.1013
oewi	-10.1019
min	-10.1022
▁seme	-10.1023
次	-10.1037
tokoeh	-10.1071
aet	-10.1073
豆	-10.1073
本	-10.1075
年輕	-10.1076
輕	-10.1076
好啊	-10.1077
碗	-10.1078
披	-10.108
經常	-10.108
聞	-10.1081
第	-10.1081
袋	-10.1082
站	-10.1082
橡皮擦	-10.1082
決定	-10.1084
天空	-10.1084
野	-10.1084
枯	-10.1084
搖	-10.1084
balbalay	-10.1085
摘	-10.1085
吹	-10.1085
祖靈	-10.1085
縫	-10.1085
逃	-10.1085
棒	-10.1085
兄弟	-10.1085
唸	-10.1085
共	-10.1085
右	-10.1085
服	-10.1085
內	-10.1086
阻	-10.1086
塞	-10.1086
▁malbel	-10.1086
poSal	-10.1086
▁媽媽正在	-10.1086
箭	-10.1086
肩	-10.1086
鬼	-10.1086
▁taba	-10.1086
糯米飯	-10.1086
台	-10.1086
熊	-10.1086
麵	-10.1086
忌	-10.1086
潭	-10.1086
▁homabos	-10.1086
▁kalihapoyan	-10.1086
▁kathethel	-10.1086
▁romhaep	-10.1086
程	-10.1086
漲	-10.1086
舔	-10.1086
鹹	-10.1086
▁talobong	-10.1086
必須	-10.1086
芭樂	-10.1086
越	-10.1086
烏	-10.1086
感覺	-10.1086
柿子	-10.1086
保護	-10.1086
村	-10.1086
婆婆	-10.1086
矮靈	-10.1086
▁Sangay	-10.1087
開墾	-10.1087
▁monpoSal	-10.1087
▁你有幾個	-10.1087
真正	-10.1087
本書	-10.1087
進入	-10.1088
骨頭	-10.1089
打掃	-10.109
▁yanay	-10.1091
每天	-10.1091
▁papay	-10.1092
oyeh	-10.1092
▁rakepen	-10.1093
很甜	-10.1093
不管	-10.1095
▁tasingozaw	-10.1097
生長	-10.1099
▁minahael	-10.1099
朱家	-10.1103
她們	-10.1106
tikinSa	-10.1107
件	-10.111
alibihin	-10.1113
負責	-10.1113
不好吃	-10.1115
▁tinon	-10.112
▁somay	-10.1121
是一個	-10.1122
▁奶奶說	-10.1127
除了	-10.1133
oeway	-10.1136
elet	-10.1138
it	-10.1138
▁soka	-10.1142
langi	-10.1154
▁tini	-10.1155
走到	-10.116
▁poe	-10.1166
yae	-10.1167
我喜歡	-10.1168
▁hona	-10.1174
的聲音	-10.1175
itih	-10.118
Sapel	-10.118
sapoeh	-10.1183
baSe	-10.1197
回家了	-10.1212
alop	-10.1233
▁pakal	-10.1237
很喜歡	-10.1246
oti	-10.1257
poetoeh	-10.1269
來自	-10.1281
▁pinobih	-10.1285
一種	-10.1293
在樹上	-10.1302
你喜歡	-10.1307
ibae	-10.1309
▁sitaew	-10.131
我的腳	-10.1355
的儀式	-10.1361
我沒有在	-10.1384
他要	-10.1384
正	-10.1386
部落的	-10.1395
的果實	-10.1404
lal	-10.1405
▁mon	-10.1406
是專門	-10.1421
▁sina	-10.1424
也不	-10.1434
▁wae	-10.1451
織	-10.1478
▁tayp	-10.1494
漂亮	-10.1519
▁tama	-10.1541
roko	-10.1548
▁taSilotor	-10.1549
lay	-10.1555
的路	-10.1556
yaba	-10.1575
tiwaS	-10.1597
kabih	-10.1638
很重	-10.1639
裡有	-10.1644
poti	-10.1645
被人	-10.1653
舉行	-10.1656
niya	-10.1656
剪	-10.1669
躲	-10.167
我們有	-10.1687
▁tnon	-10.1714
射	-10.1723
要買	-10.1733
▁Somin	-10.1754
hpi	-10.1766
Sba	-10.1766
不用	-10.1767
烤	-10.1778
事情	-10.1788
kowa	-10.1794
再見	-10.181
mepe	-10.1848
▁kakra	-10.186
送給	-10.1867
我們一起	-10.1876
不然	-10.1877
畫圖	-10.1914
河	-10.1922
員	-10.1926
瘦	-10.194
▁kinS	-10.1945
趕	-10.1967
oeS	-10.1976
basez	-10.1983
土	-10.1988
父親	-10.1988
百	-10.2004
車子	-10.2017
見	-10.2032
份	-10.2034
你看	-10.2048
影	-10.2053
房	-10.2053
鍋	-10.2053
蜂窩	-10.2054
爭	-10.2055
寬	-10.2056
定	-10.2056
▁hoba	-10.2056
▁我們來	-10.2057
嘴	-10.2058
集	-10.2058
炒	-10.2059
聚	-10.2059
曬	-10.2059
隊	-10.2059
alnoSaySiyat	-10.206
▁kinba	-10.206
具	-10.206
耕	-10.2061
料	-10.2061
ngih	-10.2061
改	-10.2061
頂	-10.2062
負	-10.2062
▁maSna	-10.2062
示	-10.2062
腿	-10.2062
詞	-10.2062
香	-10.2062
除喪	-10.2062
美麗的	-10.2062
砰	-10.2062
Selep	-10.2062
封	-10.2062
均	-10.2062
橋	-10.2062
摩托車	-10.2062
舖	-10.2062
ayporong	-10.2062
d	-10.2062
▁Sinbil	-10.2062
▁binbiniSitan	-10.2062
▁hewek	-10.2062
▁hobos	-10.2062
▁kakayliS	-10.2062
▁kaybaybaw	-10.2062
▁kinkaboehoel	-10.2062
▁lomoehloehay	-10.2062
▁rohaenan	-10.2062
▁tomilhaehael	-10.2062
▁wkelan	-10.2062
屁股	-10.2062
啄木鳥	-10.2062
討論	-10.2062
aewzaeh	-10.2062
taniSowaw	-10.2062
▁Sinarak	-10.2062
呼吸	-10.2062
▁bilis	-10.2062
Sembet	-10.2062
稱呼	-10.2062
4	-10.2063
邀請	-10.2063
突然	-10.2063
並且	-10.2063
溪邊	-10.2063
讓它	-10.2063
醃肉	-10.2063
獲得	-10.2063
鋤頭	-10.2063
同學	-10.2064
受傷	-10.2064
收養	-10.2064
戰爭	-10.2064
釣魚	-10.2065
起床	-10.2065
發生	-10.2065
之前	-10.2066
▁kitkita	-10.2066
在山上	-10.2066
水管	-10.2068
鋸子	-10.2068
開車	-10.2069
出門	-10.2072
煮飯	-10.2074
alih	-10.2075
mae	-10.2076
tete	-10.2076
家人	-10.2076
花生	-10.2077
▁pangih	-10.2079
omowaz	-10.208
hoehoeh	-10.208
▁rasiwazay	-10.208
樹木	-10.208
一條	-10.2082
心裡	-10.2082
喝水	-10.2083
raylis	-10.2086
穿著	-10.2089
原來是	-10.2096
母	-10.2103
Sebeten	-10.2109
▁Sisa	-10.2109
若是	-10.2118
▁kakabaeh	-10.212
▁Seng	-10.2125
有許多	-10.2127
koraeh	-10.2127
撞到	-10.2128
身上	-10.2137
丟掉	-10.2139
prae	-10.2153
路上	-10.2158
直到	-10.216
▁his	-10.2165
lan	-10.2173
SinSinraehoe	-10.2174
這是我的	-10.2185
▁maylal	-10.2193
很痛	-10.2197
▁女子	-10.2197
變得	-10.2199
▁你們的	-10.2202
reman	-10.2204
tari	-10.2211
▁mayn	-10.2211
mis	-10.2221
lotor	-10.2245
▁那時候	-10.2259
▁pasi	-10.2269
▁bat	-10.227
▁你把	-10.2298
▁reme	-10.2302
angiS	-10.235
▁這條	-10.2357
聽到	-10.2358
代	-10.2365
不再	-10.2382
▁hewen	-10.2386
一件	-10.2391
很長	-10.2413
1	-10.2413
▁hina	-10.2431
▁Ser	-10.2477
比特幣	-10.2481
▁monhae	-10.2481
zek	-10.2484
poeh	-10.2487
▁homo	-10.2487
olan	-10.2488
▁tilk	-10.2496
▁我被	-10.2499
就好了	-10.2502
▁yakin	-10.256
過的	-10.2561
iwin	-10.2571
每個	-10.2575
▁Sir	-10.2591
ap	-10.2593
帶回	-10.2638
如果你	-10.2647
Sawi	-10.2652
記	-10.2654
▁maSa	-10.2678
omawa	-10.268
找到	-10.2686
的孩子	-10.2688
沒有人	-10.269
吃過	-10.2696
peng	-10.2698
omaw	-10.272
謝謝你	-10.2732
atomalan	-10.2743
yami	-10.2746
paSt	-10.2759
▁potoy	-10.2767
是男生	-10.2777
mako	-10.2779
床上	-10.278
watan	-10.2782
播種祭	-10.2803
horo	-10.284
都市	-10.2846
飽	-10.2847
▁kaSp	-10.285
都可以	-10.2874
不可以	-10.2889
▁taro	-10.2889
ip	-10.2912
洗衣服	-10.292
味道	-10.2922
leng	-10.2939
也要	-10.2944
不多	-10.2952
日子	-10.2966
風吹	-10.2981
去工作	-10.2982
aehis	-10.2991
鎖	-10.301
日本	-10.3017
ralom	-10.3038
▁pawk	-10.3042
▁tina	-10.3044
山洞	-10.3054
割	-10.3095
開心	-10.3099
owan	-10.3107
▁kapaSb	-10.3115
管	-10.3126
籃	-10.313
工	-10.313
記得	-10.313
張	-10.3135
明天要	-10.3135
踩	-10.3135
矮	-10.3138
亂	-10.3138
半	-10.3138
句	-10.3138
醃	-10.3139
餐	-10.314
藏	-10.314
醫	-10.314
鼠	-10.3141
摔	-10.3142
竹背簍	-10.3142
互	-10.3142
東	-10.3142
拜訪	-10.3143
農	-10.3144
圖	-10.3144
疊	-10.3144
肥	-10.3144
螞蟻	-10.3144
走過	-10.3144
西	-10.3144
至	-10.3144
騎	-10.3144
裝滿	-10.3144
▁babe	-10.3144
苗	-10.3144
阿美族	-10.3144
巾	-10.3144
A	-10.3144
費	-10.3144
~	-10.3144
炫耀	-10.3144
鈴	-10.3144
喘	-10.3144
安撫	-10.3144
打噴嚏	-10.3144
▁kamahayap	-10.3144
▁komakabaeh	-10.3144
▁lilom	-10.3144
▁maSpalaw	-10.3144
▁pezngesan	-10.3144
蓬萊	-10.3144
tatngor	-10.3144
姑姑	-10.3144
▁kaSlar	-10.3144
梳	-10.3144
itoSan	-10.3144
▁raehoeran	-10.3144
無論	-10.3144
Kacaw	-10.3144
▁hayhay	-10.3144
▁patonay	-10.3144
吵架	-10.3144
rakeS	-10.3144
rhaep	-10.3144
為何	-10.3144
我只是在	-10.3144
laloehay	-10.3144
▁malraw	-10.3145
南瓜	-10.3145
代表	-10.3145
soloeh	-10.3145
洪水	-10.3145
整理	-10.3145
交代	-10.3145
問題	-10.3145
▁roro	-10.3146
稻米	-10.3146
各自	-10.3146
原住民族	-10.3146
▁這條路	-10.3146
▁Somowaw	-10.3146
到底	-10.3146
祭歌	-10.3146
▁hinpilaz	-10.3146
Sowawen	-10.3147
▁hinkosiza	-10.3147
那樣	-10.3147
多少錢	-10.3148
很難過	-10.3148
擁有	-10.3149
籃子	-10.3149
▁pakaykayzaeh	-10.3149
caw	-10.315
種類	-10.315
山羊	-10.315
窩	-10.3151
一邊	-10.3151
這邊	-10.3153
字	-10.3153
▁tinok	-10.3153
鍋子	-10.3154
日本人	-10.3154
▁kar	-10.3155
▁maSkan	-10.3155
askan	-10.3161
▁lalazem	-10.3162
騙人	-10.3164
穿衣服	-10.3166
要小心	-10.3171
一顆	-10.3171
只要	-10.3171
不好看	-10.3172
▁topa	-10.3175
▁taboway	-10.3176
留下	-10.3179
▁hawaw	-10.3183
▁這是我	-10.3183
傳說	-10.3191
失去	-10.3194
很開心	-10.3204
oehoeh	-10.3205
▁他把	-10.3206
▁hing	-10.3208
▁Sinpanan	-10.3215
不小心	-10.3216
▁那你	-10.3229
長大了	-10.3229
看起來像	-10.3236
把它	-10.3237
吃東西	-10.3238
並沒有	-10.3242
▁taleken	-10.3243
今天的	-10.3255
很遠	-10.3257
▁ngal	-10.3267
成熟	-10.327
sem	-10.3271
同意	-10.3279
hoeroe	-10.328
ngko	-10.3291
的頭髮	-10.33
▁tomokoeh	-10.3304
很熱	-10.3304
是什麼	-10.3308
▁ling	-10.3338
ohay	-10.334
kas	-10.3352
不然會	-10.337
▁pinay	-10.3375
ibih	-10.3388
不要去	-10.339
▁loh	-10.3392
是用來	-10.3397
iyas	-10.3419
現	-10.3425
▁katal	-10.3438
他是	-10.345
tinaew	-10.3473
會說族語	-10.3476
▁minta	-10.3478
libih	-10.3478
就說	-10.348
有一	-10.348
跑出來	-10.3499
有一隻	-10.3513
去拿	-10.3532
非常的	-10.3537
很多人	-10.3569
洞裡	-10.3579
父母	-10.3616
g	-10.3616
rika	-10.363
apel	-10.3673
是原住民	-10.3675
的朋友	-10.3691
在讀書	-10.3709
鞋子	-10.3738
▁kon	-10.3756
mani	-10.3756
lok	-10.3788
eten	-10.38
怎麼這麼	-10.3829
inm	-10.3853
大樹	-10.3866
是女生	-10.3878
我可以	-10.388
一定	-10.3886
也不會	-10.3898
在房間	-10.391
往下	-10.3914
什麼東西	-10.3934
lang	-10.3955
lipa	-10.3967
織布的	-10.3968
的手	-10.3968
怎麼了	-10.3969
的文化	-10.3988
就不	-10.399
▁pakha	-10.4005
在田裡	-10.401
會唱歌	-10.4015
起來了	-10.402
▁baeh	-10.4037
▁Sae	-10.4044
很快	-10.4078
nan	-10.4079
貴	-10.4083
頭髮	-10.4094
▁tat	-10.4095
▁biz	-10.4096
ylo	-10.4108
moyo	-10.4118
不要被	-10.412
kin	-10.412
haha	-10.4121
那時候	-10.4121
pinobih	-10.4147
minkoringan	-10.4152
alayan	-10.4159
inaraS	-10.416
▁romp	-10.4163
他們就	-10.4164
▁kapatawaw	-10.417
▁pinat	-10.4174
nSo	-10.4182
▁pakza	-10.4231
女子	-10.4233
是用	-10.424
等一下要	-10.4242
ramo	-10.4252
koring	-10.4257
撞	-10.4274
還好	-10.4288
有空	-10.4289
高興	-10.4295
ezan	-10.4296
近	-10.4298
失	-10.4301
編	-10.4303
▁hipo	-10.4306
lek	-10.432
生病	-10.4321
完成	-10.4322
讓我	-10.4323
rakep	-10.4324
經	-10.4326
看電視	-10.433
不要吃	-10.4331
siwazay	-10.4334
▁請問	-10.4341
求	-10.4341
iti	-10.4341
singozaw	-10.4343
angang	-10.4344
沙	-10.4348
杯	-10.4348
暖	-10.4348
幾個	-10.4348
瓶	-10.4349
馬	-10.4349
茶	-10.435
短	-10.435
厚	-10.4351
星星	-10.4351
假	-10.4352
亮	-10.4352
吵	-10.4353
整	-10.4353
飾	-10.4353
骨	-10.4354
許	-10.4354
釣	-10.4355
的腳	-10.4355
moto	-10.4355
命	-10.4355
拜	-10.4356
承	-10.4356
旁	-10.4356
表	-10.4356
折	-10.4356
北	-10.4356
沖	-10.4356
願	-10.4356
祈求	-10.4356
禮	-10.4356
穀倉	-10.4356
磨	-10.4357
閉	-10.4357
泥	-10.4357
扛	-10.4357
識	-10.4357
度	-10.4357
曲	-10.4357
靠	-10.4357
魂	-10.4357
繫	-10.4357
足	-10.4357
選	-10.4357
遺	-10.4357
絲	-10.4357
搓	-10.4357
號	-10.4357
保	-10.4357
易	-10.4357
伸	-10.4357
替	-10.4357
吸	-10.4357
煙	-10.4357
護士	-10.4357
技術	-10.4357
蘭	-10.4357
乘	-10.4357
擠	-10.4357
燙	-10.4357
這張桌子很重	-10.4357
獨角仙	-10.4357
蝶	-10.4357
嗯	-10.4357
圓	-10.4357
膽	-10.4357
Atung	-10.4357
f	-10.4357
iyaSamSem	-10.4357
koysiya	-10.4357
libo	-10.4357
▁Atong	-10.4357
吞	-10.4357
▁Sinangayan	-10.4357
▁sisilin	-10.4357
倉庫	-10.4357
勾	-10.4357
▁kinalahang	-10.4357
▁minpongaeh	-10.4357
九	-10.4357
沉	-10.4357
盒	-10.4357
盛	-10.4357
那棵樹	-10.4357
甘	-10.4357
▁komaloeh	-10.4358
退	-10.4358
▁Sompan	-10.4358
感謝	-10.4358
鉛筆	-10.4358
itayso	-10.4358
▁baesaeh	-10.4358
▁kapranaw	-10.4358
6	-10.4358
▁Singil	-10.4358
尋找	-10.4358
消失	-10.4358
速	-10.4358
▁basaeh	-10.4358
▁kilakil	-10.4358
我的名字叫	-10.4358
揮	-10.4358
▁kaboehoel	-10.4358
鹽巴	-10.4358
知識	-10.4358
靠近	-10.4358
▁天黑了	-10.4358
你是不是	-10.4358
台北	-10.4358
泥土	-10.4358
雙方	-10.4358
膝蓋	-10.4358
隨便	-10.4358
包尿布	-10.4358
上班	-10.4358
秋天	-10.4358
不聽話	-10.4358
▁somzih	-10.4358
木柴	-10.4358
ewel	-10.4358
擔心	-10.4358
找不到	-10.4359
▁halis	-10.4359
到處都是	-10.4359
▁hinhinbetel	-10.4359
▁kapnazip	-10.4359
▁poralom	-10.4359
直接	-10.4359
lihlih	-10.4359
▁katoeh	-10.4359
祭告	-10.436
天氣如何	-10.436
放假	-10.4361
李子	-10.4361
▁homobaz	-10.4361
太陽出來了	-10.4361
▁那位	-10.4362
mowi	-10.4362
能力	-10.4362
關於	-10.4362
帶便當	-10.4362
河裡	-10.4363
下次	-10.4363
▁pakakreng	-10.4363
一半	-10.4364
爬上	-10.4364
不肯	-10.4364
▁kapanabih	-10.4364
雞肉	-10.4364
▁hinSay	-10.4365
鴨子	-10.4365
快點	-10.4366
▁kaksis	-10.4367
omalop	-10.4367
porawS	-10.4367
▁mayhal	-10.4367
豆子	-10.437
▁Sinora	-10.4372
hangal	-10.4372
長老	-10.4373
▁tatokoeh	-10.4378
中加拉彎	-10.4379
口水	-10.4383
有時候	-10.4384
其他人	-10.4385
Sobaeh	-10.4385
payziza	-10.4388
我的眼睛	-10.4391
oeboeh	-10.4392
▁raroton	-10.4392
kak	-10.4392
▁paho	-10.4395
放在哪裡	-10.4396
alro	-10.4396
▁hem	-10.4399
進去	-10.44
不要拿	-10.4405
有點	-10.4408
再見了	-10.4408
▁hes	-10.4412
在家裡	-10.4414
▁kit	-10.4417
你要買	-10.4418
要做	-10.4419
未來	-10.4422
在路上	-10.4423
很久了	-10.4428
iyawa	-10.4433
▁這是誰的	-10.4436
atomo	-10.4442
▁tasi	-10.4451
▁kim	-10.4454
偷了	-10.4465
▁tomok	-10.447
isin	-10.4473
拿了	-10.4473
吃飯了	-10.4474
還沒有	-10.4485
▁siwa	-10.4492
胖了	-10.4499
很大的	-10.4528
點鐘	-10.4536
被風吹	-10.4547
▁tomay	-10.4549
▁現在的	-10.4556
▁kaehma	-10.4559
▁sase	-10.4567
我們來	-10.4587
這樣的	-10.4594
▁Sinpaehpae	-10.461
就要	-10.4636
liyab	-10.4649
▁panpan	-10.4657
並不	-10.4659
onhal	-10.4679
叫我	-10.4685
payha	-10.4705
去找	-10.471
哪	-10.4719
現在是	-10.4738
omoe	-10.4743
ngasan	-10.4744
或是	-10.4751
▁hola	-10.4753
loS	-10.4756
下去	-10.4779
下了	-10.4783
▁haew	-10.483
帶到	-10.4831
說的話	-10.4839
都很	-10.4859
有沒有	-10.4862
osay	-10.4887
花園	-10.4899
吃什麼	-10.4922
him	-10.4941
zawan	-10.5004
▁hinaw	-10.5015
的名字是	-10.5021
c	-10.5026
都有	-10.5031
跟我	-10.5038
▁homaba	-10.506
▁katiS	-10.508
▁lak	-10.5099
kaway	-10.5102
也就	-10.5107
他們在	-10.5114
白色的	-10.5114
▁SiSi	-10.513
▁paSi	-10.5151
抬	-10.5169
lalo	-10.5174
完了	-10.5238
我的錢	-10.5244
他不	-10.5249
yz	-10.525
說族語	-10.5324
saka	-10.5326
移	-10.5328
▁Somi	-10.5335
altikal	-10.5345
nibih	-10.5359
apo	-10.5374
些	-10.5378
熟了	-10.5409
▁我要去	-10.541
lhae	-10.5411
片	-10.5413
我們是	-10.5433
妳的	-10.5451
破了	-10.5454
他們的	-10.548
剛才	-10.554
我的孩子	-10.5552
olon	-10.5588
泰雅族人	-10.5591
我知道	-10.5613
tiy	-10.562
nabih	-10.5627
相信	-10.5627
的地瓜	-10.563
所有	-10.5631
noe	-10.5643
pis	-10.5648
長出	-10.5662
褲子	-10.5675
樣	-10.5679
涼	-10.5693
▁minar	-10.5694
跌	-10.57
條	-10.57
oksok	-10.5706
kakabaeh	-10.5718
拿走	-10.5719
總	-10.572
頭上	-10.5721
的傳統	-10.5721
pok	-10.5723
pazeng	-10.5723
娶	-10.5725
牙齒	-10.5725
需	-10.5726
夠	-10.5726
鋸	-10.5727
鴨	-10.5729
陰	-10.5729
達	-10.573
約	-10.5731
牆	-10.5731
汗	-10.5731
hazab	-10.5732
坡	-10.5732
電視	-10.5734
(	-10.5734
予	-10.5734
領	-10.5735
師	-10.5735
雜	-10.5736
rowa	-10.5736
靈	-10.5736
文	-10.5736
特	-10.5737
龜	-10.5737
冰	-10.5737
搗	-10.5737
緊	-10.5737
器	-10.5737
權	-10.5737
音	-10.5737
疼	-10.5738
混	-10.5738
貼	-10.5738
首	-10.5738
漸	-10.5738
確	-10.5738
擺	-10.5738
側	-10.5738
歷	-10.5738
低	-10.5738
致	-10.5738
象	-10.5738
幼	-10.5738
▁老鷹去問	-10.5738
哇	-10.5738
惡	-10.5738
鄰居	-10.5738
微	-10.5738
敲	-10.5738
柄	-10.5738
▁阿姨	-10.5738
劈	-10.5738
容	-10.5738
滴	-10.5738
刮	-10.5738
蜥	-10.5738
這塊土地	-10.5738
閒	-10.5738
剁	-10.5738
埋	-10.5738
搭火車	-10.5738
胃	-10.5738
薏米珠	-10.5738
形	-10.5738
硬	-10.5738
Wusay	-10.5738
paehrahrang	-10.5738
▁haysia	-10.5738
▁kaehkaehoeyan	-10.5738
▁koloban	-10.5738
▁lomowang	-10.5738
▁pongpongaehan	-10.5738
▁rinakep	-10.5738
▁saboroo	-10.5738
吠	-10.5738
很美麗	-10.5738
溫	-10.5738
▁bangeS	-10.5738
▁kapanrahiyan	-10.5738
▁monaseb	-10.5738
健	-10.5738
懸崖	-10.5738
擊	-10.5738
閃	-10.5738
法律	-10.5738
茄	-10.5738
蒸	-10.5738
格	-10.5738
險	-10.5738
hoepay	-10.5738
▁minremrem	-10.5738
介	-10.5738
打瞌睡	-10.5738
農作物	-10.5738
▁totoS	-10.5738
衝	-10.5738
▁balaS	-10.5738
▁manakiS	-10.5738
不錯	-10.5739
Sekalu	-10.5739
勉強	-10.5739
故鄉	-10.5739
▁maySoSowaw	-10.5739
▁今天天氣好	-10.5739
▁balayan	-10.5739
zalas	-10.5739
衣架	-10.5739
教育	-10.5739
割稻	-10.5739
平安	-10.5739
古老	-10.5739
▁ritinSiya	-10.5739
▁Sekalo	-10.5739
▁kalihokan	-10.5739
的樣子	-10.5739
黃色的	-10.5739
聚集	-10.5739
▁不要在	-10.5739
屬於	-10.5739
無法	-10.5739
出嫁	-10.5739
日本政府	-10.5739
▁那個男人	-10.5739
▁kakaykayzaehan	-10.574
沖走了	-10.574
▁papahowih	-10.574
爭取	-10.574
想念	-10.574
夜晚	-10.574
等待	-10.574
tektek	-10.574
▁自從	-10.574
喝茶	-10.574
senge	-10.574
牽手	-10.574
組織	-10.574
▁tomrong	-10.574
聽見	-10.5741
相同	-10.5741
認為	-10.5741
摘水果	-10.5741
很勤勞	-10.5741
野外	-10.5741
前往	-10.5741
而且	-10.5741
▁lalohay	-10.5741
各個	-10.5741
抓傷	-10.5742
集中	-10.5742
▁risaza	-10.5743
Siyap	-10.5743
後代	-10.5743
天亮	-10.5743
隊長	-10.5743
飛機	-10.5743
要睡覺了	-10.5744
heheb	-10.5744
▁pawhi	-10.5744
樹豆	-10.5744
從此	-10.5745
hakaS	-10.5745
牆上	-10.5745
田地	-10.5745
門口	-10.5745
pene	-10.5746
▁monto	-10.5746
稱為	-10.5746
居	-10.5747
到達	-10.5747
▁tobong	-10.5748
當作	-10.5748
杯子	-10.5749
去看看	-10.5749
haepoy	-10.5749
他是我的老師	-10.575
okelan	-10.575
▁你們家	-10.5753
作為	-10.5753
pazay	-10.5754
▁panabih	-10.5754
海裡	-10.5756
做事	-10.5757
大聲	-10.5758
▁tatakay	-10.5759
好好的	-10.576
受到	-10.576
背著	-10.5761
想起	-10.5762
kalkal	-10.5762
丟到	-10.5765
matawaw	-10.5768
▁那個孩子	-10.5771
▁Sinorateran	-10.5772
▁lalaw	-10.5775
loSe	-10.5778
▁honay	-10.5778
ngel	-10.5779
我的名字是	-10.5781
paw	-10.5783
不懂	-10.5783
▁nay	-10.5785
soeh	-10.5786
只是	-10.5786
ter	-10.5786
▁tano	-10.5789
▁來去	-10.5789
▁kinrowaSekan	-10.5792
真是	-10.5792
動了	-10.5792
▁sihoe	-10.5797
▁risa	-10.5797
不聽	-10.5798
在這	-10.5801
▁kaSiki	-10.5802
▁Saehp	-10.5803
很少	-10.5804
拿著	-10.5805
▁我想要	-10.5808
liso	-10.5814
聽說	-10.582
horoe	-10.582
hikor	-10.5821
再來	-10.5823
打開了	-10.5828
離開了	-10.5832
了解	-10.5833
對著	-10.5834
買的	-10.5835
▁rarang	-10.5838
▁pahoehoe	-10.5839
omaSen	-10.5839
remek	-10.5841
跌倒了	-10.5849
先去	-10.5849
kinmaeh	-10.5863
就好	-10.5866
冷了	-10.5883
aseng	-10.589
我很	-10.5897
看看	-10.59
的歌	-10.5919
tawae	-10.592
不要再	-10.592
pakS	-10.5927
我沒有	-10.5939
tay	-10.5943
10	-10.5946
狗和	-10.598
的青菜	-10.5988
把書	-10.5988
會說賽夏語	-10.5994
喜歡讀書	-10.6027
你可以	-10.6032
的藥	-10.6039
跟你	-10.6044
會洗衣服	-10.6052
要給	-10.6063
不到	-10.61
hopil	-10.6131
在都市	-10.6142
的照片	-10.6145
找青蛙	-10.6154
▁mas	-10.6155
給我們	-10.6159
死掉	-10.6175
的書	-10.62
isaso	-10.6207
▁我和	-10.6219
mno	-10.6241
iyahim	-10.6254
在學校	-10.6255
歌謠	-10.626
romiS	-10.629
▁tomopa	-10.6303
Sek	-10.6327
做為	-10.6378
是我的	-10.6404
漂亮的	-10.6481
的部落	-10.6483
konkon	-10.6533
kiray	-10.6542
生的	-10.6614
Siri	-10.6622
▁你明天	-10.6641
所有的	-10.6655
▁kamati	-10.6679
氏族	-10.6685
你了	-10.67
的腳踏車	-10.6701
wawa	-10.6705
hik	-10.6719
▁miya	-10.677
kowih	-10.6771
我們都	-10.6798
▁komil	-10.6807
▁koms	-10.6808
▁sasa	-10.681
▁hah	-10.6826
▁lin	-10.6829
借給	-10.6829
tip	-10.6833
▁katat	-10.687
個房間	-10.6882
oeng	-10.6883
怎麼會	-10.6891
他沒有	-10.6894
▁balihaeh	-10.691
如果沒有	-10.692
會有	-10.693
的花	-10.6951
去學校	-10.6961
▁miy	-10.6969
ylal	-10.6973
拿出	-10.7035
▁去把	-10.7056
▁hinok	-10.706
▁monSay	-10.707
出去玩	-10.7077
吃到	-10.708
會議	-10.7116
▁這是第	-10.7124
kis	-10.7145
ilralom	-10.7165
paywa	-10.7239
人數	-10.7253
樂	-10.7255
醒	-10.7263
餓	-10.7266
島	-10.7267
懂	-10.7283
工具	-10.7286
鬆	-10.7292
kato	-10.7297
ayzing	-10.7314
很認真	-10.7315
不見	-10.7316
認	-10.7323
碰	-10.7326
簍	-10.7328
待	-10.7329
稻	-10.7329
支	-10.7329
感	-10.7331
義	-10.7332
是黑色的	-10.7334
露	-10.7335
型	-10.7335
含	-10.7336
▁poepoe	-10.7336
配	-10.7336
因	-10.7336
區	-10.7337
鄉	-10.7337
即	-10.7337
且	-10.7337
舊	-10.7337
腰	-10.7337
置	-10.7338
捕	-10.7338
沿著	-10.7338
體	-10.7339
tobok	-10.7339
洋	-10.734
婆	-10.734
歉	-10.734
望	-10.734
傘	-10.734
彎	-10.734
調	-10.734
較	-10.734
修	-10.734
疫	-10.734
非	-10.734
資	-10.734
毒	-10.734
須	-10.734
弓	-10.734
狀	-10.734
升	-10.734
silaeh	-10.7341
5	-10.7341
建	-10.7341
祈天祭	-10.7341
萬	-10.7341
揹	-10.7341
斤	-10.7341
挫	-10.7341
聯	-10.7341
響	-10.7341
突	-10.7341
該	-10.7341
城	-10.7341
2	-10.7341
爸爸和媽媽	-10.7341
腦	-10.7341
依	-10.7341
觀	-10.7341
準	-10.7341
載	-10.7341
在南庄	-10.7341
策	-10.7341
撒	-10.7341
套	-10.7341
慧	-10.7341
掌	-10.7341
大巨人	-10.7341
室	-10.7341
贏	-10.7341
呵	-10.7341
撿	-10.7341
缺	-10.7341
胡	-10.7341
姑婆芋	-10.7341
例如	-10.7341
摺	-10.7341
盪	-10.7341
貼草儀式	-10.7341
付	-10.7341
去五峰	-10.7341
叮	-10.7341
各式各樣	-10.7341
嚇一跳	-10.7341
抽	-10.7341
捲	-10.7341
斜	-10.7341
盤	-10.7341
老闆說	-10.7341
薯	-10.7341
ataba	-10.7341
▁toertoeroe	-10.7341
不舒服	-10.7341
奇	-10.7341
尖	-10.7341
尖尖的	-10.7341
沒有洗澡	-10.7341
Pawang	-10.7341
binisitan	-10.7341
komawtaw	-10.7341
sibal	-10.7341
sizab	-10.7341
tomawbon	-10.7341
▁Sobowaw	-10.7341
▁biskol	-10.7341
▁pinlong	-10.7341
▁pinoSakan	-10.7341
▁poSpoS	-10.7341
▁siyobaz	-10.7341
▁somapsapih	-10.7341
▁tababon	-10.7341
▁tibtibon	-10.7341
價	-10.7341
呼喊	-10.7341
急	-10.7341
抖	-10.7341
案	-10.7341
罰	-10.7341
螫	-10.7341
軟	-10.7341
鵝	-10.7341
▁hebengen	-10.7341
▁rinoton	-10.7341
塘	-10.7341
尾巴	-10.7341
我的帽子	-10.7341
格標記	-10.7341
計	-10.7341
館	-10.7341
▁binsong	-10.7341
荒	-10.7341
鼓	-10.7341
們昨天去	-10.7341
Temu	-10.7341
▁homawaeh	-10.7341
▁kaklobihan	-10.7341
用石頭壓	-10.7341
禁忌	-10.7341
朝	-10.7341
opiyak	-10.7341
攪拌	-10.7341
附近	-10.7341
▁tapez	-10.7341
太熱了	-10.7341
ineseng	-10.7341
▁bangol	-10.7341
太重了	-10.7341
淹	-10.7341
▁minlakay	-10.7341
研	-10.7341
越來越	-10.7341
電話	-10.7341
使喚	-10.7341
永遠	-10.7341
因為牠在	-10.7341
祭祖	-10.7341
稱讚	-10.7341
漸漸	-10.7341
D	-10.7341
老虎	-10.7341
訪問	-10.7341
精	-10.7341
patiyay	-10.7341
藍色的	-10.7341
SikSik	-10.7341
魚筌	-10.7341
扭傷	-10.7341
黃金	-10.7341
仍然	-10.7341
▁kahoey	-10.7341
▁pinotoy	-10.7341
回應	-10.7341
刷牙	-10.7342
sakel	-10.7342
掀開	-10.7342
▁kataleken	-10.7342
▁karkarang	-10.7342
最近	-10.7342
Sakap	-10.7342
完整	-10.7342
▁taw	-10.7342
期間	-10.7342
分配	-10.7342
照明	-10.7342
abaS	-10.7342
下巴	-10.7342
▁hebel	-10.7342
▁kolong	-10.7342
▁somapoeh	-10.7342
折斷	-10.7342
海龜	-10.7342
啼叫	-10.7342
▁katalekan	-10.7343
▁mayziza	-10.7343
oelpoeh	-10.7343
能夠	-10.7343
車站	-10.7343
水溝	-10.7343
女孩子	-10.7343
在海上	-10.7343
逃跑	-10.7343
遠方	-10.7343
阿公	-10.7343
傷心	-10.7343
芒草結	-10.7343
帶著雨傘	-10.7343
▁tatroe	-10.7343
美國	-10.7343
小溪	-10.7344
雜草	-10.7344
透過	-10.7344
溪裡	-10.7344
殺豬	-10.7344
頭目	-10.7344
停下來	-10.7344
放置	-10.7344
要燒的	-10.7344
▁malno	-10.7344
▁tikin	-10.7344
發燒	-10.7344
▁tirakiS	-10.7344
傷心地	-10.7345
主祭	-10.7345
之間	-10.7345
當然	-10.7345
小小的	-10.7345
溪水	-10.7345
▁你有幾隻	-10.7345
身體很好	-10.7345
▁這件衣服	-10.7345
▁hayap	-10.7345
二十	-10.7346
▁kaSkoraeh	-10.7346
▁maybalbalay	-10.7346
海鳥	-10.7346
▁sowaw	-10.7346
海邊	-10.7346
▁hangra	-10.7347
柱子	-10.7347
▁kapti	-10.7347
義子	-10.7347
感到	-10.7347
等一下會被	-10.7347
▁toliyab	-10.7348
晚飯	-10.7348
一起去打獵	-10.7348
蚊子	-10.7348
有些人	-10.7349
一塊	-10.7349
煮湯	-10.735
▁hinbasez	-10.735
▁kansiya	-10.7351
▁tateleng	-10.7351
更多	-10.7351
▁pateleng	-10.7351
砍草	-10.7352
▁panaeh	-10.7352
bolak	-10.7354
族人們	-10.7355
幫我拿	-10.7356
幾天	-10.7357
山刀	-10.7357
掛著	-10.7357
▁bangih	-10.7357
吃午餐	-10.7358
樹皮	-10.7358
epen	-10.7358
抓魚	-10.7359
▁minpoetoeh	-10.7359
往上	-10.7359
遷移	-10.7359
怎麼辦	-10.736
awyae	-10.736
面對	-10.736
滿滿的	-10.736
比較好	-10.7361
好久	-10.7363
iyalaeho	-10.7363
▁siningo	-10.7364
▁hitay	-10.7365
他是老師	-10.7368
請你	-10.7368
帶回去	-10.737
我們的部落	-10.7372
▁rarakep	-10.7372
不趕快	-10.7374
腫起來	-10.7374
那隻	-10.7377
▁nakhiza	-10.7379
hak	-10.7383
▁Sipas	-10.7384
給大家	-10.7385
一份	-10.7387
▁你們不要	-10.7388
在向天湖	-10.739
不喜歡	-10.7391
家在山上	-10.7391
生病了	-10.7395
在旁邊	-10.7396
▁wil	-10.7397
▁somolo	-10.7397
kowi	-10.7402
不但	-10.7402
天天	-10.7404
yayo	-10.7408
Sarak	-10.7413
awngaw	-10.7418
那就	-10.7418
一天	-10.7418
醒來	-10.7419
借我	-10.742
我們為	-10.742
▁tomono	-10.7428
sapihin	-10.7429
可是	-10.7434
了許多	-10.7435
▁你在這裡	-10.7438
▁你今天	-10.7439
▁horok	-10.7443
nanaw	-10.7446
▁kawkin	-10.7447
先生	-10.7449
panay	-10.745
慢慢的	-10.7451
他的手	-10.7456
was	-10.7462
hinibih	-10.7464
快要	-10.7464
aewhae	-10.7465
的學生	-10.7469
▁kapanra	-10.7469
去吧	-10.7479
的豬肉	-10.7485
笑了	-10.7486
▁Sako	-10.7487
▁tomil	-10.75
在河邊	-10.7507
▁temo	-10.7509
性的	-10.7512
▁kakapos	-10.7527
▁我從	-10.7529
hoehoe	-10.7532
▁rawaS	-10.7546
所以我們	-10.7554
ilwa	-10.7555
糯米酒	-10.7575
kosi	-10.7589
這種	-10.759
▁tinil	-10.7599
rotonan	-10.7611
Lohok	-10.7631
乾了	-10.7633
balong	-10.7643
iklih	-10.7644
babih	-10.7645
從前	-10.7647
nepen	-10.7647
Sopat	-10.7648
paksel	-10.7649
做成	-10.7654
honaehnge	-10.7655
馬上就	-10.7689
inoSa	-10.7699
在裡面	-10.7712
是誰的	-10.7718
上有	-10.7726
對我	-10.773
我們就	-10.7731
pit	-10.7732
我叫	-10.7747
awko	-10.7753
▁rola	-10.7762
azip	-10.777
ngaw	-10.7771
▁kakaw	-10.7777
▁pan	-10.7787
不斷	-10.7792
吃飽	-10.7809
saso	-10.7829
才有	-10.7831
很快就	-10.7843
為什麼一直	-10.7848
很深	-10.7851
▁SaSa	-10.7851
speng	-10.7873
kayn	-10.7879
他叫	-10.7899
會下雨	-10.79
▁kiko	-10.7918
romae	-10.7929
ntae	-10.7979
去過	-10.7985
的食物	-10.8
我們會	-10.8008
▁minr	-10.8016
腳踏車	-10.8024
傷口	-10.8032
的木頭	-10.8053
舉行巴斯達隘	-10.8069
們倆	-10.8072
家鄉的	-10.8105
小的時候	-10.8113
山頭	-10.8116
隻青蛙	-10.8118
▁hahil	-10.8148
團	-10.8177
paksa	-10.8183
要送給	-10.8189
ring	-10.822
的角	-10.8239
還給	-10.824
tihoero	-10.8254
是醫生	-10.8266
她是我的	-10.8287
喝了	-10.8347
▁loma	-10.8356
apna	-10.8364
▁我只	-10.8375
在外面	-10.839
Siya	-10.8401
巴斯達隘祭典	-10.8437
軍	-10.8444
也很	-10.8448
要怎麼	-10.847
看起來很	-10.8484
它的	-10.8532
tator	-10.8539
▁Sipak	-10.8547
▁hihi	-10.8577
Siy	-10.8584
的人們	-10.861
現代的	-10.863
▁ton	-10.8651
條魚	-10.867
們說	-10.867
▁kosa	-10.8687
鼻子	-10.8698
照片	-10.87
一會兒	-10.8701
▁mohae	-10.8721
▁towa	-10.8732
epoeh	-10.8771
官	-10.8781
馬上	-10.8855
她也	-10.8884
都不會	-10.8921
omtot	-10.8976
▁kamase	-10.8984
Say	-10.8986
富	-10.8998
炭	-10.9004
裡有好多	-10.9044
跟他	-10.9053
賽夏族有	-10.9071
粗	-10.9076
黑色的	-10.9078
▁tiway	-10.9086
吃糯米糕	-10.9104
▁Sinpan	-10.9123
elngih	-10.9132
去哪裡	-10.9132
Sakira	-10.917
▁saep	-10.9173
eko	-10.9178
我們家有	-10.9183
家負責	-10.9189
播	-10.9194
特別	-10.9194
慢走	-10.9194
paha	-10.9195
顆	-10.9201
到現在	-10.9203
女兒	-10.9209
kapos	-10.921
▁rar	-10.9213
小山豬	-10.9217
saza	-10.9222
過世	-10.9226
▁tomak	-10.9227
地震	-10.9228
mono	-10.9231
願意	-10.9232
howih	-10.9236
隨	-10.9237
哪些	-10.9239
塊	-10.9239
敵	-10.924
tawbon	-10.924
蚊	-10.9241
放棄	-10.9242
世界	-10.9243
忙	-10.9243
舀	-10.9244
兇	-10.9244
kowis	-10.9245
雷	-10.9245
隔	-10.9245
世	-10.9246
卡	-10.9246
髮	-10.9246
▁maybi	-10.9246
千	-10.9247
牽	-10.9247
念	-10.9247
材	-10.9248
電	-10.9248
口袋	-10.9248
綠	-10.9249
豐	-10.9249
屬	-10.9249
胸	-10.9249
壯	-10.9249
散	-10.9249
刷	-10.9249
赤	-10.9249
亡	-10.9249
持	-10.9249
適	-10.9249
距	-10.9249
伴	-10.9249
啃	-10.9249
星期	-10.9249
困	-10.9249
雙	-10.9249
悶	-10.925
雪	-10.925
考	-10.925
令	-10.925
密	-10.925
臟	-10.925
旗	-10.925
穀	-10.925
錄	-10.925
印	-10.925
源	-10.925
設	-10.925
敬	-10.925
鬧	-10.925
戶	-10.925
肚子餓	-10.925
降	-10.925
鹽膚木	-10.925
嚼	-10.925
塗	-10.925
妥	-10.925
捉	-10.925
窗	-10.925
喊	-10.925
排	-10.925
列	-10.925
滅	-10.925
業	-10.925
30	-10.925
嘍	-10.925
王	-10.925
善	-10.925
泥巴	-10.925
陷	-10.925
叢	-10.925
國際	-10.925
仇	-10.925
模	-10.925
真是太棒了	-10.925
8	-10.925
制	-10.925
晒	-10.925
取自於	-10.925
暗	-10.925
穗	-10.925
辣	-10.925
[	-10.925
katherter	-10.925
▁我昨天	-10.925
勇	-10.925
在客廳	-10.925
東張西望	-10.925
籠	-10.925
]	-10.925
bakbak	-10.925
bawnay	-10.925
kbaSaw	-10.925
narmeS	-10.925
obikol	-10.925
toehoey	-10.925
▁Somakap	-10.925
▁Somobowaw	-10.925
▁homSoS	-10.925
▁hombo	-10.925
▁kamaromhaep	-10.925
▁katboS	-10.925
▁katisraloman	-10.925
▁komalahang	-10.925
▁lalobihlobih	-10.925
▁posik	-10.925
▁romamramay	-10.925
▁昨天我	-10.925
俄羅斯	-10.925
加密貨幣	-10.925
務	-10.925
嘩	-10.925
快樂王子	-10.925
想吃	-10.925
杵	-10.925
枯萎了	-10.925
棲息在	-10.925
毛毛蟲	-10.925
熬	-10.925
的植物	-10.925
瞎	-10.925
祂	-10.925
秤	-10.925
翅	-10.925
餘	-10.925
ilkashaw	-10.925
kasbol	-10.925
nsaehsaeh	-10.925
palbaboy	-10.925
▁hoSoS	-10.925
▁homiyong	-10.925
▁kawhaenan	-10.925
▁這個椅子	-10.925
兄弟姐妹	-10.925
啄	-10.925
太陽下山	-10.925
我的爸爸是	-10.925
沒關係	-10.925
被媽媽罵	-10.925
C	-10.925
obilang	-10.925
▁2022	-10.925
▁kabak	-10.925
▁papaSoS	-10.925
下課了	-10.925
吃早餐	-10.925
否則會	-10.925
唷	-10.925
我的頭很痛	-10.925
棕	-10.925
的肚子	-10.925
肚子痛	-10.925
雕刻	-10.925
▁homangal	-10.925
▁maylaS	-10.925
paksizaeh	-10.925
▁bilas	-10.925
▁tawtawazay	-10.925
▁這棵樹	-10.925
又大又	-10.925
撐	-10.925
橫	-10.925
遷徙	-10.925
救	-10.925
▁wareng	-10.925
兵	-10.925
找尋	-10.925
▁malben	-10.925
也穿上	-10.925
課本	-10.925
遊戲	-10.925
▁haysaso	-10.925
凹陷	-10.925
talsekel	-10.925
▁papnabih	-10.925
嘴巴	-10.925
肩旗	-10.925
表現	-10.925
觸碰	-10.925
膠	-10.925
收穫	-10.925
竹筒	-10.925
▁他看見了	-10.925
熟悉	-10.925
異	-10.925
蛻皮	-10.925
弓箭	-10.925
三郎	-10.925
泡在水裡	-10.925
支持	-10.925
矮黑人	-10.925
守護	-10.925
我幫他	-10.925
▁haehoeway	-10.925
▁hiSon	-10.925
掃墓	-10.925
寶物	-10.925
茅草	-10.925
減少	-10.925
安全	-10.925
二層	-10.925
立刻	-10.925
材料	-10.9251
麻煩	-10.9251
15	-10.9251
器具	-10.9251
病毒	-10.9251
發芽	-10.9251
天晴	-10.9251
山崖	-10.9251
yriza	-10.9251
適合	-10.9251
的頭髮很長	-10.9251
踢球	-10.9251
所有的動物	-10.9251
商量	-10.9251
▁patpat	-10.9251
竹簍	-10.9251
成功	-10.9251
上課	-10.9251
碰面	-10.9251
醃青菜	-10.9251
要釀酒	-10.9251
餵奶	-10.9251
死亡	-10.9251
喝醉了	-10.9251
打擾	-10.9251
這件事情	-10.9251
機器	-10.9251
星星出來了	-10.9251
道歉	-10.9251
▁那些孩子喜歡	-10.9252
海洋	-10.9252
▁hahway	-10.9252
放屁	-10.9252
尿布	-10.9252
▁ziyas	-10.9252
米糕	-10.9252
畫畫	-10.9252
通常	-10.9252
平原	-10.9252
亂跑	-10.9252
竹園	-10.9252
聽不懂	-10.9252
掉下去	-10.9252
麻線	-10.9252
祭拜	-10.9252
撕破	-10.9252
認真讀書	-10.9252
aewhaes	-10.9253
完全	-10.9253
▁tiniway	-10.9253
平常	-10.9253
晾衣服	-10.9253
玩具	-10.9253
捕魚	-10.9253
曬太陽	-10.9253
▁tomat	-10.9253
搖動	-10.9253
小孩和狗	-10.9253
涼快	-10.9253
關節	-10.9253
ramay	-10.9253
交換	-10.9254
地區	-10.9254
這件事	-10.9254
▁Sipanpangih	-10.9254
▁kitn	-10.9254
口袋裡	-10.9254
不斷地	-10.9254
掉在地上	-10.9254
一般	-10.9254
講話	-10.9255
活動	-10.9255
大眾	-10.9255
▁molaw	-10.9255
▁kamatalek	-10.9255
更換	-10.9255
olhoel	-10.9255
▁homataS	-10.9255
小島	-10.9255
面前	-10.9255
大家穿著	-10.9255
前面	-10.9255
處理	-10.9256
寫信	-10.9256
少女	-10.9256
▁你們家有幾個	-10.9256
掉落	-10.9256
煮熟	-10.9256
用賽夏語	-10.9256
很兇	-10.9256
祭場	-10.9256
舀水	-10.9256
再次	-10.9256
不安	-10.9256
▁那個老人	-10.9257
籃子裡	-10.9257
▁那個男生	-10.9257
有一隻狗	-10.9257
長大以後	-10.9257
langoy	-10.9257
才能	-10.9257
露水	-10.9258
▁Singowip	-10.9258
樹的果實	-10.9258
學校讀書	-10.9258
進行	-10.9258
我們要去	-10.9258
漢人	-10.9258
解開	-10.9259
▁payhini	-10.9259
燒火	-10.9259
出發	-10.9259
中間	-10.926
家園	-10.926
居住的地方	-10.926
敵人	-10.9261
碰到	-10.9261
▁haloehan	-10.9261
我們全家	-10.9262
黑了	-10.9262
各種	-10.9262
長大後	-10.9262
趕上	-10.9264
▁我要把	-10.9264
▁那個男人是誰	-10.9264
噎到	-10.9264
抓住	-10.9264
白米	-10.9265
太太	-10.9265
種的菜	-10.9265
我要拿來	-10.9265
一張	-10.9266
不夠	-10.9266
洗手	-10.9267
像是	-10.9267
趕到	-10.9269
owiz	-10.9269
在這兒	-10.9269
吃晚餐	-10.9269
本來	-10.9269
很害怕	-10.927
不願意	-10.9271
幫孩子	-10.9272
一個月	-10.9273
笑著	-10.9273
tipoe	-10.9274
白天	-10.9276
咬到	-10.9276
上船	-10.9277
▁rokrokon	-10.9278
▁kawna	-10.9279
看誰	-10.9279
很冷	-10.9281
成長	-10.9282
居住在	-10.9283
大雨	-10.9284
oyih	-10.9285
在身上	-10.9287
住的地方	-10.9287
刺到	-10.9287
角落	-10.9288
坐著	-10.9288
azipin	-10.9289
學會	-10.929
人們對	-10.9291
是朱家	-10.9291
不認識	-10.9292
我還要	-10.9292
你怎麼知道	-10.9292
的權利	-10.9294
的下面	-10.9294
的行為	-10.9295
zang	-10.9297
這位	-10.93
原住民族群	-10.9301
書包	-10.9302
要做什麼	-10.9302
進來	-10.9303
他的名字是	-10.9304
▁minaSa	-10.9307
族群的	-10.9307
▁我們正在	-10.9308
我們今天要去	-10.9309
到處	-10.9309
完成了	-10.9316
好吃的	-10.9317
醫生說	-10.9317
的工作是做什麼	-10.9318
▁totow	-10.9318
的工具	-10.9318
▁不要一直	-10.9321
isahiza	-10.9321
不要忘記	-10.9323
▁kawnatat	-10.9323
▁小山豬的	-10.9323
就像	-10.9325
可以做	-10.9328
太高	-10.9329
▁pakaS	-10.933
poSi	-10.9332
我等一下要	-10.9333
如果你們	-10.9334
▁狗被	-10.9335
一年	-10.9336
找到了	-10.9337
有人說	-10.9338
到這裡	-10.9339
的時間	-10.9341
wko	-10.9343
幾點鐘	-10.9343
以前的人	-10.9349
叫什麼	-10.9349
▁tayla	-10.9353
rong	-10.936
我的頭髮	-10.936
教你	-10.9361
就一直	-10.9361
這兒	-10.9367
kosiza	-10.9369
一百	-10.9369
後就	-10.9374
先來	-10.9375
累了	-10.9376
歲了	-10.9376
不同的	-10.9379
▁kaloehloehay	-10.9381
▁以前有	-10.9387
大地	-10.9388
得到	-10.9389
不能吃	-10.939
我有一個	-10.9391
相信他	-10.9399
▁bowa	-10.9407
已經被	-10.9409
壞了	-10.941
什麼味道	-10.941
Sohowih	-10.9415
omaeh	-10.9417
▁boto	-10.9421
的種子	-10.9422
▁你的衣服	-10.9431
▁Sisi	-10.9434
poy	-10.9436
habaeh	-10.944
也因此	-10.944
收起來	-10.9443
來裝	-10.9452
才好	-10.9459
tiyaw	-10.9463
▁你一直	-10.9472
▁你現在	-10.9481
ziyo	-10.9486
把手	-10.9487
是泰雅族人	-10.9502
▁kinas	-10.9515
maraw	-10.9522
吃的東西	-10.9525
上來	-10.9533
▁我有一	-10.9534
inim	-10.9538
玩了	-10.9547
結婚了	-10.9557
喜歡畫圖	-10.9563
inonak	-10.9574
hana	-10.9575
▁katak	-10.9581
mahoe	-10.9597
你太	-10.9616
一把	-10.9624
isis	-10.9645
到河邊	-10.9646
的日子	-10.9659
的生命	-10.9665
有些	-10.9718
打破	-10.9727
要回去了	-10.9745
去讀書	-10.9756
▁taki	-10.9767
樹洞	-10.9792
▁Soml	-10.9808
iyasi	-10.9817
她說	-10.9819
分享給	-10.9837
的鼻子	-10.9839
hinta	-10.9846
要種	-10.9854
上學了	-10.9866
祭團	-10.992
▁Sipanhae	-10.9944
我們一起去	-10.9944
▁tomot	-10.9965
▁tomabo	-10.9968
跟隨	-10.9971
長出來	-10.9979
potoy	-10.9987
bengez	-10.9992
tinawbon	-11.0018
raromaeh	-11.0018
lobih	-11.0018
男子	-11.0024
kakhayza	-11.0027
ehraehrang	-11.0033
去占卜	-11.0034
丟下	-11.0069
落下	-11.0077
tnon	-11.0098
▁你的家	-11.0099
katin	-11.0132
出現了	-11.0215
了就可以	-11.0225
hoSa	-11.0227
船隻	-11.0316
你買	-11.0358
也很好	-11.0372
不方便	-11.0376
趕快去	-11.0399
0	-11.0418
100	-11.042
好吃	-11.0439
kapo	-11.0446
上方	-11.0456
tot	-11.0492
loe	-11.0493
父	-11.0494
boloe	-11.0498
mana	-11.0503
織的	-11.0539
不要弄	-11.0541
家鄉	-11.0548
Sayt	-11.0563
▁kinrik	-11.0569
個比特幣	-11.0601
手上	-11.0623
的傷口	-11.0644
從小	-11.066
哪一	-11.0681
miSan	-11.0693
隨著	-11.0706
醉	-11.0719
awz	-11.0724
分給	-11.073
omos	-11.081
hip	-11.082
mone	-11.0824
掉的	-11.0828
▁tango	-11.0893
tiwayen	-11.0894
sah	-11.0917
帶回家	-11.0945
我送	-11.0966
▁homop	-11.097
rawa	-11.1004
Snga	-11.1007
pinS	-11.1065
iyak	-11.1079
生命	-11.1112
少年	-11.1145
soko	-11.1146
我可以去	-11.1179
說賽夏語	-11.1182
peh	-11.1253
紅色的	-11.1264
▁他是我的	-11.1276
糕	-11.1288
部落的人	-11.1289
有個	-11.1304
▁patabil	-11.1316
apos	-11.1329
要吃的	-11.135
聲音	-11.1362
▁lalowa	-11.1395
bihin	-11.1403
涼了	-11.1413
快跑	-11.1427
非常高興	-11.1438
ewe	-11.1441
onre	-11.1442
▁sinakeb	-11.1484
去上學	-11.1486
ikako	-11.1513
▁saksak	-11.1518
很寬	-11.1522
▁kaSir	-11.1522
▁mintar	-11.1541
▁mil	-11.1544
raw	-11.1553
權利	-11.1557
aylis	-11.1558
錯	-11.1559
▁katn	-11.1567
方法	-11.1569
▁sazek	-11.157
ziza	-11.1574
人民	-11.1574
行為	-11.1578
下面	-11.1579
▁pahin	-11.1581
辦	-11.1582
morok	-11.1582
遷	-11.1583
teleng	-11.1583
知	-11.1587
步	-11.1587
情	-11.1588
賽夏語	-11.1591
ngangilaeh	-11.1593
溪	-11.1595
漢	-11.16
議	-11.1601
褲	-11.1601
柱	-11.1602
橘	-11.1603
眾	-11.1603
注意	-11.1603
今	-11.1604
市	-11.1604
瓜	-11.1604
aybol	-11.1605
傳染	-11.1605
般	-11.1605
目	-11.1606
柴	-11.1607
賣完了	-11.1607
透	-11.1607
一個妹妹	-11.1607
晾	-11.1608
興	-11.1608
zazi	-11.1608
裂	-11.1608
招	-11.1608
芒	-11.1608
獲	-11.1608
脫	-11.1609
題	-11.1609
貪	-11.1609
擔	-11.1609
薑	-11.1609
膝	-11.161
飲	-11.161
語系	-11.161
芽	-11.161
言	-11.161
助	-11.161
式	-11.161
絕	-11.161
共同	-11.161
注	-11.161
倉	-11.161
踢	-11.161
喜	-11.161
派	-11.161
極	-11.161
某	-11.161
迫	-11.161
泰雅語	-11.161
吊	-11.161
展	-11.161
遭	-11.161
隱	-11.1611
澀	-11.1611
藍	-11.1611
煩	-11.1611
鋪	-11.1611
壁	-11.1611
摸	-11.1611
齊	-11.1611
揉	-11.1611
訂婚	-11.1611
帳	-11.1611
泰	-11.1611
歪	-11.1611
歡	-11.1611
遇到	-11.1611
責	-11.1611
箱	-11.1611
lamlam	-11.1611
燈	-11.1611
202	-11.1611
兄	-11.1611
薪資	-11.1611
復	-11.1611
服喪	-11.1611
訓練	-11.1611
府	-11.1611
▁tapanpan	-11.1611
甚至	-11.1611
逝	-11.1611
宿	-11.1611
我的蘋果	-11.1611
宴	-11.1611
怪	-11.1611
榕	-11.1611
游	-11.1611
票	-11.1611
維	-11.1611
雅美族	-11.1611
想一想	-11.1611
藍寶石	-11.1611
店	-11.1611
1984	-11.1611
切成兩半	-11.1611
卡以那貝	-11.1611
唉	-11.1611
在五峰	-11.1611
奉	-11.1611
小女孩	-11.1611
強迫推銷	-11.1611
悲傷	-11.1611
掛在牆上	-11.1611
畢業	-11.1611
莖	-11.1611
差	-11.1611
腐	-11.1611
kapokaeh	-11.1611
浪費時間	-11.1611
臼	-11.1611
不要忘了	-11.1611
只有一點點	-11.1611
吝	-11.1611
我忘了帶	-11.1611
把帽子	-11.1611
最重要的	-11.1611
梅	-11.1611
汁液	-11.1611
沾	-11.1611
灌	-11.1611
石壓式陷阱	-11.1611
臭	-11.1611
豪	-11.1611
那些孩子在玩耍	-11.1611
黑黑的	-11.1611
9	-11.1611
paybi	-11.1611
tobha	-11.1611
▁talboe	-11.1611
▁zikzik	-11.1611
▁zinimos	-11.1611
▁那個男孩子正在	-11.1611
不客氣	-11.1611
伐	-11.1611
偏	-11.1611
年紀大	-11.1611
從事什麼	-11.1611
搭帳蓬	-11.1611
罪	-11.1611
親朋好友	-11.1611
醺	-11.1611
emlet	-11.1611
iSbabang	-11.1611
iyapangih	-11.1611
kawsaw	-11.1611
lohaper	-11.1611
otkot	-11.1611
pakrowaSeken	-11.1611
pinatabil	-11.1611
▁SomikSik	-11.1611
▁habiS	-11.1611
▁halehez	-11.1611
▁hehnak	-11.1611
▁hinkawton	-11.1611
▁hoenaehnge	-11.1611
▁kabhoet	-11.1611
▁kalihaepoyan	-11.1611
▁kasbez	-11.1611
▁kasinpanan	-11.1611
▁kataSnenan	-11.1611
▁linanger	-11.1611
▁minsalaz	-11.1611
▁miyatabin	-11.1611
▁miyataltaliki	-11.1611
▁nantaw	-11.1611
▁paSankinolol	-11.1611
▁paksoba	-11.1611
▁pinilosnaw	-11.1611
▁pongpognaehan	-11.1611
▁sinsinamoehan	-11.1611
▁tabowil	-11.1611
▁tenten	-11.1611
▁tokangang	-11.1611
不好意思	-11.1611
他們天天看電視	-11.1611
做記號	-11.1611
催	-11.1611
勻	-11.1611
厭	-11.1611
圈	-11.1611
外國人	-11.1611
孔	-11.1611
愈	-11.1611
戴著帽子	-11.1611
搭公車	-11.1611
歡樂	-11.1611
污垢	-11.1611
洗過澡了	-11.1611
燻	-11.1611
瘡	-11.1611
百步蛇	-11.1611
的女孩	-11.1611
稍	-11.1611
老師問大家	-11.1611
舅	-11.1611
那間房子很	-11.1611
Ataw	-11.1611
paSket	-11.1611
▁bokeS	-11.1611
▁pakalbel	-11.1611
▁poSak	-11.1611
▁pozok	-11.1611
▁sinpanan	-11.1611
今天天氣很好	-11.1611
冬天時	-11.1611
天上的雲	-11.1611
故意奚落	-11.1611
有什麼事	-11.1611
zimos	-11.1611
▁Santalam	-11.1611
▁kahkah	-11.1611
▁sasisaw	-11.1611
▁sisiyap	-11.1611
▁taytong	-11.1611
喝喜酒	-11.1611
報復	-11.1611
我來找你	-11.1611
戲弄	-11.1611
攤	-11.1611
消滅	-11.1611
耙	-11.1611
野生動物	-11.1611
▁hinoehas	-11.1611
▁homawar	-11.1611
▁rinakal	-11.1611
▁sinraehoe	-11.1611
沒辦法	-11.1611
粉	-11.1611
趴	-11.1611
X	-11.1611
▁bonaz	-11.1611
古代	-11.1611
旋轉	-11.1611
有燒毛的味道	-11.1611
淡	-11.1611
稱之為	-11.1611
賞	-11.1611
跡	-11.1611
▁你穿的衣服	-11.1611
一頭牛	-11.1611
四個姓氏	-11.1611
感冒	-11.1611
堂	-11.1611
岩	-11.1611
猴子說	-11.1611
膚	-11.1611
術	-11.1611
蹤	-11.1611
▁SipSi	-11.1611
嘴唇	-11.1611
▁Somater	-11.1611
忍	-11.1611
權益	-11.1611
粒	-11.1611
製作的	-11.1611
養的雞	-11.1611
▁papaylis	-11.1611
財產	-11.1611
賴床	-11.1611
kayngaeh	-11.1611
▁kamaSal	-11.1611
▁monmaykaSpat	-11.1611
爐灶	-11.1611
的外套	-11.1611
禱告	-11.1611
鄰近	-11.1611
abonay	-11.1611
potatay	-11.1611
▁我的手被	-11.1611
嗨	-11.1611
獻	-11.1611
隔壁	-11.1611
2023	-11.1611
們常常去探望祖父	-11.1611
▁tamemeS	-11.1611
在石頭上	-11.1611
pawkongas	-11.1611
啪啦	-11.1611
探望	-11.1611
胡瓜	-11.1611
燃燒	-11.1611
的家庭	-11.1611
飼養	-11.1611
開花了	-11.1611
驚	-11.1611
阻礙	-11.1611
任	-11.1611
最終	-11.1611
豐富	-11.1611
長高了	-11.1611
牆壁	-11.1611
▁hanowan	-11.1611
▁kinipazay	-11.1611
▁tomatikot	-11.1611
rhir	-11.1611
▁waSwaSak	-11.1611
洲	-11.1611
祈福	-11.1611
稻穀	-11.1611
優	-11.1611
鐘起床	-11.1611
依舊	-11.1612
陪	-11.1612
面向東方	-11.1612
▁lakayen	-11.1612
基本	-11.1612
很辛苦	-11.1612
用竹子做	-11.1612
▁romokrok	-11.1612
▁2021	-11.1612
敬禮	-11.1612
雞舍	-11.1612
▁從此以後	-11.1612
兩姊妹	-11.1612
困難	-11.1612
記帳	-11.1612
長長的	-11.1612
imapizosan	-11.1612
睡著了	-11.1612
圍爐	-11.1612
娃	-11.1612
提供	-11.1612
獵寮	-11.1612
12	-11.1612
良	-11.1612
▁pehez	-11.1612
我很想念	-11.1612
溢出	-11.1612
▁kapSil	-11.1612
增加	-11.1612
古拉	-11.1612
▁Sakiraya	-11.1612
竹梢	-11.1612
連結	-11.1612
足夠	-11.1612
pinaehraehrangan	-11.1612
▁kakrarotonan	-11.1612
思考	-11.1612
放晴	-11.1612
正式	-11.1612
Spat	-11.1612
合飲	-11.1612
吊掛	-11.1612
建造	-11.1612
搖擺	-11.1612
芒果	-11.1612
papaSeS	-11.1612
ikim	-11.1612
距離	-11.1612
正確	-11.1612
黃瓜	-11.1612
稻田	-11.1612
脫落	-11.1612
▁這件	-11.1612
攜帶	-11.1612
▁taklobih	-11.1612
溪流	-11.1612
強壯	-11.1612
▁ponlakay	-11.1612
躲藏	-11.1612
首歌	-11.1612
▁kakowihin	-11.1612
資源	-11.1612
ohaez	-11.1612
天氣怎麼樣	-11.1612
稀飯	-11.1612
搭飛機	-11.1612
科學	-11.1612
目前	-11.1612
▁hinangih	-11.1612
明亮	-11.1612
歸還	-11.1612
▁那個女孩子喜歡	-11.1612
泉水	-11.1612
輕輕	-11.1612
摔角	-11.1613
▁hahangaw	-11.1613
▁haseng	-11.1613
吐口水	-11.1613
修理	-11.1613
▁那些孩子	-11.1613
藜草	-11.1613
文物	-11.1613
胸口	-11.1613
卡在	-11.1613
頭蝨	-11.1613
比賽跑步	-11.1613
流汗	-11.1613
▁tipangihin	-11.1613
牙齒痛	-11.1613
裙子	-11.1613
▁tapanabih	-11.1613
禮物	-11.1613
織布的方法	-11.1613
相片	-11.1613
搶婚	-11.1613
我來畫	-11.1613
何時	-11.1613
飽滿	-11.1613
aliman	-11.1613
即使	-11.1613
或許	-11.1613
聚落	-11.1613
很久很久以	-11.1614
▁tobokon	-11.1614
木炭	-11.1614
▁malroton	-11.1614
▁mabaeh	-11.1614
裂開	-11.1614
殺害	-11.1614
兩兄弟	-11.1614
祭師	-11.1614
竹枝	-11.1614
河流	-11.1614
手指頭	-11.1614
konsilaeh	-11.1614
他的帽子	-11.1614
漏水	-11.1614
要下雨了	-11.1614
sekela	-11.1614
跨過	-11.1614
▁lasiwazay	-11.1614
颱風要來	-11.1614
的花紋	-11.1614
▁請坐	-11.1614
紅紅	-11.1615
害蟲	-11.1615
全身	-11.1615
整個	-11.1615
四個人	-11.1615
紅色的衣服	-11.1615
五個人	-11.1615
同學們	-11.1615
hlohay	-11.1615
▁sipsip	-11.1615
▁papayhini	-11.1615
下一代	-11.1615
▁kapakselan	-11.1615
織女	-11.1615
打雷	-11.1615
孫子	-11.1616
流血	-11.1616
▁binaseng	-11.1616
個盆子	-11.1616
▁hames	-11.1616
▁pinakme	-11.1616
腰帶	-11.1616
▁maybih	-11.1616
請假	-11.1616
請求	-11.1616
▁ngowipani	-11.1616
真相	-11.1617
隨時	-11.1617
雄性	-11.1617
▁坐下	-11.1617
舊衣服	-11.1617
經過那裡	-11.1617
部分	-11.1617
最好的	-11.1617
不好聞	-11.1617
加油	-11.1617
只能	-11.1617
rakiS	-11.1617
遠處	-11.1617
丟球	-11.1617
藏起來	-11.1618
帶領	-11.1618
omaybol	-11.1618
peleng	-11.1618
痛苦	-11.1618
女方	-11.1618
honsaboeh	-11.1618
太久	-11.1618
它們	-11.1618
部門	-11.1618
忙著	-11.1618
一起喝酒	-11.1619
花花的	-11.1619
五十	-11.1619
四十	-11.1619
作物	-11.1619
▁當時	-11.1619
長得像	-11.162
挖地瓜	-11.162
最喜歡	-11.162
力氣	-11.162
看不到	-11.162
還年輕	-11.1621
回到部落	-11.1621
大型	-11.1621
▁hobak	-11.1621
蓋房子	-11.1621
多麼	-11.1621
面向	-11.1621
要好好照顧	-11.1621
不知	-11.1621
一代	-11.1621
掉進	-11.1622
多久	-11.1622
然而	-11.1622
▁我的橡皮擦	-11.1622
因此而	-11.1622
的地瓜在哪裡	-11.1622
嘴裡	-11.1622
hiyop	-11.1622
汗水	-11.1622
不曾	-11.1622
幫妳	-11.1623
是高家	-11.1623
掃地	-11.1623
▁habaehen	-11.1623
相當	-11.1623
回家的路	-11.1623
妳們	-11.1623
沒有放棄	-11.1623
▁有一個人	-11.1624
很短	-11.1624
種香菇	-11.1624
omazaw	-11.1624
很遠的地方	-11.1624
▁taroS	-11.1624
放陷阱	-11.1625
▁kapatok	-11.1625
綁起來	-11.1625
很矮	-11.1625
▁大家好	-11.1625
刺魚	-11.1626
來看看	-11.1626
先走	-11.1627
非常熱	-11.1627
▁maShae	-11.1627
放在地上	-11.1628
▁paktikot	-11.1628
什麼地方	-11.1628
▁tiyam	-11.1628
pilaz	-11.1628
小時候	-11.1628
還需要	-11.1628
太好了	-11.1629
借錢	-11.1629
得很好	-11.163
上次	-11.163
沙子	-11.163
時期	-11.1631
有關	-11.1631
冷得	-11.1631
▁pinataS	-11.1631
▁tatamol	-11.1631
分開	-11.1631
全都是	-11.1631
▁piS	-11.1631
▁kababaw	-11.1631
▁那個女人	-11.1632
▁saksakaw	-11.1632
iyot	-11.1632
踩到	-11.1632
分手	-11.1632
▁boboway	-11.1633
▁laro	-11.1633
不會忘記	-11.1633
▁tatalek	-11.1633
小便	-11.1635
快到了	-11.1635
想睡覺	-11.1635
▁paywan	-11.1635
要娶	-11.1635
的褲子	-11.1636
▁hoehoehen	-11.1636
在樹下	-11.1636
工人	-11.1636
背帶	-11.1636
那些菜	-11.1637
下雨天	-11.1637
要去的地方	-11.1637
網子	-11.1638
tikowis	-11.1639
天空沒有	-11.1639
要求	-11.1639
到獵物	-11.1639
▁papazeng	-11.164
一定要	-11.164
被我一	-11.1641
你有看到	-11.1641
播下	-11.1641
有許多人	-11.1642
hahoer	-11.1643
▁papon	-11.1643
狗兒	-11.1643
很晚	-11.1643
以為	-11.1644
pahalay	-11.1644
種的東西	-11.1645
▁honas	-11.1646
▁他是你的	-11.1646
怎麼一直	-11.1646
▁好吧	-11.1647
民	-11.1647
請問你	-11.1649
嚇人	-11.165
錯了	-11.1652
剩下的	-11.1653
inayzing	-11.1653
的方法	-11.1654
醉了	-11.1654
我明天要去	-11.1655
是什麼東西	-11.1655
▁孩子要	-11.1656
兒子	-11.1657
只會	-11.1657
▁我們賽夏人	-11.166
煮菜	-11.166
抓著	-11.1662
都不知道	-11.1662
學會了	-11.1663
inahoek	-11.1664
去哪裡了	-11.1664
剛剛有	-11.1665
水鹿	-11.1666
masak	-11.1667
不停	-11.1667
rako	-11.1668
明天就	-11.1668
剪頭髮	-11.1669
很多東西	-11.1669
inmoyo	-11.1669
這個工作	-11.1671
apolon	-11.1671
拿起來	-11.1673
擦掉	-11.1673
刀子	-11.1675
我沒有帶	-11.1675
兩人	-11.1676
來找	-11.1676
跌破	-11.1677
跟著我	-11.1678
住著	-11.1679
▁你怎麼去	-11.1679
Soyap	-11.168
▁masmas	-11.1681
taS	-11.1682
▁kinkayzaeh	-11.1682
要如何	-11.1682
走走	-11.1684
lihih	-11.1684
不起	-11.1685
輕鬆	-11.1686
怎麼樣	-11.1687
panrahi	-11.1688
▁這孩子	-11.169
若沒有	-11.169
▁tinot	-11.169
不在家	-11.1692
哪裡人	-11.1693
到學校	-11.1695
嫁給	-11.1698
時間到了	-11.1707
不行	-11.171
▁以前我們	-11.171
在上面	-11.1711
▁kaehka	-11.1712
山裡	-11.1715
在生氣	-11.1717
教會	-11.1718
很會織布	-11.1719
▁這小孩	-11.172
▁這時	-11.172
▁tatil	-11.1728
owis	-11.1728
kSiyae	-11.1734
▁以前沒有	-11.1734
我們來去	-11.1735
不太	-11.1738
▁他正在	-11.174
的簍子	-11.1741
▁你若	-11.1741
就將	-11.1745
▁這是我們	-11.1745
▁hinalay	-11.1747
omitol	-11.175
就先	-11.1756
我拿來	-11.1761
回到了	-11.1765
▁我的家	-11.177
把小孩	-11.1785
▁pase	-11.1789
待會要	-11.1791
一一	-11.1791
maw	-11.1798
▁homak	-11.1802
吃著	-11.1805
▁kikay	-11.1806
▁patiS	-11.1808
小孩嚇到	-11.1808
你的錢	-11.1814
和狗	-11.1817
我的筆	-11.1823
難過	-11.1824
這讓	-11.183
一聲	-11.184
▁kakiw	-11.1841
也好	-11.1842
不像	-11.1843
▁mininSa	-11.1845
我們所	-11.1889
不要放	-11.1895
拔掉	-11.1907
▁我是賽夏族	-11.1913
火炭	-11.1929
yap	-11.1932
我在家	-11.1933
他拉	-11.1936
有颱風	-11.1949
▁paSpaSo	-11.1959
是紅色的	-11.1965
河水	-11.1969
是我的哥哥	-11.1987
alSay	-11.1989
ngoray	-11.1996
很難	-11.2004
在衣服上	-11.2006
他將	-11.2021
網路	-11.2023
颱風來	-11.2033
你的手	-11.2042
吃太多	-11.205
一根	-11.205
▁tomoro	-11.2116
有人來	-11.2134
▁rarah	-11.2151
好像是	-11.217
二個	-11.2198
一片	-11.22
pizos	-11.222
孩子吃	-11.2222
kinSa	-11.2227
waSak	-11.2228
我不知道	-11.2303
一會兒就	-11.2352
移到	-11.2364
▁katiSk	-11.2375
要烤	-11.2389
有一個小孩	-11.239
▁talaw	-11.2397
常常被	-11.2417
的方式	-11.2422
在玩	-11.2422
也是賽夏族	-11.2437
綠色	-11.2453
開門	-11.2457
在床上	-11.2538
就這樣	-11.2569
hapa	-11.2572
就開始	-11.2573
看不見	-11.2608
一定會	-11.2643
要剪	-11.2646
狗吃	-11.2648
mot	-11.2649
▁tayl	-11.2666
長得很好	-11.2685
把米	-11.2713
抬起	-11.2724
非常好	-11.2768
可以再	-11.2801
很像	-11.2803
abaeh	-11.287
解姓	-11.296
你們也	-11.2982
在唱歌	-11.299
onkonon	-11.2992
這樣才	-11.3001
ngowip	-11.3003
leket	-11.3019
ch	-11.3021
方便	-11.3024
給他喝	-11.3051
導	-11.3068
apoh	-11.3072
taSilotor	-11.3085
talek	-11.3086
▁現在我們	-11.3087
wh	-11.3093
kitoya	-11.3096
tintin	-11.31
tomkaw	-11.31
造船	-11.3104
hosong	-11.3112
boeloe	-11.3115
▁papik	-11.3119
rokol	-11.3122
takem	-11.3122
Sbet	-11.3133
有一天	-11.3135
toway	-11.3141
manabih	-11.3154
裝水	-11.3167
maySi	-11.3176
再也	-11.3227
patna	-11.3232
▁taSih	-11.3281
的花園	-11.3339
▁Sinawi	-11.3362
iSnga	-11.337
件衣服	-11.3525
▁ziy	-11.3525
一方	-11.3614
▁那些女孩子喜歡	-11.3638
拜訪祖父	-11.364
綠色的	-11.3665
wawal	-11.3669
舉	-11.3747
不會冷	-11.3754
我的陷阱	-11.3788
到田裡	-11.3792
聚在一起	-11.3907
鳥兒	-11.3933
▁hinpiz	-11.3964
roy	-11.3976
古時	-11.3992
▁Sinpaehpa	-11.403
鐘	-11.4069
panibih	-11.4072
ksel	-11.4092
▁makakp	-11.4121
▁haeh	-11.4148
tiro	-11.4153
到這邊	-11.4179
裡有一	-11.4204
把糯米	-11.4234
▁kinolol	-11.4244
點火	-11.4308
拿來做	-11.4317
等一下要去	-11.4358
mik	-11.4369
ktikot	-11.4406
嚇到了	-11.4441
loehloehay	-11.4485
待會	-11.4487
嫁	-11.4499
▁因為我	-11.4512
▁lahi	-11.4519
▁現在幾點	-11.455
簍子	-11.4552
廣	-11.4564
▁這是誰	-11.4576
▁kinrowaSek	-11.4577
織衣服	-11.4581
inmaeh	-11.459
慢	-11.4604
▁minkoring	-11.4609
▁waliS	-11.4618
kakreng	-11.4618
興趣	-11.4623
obaeh	-11.4628
很輕	-11.4629
emek	-11.4633
朋友們	-11.4637
▁minkak	-11.4638
itkita	-11.464
papinob	-11.4643
世界上	-11.4654
剩下	-11.4654
haloeh	-11.4657
途	-11.4663
▁torong	-11.4667
minto	-11.4671
殺雞	-11.468
bolalas	-11.4684
ySiyat	-11.469
從哪裡來	-11.4691
扣	-11.4691
架	-11.4693
好好照顧	-11.4693
擁	-11.4693
安	-11.4694
禁止	-11.4694
▁kontotol	-11.4696
麼	-11.4696
鞋	-11.4696
李	-11.4696
鼻	-11.4697
文字	-11.4697
組	-11.4699
甕	-11.47
勤勞	-11.47
握	-11.4701
棄	-11.4702
基	-11.4702
跨	-11.4702
豐收	-11.4702
剩	-11.4702
姐	-11.4702
春	-11.4702
聊	-11.4703
鋤	-11.4703
覺	-11.4703
金	-11.4703
張椅子	-11.4703
osiza	-11.4703
後天要	-11.4703
屁	-11.4703
初	-11.4704
故	-11.4704
層	-11.4704
要嫁	-11.4704
藜	-11.4704
景	-11.4704
減	-11.4704
終	-11.4704
糰	-11.4704
連	-11.4704
功	-11.4705
科	-11.4705
做的事	-11.4705
章	-11.4705
星	-11.4705
孵	-11.4705
漂	-11.4705
專	-11.4705
扭	-11.4705
享	-11.4705
寶	-11.4705
▁那個女孩	-11.4705
靜	-11.4705
占	-11.4705
己	-11.4705
述	-11.4705
南島語	-11.4705
規	-11.4705
讀	-11.4705
宰	-11.4705
單	-11.4705
梢	-11.4706
蒂	-11.4706
周	-11.4706
系	-11.4706
刻	-11.4706
壽	-11.4706
避	-11.4706
patabi	-11.4706
齒	-11.4706
採黃藤	-11.4706
碎	-11.4706
繞	-11.4706
爐	-11.4706
計算的	-11.4706
尋求	-11.4706
冰箱	-11.4706
驅	-11.4706
報	-11.4706
Losin	-11.4706
皆	-11.4706
纏繞	-11.4706
釘	-11.4706
墓	-11.4706
護	-11.4706
勢	-11.4706
平埔族	-11.4706
監	-11.4706
暫	-11.4706
訴	-11.4706
供	-11.4706
山柿	-11.4706
番	-11.4706
選擇	-11.4706
傾	-11.4706
弟	-11.4706
七	-11.4706
卑南族	-11.4706
卡車司機	-11.4706
延續	-11.4706
觸	-11.4706
姑娘	-11.4706
世世代代	-11.4706
備	-11.4706
訂	-11.4706
愈來愈	-11.4706
姊	-11.4706
零	-11.4706
窮	-11.4706
一朵花	-11.4706
布農族	-11.4706
很會射箭	-11.4706
為何人們會相信	-11.4706
用左手丟球	-11.4706
的環境	-11.4706
袖	-11.4706
堅	-11.4706
探	-11.4706
界	-11.4706
olrol	-11.4706
勤	-11.4706
鳴	-11.4706
Ziauddin	-11.4706
侵略	-11.4706
暴	-11.4706
職	-11.4706
岸	-11.4706
質	-11.4706
免	-11.4706
丁	-11.4706
交易所	-11.4706
似	-11.4706
凶	-11.4706
已經超過	-11.4706
撲	-11.4706
據	-11.4706
省	-11.4706
竟	-11.4706
茁	-11.4706
裁	-11.4706
遍	-11.4706
3	-11.4706
判	-11.4706
如果有人要	-11.4706
楓	-11.4706
叉	-11.4706
攪	-11.4706
主要意義	-11.4706
加里山	-11.4706
勸	-11.4706
參與政治的權利	-11.4706
吃起來酸酸	-11.4706
哎	-11.4706
在椅子上	-11.4706
婦女們	-11.4706
山胡椒	-11.4706
掐	-11.4706
排灣族	-11.4706
獵獲物	-11.4706
畏	-11.4706
的拐杖	-11.4706
紋額頭	-11.4706
緣	-11.4706
義父一方	-11.4706
複雜	-11.4706
讓它沾露水	-11.4706
走起路	-11.4706
踏	-11.4706
隙	-11.4706
靜靜的	-11.4706
頓	-11.4706
鮮	-11.4706
汁	-11.4706
無緣無故	-11.4706
解決	-11.4706
雅	-11.4706
魚腥草	-11.4706
▁他昨天	-11.4706
一下子就裝滿了	-11.4706
到月亮上	-11.4706
匙	-11.4706
咬人貓	-11.4706
喝醉的人	-11.4706
嚐	-11.4706
圓圓的	-11.4706
天靈蓋	-11.4706
套頸式	-11.4706
委	-11.4706
孤	-11.4706
彩色筆	-11.4706
很懶惰	-11.4706
換來換去	-11.4706
搧	-11.4706
放下手	-11.4706
有三種	-11.4706
有二種	-11.4706
有額紋	-11.4706
榖	-11.4706
池塘裡	-11.4706
汽	-11.4706
煤	-11.4706
的植株	-11.4706
腸	-11.4706
虎頭蜂	-11.4706
被蚊子叮	-11.4706
跑來跑去	-11.4706
鑽	-11.4706
防鼠板	-11.4706
頸	-11.4706
颳	-11.4706
駕	-11.4706
我早上六點	-11.4706
M	-11.4706
▁SaSinSinra	-11.4706
▁你早上幾點	-11.4706
不要遲到	-11.4706
九重吹	-11.4706
可以種植	-11.4706
媽媽咀嚼米飯餵	-11.4706
暗暗的	-11.4706
果子狸	-11.4706
漁	-11.4706
炮	-11.4706
百合花	-11.4706
的位置	-11.4706
的傳說故事	-11.4706
章運金	-11.4706
英	-11.4706
莓	-11.4706
裝太滿	-11.4706
說客家話	-11.4706
跤	-11.4706
這朵花	-11.4706
鎮	-11.4706
非常可憐	-11.4706
7	-11.4706
N	-11.4706
alewez	-11.4706
bonbon	-11.4706
botboto	-11.4706
ddin	-11.4706
iyabiyal	-11.4706
lnoripon	-11.4706
mahiwis	-11.4706
naben	-11.4706
ohaeper	-11.4706
▁SaSolotSolot	-11.4706
▁Sinikiw	-11.4706
▁Siporok	-11.4706
▁Siyobokan	-11.4706
▁babiSbiS	-11.4706
▁bangbangolan	-11.4706
▁homSeS	-11.4706
▁homayhayap	-11.4706
▁honsasaboeh	-11.4706
▁kaborbor	-11.4706
▁kaketelen	-11.4706
▁kalalohayen	-11.4706
▁kalangiyaw	-11.4706
▁kalotngor	-11.4706
▁kawnababoyan	-11.4706
▁kowakowaSan	-11.4706
▁lalengeSen	-11.4706
▁lihlihpihan	-11.4706
▁linroichang	-11.4706
▁maSkolhoh	-11.4706
▁maehngap	-11.4706
▁maelaehang	-11.4706
▁mahrahrang	-11.4706
▁pakhopay	-11.4706
▁papSiyay	-11.4706
▁papatawaw	-11.4706
▁pinabnabih	-11.4706
▁tilbabawen	-11.4706
▁tiniSkob	-11.4706
▁tinipangih	-11.4706
▁去叫你	-11.4706
▁這頂帽子	-11.4706
不敢出來	-11.4706
不要介意	-11.4706
你的帽子	-11.4706
剝皮後	-11.4706
加熱一下	-11.4706
卵	-11.4706
原始森林	-11.4706
去洗澡	-11.4706
參差不齊	-11.4706
喝起來很甜	-11.4706
噴	-11.4706
在山林裡	-11.4706
天氣晴朗	-11.4706
姊妹菇	-11.4706
寄	-11.4706
小山豬要畫	-11.4706
很會說賽夏族語	-11.4706
循	-11.4706
快走開	-11.4706
快速成長	-11.4706
思念著你	-11.4706
我的心情也很	-11.4706
把翅膀	-11.4706
抖一抖	-11.4706
拿在手上	-11.4706
按	-11.4706
推來推去	-11.4706
有地方放	-11.4706
概	-11.4706
淋巴腺	-11.4706
渡井三郎	-11.4706
湖	-11.4706
溜	-11.4706
炸	-11.4706
爺爺和奶奶	-11.4706
猛	-11.4706
番石榴	-11.4706
當做菜	-11.4706
疤	-11.4706
瘋	-11.4706
療	-11.4706
的甘蔗	-11.4706
的祝福	-11.4706
碰觸到	-11.4706
築巢	-11.4706
縮	-11.4706
腐爛了	-11.4706
膿	-11.4706
荷蘭人	-11.4706
蒙	-11.4706
蚪	-11.4706
蝌	-11.4706
要把頭抽回來	-11.4706
要祭請	-11.4706
詐騙集團	-11.4706
講不雅的話	-11.4706
賺	-11.4706
賽夏族的傳統習俗	-11.4706
起水泡	-11.4706
遙	-11.4706
遵守	-11.4706
鉤	-11.4706
錶	-11.4706
鍬	-11.4706
鐵釘彎曲了	-11.4706
霸	-11.4706
顎	-11.4706
飛來飛去	-11.4706
鵲	-11.4706
heSem	-11.4706
pawrahem	-11.4706
poSneh	-11.4706
sikoey	-11.4706
tonton	-11.4706
▁loehong	-11.4706
▁mehes	-11.4706
▁ramramay	-11.4706
▁tisakil	-11.4706
▁zizik	-11.4706
▁這塊田	-11.4706
又黑又	-11.4706
好可憐	-11.4706
杓	-11.4706
樓梯	-11.4706
生吃地瓜	-11.4706
痣	-11.4706
這塊地	-11.4706
鵝公髻	-11.4706
▁Soliyan	-11.4706
▁kaSbik	-11.4706
hahowar	-11.4706
▁hinabos	-11.4706
▁夏天到	-11.4706
▁夏天時	-11.4706
互相殘殺	-11.4706
你要不要吃	-11.4706
凸	-11.4706
在那裏	-11.4706
孕	-11.4706
很便宜	-11.4706
徹底	-11.4706
慕	-11.4706
扶	-11.4706
捏	-11.4706
捐	-11.4706
掛蚊帳	-11.4706
接水管引水	-11.4706
斗	-11.4706
欄	-11.4706
渴	-11.4706
烹	-11.4706
現在是夏天	-11.4706
磚	-11.4706
等我一下	-11.4706
脊	-11.4706
菸	-11.4706
被媽媽打	-11.4706
被風一吹	-11.4706
鑿	-11.4706
konhaehael	-11.4706
rhoer	-11.4706
▁katimtim	-11.4706
▁katononan	-11.4706
▁kiSnoSa	-11.4706
▁monoSpat	-11.4706
困擾	-11.4706
巫術	-11.4706
扇	-11.4706
用手摸	-11.4706
漂浮	-11.4706
▁bonong	-11.4706
▁nisya	-11.4706
▁你爸爸叫	-11.4706
▁你爸爸很	-11.4706
▁我跟爸爸	-11.4706
吼	-11.4706
怒	-11.4706
息	-11.4706
我今天從	-11.4706
捆	-11.4706
滴在桌上	-11.4706
的尾椎	-11.4706
眷	-11.4706
第三天	-11.4706
被車子撞到	-11.4706
補	-11.4706
跟媽媽說	-11.4706
▁kahirhir	-11.4706
橋樑	-11.4706
練	-11.4706
▁span	-11.4707
宣言	-11.4707
川燙	-11.4707
誠	-11.4707
他的名字叫	-11.4707
胎	-11.4707
這把刀	-11.4707
kiyawan	-11.4707
tatezek	-11.4707
▁konkononan	-11.4707
iyakaliyaeh	-11.4707
▁小山豬來到	-11.4707
去看病	-11.4707
喜歡用左手的人	-11.4707
建築	-11.4707
旋律	-11.4707
暑假	-11.4707
糾	-11.4707
藉	-11.4707
駐	-11.4707
堅持	-11.4707
冒煙	-11.4707
沒想到	-11.4707
融化	-11.4707
▁babaton	-11.4707
▁marke	-11.4707
我以為是	-11.4707
配偶	-11.4707
patnonaken	-11.4707
公司	-11.4707
吹奏	-11.4707
從一到	-11.4707
抗	-11.4707
舉辦	-11.4707
麻雀	-11.4707
▁linotor	-11.4707
toroyen	-11.4707
商店	-11.4707
▁poSiyan	-11.4707
如果有誰	-11.4707
piSiyan	-11.4707
▁hapapong	-11.4707
▁kayzah	-11.4707
bozos	-11.4707
▁Sbalay	-11.4707
不知情	-11.4707
疼惜	-11.4707
不容易	-11.4707
你就穿	-11.4707
城市	-11.4707
持續	-11.4707
歪歪	-11.4707
遇難	-11.4707
避免	-11.4707
鍋巴	-11.4707
領袖	-11.4707
▁pinasayan	-11.4707
要帶小孩	-11.4707
50	-11.4707
後代子孫	-11.4707
laze	-11.4707
服喪期間	-11.4707
▁tangtang	-11.4707
搖晃	-11.4707
嚴重	-11.4707
害羞	-11.4707
疫情	-11.4707
實際	-11.4707
的想法不	-11.4707
贈送	-11.4707
▁rolrol	-11.4707
▁malnoSay	-11.4707
命令	-11.4707
疲	-11.4707
okizok	-11.4707
▁tilkoraeh	-11.4707
曾祖父	-11.4707
強勢	-11.4707
整齊	-11.4707
▁wawarang	-11.4707
絲瓜	-11.4707
我肚子餓了	-11.4707
▁我問他	-11.4707
森	-11.4707
歌星	-11.4707
鐵釘	-11.4707
餅乾	-11.4707
tokoh	-11.4707
乾燥	-11.4707
tokol	-11.4707
飲料	-11.4707
▁moehae	-11.4707
溝通	-11.4707
無故丟東西	-11.4707
攀爬	-11.4707
雲層	-11.4707
部落裡的	-11.4707
共飲	-11.4707
彎曲	-11.4707
抓到的	-11.4707
拖	-11.4707
有愈來愈多	-11.4707
犯	-11.4707
磨山刀	-11.4707
▁tezek	-11.4707
剖開	-11.4707
發言	-11.4707
輪流	-11.4707
影響	-11.4707
▁pangrang	-11.4707
淋雨	-11.4707
啃骨頭	-11.4707
魚鱗	-11.4707
lamlamlam	-11.4707
出太陽了	-11.4707
▁kinhino	-11.4707
失望	-11.4707
果蒂	-11.4707
雪豆	-11.4707
▁miyaralom	-11.4707
錄影	-11.4707
單位	-11.4707
ngkang	-11.4707
入倉	-11.4707
▁sinamoehan	-11.4707
預先	-11.4707
月亮出現了	-11.4707
▁tinektek	-11.4707
趕緊	-11.4707
覆蓋	-11.4707
▁kiraeh	-11.4707
▁kiyokay	-11.4707
kopiyaken	-11.4707
牛樟	-11.4707
連接	-11.4707
▁hoemang	-11.4708
幹什麼	-11.4708
▁konleng	-11.4708
第一天	-11.4708
雨鞋	-11.4708
的背後	-11.4708
期望	-11.4708
▁kaphoel	-11.4708
某物	-11.4708
樹幹	-11.4708
無須	-11.4708
抬不動	-11.4708
每天都很	-11.4708
表示	-11.4708
行李	-11.4708
認同	-11.4708
Sipoten	-11.4708
扛不動	-11.4708
等候	-11.4708
野餐	-11.4708
oeral	-11.4708
舉行播種祭	-11.4708
▁那位小姐	-11.4708
往上推	-11.4708
期待	-11.4708
▁pawbabih	-11.4708
風景	-11.4708
oezong	-11.4708
ilkasnaw	-11.4708
脫皮	-11.4708
圍牆	-11.4708
散落	-11.4708
bolbol	-11.4708
砍柴	-11.4708
言學會議	-11.4708
記錄	-11.4708
農藥	-11.4708
自己的能力	-11.4708
▁hewel	-11.4708
▁小孩子睡覺	-11.4708
民族	-11.4708
當初	-11.4708
混合	-11.4708
放在籃子裡	-11.4708
薪水	-11.4708
阿婆	-11.4708
染料	-11.4708
赤皮	-11.4708
▁今天星期	-11.4708
▁malaehang	-11.4708
火柴	-11.4708
▁lalawir	-11.4708
▁hayawan	-11.4708
三次	-11.4708
在吃芋頭	-11.4708
東方	-11.4708
去森林裡	-11.4708
一串	-11.4708
總理	-11.4708
拍照	-11.4708
線條	-11.4708
整平	-11.4709
哪兒	-11.4709
舉行祖靈祭	-11.4709
收義子	-11.4709
山谷	-11.4709
冰冷	-11.4709
各族群	-11.4709
▁papor	-11.4709
生薑	-11.4709
打開窗戶	-11.4709
咬不動	-11.4709
的衣服是紅色的	-11.4709
教官	-11.4709
▁我們去打	-11.4709
管理	-11.4709
柚子	-11.4709
追趕	-11.4709
▁tinrong	-11.4709
跪下	-11.4709
貪心	-11.4709
部份	-11.4709
第一次	-11.4709
金錢	-11.4709
槍枝	-11.4709
相互和解	-11.4709
potoS	-11.4709
paskaykayzaeh	-11.4709
數字	-11.4709
▁roehaena	-11.4709
kohngapen	-11.471
各姓氏	-11.471
破洞	-11.471
摔下來	-11.471
真漂亮	-11.471
交通	-11.471
集合	-11.471
祈求祖先	-11.471
神靈	-11.471
義子女	-11.471
摔斷	-11.471
請開門	-11.471
兩次	-11.471
相聚	-11.471
▁tikaehaew	-11.471
卡住	-11.471
iyapina	-11.471
▁honayhini	-11.471
▁homamez	-11.471
直立	-11.471
ypiyaw	-11.471
招手	-11.471
各國	-11.471
▁karakepen	-11.471
▁tawpo	-11.471
▁我要把飯	-11.471
分工	-11.471
用力地	-11.471
收養者	-11.471
瘦肉	-11.471
右邊	-11.471
基地	-11.471
棒球	-11.471
水盆	-11.471
iyabolalas	-11.471
歌唱	-11.471
眾多	-11.4711
發明	-11.4711
千年	-11.4711
最早	-11.4711
耳光	-11.4711
好多好多	-11.4711
eweng	-11.4711
自己的語言	-11.4711
馬路	-11.4711
五元	-11.4711
的每一個	-11.4711
背袋	-11.4711
借的錢	-11.4711
綁芒草	-11.4711
▁他們二個	-11.4711
倒茶	-11.4711
▁Soyah	-11.4711
回到家裡	-11.4711
翻身	-11.4711
裝入	-11.4712
即將	-11.4712
感到非常	-11.4712
握著	-11.4712
互相幫助	-11.4712
你會被我	-11.4712
▁hisia	-11.4712
子孫	-11.4712
賽夏族的文化	-11.4712
扣好	-11.4712
大豐收	-11.4712
魚簍	-11.4713
曬乾	-11.4713
加入	-11.4713
接受	-11.4713
其它	-11.4713
懂得	-11.4713
▁hatak	-11.4713
祭主	-11.4713
▁你的牙齒	-11.4713
離別	-11.4713
sinapoeh	-11.4713
有人經過	-11.4713
▁hisya	-11.4713
八十	-11.4713
穿鞋子	-11.4713
▁SaSokayzaeh	-11.4713
枯乾	-11.4713
染色	-11.4713
慢慢的走	-11.4714
什麼都不會	-11.4714
配菜	-11.4714
重新	-11.4714
▁天色	-11.4714
隔天	-11.4714
看見一隻	-11.4714
▁男用	-11.4714
不要讓別人	-11.4714
沿著山	-11.4714
抓癢	-11.4714
▁tawyaeh	-11.4714
造成	-11.4714
滑行	-11.4715
準備晚餐	-11.4715
都賣完了	-11.4715
陷阱抓	-11.4715
推動	-11.4715
所說的話	-11.4715
碗飯	-11.4715
從那時候	-11.4715
採收	-11.4715
草地上	-11.4715
就可以當	-11.4716
餵雞	-11.4716
honroton	-11.4716
中餐	-11.4716
合作	-11.4716
架子	-11.4716
扣子	-11.4716
削水果	-11.4716
白色的衣服	-11.4716
沒有文字	-11.4716
鹿場	-11.4716
▁那隻雞	-11.4716
▁多吃	-11.4716
屋外	-11.4716
決定將	-11.4717
給予	-11.4717
相關	-11.4717
▁homayaw	-11.4717
跑走了	-11.4717
書寫	-11.4717
推倒	-11.4717
男女	-11.4717
▁paehraehraeng	-11.4717
還記得	-11.4717
往生	-11.4717
草原	-11.4717
除草	-11.4717
獵刀	-11.4717
很吵	-11.4717
站起來	-11.4717
聞起來	-11.4717
▁小孩嚇到了	-11.4717
射中	-11.4717
▁不要碰	-11.4717
或者	-11.4717
嫁人了	-11.4717
▁kontotolon	-11.4717
姓氏為	-11.4717
很快地	-11.4717
taStaS	-11.4718
pasiz	-11.4718
茶樹	-11.4718
頭飾	-11.4718
醃菜	-11.4718
產生	-11.4718
含著	-11.4718
emleb	-11.4718
一直都沒有	-11.4718
以往	-11.4718
▁Sopan	-11.4718
木耳	-11.4718
擦一下	-11.4718
opaS	-11.4718
konibih	-11.4718
被禁止	-11.4719
公雞	-11.4719
自行	-11.4719
▁paklobih	-11.4719
注意到	-11.4719
炒菜	-11.4719
母狗	-11.4719
▁kaklang	-11.4719
使其	-11.4719
可以做成	-11.4719
結婚後	-11.4719
其中一	-11.4719
織布機	-11.472
不要忘記我們	-11.472
會傳染	-11.472
煮晚餐	-11.472
吃看看	-11.472
留住	-11.4721
▁我們也要	-11.4721
▁kakayzaehan	-11.4721
分送	-11.4721
看星星	-11.4721
全都	-11.4721
為此	-11.4721
▁kintikot	-11.4721
祖先們	-11.4721
三十	-11.4722
大約	-11.4722
▁romok	-11.4722
也不錯	-11.4722
放太多	-11.4722
遠一點	-11.4722
我來看你	-11.4722
很好聽	-11.4722
進門	-11.4722
牛肉	-11.4722
時代	-11.4723
▁你從哪裡來	-11.4723
omazip	-11.4723
學習織布	-11.4723
▁不要亂	-11.4723
上坡	-11.4723
▁tawbonen	-11.4723
山藥	-11.4723
▁hahazab	-11.4723
一直吐	-11.4723
洗腳	-11.4723
很厚	-11.4724
向誰	-11.4724
一句	-11.4725
▁Sakaykayzaeh	-11.4725
一籃	-11.4725
哪些人	-11.4725
遠的地方	-11.4725
tomiyaw	-11.4726
爭著	-11.4726
獵山豬	-11.4726
tapaeh	-11.4726
往後	-11.4726
▁kamator	-11.4726
kaykayzaeh	-11.4727
什麼時間	-11.4727
拿槍	-11.4727
米蟲	-11.4727
▁Balay	-11.4727
kamamarmaraS	-11.4727
▁pawt	-11.4728
▁hinkik	-11.4728
我們家的	-11.4728
這支	-11.4729
▁你的臉	-11.4729
手指	-11.4729
怎麼都不	-11.4729
但是卻	-11.473
笑得	-11.473
也經常	-11.473
▁妳有	-11.473
抱小孩	-11.473
把碗	-11.4731
沒有牙齒	-11.4731
▁kongk	-11.4731
要結婚了	-11.4731
▁很快的	-11.4731
把披	-11.4731
▁tokaw	-11.4731
kme	-11.4732
我要回家了	-11.4732
那一邊	-11.4732
生火	-11.4732
▁SikaS	-11.4733
暖和	-11.4733
燒起來	-11.4733
這片	-11.4734
▁biyas	-11.4734
場地	-11.4734
雞蛋	-11.4734
▁你播	-11.4734
不要讓它	-11.4734
打包	-11.4735
▁nganga	-11.4735
不相信	-11.4735
他是個	-11.4735
割到	-11.4736
跳高	-11.4736
腳步	-11.4737
祖先所	-11.4737
不能再	-11.4737
爬樹	-11.4738
等等	-11.4738
帶走了	-11.4738
爬上去	-11.4739
見到	-11.4739
▁konon	-11.4739
打糯米糕	-11.474
影子	-11.474
很癢	-11.474
▁kowaS	-11.474
入水	-11.4741
▁tawy	-11.4742
iyayan	-11.4742
死後	-11.4742
兩種	-11.4742
早上到	-11.4742
女人們	-11.4743
她看到了	-11.4743
更好的	-11.4744
▁人如果	-11.4744
小刀	-11.4745
▁tinabo	-11.4746
山豬肉	-11.4746
請給我	-11.4746
外出	-11.4747
我們的傳統	-11.4749
aras	-11.4749
一起住	-11.4749
▁tingo	-11.4749
洗頭	-11.475
nlakay	-11.475
養很多	-11.475
要記得	-11.475
▁papol	-11.4751
▁颱風來了	-11.4751
你有錢	-11.4751
客人	-11.4753
才可以	-11.4753
快一點	-11.4753
得太	-11.4753
電腦上	-11.4753
▁我的狗是	-11.4753
香蕉樹	-11.4753
一起煮	-11.4754
torongon	-11.4756
pik	-11.4756
zas	-11.4756
只有一個	-11.4756
▁riha	-11.4757
▁孩子被	-11.4757
放回	-11.4757
把信	-11.4757
▁ponpo	-11.4758
多一點	-11.4761
還沒來	-11.4763
kaShaloeh	-11.4763
她在睡覺	-11.4763
▁Sital	-11.4763
你先走	-11.4769
kilih	-11.4776
SaSinay	-11.4777
▁kaksi	-11.4778
她的手	-11.4779
▁lomih	-11.4781
SaSbet	-11.4783
我的便當	-11.4783
有多少人	-11.4788
▁那是我的	-11.4789
在同一	-11.479
hapaeh	-11.4791
用力	-11.4791
的興趣是	-11.4791
我要把你	-11.4794
喜歡看電視	-11.4797
▁lam	-11.4799
小孩已	-11.48
她的小孩	-11.48
▁zom	-11.4801
那是地瓜	-11.4805
rater	-11.4809
有什麼東西	-11.4812
要跟隨	-11.4812
這就是	-11.4814
paepae	-11.4815
的背上	-11.4817
那不是	-11.4817
那個年輕人	-11.4822
不要留	-11.4823
hoel	-11.4823
上的一	-11.4823
你們的家	-11.4824
▁pawro	-11.4824
這個藥	-11.4827
跟朋友	-11.4828
你的褲子	-11.4841
Sibih	-11.4846
島上	-11.4853
kaSiray	-11.4859
樟樹	-11.4859
發動	-11.4861
餓死	-11.4863
▁貓頭鷹出來	-11.4868
很近	-11.4871
這些飯	-11.4873
燒黑	-11.4875
▁pinpap	-11.4887
你曾經	-11.4892
這土地	-11.4893
可以跟你	-11.4897
pilosnawen	-11.4901
nisiya	-11.4917
kakoring	-11.4934
▁Sawik	-11.4952
▁hinora	-11.4968
要去哪	-11.4968
▁palah	-11.4972
▁rilang	-11.4973
我的父親	-11.4976
你的書	-11.4993
這些樹	-11.5002
很粗	-11.5014
mes	-11.5017
一場	-11.5058
▁我喜歡吃	-11.5077
放涼	-11.5092
在日本	-11.5093
你的腳	-11.5097
綁好	-11.5114
patabilan	-11.5123
鎖好	-11.5146
很瘦	-11.5146
富有	-11.5156
做糕	-11.5161
是我的朋友	-11.5175
糖吃	-11.5193
▁錢被	-11.5245
kaktikot	-11.5257
可以出去玩	-11.5287
▁monSaySa	-11.5297
hmek	-11.5332
放熟	-11.5355
沒有找到	-11.5357
你放的	-11.5397
▁提起	-11.543
們天天來這裡吃晚餐	-11.5466
sep	-11.5484
做完	-11.5505
很怕	-11.5515
很貴	-11.5522
yoko	-11.5526
可以找到	-11.5556
團聚	-11.558
mek	-11.5586
▁Sipant	-11.5615
燒掉	-11.5674
pakSiyae	-11.5737
舉起	-11.5766
arap	-11.5808
parp	-11.5848
田裡有很多	-11.587
種的地瓜	-11.5887
什麼東西都	-11.5904
▁hahingh	-11.5906
方面	-11.5976
射下	-11.5995
酒醉	-11.5997
想回家	-11.6015
沒有辦法	-11.6045
往下看	-11.6095
▁pinot	-11.6104
是我的老師	-11.6109
可以用來	-11.6113
翻過	-11.6147
aytiway	-11.6158
道路	-11.6196
payka	-11.62
沒有奶	-11.6248
軍人	-11.627
一起唱歌	-11.6275
awik	-11.6283
asap	-11.6315
▁我要回去	-11.6318
有白色	-11.6414
記起	-11.6431
那張椅子很	-11.6442
弄得	-11.6503
的鞋子	-11.669
到哪裡去	-11.6774
▁kams	-11.6825
▁那張椅子	-11.6982
壞掉的	-11.7027
我有兩	-11.705
▁kamt	-11.7101
roS	-11.7187
eken	-11.7187
tikot	-11.7219
000	-11.7223
謠	-11.7425
飛過	-11.7435
Skir	-11.7491
hewen	-11.7583
kaSnay	-11.7591
langpez	-11.7594
pinatiyayan	-11.7597
kaSikar	-11.7602
hinbetel	-11.7604
taheS	-11.7608
rareme	-11.7615
sopaloy	-11.7617
kaspengan	-11.7624
korkoring	-11.7626
這是我種的	-11.7627
tatpo	-11.7633
manman	-11.7636
kaSlatar	-11.7644
komoSa	-11.7767
▁minminha	-11.7773
tw	-11.794
性生殖器	-11.7991
▁kont	-11.8004
候	-11.81
otor	-11.8204
lasia	-11.8212
從別	-11.8364
衣服上的	-11.8416
0000	-11.8451
▁paSpaS	-11.8504
miyaw	-11.8705
得懂嗎	-11.8732
pahobaz	-11.8747
▁pilosnaw	-11.8909
▁Sebet	-11.8954
樟	-11.8971
家有幾	-11.8973
▁你的工作是	-11.9049
▁SinSinraeho	-11.9061
▁Sinorater	-11.9079
▁lasiy	-11.9122
他們家有	-11.9142
▁滿滿	-11.9146
pihiz	-11.9166
棉	-11.917
▁我有一個哥哥	-11.9173
marmaraS	-11.9174
曾	-11.918
howiS	-11.9184
孫	-11.9188
產	-11.9189
ehraehraeng	-11.9189
▁horor	-11.919
盆	-11.9191
雄	-11.9195
論	-11.9195
panpangih	-11.9195
遇	-11.9196
底	-11.9197
這場戰爭	-11.9197
▁快樂王子拜託燕子	-11.9197
繩	-11.9197
psip	-11.9198
何	-11.9199
▁somingoz	-11.92
溝	-11.92
漏	-11.92
▁kakayza	-11.92
巴	-11.92
啼	-11.9202
跪	-11.9202
▁撒奇萊雅	-11.9202
tipangih	-11.9203
蝨	-11.9203
谷	-11.9203
秋	-11.9203
擾	-11.9203
五個語系	-11.9203
歸	-11.9203
娘	-11.9203
輩	-11.9204
ektek	-11.9204
intawaeh	-11.9204
ngesel	-11.9204
掀	-11.9204
墾	-11.9204
始	-11.9204
茅	-11.9204
玉	-11.9204
答	-11.9204
稀	-11.9204
淚	-11.9205
q	-11.9205
亞	-11.9205
南亞語系	-11.9205
應	-11.9205
育	-11.9205
複	-11.9205
tinSiya	-11.9205
焦	-11.9205
際	-11.9205
校	-11.9205
寮	-11.9205
迎	-11.9205
添	-11.9205
蟻	-11.9205
姊妹	-11.9205
慘	-11.9205
友	-11.9205
淋	-11.9205
宣	-11.9205
okrok	-11.9205
覆	-11.9205
輪	-11.9205
鼻涕	-11.9205
增	-11.9205
防	-11.9205
裹	-11.9205
院	-11.9206
協	-11.9206
祈	-11.9206
籐	-11.9206
攀	-11.9206
糧	-11.9206
mbet	-11.9206
繡	-11.9206
塵	-11.9206
打工者	-11.9206
約莫	-11.9206
alaehang	-11.9206
▁maySoSo	-11.9206
眉	-11.9206
例	-11.9206
偶爾	-11.9206
既	-11.9206
蔥	-11.9206
讚	-11.9206
犁	-11.9206
礙	-11.9206
變得越來越	-11.9206
什麼時候要還	-11.9206
充	-11.9206
一次的飛行	-11.9206
哥	-11.9206
女權運動	-11.9206
汲	-11.9206
嫂	-11.9206
羞	-11.9206
堵	-11.9206
晃	-11.9206
仍	-11.9206
消	-11.9206
菇	-11.9206
授	-11.9206
揀	-11.9206
顧	-11.9206
侵	-11.9206
膜	-11.9206
霧	-11.9206
屠	-11.9206
糊	-11.9206
縣	-11.9206
託	-11.9206
謝	-11.9206
必	-11.9206
偶	-11.9206
限	-11.9206
惜	-11.9206
恩	-11.9206
浴	-11.9206
遮	-11.9206
鬥	-11.9206
附	-11.9206
攻	-11.9206
脆	-11.9206
佛	-11.9206
佩	-11.9206
倘	-11.9206
值	-11.9206
冥	-11.9206
咕	-11.9206
患	-11.9206
撫	-11.9206
沃	-11.9206
積	-11.9206
迭	-11.9206
闖	-11.9206
霜	-11.9206
邪	-11.9206
士	-11.9206
巢	-11.9206
浮	-11.9206
纏	-11.9206
警	-11.9206
液	-11.9206
灶	-11.9206
凱	-11.9206
嗆	-11.9206
慰	-11.9206
憂	-11.9206
挪	-11.9206
搞	-11.9206
摩	-11.9206
擬	-11.9206
睜	-11.9206
衫	-11.9206
誡	-11.9206
辨	-11.9206
徹	-11.9206
挑	-11.9206
週	-11.9206
凹	-11.9206
守	-11.9206
隆	-11.9206
《	-11.9206
倫	-11.9206
勒	-11.9206
妨	-11.9206
徑	-11.9206
戀	-11.9206
楊	-11.9206
檔	-11.9206
瘀	-11.9206
筋	-11.9206
緯	-11.9206
聾	-11.9206
賜	-11.9206
轟	-11.9206
垢	-11.9206
尾	-11.9206
延	-11.9206
j	-11.9206
墊	-11.9206
拌	-11.9206
窄	-11.9206
趟	-11.9206
嗡	-11.9206
@	-11.9206
L	-11.9206
x	-11.9206
ʔ	-11.9206
』	-11.9206
乖	-11.9206
伏	-11.9206
俯	-11.9206
倦	-11.9206
僅	-11.9206
凌	-11.9206
凝	-11.9206
划	-11.9206
勁	-11.9206
匯	-11.9206
呆	-11.9206
啞	-11.9206
喻	-11.9206
嗚	-11.9206
嘬	-11.9206
填	-11.9206
境	-11.9206
寒	-11.9206
寸	-11.9206
尺	-11.9206
崇	-11.9206
巧	-11.9206
徒	-11.9206
憤	-11.9206
憶	-11.9206
扎	-11.9206
扒	-11.9206
扯	-11.9206
抹	-11.9206
拾	-11.9206
揚	-11.9206
斯	-11.9206
旺	-11.9206
核	-11.9206
梆	-11.9206
欸	-11.9206
波	-11.9206
淺	-11.9206
測	-11.9206
煉	-11.9206
煎	-11.9206
燉	-11.9206
營	-11.9206
爽	-11.9206
獸	-11.9206
症	-11.9206
痰	-11.9206
瘤	-11.9206
癬	-11.9206
登	-11.9206
皺	-11.9206
盈	-11.9206
眶	-11.9206
瞧	-11.9206
端	-11.9206
筐	-11.9206
翼	-11.9206
耐	-11.9206
聳	-11.9206
肝	-11.9206
腹	-11.9206
臥	-11.9206
航	-11.9206
莢	-11.9206
萁	-11.9206
蘆	-11.9206
虛	-11.9206
蛤	-11.9206
蟬	-11.9206
蠻	-11.9206
街	-11.9206
覓	-11.9206
誦	-11.9206
諒	-11.9206
贅	-11.9206
里	-11.9206
銳	-11.9206
闊	-11.9206
障	-11.9206
餌	-11.9206
鰍	-11.9206
鰻	-11.9206
鴒	-11.9206
悄	-11.9206
拆	-11.9206
欲	-11.9206
歇	-11.9206
澎	-11.9206
牢	-11.9206
逛	-11.9206
》	-11.9206
冠	-11.9206
勵	-11.9206
哦	-11.9206
搜	-11.9206
擅	-11.9206
淤	-11.9206
渦	-11.9206
溼	-11.9206
誘	-11.9206
豹	-11.9206
趨	-11.9206
陡	-11.9206
樓	-11.9206
簡	-11.9206
媒	-11.9206
裸	-11.9206
貧	-11.9206
乏	-11.9207
吟	-11.9207
啣	-11.9207
嶺	-11.9207
戳	-11.9207
杞	-11.9207
株	-11.9207
澄	-11.9207
籩	-11.9207
茸	-11.9207
諸	-11.9207
返	-11.9207
飄	-11.9207
稚	-11.9207
獎	-11.9207
創	-11.9207
募	-11.9207
匆	-11.9207
幸	-11.9207
析	-11.9207
麴	-11.9207
奔	-11.9207
墜	-11.9207
盟	-11.9207
碳	-11.9207
呱	-11.9207
克	-11.9207
古	-12.0435
倆	-12.3316
姻	-12.4216
氏	-12.5901
B	-12.595
祖	-12.6951
朱	-12.7063
噎	-12.7454
肯	-12.7475
桌	-12.7511
遊	-12.7512
撕	-12.7525
柿	-12.7527
裙	-12.753
柚	-12.7531
幹	-12.7532
串	-12.7532
晴	-12.7533
課	-12.7533
沿	-12.7533
薪	-12.7533
洪	-12.7533
班	-12.7533
泉	-12.7534
震	-12.7535
芋	-12.7536
崖	-12.7536
決	-12.7536
舍	-12.7536
攜	-12.7537
喚	-12.7537
預	-12.7537
鱗	-12.7537
筌	-12.7537
溢	-12.7537
剖	-12.7537
尋	-12.7537
鷹	-12.7537
私	-12.7537
侗	-12.7537
促	-12.7537
瑤	-12.7537
逢	-12.7537
邀	-12.7537
訪	-12.7537
賽	-12.7538
司	-12.7538
郎	-12.7538
翔	-12.7538
餅	-12.7538
典	-12.7538
贈	-12.7538
焰	-12.7538
跛	-12.7538
燥	-12.7538
哀	-12.7538
志	-12.7538
虎	-12.7538
奮	-12.7538
燃	-12.7538
芎	-12.7538
嚴	-12.7538
臨	-12.7538
駝	-12.7539
筍	-12.7539
蛻	-12.7539
艘	-12.7539
踐	-12.7539
筒	-12.7539
濛	-12.7539
頑	-12.7539
桶	-12.7539
蝗	-12.7539
畢	-12.7539
商	-12.7539
穫	-12.7539
飼	-12.7539
呼	-12.7539
融	-12.7539
喪	-12.7539
屎	-12.7539
庭	-12.7539
律	-12.7539
甚	-12.7539
止	-12.7539
傑	-12.7539
勝	-12.7539
匕	-12.7539
弩	-12.7539
憑	-12.7539
緬	-12.7539
蓮	-12.7539
諾	-12.7539
辜	-12.7539
鏢	-12.7539
隸	-12.7539
柯	-12.7539
昏	-12.7539
炎	-12.7539
逗	-12.7539
顯	-12.7539
永	-12.7539
睛	-12.7539
雀	-12.7539
鉛	-12.7539
束	-12.7539
冒	-12.7539
禁	-12.7539
啪	-12.7539
蛙	-12.7539
旋	-12.7539
鄰	-12.7539
勉	-12.7539
旱	-12.7539
築	-12.7539
蔓	-12.7539
莫	-12.7539
賴	-12.7539
序	-12.7539
奏	-12.7539
浸	-12.7539
固	-12.7539
廢	-12.7539
競	-12.7539
儘	-12.7539
咸	-12.7539
威	-12.7539
彷	-12.7539
彿	-12.7539
拯	-12.7539
旅	-12.7539
樑	-12.7539
汪	-12.7539
渡	-12.7539
湧	-12.7539
玫	-12.7539
瑰	-12.7539
甸	-12.7539
繳	-12.7539
聖	-12.7539
脅	-12.7539
誌	-12.7539
諉	-12.7539
唇	-12.7539
戲	-12.7539
禱	-12.7539
朽	-12.7539
悲	-12.7539
姑	-12.7539
敗	-12.7539
演	-12.7539
眠	-12.7539
襲	-12.7539
暑	-12.7539
察	-12.7539
川	-12.7539
擇	-12.7539
妹	-12.7539
爾	-12.7539
益	-12.7539
腋	-12.7539
續	-12.7539
批	-12.754
雕	-12.754
呈	-12.754
呦	-12.754
囚	-12.754
妙	-12.754
局	-12.754
彌	-12.754
役	-12.754
徘	-12.754
愁	-12.754
挨	-12.754
狠	-12.754
癲	-12.754
祥	-12.754
窪	-12.754
繪	-12.754
莎	-12.754
註	-12.754
詳	-12.754
貿	-12.754
鏈	-12.754
骯	-12.754
鶯	-12.754
索	-12.754
垂	-12.754
恐	-12.754
郵	-12.754
巫	-12.754
庫	-12.754
趣	-12.754
涕	-12.754
財	-12.754
勞	-12.754
悉	-12.754
訓	-12.754
冊	-12.754
咻	-12.754
哄	-12.754
噢	-12.754
坍	-12.754
坦	-12.754
姪	-12.754
弱	-12.754
徵	-12.754
捷	-12.754
施	-12.754
栓	-12.754
桑	-12.754
椎	-12.754
椰	-12.754
椹	-12.754
歐	-12.754
毯	-12.754
湊	-12.754
烘	-12.754
狐	-12.754
狸	-12.754
珠	-12.754
秘	-12.754
稜	-12.754
窟	-12.754
緩	-12.754
繭	-12.754
纖	-12.754
胯	-12.754
膏	-12.754
芳	-12.754
葫	-12.754
褸	-12.754
襤	-12.754
蹄	-12.754
辯	-12.754
采	-12.754
銹	-12.754
鼬	-12.754
干	-12.754
技	-12.754
污	-12.754
略	-12.754
螞	-12.754
遵	-12.754
誤	-12.754
佇	-12.754
卦	-12.754
喙	-12.754
嗝	-12.754
拴	-12.754
挽	-12.754
疾	-12.754
痔	-12.754
矯	-12.754
詹	-12.754
誣	-12.754
釦	-12.754
掩	-12.754
嘛	-12.754
懸	-12.754
繁	-12.754
肺	-12.754
衍	-12.754
妝	-12.754
梯	-12.754
H	-12.754
I	-12.754
^	-12.754
{	-12.754
}	-12.754
丸	-12.754
亢	-12.754
亦	-12.754
仆	-12.754
仰	-12.754
仲	-12.754
伍	-12.754
佔	-12.754
偎	-12.754
債	-12.754
傻	-12.754
兌	-12.754
兜	-12.754
冀	-12.754
凳	-12.754
刊	-12.754
劃	-12.754
勃	-12.754
勺	-12.754
匹	-12.754
卓	-12.754
厄	-12.754
叛	-12.754
召	-12.754
吻	-12.754
呂	-12.754
啕	-12.754
啤	-12.754
喧	-12.754
嗅	-12.754
嗣	-12.754
嘆	-12.754
噘	-12.754
嚀	-12.754
嚷	-12.754
囫	-12.754
圃	-12.754
圇	-12.754
坑	-12.754
壩	-12.754
夷	-12.754
媳	-12.754
嫌	-12.754
嬉	-12.754
嬤	-12.754
宋	-12.754
宮	-12.754
寂	-12.754
岬	-12.754
峻	-12.754
峽	-12.754
崎	-12.754
巒	-12.754
帕	-12.754
幻	-12.754
弛	-12.754
弦	-12.754
弧	-12.754
征	-12.754
徊	-12.754
德	-12.754
怠	-12.754
悠	-12.754
悵	-12.754
惆	-12.754
愧	-12.754
態	-12.754
慎	-12.754
憩	-12.754
懈	-12.754
懼	-12.754
戮	-12.754
扁	-12.754
拐	-12.754
拒	-12.754
振	-12.754
挾	-12.754
捧	-12.754
掙	-12.754
控	-12.754
措	-12.754
揍	-12.754
損	-12.754
搏	-12.754
搥	-12.754
撤	-12.754
撥	-12.754
撬	-12.754
撼	-12.754
擴	-12.754
攔	-12.754
攬	-12.754
斬	-12.754
朴	-12.754
杈	-12.754
枉	-12.754
枓	-12.754
柔	-12.754
梓	-12.754
梗	-12.754
楠	-12.754
榆	-12.754
槓	-12.754
槳	-12.754
檜	-12.754
櫚	-12.754
櫟	-12.754
款	-12.754
殖	-12.754
毀	-12.754
毆	-12.754
汙	-12.754
江	-12.754
沫	-12.754
沸	-12.754
泊	-12.754
浦	-12.754
淅	-12.754
淆	-12.754
渣	-12.754
渾	-12.754
湍	-12.754
滌	-12.754
漫	-12.754
潑	-12.754
潛	-12.754
潰	-12.754
激	-12.754
濃	-12.754
濘	-12.754
瀆	-12.754
瀉	-12.754
瀝	-12.754
災	-12.754
煞	-12.754
爍	-12.754
爲	-12.754
牧	-12.754
獾	-12.754
瑣	-12.754
甩	-12.754
畚	-12.754
疙	-12.754
疹	-12.754
痘	-12.754
痠	-12.754
瘍	-12.754
瘩	-12.754
癒	-12.754
癩	-12.754
盯	-12.754
盲	-12.754
盹	-12.754
眺	-12.754
督	-12.754
睨	-12.754
睹	-12.754
瞇	-12.754
瞞	-12.754
瞰	-12.754
瞼	-12.754
矛	-12.754
砂	-12.754
砌	-12.754
砥	-12.754
碩	-12.754
碴	-12.754
碾	-12.754
磅	-12.754
磕	-12.754
礁	-12.754
礎	-12.754
礪	-12.754
祕	-12.754
禽	-12.754
稿	-12.754
笙	-12.754
符	-12.754
笨	-12.754
箕	-12.754
簇	-12.754
粥	-12.754
粽	-12.754
糬	-12.754
純	-12.754
紗	-12.754
素	-12.754
絡	-12.754
綜	-12.754
綴	-12.754
羡	-12.754
耀	-12.754
肋	-12.754
胛	-12.754
胞	-12.754
脂	-12.754
脈	-12.754
腔	-12.754
膊	-12.754
臊	-12.754
舂	-12.754
芙	-12.754
苳	-12.754
茲	-12.754
茹	-12.754
莿	-12.754
菖	-12.754
葦	-12.754
葬	-12.754
蒐	-12.754
蓉	-12.754
蓬	-12.754
蕗	-12.754
蕪	-12.754
薦	-12.754
藻	-12.754
蘊	-12.754
虧	-12.754
蚱	-12.754
蛹	-12.754
蜊	-12.754
蜢	-12.754
蜱	-12.754
蝕	-12.754
蝪	-12.754
蝸	-12.754
螯	-12.754
螺	-12.754
蟆	-12.754
袒	-12.754
褻	-12.754
襟	-12.754
襠	-12.754
訣	-12.754
誇	-12.754
誓	-12.754
誼	-12.754
謾	-12.754
證	-12.754
譴	-12.754
豚	-12.754
貌	-12.754
販	-12.754
賀	-12.754
賒	-12.754
賦	-12.754
赴	-12.754
趾	-12.754
躁	-12.754
躍	-12.754
輔	-12.754
輛	-12.754
輾	-12.754
違	-12.754
遞	-12.754
遣	-12.754
醋	-12.754
鈍	-12.754
鈕	-12.754
銜	-12.754
鋼	-12.754
鎬	-12.754
鏟	-12.754
鑰	-12.754
鑲	-12.754
閩	-12.754
闔	-12.754
陀	-12.754
陌	-12.754
陳	-12.754
霄	-12.754
霉	-12.754
韭	-12.754
饋	-12.754
饒	-12.754
饗	-12.754
髓	-12.754
鬚	-12.754
鰓	-12.754
鱉	-12.754
鴞	-12.754
鶺	-12.754
龐	-12.754
澗	-12.754
徙	-12.754
梭	-12.754
濾	-12.754
睪	-12.754
縐	-12.754
蛔	-12.754
踝	-12.754
錦	-12.754
壺	-12.754
冇	-12.754
刑	-12.754
劑	-12.754
勘	-12.754
嘟	-12.754
嬌	-12.754
帝	-12.754
帥	-12.754
忪	-12.754
惠	-12.754
惺	-12.754
懇	-12.754
枅	-12.754
桂	-12.754
械	-12.754
榚	-12.754
芫	-12.754
蚣	-12.754
蜈	-12.754
螽	-12.754
蟴	-12.754
霾	-12.754
飪	-12.754
鷲	-12.754
飢	-12.754
─	-12.754
吱	-12.754
呸	-12.754
呻	-12.754
埃	-12.754
壤	-12.754
姿	-12.754
岔	-12.754
峙	-12.754
怨	-12.754
憲	-12.754
懟	-12.754
映	-12.754
漩	-12.754
猜	-12.754
瑟	-12.754
籌	-12.754
肆	-12.754
葩	-12.754
虐	-12.754
説	-12.754
謀	-12.754
糟	-12.754
紛	-12.754
佬	-12.754
倡	-12.754
啟	-12.754
噗	-12.754
契	-12.754
恃	-12.754
慌	-12.754
扮	-12.754
援	-12.754
毫	-12.754
爪	-12.754
琳	-12.754
盜	-12.754
盼	-12.754
簽	-12.754
粱	-12.754
紮	-12.754
荷	-12.754
褓	-12.754
襁	-12.754
銅	-12.754
尼	-12.7541
效	-12.7541
昆	-12.7541
氧	-12.7541
畔	-12.7541
瞬	-12.7541
績	-12.7541
抵	-12.7542
暮	-12.7542
茫	-12.7542
黨	-13.01
默	-13.0101
鵯	-13.0102
鴿	-13.0103
驗	-13.0104
駛	-13.0105
頒	-13.0106
韆	-13.0107
鞦	-13.0108
革	-13.0109
閣	-13.011
釁	-13.0111
醞	-13.0112
醜	-13.0113
酗	-13.0114
鄭	-13.0115
鄒	-13.0116
邵	-13.0117
輸	-13.0118
跺	-13.0119
贖	-13.012
豎	-13.0121
訝	-13.0122
訊	-13.0123
裳	-13.0124
衛	-13.0125
蛾	-13.0126
蛭	-13.0127
蕎	-13.0128
蔘	-13.0129
蓆	-13.013
葵	-13.0131
葡	-13.0132
葛	-13.0133
萵	-13.0134
萄	-13.0135
華	-13.0136
茂	-13.0137
苣	-13.0138
苔	-13.0139
芥	-13.014
臂	-13.0141
膨	-13.0142
腎	-13.0143
脹	-13.0144
羨	-13.0145
綿	-13.0146
糙	-13.0147
範	-13.0148
笠	-13.0149
穩	-13.015
禍	-13.0151
祠	-13.0152
疏	-13.0153
獠	-13.0154
狼	-13.0155
狹	-13.0156
犬	-13.0157
犧	-13.0158
爆	-13.0159
煽	-13.016
濟	-13.0161
漱	-13.0162
漆	-13.0163
滷	-13.0164
港	-13.0165
泣	-13.0166
況	-13.0167
殊	-13.0168
欣	-13.0169
欠	-13.017
櫥	-13.0171
櫃	-13.0172
槭	-13.0173
構	-13.0174
椏	-13.0175
棟	-13.0176
梧	-13.0177
桔	-13.0178
桐	-13.0179
栗	-13.018
柬	-13.0181
枴	-13.0182
枇	-13.0183
杷	-13.0184
杜	-13.0185
晨	-13.0186
昭	-13.0187
昔	-13.0188
昂	-13.0189
斧	-13.019
攝	-13.0191
操	-13.0192
撇	-13.0193
捻	-13.0194
捨	-13.0195
拳	-13.0196
拭	-13.0197
括	-13.0198
懲	-13.0199
憊	-13.02
惑	-13.0201
恢	-13.0202
恆	-13.0203
廠	-13.0204
崁	-13.0205
屍	-13.0206
寨	-13.0207
嫉	-13.0208
媾	-13.0209
奧	-13.021
塔	-13.0211
堪	-13.0212
囪	-13.0213
囑	-13.0214
囊	-13.0215
噶	-13.0216
嘿	-13.0217
嘔	-13.0218
啡	-13.0219
唯	-13.022
哈	-13.0221
咖	-13.0222
咐	-13.0223
史	-13.0224
匿	-13.0225
劍	-13.0226
兆	-13.0227
僵	-13.0228
佐	-13.0229
佈	-13.023
伯	-13.0231
仗	-13.0232
仁	-13.0233
乎	-13.0234
丘	-13.0235
丐	-13.0236
『	-13.0237
∅	-13.0238
\	-13.0239
F	-13.024
齡	-13.0241
鼯	-13.0242
鴉	-13.0243
髻	-13.0244
顫	-13.0245
韻	-13.0246
雌	-13.0247
鎚	-13.0248
銀	-13.0249
酢	-13.025
邏	-13.0251
遂	-13.0252
趙	-13.0253
賭	-13.0254
譯	-13.0255
誕	-13.0256
詢	-13.0257
裕	-13.0258
衡	-13.0259
藷	-13.026
蔭	-13.0261
莊	-13.0262
芝	-13.0263
脖	-13.0264
肘	-13.0265
聰	-13.0266
聆	-13.0267
耘	-13.0268
簿	-13.0269
篷	-13.027
秀	-13.0271
禿	-13.0272
祀	-13.0273
礦	-13.0274
矢	-13.0275
睫	-13.0276
皂	-13.0277
痕	-13.0278
疔	-13.0279
瓢	-13.028
瑞	-13.0281
狂	-13.0282
燼	-13.0283
灘	-13.0284
涵	-13.0285
殘	-13.0286
檸	-13.0287
檬	-13.0288
檢	-13.0289
榴	-13.029
椿	-13.0291
梁	-13.0292
查	-13.0293
柑	-13.0294
朗	-13.0295
曆	-13.0296
昌	-13.0297
掘	-13.0298
拇	-13.0299
截	-13.03
悔	-13.0301
彼	-13.0302
峭	-13.0303
屈	-13.0304
尚	-13.0305
奄	-13.0306
央	-13.0307
嘗	-13.0308
嗽	-13.0309
嗇	-13.031
喂	-13.0311
咳	-13.0312
咱	-13.0313
咪	-13.0314
卑	-13.0315
凍	-13.0316
准	-13.0317
允	-13.0318
佑	-13.0319
仿	-13.032
井	-13.0321
乳	-13.0322
v	-13.0323
龍	-13.0324
鷺	-13.0325
鷥	-13.0326
鯨	-13.0327
魯	-13.0328
鬍	-13.0329
頰	-13.033
雉	-13.0331
陸	-13.0332
鏽	-13.0333
鋒	-13.0334
銷	-13.0335
軋	-13.0336
蹲	-13.0337
購	-13.0338
詛	-13.0339
詐	-13.034
蠅	-13.0341
蚯	-13.0342
蚓	-13.0343
芹	-13.0344
舐	-13.0345
腥	-13.0346
脾	-13.0347
羽	-13.0348
罐	-13.0349
簷	-13.035
竊	-13.0351
礫	-13.0352
瞄	-13.0353
睦	-13.0354
瘟	-13.0355
畜	-13.0356
熄	-13.0357
瀑	-13.0358
澳	-13.0359
澈	-13.036
潘	-13.0361
檻	-13.0362
楚	-13.0363
暈	-13.0364
敞	-13.0365
敏	-13.0366
搔	-13.0367
悅	-13.0368
恨	-13.0369
彈	-13.037
康	-13.0371
屜	-13.0372
屏	-13.0373
婿	-13.0374
坪	-13.0375
嗦	-13.0376
咒	-13.0377
吉	-13.0378
儲	-13.0379
鳳	-13.038
魄	-13.0381
醬	-13.0382
蹈	-13.0383
貝	-13.0384
診	-13.0385
蠟	-13.0386
蟑	-13.0387
蟋	-13.0388
蟀	-13.0389
螂	-13.039
蝠	-13.0391
蝙	-13.0392
蜴	-13.0393
蜘	-13.0394
蛛	-13.0395
蚤	-13.0396
薩	-13.0397
蔬	-13.0398
蒼	-13.0399
腺	-13.04
羅	-13.0401
糠	-13.0402
究	-13.0403
瓦	-13.0404
燭	-13.0405
濁	-13.0406
漬	-13.0407
涉	-13.0408
段	-13.0409
椒	-13.041
杖	-13.0411
巡	-13.0412
娌	-13.0413
妯	-13.0414
妒	-13.0415
奚	-13.0416
嚥	-13.0417
叩	-13.0418
危	-13.0419
仔	-13.042
乞	-13.0421
丈	-13.0422
+	-13.0423
驕	-13.0424
逐	-13.0425
蕃	-13.0426
蔗	-13.0427
簧	-13.0428
筷	-13.0429
竿	-13.043
童	-13.0431
琴	-13.0432
牲	-13.0433
潮	-13.0434
武	-13.0435
榛	-13.0436
松	-13.0437
杉	-13.0438
懷	-13.0439
妻	-13.044
奪	-13.0441
執	-13.0442
咀	-13.0443
傲	-13.0444
Z	-13.0445
U	-13.0446
*	-13.0447
鐮	-13.0448
遲	-13.0449
諱	-13.045
蝴	-13.0451
薄	-13.0452
荽	-13.0453
臍	-13.0454
紹	-13.0455
籽	-13.0456
瞭	-13.0457
瞌	-13.0458
盡	-13.0459
棲	-13.046
梨	-13.0461
枕	-13.0462
廚	-13.0463
季	-13.0464
嫩	-13.0465
噁	-13.0466
P	-13.0467
餚	-13.0468
蚌	-13.0469
蘇	-13.047
缸	-13.0471
絆	-13.0472
珍	-13.0473
澆	-13.0474
智	-13.0475
慶	-13.0476
嶼	-13.0477
宜	-13.0478
塑	-13.0479
塌	-13.048
嚨	-13.0481
嘲	-13.0482
厲	-13.0483
兮	-13.0484
傍	-13.0485
迷	-13.0486
薏	-13.0487
苧	-13.0488
舌	-13.0489
社	-13.049
環	-13.0491
炫	-13.0492
涸	-13.0493
櫻	-13.0494
檳	-13.0495
慣	-13.0496
崩	-13.0497
埔	-13.0498
嚏	-13.0499
虹	-13.05
蘋	-13.0501
舒	-13.0502
耆	-13.0503
紫	-13.0504
穴	-13.0505
甲	-13.0506
戚	-13.0507
廁	-13.0508
喉	-13.0509
俄	-13.051
係	-13.0511
K	-13.0512
鞭	-13.0513
鈔	-13.0514
謂	-13.0515
籬	-13.0516
獅	-13.0517
狩	-13.0518
淨	-13.0519
敢	-13.052
惰	-13.0521
域	-13.0522
另	-13.0523
額	-13.0524
鏡	-13.0525
蕨	-13.0526
臀	-13.0527
股	-13.0528
瑪	-13.0529
標	-13.053
榔	-13.0531
裏	-13.0532
螃	-13.0533
蜻	-13.0534
蜓	-13.0535
萊	-13.0536
膀	-13.0537
燕	-13.0538
尤	-13.0539
闆	-13.054
超	-13.0541
貨	-13.0542
蘿	-13.0543
蔔	-13.0544
萎	-13.0545
紀	-13.0546
桃	-13.0547
憐	-13.0548
嬰	-13.0549
努	-13.055
俗	-13.0551
顏	-13.0552
辛	-13.0553
欺	-13.0554
彩	-13.0555
廳	-13.0556
姨	-13.0557
仙	-13.0558
W	-13.0559
討	-13.056
蜜	-13.0561
爛	-13.0562
托	-13.0563
嬸	-13.0564
垃	-13.0565
圾	-13.0566
兔	-13.0567
順	-13.0568
項	-13.0569
鍊	-13.057
蛀	-13.0571
耍	-13.0572
祝	-13.0573
池	-13.0574
橡	-13.0575
希	-13.0576
否	-13.0577
浪	-13.0578
板	-13.0579
庄	-13.058
冬	-13.0581
羌	-13.0582
繼	-13.0583
巨	-13.0584
臺	-13.0585
泳	-13.0586
擋	-13.0587
座	-13.0588
芭	-13.0589
獨	-13.059
六	-13.0591
雖	-13.0592
卜	-13.0593
麗	-13.0594
澡	-13.0595
峰	-13.0596
幣	-13.0597
參	-13.0598
休	-13.0599
T	-13.06
婦	-13.0601
颱	-13.0602
椅	-13.0603
隘	-13.0604
朵	-13.0605
棵	-13.0606
植	-13.0607
統	-13.0608
猴	-13.0609
阱	-13.061
昨	-13.0611
林	-13.0612
製	-13.0613
肚	-13.0614
灣	-13.0615
帽	-13.0616
儀	-13.0617
蕉	-13.0618
午	-13.0619
政	-13.062
忘	-13.0621
朋	-13.0622
陽	-13.0623
習	-13.0624
叔	-13.0625
糯	-13.0626
怎	-13.0627
爺	-13.0628
夏	-13.0629
什	-13.063
爸	-13.0631
孩	-13.0632
媽	-13.0633
b	-13.0634
