<pad>	0
<unk>	0
<s>	0
</s>	0
<2ssf>	0
<2zh>	0
▁	-2.36079
a	-2.47715
,	-3.13544
.	-3.48461
。	-3.51798
▁sa	-3.95587
▁a	-3.97002
?	-4.55855
'	-4.60946
!	-4.66223
▁ya	-4.80966
▁wa	-4.87634
▁thitho	-5.00513
的	-5.03453
了	-5.29727
▁to	-5.35238
▁mathoaw	-5.39996
▁noma	-5.45577
▁iho	-5.50119
in	-5.5304
▁thao	-5.55301
iza	-5.56878
o	-5.60345
an	-5.62871
▁naak	-5.62936
▁anto	-5.63964
▁yako	-5.71748
▁iako	-5.72792
i	-5.84673
我	-5.86068
az	-5.92573
在	-6.11329
▁azazak	-6.11875
▁haya	-6.14676
▁maqa	-6.17262
▁我	-6.17747
是	-6.18523
▁qa	-6.192
-	-6.23157
有	-6.23588
嗎	-6.24317
▁mzai	-6.2716
▁s	-6.27396
要	-6.27428
▁"	-6.29374
▁izai	-6.33487
▁你	-6.3428
▁ma	-6.35024
▁ata	-6.35097
▁min	-6.38123
你	-6.38962
不	-6.40837
說	-6.41396
▁ianan	-6.4226
▁qali	-6.44801
子	-6.45052
;	-6.4561
他	-6.46419
▁oho	-6.47159
▁taon	-6.488
▁miho	-6.49701
n	-6.51624
很	-6.52371
會	-6.5529
▁ama	-6.58461
k	-6.59076
來	-6.59159
▁mara	-6.60644
到	-6.63802
▁maqitan	-6.64182
▁thoini	-6.64748
我們	-6.65877
▁binana	-6.66723
▁他	-6.67916
▁kahiwan	-6.69687
已經	-6.73686
:「	-6.74222
▁tata	-6.74449
去	-6.74506
▁mo	-6.74572
▁Thao	-6.75551
和	-6.77093
被	-6.78278
▁ina	-6.78867
▁mani	-6.79145
▁soma	-6.79232
▁sazom	-6.80694
▁itia	-6.81415
水	-6.82383
▁hoya	-6.84083
人	-6.84684
oan	-6.87037
q	-6.87139
▁aniamin	-6.87744
▁ita	-6.90066
▁lalawa	-6.9059
時	-6.90815
因為	-6.90974
▁thaythoy	-6.9116
▁isa	-6.92295
吃	-6.9238
▁manasha	-6.93367
▁holos	-6.95018
一	-6.95085
▁proq	-6.95483
wan	-6.9551
▁toali	-6.98611
、	-7.00181
▁kmaan	-7.0144
▁mriqaz	-7.0452
過	-7.06265
▁oka	-7.0637
就	-7.0734
好	-7.08166
沒有	-7.08915
著	-7.10143
▁inai	-7.10503
▁malhinona	-7.11489
."	-7.12672
▁dai	-7.1378
▁pin	-7.13921
▁m	-7.15214
都	-7.17629
▁amaqa	-7.1877
▁ayozi	-7.19164
也	-7.21196
上	-7.22601
▁mino	-7.22992
用	-7.23033
▁patashan	-7.24688
▁iamin	-7.25592
ay	-7.26959
on	-7.28021
不要	-7.28043
他們	-7.28369
ak	-7.28618
za	-7.29269
▁pasain	-7.30067
:	-7.3162
▁masa	-7.31641
看	-7.31794
▁motosi	-7.31814
▁rima	-7.33432
▁rosaw	-7.34016
。」	-7.34089
▁thaithoy	-7.34625
裡	-7.34661
做	-7.34877
▁manion	-7.35118
大	-7.35958
如果	-7.36038
▁mashtay	-7.36429
l	-7.37652
▁shdoo	-7.37898
▁monai	-7.38135
▁這	-7.38714
把	-7.39108
▁oa	-7.3923
▁ani	-7.39879
▁nomawan	-7.39883
呢	-7.41069
可以	-7.4111
所以	-7.41221
▁po	-7.41582
▁zain	-7.41647
▁miaqay	-7.41993
▁pazay	-7.42396
魚	-7.42726
t	-7.43374
▁afo	-7.43673
地	-7.43688
▁hodon	-7.44026
▁isai	-7.44357
的人	-7.45347
▁我們	-7.45931
▁ihon	-7.47924
她	-7.50563
頭	-7.51616
吧	-7.51705
▁oan	-7.52343
▁iza	-7.52437
▁pa	-7.55456
若	-7.56043
▁mafazaq	-7.56251
▁la	-7.56585
▁painan	-7.57175
lh	-7.57681
▁ato	-7.59026
天	-7.59883
菜	-7.60788
打	-7.61276
▁kmalawa	-7.61305
▁wazaqan	-7.61374
▁ribosh	-7.61579
p	-7.6251
th	-7.62612
這	-7.62886
ra	-7.63118
而	-7.63844
▁不要	-7.63936
拿	-7.64435
被我	-7.65161
對	-7.65365
h	-7.6675
▁kataonan	-7.68049
▁我的	-7.68543
▁iakin	-7.68677
放	-7.69247
▁shinshii	-7.69622
▁ti	-7.69866
樹	-7.71134
叫	-7.7116
這樣	-7.71797
▁kanoniza	-7.72318
▁bonlhaz	-7.72854
走	-7.73565
一下	-7.74316
▁monsai	-7.74566
▁yamin	-7.75337
▁lhai	-7.75715
又	-7.75782
我要	-7.76067
為	-7.76292
▁kawi	-7.76773
▁lhmopish	-7.76775
▁p	-7.77052
我的	-7.77452
▁mat	-7.7829
還	-7.79047
▁niwan	-7.79087
▁tanatoqash	-7.79417
現在	-7.79492
小	-7.79841
邵族人	-7.80138
中	-7.80196
的時候	-7.80237
▁mita	-7.8025
在哪裡	-7.8056
▁pangka	-7.80838
▁intoa	-7.8105
▁fafoy	-7.81439
「	-7.81459
!」	-7.82053
▁horoy	-7.8264
長	-7.83449
▁kawash	-7.83856
東西	-7.84068
買	-7.8458
▁boot	-7.85087
▁nomanoma	-7.85136
to	-7.85528
再	-7.8599
年	-7.86206
ani	-7.86425
apaw	-7.86464
sh	-7.86515
媽媽	-7.86747
▁pashtay	-7.86767
不會	-7.87254
▁Toba	-7.87595
帶	-7.87812
▁koskos	-7.88226
▁sh	-7.88284
下	-7.88333
▁lhanaz	-7.88873
▁minlhafot	-7.88876
起來	-7.88977
大家	-7.89069
▁mapa	-7.89255
得	-7.89826
起	-7.89932
錢	-7.90854
很多	-7.90864
家	-7.90924
ma	-7.90936
狗	-7.91251
工作	-7.91399
▁yakin	-7.91491
▁bohat	-7.91917
s	-7.92694
草	-7.928
▁simaq	-7.92808
▁apoy	-7.93545
生	-7.93854
u	-7.94008
▁bokay	-7.94154
▁makashpar	-7.94155
▁motanto	-7.94168
將	-7.94514
▁moqay	-7.94615
!"	-7.94643
給	-7.95079
▁maqarman	-7.95573
▁qnoan	-7.95915
衣服	-7.96471
孩子	-7.98315
被他	-7.99547
▁Zinton	-7.99731
▁latosha	-7.99739
種	-8.00078
▁pan	-8.00397
▁ranaw	-8.01175
▁palhkakrikriw	-8.01177
▁miarain	-8.0119
不是	-8.01219
▁bona	-8.01325
▁amotosi	-8.01655
▁niza	-8.02266
多	-8.02354
▁ladado	-8.0268
ik	-8.03326
▁mohiaw	-8.04127
▁madadoo	-8.04127
▁miazitho	-8.04128
▁mondadaan	-8.04133
▁romfaz	-8.04402
m	-8.04922
ianan	-8.05
▁shirshir	-8.0503
▁saran	-8.05077
▁parhaway	-8.05538
▁ia	-8.05855
om	-8.05906
ania	-8.05988
出	-8.06163
小孩	-8.06227
▁你把	-8.06701
船	-8.07044
牛	-8.07169
▁lhmir	-8.07169
w	-8.07202
▁miazai	-8.07457
請	-8.07576
▁他們	-8.07576
▁pani	-8.08056
▁shanglaw	-8.08726
▁malhos	-8.08729
▁miko	-8.08739
▁kalawan	-8.08742
ko	-8.09177
la	-8.094
?」	-8.09439
火	-8.10008
有很多	-8.10015
▁shaqish	-8.10307
▁wazish	-8.10307
▁roza	-8.10311
▁milhongqo	-8.10318
在這裡	-8.11744
▁mangqto	-8.11904
▁naam	-8.11914
▁latata	-8.11938
▁maora	-8.11982
▁我在	-8.13337
▁az	-8.13791
▁kmatho	-8.13848
aw	-8.14109
非常	-8.14791
▁Apin	-8.14959
聽	-8.15164
▁ponoq	-8.1522
▁fato	-8.15221
今天	-8.15486
這個	-8.15677
讓	-8.15795
就會	-8.16006
講	-8.1632
手	-8.16432
開	-8.16629
都是	-8.16729
ri	-8.16761
後	-8.16831
一點	-8.16884
▁riqazan	-8.16905
煮	-8.17013
一直	-8.17751
▁tilhaz	-8.17939
▁lapiza	-8.18612
▁malhkakrikriw	-8.18614
▁matha	-8.18795
hi	-8.18981
那裡	-8.19291
先	-8.20201
跟	-8.20268
▁fokish	-8.20357
過了	-8.2037
以後	-8.20375
▁pash	-8.2107
ng	-8.21785
高	-8.21794
問	-8.21908
ong	-8.21959
想	-8.22336
的地方	-8.22389
▁itosi	-8.22571
一個	-8.23071
▁fariw	-8.23309
▁makikalhi	-8.23945
po	-8.24131
一起	-8.24493
但是	-8.2527
▁motaon	-8.25448
▁amin	-8.25573
雞	-8.2574
變	-8.25757
▁Poni	-8.25788
apoki	-8.25792
▁maqaqoyash	-8.25801
個	-8.25886
r	-8.26187
住	-8.26238
ash	-8.26779
飯	-8.26825
▁miakoza	-8.26958
腳	-8.27261
▁shiz	-8.27326
z	-8.27436
從	-8.27602
▁bakbaki	-8.27668
▁moribosh	-8.27682
▁tataal	-8.27691
▁tima	-8.27739
▁foraz	-8.28014
?"	-8.28426
▁qbit	-8.2958
▁ka	-8.29889
▁lhkaribosh	-8.29935
好了	-8.30341
▁如果	-8.30351
自己	-8.3052
▁itiza	-8.30543
▁這是	-8.30625
ioto	-8.30886
▁qahil	-8.31531
ii	-8.32049
的東西	-8.32668
y	-8.32992
部落	-8.33083
▁ioto	-8.33185
快	-8.33202
moqmoq	-8.33242
看到	-8.33249
青蛙	-8.33521
▁marotaw	-8.33521
▁okaiza	-8.33547
▁itaon	-8.3383
os	-8.3434
▁afariw	-8.3467
▁mia	-8.34733
iwan	-8.34887
重	-8.35328
他的	-8.35451
使	-8.35477
書	-8.3554
在那裡	-8.35969
apora	-8.36945
變成	-8.37139
▁shashano	-8.37624
▁kilhnaqoalh	-8.37625
所	-8.37862
▁從前	-8.38852
動	-8.39711
睡覺	-8.39726
乾	-8.39728
▁lina	-8.39962
常常	-8.41525
當	-8.41679
邊	-8.41679
發	-8.41775
分	-8.41838
喔	-8.41903
▁izoi	-8.41907
▁apo	-8.41916
被人	-8.41965
山	-8.42939
▁tana	-8.43284
牠	-8.43452
Tuba	-8.43527
喜歡	-8.43597
▁請你	-8.43657
行	-8.44094
你們	-8.44105
▁makarishkish	-8.44137
▁lamaqitan	-8.44142
人們	-8.44308
▁naor	-8.4503
aora	-8.45127
▁iahiaw	-8.4523
風	-8.46309
找	-8.46313
經常	-8.46377
▁makonanai	-8.46379
▁mahnar	-8.46793
▁barimbin	-8.47033
大家都	-8.47335
」	-8.47898
知道	-8.48168
f	-8.48182
很久	-8.48262
▁isisoa	-8.48299
下雨	-8.48392
出來	-8.48472
鳥	-8.4863
這裡	-8.48663
借	-8.48685
▁kaanin	-8.48899
▁faqlho	-8.48962
要去	-8.50044
米	-8.51007
▁tilha	-8.51037
▁foilh	-8.51052
▁qazii	-8.5106
▁miasoon	-8.5106
▁將	-8.51148
alah	-8.51292
飛	-8.51374
回	-8.51767
▁shi	-8.52302
沒	-8.5282
已	-8.53178
才	-8.53227
話	-8.53289
是誰	-8.5335
寫	-8.53463
角	-8.53468
▁klhiw	-8.53477
以前	-8.5387
▁我已經	-8.54276
iniza	-8.5449
酒	-8.54713
▁請	-8.54847
那	-8.55198
掉	-8.55365
▁qilha	-8.55485
花	-8.55956
流	-8.55956
/	-8.55961
Los	-8.55961
▁qaolh	-8.55963
apawiza	-8.56734
到了	-8.5683
▁kma	-8.56991
這是	-8.57129
▁shdooiza	-8.57238
ti	-8.57321
唱歌	-8.57514
不知道	-8.5756
▁那個人	-8.5772
▁你的	-8.58019
讀書	-8.58099
▁mosha	-8.58149
穿	-8.58425
山豬	-8.58466
hoo	-8.58507
▁mabraq	-8.58509
▁nipin	-8.58509
▁rikos	-8.58509
▁shpoot	-8.58509
▁kazakazash	-8.58509
▁kmilhim	-8.5851
女人	-8.58527
▁moso	-8.58543
shi	-8.5888
▁matash	-8.5902
▁amo	-8.59401
▁moqtha	-8.59447
▁pia	-8.59697
▁那個	-8.59805
男人	-8.60412
它	-8.60432
wa	-8.60496
"	-8.60588
木	-8.61013
肉	-8.61074
隨便	-8.61097
)	-8.61123
▁ininthawan	-8.61123
▁patikrin	-8.61123
▁marfaz	-8.61127
▁minfazaq	-8.61182
的衣服	-8.61288
很好吃	-8.61419
放在	-8.61524
ananak	-8.61634
▁makthin	-8.6189
抓	-8.61913
還沒有	-8.61938
ro	-8.61967
坐	-8.62087
▁miqilha	-8.62169
這些	-8.62254
▁shnaw	-8.63015
痛	-8.63336
邵族	-8.63421
關	-8.6344
白	-8.63654
老	-8.63659
跳舞	-8.63664
喝	-8.63674
以	-8.63717
向	-8.63761
▁那是	-8.63764
▁filhaq	-8.63808
▁malhoiza	-8.63809
▁maqolhaqolha	-8.63812
▁mimparaw	-8.63814
▁mash	-8.6421
▁你們	-8.64584
路	-8.6459
▁mashmash	-8.64599
▁我要	-8.64727
日月潭	-8.64965
能	-8.65043
為什麼	-8.65087
土	-8.65271
▁ananak	-8.65358
aniza	-8.6537
洗	-8.65372
像	-8.65571
▁lhongqizi	-8.6604
很好	-8.66202
so	-8.66345
族	-8.66403
iahala	-8.66474
▁itmaz	-8.66567
▁maqosom	-8.66567
▁mobohat	-8.66619
別人	-8.66649
▁finariw	-8.6679
▁tamohon	-8.66989
▁Tuba	-8.67307
or	-8.67529
▁zashoq	-8.67968
▁那	-8.68389
Puni	-8.68403
太	-8.68544
你的	-8.68725
ish	-8.68844
回家	-8.68896
臉	-8.69232
zing	-8.69256
常	-8.69293
等	-8.6932
聲	-8.69393
▁patatash	-8.69404
▁kahiza	-8.69404
▁anoniza	-8.69405
hai	-8.70345
▁k	-8.70652
▁fari	-8.70664
好的	-8.70692
就是	-8.70746
▁akaanin	-8.70848
成	-8.71084
▁poil	-8.71156
▁以前	-8.7187
竹	-8.72098
帶著	-8.72152
回來	-8.72179
晚	-8.72205
作	-8.7229
挖	-8.7231
與	-8.72322
▁mabrith	-8.72324
▁madahon	-8.72324
▁qarithoy	-8.72324
互相	-8.72326
▁lhopilhopishan	-8.72343
▁pisain	-8.72457
前	-8.72788
li	-8.72792
▁媽媽	-8.72925
mi	-8.73332
只有	-8.73632
住在	-8.738
sai	-8.73817
▁flhoq	-8.74441
▁mindahip	-8.74543
▁pangqa	-8.74936
很快	-8.75052
的話	-8.75055
睡	-8.75318
布	-8.7533
紙	-8.7533
▁dawaz	-8.75331
▁qamishan	-8.75331
▁sonda	-8.75331
石頭	-8.75337
▁pish	-8.75379
▁maqaran	-8.75408
走了	-8.75588
只是	-8.75655
▁shaona	-8.76628
們	-8.7672
▁hoqi	-8.76863
oka	-8.76866
我是	-8.7696
跑	-8.77177
換	-8.77416
啊	-8.77542
食物	-8.77802
豬	-8.78289
▁amontoa	-8.78436
橘子	-8.78436
晚上	-8.78453
▁pitaw	-8.78461
▁tatata	-8.78482
▁mahomhomiza	-8.78771
▁akanin	-8.79074
好嗎	-8.79372
▁montal	-8.80047
豬肉	-8.80056
▁mon	-8.80628
有人	-8.81163
▁pariqaz	-8.81395
▁「	-8.814
曾經	-8.81471
▁Tai	-8.81509
很大	-8.81554
身體	-8.81563
生活	-8.81605
qtha	-8.81614
代	-8.81622
跳	-8.81632
▁Baraobaw	-8.81633
▁malalia	-8.81633
笑	-8.81633
▁mashimzaw	-8.81649
這樣才不會	-8.81671
▁ap	-8.81689
▁tamakoan	-8.81789
朋友	-8.82398
▁tonoon	-8.82576
十	-8.8351
早上	-8.83752
玩	-8.83874
▁matata	-8.84555
ing	-8.84582
熱	-8.84653
的家	-8.84679
隻	-8.8475
▁ikahi	-8.84789
氣	-8.8479
▁fafaw	-8.84809
色	-8.84882
心	-8.8489
▁makit	-8.84938
▁Hoqo	-8.84939
▁Lalo	-8.84939
▁Sholay	-8.84939
▁qlhoran	-8.84939
▁ripno	-8.84939
▁shaba	-8.84939
▁fonosh	-8.84939
開始	-8.84939
intamar	-8.84943
天氣	-8.85017
▁ping	-8.85038
才會	-8.85045
叫做	-8.8513
▁mosoon	-8.85132
azazak	-8.85245
吃了	-8.85361
oz	-8.85458
▁是的	-8.85898
你把它	-8.86139
▁rithkoy	-8.8627
包	-8.86639
▁qmo	-8.86978
lhi	-8.87027
nao	-8.87139
▁oqtha	-8.87503
我已經	-8.87569
筆	-8.87976
走路	-8.88007
還有	-8.88052
經過	-8.88101
明	-8.88122
車	-8.88168
太陽	-8.88221
口	-8.88312
拉	-8.88344
無	-8.88352
▁kminatho	-8.88358
▁matonaw	-8.88358
生氣	-8.88395
一些	-8.88398
▁sisi	-8.88404
▁am	-8.88628
osh	-8.88737
若是	-8.8877
▁isisoaiza	-8.88934
min	-8.8896
tosi	-8.88968
新	-8.89324
▁qmosaz	-8.89337
收	-8.89352
面	-8.89605
給我	-8.89713
事	-8.89994
三	-8.90019
▁pizaiza	-8.90099
▁malalawa	-8.90479
▁dado	-8.90741
也會	-8.90841
雨	-8.90971
qitan	-8.91233
▁moshoqish	-8.91579
可	-8.9169
教	-8.9171
點	-8.91713
蟲	-8.91881
五	-8.91897
卻	-8.91897
▁Qariawan	-8.91898
▁amohiaw	-8.91898
▁malhalhiqash	-8.91898
▁shmadia	-8.91898
▁pinatash	-8.919
因此	-8.919
▁piaqitan	-8.91929
▁lhmazawan	-8.91942
真的	-8.92296
▁pit	-8.92451
取	-8.92451
tata	-8.92549
▁shongkash	-8.92564
nanai	-8.92594
▁mahomhom	-8.926
▁她	-8.92993
別	-8.93106
▁tian	-8.93244
小孩子	-8.93254
哪裡	-8.93711
▁pinfazaq	-8.93727
toro	-8.93851
稻子	-8.94127
▁amathoaw	-8.94188
個人	-8.94497
▁ki	-8.94872
講話	-8.9502
跌倒	-8.95046
▁qosaz	-8.95166
不好	-8.95192
但	-8.95362
黑	-8.95402
接	-8.95454
地瓜	-8.95478
蛇	-8.95518
然	-8.95535
燒	-8.95536
搔	-8.95547
餵	-8.95552
政府	-8.95564
貓頭鷹	-8.95567
毛	-8.95567
▁baroko	-8.95568
▁takith	-8.95568
▁toqris	-8.95568
並且	-8.95569
▁rozith	-8.95569
▁lhari	-8.95575
成為	-8.95623
▁amakaan	-8.95624
上面	-8.95645
▁palhi	-8.95782
▁araran	-8.95901
▁dadoo	-8.95984
▁moshaiza	-8.9613
▁itan	-8.96533
吃飯	-8.96603
ho	-8.96655
▁mriqariqaz	-8.96665
在一起	-8.96839
oth	-8.96922
▁pi	-8.96947
nafaw	-8.97074
▁piza	-8.97195
名字	-8.9763
qo	-8.97768
M	-8.98572
▁kin	-8.98808
邵族的	-8.98967
咬	-8.99081
pathay	-8.99191
蛋	-8.99256
少	-8.99332
哭	-8.99338
亂	-8.99345
突然	-8.99376
▁monroza	-8.99378
▁shmaila	-8.99378
甘薯	-8.99378
哇	-8.99378
打架	-8.99385
▁qosazin	-8.99404
小男孩	-8.99409
iz	-8.99415
▁qalha	-8.99443
過年	-8.99542
做工作	-8.99569
請你	-8.99613
▁molhthkiz	-8.9964
sa	-9.00154
▁tiaz	-9.00415
▁tantoqash	-9.00507
▁他是	-9.00539
it	-9.00563
tan	-9.00583
oton	-9.01051
▁天	-9.01153
▁qarimosoz	-9.01335
▁isoi	-9.01336
正在	-9.0158
結	-9.01641
▁man	-9.02728
海	-9.03134
冷	-9.03189
▁kon	-9.03231
名	-9.03268
相	-9.03281
▁pot	-9.033
倒	-9.03305
唱	-9.03331
▁bangqir	-9.03338
▁shashoazi	-9.03339
更	-9.03339
遇到	-9.03423
快樂	-9.0345
ozo	-9.03529
▁mapathay	-9.03534
pak	-9.0365
▁foifoilh	-9.03662
就可以	-9.03773
出現	-9.04701
▁他的	-9.05002
▁你要	-9.05156
已經被我	-9.05892
▁孩子	-9.06085
(	-9.06249
itia	-9.06429
將會	-9.06608
pi	-9.06806
學	-9.07137
▁pintata	-9.07166
也許	-9.07262
遠	-9.07274
進	-9.07331
位	-9.07355
拿來	-9.07359
砍	-9.07396
kopit	-9.07428
蓋	-9.0744
元	-9.07445
光	-9.0745
照	-9.07458
▁fizfiz	-9.07463
▁katataonan	-9.07463
▁noho	-9.07463
祖母	-9.07463
▁tonmaza	-9.07466
山羌	-9.07469
無法	-9.0747
▁pishfazaq	-9.07476
有一天	-9.07527
▁mokaktoniza	-9.07552
山上	-9.07581
想要	-9.07652
車子	-9.07657
▁langqisosay	-9.07689
很痛	-9.07943
不可以	-9.07951
maqitan	-9.07993
taon	-9.08006
▁t	-9.08154
▁mamzai	-9.08243
▁pana	-9.08595
▁S	-9.08676
▁那個女人	-9.0872
▁ta	-9.08735
▁tm	-9.08774
mo	-9.08836
女	-9.09064
▁fa	-9.0908
▁maka	-9.09811
tal	-9.10038
▁好	-9.10213
部	-9.1128
了很多	-9.11562
一樣	-9.11592
壓	-9.11676
百	-9.11721
▁老師	-9.1173
月	-9.11738
外	-9.11744
丟	-9.11744
驚	-9.11754
學習	-9.11755
▁smapok	-9.11764
利	-9.11764
眼	-9.11765
期	-9.11765
記	-9.11765
▁shapa	-9.11766
製作	-9.11771
▁larima	-9.11775
▁pakaan	-9.11794
▁tatitish	-9.118
很熱	-9.11901
▁moqayza	-9.12045
才不會	-9.12073
ira	-9.12077
不再	-9.12353
▁rothon	-9.12559
▁maranash	-9.12579
▁Ma	-9.12679
▁itiawan	-9.12748
mathoaw	-9.12993
來了	-9.13272
會被	-9.13359
只	-9.13572
明天	-9.1364
去那裡	-9.13728
田	-9.14065
稻穀	-9.1432
▁tin	-9.14332
她的	-9.14425
最	-9.14901
學校	-9.15051
azo	-9.15217
也有	-9.15429
zi	-9.15541
夾	-9.15685
眼睛	-9.15689
老鼠	-9.15837
身	-9.1601
同	-9.1611
直	-9.16145
洞	-9.16169
門	-9.16183
刺	-9.16195
石	-9.16205
各	-9.16224
努力	-9.16239
旁邊	-9.16249
平	-9.16251
偷	-9.16252
球	-9.16255
寬	-9.16259
▁balis	-9.16259
▁hanaan	-9.16259
▁mapozipozi	-9.16259
▁qoyash	-9.16259
▁konlhit	-9.16259
▁kozan	-9.16259
▁mraoz	-9.16259
祖父	-9.16259
▁taobokbok	-9.16259
台灣	-9.16259
電腦	-9.1626
醫生	-9.16269
▁kmari	-9.16313
給他	-9.16324
▁poqo	-9.16325
等一下	-9.16329
▁farifariwan	-9.16342
▁makondor	-9.16343
▁aki	-9.1654
▁小孩	-9.16543
▁mawalhnaq	-9.16628
事情	-9.16988
waan	-9.17046
▁amara	-9.17179
▁minriqaz	-9.17751
▁pashi	-9.17784
圍	-9.17874
sahai	-9.18662
是的	-9.18691
女孩	-9.18886
田裡	-9.19238
qos	-9.19486
就要	-9.19488
fo	-9.19495
老師	-9.20007
可能	-9.20157
我會	-9.20299
qarman	-9.2078
合	-9.20798
難	-9.20817
每	-9.20915
拜	-9.20932
泥	-9.20934
翻	-9.20935
麻糬	-9.20941
理	-9.20945
四	-9.20948
片	-9.20953
切	-9.20956
鉤	-9.20961
戰爭	-9.20962
場	-9.20963
溪	-9.20964
Barawbaw	-9.20966
malantatnor	-9.20966
▁polalo	-9.20966
▁shawiki	-9.20966
啦	-9.20966
乖	-9.20966
▁pashikan	-9.20967
織布	-9.20969
多少	-9.20969
芋頭	-9.20978
我要去	-9.20984
之後	-9.20986
很難	-9.21026
那邊	-9.21075
老人	-9.21102
其他	-9.21155
▁tosha	-9.21246
全部	-9.21432
▁osha	-9.2176
下來	-9.21815
▁lakoza	-9.21861
看看	-9.22022
最後	-9.22344
▁koshwit	-9.22376
nan	-9.22404
媽媽說	-9.22821
ian	-9.23241
正	-9.23282
給你	-9.2339
拔	-9.23521
如何	-9.23612
▁kina	-9.23825
不斷地	-9.24195
▁mak	-9.24607
▁miaqa	-9.24733
▁saqazi	-9.24809
二	-9.24812
is	-9.25177
滿	-9.25361
菜園	-9.25473
anak	-9.2565
上的	-9.25651
日	-9.25736
香	-9.25754
並	-9.25819
戴	-9.25827
▁km	-9.25847
輕	-9.25859
弄	-9.25867
便	-9.25872
畫	-9.25876
自	-9.25896
比	-9.25896
賣	-9.25897
挑	-9.25902
bol	-9.25904
美麗	-9.25904
▁bahi	-9.25905
▁mindaaq	-9.25905
▁pinalhoiza	-9.25905
▁qawno	-9.25905
數	-9.25905
▁qonrioq	-9.25905
▁thmanit	-9.25905
濕	-9.25905
Pili	-9.25905
盪	-9.25905
▁fotolh	-9.25905
照顧	-9.25906
▁iaramaz	-9.25908
女性	-9.25909
▁patilhaz	-9.25924
桌子	-9.25927
太太	-9.25931
▁shawan	-9.25941
ailhi	-9.25941
▁maposhaz	-9.2595
桶子	-9.25965
▁malhi	-9.26007
▁madishlom	-9.26026
amaan	-9.26035
▁maramo	-9.26121
▁malhopish	-9.26167
▁ming	-9.26217
▁maklis	-9.26275
男孩	-9.263
Shulay	-9.26505
▁因為	-9.26509
空	-9.26595
Apin	-9.26655
爛	-9.2666
還是	-9.26812
▁kopor	-9.26845
用來	-9.26989
」。	-9.27032
▁ingqa	-9.27263
▁qros	-9.27376
▁(	-9.27385
doo	-9.27577
▁kokolay	-9.27927
qawan	-9.28311
年輕人	-9.28994
祖先	-9.29124
ok	-9.29152
都會	-9.2947
族人	-9.29839
▁toro	-9.29908
久	-9.30054
一直在	-9.30096
dado	-9.30287
▁mako	-9.30381
真	-9.30415
shdoo	-9.30477
掉了	-9.30513
熟	-9.3054
捉	-9.30553
死	-9.30579
去哪裡	-9.30655
謝謝	-9.30697
▁arara	-9.30699
的錢	-9.3083
riqaz	-9.30876
處	-9.30893
葉	-9.30934
shoqish	-9.3098
青	-9.3101
早	-9.31022
裝	-9.31024
國	-9.31057
親	-9.31087
留	-9.3109
害	-9.31092
麻	-9.31097
愛	-9.31098
▁Qaba	-9.311
barombon	-9.311
夜	-9.311
搶	-9.311
滾	-9.311
▁mapandoo	-9.311
要做什麼	-9.311
視	-9.311
綁	-9.31101
摘	-9.31101
老鷹	-9.31105
平安	-9.31107
阿公	-9.31108
▁los	-9.31116
青年	-9.3114
樹木	-9.31192
▁mati	-9.31193
覺得	-9.31242
▁飯	-9.31305
新的	-9.31314
全部都	-9.31328
▁今天	-9.31328
▁mano	-9.31621
▁lhin	-9.31732
naq	-9.31842
你要	-9.319
要小心	-9.32014
Huqu	-9.32317
thoini	-9.32495
不能	-9.32613
lhoan	-9.32787
很漂亮	-9.32839
wak	-9.32856
▁maniza	-9.32871
law	-9.33068
▁P	-9.33224
的名字	-9.33307
▁他在	-9.3338
來這裡	-9.3373
qto	-9.34015
兩	-9.34493
▁amaqitan	-9.34818
▁kanin	-9.34988
那是	-9.35072
幾	-9.35104
araan	-9.35327
pan	-9.3591
趕快	-9.36053
▁sho	-9.3612
繩子	-9.36145
▁Anai	-9.36148
還沒	-9.36245
接起來	-9.36294
▁把	-9.36301
於	-9.36358
竹子	-9.36406
休息	-9.36446
▁To	-9.36465
慢慢	-9.36522
邵語	-9.36529
公	-9.36572
指	-9.36577
嘴	-9.36577
試	-9.36578
停	-9.3658
罵	-9.36581
▁Qabos	-9.36581
▁bokhaz	-9.36581
▁danshiqan	-9.36581
▁makanshoz	-9.36581
▁makashpashpat	-9.36581
bzahin	-9.36581
~	-9.36581
神	-9.36581
繼續	-9.36581
Qabus	-9.36581
祖靈	-9.36581
▁pashatalha	-9.36582
那麼	-9.36582
▁amazaiza	-9.36586
而且	-9.36587
回答	-9.3659
▁kakaanin	-9.3659
發現	-9.36591
魚笱	-9.36593
▁mitalha	-9.36602
tazam	-9.36622
那些	-9.36625
▁matilaw	-9.3663
▁lh	-9.36647
快一點	-9.36662
▁從前邵族人	-9.36745
去埔里	-9.36752
這樣才會	-9.36791
斷了	-9.36923
▁mika	-9.36941
▁pinazim	-9.37035
▁inzai	-9.37047
▁panaq	-9.37061
捉到	-9.37162
很快就	-9.37175
▁pangqaiza	-9.37301
房屋	-9.37387
▁toqatoqashiza	-9.37574
▁qlhop	-9.3763
▁apiq	-9.38149
miakoza	-9.38602
那個人	-9.3872
ayozi	-9.38782
你去	-9.39167
都很	-9.39183
niza	-9.39767
▁你不要	-9.39802
皮	-9.40026
下去	-9.40339
riz	-9.40343
物	-9.40412
入	-9.40468
yza	-9.40567
是我的	-9.40991
擦	-9.41082
割	-9.4149
ang	-9.417
女生	-9.41751
▁Kilash	-9.41926
到處	-9.421
或	-9.42168
落	-9.42324
木頭	-9.42326
原住民	-9.42338
刀	-9.4235
mamraw	-9.42352
改	-9.42353
用力	-9.42362
許多	-9.42371
雷	-9.42376
編	-9.42377
烏	-9.42379
苦	-9.42379
擊	-9.42379
Lalu	-9.42379
堆	-9.42379
▁Dadoo	-9.42379
▁Qariwan	-9.42379
▁akalawan	-9.42379
▁bzo	-9.42379
▁malhalhinona	-9.42379
▁matingqaran	-9.42379
▁waqrath	-9.42379
傳統	-9.42379
▁mapozi	-9.42379
▁pazazai	-9.42379
越	-9.42379
▁minthao	-9.42379
游泳	-9.4238
準備	-9.4238
早昔	-9.4238
▁anonin	-9.42381
吊陷	-9.42382
文化	-9.42382
幫助	-9.42384
▁falhaza	-9.42385
▁tanamoqtha	-9.42389
釣魚	-9.424
▁iqoalh	-9.424
▁maharan	-9.42444
▁mahaha	-9.42489
sik	-9.42527
us	-9.4254
▁moton	-9.42545
pat	-9.42603
▁明天	-9.42629
pash	-9.42669
有一個	-9.42675
做成	-9.4276
▁kilhpoz	-9.42861
▁ishqala	-9.43088
azazakin	-9.43095
我們的祖先	-9.43136
出去	-9.43306
在家裡	-9.4334
一起去	-9.43496
▁邵族人	-9.43511
piz	-9.43612
▁tanlhoan	-9.43727
akiza	-9.43767
▁大家	-9.44065
▁kaan	-9.44135
▁Puni	-9.44488
那個	-9.45068
▁shimol	-9.45115
apoy	-9.45199
我的孩子	-9.45528
pon	-9.45902
▁kinalawa	-9.46146
要給	-9.46251
語言	-9.46354
,"	-9.465
替	-9.46618
▁lha	-9.46902
孩子們	-9.47317
歌	-9.47865
吹	-9.47957
▁mim	-9.48079
▁kminaan	-9.48175
埔里	-9.48176
▁maqoliosh	-9.48176
的工作	-9.48257
曾	-9.48286
果	-9.48293
▁pongqaqaodin	-9.48298
lhias	-9.48349
長大	-9.48349
ilhilhi	-9.48453
▁ifafaw	-9.48474
往	-9.48495
病	-9.48496
張	-9.48503
亮	-9.4851
牆	-9.48524
呼	-9.48526
仔	-9.48527
朵花	-9.48528
音	-9.4853
踏	-9.48532
槍	-9.48534
幼	-9.48534
Baraubaw	-9.48534
hliliton	-9.48534
▁Shpoot	-9.48534
▁bizo	-9.48534
▁boqtor	-9.48534
▁lhalhahi	-9.48534
▁lhmitoz	-9.48534
▁lhombaha	-9.48534
▁maqosoqosom	-9.48534
▁qarota	-9.48534
▁shazkin	-9.48534
▁talima	-9.48534
湯	-9.48535
炒	-9.48535
精	-9.48535
▁inanoro	-9.48535
▁maqmin	-9.48535
影	-9.48535
者	-9.48535
茄苳樹	-9.48535
▁lhongqoz	-9.48536
▁dimrath	-9.48537
為何	-9.48538
剛才	-9.48542
離開	-9.48551
▁ihazish	-9.48555
▁mabiskaw	-9.48555
▁lharina	-9.48556
▁montoa	-9.48586
▁lapat	-9.48593
到達	-9.48594
房子	-9.48612
原來	-9.48656
osoon	-9.48688
▁這些	-9.48717
於是	-9.4877
▁amoshaiza	-9.48801
poon	-9.48894
hon	-9.49265
他說	-9.49279
▁pito	-9.49283
看著	-9.49373
很高	-9.49639
▁langqaqisosay	-9.4972
的水	-9.49787
我的手	-9.50018
打獵	-9.50474
網	-9.5076
很喜歡	-9.51013
裡面	-9.51044
告訴	-9.51179
kay	-9.51187
oro	-9.51373
有幾	-9.51689
shimol	-9.52083
▁qm	-9.52116
fari	-9.52125
地上	-9.52564
園子	-9.52629
主	-9.53049
lhilhiq	-9.5342
我的爸爸	-9.53688
羊	-9.53787
小心	-9.53854
▁tha	-9.53926
ihon	-9.54179
▁這個人	-9.54272
▁toqash	-9.54594
infazaq	-9.54604
是什麼	-9.54966
警察	-9.54981
sia	-9.54984
▁你如果	-9.55012
牙齒	-9.55031
平地人	-9.55047
午	-9.55056
陷阱	-9.55063
底	-9.55073
奶奶	-9.55078
紅	-9.55079
阿	-9.55084
食	-9.55085
排	-9.55086
檳榔	-9.55087
量	-9.55088
助	-9.55089
▁ling	-9.5509
近	-9.55091
▁kafaza	-9.55092
耳	-9.55092
瘀青	-9.55093
吐	-9.55093
擰	-9.55093
福	-9.55093
tanarikos	-9.55094
▁barinbin	-9.55094
▁imohala	-9.55094
▁komahin	-9.55094
▁makoliosh	-9.55094
▁matompiq	-9.55094
▁pambalabalay	-9.55094
▁romrom	-9.55094
▁italhawan	-9.55094
▁ondoan	-9.55094
蝴蝶	-9.55094
顏色	-9.55094
▁makamon	-9.55094
▁parakaz	-9.55094
希望	-9.55094
望	-9.55095
去山上	-9.55097
如此	-9.55097
▁Litpoon	-9.551
稱呼	-9.551
▁makalonhan	-9.55103
lhitoz	-9.55105
▁qirqiran	-9.55113
因而	-9.5512
今年	-9.5512
▁makaoka	-9.55122
開心	-9.55152
mar	-9.55166
一次	-9.55166
awaq	-9.55168
▁mangqtoqto	-9.55175
▁matobo	-9.5518
▁我要買	-9.55217
穀子	-9.55233
坐著	-9.55306
▁mabolawiza	-9.55352
讓他	-9.55375
如果沒有	-9.55385
▁ikahin	-9.55396
誰	-9.55421
▁minaka	-9.55459
qaray	-9.55482
▁mashampanaq	-9.55642
▁qariwazwaz	-9.55642
很高興	-9.55858
不斷	-9.55865
▁從前的	-9.55897
oqthawan	-9.56095
背	-9.56287
如果被	-9.56342
▁qafay	-9.56373
生吃	-9.56461
很大的	-9.56495
▁lhpazishan	-9.5709
▁pintataiwar	-9.5709
▁kadad	-9.57246
要去哪裡	-9.57371
soon	-9.5759
是邵族	-9.57654
▁pasai	-9.57767
▁Maqaba	-9.57824
乾淨	-9.57919
所以我	-9.57941
saranan	-9.58009
上學	-9.58077
▁為什麼	-9.58271
要做	-9.58635
▁我的孩子	-9.59156
pis	-9.59192
▁ongqtoan	-9.59314
如果有	-9.59485
我可以	-9.59594
bohat	-9.59603
apiq	-9.5962
say	-9.5968
rain	-9.5987
ingqaiza	-9.59911
不要吃	-9.59993
▁Huqu	-9.60477
原本	-9.60517
加	-9.60587
okaiza	-9.6067
是用	-9.60701
▁na	-9.60809
▁pat	-9.60869
的頭髮	-9.60906
的事情	-9.60989
我們家	-9.61026
bar	-9.6105
」,	-9.61169
你好	-9.61276
塊	-9.61714
腫	-9.61846
幫忙	-9.61875
獵	-9.61957
硬	-9.61959
▁palalawa	-9.61962
受	-9.61963
原	-9.61974
丈夫	-9.61989
▁豬	-9.62015
▁你怎麼	-9.62034
立	-9.62035
意	-9.62036
▁paqi	-9.62039
之	-9.62063
曬	-9.62071
第	-9.62078
A	-9.62085
步	-9.62092
破	-9.62094
交	-9.62099
細	-9.62105
嚼	-9.62106
鐵	-9.62107
射	-9.62108
院	-9.62112
daq	-9.62112
格	-9.62113
削	-9.62113
舊	-9.62113
酸	-9.62113
▁inifaz	-9.62113
▁parshian	-9.62113
▁patinhina	-9.62113
▁piathaothaon	-9.62113
▁qabos	-9.62113
▁shanaotoan	-9.62113
▁sharaqian	-9.62113
▁shnir	-9.62113
▁你爸爸	-9.62113
碗	-9.62113
▁inlhai	-9.62113
算	-9.62114
▁Tahai	-9.62114
搬	-9.62114
應該	-9.62115
靠近	-9.62117
房間	-9.62117
保存	-9.62119
安排	-9.62119
播種	-9.62122
▁panshizan	-9.62124
▁amotanto	-9.62125
談話	-9.62129
▁shintoa	-9.62148
▁amotosiwak	-9.62159
▁mingqarayza	-9.62159
柱子	-9.62169
▁mathay	-9.62175
新年	-9.62195
▁isaran	-9.62217
▁soi	-9.62217
或是	-9.62369
不一樣	-9.62392
可能是	-9.62434
▁shana	-9.62441
▁amakatho	-9.62473
▁amonai	-9.62511
完了	-9.6254
很重	-9.62646
▁minparaw	-9.62702
說話	-9.62705
▁qati	-9.62729
▁kmin	-9.62732
白色的	-9.62996
▁waqa	-9.6314
可能會	-9.63269
ata	-9.63287
▁okawan	-9.63403
送給	-9.63438
noq	-9.63496
rizin	-9.63524
我去	-9.63673
▁我很	-9.63681
paroan	-9.63803
的故事	-9.6386
來的	-9.63864
▁aqor	-9.63914
不用	-9.63918
兩個	-9.64242
若要	-9.64287
kathon	-9.64803
實	-9.64876
e	-9.65618
我們去	-9.65877
2	-9.65908
▁昨天	-9.65911
▁shma	-9.6625
的魚	-9.66286
他沒有	-9.66384
▁shmo	-9.66393
我的朋友	-9.66442
家裡	-9.66587
路上	-9.6669
▁shin	-9.66698
▁你若	-9.66879
▁kinai	-9.66986
過來	-9.67022
▁ifazin	-9.67046
設	-9.67307
我們一起	-9.67478
儀式	-9.67614
iabariz	-9.67637
aqor	-9.67832
▁manashaiza	-9.68015
▁mongkakaylas	-9.68287
大的	-9.68514
養	-9.68627
▁Shulay	-9.68741
解	-9.68974
▁ifaz	-9.69103
thoaw	-9.69126
▁pashta	-9.69228
清楚	-9.6926
本書	-9.69277
▁tamako	-9.69288
▁我正在	-9.69288
dishlom	-9.69293
▁pakikalhi	-9.69362
也是	-9.69386
掉落	-9.69423
頭髮	-9.69424
比賽	-9.69461
稻	-9.69469
我來	-9.69491
管	-9.69494
穀	-9.69496
全	-9.69502
枝	-9.69516
qoalh	-9.69519
▁palhinona	-9.69561
掛	-9.69565
▁lhmaza	-9.69595
稱	-9.69612
字	-9.69631
爬	-9.6964
具	-9.69645
鬆	-9.69648
味	-9.69652
美	-9.69655
散	-9.69656
存	-9.69658
妳	-9.69659
貓	-9.69663
滑	-9.69663
低	-9.69663
託	-9.69663
▁kmolhpazishan	-9.69663
▁madaidaz	-9.69663
▁mathathawa	-9.69663
▁qinaras	-9.69663
▁shmoroz	-9.69663
▁tafoq	-9.69663
▁taparoz	-9.69663
刮	-9.69663
夢	-9.69663
揹	-9.69663
殺	-9.69663
鹽	-9.69663
qtilha	-9.69663
雨停了	-9.69663
▁shiroan	-9.69663
插	-9.69663
▁pikoin	-9.69664
▁sakpin	-9.69664
舒服	-9.69664
沈	-9.69664
▁pinintata	-9.69664
迅雷	-9.69664
八	-9.69664
▁matodahip	-9.69664
度	-9.69664
玉米	-9.69664
終於	-9.69665
▁kafazaqin	-9.69665
摸	-9.69665
緊	-9.69666
畫圖	-9.69666
▁taodoo	-9.69669
雨傘	-9.69672
▁Mani	-9.69673
擁有	-9.69677
賺錢	-9.69677
▁iakarishkish	-9.69679
▁mokthoaw	-9.69681
▁mozin	-9.69683
▁wathan	-9.69686
二十	-9.69686
鋤頭	-9.69688
▁palhintaz	-9.69697
改變	-9.69699
頭目	-9.69702
iwak	-9.69703
下午	-9.69708
patara	-9.69716
▁pandoo	-9.69717
很堅固	-9.69719
sapok	-9.69741
總是	-9.69742
▁mosaran	-9.69745
▁milhilhi	-9.69766
▁mashasho	-9.69774
▁molhkiz	-9.69775
pidiq	-9.69803
山豬肉	-9.69921
天黑了	-9.69935
很好看	-9.69961
我將	-9.70044
像是	-9.70339
qoo	-9.70452
的部落	-9.70459
▁polhipas	-9.70533
放到	-9.70659
tatara	-9.71121
poo	-9.71125
的食物	-9.71239
▁lhm	-9.71367
變得	-9.71603
▁inara	-9.71785
▁kat	-9.71837
▁maqalhiw	-9.71931
▁mataliza	-9.71984
▁marfarfaz	-9.71994
不過	-9.72031
lin	-9.72285
▁你有	-9.7242
▁他已經	-9.72466
你喜歡	-9.72735
▁korari	-9.72838
▁tmara	-9.72846
▁那是什麼	-9.72872
moqthawan	-9.73652
▁Umaw	-9.73702
tnaq	-9.73735
motosi	-9.73817
本來	-9.7383
的事	-9.73916
toan	-9.74367
來吃	-9.74403
因為沒有	-9.75015
轉	-9.75371
▁palh	-9.7558
還不	-9.75797
ntal	-9.75805
因為他	-9.75961
送	-9.76093
我想	-9.7612
些	-9.76175
壞	-9.76218
這時	-9.76264
斷	-9.76287
通	-9.76443
naak	-9.76636
bona	-9.76804
過去	-9.77119
thi	-9.77166
完	-9.77195
園	-9.77209
▁Malala	-9.77235
剛好	-9.77265
在家	-9.77403
▁malhalhas	-9.77438
▁pashtiroq	-9.77456
橡皮擦	-9.77467
造	-9.77574
次	-9.77628
臭	-9.77635
taqaz	-9.77669
牽戲	-9.77701
lhkiz	-9.77709
今	-9.7771
藥	-9.77727
T	-9.77742
站	-9.77744
angqaroz	-9.77748
▁shaonanai	-9.77758
hazish	-9.7777
屋	-9.7778
法	-9.77782
邵族的語言	-9.77782
情	-9.77795
表	-9.77796
箭	-9.778
嘴巴	-9.77806
歲	-9.77806
如	-9.77807
碾	-9.7781
衣	-9.77816
保	-9.77819
灰	-9.77821
某	-9.77821
▁Lit	-9.77822
彩虹	-9.77824
弓	-9.77825
遷	-9.77826
藤	-9.77826
化	-9.77827
逐	-9.77828
烏克蘭	-9.77829
順	-9.77829
去台北	-9.77829
鹿	-9.7783
醒	-9.7783
飛來飛去	-9.7783
▁hado	-9.7783
▁lhompiaq	-9.7783
▁tahamish	-9.7783
▁Украина	-9.7783
負	-9.7783
錯	-9.7783
roqit	-9.7783
糖果	-9.7783
polhaqtha	-9.7783
▁tipor	-9.7783
▁tofoish	-9.7783
剖	-9.7783
剪	-9.7783
姐姐	-9.7783
瘦	-9.7783
辣椒	-9.7783
▁podaqo	-9.7783
▁tiansi	-9.7783
▁miaramaz	-9.77833
▁lhalhaoshin	-9.77834
▁aktalha	-9.77835
▁thapa	-9.77835
Pariqaz	-9.77837
尋找	-9.77839
▁kakolhaw	-9.7784
▁lhkananai	-9.7784
寫字	-9.77852
▁mingqtha	-9.77855
族女	-9.77865
▁initosi	-9.77872
▁pisoi	-9.77875
▁polhalhozo	-9.77883
itosi	-9.7789
國家	-9.77891
▁malhintaz	-9.77892
▁montaraw	-9.779
▁moshnaw	-9.77907
日本人	-9.77929
鍋子	-9.7795
天空	-9.77952
痠	-9.77968
壓著	-9.77993
▁pali	-9.77995
而已	-9.78001
▁mapariqaz	-9.78047
穿著	-9.78068
korkor	-9.78104
也許是	-9.78257
iop	-9.78329
▁maqitaniza	-9.78373
tah	-9.78408
▁onai	-9.78458
soq	-9.78469
▁amakilhim	-9.78493
▁tatilhbo	-9.78522
的小孩	-9.78537
▁老鼠	-9.78626
起來了	-9.78901
長出	-9.79027
▁fariwin	-9.79345
▁mapaqaqitan	-9.79431
▁afariwin	-9.79541
▁kal	-9.79627
▁oi	-9.79653
▁kaiza	-9.79718
為我	-9.79797
lang	-9.7988
onan	-9.79887
▁wali	-9.80118
自己的	-9.80307
itan	-9.80329
ran	-9.80594
買的	-9.80786
的語言	-9.80824
給他們	-9.81258
fon	-9.81678
讓我	-9.81875
▁azazakoan	-9.82119
sii	-9.82315
▁如果有	-9.82973
裡的水	-9.83118
頭人	-9.83237
ron	-9.83673
▁panaqa	-9.83745
▁minma	-9.83845
▁apin	-9.84
的背	-9.84026
▁izao	-9.84065
去了	-9.84254
一隻	-9.84532
幫我	-9.84772
還在	-9.84865
拿去	-9.84966
高興	-9.85536
zima	-9.85646
g	-9.85682
ith	-9.85995
▁paqai	-9.86079
的花	-9.8613
吊	-9.86135
除	-9.86185
▁他們在	-9.86217
土地	-9.8625
▁toqatoqash	-9.86335
▁amosha	-9.8635
▁pisai	-9.86363
▁monsa	-9.86367
跑步	-9.86402
▁posai	-9.86424
外面	-9.86503
肥	-9.86533
tosha	-9.86542
aodo	-9.86544
▁香蕉	-9.86552
湖	-9.86586
獵物	-9.86595
日本	-9.86607
ladado	-9.86613
B	-9.86633
待	-9.86644
▁tonaw	-9.86651
集	-9.86674
島	-9.86677
doq	-9.86679
領	-9.86682
越來越	-9.86688
fazfaz	-9.86689
oliqliq	-9.8669
語	-9.86695
mangkathi	-9.86695
安	-9.86699
河	-9.867
談	-9.86703
束	-9.86704
注意	-9.86705
混	-9.86708
六	-9.86708
什麼時候	-9.86711
qizi	-9.86711
踢	-9.86712
道	-9.86713
提	-9.86714
間	-9.86715
軟	-9.86718
您	-9.8672
懷	-9.86722
烤	-9.86723
尖	-9.86723
斜	-9.86723
練習	-9.86723
蕎	-9.86723
ishtatokdoz	-9.86723
shoqrom	-9.86723
tinakawash	-9.86723
▁Hanaan	-9.86723
▁Shiaw	-9.86723
▁apiakozan	-9.86723
▁farazay	-9.86723
▁ishawanan	-9.86723
▁kirpa	-9.86723
▁mashanpanaq	-9.86723
▁pashampanaq	-9.86723
▁patongqaolh	-9.86723
▁qilhqilh	-9.86723
▁laqop	-9.86723
▁mashthao	-9.86723
娶媳婦	-9.86723
▁folhia	-9.86723
▁psaq	-9.86723
▁qmaqotilh	-9.86723
怎樣	-9.86724
▁rotaw	-9.86724
Panai	-9.86724
寮	-9.86724
台	-9.86724
aqalhooz	-9.86724
▁tondoo	-9.86724
決定	-9.86724
▁我因為	-9.86725
▁afoilh	-9.86725
仍然	-9.86725
腐	-9.86725
消失	-9.86725
▁mingkashlay	-9.86726
玩耍	-9.86726
▁palhpora	-9.86726
▁lhomfawa	-9.86727
▁ondaodaok	-9.86728
▁mashashdoo	-9.86729
▁manshirshir	-9.86731
▁zoka	-9.86731
月亮	-9.86734
▁potot	-9.86735
甜酒	-9.86737
動物	-9.86742
▁lazitho	-9.86743
之前	-9.86743
inaan	-9.86744
▁奶奶說	-9.86745
▁sasaziza	-9.8675
qaqa	-9.86768
▁mahaziwhiw	-9.86772
▁makoshwit	-9.86777
漢人	-9.86783
喝酒	-9.86792
oish	-9.86814
時間	-9.86827
lhazan	-9.86862
小鳥	-9.8689
▁bonaz	-9.86891
▁lhon	-9.8692
不管	-9.86926
不見了	-9.86951
年輕人們	-9.86959
:"	-9.86964
▁shdoiza	-9.86971
水果	-9.87044
學會	-9.87047
只要	-9.87126
▁malhalhasiza	-9.87153
稱為	-9.87206
很長	-9.87255
▁parhawaywan	-9.87325
的稻子	-9.87338
剛剛	-9.87392
▁pom	-9.87416
謝謝你	-9.8743
nith	-9.87438
好吃	-9.87441
▁makalhtorotoro	-9.87481
▁maqasbit	-9.87481
▁mongkakailas	-9.87481
有幾個	-9.87619
▁mari	-9.87644
▁qdop	-9.87686
▁qosaziniza	-9.87718
成熟	-9.87855
帶子	-9.87912
inor	-9.88075
有些	-9.88139
回來了	-9.88394
▁qalosh	-9.88455
出來了	-9.885
▁shm	-9.88634
那時	-9.88707
ikiza	-9.88932
的路	-9.89003
我們邵族人	-9.89091
的儀式	-9.89212
在下雨	-9.89256
什麼東西	-9.89348
的山	-9.89357
▁minakatosi	-9.89511
oto	-9.89655
kaan	-9.89696
▁myaqa	-9.89782
▁makin	-9.89824
raq	-9.89988
所有	-9.9017
▁pinasa	-9.90691
ifafaw	-9.91204
▁昨天我	-9.91364
▁montonoq	-9.91552
▁pinak	-9.91749
▁amat	-9.92158
fafaw	-9.9225
我不知道	-9.92271
araiza	-9.9355
後面	-9.93758
▁katho	-9.9378
豆	-9.94025
▁這個小孩	-9.94099
被他們	-9.94481
這裡有	-9.94535
iao	-9.94564
水田	-9.94798
地方	-9.95015
害怕	-9.95073
的妻子	-9.95244
經	-9.95423
就好	-9.95509
amotaon	-9.95543
配	-9.95666
▁lhalhozo	-9.95792
▁kazash	-9.95833
漂亮的	-9.95914
boqnor	-9.96008
▁mabolaw	-9.96096
proq	-9.96108
▁hara	-9.96224
見	-9.96273
兒	-9.96289
▁mataq	-9.96294
kondor	-9.96298
傳	-9.96307
haha	-9.9631
方	-9.96314
▁shon	-9.96318
shkash	-9.96346
力	-9.96368
頂	-9.96377
飽	-9.96381
▁tmaza	-9.96398
哪	-9.96398
akanantoa	-9.96417
森林	-9.9642
▁matithi	-9.96423
剃	-9.96426
shpaat	-9.96428
shfara	-9.9643
金	-9.96437
雜	-9.9644
整	-9.96446
慢	-9.96446
製	-9.96458
信	-9.96459
血	-9.96464
及	-9.96465
貴	-9.96466
耕	-9.96468
戲	-9.96469
屋頂	-9.96471
傷	-9.96478
移	-9.96478
根	-9.96479
橋	-9.9648
尾	-9.96481
勞	-9.96483
昏	-9.96483
牙	-9.96483
清	-9.96484
條	-9.96484
足	-9.96485
深	-9.96485
餓	-9.96485
短	-9.96485
膿	-9.96485
Wusay	-9.96485
kalangkan	-9.96485
pontonoq	-9.96485
с	-9.96485
▁bailo	-9.96485
▁didir	-9.96485
▁farokoz	-9.96485
▁finshiq	-9.96485
▁flhoflhoq	-9.96485
▁hmado	-9.96485
▁kilhtoali	-9.96485
▁kmolhaw	-9.96485
▁lhmilhiq	-9.96485
▁lhozosh	-9.96485
▁loshkin	-9.96485
▁makashqot	-9.96485
▁makotnir	-9.96485
▁masozay	-9.96485
▁mimbabaw	-9.96485
▁mingqaraiza	-9.96485
▁mondadadaan	-9.96485
▁piaroroon	-9.96485
▁qris	-9.96485
▁ripay	-9.96485
▁thihto	-9.96485
▁tihaota	-9.96485
盪鞦韆	-9.96485
舀	-9.96485
Qarbash	-9.96485
▁alhakaiza	-9.96485
▁matinhomhom	-9.96485
打瞌睡	-9.96485
累	-9.96485
姑婆芋	-9.96485
▁matoroz	-9.96485
附近	-9.96485
反	-9.96486
推	-9.96486
砰	-9.96486
Kololo	-9.96486
▁paqaan	-9.96486
刻	-9.96486
的聲音	-9.96486
▁malhkaktha	-9.96487
mongqtha	-9.96487
歷	-9.96487
舖	-9.96488
▁manataon	-9.96488
響	-9.96488
確實	-9.96488
少許	-9.96488
岸	-9.96489
▁apakaan	-9.96489
▁kontanlhoan	-9.96489
▁shontam	-9.96489
100	-9.9649
木柴	-9.9649
比較	-9.9649
雷鳴	-9.9649
▁katdaodaok	-9.9649
搔耙	-9.96496
▁lhkatosi	-9.96497
Tian	-9.96498
▁panaproq	-9.965
▁masalpo	-9.965
太陽出來了	-9.96501
oqayzo	-9.96501
▁ktalha	-9.96504
▁poqnoan	-9.96505
四處	-9.96505
完成	-9.96506
倒下去	-9.96507
請客	-9.96507
▁paklilit	-9.96507
懂得	-9.96512
鴨子	-9.96514
▁imangkathi	-9.96516
▁ainoz	-9.96519
▁orom	-9.96519
山羊	-9.9652
再見	-9.96524
掉下來	-9.96528
▁tanadoo	-9.9653
▁inisa	-9.96531
▁moririw	-9.96532
▁malondoz	-9.96539
▁maparfo	-9.96539
▁poqangqan	-9.96543
▁ontal	-9.96544
籃子	-9.96547
paak	-9.96556
然後	-9.96566
一點點	-9.96568
▁paqit	-9.9657
▁athan	-9.96591
吃完	-9.96607
rozi	-9.96621
▁itanto	-9.96624
發生	-9.96656
並沒有	-9.9666
地面	-9.96661
很臭	-9.96667
iau	-9.96673
跟著	-9.96677
mimboqnor	-9.96687
▁我的手被	-9.96692
不在家	-9.96693
▁palalawan	-9.96698
不同的	-9.96751
如果不	-9.96811
很遠	-9.96825
腫起來	-9.96861
kazash	-9.9687
▁pashtiroqan	-9.96948
這些東西	-9.97056
lhalhozo	-9.97119
Malala	-9.97204
toqash	-9.9724
Kilash	-9.97269
Anai	-9.97277
▁amoqtha	-9.97301
從前	-9.97314
pariqaz	-9.97434
haya	-9.97475
▁tmal	-9.97525
現在已經	-9.97539
▁你今天	-9.97594
幫	-9.97598
▁zai	-9.97616
▁他因為	-9.97966
的年輕人	-9.98032
居住	-9.98237
▁mazim	-9.98257
你的頭髮	-9.98359
回去	-9.9836
▁fitfit	-9.98428
kii	-9.98581
二個	-9.98654
好像	-9.98664
我的腳	-9.98686
都要	-9.98732
如果要	-9.98798
▁thma	-9.98884
▁alha	-9.98889
▁malh	-9.98977
在地上	-9.99003
qana	-9.99101
在日月潭	-9.99102
是你的	-9.9952
被我放	-9.99733
去打獵	-9.99784
indahip	-9.99912
qayza	-10.001
▁paniza	-10.0026
我的頭	-10.0055
▁kolhaw	-10.0068
▁Sincyang	-10.0069
走過	-10.0094
koan	-10.0105
告訴我	-10.0163
▁motaoniza	-10.0167
的土地	-10.0174
耳朵	-10.0189
noma	-10.0198
他不	-10.02
一個人	-10.0253
種菜	-10.0257
▁mot	-10.0271
漂亮	-10.0284
▁pato	-10.0311
播	-10.0313
比特幣	-10.0317
講邵語	-10.0421
好看	-10.0428
日子	-10.0429
ntabal	-10.0449
okaktonin	-10.045
的耳朵	-10.0483
kakakri	-10.0491
▁paro	-10.0494
紅色的	-10.0496
▁ohiaw	-10.0511
衝	-10.0518
你可以	-10.0537
nasha	-10.0539
▁我有	-10.0551
由	-10.0561
我們是	-10.0566
認真	-10.057
做記號	-10.0662
成的	-10.0668
▁loish	-10.0669
胖	-10.0678
現	-10.0685
▁mingqaray	-10.0685
iko	-10.0691
的名字是	-10.0693
未	-10.0695
心想	-10.0701
▁maponish	-10.0703
▁minara	-10.0708
件	-10.0709
桶	-10.0712
癢	-10.0713
社	-10.0713
房	-10.0713
鍋	-10.0714
懶惰	-10.0715
勤勞	-10.0715
alhintaz	-10.0717
ilhongqo	-10.0719
扭	-10.0722
qangqan	-10.0723
捕	-10.0724
骨	-10.0725
目	-10.0725
此	-10.0727
離	-10.0727
柴	-10.0728
古	-10.0728
陷	-10.0728
閒話	-10.0728
讀	-10.0728
醉	-10.0728
彎	-10.0728
紋	-10.0729
呀	-10.0729
健康	-10.0729
假	-10.0729
藍	-10.0729
適	-10.0729
娶	-10.0729
油	-10.073
釘	-10.073
持	-10.073
錄	-10.073
撒	-10.073
辣	-10.073
節	-10.073
野	-10.073
論	-10.073
Kululu	-10.073
座	-10.073
Tuday	-10.073
在做什麼	-10.073
店	-10.073
唸	-10.073
▁Umas	-10.073
咒	-10.073
挺	-10.073
甘蔗	-10.073
該	-10.073
matobarabaraz	-10.073
oqrishoan	-10.073
pashqalhiw	-10.073
qmirqir	-10.073
▁Shinshii	-10.073
▁anthaap	-10.073
▁balinoqaz	-10.073
▁damriz	-10.073
▁finlhoq	-10.073
▁lalasi	-10.073
▁lhinitoz	-10.073
▁mabahba	-10.073
▁maboqthiw	-10.073
▁madondon	-10.073
▁makabokay	-10.073
▁mobloth	-10.073
▁podawaz	-10.073
▁qomqom	-10.073
▁shidadaidaz	-10.073
▁shkoda	-10.073
▁tilkon	-10.073
南	-10.073
▁infarin	-10.073
▁lhmofo	-10.073
▁madimrath	-10.073
▁mashtaan	-10.073
▁shiraos	-10.073
〜	-10.073
伊	-10.073
屎	-10.073
番石榴	-10.073
看電視	-10.073
窄	-10.073
裂	-10.073
承	-10.073
暈	-10.073
紅紅的	-10.073
煙	-10.073
霧	-10.073
▁kinlhit	-10.073
厚	-10.073
噴	-10.073
沙	-10.073
萌芽	-10.073
鏽	-10.073
擠	-10.073
模	-10.073
穩	-10.073
臺	-10.073
▁foar	-10.073
絕	-10.073
▁mayaw	-10.073
坑	-10.073
▁amaqosaz	-10.073
方式	-10.073
爭取	-10.073
shimolikoan	-10.073
咳	-10.073
塞	-10.073
至	-10.0731
糕	-10.0731
世界	-10.0731
業	-10.0731
地震	-10.0731
想念	-10.0731
▁mapano	-10.0731
kilao	-10.0731
柴刀	-10.0731
▁kororo	-10.0731
射箭	-10.0731
horhor	-10.0731
lop	-10.0731
問題	-10.0731
相處	-10.0732
▁qaono	-10.0732
lalao	-10.0732
遊玩	-10.0732
桃子	-10.0732
▁kamamori	-10.0732
▁pishqati	-10.0732
▁maqalhtash	-10.0732
▁qarit	-10.0732
何時	-10.0732
▁milh	-10.0733
▁kilhim	-10.0733
▁shaonahazish	-10.0733
▁koko	-10.0733
▁koaw	-10.0733
▁kawakawaran	-10.0733
▁ikain	-10.0733
從此	-10.0733
thadoq	-10.0733
河邊	-10.0733
hiahiaw	-10.0733
慢一點	-10.0734
砍倒	-10.0734
挖洞	-10.0735
▁pahibor	-10.0735
否則會	-10.0736
骨頭	-10.0736
大約	-10.0736
▁iasoon	-10.0736
海鳥	-10.0736
捕魚	-10.0736
一定	-10.0737
一群	-10.0737
生病	-10.0737
等等	-10.0737
邵人	-10.0738
▁malamlam	-10.0739
▁tmao	-10.0739
多少錢	-10.0739
▁amafazaq	-10.074
▁shaonanaiza	-10.074
幾天	-10.0741
▁kashi	-10.0743
煮飯	-10.0743
不懂	-10.0744
▁lhka	-10.0745
kaa	-10.0747
洞裡	-10.0747
▁現在是	-10.075
真正的	-10.0752
受到	-10.0752
開船	-10.0752
先生	-10.0754
lok	-10.0756
一位	-10.0757
▁amariqaz	-10.0761
▁patqal	-10.0763
很香	-10.0765
▁miahala	-10.0765
▁malhias	-10.0765
很合	-10.0766
買東西	-10.0768
上山	-10.0768
使用	-10.0772
很冷	-10.0773
▁那人	-10.0779
全部都是	-10.0783
即	-10.0783
▁今天是	-10.0789
身上	-10.079
▁這東西	-10.0794
▁tosoq	-10.0796
到這裡	-10.0797
走路時	-10.0799
壞了	-10.0801
▁kminaaniza	-10.0802
綠色	-10.0812
沖走	-10.0812
▁你為什麼	-10.0813
▁mashbabiar	-10.0824
▁oshaiza	-10.0824
被媽媽	-10.0837
▁pintatan	-10.0837
的歌	-10.085
▁我喜歡	-10.0855
婦女	-10.0858
▁qmosaziza	-10.0861
因為被	-10.0872
▁我的衣服	-10.0879
原住民族	-10.0899
▁moqthaiza	-10.0908
azoan	-10.0922
lhaza	-10.0929
▁naoriza	-10.0934
saran	-10.0934
男	-10.0936
mongkakaylas	-10.094
▁從前邵族	-10.0946
lhongqizi	-10.0949
在路上	-10.0951
qilha	-10.0956
爸爸媽媽	-10.0972
時會	-10.0977
這是我的	-10.0996
▁antabal	-10.1019
palhoizaan	-10.1053
mino	-10.1066
▁iananiza	-10.1136
kaosh	-10.1163
▁pansh	-10.1171
會唱歌	-10.1185
我沒	-10.1186
的皮	-10.1195
吃過	-10.1257
他也	-10.1291
kaza	-10.1295
tanto	-10.1304
20	-10.1304
有一隻	-10.1332
在祖靈屋	-10.1334
30	-10.1431
lai	-10.1439
faw	-10.1444
我的錢	-10.1445
▁將被	-10.1451
▁pinai	-10.1456
我們也	-10.1462
tam	-10.1503
不要拿	-10.1538
灑	-10.1558
▁inangqto	-10.1565
hok	-10.1585
有錢	-10.1631
haq	-10.1648
已經有	-10.1698
明天要	-10.1708
居	-10.1724
巴	-10.1748
的房屋	-10.1759
▁kinaan	-10.1774
▁shmi	-10.1775
熄滅了	-10.1809
的眼睛	-10.1817
▁pashnara	-10.1831
▁minra	-10.1833
00	-10.1841
就把	-10.1856
roqoz	-10.1872
▁shaonatosi	-10.1892
其	-10.1892
熟了	-10.1896
▁lhopish	-10.1897
▁paqaqoyash	-10.1905
▁poqto	-10.1907
hibor	-10.1919
求	-10.1919
idiq	-10.1921
lhthkiz	-10.1921
qarimozmoz	-10.1924
邵	-10.1926
飾	-10.1926
karkar	-10.1927
因	-10.1928
▁mato	-10.1929
otaq	-10.1932
甘藷	-10.1935
約	-10.1936
boq	-10.1936
anhapal	-10.1937
hoboq	-10.1938
林	-10.1939
隨	-10.1939
鼠	-10.194
moroboz	-10.194
牽	-10.194
▁Ami	-10.194
產	-10.194
興	-10.194
daodaok	-10.1941
聚	-10.1941
烘	-10.1941
答	-10.1941
bot	-10.1942
遊	-10.1942
功	-10.1942
舂	-10.1942
性	-10.1942
染	-10.1942
綠	-10.1942
傘	-10.1942
耙	-10.1942
觀	-10.1942
寶	-10.1943
dimra	-10.1943
鄉	-10.1943
項鍊	-10.1943
決	-10.1943
浸	-10.1943
市	-10.1943
課	-10.1943
杵	-10.1943
▁qrio	-10.1944
披	-10.1944
復	-10.1944
認識	-10.1944
連	-10.1944
員	-10.1944
這麼多	-10.1944
穿山甲	-10.1944
Selep	-10.1944
domor	-10.1944
kazinkin	-10.1944
madoay	-10.1944
matanlhathaq	-10.1944
▁Lhkatafato	-10.1944
▁Shtafari	-10.1944
▁bibi	-10.1944
▁fafinshiq	-10.1944
▁fkat	-10.1944
▁kakado	-10.1944
▁laholaho	-10.1944
▁lhimza	-10.1944
▁makorada	-10.1944
▁manhiri	-10.1944
▁matiashaq	-10.1944
▁miabrith	-10.1944
▁mindomdom	-10.1944
▁paroparo	-10.1944
▁pilhnath	-10.1944
▁pinalhinona	-10.1944
▁qmalosh	-10.1944
▁qompit	-10.1944
▁qondop	-10.1944
▁smoqom	-10.1944
▁talhoqan	-10.1944
▁tapaha	-10.1944
▁tatortor	-10.1944
▁tmolhanaz	-10.1944
惡	-10.1944
洗一洗	-10.1944
燈	-10.1944
索	-10.1944
陣	-10.1944
▁Qabizay	-10.1944
▁kmaipaqit	-10.1944
▁mashoroiza	-10.1944
▁olalaloan	-10.1944
▁pashbalis	-10.1944
▁pinoqafay	-10.1944
兄弟姊妹	-10.1944
嗨	-10.1944
捨不得	-10.1944
蚌殼	-10.1944
somal	-10.1944
▁ataobokbok	-10.1944
▁mashiqarman	-10.1944
強	-10.1944
沉	-10.1944
疼惜	-10.1944
Luhuk	-10.1944
們昨天去	-10.1944
劈	-10.1944
濁	-10.1944
獻	-10.1944
贏	-10.1944
Atung	-10.1944
敬	-10.1944
樓	-10.1944
繫	-10.1944
Qaqthin	-10.1944
商議	-10.1944
雲	-10.1944
髒	-10.1944
▁paknazaq	-10.1944
續	-10.1944
▁poqthaan	-10.1944
▁qalhom	-10.1944
妹妹	-10.1944
癰瘡	-10.1944
考	-10.1944
形	-10.1944
小矮人	-10.1944
▁qashay	-10.1944
浪費	-10.1944
pinangqa	-10.1944
▁kalhan	-10.1944
▁kaol	-10.1944
課本	-10.1944
用左手	-10.1944
shminaw	-10.1944
masoqom	-10.1944
▁minglhaqraw	-10.1944
找不到	-10.1944
法律	-10.1944
遺失	-10.1944
▁tandado	-10.1944
▁rial	-10.1944
獲得	-10.1944
柬埔寨	-10.1944
遊客	-10.1944
黃金	-10.1944
參與	-10.1944
結束	-10.1944
鐵釘	-10.1944
抽痛	-10.1944
製造	-10.1945
Il	-10.1945
臭味	-10.1945
▁piakalingkin	-10.1945
完全	-10.1945
▁konsaqazi	-10.1945
乘船	-10.1945
古代	-10.1945
擔心	-10.1945
▁roko	-10.1945
▁mariqos	-10.1945
▁kaytono	-10.1945
▁sinay	-10.1945
飛機	-10.1945
鞋子	-10.1945
田園	-10.1945
同學	-10.1945
▁At	-10.1945
藍色	-10.1945
▁ktir	-10.1946
山禽	-10.1946
蓋房子	-10.1946
手機	-10.1946
畫畫	-10.1946
拜拜	-10.1946
▁kmakaan	-10.1946
▁pidazah	-10.1947
Ali	-10.1947
▁shidoq	-10.1947
認為	-10.1947
▁他們二人	-10.1947
▁刀子	-10.1947
▁miadokhokhon	-10.1947
配飯	-10.1947
▁thmapo	-10.1947
很遠的地方	-10.1947
▁boqan	-10.1947
▁otanto	-10.1947
▁ilhongqoan	-10.1948
riri	-10.1948
翻土	-10.1948
▁Taipak	-10.1948
▁aminfazaq	-10.1949
是否	-10.1949
泥土	-10.1949
▁miamamraw	-10.1949
令人	-10.1949
▁ianaora	-10.195
otolh	-10.1951
▁kiro	-10.1951
中意	-10.1951
發燒	-10.1951
▁mriri	-10.1952
重新	-10.1953
▁mobalabalay	-10.1953
▁pinalhalhoiza	-10.1953
▁momamoqmoq	-10.1953
▁pataqaz	-10.1954
很兇	-10.1955
感到	-10.1956
老人家	-10.1956
▁klhitin	-10.1956
▁這是什麼	-10.1957
▁piazain	-10.1957
小山豬	-10.1958
老人們	-10.1958
有些人	-10.1959
頭飾	-10.196
全都是	-10.1962
成長	-10.1962
▁mathayza	-10.1963
▁你們家	-10.1963
兒子	-10.1964
▁fin	-10.1965
▁minboqnor	-10.1966
▁zaik	-10.1967
▁kaora	-10.1968
▁farifariwin	-10.1969
扶著我	-10.1969
▁你有幾個	-10.1972
這邊	-10.1973
原住民的	-10.1973
sasaz	-10.1975
被人打	-10.1975
olhthkizin	-10.1977
▁pohoboqiza	-10.1978
akish	-10.198
▁motal	-10.1981
▁lhazai	-10.1982
▁alhai	-10.1982
當做	-10.1983
▁mingqarayiza	-10.1988
▁pasaik	-10.1989
將被我	-10.1991
如果有人	-10.1992
iqilhan	-10.1994
的葉子	-10.1994
shizoq	-10.2001
shaonatosiza	-10.2002
ongqa	-10.2005
當時	-10.2005
pit	-10.2011
熱鬧	-10.2013
▁tonroqo	-10.2016
我沒有在	-10.202
moqtha	-10.2023
一種	-10.2033
▁今天我	-10.2034
我們來	-10.2036
▁polaonin	-10.2036
我的名字是	-10.2041
告訴他	-10.2041
0	-10.2045
這繩子	-10.2053
我們的部落	-10.2055
lian	-10.2055
一天	-10.2057
收起來	-10.2062
▁palanan	-10.2062
他的眼睛	-10.208
種子	-10.2091
▁tamohonan	-10.2124
很害怕	-10.2125
帶了	-10.2141
▁shizo	-10.2149
不要再	-10.215
甜	-10.2165
anto	-10.2183
沒了	-10.2221
是學生	-10.2222
打掉	-10.2227
▁apit	-10.2229
很久了	-10.2234
nton	-10.224
你看	-10.2252
人家	-10.2263
去學校	-10.2291
kanin	-10.2307
shnaw	-10.2315
▁rizi	-10.2316
▁我沒有	-10.2322
flhoq	-10.2328
thitho	-10.2337
的日子	-10.2338
kahiwan	-10.2342
pasain	-10.2343
▁kam	-10.235
saqazi	-10.2388
邵族的祖先	-10.2428
thoy	-10.2443
幾個	-10.2476
mik	-10.2522
yan	-10.2523
kari	-10.2532
▁shinai	-10.2558
也要	-10.256
種種	-10.2585
我的媽媽	-10.2596
所有的	-10.2623
uz	-10.2627
▁anai	-10.2718
▁tao	-10.2723
▁shangq	-10.2739
我都	-10.2751
別的	-10.28
lish	-10.2808
把它	-10.2831
intoa	-10.286
apawin	-10.2865
我的東西	-10.2895
的朋友	-10.2916
這裡的人	-10.295
▁pasa	-10.2958
kh	-10.2965
▁titish	-10.2979
▁palhoiza	-10.3027
是原住民	-10.3086
每天	-10.3127
是什麼東西	-10.3131
isi	-10.3191
▁amindahip	-10.321
▁polaon	-10.322
▁shdo	-10.3248
lhmamoqmoq	-10.3256
樂	-10.3284
覺	-10.3284
▁pishdohaz	-10.3286
aqdop	-10.3291
▁pohoboq	-10.3293
黃	-10.3295
命	-10.3296
扶著	-10.3299
homhom	-10.3302
孩	-10.3303
懂	-10.3304
tobo	-10.3304
▁pinat	-10.3307
前面	-10.3308
類	-10.3308
矮	-10.3309
▁piazai	-10.331
kakton	-10.331
燙	-10.331
騙	-10.331
感	-10.3311
失	-10.3312
達	-10.3312
ntaraw	-10.3312
pshiq	-10.3319
掃	-10.3319
年輕	-10.3319
已經熟了	-10.3319
母	-10.3321
擔	-10.3321
客	-10.3321
D	-10.3321
▁ktaq	-10.3322
遮	-10.3322
涼	-10.3322
禮	-10.3323
師	-10.3323
九	-10.3323
官	-10.3323
按	-10.3323
嚇	-10.3323
修	-10.3323
袋	-10.3323
線	-10.3324
甲	-10.3324
怕	-10.3324
講的話	-10.3324
獨	-10.3324
媽	-10.3324
追	-10.3324
文	-10.3324
忙	-10.3324
波	-10.3324
籬	-10.3324
制	-10.3324
建	-10.3324
共	-10.3324
旺加里	-10.3324
費	-10.3324
喜	-10.3324
嫁	-10.3324
舂石音	-10.3324
遺	-10.3324
撿	-10.3324
透	-10.3324
摩托車	-10.3325
熊	-10.3325
Rungquan	-10.3325
很厲害	-10.3325
扁	-10.3325
收存起來	-10.3325
蛆	-10.3325
訂	-10.3325
退	-10.3325
Padaw	-10.3325
冰	-10.3325
篩	-10.3325
圓	-10.3325
怎麼樣	-10.3325
▁shasho	-10.3325
不要搔扒	-10.3325
炰	-10.3325
盤	-10.3325
磨	-10.3325
護士	-10.3325
顆	-10.3325
▁爺爺說	-10.3325
偷別人的東西	-10.3325
斗	-10.3325
瞧不起	-10.3325
banhilan	-10.3325
diplhaq	-10.3325
haraqhaq	-10.3325
mompothok	-10.3325
shontaam	-10.3325
thakthak	-10.3325
í	-10.3325
▁Alishay	-10.3325
▁Lhkapamomo	-10.3325
▁Shohot	-10.3325
▁Shoni	-10.3325
▁amindaaq	-10.3325
▁babaho	-10.3325
▁baylo	-10.3325
▁dahon	-10.3325
▁ftofto	-10.3325
▁kantashan	-10.3325
▁kmangqtha	-10.3325
▁lhalhiklhik	-10.3325
▁lhamoroq	-10.3325
▁lhimash	-10.3325
▁lhmaoshin	-10.3325
▁makatanatho	-10.3325
▁maqolha	-10.3325
▁matarithtith	-10.3325
▁matinhina	-10.3325
▁mazangqaw	-10.3325
▁milhalhilhi	-10.3325
▁minaboot	-10.3325
▁moroshrosh	-10.3325
▁motoqris	-10.3325
▁pakadaodaok	-10.3325
▁paziwat	-10.3325
▁piakozan	-10.3325
▁pinakatho	-10.3325
▁pinataqal	-10.3325
▁pinotiqo	-10.3325
▁poshawil	-10.3325
▁qmothqoth	-10.3325
▁qtaqi	-10.3325
▁rabo	-10.3325
▁rikish	-10.3325
▁shadonan	-10.3325
▁shmiraos	-10.3325
▁tamaqoan	-10.3325
▁thmanithanit	-10.3325
▁tmosoq	-10.3325
▁wawishwish	-10.3325
份	-10.3325
剝	-10.3325
商量	-10.3325
奇力魚	-10.3325
會中毒	-10.3325
箕	-10.3325
▁ananaikin	-10.3325
▁kaida	-10.3325
▁sinapok	-10.3325
喝醉酒	-10.3325
囉	-10.3325
汗	-10.3325
漾	-10.3325
▁Nawi	-10.3325
▁minatash	-10.3325
差	-10.3325
棒	-10.3325
縫	-10.3325
賞	-10.3325
鹹	-10.3325
▁mototosi	-10.3325
梳	-10.3325
聞	-10.3325
你明天要去哪裡	-10.3325
善	-10.3325
枯萎	-10.3325
溫暖	-10.3325
的木材	-10.3325
躲	-10.3325
▁唉呀	-10.3325
脹	-10.3325
▁qonriorioq	-10.3325
mahonoq	-10.3325
遭	-10.3325
▁iaqay	-10.3325
▁indahipiwak	-10.3325
▁thaqi	-10.3325
Shuhut	-10.3325
任何	-10.3325
瞎	-10.3325
馬	-10.3325
內	-10.3325
統治	-10.3325
故意	-10.3325
象	-10.3325
密	-10.3325
有時候	-10.3325
引	-10.3325
基	-10.3325
彼此	-10.3325
manishir	-10.3325
小小的	-10.3325
▁malhiaqa	-10.3325
堅	-10.3325
參加	-10.3325
鑿牙	-10.3325
▁apangqa	-10.3325
政策	-10.3325
▁lisia	-10.3325
商店	-10.3325
粿	-10.3325
長輩	-10.3325
▁Toapinaa	-10.3325
雅族	-10.3325
醫院	-10.3325
犁田	-10.3325
熟練	-10.3325
▁makakalingkin	-10.3325
吊橋	-10.3325
不好意思	-10.3325
嘗試	-10.3325
教導	-10.3325
▁kininaia	-10.3325
母親	-10.3325
▁那些孩子喜歡	-10.3325
▁makabonlhaz	-10.3326
▁pimpho	-10.3326
▁araii	-10.3326
isoso	-10.3326
Shuni	-10.3326
▁makapa	-10.3326
你是不是	-10.3326
▁pitpit	-10.3326
▁karin	-10.3326
染色	-10.3326
破皮	-10.3326
日本政府	-10.3326
▁faat	-10.3326
女方	-10.3326
果實	-10.3326
外衣	-10.3326
▁makitnasha	-10.3327
同意	-10.3327
▁alos	-10.3327
▁lhqizi	-10.3327
▁kazowazo	-10.3327
涼快	-10.3327
酒醉	-10.3327
▁kbzawi	-10.3327
曬太陽	-10.3328
▁pinalhi	-10.3328
心意	-10.3328
位於	-10.3328
下大雨	-10.3328
▁這個東西	-10.3328
隊長	-10.3328
遠處	-10.3328
▁miakazash	-10.3328
湖邊	-10.3328
▁mashapiq	-10.3328
▁mososoon	-10.3329
tiakahiwan	-10.3329
筍子	-10.3329
人民	-10.3329
▁mikokaan	-10.333
還未	-10.333
▁maplish	-10.3331
▁dilanin	-10.3331
孫子	-10.3331
出去玩	-10.3331
集中	-10.3331
▁molhomzaw	-10.3331
▁malhathaq	-10.3332
天黑	-10.3332
▁tmalah	-10.3332
▁lashpaat	-10.3333
▁那隻	-10.3333
森林裡	-10.3334
▁lolooman	-10.3335
▁pariri	-10.3335
人類	-10.3336
鋸子	-10.3336
背簍	-10.3337
失去	-10.3337
▁posoi	-10.3338
砂子	-10.3339
青菜	-10.3339
▁otosi	-10.3339
分發	-10.334
開花	-10.3342
太多	-10.3342
打結	-10.3344
很勤勞	-10.3344
面對	-10.3345
地名	-10.3347
要求	-10.3349
▁我的身體	-10.3349
海裡	-10.3349
沾滿	-10.3349
很難過	-10.3352
有很大的	-10.3352
▁kaanoan	-10.3353
趕	-10.3354
ifazik	-10.3354
▁我曾	-10.3355
小雞	-10.3359
▁請你拿	-10.336
生小孩	-10.336
▁shaza	-10.3363
我要去埔里	-10.3364
過年時	-10.3364
放開	-10.3366
ilo	-10.337
lhaqa	-10.3375
▁不要讓	-10.3375
帶東西	-10.3376
很快就會	-10.3378
沒有看到	-10.3389
沒空	-10.3397
▁kthi	-10.3401
▁這工作	-10.3402
▁fariwiniza	-10.3411
被人們	-10.3414
帶回家	-10.3414
在講話	-10.3416
▁tanlhoaniza	-10.3424
是啊	-10.3426
▁kakan	-10.3431
不太	-10.3436
在讀書	-10.3439
會洗衣服	-10.3439
你的孩子	-10.3442
▁amakalawa	-10.3442
iaqitan	-10.3443
長大了	-10.3447
還不要	-10.3453
沒有錢	-10.3454
▁我被他	-10.3454
祖靈屋裡	-10.3457
死了	-10.3471
▁我已	-10.3472
被風吹	-10.3478
用竹	-10.3483
加入	-10.3484
▁我常常	-10.3492
一個是	-10.3501
的族人	-10.3517
妻子	-10.3518
非常漂亮	-10.3522
火熄滅	-10.3528
▁我一直	-10.3529
▁pinit	-10.3536
▁kalawa	-10.3541
滿了	-10.3547
tii	-10.3548
泥巴	-10.3551
▁你媽媽	-10.3561
▁faqlhoan	-10.3573
很甜	-10.3597
shoz	-10.3599
大家要	-10.3624
吃東西	-10.3639
bariz	-10.3648
onsai	-10.365
▁para	-10.3657
原本就	-10.3658
qat	-10.3659
▁mathao	-10.3659
kathok	-10.368
zoi	-10.3694
因為太	-10.3699
▁pako	-10.3707
看得	-10.3712
醃漬的	-10.372
去玩	-10.3794
換你	-10.3804
日月村	-10.3815
mindahipoan	-10.386
我早上	-10.3886
是男生	-10.3899
割稻子	-10.3911
ifazin	-10.3919
ribosh	-10.3921
poil	-10.3924
tilhaz	-10.3929
malalawa	-10.393
shirshir	-10.3934
iakin	-10.3939
父親	-10.3945
打掃	-10.3958
沒什麼	-10.4019
種下	-10.4032
um	-10.404
拔起	-10.4055
放入	-10.4108
kamo	-10.4136
▁malhin	-10.4165
▁amoso	-10.4169
要給你	-10.4225
坐在	-10.4263
naor	-10.4278
啄	-10.4278
男生	-10.4297
▁mya	-10.4375
▁我的家	-10.4437
tri	-10.4452
部落裡	-10.4481
▁olhthkiz	-10.4555
很多人	-10.4558
好多	-10.4569
甜的	-10.4569
就不會	-10.4571
學生	-10.4579
mamoqmoq	-10.4593
煮菜	-10.4594
全部的	-10.4613
又再	-10.4638
取出	-10.4641
洗衣服	-10.4649
三個	-10.4673
iho	-10.4678
七	-10.4692
來幫忙	-10.471
▁pingqilha	-10.4715
talha	-10.4723
冒出	-10.4742
isahai	-10.4775
▁math	-10.4781
▁molha	-10.4785
剛	-10.4793
fazaq	-10.4806
綠色的	-10.4807
我才	-10.4813
把飯	-10.4816
被關	-10.4826
洗臉	-10.4844
邵族人稱為	-10.4847
即將	-10.4848
ntoa	-10.486
熄滅	-10.4873
arawan	-10.4881
▁kalhos	-10.4887
沾	-10.4889
認	-10.4894
很痠	-10.4895
把手	-10.4898
karishkish	-10.4905
機	-10.4906
樣	-10.4907
兇	-10.4909
砂	-10.4911
繩	-10.4911
balabalay	-10.4911
▁kotho	-10.4912
活	-10.4912
踩	-10.4913
簍	-10.4913
葉子	-10.4913
itono	-10.4914
群	-10.4914
ponish	-10.4914
oqaw	-10.4916
抱	-10.4916
▁pakishkish	-10.4916
漢	-10.4916
定	-10.4916
齊	-10.4916
▁他正在	-10.4917
大家一起	-10.4917
鋤	-10.4918
alhathaq	-10.4919
ongqaqaodin	-10.4921
釣	-10.4921
鳴	-10.4922
隊	-10.4922
醫	-10.4923
卵	-10.4923
漲	-10.4923
抓來吃	-10.4923
amponoq	-10.4923
kawakawar	-10.4924
opish	-10.4924
zowazo	-10.4924
划	-10.4925
施	-10.4925
鷹	-10.4925
任由	-10.4925
服	-10.4925
ponoqan	-10.4926
到水裡	-10.4926
nsinis	-10.4926
螺	-10.4926
互	-10.4926
體	-10.4926
嘗	-10.4926
1	-10.4926
品	-10.4926
喊	-10.4926
器	-10.4926
胸	-10.4926
靠	-10.4926
招	-10.4927
伊力伯伯	-10.4927
責	-10.4927
料	-10.4927
材	-10.4927
殼	-10.4927
世	-10.4927
程	-10.4927
啄木鳥	-10.4927
熄	-10.4927
單	-10.4927
▁Kolo	-10.4927
微	-10.4927
鍊	-10.4927
險	-10.4927
三腳灶	-10.4927
烈	-10.4927
大巨人	-10.4927
矮黑人	-10.4927
製作長杵	-10.4927
Aksa	-10.4927
▁第二天	-10.4927
在海上	-10.4927
積	-10.4927
脫	-10.4927
雛	-10.4927
[	-10.4927
掌	-10.4927
肝	-10.4927
Sihaw	-10.4927
勇	-10.4927
耶	-10.4927
8	-10.4927
不停地	-10.4927
簸	-10.4927
▁amakikalhi	-10.4927
▁tinabraq	-10.4927
▁這件衣服	-10.4927
很能幹	-10.4927
敷	-10.4927
痣	-10.4927
Balawbaw	-10.4927
Paitabo	-10.4927
Shalshal	-10.4927
]	-10.4927
akindamo	-10.4927
folhashi	-10.4927
folhzash	-10.4927
makishkish	-10.4927
oksharay	-10.4927
omborabora	-10.4927
palharotaw	-10.4927
qombo	-10.4927
rikorikos	-10.4927
▁Ishoz	-10.4927
▁Rongqoan	-10.4927
▁fthiq	-10.4927
▁hmorhor	-10.4927
▁hondol	-10.4927
▁iabahba	-10.4927
▁iadondon	-10.4927
▁kakthi	-10.4927
▁kmalhpizaq	-10.4927
▁kmarkar	-10.4927
▁kmishkish	-10.4927
▁kolkolaz	-10.4927
▁laqsimoaw	-10.4927
▁lhampash	-10.4927
▁lhkniz	-10.4927
▁linoom	-10.4927
▁mabazay	-10.4927
▁makabalha	-10.4927
▁makalinkin	-10.4927
▁maqiriz	-10.4927
▁montazai	-10.4927
▁pashbalibalis	-10.4927
▁patlhaqaan	-10.4927
▁pdaspdas	-10.4927
▁pimbahi	-10.4927
▁pinoqrom	-10.4927
▁poskit	-10.4927
▁qadon	-10.4927
▁qalhofo	-10.4927
▁qmaras	-10.4927
▁tangqapo	-10.4927
▁tmopilhnath	-10.4927
保護	-10.4927
個不停	-10.4927
兄弟姐妹	-10.4927
公媽籃	-10.4927
吐口水	-10.4927
嘔	-10.4927
塌	-10.4927
壯	-10.4927
宰	-10.4927
層	-10.4927
已經很老了	-10.4927
扯	-10.4927
有五個人	-10.4927
澀	-10.4927
無緣無故	-10.4927
的褲子	-10.4927
穗	-10.4927
資	-10.4927
載	-10.4927
那些孩子在玩耍	-10.4927
1984	-10.4927
ontnash	-10.4927
▁makarono	-10.4927
▁mapasholshol	-10.4927
▁minshiraq	-10.4927
▁panarano	-10.4927
▁pishkakalangkan	-10.4927
另	-10.4927
羞	-10.4927
誤	-10.4927
逗	-10.4927
F	-10.4927
oqaizo	-10.4927
▁manasaya	-10.4927
▁shmakto	-10.4927
剉	-10.4927
姊	-10.4927
銳	-10.4927
頓	-10.4927
▁qarof	-10.4927
Kulung	-10.4927
▁pinansha	-10.4927
室	-10.4927
布農族	-10.4927
鋪	-10.4927
印	-10.4927
淚	-10.4927
黏	-10.4927
知識	-10.4927
▁qashoro	-10.4927
伴	-10.4927
告知	-10.4927
是黑色的	-10.4927
草廍仔	-10.4927
▁miniqilha	-10.4927
▁potoom	-10.4927
專	-10.4927
shzaqan	-10.4927
吵架	-10.4927
愈	-10.4927
組	-10.4927
對不起	-10.4927
脆	-10.4927
阿美族	-10.4927
motmaz	-10.4927
pinnoman	-10.4927
▁ininai	-10.4927
▁minfazfaziza	-10.4927
▁shazik	-10.4927
吻合	-10.4927
madaqri	-10.4927
▁minanoro	-10.4927
袁	-10.4927
點鐘	-10.4927
▁pinashtiroq	-10.4927
勢	-10.4927
喚	-10.4927
▁malhialhias	-10.4927
到你那裡	-10.4927
農	-10.4927
Waqrath	-10.4927
癰腫	-10.4927
▁molalat	-10.4927
耳環	-10.4927
▁zifo	-10.4928
mapho	-10.4928
病毒	-10.4928
thaothao	-10.4928
▁qminal	-10.4928
看不到	-10.4928
節制	-10.4928
男性	-10.4928
族群	-10.4928
編織	-10.4928
ahiwan	-10.4928
尾巴	-10.4928
表示	-10.4928
呼喊	-10.4928
願意	-10.4928
木瓜	-10.4928
隨意	-10.4928
▁kasalpo	-10.4928
▁konaor	-10.4928
我知道了	-10.4928
鬆軟	-10.4928
修理	-10.4928
受傷	-10.4928
味道	-10.4928
安全	-10.4928
釀酒	-10.4928
貪吃	-10.4928
娶太太	-10.4929
風景	-10.4929
聚在一起	-10.4929
幾歲	-10.4929
▁ariqazak	-10.4929
拔除	-10.4929
蓋屋頂	-10.4929
輕鬆	-10.4929
▁shmaqto	-10.4929
▁kofolh	-10.493
▁mriway	-10.493
▁pinatashanan	-10.493
▁kolh	-10.493
破洞	-10.493
▁pangqangqa	-10.493
▁makitladado	-10.493
耕作	-10.493
心情	-10.493
lhirik	-10.493
邵族婦女	-10.493
播種稻子	-10.493
▁loomin	-10.493
搔背	-10.4931
▁這個孩子	-10.4931
▁kmashkash	-10.4931
▁shar	-10.4931
拜祖先	-10.4931
▁parbo	-10.4931
▁pashaqadaw	-10.4931
▁washo	-10.4931
▁rishi	-10.4931
前往	-10.4932
鳴叫	-10.4932
產生	-10.4932
還年輕	-10.4932
掉底	-10.4932
▁mararabaza	-10.4933
樹林	-10.4933
各種	-10.4934
解開	-10.4934
shonara	-10.4934
▁這是第	-10.4934
rkit	-10.4934
ashopoil	-10.4934
身體不好	-10.4934
▁myaza	-10.4935
下次	-10.4935
masasoqa	-10.4936
吃麻糬	-10.4936
起立	-10.4936
對待	-10.4936
▁pashfara	-10.4937
▁makiwar	-10.4937
很抱歉	-10.4937
一齊	-10.4937
▁kontalh	-10.4937
▁konmoqmoq	-10.4938
多久	-10.4938
kaitono	-10.4939
▁tmash	-10.494
▁apintatan	-10.494
動作	-10.4941
要睡覺了	-10.4941
▁從前日月潭	-10.4941
開車	-10.4942
▁katoro	-10.4942
一件	-10.4943
燙到	-10.4943
的頭髮很長	-10.4943
haran	-10.4944
站著	-10.4945
用力地	-10.4945
放學	-10.4947
kashkash	-10.4948
吃藥	-10.4948
湖水	-10.4948
的時候才會	-10.4949
一枝	-10.495
不會很快	-10.495
壞人	-10.495
很癢	-10.495
▁mahibor	-10.4953
大雨	-10.4956
豆子	-10.4956
hoi	-10.4958
不可	-10.4959
apoiza	-10.4959
kiskisan	-10.4959
不高興	-10.496
tazamoan	-10.4961
當中	-10.4961
lhaoshin	-10.4962
hoom	-10.4965
風吹	-10.4966
qmo	-10.4967
聽得	-10.4967
matlhakan	-10.4969
▁pinisa	-10.497
黃色的	-10.4972
她們	-10.4973
▁pishdohazan	-10.4973
也就是	-10.4973
pinoman	-10.4975
未來	-10.4975
海水	-10.4976
咬人	-10.4977
進去	-10.4978
▁請把	-10.4979
▁monanai	-10.4987
時常	-10.499
ilhim	-10.4992
喝水	-10.4996
▁他講話	-10.4996
▁poqton	-10.4998
教會	-10.4999
▁tish	-10.5001
▁為了	-10.5003
你的臉	-10.5005
▁這小孩	-10.5006
胖了	-10.5007
花園	-10.5008
moz	-10.5011
圍起來	-10.5011
將下雨了	-10.5013
這本書	-10.5015
▁mataqaz	-10.5015
這兩	-10.5015
▁你講話	-10.5021
不像	-10.5031
kmaroroan	-10.5036
▁yanaor	-10.5037
▁請問	-10.5044
▁ishqalaiza	-10.5044
▁他常常	-10.5045
話說	-10.5049
paqaiza	-10.505
一直到	-10.5062
▁minaora	-10.5066
qsh	-10.5077
他媽媽	-10.5082
▁你的衣服	-10.5088
aihonan	-10.5088
也可以	-10.5097
幫你	-10.5107
▁moshoqishiza	-10.5122
▁inay	-10.5132
▁makaan	-10.5133
我們為	-10.5135
你的眼睛	-10.5135
▁我不要吃	-10.5154
跌倒了	-10.5174
oot	-10.5176
好久	-10.5192
▁matiqt	-10.5202
▁你現在	-10.5229
的蔬菜	-10.5234
tiz	-10.5234
將來	-10.5286
▁malhkakak	-10.5305
才能	-10.5332
titishan	-10.5335
▁mokakton	-10.5348
它們	-10.5367
回家了	-10.5376
不喜歡	-10.54
她說	-10.5414
▁anwail	-10.5417
有好多	-10.5427
天已經	-10.5441
tir	-10.5454
把牠	-10.5457
我帶	-10.5499
ramo	-10.5517
力量	-10.5571
播稻	-10.5591
我再	-10.5645
結果	-10.5665
十個	-10.5679
▁這裡的	-10.5694
的稻穀	-10.5698
有孩子	-10.5722
天氣如何	-10.5757
不要一直	-10.5778
lhiklhi	-10.5785
本來就	-10.5807
montonoq	-10.5823
Umaw	-10.5827
isoi	-10.5834
iahiaw	-10.5837
qarimosoz	-10.5838
hoqi	-10.5839
zashoq	-10.5841
shinshii	-10.5843
koskos	-10.5845
pangka	-10.5845
miaqay	-10.5846
manion	-10.5846
yamin	-10.5846
akaanin	-10.5864
我們一起去	-10.5894
對他	-10.5895
bonlhaz	-10.5898
tnoran	-10.5934
可以再	-10.5957
yoan	-10.5967
種稻	-10.5984
去上學	-10.5997
pinfazaq	-10.6002
有空	-10.6002
montal	-10.6006
▁今天天氣	-10.6007
itiza	-10.6045
就這樣	-10.6079
網路	-10.6082
有力量	-10.6111
怎麼辦呢	-10.6132
pora	-10.6193
▁akatho	-10.62
向這裡	-10.6259
▁anwaili	-10.6273
醃漬	-10.63
shiwan	-10.6317
到家裡	-10.6347
故事	-10.6348
撞到	-10.6398
要帶著	-10.6443
▁inshiraq	-10.6478
紅色	-10.6503
部落裡的	-10.6514
找到了	-10.6538
manasha	-10.6542
飛走	-10.6552
摺	-10.6568
掛著	-10.6583
白色	-10.6597
婦	-10.6599
loo	-10.6619
在椅子上	-10.6627
沖	-10.6688
舅舅	-10.6692
對我們的	-10.6727
彈	-10.6734
▁farifariw	-10.6757
要比賽	-10.6789
▁qon	-10.6792
遇	-10.6792
ngqaw	-10.6793
支	-10.6796
kiskis	-10.6797
問他	-10.6799
要回家	-10.6804
鋸	-10.6813
總	-10.6814
harbok	-10.6815
否	-10.6815
poshaz	-10.6818
要去山上	-10.6818
妻	-10.682
柱	-10.682
不見	-10.682
方便	-10.6821
堅固	-10.6821
碰	-10.6822
族語	-10.6823
▁apintata	-10.6824
捏	-10.6827
日月潭的水	-10.6828
ondadaan	-10.6828
olhok	-10.6829
▁patash	-10.6829
酒麴	-10.683
bzaw	-10.683
芋	-10.6831
吠	-10.6831
▁pidaza	-10.6831
腰	-10.6832
尋	-10.6832
剩	-10.6832
跟隨	-10.6832
土豆	-10.6832
賺	-10.6832
套	-10.6833
mamori	-10.6833
▁borabora	-10.6833
織	-10.6834
舉	-10.6834
ofolh	-10.6834
暗	-10.6834
ishfazaq	-10.6834
鐘	-10.6835
隨隨便便	-10.6835
aodada	-10.6835
跌	-10.6835
aplish	-10.6835
千	-10.6835
選	-10.6835
戰	-10.6835
確	-10.6835
練	-10.6835
晴	-10.6835
較	-10.6835
願	-10.6836
埔	-10.6836
示	-10.6836
雙	-10.6836
瓶	-10.6836
備	-10.6836
速	-10.6836
泡	-10.6836
勤	-10.6836
搭	-10.6836
準	-10.6836
消	-10.6836
則	-10.6836
的權利	-10.6836
軍	-10.6836
治	-10.6836
戶	-10.6836
浮	-10.6836
瘡	-10.6836
祈	-10.6836
章	-10.6836
靈	-10.6836
團	-10.6836
薯	-10.6836
俄羅斯	-10.6836
滴	-10.6836
秋	-10.6836
刷	-10.6836
用右手	-10.6836
▁你憋氣使力	-10.6836
會一籌莫展	-10.6836
柔	-10.6836
腸	-10.6836
臼	-10.6836
蒸	-10.6836
議	-10.6836
儀	-10.6836
又大又	-10.6836
游	-10.6836
盛	-10.6836
妥	-10.6836
慶	-10.6836
戴著帽子	-10.6836
渴	-10.6836
膀	-10.6836
臟	-10.6836
麵	-10.6836
棍	-10.6836
首	-10.6836
ingkawiaz	-10.6836
lalalo	-10.6836
madohray	-10.6836
▁donhon	-10.6836
▁myahala	-10.6836
▁你有幾隻	-10.6836
▁這椅子	-10.6836
剁	-10.6836
怪	-10.6836
懸崖峭壁	-10.6836
把水弄濁	-10.6836
翹	-10.6836
Ishuz	-10.6836
Paitabu	-10.6836
adazomdom	-10.6836
fanlhosh	-10.6836
hmadana	-10.6836
iraraorioq	-10.6836
ishwoaqan	-10.6836
kangqthaan	-10.6836
lhalhotha	-10.6836
maqirqir	-10.6836
mashaboboot	-10.6836
mingqolha	-10.6836
minshazkin	-10.6836
moptoq	-10.6836
qalimasaz	-10.6836
rokrok	-10.6836
roqroq	-10.6836
Р	-10.6836
и	-10.6836
о	-10.6836
я	-10.6836
▁Bonoon	-10.6836
▁Hodon	-10.6836
▁Shapiz	-10.6836
▁Tanakyowan	-10.6836
▁Taringqoan	-10.6836
▁amiazitho	-10.6836
▁apiaroroon	-10.6836
▁aqosaziniza	-10.6836
▁ashiboqtiran	-10.6836
▁bahat	-10.6836
▁baon	-10.6836
▁danar	-10.6836
▁dobon	-10.6836
▁kashongkariri	-10.6836
▁katbashbash	-10.6836
▁kinbinbin	-10.6836
▁kishkishi	-10.6836
▁kmiskis	-10.6836
▁kondadimrath	-10.6836
▁konshashano	-10.6836
▁lhamith	-10.6836
▁lhomfaan	-10.6836
▁lhtapako	-10.6836
▁malhakath	-10.6836
▁mapakanshihala	-10.6836
▁maqaqiaqia	-10.6836
▁maqiaqia	-10.6836
▁maromiz	-10.6836
▁marotarotaw	-10.6836
▁masasasor	-10.6836
▁mashkalothkoth	-10.6836
▁minlhfot	-10.6836
▁mongkoroz	-10.6836
▁pakdop	-10.6836
▁patongroza	-10.6836
▁pingqawno	-10.6836
▁pinimbolbol	-10.6836
▁qadadaw	-10.6836
▁qaridan	-10.6836
▁qatidaoloq	-10.6836
▁qinothqoth	-10.6836
▁rapathiwan	-10.6836
▁sasoakon	-10.6836
▁shilariwan	-10.6836
▁shmakdop	-10.6836
▁shmimol	-10.6836
▁shmomshom	-10.6836
▁sinaranan	-10.6836
▁tazoqos	-10.6836
▁tilhboan	-10.6836
▁tingting	-10.6836
▁tomboh	-10.6836
▁wandan	-10.6836
不客氣	-10.6836
伊達邵	-10.6836
兵	-10.6836
列	-10.6836
吞	-10.6836
守護	-10.6836
待會兒	-10.6836
急	-10.6836
我的親戚	-10.6836
扁扁的	-10.6836
找找看	-10.6836
抔	-10.6836
摘獼猴桃	-10.6836
敲	-10.6836
斤	-10.6836
激	-10.6836
濶	-10.6836
皺皺的	-10.6836
空無一物	-10.6836
笨	-10.6836
筌	-10.6836
翻滾掙扎	-10.6836
裙	-10.6836
走來走去	-10.6836
那棵樹	-10.6836
露	-10.6836
palhkaktha	-10.6836
taopdaq	-10.6836
▁mimparhaway	-10.6836
▁他看見了	-10.6836
▁我們做人要	-10.6836
▁那個女孩子喜歡	-10.6836
▁那個男孩子正在	-10.6836
搗	-10.6836
是專門	-10.6836
腿	-10.6836
要吃什麼	-10.6836
逃	-10.6836
鬼	-10.6836
Hudun	-10.6836
Shawi	-10.6836
▁maktit	-10.6836
▁masmik	-10.6836
▁matzoka	-10.6836
▁minqorqoriza	-10.6836
▁mopriz	-10.6836
▁ninis	-10.6836
▁qalhaqosaz	-10.6836
▁rinoz	-10.6836
▁soakon	-10.6836
▁taraii	-10.6836
▁老鷹去問	-10.6836
互相換工	-10.6836
宣	-10.6836
痕	-10.6836
碎	-10.6836
稈	-10.6836
迸	-10.6836
那張椅子很	-10.6836
長得很好	-10.6836
鯁	-10.6836
鰻	-10.6836
鹼	-10.6836
kakariri	-10.6836
▁inihazish	-10.6836
▁lhoqo	-10.6836
▁rawaz	-10.6836
▁tampapoliqliq	-10.6836
棚	-10.6836
築巢	-10.6836
老闆說	-10.6836
術	-10.6836
▁miathon	-10.6836
▁pakaotoa	-10.6836
▁pinaroan	-10.6836
▁qaqpit	-10.6836
▁shkish	-10.6836
很多歲了	-10.6836
松	-10.6836
籤	-10.6836
腋	-10.6836
蛀	-10.6836
minalhos	-10.6836
qtip	-10.6836
尿	-10.6836
聽我的話	-10.6836
陸	-10.6836
10	-10.6836
korozin	-10.6836
lhalhom	-10.6836
▁ropiza	-10.6836
擺	-10.6836
旅	-10.6836
西方的	-10.6836
akarihaz	-10.6836
▁pakaoka	-10.6836
▁potiqo	-10.6836
射中了	-10.6836
真是太棒了	-10.6836
擔憂	-10.6836
權	-10.6836
mangqat	-10.6836
怒	-10.6836
順溜	-10.6836
來過這裡	-10.6836
各式各樣的	-10.6836
爸爸和媽媽	-10.6836
特	-10.6836
躺	-10.6836
tkazashin	-10.6836
▁mabaraz	-10.6836
例	-10.6836
nazaq	-10.6836
易	-10.6836
父母	-10.6836
▁amathay	-10.6836
因為牠在	-10.6836
通知	-10.6836
mingqza	-10.6836
」、「	-10.6836
kmaipathay	-10.6837
要去菜園裡	-10.6837
4	-10.6837
pothaqi	-10.6837
南瓜	-10.6837
野獸	-10.6837
展	-10.6837
▁thoyni	-10.6837
全都	-10.6837
材料	-10.6837
▁qipqip	-10.6837
莊	-10.6837
▁pinatqal	-10.6837
灰色的	-10.6837
平埔族	-10.6837
拉魯島	-10.6837
表演	-10.6837
▁桌上	-10.6837
詢問	-10.6837
▁masizaq	-10.6837
覆蓋	-10.6837
死亡	-10.6837
mawala	-10.6837
▁pishbiskaw	-10.6837
▁請問您	-10.6837
▁powanaz	-10.6837
▁mingkakoraz	-10.6837
金項鍊	-10.6837
聚集	-10.6837
▁piakaimahan	-10.6837
▁podampos	-10.6837
被辣到	-10.6837
器具	-10.6837
追逐	-10.6837
焙乾	-10.6837
排隊	-10.6837
▁monkozakoza	-10.6837
▁qayo	-10.6837
tipish	-10.6837
▁mapaki	-10.6837
▁qalhafa	-10.6837
結婚	-10.6837
matanthathak	-10.6837
混雜	-10.6837
▁當然	-10.6837
▁talpo	-10.6838
pongqalhiw	-10.6838
▁mingkmir	-10.6838
握著	-10.6838
禮拜	-10.6838
錄音	-10.6838
寶物	-10.6838
▁qpit	-10.6838
shkat	-10.6838
topilhnathan	-10.6838
▁pashtirithan	-10.6838
散步	-10.6838
▁molawashwash	-10.6838
▁pikpi	-10.6838
壓陷	-10.6838
提早	-10.6838
嚼檳榔	-10.6838
▁makafaw	-10.6838
▁mashthaothao	-10.6838
▁這個女人	-10.6839
比如	-10.6839
▁lapia	-10.6839
集合	-10.6839
弄壞	-10.6839
▁shinimol	-10.6839
▁amoribosh	-10.6839
命名為	-10.6839
▁mapatia	-10.6839
相信	-10.6839
▁男子	-10.6839
成功	-10.6839
不必	-10.6839
賣完了	-10.6839
婦女們	-10.6839
我來畫	-10.6839
▁miaqbit	-10.6839
力氣	-10.6839
monantoa	-10.684
▁abohatin	-10.684
飛鼠	-10.684
表明	-10.684
代表	-10.684
十歲	-10.684
遮住	-10.684
腰帶	-10.684
親自	-10.684
malhkakaktha	-10.684
▁koaan	-10.684
▁piakazash	-10.6841
▁panbalabalay	-10.6841
▁從前邵人	-10.6841
各種東西	-10.6841
▁kalop	-10.6842
不像現在	-10.6842
▁kolhawii	-10.6842
相片	-10.6842
發臭	-10.6842
onmaza	-10.6842
▁mingqitan	-10.6842
很有錢	-10.6842
要去牽戲	-10.6842
爬山	-10.6842
▁amponoqan	-10.6843
▁inotaq	-10.6843
▁ifazfaz	-10.6843
在樹上	-10.6843
▁lingwa	-10.6843
曬乾	-10.6843
▁taraan	-10.6843
▁mapoqshiw	-10.6843
▁patna	-10.6844
越來越多	-10.6844
一半	-10.6844
金錢	-10.6844
一起去打獵	-10.6844
▁miq	-10.6845
黑色	-10.6845
只能	-10.6845
紅色的衣服	-10.6845
▁kinarkara	-10.6845
餵豬	-10.6845
hol	-10.6845
三十	-10.6845
不知	-10.6846
▁maita	-10.6846
丟掉	-10.6846
▁oshnawi	-10.6846
▁kalapaw	-10.6846
▁panhapali	-10.6846
開門	-10.6847
收成	-10.6847
▁minfazafazaq	-10.6847
沾著	-10.6847
▁小山豬的	-10.6847
抱著	-10.6847
最喜歡	-10.6847
▁lhom	-10.6847
▁sapaz	-10.6848
換成	-10.6848
▁kayo	-10.6848
othok	-10.6849
風很大	-10.6851
快點	-10.6851
遠一點	-10.6851
出門	-10.6852
▁matithiza	-10.6852
▁不行	-10.6852
▁把你的	-10.6852
▁motaq	-10.6852
一直哭	-10.6852
▁kmaniza	-10.6853
種田	-10.6853
踩到	-10.6853
快跑	-10.6853
說族語	-10.6853
不方便	-10.6854
naqoalh	-10.6855
機會	-10.6855
點火	-10.6855
▁kothon	-10.6855
生蛋	-10.6857
▁mangqaroz	-10.6857
很矮	-10.6858
▁pintoan	-10.6858
好的生活	-10.6859
慢慢地	-10.6859
女人們	-10.6861
afoan	-10.6863
▁zaiwan	-10.6864
我的口	-10.6864
獵人	-10.6865
分開	-10.6865
這些錢	-10.6867
還不用	-10.6868
▁maqarimozmoz	-10.6868
發出	-10.6868
和解	-10.6869
lhiq	-10.6869
▁taniza	-10.6877
molaliqliqiza	-10.6878
買蛋	-10.6878
▁下雨了	-10.6881
很硬	-10.6881
想起	-10.6882
人們對	-10.6884
▁kalhosiza	-10.6885
kaboqnorin	-10.6886
在水裡	-10.6888
贈送	-10.6889
在外面	-10.6889
網子	-10.689
▁langqisosayoan	-10.6892
▁tongkaz	-10.6895
重要的	-10.6897
跟著我	-10.6898
給你們	-10.6899
打開	-10.6901
▁Taiwan	-10.6902
實在	-10.6902
▁paqaqoyashin	-10.6905
到山上	-10.6905
晚上時	-10.6907
▁tiko	-10.6907
monsahai	-10.6907
▁mindado	-10.6908
有兩	-10.6909
▁maponishiza	-10.6911
會很痛	-10.6911
咬到	-10.6911
你的手	-10.6914
人們就	-10.6916
火炭	-10.6919
不小心	-10.6921
lom	-10.6926
awani	-10.6926
我的橡皮擦	-10.6926
一邊	-10.6934
住著	-10.6934
kadaidazin	-10.6937
他的手	-10.6938
上船	-10.6941
很長了	-10.6944
來跳舞	-10.6949
▁minaraiza	-10.6949
所以現在	-10.6951
掏出來	-10.6953
▁lhmin	-10.6956
除了	-10.6957
ansoon	-10.6963
做記號的	-10.6964
吊掛	-10.6968
▁maqolioshiza	-10.6971
▁posain	-10.6974
有人說	-10.6974
了解	-10.698
曾經是	-10.6981
有關	-10.6998
▁你的家	-10.6999
再接起	-10.7001
▁ponai	-10.7006
喜歡讀書	-10.7006
吃起來	-10.7007
來煮	-10.7016
對著	-10.7017
而沒有	-10.7022
她是我的	-10.7043
loom	-10.7058
moproq	-10.7063
這讓	-10.7065
母雞若	-10.7065
motana	-10.7082
momo	-10.7101
七個	-10.7128
割到	-10.7146
種的菜	-10.7159
這個人很	-10.7169
ishlish	-10.7176
zap	-10.7193
lhopishoan	-10.7202
inshiraqin	-10.7208
你自己	-10.722
人在家	-10.7221
衝向	-10.724
他自己	-10.7319
的女兒	-10.7348
▁kilh	-10.7353
natho	-10.739
回到家	-10.7392
shinaw	-10.7451
你把他	-10.7455
▁iat	-10.7494
的頭箍	-10.7539
thapo	-10.7546
新新	-10.7561
腐朽了	-10.7564
但是他	-10.7566
要怎麼辦	-10.7593
在裡面	-10.7602
看起來	-10.7623
fariwik	-10.7638
個比特幣	-10.7644
▁你有帶	-10.7666
跑走	-10.7694
hoy	-10.7716
他非常	-10.7727
▁konth	-10.777
一隻狗	-10.7794
飯包	-10.7895
去菜園	-10.7895
mapash	-10.7939
klhit	-10.7946
▁豬已經	-10.7973
是要給我的	-10.7987
yat	-10.8054
▁qarasi	-10.8079
成果實	-10.8167
的父親	-10.8171
kolhaw	-10.8171
Sincyang	-10.8182
rima	-10.8183
korari	-10.8189
Maqaba	-10.8192
tmara	-10.8196
P	-10.8196
kokolay	-10.8196
qmosaz	-10.82
rithkoy	-10.8201
pasai	-10.8202
miqilha	-10.8206
wazaqan	-10.8207
mashtay	-10.8207
sazom	-10.8208
moqay	-10.8209
yako	-10.8213
pizaiza	-10.8218
▁raf	-10.8232
收割	-10.8234
祖先們	-10.8273
有三個	-10.8334
▁shiqalhiwi	-10.8339
明天要去山上	-10.8367
在日月村	-10.8372
qot	-10.8373
看起來很	-10.8416
要吃飯	-10.8433
得非常	-10.8443
出發了	-10.8574
這樣才	-10.8591
很可惜	-10.8645
去山上打獵	-10.8688
我家的	-10.8724
向前	-10.8728
下面	-10.8894
母雞	-10.892
起風	-10.8922
▁amapa	-10.8945
▁palan	-10.8958
qdopan	-10.8985
擔任	-10.8992
水淺	-10.9032
▁iqilha	-10.9103
吹火	-10.9107
冒	-10.9111
節瘤	-10.9119
▁mimbon	-10.9129
黃色	-10.9132
▁kawar	-10.9146
▁apongqaqaodin	-10.9155
qaqoyash	-10.9158
中間	-10.9167
▁onlha	-10.9169
還要買	-10.9172
tsaha	-10.9173
▁他的家在	-10.9175
lamlam	-10.9178
qoliosh	-10.9179
本	-10.9179
▁miarai	-10.918
籃	-10.9181
抱歉	-10.9182
架	-10.9183
撞	-10.9183
lhomzaw	-10.9185
ririw	-10.9185
riqariqaz	-10.9186
zitho	-10.9187
令	-10.9187
半	-10.9187
tilaw	-10.9188
▁malhkak	-10.9188
▁mashash	-10.9189
arfazfaz	-10.9189
shaqadaw	-10.9192
klilit	-10.9192
聊	-10.9192
置	-10.9192
啼	-10.9192
幹	-10.9193
紀	-10.9193
磨一磨	-10.9194
aytono	-10.9194
kalingkin	-10.9194
應	-10.9194
封	-10.9194
bakbak	-10.9195
▁pataqa	-10.9195
的腸子	-10.9195
▁kalisia	-10.9195
景	-10.9195
toalian	-10.9195
釀	-10.9195
shoroz	-10.9195
抽	-10.9195
真可惜	-10.9196
婚	-10.9196
rariboq	-10.9196
導	-10.9196
演	-10.9196
意思	-10.9196
菸	-10.9196
犁	-10.9196
▁lhongqi	-10.9196
圖	-10.9196
己	-10.9196
dahda	-10.9196
任	-10.9196
要去哪	-10.9196
的袋子	-10.9196
辦	-10.9196
▁koro	-10.9196
塵	-10.9197
這塊土地	-10.9197
陶	-10.9197
浪	-10.9197
舅	-10.9197
▁molal	-10.9197
傷心地	-10.9197
迎	-10.9197
討	-10.9197
候	-10.9197
採	-10.9197
5	-10.9197
歡	-10.9197
▁2021	-10.9197
apinaa	-10.9197
騎	-10.9197
dohmo	-10.9197
言	-10.9197
吵	-10.9197
番	-10.9197
勾	-10.9197
滅	-10.9197
介	-10.9197
段	-10.9197
纏住了	-10.9197
優	-10.9197
幸	-10.9197
roshaq	-10.9197
計	-10.9197
到我的槍口	-10.9197
威	-10.9197
究	-10.9197
蘭	-10.9197
醃	-10.9197
我的蘋果	-10.9197
派	-10.9197
猫	-10.9197
苗	-10.9197
證	-10.9197
讚	-10.9197
弱	-10.9197
水沙連	-10.9197
pilhzaw	-10.9197
▁這個乞丐很可憐	-10.9197
丹	-10.9197
供	-10.9197
友	-10.9197
吱吱喳喳	-10.9197
疊	-10.9197
登	-10.9197
的羽毛	-10.9197
豐	-10.9197
這樣小孩子才會	-10.9197
陳	-10.9197
颳	-10.9197
inshashao	-10.9197
他只先拿	-10.9197
伸	-10.9197
唉	-10.9197
平平安安	-10.9197
忘記帶	-10.9197
生雙胞胎	-10.9197
虎頭蜂	-10.9197
趁	-10.9197
▁kashombolo	-10.9197
▁你把椅子	-10.9197
做過記號	-10.9197
初	-10.9197
孤	-10.9197
徒	-10.9197
查	-10.9197
潑	-10.9197
獨自一人	-10.9197
的籬笆	-10.9197
破破爛爛的	-10.9197
致	-10.9197
被他們放棄不做了	-10.9197
pishwoaq	-10.9197
▁polamaz	-10.9197
▁他若被爸爸說兩句就	-10.9197
已經很晚了	-10.9197
戴帽子	-10.9197
捻	-10.9197
檳榔心芋	-10.9197
添	-10.9197
爽	-10.9197
綑	-10.9197
肚子痛	-10.9197
衣著破爛	-10.9197
趣	-10.9197
C	-10.9197
aramban	-10.9197
batakan	-10.9197
idir	-10.9197
molhboz	-10.9197
ngkariri	-10.9197
nozoshan	-10.9197
onlhoas	-10.9197
paqohan	-10.9197
pikzaw	-10.9197
qothqoth	-10.9197
riptha	-10.9197
shnoron	-10.9197
tlhilhaq	-10.9197
▁2022	-10.9197
▁Lhkahihian	-10.9197
▁Lhkatanamarotaw	-10.9197
▁Lodoq	-10.9197
▁Saboroo	-10.9197
▁Seqalo	-10.9197
▁akindal	-10.9197
▁akomahin	-10.9197
▁amakiro	-10.9197
▁amintafoq	-10.9197
▁amoroshrosh	-10.9197
▁baroqizay	-10.9197
▁hmahorhor	-10.9197
▁hondoz	-10.9197
▁iabanir	-10.9197
▁iabrith	-10.9197
▁iatonaw	-10.9197
▁idadaok	-10.9197
▁insomalii	-10.9197
▁isohoi	-10.9197
▁kaboa	-10.9197
▁kakolhom	-10.9197
▁kinolhaw	-10.9197
▁kmainataon	-10.9197
▁kmalisia	-10.9197
▁kmilhikilhim	-10.9197
▁kondohray	-10.9197
▁lhizashan	-10.9197
▁lhongkonol	-10.9197
▁madadazomdom	-10.9197
▁madiqro	-10.9197
▁madohaz	-10.9197
▁makaparaw	-10.9197
▁makatar	-10.9197
▁malalalawa	-10.9197
▁mapasasoqa	-10.9197
▁matinqaran	-10.9197
▁midadaok	-10.9197
▁mikokalhos	-10.9197
▁mimplho	-10.9197
▁mingqolhmoz	-10.9197
▁mismis	-10.9197
▁mrinoz	-10.9197
▁ongqtoak	-10.9197
▁pafthiq	-10.9197
▁panasasazom	-10.9197
▁pasansan	-10.9197
▁pashaboboot	-10.9197
▁patqir	-10.9197
▁pinodaqo	-10.9197
▁pinoil	-10.9197
▁pinzifo	-10.9197
▁polharina	-10.9197
▁qatapay	-10.9197
▁qihaw	-10.9197
▁qinalaw	-10.9197
▁qongqaqanlas	-10.9197
▁ronaqin	-10.9197
▁shamamazaan	-10.9197
▁shawashawan	-10.9197
▁shiboqtiran	-10.9197
▁shidaok	-10.9197
▁shiniqalhiwan	-10.9197
▁shiqamish	-10.9197
▁tabraq	-10.9197
▁tininashan	-10.9197
▁toktoko	-10.9197
▁toqaqolqol	-10.9197
▁他們兩人	-10.9197
不要害羞	-10.9197
乞	-10.9197
做半程祭	-10.9197
冬天時	-10.9197
卡	-10.9197
口袋裡	-10.9197
古時候	-10.9197
在牆壁上	-10.9197
坐椅子	-10.9197
堆耙成墩	-10.9197
崙	-10.9197
快進來	-10.9197
悅	-10.9197
慕	-10.9197
手抽筋	-10.9197
拉上去了	-10.9197
摑	-10.9197
摟	-10.9197
既	-10.9197
榖	-10.9197
汁	-10.9197
疑	-10.9197
的媳婦	-10.9197
的肩膀	-10.9197
的香蕉	-10.9197
盡	-10.9197
相親相愛	-10.9197
省	-10.9197
籠	-10.9197
粥	-10.9197
被他傾倒	-10.9197
要慷慨一點	-10.9197
觸犯禁忌	-10.9197
調	-10.9197
講話不莊重	-10.9197
這張桌子很重	-10.9197
還小的時候	-10.9197
頭暈暈的	-10.9197
kmashaqisha	-10.9197
tkazashik	-10.9197
▁malhoyza	-10.9197
▁mifaz	-10.9197
▁pakshibon	-10.9197
▁pinhaozaw	-10.9197
▁shmaqish	-10.9197
▁tolhanaza	-10.9197
▁拿出你的	-10.9197
一邊走一邊	-10.9197
單邊坐	-10.9197
已經逐漸	-10.9197
我勉強地	-10.9197
我很省著用錢	-10.9197
我贊助	-10.9197
石壓式陷阱	-10.9197
被石頭壓	-10.9197
還要再過來	-10.9197
Luduq	-10.9197
Manshirin	-10.9197
Patalhan	-10.9197
arishian	-10.9197
▁maholaw	-10.9197
▁makazaka	-10.9197
▁mimpolhiziza	-10.9197
▁minakanai	-10.9197
▁talapa	-10.9197
一直發抖	-10.9197
們常常去探望祖父	-10.9197
區	-10.9197
吃光光	-10.9197
唏	-10.9197
四手網	-10.9197
在家裡照顧小孩	-10.9197
奇	-10.9197
很辛苦	-10.9197
手牽著手	-10.9197
折	-10.9197
村	-10.9197
櫃	-10.9197
痰	-10.9197
蝦	-10.9197
規	-10.9197
貯	-10.9197
賣給別人	-10.9197
這樣你才不會	-10.9197
鈍	-10.9197
順便為我	-10.9197
餿	-10.9197
鼓	-10.9197
串	-10.9197
他是我的老師	-10.9197
吃得完	-10.9197
我的生日	-10.9197
漂浮	-10.9197
濕濕的	-10.9197
Seqalu	-10.9197
hompazaw	-10.9197
▁makakri	-10.9197
▁marimaz	-10.9197
▁palhaqaan	-10.9197
▁shmazik	-10.9197
俗	-10.9197
士	-10.9197
很久很久以前	-10.9197
智	-10.9197
液	-10.9197
癒	-10.9197
糾	-10.9197
緊盯著	-10.9197
▁Lhkashnawanan	-10.9197
▁maqalhiqalhiw	-10.9197
▁minqaraiza	-10.9197
▁obohatin	-10.9197
很不簡單	-10.9197
我的肚子	-10.9197
搖晃	-10.9197
攪拌	-10.9197
7	-10.9197
▁okaktonik	-10.9197
是我們的傳統	-10.9197
莖	-10.9197
館	-10.9197
lhikish	-10.9197
▁qathna	-10.9197
▁tiakaiza	-10.9197
▁可惜	-10.9197
釣竿	-10.9197
也穿上	-10.9197
價	-10.9197
吃晚餐	-10.9197
吸	-10.9197
屋子裡	-10.9197
很堅硬	-10.9197
棵小樹	-10.9197
澎	-10.9197
獨角仙	-10.9197
閉	-10.9197
靈已經在祖靈屋	-10.9197
很早以前	-10.9197
很早就	-10.9197
技術	-10.9197
▁paqosaz	-10.9197
叢	-10.9197
溫	-10.9197
統統	-10.9197
討論	-10.9197
侵略	-10.9197
清晨	-10.9197
糯米飯	-10.9197
還很小	-10.9197
▁shomhoman	-10.9197
質	-10.9197
▁pazish	-10.9197
一家人	-10.9197
shansazom	-10.9197
▁qashishi	-10.9197
monkoza	-10.9197
小凱正在和	-10.9197
最終	-10.9197
窗戶	-10.9197
▁shashaila	-10.9198
irosh	-10.9198
充滿	-10.9198
暫時休息一下	-10.9198
的貓是黑色的	-10.9198
般	-10.9198
▁捕捉	-10.9198
阿姨	-10.9198
儘管	-10.9198
拉魯	-10.9198
貼	-10.9198
領域	-10.9198
▁itanamoqtha	-10.9198
回娘家	-10.9198
好好地	-10.9198
救	-10.9198
看不起	-10.9198
▁waqith	-10.9198
▁我比你	-10.9198
嫁夫	-10.9198
▁apariri	-10.9198
增加	-10.9198
煮的飯	-10.9198
▁minonai	-10.9198
容	-10.9198
新冠病毒	-10.9198
計算出	-10.9198
▁shmiroa	-10.9198
責備	-10.9198
木炭	-10.9198
疾病	-10.9198
搭建	-10.9198
▁狗在吠	-10.9198
烤暖	-10.9198
疫	-10.9198
▁我只是在	-10.9198
答應	-10.9198
屬於	-10.9198
飛翔	-10.9198
演戲	-10.9198
簡單	-10.9198
半程	-10.9198
hahoy	-10.9198
在海邊	-10.9198
ilalaha	-10.9198
lhaqlhaq	-10.9198
號	-10.9198
▁mimbair	-10.9198
▁taopoil	-10.9198
▁takan	-10.9198
毛髮	-10.9198
之間	-10.9198
設置	-10.9198
道歉	-10.9198
束腰	-10.9198
淋雨	-10.9198
▁amarfaz	-10.9198
背籃	-10.9198
olhza	-10.9198
▁poqafayoan	-10.9198
背架	-10.9198
擦碰到	-10.9198
▁shmozap	-10.9198
喝茶	-10.9198
正式	-10.9198
菸葉	-10.9198
吼叫	-10.9198
齊全	-10.9198
▁piakakaimahan	-10.9198
只剩下	-10.9198
說說看	-10.9198
shqangqani	-10.9198
已經講過了	-10.9198
▁lhamlham	-10.9198
▁我打他	-10.9198
海洋	-10.9198
春天	-10.9198
新芽	-10.9198
約束	-10.9198
家鄉的	-10.9199
▁kmoza	-10.9199
palhalhitoz	-10.9199
▁liosh	-10.9199
▁你們家有幾個	-10.9199
物品	-10.9199
▁lhior	-10.9199
▁konlharilhari	-10.9199
千元	-10.9199
製弓	-10.9199
月亮出來了	-10.9199
指甲	-10.9199
加油	-10.9199
▁makanai	-10.9199
田螺	-10.9199
▁maqaimoth	-10.9199
Tumi	-10.9199
▁flhi	-10.9199
相機	-10.9199
在挖土	-10.9199
暫時	-10.9199
堵住	-10.9199
用手抓飯	-10.9199
的衣服是紅色的	-10.9199
▁sholshol	-10.9199
升高	-10.9199
回應	-10.9199
▁piabashbash	-10.92
合適	-10.92
幾個月	-10.92
出去外面	-10.92
otaw	-10.92
▁ismakanai	-10.92
▁paktalhom	-10.92
▁alhoa	-10.92
▁shkafol	-10.92
成群	-10.92
某物	-10.92
找尋	-10.92
全家人	-10.92
舉行	-10.92
仔細	-10.92
美國	-10.92
▁pishtobo	-10.92
▁ponsoriz	-10.92
做不成	-10.92
那樣	-10.9201
▁mondaodaok	-10.9201
杯子	-10.9201
同學們	-10.9201
你要不要吃	-10.9201
▁坐下	-10.9201
活動	-10.9201
▁pazim	-10.9201
▁makintata	-10.9201
年紀	-10.9201
生下的	-10.9201
pashikaritkit	-10.9201
shorozik	-10.9202
買的蛋	-10.9202
受驚	-10.9202
▁paqaqalaw	-10.9202
臭蟲	-10.9202
▁konthoaw	-10.9202
木桶	-10.9202
▁amosaran	-10.9202
六十	-10.9202
放置	-10.9202
樹幹	-10.9202
亂說話	-10.9202
▁ktaqii	-10.9202
啼叫	-10.9202
以及	-10.9202
烘乾	-10.9202
能力	-10.9202
划船	-10.9202
非常兇	-10.9202
留下來	-10.9203
處理	-10.9203
▁osoi	-10.9203
▁aklhitin	-10.9203
進入	-10.9203
學習邵語	-10.9203
發癢	-10.9203
吠叫	-10.9203
▁makinpiza	-10.9203
▁parariboq	-10.9203
aqihaw	-10.9203
▁makoshtor	-10.9204
真相	-10.9204
鑽過	-10.9204
一直在哭	-10.9204
▁rong	-10.9204
▁makonafaw	-10.9204
請求	-10.9204
弄亂	-10.9204
搔弄	-10.9205
▁rapo	-10.9205
▁aminboqnor	-10.9205
居住的地方	-10.9205
相同	-10.9205
看是否	-10.9205
架上	-10.9205
▁Amis	-10.9205
▁moroboziza	-10.9205
kalala	-10.9205
▁那個平地人	-10.9205
▁pangqaqa	-10.9205
我要鋸	-10.9206
做酒麴	-10.9206
▁marfazfaz	-10.9206
非常好吃	-10.9206
朋友們	-10.9206
想法	-10.9206
▁Taiwaan	-10.9206
▁iahalawan	-10.9206
▁mashaqis	-10.9207
往這裡	-10.9207
看看是否	-10.9207
角落	-10.9207
▁alhami	-10.9207
亂講話	-10.9207
這樣才好	-10.9207
雜草	-10.9207
的名字叫做	-10.9207
Tu	-10.9207
遷移到	-10.9208
▁papshiq	-10.9208
你要買什麼	-10.9208
▁qaoriwa	-10.9208
我來講	-10.9208
跟隨著	-10.9208
捏著	-10.9208
用手抓	-10.9209
makakolhaw	-10.9209
omlhom	-10.9209
▁下雨時	-10.9209
很明顯	-10.9209
帶領	-10.9209
頭社	-10.9209
剃一下	-10.9209
▁pishtata	-10.921
便當	-10.921
家屋	-10.921
小島	-10.921
大家穿著	-10.921
張開	-10.921
再次	-10.921
▁pinharan	-10.921
一支	-10.921
活著	-10.9211
▁pishqtha	-10.9211
配菜	-10.9211
高處	-10.9212
▁媽媽在煮	-10.9212
▁mathakaw	-10.9212
haak	-10.9212
立起來	-10.9212
部分	-10.9212
▁shoot	-10.9212
從那邊	-10.9212
▁amaqaqoyash	-10.9212
▁把路	-10.9212
fiz	-10.9213
korong	-10.9213
不要搖	-10.9213
▁infazaqin	-10.9213
已經很長了	-10.9213
樹枝	-10.9214
▁poqayzo	-10.9214
▁小孩子在	-10.9214
碰到	-10.9214
▁pakishkishoan	-10.9215
▁poproq	-10.9215
一樣高	-10.9215
shor	-10.9216
ktik	-10.9217
要下雨了	-10.9217
▁kmashi	-10.9217
上方	-10.9217
扭著	-10.9218
休息一下	-10.9219
被騙	-10.9219
▁tonaway	-10.9219
孩子的牙齒	-10.9219
▁poqthai	-10.922
族人們	-10.922
▁otaon	-10.922
小女孩	-10.9221
住在日月潭	-10.9221
的背上	-10.9221
請教	-10.9222
▁maodo	-10.9222
太好了	-10.9222
空閒	-10.9223
吃飽	-10.9223
▁你今天從哪裡來	-10.9224
一頂	-10.9224
這個石頭	-10.9224
水社	-10.9224
那件	-10.9225
快到了	-10.9225
▁shkopit	-10.9226
▁poqoalh	-10.9227
砍樹	-10.9228
回想	-10.9229
放在火	-10.923
pakathoak	-10.9231
牽戲時	-10.9231
一直下雨	-10.9232
▁karkarin	-10.9232
▁palhinonawan	-10.9232
中心	-10.9232
很懶惰	-10.9234
刺魚	-10.9234
不要裝	-10.9234
拿取	-10.9235
被他的媽媽	-10.9236
還住在	-10.9237
到獵物	-10.9237
戴上	-10.9238
掉到水裡	-10.9239
▁tmazan	-10.9239
沒有休息	-10.924
在前面	-10.924
就是這樣	-10.9241
被警察	-10.9241
住在一起	-10.9242
很肥	-10.9242
傳說	-10.9243
我要趕快	-10.9243
煮開	-10.9245
這就是	-10.9245
小米	-10.9246
好的菜	-10.9247
▁maboqnor	-10.9249
船隻	-10.9249
▁我沒有錢	-10.925
▁qawriwan	-10.9252
很快地	-10.9253
頭痛	-10.9255
拿出來	-10.9256
告訴我們	-10.9257
問媽媽	-10.9258
▁mindishlom	-10.926
Tomi	-10.9263
起火	-10.9264
▁qinaloshak	-10.9286
rom	-10.9288
kanon	-10.9289
mozai	-10.9295
▁kinata	-10.9321
請問你	-10.934
這塊	-10.9345
趕走	-10.9351
在家裡閒閒沒事	-10.9352
我要去山上	-10.9354
palhoizaak	-10.936
mashomshom	-10.9385
配掛	-10.9389
背部	-10.9442
▁pananai	-10.9442
iamin	-10.9444
▁小孩子被	-10.9467
再加	-10.9476
壞掉	-10.9508
關起來	-10.9511
他的狗	-10.9534
在下面	-10.9542
摺好	-10.9547
冒出來	-10.9578
rbo	-10.9584
每天都	-10.9592
要認真	-10.9622
通過	-10.9644
那天	-10.9658
來我家	-10.9715
隻羊	-10.9718
沒有空	-10.9759
qazi	-10.978
菜豆	-10.9824
年輕人都	-10.9837
個小孩有幾	-10.9862
正好	-10.9887
nol	-10.9903
▁sholhilhi	-10.9934
saas	-10.9939
轉向	-11.0008
ngqtoqto	-11.0009
oyni	-11.0042
飾物	-11.0098
故鄉	-11.0128
是紅色的	-11.0222
kolhmamoqmoq	-11.0227
在啄	-11.0281
3	-11.0347
洗好	-11.0353
我的狗	-11.0484
你的朋友	-11.0493
從那裡過	-11.0544
▁mintoqatoqash	-11.058
me	-11.0707
▁shim	-11.0807
要去山上打獵	-11.0874
用竹子圍	-11.0938
dahip	-11.1116
頭箍飾	-11.1186
酒祝禱	-11.1244
陷阱抓	-11.126
koshwit	-11.1272
minakatosi	-11.1281
mataliza	-11.1285
marfarfaz	-11.1287
lhpazishan	-11.1287
pintataiwar	-11.1287
S	-11.1295
qnoan	-11.1296
tonoon	-11.1297
tamohon	-11.1298
makthin	-11.1298
tanlhoan	-11.1299
faqlho	-11.1299
barimbin	-11.1299
tantoqash	-11.13
mriqariqaz	-11.13
shaona	-11.1301
pashtay	-11.1302
minriqaz	-11.1303
tanatoqash	-11.1303
Thao	-11.1304
那個女人	-11.1305
mahomhom	-11.1305
qros	-11.1349
mashmash	-11.1365
qali	-11.1419
女兒	-11.1471
▁pakanan	-11.1562
kiwar	-11.1565
bohak	-11.1594
▁kinalh	-11.1629
感冒了	-11.1642
▁不要玩弄	-11.1728
amora	-11.1755
motaoniza	-11.1762
的菜已經	-11.1764
爛泥	-11.1768
成甜的	-11.1787
lhipasan	-11.19
makalawa	-11.2017
makilhim	-11.2038
因為邵族的祖	-11.2051
太滿	-11.2082
手已經很	-11.2084
鬧	-11.2101
掏出	-11.2111
在我們的	-11.217
orkor	-11.2172
▁qinalosh	-11.2173
▁qawriwa	-11.2219
真正	-11.2231
魚池	-11.2231
qila	-11.2234
▁pinsaq	-11.2237
▁pakatho	-11.2247
▁malhihoqi	-11.2252
閒	-11.2256
搔把子	-11.2267
搖	-11.2268
dilhkay	-11.2271
▁祖靈屋	-11.2272
thakaw	-11.2273
londoz	-11.2274
haziwhiw	-11.2274
parfo	-11.2274
shimzaw	-11.2274
知	-11.2274
fazafazaq	-11.2275
桌	-11.2276
孫	-11.2276
否則	-11.2277
inarkar	-11.2277
明顯	-11.2278
許	-11.2279
民	-11.228
alhkakrikriw	-11.228
遷移	-11.2281
鑽	-11.2282
akoshtor	-11.2284
扶	-11.2284
瓜	-11.2284
imparaw	-11.2284
inlhafot	-11.2284
ipir	-11.2285
池塘	-11.2286
仰	-11.2287
▁moboha	-11.2287
ishqati	-11.2288
anshizan	-11.2288
inimol	-11.2288
撈	-11.2289
▁paktalh	-11.2289
乘	-11.2289
abashbashi	-11.229
升	-11.229
粒	-11.229
題	-11.229
參	-11.229
堵	-11.229
巾	-11.229
amohonan	-11.2291
城	-11.2291
式	-11.2291
胡	-11.2291
芽	-11.2291
▁pongqal	-11.2291
顯	-11.2291
不太清楚	-11.2291
amlham	-11.2291
燃	-11.2291
洋	-11.2291
依	-11.2291
命名	-11.2291
谷	-11.2291
shpar	-11.2291
概	-11.2291
屬	-11.2291
亡	-11.2292
kashlay	-11.2292
biqsir	-11.2292
環	-11.2292
癰	-11.2292
▁masiz	-11.2292
bair	-11.2292
ishtodol	-11.2292
毒	-11.2292
統	-11.2292
shkafo	-11.2292
暖	-11.2292
lhalhoiza	-11.2292
這件事	-11.2292
烏心石	-11.2292
加密貨幣	-11.2292
為何人們會相信	-11.2292
獸	-11.2292
佐	-11.2292
鑿	-11.2292
愈來愈	-11.2292
糟	-11.2292
銀	-11.2292
我們這些小孩子	-11.2292
人們的生活變得	-11.2292
教育的重要	-11.2292
的後代長得跟	-11.2292
▁Kuljelje	-11.2292
簡	-11.2292
西	-11.2292
失敗	-11.2292
窗	-11.2292
夫	-11.2292
注	-11.2292
炎	-11.2292
6	-11.2292
這個時候	-11.2292
rikriw	-11.2292
界	-11.2292
拼	-11.2292
漬	-11.2292
捧	-11.2292
姐	-11.2292
也有一些人	-11.2292
坡	-11.2292
懸	-11.2292
揮	-11.2292
損	-11.2292
樹木的樹格	-11.2292
用左手丟球	-11.2292
糞	-11.2292
街	-11.2292
財	-11.2292
際	-11.2292
飛行員	-11.2292
默	-11.2292
大平林	-11.2292
嫰	-11.2292
嬸	-11.2292
桂	-11.2292
端	-11.2292
築	-11.2292
小時候	-11.2292
這棟房子	-11.2292
▁他們跟著青蛙來到了	-11.2293
▁祖靈籃裡	-11.2293
嗚	-11.2293
嬴	-11.2293
寄	-11.2293
帶斧頭要	-11.2293
慧	-11.2293
是個很漂亮	-11.2293
用斧頭砍	-11.2293
的習俗	-11.2293
粘	-11.2293
維	-11.2293
講話沙啞	-11.2293
這首歌	-11.2293
邵族的人口	-11.2293
障	-11.2293
禾	-11.2293
▁他的下巴	-11.2293
▁你把蔬菜	-11.2293
境	-11.2293
投	-11.2293
舌	-11.2293
Sbalay	-11.2293
inqorqor	-11.2293
▁你留在這裡	-11.2293
▁保佑我的壓陷捉到	-11.2293
丟下不管	-11.2293
付	-11.2293
你去借一下	-11.2293
傳統習俗	-11.2293
凹陷的地方	-11.2293
剛愎自用	-11.2293
快走開	-11.2293
紅肉李	-11.2293
繞	-11.2293
舍	-11.2293
苛	-11.2293
蛤	-11.2293
請你削一削	-11.2293
madama	-11.2293
qotilh	-11.2293
▁這隻狗很	-11.2293
低著頭	-11.2293
圈	-11.2293
minparhaway	-11.2293
simoaw	-11.2293
▁alayko	-11.2293
▁apinfafinshiq	-11.2293
▁kilhikilhim	-11.2293
▁mashabiok	-11.2293
▁mimbababaw	-11.2293
▁pakalhos	-11.2293
▁patiqrin	-11.2293
▁pilhkith	-11.2293
▁pinfotolh	-11.2293
▁pishdohray	-11.2293
▁pobashbashi	-11.2293
▁potanalhiwan	-11.2293
▁tiatilha	-11.2293
▁tmopapilhnat	-11.2293
▁今天是好天氣	-11.2293
▁水筧破了	-11.2293
一個星期有	-11.2293
大曲腰魚	-11.2293
小腿肚	-11.2293
把香蕉	-11.2293
沒關係	-11.2293
為什麼會無緣無故	-11.2293
糊	-11.2293
臥	-11.2293
被我帶離	-11.2293
逗弄我	-11.2293
這棵樹	-11.2293
醢	-11.2293
里	-11.2293
針	-11.2293
鈍鈍的	-11.2293
須	-11.2293
風俗習慣	-11.2293
鬥	-11.2293
ambala	-11.2293
angqiqi	-11.2293
daoqlhaw	-11.2293
donlaq	-11.2293
haonathathoinian	-11.2293
korokoroz	-11.2293
mapakadaidaz	-11.2293
marabo	-11.2293
mongkoza	-11.2293
ngqatobi	-11.2293
oshiqshiq	-11.2293
pilhat	-11.2293
qarithqith	-11.2293
qitaqitan	-11.2293
shashoshasho	-11.2293
shirhsir	-11.2293
shlontos	-11.2293
shongnamangkathi	-11.2293
smakop	-11.2293
tmoqris	-11.2293
tomboz	-11.2293
tonbo	-11.2293
▁Bonon	-11.2293
▁Horaan	-11.2293
▁Kolaa	-11.2293
▁Rarifiz	-11.2293
▁Sediq	-11.2293
▁Soilikhiin	-11.2293
▁Thapodok	-11.2293
▁akmalawa	-11.2293
▁amakashpar	-11.2293
▁apafthiq	-11.2293
▁apashiwanan	-11.2293
▁aqirqiran	-11.2293
▁bantath	-11.2293
▁baprak	-11.2293
▁binotiqo	-11.2293
▁bolailoq	-11.2293
▁daoqan	-11.2293
▁finoilh	-11.2293
▁fofoot	-11.2293
▁hadana	-11.2293
▁inambrithan	-11.2293
▁ininantoa	-11.2293
▁inithaoan	-11.2293
▁inithawan	-11.2293
▁inongkakailas	-11.2293
▁kadishqonin	-11.2293
▁kakishkish	-11.2293
▁kaklishan	-11.2293
▁kamptoqa	-11.2293
▁kmororo	-11.2293
▁kodahdahi	-11.2293
▁kolambit	-11.2293
▁konathathoinian	-11.2293
▁kongqaloshinaz	-11.2293
▁konlhari	-11.2293
▁konliqliq	-11.2293
▁lhqaribosh	-11.2293
▁loqi	-11.2293
▁mabalohbo	-11.2293
▁mabaqbaq	-11.2293
▁madadiplhaq	-11.2293
▁makitnaraos	-11.2293
▁malanlhthkiz	-11.2293
▁malhathak	-11.2293
▁malhimalhimash	-11.2293
▁malhiqarithoy	-11.2293
▁mapakaitala	-11.2293
▁mapashashiaq	-11.2293
▁maqalhaiqay	-11.2293
▁maqarizqiz	-11.2293
▁maranaranash	-11.2293
▁mashbalis	-11.2293
▁mashkarinaz	-11.2293
▁mashnir	-11.2293
▁matdik	-11.2293
▁matongroza	-11.2293
▁miadaaq	-11.2293
▁miakotbarbar	-11.2293
▁mimbaboqboq	-11.2293
▁mimbolboliza	-11.2293
▁mimpho	-11.2293
▁minamaqtit	-11.2293
▁minashampanaq	-11.2293
▁minbababaw	-11.2293
▁mingqorqor	-11.2293
▁minshaodok	-11.2293
▁miqmiq	-11.2293
▁mlalas	-11.2293
▁mokashimzay	-11.2293
▁moloplop	-11.2293
▁mriot	-11.2293
▁ompathiqan	-11.2293
▁pakaibo	-11.2293
▁paklalili	-11.2293
▁palhkaka	-11.2293
▁pampiqapiqa	-11.2293
▁panadaidazik	-11.2293
▁pandohraywa	-11.2293
▁panlhathaq	-11.2293
▁pantaknar	-11.2293
▁pashbokayan	-11.2293
▁pashtirotiroq	-11.2293
▁patlhaqaii	-11.2293
▁piakarinaz	-11.2293
▁pinashnara	-11.2293
▁pinodanshirak	-11.2293
▁pishkanshoz	-11.2293
▁pishtingting	-11.2293
▁pokpok	-11.2293
▁potoqris	-11.2293
▁qalhalalawa	-11.2293
▁qalhatoali	-11.2293
▁qifqif	-11.2293
▁qinot	-11.2293
▁qongqaloshinaz	-11.2293
▁qpiqpit	-11.2293
▁rarifiz	-11.2293
▁riqinin	-11.2293
▁shangkatkat	-11.2293
▁shaonatazaihon	-11.2293
▁shawongaz	-11.2293
▁shidadaok	-11.2293
▁shingqis	-11.2293
▁shkaholak	-11.2293
▁shmawawa	-11.2293
▁shmaynana	-11.2293
▁shmiwat	-11.2293
▁shmoqrom	-11.2293
▁shoqolhmozin	-11.2293
▁shrakin	-11.2293
▁sisar	-11.2293
▁smabo	-11.2293
▁soksok	-11.2293
▁talhtalhin	-11.2293
▁tangqihasan	-11.2293
▁tazakas	-11.2293
▁thmikthik	-11.2293
▁tinolhanaz	-11.2293
▁tmabraq	-11.2293
▁tmalhtalh	-11.2293
▁tmamohon	-11.2293
▁tmatitish	-11.2293
▁tompawri	-11.2293
▁他仰頭看	-11.2293
▁他的腳長	-11.2293
▁你把豬套住	-11.2293
▁你的臉為什麼沾到煙	-11.2293
▁媽媽捏飯團	-11.2293
▁我曾嚼過	-11.2293
▁我的小腿	-11.2293
▁把穀子耙聚成堆	-11.2293
▁請帶飯包	-11.2293
▁那些女孩子喜歡	-11.2293
▁那些孩子	-11.2293
▁那些男孩子正在	-11.2293
之間昏天暗地	-11.2293
了半程祭	-11.2293
他還在洗衣	-11.2293
他還沒法子還我	-11.2293
你不要嫌棄	-11.2293
你把它倒掉	-11.2293
免	-11.2293
到底是怎麼	-11.2293
參與政治的權利	-11.2293
囊	-11.2293
四處走動	-11.2293
因為你不努力	-11.2293
在他的頭上	-11.2293
在客廳	-11.2293
壞脾氣	-11.2293
奉	-11.2293
季	-11.2293
巡視吊陷	-11.2293
已經圓身	-11.2293
很想念祖母	-11.2293
很會射箭	-11.2293
恰	-11.2293
惹	-11.2293
我忘記帶錢了	-11.2293
才會被人尊	-11.2293
抹	-11.2293
拂手除穢	-11.2293
拜訪祖父	-11.2293
搭公車	-11.2293
擋	-11.2293
據	-11.2293
擴	-11.2293
放在背籃裡	-11.2293
是哪一族	-11.2293
會再拿給我	-11.2293
會剋害	-11.2293
會尖叫一聲	-11.2293
月桃蓆	-11.2293
有七百多人	-11.2293
淡	-11.2293
濃	-11.2293
火點亮一點	-11.2293
狗攫走	-11.2293
班	-11.2293
生殖器	-11.2293
用搔把子抓我的背	-11.2293
畜	-11.2293
看族人牽戲	-11.2293
看見一隻	-11.2293
種甘薯的地方	-11.2293
種蔬菜	-11.2293
窮	-11.2293
簽	-11.2293
粗	-11.2293
羽毛會豎起來	-11.2293
老師要帶我們去	-11.2293
肺	-11.2293
膽	-11.2293
藍寶石	-11.2293
裏	-11.2293
講不贏他	-11.2293
賽德克族	-11.2293
起水泡	-11.2293
跑得很快	-11.2293
逐漸變少	-11.2293
邵族人如果生雙胞胎	-11.2293
都是坐船	-11.2293
長短不齊	-11.2293
門關著	-11.2293
陰	-11.2293
隙	-11.2293
青春痘	-11.2293
鞘	-11.2293
順便拿回來	-11.2293
額	-11.2293
飆	-11.2293
danshir	-11.2293
mashpatiz	-11.2293
otafalh	-11.2293
ponroza	-11.2293
rishop	-11.2293
talhom	-11.2293
▁kakato	-11.2293
▁kmawar	-11.2293
▁kmopit	-11.2293
▁lasiiq	-11.2293
▁makamozin	-11.2293
▁mapilhzoq	-11.2293
▁mapolhapolhash	-11.2293
▁piaponishi	-11.2293
▁pingqorqor	-11.2293
▁pintahaw	-11.2293
▁roson	-11.2293
▁shaonasahaiza	-11.2293
▁shidadish	-11.2293
▁tamoko	-11.2293
▁toqaqilha	-11.2293
▁小孩爬到	-11.2293
▁我做的酒麴	-11.2293
你要買多少	-11.2293
因為魚網的孔	-11.2293
在台北	-11.2293
型	-11.2293
如果吃過飯	-11.2293
帶去旁邊	-11.2293
持續地	-11.2293
搭著肩	-11.2293
是做什麼	-11.2293
石龍子	-11.2293
責罵一下你的	-11.2293
這支筆是	-11.2293
配掛刀子	-11.2293
鉤在鉤子上	-11.2293
長大成人	-11.2293
魚鑽過魚網	-11.2293
▁Tayan	-11.2293
▁amiasoon	-11.2293
▁mintinaq	-11.2293
▁shihomhoman	-11.2293
▁tinazam	-11.2293
▁我很餓了	-11.2293
中國人	-11.2293
餘	-11.2293
fziq	-11.2293
mashikarothqoth	-11.2293
qontot	-11.2293
▁irarozfot	-11.2293
▁shonzaq	-11.2293
▁tmobarombon	-11.2293
▁請你削一下	-11.2293
他是我的哥哥	-11.2293
到月亮上	-11.2293
可以借我一下	-11.2293
喂	-11.2293
坵	-11.2293
埃	-11.2293
孩子在床上睡	-11.2293
寵	-11.2293
彩	-11.2293
很晚才回	-11.2293
從這裡經過	-11.2293
怎麼這麼快就	-11.2293
我來找你	-11.2293
我自己釀	-11.2293
扛	-11.2293
把火退出來	-11.2293
投擲石頭	-11.2293
掉到地上	-11.2293
撐	-11.2293
日月潭的湖裡	-11.2293
株	-11.2293
爬不上去	-11.2293
的衣服是白色的	-11.2293
稗草的根部	-11.2293
蕪	-11.2293
螢火蟲	-11.2293
被我翻掘	-11.2293
複	-11.2293
跨	-11.2293
鰓	-11.2293
龜殼花蛇	-11.2293
lhongkniz	-11.2293
malam	-11.2293
tafoz	-11.2293
▁amangqto	-11.2293
▁apansaqaziwa	-11.2293
▁kanhomhom	-11.2293
▁matishfazfaz	-11.2293
▁pakakaan	-11.2293
▁shmiashia	-11.2293
▁雨季時	-11.2293
一包米	-11.2293
佈	-11.2293
勸	-11.2293
懶	-11.2293
我的鋤頭放在	-11.2293
淹	-11.2293
過了一年	-11.2293
阻	-11.2293
▁kmiro	-11.2293
▁我已經買過	-11.2293
▁我很多天沒有吃	-11.2293
Alishan	-11.2293
tantaoniza	-11.2293
▁makoyo	-11.2293
▁他很認真	-11.2293
你把我的田水	-11.2293
使架子	-11.2293
僅	-11.2293
去那裡捉魚	-11.2293
就看不清楚	-11.2293
憋	-11.2293
我介紹	-11.2293
握持	-11.2293
撿拾	-11.2293
流口涎	-11.2293
漏	-11.2293
燻	-11.2293
犯	-11.2293
疲	-11.2293
盒	-11.2293
粟	-11.2293
紛	-11.2293
腳抽筋	-11.2293
蓋祖靈屋	-11.2293
蘇	-11.2293
走路往這裡來	-11.2293
輛	-11.2293
這樣才不會被老鼠吃	-11.2293
遠方的	-11.2293
颱風來了	-11.2293
shaonatantoiza	-11.2293
察	-11.2293
我的園子裡	-11.2293
焚	-11.2293
燒開水	-11.2293
舒暢	-11.2293
鎖匙	-11.2293
▁kapza	-11.2293
Taringquan	-11.2293
▁mathathak	-11.2293
▁很晚了	-11.2293
啃	-11.2293
外出時	-11.2293
我買的檳榔	-11.2293
泔	-11.2293
疏	-11.2293
痔	-11.2293
的臉上很多	-11.2293
臍	-11.2293
薑	-11.2293
說如果有錢	-11.2293
▁iapano	-11.2293
▁indadoan	-11.2293
pakarono	-11.2293
▁poraqin	-11.2293
亞	-11.2293
們要回去了	-11.2293
值	-11.2293
出愁眉苦臉的樣子	-11.2293
吃早餐	-11.2293
嚇了一	-11.2293
岩	-11.2293
已通知說	-11.2293
必須	-11.2293
志	-11.2293
普	-11.2293
曾經住過的	-11.2293
朝	-11.2293
環境	-11.2293
腦	-11.2293
膚	-11.2293
萬	-11.2293
邵族新年時	-11.2293
驗	-11.2293
▁pinroza	-11.2293
你們有賣	-11.2293
matinzashozashoq	-11.2293
▁amaimino	-11.2293
荷蘭人	-11.2293
蕨	-11.2293
嫰芽	-11.2293
東	-11.2293
▁makawi	-11.2293
▁manazitho	-11.2293
一直不停地晃	-11.2293
佔領	-11.2293
等我一下	-11.2293
靈魂	-11.2293
▁moroza	-11.2293
▁palantatnor	-11.2293
▁qazpo	-11.2293
勝	-11.2293
卡車司機	-11.2293
城市	-11.2293
最珍貴的	-11.2293
潛	-11.2293
白白的	-11.2293
青蛙在吃	-11.2293
Pazish	-11.2293
炭灰	-11.2293
tilatilaw	-11.2293
將被刺	-11.2293
隆隆	-11.2293
atishqalhayqayan	-11.2293
honpazaw	-11.2293
他們兩個人	-11.2293
買兩瓶	-11.2293
▁korin	-11.2293
▁tishbontos	-11.2293
▁makalho	-11.2293
▁你為何不	-11.2293
▁Lhilhian	-11.2293
▁sahala	-11.2293
▁shmashaw	-11.2293
他的刀子	-11.2293
媽媽要煮	-11.2293
恐	-11.2293
患	-11.2293
拂	-11.2293
排灣族	-11.2293
撲	-11.2293
有愈來愈多	-11.2293
權益	-11.2293
避	-11.2293
shashaw	-11.2293
▁molaon	-11.2293
tur	-11.2293
▁posoonan	-11.2293
稍微	-11.2293
英文	-11.2293
抽菸	-11.2293
▁shashomshom	-11.2293
▁為什麼我放在	-11.2293
他卻不	-11.2293
悲傷	-11.2293
積極	-11.2293
診	-11.2293
▁mininfazfaz	-11.2293
▁paqaak	-11.2293
看一看	-11.2293
變成我們沒有	-11.2293
剃髮	-11.2293
不要理他	-11.2293
狀	-11.2293
要煮飯了	-11.2293
軍隊	-11.2293
鎮	-11.2293
已經舊了	-11.2293
懷念	-11.2293
飯煮熟	-11.2293
不論是	-11.2293
不公平	-11.2293
去看病	-11.2293
方巾	-11.2293
▁搔把子我要	-11.2293
和家人	-11.2293
請你看一下	-11.2293
只有他是	-11.2293
牢	-11.2293
科學	-11.2293
商量討論	-11.2293
▁拜完了	-11.2293
▁烏心石若	-11.2293
▁pashtoto	-11.2293
確定	-11.2293
晃動	-11.2293
睡著了	-11.2293
無故	-11.2293
被偷了	-11.2293
▁kanii	-11.2293
佐配	-11.2293
米糠	-11.2293
陶鍋	-11.2293
▁olaon	-11.2293
▁shobontos	-11.2293
好多好多	-11.2293
浸泡	-11.2293
疼愛	-11.2293
總共	-11.2293
▁amingkakora	-11.2293
▁lhmipir	-11.2293
我有很多朋友	-11.2293
沒有米了	-11.2293
▁malhririw	-11.2293
不時地	-11.2293
你就穿	-11.2293
可愛的	-11.2293
支持	-11.2293
或許	-11.2293
用鐵做	-11.2293
花瓶裡	-11.2293
tqal	-11.2293
500	-11.2293
▁ishtodolak	-11.2293
燒焦	-11.2293
▁indahipiwan	-11.2293
灰塵	-11.2293
被人拿走	-11.2293
▁kakiskisi	-11.2293
長長的	-11.2293
ashkaz	-11.2293
▁manaraosiza	-11.2293
架設	-11.2293
用手抓飯來吃	-11.2293
▁lhinapasha	-11.2294
▁shobiqsir	-11.2294
▁pinitpit	-11.2294
▁他在搖	-11.2294
多年的	-11.2294
昏暗	-11.2294
雙方	-11.2294
ipoqo	-11.2294
我沒有拿	-11.2294
籬巴	-11.2294
▁lishlishi	-11.2294
約定	-11.2294
▁邵族傳統	-11.2294
已經乾了	-11.2294
溪谷	-11.2294
ngktha	-11.2294
竹筍	-11.2294
掏挖	-11.2294
概平	-11.2294
malhiklhik	-11.2294
招待	-11.2294
akotbar	-11.2294
▁toray	-11.2294
波紋	-11.2294
加速	-11.2294
▁shodahda	-11.2294
胸掛	-11.2294
▁palhopish	-11.2294
▁石姓氏族	-11.2294
辦公	-11.2294
這件事情	-11.2294
▁tomaza	-11.2294
燃燒	-11.2294
要請假	-11.2294
鳥巢	-11.2294
▁araho	-11.2294
▁pakolhqaqlhak	-11.2294
彎彎	-11.2294
胡亂	-11.2294
▁Paiwan	-11.2294
是晴天	-11.2294
▁taqali	-11.2294
門關起來	-11.2294
裝飯包	-11.2294
有一個小女孩	-11.2294
重覆	-11.2294
燙頭髮	-11.2294
踩踏	-11.2294
▁曬過的	-11.2294
跛腳	-11.2294
依然	-11.2294
甘藷藤	-11.2294
民族	-11.2294
臉巾	-11.2294
▁tishmamraw	-11.2294
語根	-11.2294
挑選	-11.2294
鑽土	-11.2295
撒灰	-11.2295
突然之間	-11.2295
apakaboqnor	-11.2295
幾點鐘	-11.2295
保持	-11.2295
所說的	-11.2295
▁kmashiqitan	-11.2295
▁這個年輕人	-11.2295
還沒有真正	-11.2295
▁tarima	-11.2295
▁tmansoon	-11.2295
▁tmaodada	-11.2295
漲滿	-11.2295
禮物	-11.2295
不可以隨隨便便	-11.2295
戰場	-11.2295
邀請	-11.2295
方法	-11.2295
黑暗	-11.2295
已經吃飽了	-11.2295
幫妳	-11.2295
▁男用	-11.2295
聚落	-11.2295
住在頭社	-11.2295
總理	-11.2295
麻線	-11.2295
▁ansinisin	-11.2295
彩虹出來了	-11.2295
搖動	-11.2295
▁kinatho	-11.2295
tonrikrik	-11.2295
ititiza	-11.2295
上山打獵	-11.2295
▁inindamriz	-11.2295
▁inrarabaza	-11.2295
要做屋頂	-11.2295
五城	-11.2295
飯粒	-11.2295
獨身	-11.2295
驚嚇	-11.2295
真可惜啊	-11.2295
▁shrimon	-11.2295
其他別的	-11.2295
▁aflhoqan	-11.2296
hawawa	-11.2296
▁makshnaw	-11.2296
thithi	-11.2296
原住民族群	-11.2296
陷害	-11.2296
剃刀	-11.2296
聽不太清楚	-11.2296
qaloshinaz	-11.2296
按照	-11.2296
假日	-11.2296
戰爭結束	-11.2296
▁太陽下山了	-11.2296
待在家裡	-11.2296
蛇類	-11.2296
▁pakonanai	-11.2296
彎鉤	-11.2296
觀光	-11.2296
教官	-11.2296
第一次	-11.2296
▁saipoo	-11.2296
▁akbzawi	-11.2296
你的東西放在	-11.2296
戲弄	-11.2296
qaqalaw	-11.2296
▁kalisiaii	-11.2296
整理	-11.2296
▁mapiqa	-11.2296
封住	-11.2296
雞的腸子	-11.2296
配刀	-11.2296
媽媽不放	-11.2296
▁pashaila	-11.2296
施以	-11.2297
九十	-11.2297
幾次	-11.2297
撈起來	-11.2297
▁我的腳被	-11.2297
任由它	-11.2297
混合	-11.2297
誰和誰	-11.2297
砍木柴	-11.2297
▁mingkorkor	-11.2297
▁piaharan	-11.2297
踢球	-11.2297
不好相處	-11.2297
▁kmaitono	-11.2297
有人舂	-11.2297
請磨一磨	-11.2297
紋面	-11.2297
▁boraboraii	-11.2297
的擔子	-11.2297
套住	-11.2297
古拉	-11.2297
▁iatoalian	-11.2298
▁iazitho	-11.2298
▁lhqanan	-11.2298
解圍	-11.2298
身體健康	-11.2298
啊呀	-11.2298
▁mashbot	-11.2298
全身	-11.2298
▁aminshinshii	-11.2298
騙人的	-11.2298
各種的東西	-11.2298
這裡有好多	-11.2298
▁mangkakakalay	-11.2298
▁molhilhi	-11.2298
▁我的家在那裡	-11.2298
最大的	-11.2298
請開門	-11.2298
▁shmishi	-11.2298
仰頭	-11.2298
剩下	-11.2299
信心	-11.2299
漲高	-11.2299
燒起來了	-11.2299
告訴老師	-11.2299
▁從前日月潭的水	-11.2299
還沒熟	-11.2299
圍牆	-11.2299
太貴	-11.2299
三次	-11.2299
四朵花	-11.2299
動物們	-11.2299
池塘裡	-11.23
▁shitanto	-11.23
▁monhazish	-11.23
亮光	-11.23
等待	-11.23
▁我的東西在	-11.23
Sinaz	-11.23
流血	-11.23
聊天	-11.23
▁他在切	-11.23
那兒	-11.23
玩具	-11.23
▁要注意	-11.23
▁kmaito	-11.23
有許多人	-11.23
▁桶子因為	-11.2301
蓋房屋	-11.2301
▁Bat	-11.2301
學邵語	-11.2301
▁faaq	-11.2301
痠痛	-11.2301
鋤草	-11.2301
交換	-11.2301
認得	-11.2301
下卵	-11.2301
要多喝	-11.2301
牽手	-11.2301
種類	-11.2301
ziang	-11.2302
接繩子	-11.2302
沒什麼錢	-11.2302
很好吃的食物	-11.2302
的工作已經被我	-11.2302
▁malhno	-11.2302
▁tiozi	-11.2302
一直到現在	-11.2302
部門	-11.2302
翻倒	-11.2302
▁lhipiri	-11.2302
整個	-11.2302
講閒話	-11.2302
▁你的箭	-11.2303
▁直到	-11.2303
▁山裡	-11.2303
這樣才會很快	-11.2303
上的蟲	-11.2304
這個地方	-11.2304
邵族語言	-11.2304
少女	-11.2304
mashananai	-11.2304
魚鰭	-11.2304
熟睡	-11.2304
▁makinpi	-11.2305
▁他們的朋友很	-11.2305
三月	-11.2305
三百	-11.2305
下酒的	-11.2305
▁koliqliq	-11.2305
元給我	-11.2305
平地人用土	-11.2306
qalhatha	-11.2307
qalhayqay	-11.2307
faqlhoqlho	-11.2308
▁apishqi	-11.2308
▁rono	-11.2308
努力讀書	-11.2309
▁東西可以	-11.2311
infoaw	-11.2311
▁palhaka	-11.2314
lholhok	-11.2314
▁dilhkayin	-11.2314
這些甘藷	-11.2315
花朵	-11.2316
來看你	-11.2316
有一百個	-11.2316
ruk	-11.2317
最好的	-11.2317
▁搔把子被	-11.2318
kanantoa	-11.2319
邵族的土地	-11.232
Batu	-11.232
的臉被	-11.2321
nilh	-11.2322
▁kano	-11.2323
我的背部	-11.2323
omfawa	-11.2325
nakin	-11.2326
要建造	-11.2327
▁他的衣服被	-11.2329
▁harbokin	-11.233
你怎麼知道	-11.2333
▁lhqalhiw	-11.2334
我們要走	-11.2335
今天要比賽	-11.2335
minmamishmish	-11.234
請你幫忙	-11.2341
▁potoiwa	-11.2341
這支	-11.2343
poqafay	-11.2348
▁lhiklhik	-11.2349
montosi	-11.2351
他的丈夫	-11.2355
▁我還要	-11.2357
shkaw	-11.2359
香蕉樹	-11.2359
這樣他就	-11.236
kozakoza	-11.2361
黃熟	-11.2361
okthoaw	-11.2362
▁kawarik	-11.2363
的錢包	-11.2367
我明天要去	-11.2372
▁toqoi	-11.2376
你有看到	-11.2382
anrari	-11.2397
樹上有	-11.24
造成	-11.24
想著要	-11.2416
從上面掉落	-11.2417
太陽太熱	-11.2424
panasai	-11.2426
比賽跑步	-11.2427
pakikalhiak	-11.2433
ibarizan	-11.2469
▁人們若	-11.2481
正在洗臉	-11.2491
shantorozin	-11.2494
路時一跛一跛	-11.2501
pongqaqaodinik	-11.2501
pinqilha	-11.2507
▁shmasho	-11.2511
淺	-11.2523
ingkin	-11.2531
yason	-11.2538
▁apashin	-11.2546
我的舅舅	-11.2547
有人擔任	-11.258
快去給	-11.2582
▁patbolbol	-11.2593
pashnaran	-11.2616
apu	-11.2626
molhak	-11.2639
正在洗衣服	-11.2658
ikal	-11.2659
椅子上面	-11.2664
▁thm	-11.2667
你的筆在	-11.27
▁makoshrat	-11.2742
請你順便拿	-11.2742
lharo	-11.2797
moqo	-11.2814
個人來幫忙	-11.2837
被我找到	-11.2863
從那裡經過	-11.2873
tanaoto	-11.2884
你的老師	-11.2894
tanalh	-11.2916
從哪裡來的	-11.2985
因為感冒	-11.2988
▁tboh	-11.3044
▁pakananai	-11.3081
擦撞	-11.3117
kinaanan	-11.3134
iadokhokhon	-11.3237
會講邵語了	-11.3363
nomano	-11.3418
講過的話	-11.342
設陷阱	-11.3459
去祖靈屋	-11.3672
不要從那裡	-11.3738
ongqtoaniza	-11.3819
haqtha	-11.3895
ngqafo	-11.3959
tatnor	-11.4065
部落裡有一	-11.4083
▁palhalhinona	-11.4204
▁這些酒是	-11.4224
掃乾淨	-11.4697
們正在吃	-11.4801
已經腐朽	-11.5057
朵	-11.5215
dokhokhon	-11.5459
monai	-11.553
qafay	-11.5702
你從哪裡來	-11.5745
fitfit	-11.578
mapaqaqitan	-11.5785
maqalhiw	-11.5787
髮	-11.6762
掏	-11.6764
筍	-11.6774
鴨	-11.6776
何	-11.6777
笱	-11.6781
羌	-11.6784
且	-11.6787
覆	-11.6789
念	-11.6789
邀	-11.6789
跛	-11.679
淨	-11.679
巢	-11.679
焙	-11.679
茶	-11.6791
非	-11.6791
魯	-11.6791
雅	-11.6791
舞	-11.6791
焦	-11.6791
淋	-11.6791
耍	-11.6791
父	-11.6791
商	-11.6791
突	-11.6791
顧	-11.6791
疼	-11.6791
姨	-11.6792
附	-11.6792
悲	-11.6792
律	-11.6792
思	-11.6792
歉	-11.6792
域	-11.6792
英	-11.6792
鎖	-11.6792
距	-11.6792
固	-11.6792
甘	-11.6792
蚌	-11.6792
舒	-11.6792
稍	-11.6792
惜	-11.6792
敗	-11.6792
─	-11.6792
哀	-11.6792
報	-11.6792
妹	-11.6792
序	-11.6792
瓤	-11.6792
閣	-11.6792
韌	-11.6792
湧	-11.6792
項	-11.6792
克	-11.6792
婆	-11.6792
柄	-11.6792
樑	-11.6792
縣	-11.6792
聳	-11.6792
菇	-11.6792
蠅	-11.6792
途	-11.6792
蓆	-11.6792
睏	-11.6793
吉	-11.6793
尺	-11.6793
溢	-11.6793
臂	-11.6793
雄	-11.6793
飄	-11.6793
鰾	-11.6793
馴	-11.6793
v	-11.6793
嗯	-11.6793
宿	-11.6793
杓	-11.6793
率	-11.6793
競	-11.6793
隆	-11.6793
健	-11.6793
僕	-11.6793
儍	-11.6793
務	-11.6793
句	-11.6793
嚐	-11.6793
墾	-11.6793
孿	-11.6793
廚	-11.6793
恨	-11.6793
抬	-11.6793
捅	-11.6793
捲	-11.6793
揉	-11.6793
揚	-11.6793
摩	-11.6793
撫	-11.6793
旋	-11.6793
旱	-11.6793
旺	-11.6793
桿	-11.6793
棲	-11.6793
椏	-11.6793
槳	-11.6793
殘	-11.6793
毀	-11.6793
況	-11.6793
涵	-11.6793
湮	-11.6793
源	-11.6793
炸	-11.6793
煎	-11.6793
爾	-11.6793
獎	-11.6793
盟	-11.6793
矛	-11.6793
砌	-11.6793
票	-11.6793
秃	-11.6793
窩	-11.6793
筏	-11.6793
籐	-11.6793
絲	-11.6793
緩	-11.6793
縮	-11.6793
芝	-11.6793
蒙	-11.6793
蕩	-11.6793
虧	-11.6793
蛔	-11.6793
蟬	-11.6793
趖	-11.6793
踐	-11.6793
蹈	-11.6793
輪	-11.6793
返	-11.6793
逛	-11.6793
遣	-11.6793
醬	-11.6793
鈎	-11.6793
闊	-11.6793
降	-11.6793
雌	-11.6793
雪	-11.6793
餌	-11.6793
騷	-11.6793
略	-11.6793
似	-11.6793
峭	-11.6793
告	-11.6793
勉	-11.6793
勵	-11.6793
守	-11.6793
尼	-11.6793
屢	-11.6793
撩	-11.6793
漣	-11.6793
肆	-11.6793
胞	-11.6793
荒	-11.6793
蝶	-11.6793
蹋	-11.6793
蹧	-11.6793
廟	-11.6793
哨	-11.6793
嘛	-11.6793
埋	-11.6793
奮	-11.6793
愧	-11.6793
懇	-11.6793
拌	-11.6793
搞	-11.6793
橫	-11.6793
檢	-11.6793
殿	-11.6793
陡	-11.6793
飲	-11.6793
乙	-11.6793
籮	-11.6793
嗶	-11.6793
掐	-11.6793
武	-11.6793
竊	-11.6793
粼	-11.6793
繁	-11.6793
罩	-11.6793
航	-11.6793
茸	-11.6793
轟	-11.6793
遍	-11.6793
鄰	-11.6793
暴	-11.6793
聯	-11.6793
召	-11.6793
咦	-11.6793
懼	-11.6793
瘧	-11.6793
抗	-11.6793
誠	-11.6794
漫	-11.6794
禱	-11.8691
祖	-11.8726
炭	-12.4628
贈	-12.4809
鰭	-12.5085
池	-12.5085
禽	-12.5104
擁	-12.5106
必	-12.5109
杯	-12.5109
桃	-12.511
鞋	-12.511
橘	-12.511
暫	-12.5115
貪	-12.5116
I	-12.5116
握	-12.5117
震	-12.512
春	-12.512
吼	-12.5121
故	-12.5122
獲	-12.5122
輩	-12.5123
詢	-12.5123
始	-12.5123
晃	-12.5123
爭	-12.5124
糠	-12.5124
翔	-12.5124
玉	-12.5124
旁	-12.5124
終	-12.5124
麴	-12.5124
訓	-12.5124
識	-12.5125
荽	-12.5125
昔	-12.5125
充	-12.5125
漂	-12.5125
吻	-12.5125
仍	-12.5125
護	-12.5125
科	-12.5125
政	-12.5125
兌	-12.5125
媒	-12.5125
撰	-12.5125
稙	-12.5125
吱	-12.5125
慰	-12.5125
氈	-12.5125
溜	-12.5125
虎	-12.5125
佔	-12.5125
增	-12.5125
晨	-12.5125
極	-12.5125
儘	-12.5125
彼	-12.5125
椒	-12.5125
乎	-12.5126
倡	-12.5126
刊	-12.5126
劇	-12.5126
岬	-12.5126
恆	-12.5126
溝	-12.5126
異	-12.5126
脅	-12.5126
萊	-12.5126
融	-12.5126
誕	-12.5126
貧	-12.5126
販	-12.5126
赴	-12.5126
邏	-12.5126
鳶	-12.5126
森	-12.5126
拾	-12.5126
憂	-12.5126
竿	-12.5126
蔗	-12.5126
益	-12.5126
魂	-12.5126
塘	-12.5126
【	-12.5126
伺	-12.5126
倦	-12.5126
卜	-12.5126
含	-12.5126
夷	-12.5126
奈	-12.5126
奔	-12.5126
帥	-12.5126
徊	-12.5126
徘	-12.5126
憲	-12.5126
扮	-12.5126
擎	-12.5126
攏	-12.5126
歹	-12.5126
溯	-12.5126
滯	-12.5126
澗	-12.5126
爐	-12.5126
獐	-12.5126
窺	-12.5126
繳	-12.5126
肯	-12.5126
藝	-12.5126
蠻	-12.5126
裳	-12.5126
誇	-12.5126
譴	-12.5126
貢	-12.5126
雕	-12.5126
鮮	-12.5126
萌	-12.5126
警	-12.5126
駕	-12.5126
Y	-12.5126
噢	-12.5126
填	-12.5126
案	-12.5126
犠	-12.5126
症	-12.5126
竭	-12.5126
箠	-12.5126
簷	-12.5126
繡	-12.5126
踹	-12.5126
辨	-12.5126
逢	-12.5126
錐	-12.5126
鬢	-12.5126
侵	-12.5126
匙	-12.5126
攪	-12.5126
暢	-12.5126
藷	-12.5126
奶	-12.5126
謝	-12.5126
丸	-12.5126
呈	-12.5126
礱	-12.5126
絞	-12.5126
罪	-12.5126
蔽	-12.5126
饑	-12.5126
櫥	-12.5126
策	-12.5126
疾	-12.5126
纏	-12.5126
腹	-12.5126
9	-12.5126
=	-12.5126
j	-12.5126
x	-12.5126
К	-12.5126
м	-12.5126
р	-12.5126
ы	-12.5126
】	-12.5126
亦	-12.5126
仇	-12.5126
仙	-12.5126
估	-12.5126
佩	-12.5126
俊	-12.5126
俯	-12.5126
倚	-12.5126
催	-12.5126
傻	-12.5126
允	-12.5126
冇	-12.5126
凍	-12.5126
刁	-12.5126
刴	-12.5126
剷	-12.5126
勘	-12.5126
勿	-12.5126
匹	-12.5126
占	-12.5126
吮	-12.5126
呦	-12.5126
哈	-12.5126
唇	-12.5126
唬	-12.5126
唯	-12.5126
唷	-12.5126
啣	-12.5126
喙	-12.5126
嘆	-12.5126
噎	-12.5126
嚴	-12.5126
址	-12.5126
均	-12.5126
垢	-12.5126
堂	-12.5126
塔	-12.5126
塹	-12.5126
墩	-12.5126
壩	-12.5126
壽	-12.5126
奪	-12.5126
姻	-12.5126
嬉	-12.5126
宗	-12.5126
宵	-12.5126
局	-12.5126
峋	-12.5126
峻	-12.5126
峽	-12.5126
嶺	-12.5126
川	-12.5126
巧	-12.5126
巫	-12.5126
幌	-12.5126
廢	-12.5126
忽	-12.5126
恩	-12.5126
息	-12.5126
悶	-12.5126
愚	-12.5126
慮	-12.5126
慾	-12.5126
憑	-12.5126
戮	-12.5126
扇	-12.5126
抛	-12.5126
抵	-12.5126
拋	-12.5126
挫	-12.5126
振	-12.5126
捆	-12.5126
捐	-12.5126
捘	-12.5126
掀	-12.5126
控	-12.5126
掩	-12.5126
揀	-12.5126
搓	-12.5126
撥	-12.5126
撼	-12.5126
擱	-12.5126
攀	-12.5126
斬	-12.5126
斯	-12.5126
昭	-12.5126
晰	-12.5126
晶	-12.5126
朦	-12.5126
杖	-12.5126
杙	-12.5126
柑	-12.5126
梗	-12.5126
椆	-12.5126
楂	-12.5126
楠	-12.5126
樁	-12.5126
標	-12.5126
檜	-12.5126
欠	-12.5126
歎	-12.5126
歕	-12.5126
毆	-12.5126
毫	-12.5126
污	-12.5126
汲	-12.5126
汽	-12.5126
泅	-12.5126
泊	-12.5126
泛	-12.5126
洶	-12.5126
涉	-12.5126
淫	-12.5126
渣	-12.5126
渦	-12.5126
測	-12.5126
湍	-12.5126
溺	-12.5126
溼	-12.5126
漁	-12.5126
漉	-12.5126
漚	-12.5126
漩	-12.5126
漪	-12.5126
漿	-12.5126
濤	-12.5126
濺	-12.5126
濾	-12.5126
灕	-12.5126
災	-12.5126
炙	-12.5126
煞	-12.5126
煨	-12.5126
熔	-12.5126
熥	-12.5126
燥	-12.5126
燼	-12.5126
爆	-12.5126
犬	-12.5126
猜	-12.5126
琴	-12.5126
瓠	-12.5126
瓢	-12.5126
甩	-12.5126
疆	-12.5126
疔	-12.5126
疤	-12.5126
痴	-12.5126
癭	-12.5126
皺	-12.5126
盈	-12.5126
盲	-12.5126
眨	-12.5126
眾	-12.5126
睜	-12.5126
睪	-12.5126
睬	-12.5126
瞇	-12.5126
矩	-12.5126
碧	-12.5126
碩	-12.5126
碴	-12.5126
祉	-12.5126
禍	-12.5126
秘	-12.5126
稔	-12.5126
穴	-12.5126
篇	-12.5126
粉	-12.5126
糜	-12.5126
級	-12.5126
紮	-12.5126
綢	-12.5126
締	-12.5126
績	-12.5126
纒	-12.5126
罕	-12.5126
罰	-12.5126
罷	-12.5126
罹	-12.5126
羅	-12.5126
羨	-12.5126
翳	-12.5126
職	-12.5126
肋	-12.5126
肘	-12.5126
胃	-12.5126
脂	-12.5126
腎	-12.5126
腔	-12.5126
腺	-12.5126
膜	-12.5126
臊	-12.5126
臨	-12.5126
舔	-12.5126
芎	-12.5126
莎	-12.5126
莓	-12.5126
華	-12.5126
葛	-12.5126
蒼	-12.5126
蓮	-12.5126
蔭	-12.5126
蕷	-12.5126
薅	-12.5126
薦	-12.5126
藻	-12.5126
蚱	-12.5126
蜢	-12.5126
蜥	-12.5126
蜴	-12.5126
蝕	-12.5126
蝨	-12.5126
蝸	-12.5126
螂	-12.5126
螻	-12.5126
蟑	-12.5126
衍	-12.5126
袍	-12.5126
補	-12.5126
襲	-12.5126
覦	-12.5126
覬	-12.5126
訊	-12.5126
詞	-12.5126
誓	-12.5126
説	-12.5126
誼	-12.5126
諒	-12.5126
諮	-12.5126
謠	-12.5126
豚	-12.5126
豹	-12.5126
貌	-12.5126
貿	-12.5126
賴	-12.5126
贅	-12.5126
趾	-12.5126
蹊	-12.5126
蹲	-12.5126
軛	-12.5126
述	-12.5126
遙	-12.5126
遞	-12.5126
郊	-12.5126
郵	-12.5126
酌	-12.5126
醜	-12.5126
鍬	-12.5126
鎚	-12.5126
鏟	-12.5126
鏡	-12.5126
鏢	-12.5126
鏤	-12.5126
鑯	-12.5126
鑲	-12.5126
閹	-12.5126
闘	-12.5126
隱	-12.5126
雀	-12.5126
零	-12.5126
鞭	-12.5126
頒	-12.5126
頤	-12.5126
顴	-12.5126
飼	-12.5126
饋	-12.5126
饒	-12.5126
鬪	-12.5126
鬱	-12.5126
魄	-12.5126
鯉	-12.5126
鯰	-12.5126
鱗	-12.5126
鴿	-12.5126
鵝	-12.5126
鷀	-12.5126
鸕	-12.5126
紫	-12.5126
崇	-12.5126
蛛	-12.5126
蜘	-12.5126
辭	-12.5126
枯	-12.5126
儉	-12.5126
凰	-12.5126
劃	-12.5126
厭	-12.5126
嗜	-12.5126
嘶	-12.5126
埕	-12.5126
姶	-12.5126
嶙	-12.5126
旦	-12.5126
朱	-12.5126
枴	-12.5126
柏	-12.5126
桁	-12.5126
楹	-12.5126
榔	-12.5126
淖	-12.5126
漱	-12.5126
灶	-12.5126
狠	-12.5126
狡	-12.5126
瘉	-12.5126
監	-12.5126
租	-12.5126
秤	-12.5126
稚	-12.5126
篙	-12.5126
簧	-12.5126
縐	-12.5126
蔡	-12.5126
虛	-12.5126
蚣	-12.5126
蛄	-12.5126
蜈	-12.5126
螟	-12.5126
衡	-12.5126
覓	-12.5126
輾	-12.5126
迷	-12.5126
週	-12.5126
遂	-12.5126
郡	-12.5126
銷	-12.5126
陀	-12.5126
霎	-12.5126
顫	-12.5126
駁	-12.5126
驟	-12.5126
鼴	-12.5126
技	-12.5126
萎	-12.5126
側	-12.5126
准	-12.5126
刈	-12.5126
募	-12.5126
咻	-12.5126
庇	-12.5126
枚	-12.5126
框	-12.5126
楓	-12.5126
灌	-12.5126
犂	-12.5126
珊	-12.5126
瑚	-12.5126
礁	-12.5126
耗	-12.5126
聖	-12.5126
脛	-12.5126
釵	-12.5126
鉗	-12.5126
雹	-12.5126
減	-12.5126
嚙	-12.5126
遼	-12.5126
啟	-12.5126
培	-12.5126
悠	-12.5126
措	-12.5126
援	-12.5126
撤	-12.5126
旗	-12.5126
欸	-12.5126
滷	-12.5126
漠	-12.5126
茂	-12.5126
鄭	-12.5126
防	-12.5126
齡	-12.5126
革	-12.5126
努	-12.5127
迅	-12.5127
偏	-12.5127
卑	-12.5127
拯	-12.5127
畏	-12.5127
系	-12.5127
軌	-12.5127
遵	-12.5127
飢	-12.5127
循	-12.5127
鄒	-12.5127
噗	-12.5127
契	-12.5127
庄	-12.5127
藉	-12.5127
違	-12.5127
舟	-12.5131
鷳	-12.5238
鯨	-12.5239
駛	-12.524
霜	-12.5241
雉	-12.5242
閩	-12.5243
鐺	-12.5244
鐲	-12.5245
鈴	-12.5246
躍	-12.5247
貍	-12.5248
譯	-12.5249
謾	-12.525
誌	-12.5251
訝	-12.5252
裹	-12.5253
袱	-12.5254
蟾	-12.5255
蟆	-12.5256
螫	-12.5257
蝗	-12.5258
蝌	-12.5259
蜍	-12.526
蚪	-12.5261
薪	-12.5262
蒐	-12.5263
葵	-12.5264
聆	-12.5265
耘	-12.5266
翠	-12.5267
翅	-12.5268
羡	-12.5269
綴	-12.527
糧	-12.5271
籽	-12.5272
箱	-12.5273
竟	-12.5274
窪	-12.5275
穫	-12.5276
秀	-12.5277
碌	-12.5278
矢	-12.5279
瞳	-12.528
瞄	-12.5281
睦	-12.5282
盼	-12.5283
癩	-12.5284
療	-12.5285
瑪	-12.5286
犧	-12.5287
燜	-12.5288
烰	-12.5289
炮	-12.529
濟	-12.5291
澤	-12.5292
温	-12.5293
泣	-12.5294
沿	-12.5295
歸	-12.5296
櫻	-12.5297
棉	-12.5298
柿	-12.5299
柚	-12.53
枕	-12.5301
昂	-12.5302
敞	-12.5303
攝	-12.5304
操	-12.5305
擇	-12.5306
撇	-12.5307
拱	-12.5308
戀	-12.5309
憤	-12.531
慎	-12.5311
態	-12.5312
惑	-12.5313
悍	-12.5314
廠	-12.5315
庫	-12.5316
干	-12.5317
崁	-12.5318
屑	-12.5319
孟	-12.532
嫉	-12.5321
妒	-12.5322
坦	-12.5323
嚏	-12.5324
噶	-12.5325
啡	-12.5326
咱	-12.5327
咖	-12.5328
劍	-12.5329
刨	-12.533
兆	-12.5331
傍	-12.5332
併	-12.5333
仁	-12.5334
予	-12.5335
\	-12.5336
G	-12.5337
鷂	-12.5338
鴦	-12.5339
鴛	-12.534
鳳	-12.5341
預	-12.5342
霉	-12.5343
陌	-12.5344
裕	-12.5345
衛	-12.5346
蠟	-12.5347
螢	-12.5348
蝠	-12.5349
蝙	-12.535
蒂	-12.5351
荷	-12.5352
芭	-12.5353
良	-12.5354
臀	-12.5355
膨	-12.5356
膊	-12.5357
綿	-12.5358
素	-12.5359
糝	-12.536
籜	-12.5361
簿	-12.5362
祥	-12.5363
研	-12.5364
瞭	-12.5365
睫	-12.5366
皂	-12.5367
瘩	-12.5368
痘	-12.5369
疙	-12.537
瑞	-12.5371
珍	-12.5372
狹	-12.5373
狩	-12.5374
燭	-12.5375
烹	-12.5376
瀑	-12.5377
澈	-12.5378
渡	-12.5379
涸	-12.538
涕	-12.5381
沫	-12.5382
江	-12.5383
殖	-12.5384
槽	-12.5385
梯	-12.5386
梨	-12.5387
栽	-12.5388
柯	-12.5389
朗	-12.539
曝	-12.5391
昌	-12.5392
挾	-12.5393
拒	-12.5394
愎	-12.5395
愉	-12.5396
悚	-12.5397
恢	-12.5398
怨	-12.5399
德	-12.54
延	-12.5401
帳	-12.5402
屐	-12.5403
尚	-12.5404
宴	-12.5405
孝	-12.5406
嬰	-12.5407
嬤	-12.5408
嬌	-12.5409
嫩	-12.541
婿	-12.5411
委	-12.5412
嚥	-12.5413
嘈	-12.5414
嗝	-12.5415
哽	-12.5416
叉	-12.5417
危	-12.5418
凹	-12.5419
儲	-12.542
傑	-12.5421
伐	-12.5422
井	-12.5423
乳	-12.5424
鰱	-12.5425
騰	-12.5426
陪	-12.5427
限	-12.5428
鐮	-12.5429
醇	-12.543
貝	-12.5431
謂	-12.5432
諷	-12.5433
詐	-12.5434
覽	-12.5435
螞	-12.5436
蜻	-12.5437
蜓	-12.5438
蚤	-12.5439
蘿	-12.544
蔔	-12.5441
菱	-12.5442
苔	-12.5443
耐	-12.5444
範	-12.5445
筒	-12.5446
笠	-12.5447
笛	-12.5448
童	-12.5449
盯	-12.545
痊	-12.5451
畢	-12.5452
畚	-12.5453
澡	-12.5454
涎	-12.5455
洩	-12.5456
永	-12.5457
槌	-12.5458
枉	-12.5459
敵	-12.546
拭	-12.5461
拆	-12.5462
悉	-12.5463
忍	-12.5464
屏	-12.5465
埂	-12.5466
嚕	-12.5467
嘍	-12.5468
啪	-12.5469
哎	-12.547
周	-12.5471
叩	-12.5472
卸	-12.5473
創	-12.5474
剋	-12.5475
黝	-12.5476
鷺	-12.5477
鷥	-12.5478
餅	-12.5479
頸	-12.548
鉛	-12.5481
郎	-12.5482
迫	-12.5483
跡	-12.5484
袖	-12.5485
蟋	-12.5486
蟀	-12.5487
蚯	-12.5488
蚓	-12.5489
薩	-12.549
莫	-12.5491
籩	-12.5492
籌	-12.5493
穢	-12.5494
獼	-12.5495
牲	-12.5496
澳	-12.5497
澆	-12.5498
洲	-12.5499
泉	-12.55
沸	-12.5501
欣	-12.5502
擲	-12.5503
挪	-12.5504
拓	-12.5505
抄	-12.5506
愁	-12.5507
弛	-12.5508
廁	-12.5509
孵	-12.551
孔	-12.5511
塗	-12.5512
堪	-12.5513
嗆	-12.5514
叮	-12.5515
係	-12.5516
瘤	-12.5517
+	-12.5517
頑	-12.5518
蟻	-12.5519
蜜	-12.552
芒	-12.5521
膠	-12.5522
耆	-12.5523
缺	-12.5524
紹	-12.5525
筷	-12.5526
稗	-12.5527
碼	-12.5528
盾	-12.5529
牌	-12.553
抖	-12.5531
憶	-12.5532
惶	-12.5533
惱	-12.5534
徙	-12.5535
廳	-12.5536
廍	-12.5537
嶼	-12.5538
富	-12.5539
宜	-12.554
孕	-12.5541
央	-12.5542
塑	-12.5543
垂	-12.5544
嗇	-12.5545
啞	-12.5546
吝	-12.5547
史	-12.5548
協	-12.5549
偶	-12.555
丁	-12.5551
鴉	-12.5552
遲	-12.5553
超	-12.5554
購	-12.5555
譏	-12.5556
蟹	-12.5557
螃	-12.5558
蚊	-12.5559
蕃	-12.556
蔥	-12.5561
膝	-12.5562
窟	-12.5563
瞧	-12.5564
眉	-12.5565
瑟	-12.5566
琳	-12.5567
爪	-12.5568
燕	-12.5569
熾	-12.557
濘	-12.5571
樟	-12.5572
杉	-12.5573
曲	-12.5574
崩	-12.5575
崖	-12.5576
娘	-12.5577
嚎	-12.5578
呻	-12.5579
吟	-12.558
冠	-12.5581
丐	-12.5582
運	-12.5583
茅	-12.5584
脾	-12.5585
脯	-12.5586
胎	-12.5587
肩	-12.5588
耀	-12.5589
爍	-12.559
煩	-12.5591
炫	-12.5592
泰	-12.5593
柬	-12.5594
晾	-12.5595
攤	-12.5596
捨	-12.5597
戒	-12.5598
寨	-12.5599
寒	-12.56
嗽	-12.5601
喳	-12.5602
俄	-12.5603
N	-12.5604
鵲	-12.5605
驕	-12.5606
鈔	-12.5607
迴	-12.5608
赤	-12.5609
豎	-12.561
觸	-12.5611
虱	-12.5612
苧	-12.5613
艘	-12.5614
羽	-12.5615
筋	-12.5616
笆	-12.5617
稀	-12.5618
浴	-12.5619
洪	-12.562
敢	-12.5621
攻	-12.5622
攜	-12.5623
慣	-12.5624
嚨	-12.5625
嘲	-12.5626
喉	-12.5627
司	-12.5628
傲	-12.5629
辛	-12.563
贊	-12.5631
蕗	-12.5632
聰	-12.5633
篾	-12.5634
漆	-12.5635
歪	-12.5636
棟	-12.5637
板	-12.5638
擅	-12.5639
撕	-12.564
探	-12.5641
戽	-12.5642
尊	-12.5643
困	-12.5644
咀	-12.5645
右	-12.5646
冬	-12.5647
仿	-12.5648
龍	-12.5649
闆	-12.565
貨	-12.5651
蘋	-12.5652
缸	-12.5653
糯	-12.5654
筧	-12.5655
珠	-12.5656
潮	-12.5657
梅	-12.5658
斧	-12.5659
掙	-12.566
托	-12.5661
庭	-12.5662
股	-12.5663
緣	-12.5664
瞌	-12.5665
欺	-12.5666
攫	-12.5667
擾	-12.5668
戚	-12.5669
憐	-12.567
忌	-12.5671
廣	-12.5672
姑	-12.5673
享	-12.5674
н	-12.5675
к	-12.5676
У	-12.5677
需	-12.5678
褲	-12.5679
薄	-12.568
脖	-12.5681
植	-12.5682
拍	-12.5683
惰	-12.5684
凱	-12.5685
倉	-12.5686
鬚	-12.5687
隔	-12.5688
育	-12.5689
慷	-12.569
慨	-12.5691
康	-12.5692
巨	-12.5693
厲	-12.5694
兔	-12.5695
傾	-12.5696
龜	-12.5697
顏	-12.5698
蝴	-12.5699
虹	-12.57
瘀	-12.5701
甕	-12.5702
榴	-12.5703
李	-12.5704
摔	-12.5705
希	-12.5706
屁	-12.5707
佑	-12.5708
餚	-12.5709
雖	-12.571
蜂	-12.5711
苳	-12.5712
糖	-12.5713
王	-12.5714
扎	-12.5715
伯	-12.5716
颱	-12.5717
藏	-12.5718
泳	-12.5719
止	-12.572
橡	-12.5721
夠	-12.5722
鬍	-12.5723
茄	-12.5724
禁	-12.5725
祝	-12.5726
扒	-12.5727
垃	-12.5728
圾	-12.5729
左	-12.573
巡	-12.5731
嫌	-12.5732
北	-12.5733
典	-12.5734
朽	-12.5735
夏	-12.5736
韆	-12.5737
鞦	-12.5738
訪	-12.5739
麗	-12.574
靜	-12.5741
繼	-12.5742
丈	-12.5743
閃	-12.5744
蔬	-12.5745
氏	-12.5746
а	-12.5747
箍	-12.5748
棵	-12.5749
床	-12.575
幣	-12.5751
R	-12.5752
齒	-12.5753
媳	-12.5754
餐	-12.5755
阱	-12.5756
甚	-12.5757
檳	-12.5758
掘	-12.5759
糬	-12.576
鼻	-12.5761
姓	-12.5762
兄	-12.5763
壁	-12.5764
休	-12.5765
蕉	-12.5766
猴	-12.5767
W	-12.5768
灣	-12.5769
帽	-12.577
賽	-12.5771
忘	-12.5772
府	-12.5773
肚	-12.5774
棄	-12.5775
校	-12.5776
叔	-12.5777
爺	-12.5778
星	-12.5779
訴	-12.578
漸	-12.5781
c	-12.5782
椅	-12.5783
睛	-12.5784
哥	-12.5785
U	-12.5786
習	-12.5787
祭	-12.5788
蛙	-12.5789
昨	-12.579
電	-12.5791
弟	-12.5792
陽	-12.5793
朋	-12.5794
K	-12.5795
Z	-12.5796
潭	-12.5797
H	-12.5798
怎	-12.5799
Q	-12.58
工	-12.5801
L	-12.5802
什	-12.5803
爸	-12.5804
麼	-12.5805
d	-12.5806
b	-12.5807
楚	-12.5807
