<pad>	0
<unk>	0
<s>	0
</s>	0
<2bnn>	0
<2en>	0
▁	-2.03391
.	-2.92012
'	-3.4177
▁to	-3.59416
,	-3.64984
?	-4.13691
▁a	-4.21594
▁the	-4.28434
s	-4.41799
▁I	-4.44954
▁is	-4.746
▁you	-4.92679
an	-5.00054
▁and	-5.0851
▁hai	-5.14131
▁in	-5.24618
▁mas	-5.3349
n	-5.36098
on	-5.40336
a	-5.41892
▁na	-5.44688
-	-5.543
in	-5.55482
t	-5.60798
▁it	-5.66006
▁cia	-5.67853
▁ma	-5.74845
!	-5.75133
▁so	-5.80966
o	-5.81734
▁at	-5.82553
▁ca	-5.85778
▁The	-5.8846
▁of	-5.88688
▁my	-5.88874
ing	-5.88899
▁are	-5.89754
y	-5.92787
i	-5.93117
▁go	-5.9543
▁that	-5.97173
ed	-5.99967
▁have	-6.0205
▁for	-6.02953
▁i	-6.03398
▁ka	-6.121
▁we	-6.14343
▁M	-6.20136
▁aso	-6.2179
az	-6.22734
▁he	-6.23511
d	-6.29387
▁sia	-6.30801
▁will	-6.33876
▁amin	-6.35285
▁He	-6.38888
▁with	-6.40655
▁your	-6.40672
▁saia	-6.41039
/	-6.41557
▁me	-6.41866
▁was	-6.41984
▁be	-6.42594
▁nii	-6.45669
▁How	-6.48217
▁going	-6.48688
▁Ma	-6.4972
▁saikin	-6.4981
▁ta	-6.5418
aq	-6.55353
ang	-6.55461
▁cak	-6.63012
▁take	-6.63705
m	-6.64152
e	-6.66463
▁It	-6.67201
▁do	-6.68222
▁saak	-6.70029
▁want	-6.70462
▁maz	-6.71976
▁Na	-6.73809
<	-6.74728
▁No	-6.74876
▁bonon	-6.75712
▁by	-6.76777
▁this	-6.76836
▁topa	-6.77506
▁school	-6.79301
▁up	-6.79381
▁ata	-6.80394
▁like	-6.80636
ll	-6.82403
>	-6.83447
▁can	-6.84299
▁What	-6.85753
▁there	-6.85759
▁We	-6.85808
▁Yes	-6.87408
▁see	-6.87514
▁out	-6.87599
▁aiza	-6.88012
▁Do	-6.88199
▁on	-6.91537
re	-6.91924
)	-6.92429
▁cina	-6.93953
▁home	-6.94826
▁teacher	-6.95448
▁ko	-6.95883
▁not	-6.96465
▁mais	-6.98397
▁old	-6.98716
▁Uo	-6.99103
▁ai	-6.99447
▁brother	-7.00458
▁/	-7.01039
▁Whe	-7.01737
▁asa	-7.02798
▁aak	-7.03024
▁haip	-7.03868
▁today	-7.04453
▁back	-7.06921
▁buy	-7.07609
▁did	-7.07624
▁azak	-7.08293
▁here	-7.08689
▁tama	-7.09272
▁zako	-7.09548
▁his	-7.09622
▁dog	-7.09734
▁ki	-7.09753
▁qa	-7.11278
▁soo	-7.1142
▁him	-7.11753
▁ni	-7.12173
▁very	-7.13208
▁Then	-7.13367
▁saicia	-7.13392
▁aopa	-7.13494
▁sado	-7.13637
▁am	-7.13747
▁our	-7.14687
▁A	-7.15568
▁There	-7.15724
▁name	-7.16606
▁one	-7.16721
▁went	-7.16881
▁time	-7.17193
▁don	-7.17211
▁"	-7.18375
▁day	-7.19854
▁mahto	-7.21016
▁maqto	-7.219
▁from	-7.22032
ia	-7.2307
ik	-7.23633
▁ado	-7.23862
▁naak	-7.24155
▁sister	-7.24261
▁Subali	-7.25458
▁get	-7.25467
▁Is	-7.26512
▁mabaliv	-7.26529
▁Sobali	-7.27314
▁tas	-7.28704
▁Bunun	-7.30354
al	-7.3063
▁madas	-7.31631
▁ito	-7.31851
▁come	-7.31869
▁many	-7.3241
▁kaso	-7.32445
▁nak	-7.32782
▁cin	-7.32955
▁masnanava	-7.3331
oni	-7.34324
▁tan	-7.34617
▁maza	-7.3546
▁us	-7.35555
▁inaak	-7.35769
▁together	-7.36652
▁she	-7.37846
▁madia	-7.39033
▁siza	-7.4018
▁said	-7.40369
▁mon	-7.40466
nger	-7.40615
av	-7.40741
▁know	-7.41184
▁pan	-7.42185
▁bring	-7.42344
▁dii	-7.42703
▁inak	-7.42746
ve	-7.44068
▁tribe	-7.45011
▁some	-7.45482
▁W	-7.45653
▁P	-7.45901
▁You	-7.46206
▁people	-7.46283
na	-7.47124
▁does	-7.47321
▁but	-7.47346
ext	-7.48182
▁ik	-7.48518
▁Nii	-7.48905
▁pa	-7.491
▁would	-7.49261
▁ovaaz	-7.4934
▁moskon	-7.4984
▁sin	-7.50291
▁lot	-7.50379
h	-7.50721
▁where	-7.51433
▁eat	-7.52118
▁water	-7.5241
▁father	-7.52417
▁takna	-7.53485
er	-7.53713
▁Who	-7.54004
▁Are	-7.54827
▁min	-7.55011
▁soi	-7.55222
▁oka	-7.55858
▁they	-7.56198
other	-7.56711
▁Let	-7.56777
anak	-7.57237
▁mother	-7.57963
▁has	-7.58767
▁lomaq	-7.58937
▁She	-7.59039
▁mo	-7.59137
▁maon	-7.59577
▁pen	-7.59872
▁m	-7.60115
▁family	-7.60175
▁isia	-7.6145
▁rice	-7.62171
ta	-7.62317
▁everyone	-7.62516
▁isaicia	-7.63024
▁about	-7.63727
▁as	-7.63961
▁need	-7.64899
▁all	-7.66558
▁diqanin	-7.66782
▁T	-7.66786
g	-7.6686
▁ha	-7.67289
▁much	-7.67338
▁ang	-7.67453
as	-7.68072
es	-7.68277
▁borrow	-7.68583
▁danom	-7.68872
▁yesterday	-7.69845
▁lokis	-7.70079
▁child	-7.70756
to	-7.7077
▁fish	-7.70847
▁catch	-7.71146
▁This	-7.71283
▁That	-7.7242
▁them	-7.72561
▁just	-7.72565
▁qamisan	-7.72573
la	-7.72698
▁Bonon	-7.72886
▁mal	-7.73019
were	-7.73186
▁dao	-7.73195
▁who	-7.73692
▁speak	-7.73729
▁down	-7.73731
▁tomorrow	-7.73734
▁been	-7.73862
▁han	-7.7424
▁also	-7.75088
▁naia	-7.75229
▁nito	-7.75382
▁ask	-7.75421
▁Okay	-7.76404
▁two	-7.76563
▁hunting	-7.76676
▁ong	-7.76734
▁S	-7.76765
▁make	-7.77043
▁sanglav	-7.77328
ng	-7.77428
▁asang	-7.77623
▁three	-7.77773
▁away	-7.77961
▁whe	-7.78973
▁return	-7.79154
▁sun	-7.79162
▁more	-7.79273
▁sisioh	-7.80558
▁ti	-7.80599
▁frog	-7.8077
got	-7.80939
▁dosa	-7.81113
▁no	-7.81262
▁what	-7.81981
▁minsoma	-7.83183
▁masa	-7.83377
▁took	-7.83421
▁adii	-7.83984
▁Ni	-7.8513
▁aip	-7.85878
▁man	-7.86306
▁play	-7.86379
▁tree	-7.86674
▁too	-7.87364
▁naipa	-7.874
▁sala	-7.87456
▁siin	-7.88275
▁kosia	-7.8855
▁now	-7.88948
lease	-7.89367
▁children	-7.89601
le	-7.89715
▁si	-7.89798
is	-7.90142
▁long	-7.90347
▁any	-7.90486
ather	-7.90945
▁good	-7.90984
▁Ha	-7.91388
▁sidoh	-7.91855
▁Hello	-7.92558
▁indigenous	-7.92785
▁kaonon	-7.93009
▁drink	-7.94172
▁caak	-7.9439
▁trap	-7.94595
▁monhaan	-7.94659
▁had	-7.94962
ly	-7.95178
q	-7.95613
▁lend	-7.95796
▁uncle	-7.95796
▁Haiza	-7.95816
▁give	-7.95823
▁maopa	-7.95863
▁mazima	-7.95894
▁qan	-7.96203
r	-7.96556
▁over	-7.97468
▁hanian	-7.97575
▁o	-7.97638
▁al	-7.98095
▁years	-7.98121
▁ispapatas	-7.98635
▁money	-7.99146
▁if	-7.99974
▁how	-8.00898
▁Can	-8.01118
▁monhan	-8.01395
▁aam	-8.01453
▁ngan	-8.01702
▁ak	-8.0193
▁aas	-8.0229
▁little	-8.02609
▁because	-8.02813
▁topaon	-8.03193
▁haiza	-8.0389
ovaaz	-8.03964
."	-8.04509
▁b	-8.0524
▁mai	-8.05587
▁look	-8.05679
▁O	-8.0585
▁sweet	-8.06208
▁bus	-8.06312
▁ngaan	-8.06446
▁live	-8.06823
▁iso	-8.07053
▁place	-8.0804
▁let	-8.08097
ko	-8.08224
▁ihaan	-8.10595
▁aipa	-8.1105
▁bottle	-8.1183
▁tina	-8.12567
▁Did	-8.13784
▁Maqto	-8.13793
▁Topa	-8.14072
▁boar	-8.14295
▁tantongo	-8.14709
▁tasa	-8.14739
▁after	-8.14886
▁Uka	-8.15335
▁kaimin	-8.15779
▁amo	-8.15969
▁haiap	-8.16214
ur	-8.16518
▁eraser	-8.16591
▁cam	-8.17196
▁cook	-8.17283
▁use	-8.1771
▁kilim	-8.17878
▁mapatas	-8.17935
▁kata	-8.18011
▁haqo	-8.18151
▁ovaz	-8.182
one	-8.18431
▁sa	-8.1852
▁tao	-8.19717
▁teach	-8.19809
▁lunch	-8.19874
▁clothes	-8.19884
▁still	-8.19892
ol	-8.20301
ring	-8.20607
▁into	-8.20977
▁qai	-8.21051
asik	-8.21147
▁yet	-8.21996
so	-8.22275
▁house	-8.22347
oan	-8.22354
▁lomah	-8.22793
▁di	-8.23067
▁la	-8.23118
▁In	-8.2347
▁kid	-8.23586
▁prey	-8.24174
▁bird	-8.24179
▁kalala	-8.24416
▁malala	-8.24416
▁vegetables	-8.24437
▁Incomin	-8.24594
c	-8.25251
▁ton	-8.25482
ak	-8.26124
▁help	-8.26363
▁Tiang	-8.26368
▁big	-8.26385
▁azam	-8.26389
▁mapasnava	-8.26406
read	-8.27045
se	-8.27279
▁isoo	-8.2734
▁simol	-8.27389
▁wine	-8.28623
▁every	-8.28636
opa	-8.2875
▁hot	-8.29157
▁grandmother	-8.29233
onin	-8.29396
ch	-8.29708
▁kako	-8.29776
▁cold	-8.29939
nava	-8.30442
oq	-8.30924
▁interview	-8.30935
▁delicious	-8.30935
▁clean	-8.31022
▁monha	-8.31083
▁hazam	-8.31212
k	-8.31254
▁andii	-8.31454
p	-8.32668
nic	-8.32774
▁sing	-8.33001
▁On	-8.33258
eth	-8.33388
▁their	-8.33408
▁off	-8.33496
▁maca	-8.33769
▁davos	-8.33954
▁sanavan	-8.34003
▁mountains	-8.34079
▁vali	-8.34082
▁basket	-8.34511
ah	-8.35298
▁study	-8.35727
▁food	-8.35729
▁doing	-8.36137
ai	-8.36588
▁habas	-8.36688
▁sinsi	-8.37114
▁toza	-8.37978
▁saam	-8.3826
▁again	-8.38469
▁please	-8.38539
w	-8.38721
▁fishing	-8.38759
▁kaviaz	-8.38881
▁Thank	-8.39497
aan	-8.39603
mo	-8.40162
▁Moskon	-8.40525
▁Ka	-8.40592
▁naip	-8.40704
]	-8.40756
▁Teacher	-8.40759
▁holos	-8.40759
▁really	-8.40767
▁while	-8.40789
▁tell	-8.40818
▁c	-8.41098
"	-8.41116
▁only	-8.41623
▁pi	-8.41742
ill	-8.4206
▁got	-8.42748
▁sain	-8.43052
▁motorcycle	-8.43373
▁keep	-8.43374
▁madamo	-8.43379
▁naobananaz	-8.4339
▁put	-8.43417
▁mom	-8.43828
fter	-8.45397
▁visit	-8.46043
▁church	-8.46058
▁learn	-8.46063
▁turn	-8.46118
▁doma	-8.46801
ma	-8.46866
▁language	-8.47615
▁mapit	-8.47731
▁then	-8.4837
▁brothers	-8.48464
:	-8.48817
▁why	-8.48817
▁foot	-8.48817
▁could	-8.48831
▁naicia	-8.48832
Come	-8.48844
▁saiia	-8.48857
▁Piaq	-8.48865
▁her	-8.49086
!"	-8.4916
▁masitoqas	-8.49193
om	-8.49303
or	-8.49348
▁kozakoza	-8.4949
va	-8.51463
▁Taitung	-8.51654
▁class	-8.51654
▁outside	-8.51656
iti	-8.51673
▁before	-8.517
▁heard	-8.51779
▁compet	-8.51786
ion	-8.52375
▁babalivan	-8.52627
▁sisters	-8.53041
▁sian	-8.53188
▁haito	-8.53209
▁[	-8.53294
▁swim	-8.53353
aza	-8.53565
▁mapa	-8.53567
rought	-8.54027
▁But	-8.54574
▁bonbon	-8.54574
▁kept	-8.54575
▁pork	-8.54578
▁saw	-8.54608
▁train	-8.54609
▁came	-8.54763
▁pal	-8.54973
▁nam	-8.5588
▁head	-8.563
aon	-8.56515
at	-8.56682
▁tastolomaq	-8.56856
▁eaten	-8.56954
otong	-8.57003
ate	-8.57162
▁walk	-8.57296
▁lodon	-8.57452
▁made	-8.57466
▁molomaq	-8.57539
▁miliskin	-8.57581
▁isqaqaisqais	-8.57602
▁fruit	-8.57632
▁Mabaliv	-8.57688
▁sima	-8.57719
▁balivon	-8.57748
▁coi	-8.57881
ok	-8.58012
▁looking	-8.58053
▁modaan	-8.58066
▁year	-8.58109
▁says	-8.58131
▁masial	-8.58526
▁haan	-8.58651
▁Maiza	-8.58737
▁zami	-8.58877
▁languages	-8.58911
lo	-8.59079
▁Tama	-8.59354
▁elder	-8.59423
pa	-8.5955
▁beat	-8.59659
daingaz	-8.59858
▁night	-8.59867
▁bit	-8.59892
▁piece	-8.60281
▁p	-8.60282
▁laqbing	-8.60285
▁nepa	-8.60683
▁Today	-8.60685
▁later	-8.60714
▁wash	-8.61185
▁Asa	-8.6132
▁taqo	-8.61783
anin	-8.61917
▁heza	-8.62026
▁patasan	-8.62143
▁cooked	-8.62381
▁work	-8.62388
▁young	-8.62646
▁friend	-8.62669
▁kodii	-8.63033
▁should	-8.63243
▁whi	-8.6384
▁river	-8.63875
▁bicycle	-8.63883
▁first	-8.63883
▁swimming	-8.63883
▁person	-8.63884
▁running	-8.63887
▁Aping	-8.6392
▁Pu	-8.64122
▁madaing	-8.64167
▁raining	-8.64508
▁peoples	-8.6451
cia	-8.6464
▁isian	-8.6503
▁mac	-8.65425
▁tasto	-8.65502
b	-8.65543
ld	-8.65644
▁madadaingaz	-8.65749
haan	-8.66175
dadaza	-8.66285
▁read	-8.66309
▁kosian	-8.66695
▁hunt	-8.66847
amin	-8.66856
▁pali	-8.67063
not	-8.67096
▁bought	-8.67191
▁living	-8.67198
▁stone	-8.67214
▁makosia	-8.67304
▁calling	-8.67375
da	-8.67415
▁masipol	-8.67482
▁dad	-8.67984
en	-8.68439
▁qanop	-8.68547
▁leave	-8.686
▁sp	-8.6893
▁bongo	-8.68997
▁talk	-8.69062
▁these	-8.69283
▁sopah	-8.69438
ong	-8.69442
▁pack	-8.69481
ha	-8.69585
▁Ton	-8.70089
▁holoc	-8.70604
▁Grandma	-8.70608
▁textbook	-8.70608
▁naobapingaz	-8.70608
▁find	-8.70608
▁sell	-8.7063
▁kakaonon	-8.70632
▁Ung	-8.70651
▁istaa	-8.70718
▁yourself	-8.70733
▁last	-8.70798
▁mako	-8.71229
▁pin	-8.71251
▁grow	-8.71302
▁tal	-8.71331
ita	-8.71685
▁rain	-8.73345
▁L	-8.73812
ce	-8.73915
▁dollars	-8.74148
▁right	-8.74149
▁feel	-8.7415
▁moliva	-8.74152
▁kind	-8.74178
ima	-8.74192
▁imita	-8.74197
▁daan	-8.74199
▁qodasna	-8.74256
▁hima	-8.74341
▁co	-8.74463
▁taste	-8.7453
▁qalinga	-8.74567
▁mindangaz	-8.74587
▁tondaza	-8.74812
l	-8.74942
nak	-8.75062
▁line	-8.75293
▁pro	-8.75598
▁aipon	-8.75732
oo	-8.75921
▁malka	-8.75968
▁kaopa	-8.76282
▁kaz	-8.76389
▁nai	-8.76432
▁1	-8.76532
▁pantamaon	-8.76602
▁traps	-8.76831
▁tea	-8.76938
▁mountain	-8.77048
▁maqa	-8.77104
apav	-8.77346
able	-8.7749
▁kis	-8.77735
▁langkitaz	-8.77818
▁afternoon	-8.77818
▁potatoes	-8.77828
▁thank	-8.77835
▁end	-8.77847
▁wear	-8.77862
▁evening	-8.77892
▁mato	-8.77973
▁siblings	-8.78033
▁Makoa	-8.78067
▁madaingaz	-8.78179
▁fields	-8.78215
▁pandian	-8.78253
▁macial	-8.78361
▁sadoo	-8.78459
▁cut	-8.78688
▁things	-8.78735
▁inaam	-8.78818
▁izok	-8.79384
▁tai	-8.79475
▁po	-8.80707
▁meat	-8.80787
▁talolong	-8.80914
thing	-8.81145
f	-8.8118
▁wind	-8.81614
▁umbrella	-8.81628
▁station	-8.81638
▁Sure	-8.81643
▁open	-8.81645
▁dishes	-8.81646
isaq	-8.81756
pe	-8.81793
▁st	-8.81943
▁ciin	-8.81957
▁sangan	-8.81965
▁smell	-8.82075
▁monata	-8.82126
▁manaskal	-8.82147
▁taskon	-8.82183
▁maposan	-8.82187
▁wil	-8.82301
▁government	-8.82667
▁tall	-8.82716
▁Du	-8.82788
▁share	-8.82935
anat	-8.82993
▁love	-8.83482
dosa	-8.83861
▁bato	-8.83875
th	-8.83909
▁isa	-8.84348
▁chicken	-8.84375
▁or	-8.84519
▁mali	-8.85096
ka	-8.85442
;	-8.85588
▁group	-8.85588
▁remember	-8.85588
▁typhoon	-8.85588
▁wife	-8.85588
▁Talum	-8.85589
▁left	-8.8559
▁grass	-8.85591
▁seho	-8.85592
▁moqnin	-8.85594
▁hold	-8.85598
▁great	-8.85626
ikit	-8.85639
▁maqanciap	-8.85642
▁table	-8.85679
▁fell	-8.85733
aang	-8.85908
▁stick	-8.85979
▁laopako	-8.86061
▁fly	-8.86203
▁halinga	-8.86437
▁Mo	-8.86461
▁hotan	-8.86641
▁mama	-8.86783
ow	-8.86857
▁koton	-8.8692
▁hat	-8.86994
▁well	-8.87246
do	-8.87355
▁full	-8.87841
▁masnava	-8.88124
▁tradition	-8.88353
▁culture	-8.88488
▁banana	-8.88502
▁side	-8.88534
grown	-8.88905
▁pasimol	-8.88985
law	-8.89633
st	-8.89701
▁women	-8.89713
▁each	-8.89713
▁sky	-8.89713
▁sipongol	-8.89714
▁Wait	-8.89714
▁drive	-8.89717
▁hard	-8.8972
▁Every	-8.89721
▁often	-8.8978
▁rest	-8.89805
▁maqansiap	-8.89945
▁forest	-8.89961
▁U	-8.89965
nao	-8.89998
▁makoa	-8.90008
▁hamisan	-8.90205
▁late	-8.90321
▁classmates	-8.90418
aopa	-8.90465
▁ana	-8.90534
▁tataqo	-8.90692
▁konan	-8.90768
▁sipolan	-8.90845
▁moqnang	-8.90851
▁maipa	-8.91793
▁isain	-8.92197
▁tatao	-8.92311
▁acang	-8.92352
est	-8.92606
▁Heza	-8.92837
▁book	-8.93132
ting	-8.93132
▁pantama	-8.93168
▁Sai	-8.93218
▁hear	-8.93636
▁five	-8.94019
▁never	-8.94019
▁Azoq	-8.9402
▁kolomah	-8.94027
▁Dad	-8.94066
▁pears	-8.94112
▁pasnanava	-8.9417
▁haising	-8.94177
▁Go	-8.94269
ho	-8.94382
▁libos	-8.94534
▁hornets	-8.94643
▁toqas	-8.94684
▁tais	-8.94876
▁way	-8.94961
li	-8.9504
▁pis	-8.9504
▁malospingaz	-8.95191
▁qoma	-8.95885
▁chase	-8.96154
▁other	-8.96221
u	-8.96269
▁sit	-8.96307
▁g	-8.9708
▁daza	-8.97474
lodah	-8.9758
▁Pima	-8.97793
▁Tak	-8.98398
▁Kaohsiung	-8.98509
▁Yesterday	-8.98509
▁future	-8.98509
▁record	-8.98509
▁black	-8.98509
▁slowly	-8.9851
▁masinoba	-8.98512
▁thin	-8.98519
▁riverside	-8.9852
▁mahansiap	-8.98522
▁Madia	-8.98525
▁mastaan	-8.98526
▁stall	-8.98532
▁Sani	-8.98552
▁something	-8.98578
▁spring	-8.98596
▁masabah	-8.9862
▁door	-8.98722
▁malasbonon	-8.99039
oka	-8.99127
▁So	-8.99229
▁sadoan	-8.9931
▁titi	-8.99339
▁dangian	-8.99362
room	-8.99468
▁pia	-8.99525
▁near	-8.99736
▁ivot	-8.99738
oskonan	-8.99991
▁C	-9.00557
▁sidoq	-9.01001
ihan	-9.01057
▁birds	-9.01093
os	-9.01491
il	-9.01893
▁deer	-9.01962
▁iskaan	-9.02133
ent	-9.02619
sia	-9.02905
▁stand	-9.02935
▁mosquito	-9.03029
▁run	-9.03209
▁coming	-9.03219
▁Miqomicang	-9.03221
▁summer	-9.03221
▁draw	-9.03222
▁city	-9.03236
▁hole	-9.03238
▁oninang	-9.03263
imperatives	-9.03412
▁snakes	-9.03436
▁won	-9.0349
▁maibabo	-9.0378
▁vanis	-9.03783
▁Why	-9.03947
▁matas	-9.04047
▁naoba	-9.04154
▁iskan	-9.04292
▁saipok	-9.04322
▁bi	-9.04517
▁Here	-9.04522
▁painsanan	-9.04523
▁write	-9.04541
▁either	-9.04696
▁naam	-9.0485
1	-9.04868
▁song	-9.05014
▁hit	-9.05091
▁kanahtong	-9.0526
▁moo	-9.05371
▁care	-9.05521
ic	-9.05649
▁mapo	-9.0593
▁Talom	-9.0597
nanaz	-9.06054
▁saba	-9.06431
▁zakon	-9.06506
ge	-9.06554
▁hunter	-9.06943
▁Qa	-9.07278
▁maisna	-9.07439
▁Alright	-9.08155
▁morning	-9.08155
▁palihabasan	-9.08155
▁butterflies	-9.08155
▁short	-9.08155
▁Dahu	-9.08155
▁dinner	-9.08156
▁usually	-9.08157
▁Ciang	-9.08163
▁tacini	-9.08169
▁corn	-9.08173
▁cup	-9.08176
▁Masnanava	-9.08178
▁dry	-9.08293
▁carry	-9.08415
▁soil	-9.08574
▁kamo	-9.08599
▁His	-9.08744
▁Malkama	-9.088
▁Sim	-9.08876
▁stop	-9.09255
▁okay	-9.09438
▁tangos	-9.09497
▁happy	-9.09558
▁mavia	-9.0958
io	-9.09903
▁ahil	-9.10284
▁May	-9.10365
▁around	-9.10501
tel	-9.10662
▁ci	-9.1076
▁D	-9.10844
▁call	-9.11
▁nata	-9.11525
▁cis	-9.12055
▁nga	-9.12072
▁harvest	-9.12267
▁vi	-9.12722
▁Si	-9.13121
▁far	-9.13179
ake	-9.13298
▁Vilian	-9.1335
▁knife	-9.1335
▁talikoan	-9.1335
▁understand	-9.13351
▁babovanis	-9.13351
▁macistak	-9.13352
▁sapalan	-9.13359
▁sinsoaz	-9.13359
▁else	-9.13371
▁bag	-9.13389
▁masihal	-9.13401
▁iti	-9.13507
▁ball	-9.13545
iv	-9.13563
▁todipin	-9.13645
▁maszang	-9.13792
▁bite	-9.13953
▁toqasnanaz	-9.13988
▁boy	-9.14089
▁sleep	-9.14198
orts	-9.14776
▁kahozas	-9.14778
ian	-9.14952
▁qani	-9.15418
▁mabananaz	-9.15627
▁pick	-9.15812
aso	-9.15832
▁monca	-9.15875
▁maso	-9.15903
▁du	-9.16228
▁qaningo	-9.16431
▁sai	-9.16456
for	-9.16466
▁bazbaz	-9.16595
▁books	-9.16703
▁li	-9.17165
vi	-9.17204
ngadah	-9.17218
▁window	-9.17287
▁rod	-9.17896
▁dason	-9.17997
▁store	-9.18528
▁wait	-9.1855
qansiap	-9.18814
▁autumn	-9.18831
▁bamboo	-9.18831
▁doctor	-9.18831
▁girl	-9.18831
▁introduce	-9.18831
▁road	-9.18831
▁iniliskinan	-9.18831
▁thief	-9.18831
▁new	-9.18832
▁plane	-9.18832
▁close	-9.18833
▁toilet	-9.18833
▁grandpa	-9.1884
▁pababazbaz	-9.18847
▁makazhav	-9.18847
▁paper	-9.18848
▁somewhere	-9.18857
▁maklang	-9.18859
▁Uninang	-9.18863
▁minaon	-9.1887
▁Inaak	-9.18937
▁ilomaq	-9.18942
▁masmoav	-9.19068
▁isiata	-9.19079
▁malas	-9.1916
▁qodas	-9.19254
▁inside	-9.1927
▁ova	-9.19318
▁ride	-9.19328
>'	-9.19345
▁daingaz	-9.19443
▁malasBonon	-9.19478
▁sha	-9.19491
▁pangkaka	-9.19497
▁Daho	-9.19505
▁masoaz	-9.19829
ms	-9.1994
▁manta	-9.19948
▁masingav	-9.20331
▁pai	-9.20352
▁Taito	-9.20354
▁tolkok	-9.20443
age	-9.21226
oh	-9.22136
▁konon	-9.22216
am	-9.22223
▁onisin	-9.22319
ose	-9.22375
▁kids	-9.22686
te	-9.22821
▁qo	-9.22904
tan	-9.23272
▁net	-9.2338
tas	-9.236
hi	-9.23658
▁bow	-9.23838
rry	-9.24388
ould	-9.24583
▁sick	-9.24608
▁papia	-9.24615
▁haqail	-9.24627
▁Taiwan	-9.24629
grandfather	-9.24629
▁Be	-9.24629
▁Because	-9.24629
▁bullied	-9.24629
▁immediately	-9.24629
▁quickly	-9.24629
▁honey	-9.2463
▁bahosaz	-9.24631
▁found	-9.24632
▁tohasnanaz	-9.24632
▁four	-9.24633
▁Nito	-9.24686
▁feed	-9.24691
▁thought	-9.24692
▁Mako	-9.24712
▁bad	-9.24813
▁pound	-9.24944
▁th	-9.24987
▁miss	-9.24992
▁makoang	-9.24992
ny	-9.25222
▁tingting	-9.25333
▁chat	-9.2535
▁qaising	-9.2537
▁thing	-9.25373
▁than	-9.25468
▁hands	-9.25506
▁eggs	-9.25561
▁Ad	-9.2562
▁coii	-9.25852
▁tokoc	-9.25945
ito	-9.26189
▁pasnanavaan	-9.26263
▁idadaza	-9.26732
▁bos	-9.26766
▁seed	-9.26788
kon	-9.26853
▁pit	-9.26853
▁sw	-9.26856
▁masi	-9.26988
▁watch	-9.27193
▁paka	-9.27606
▁pat	-9.27698
ut	-9.28647
▁maci	-9.28852
▁br	-9.28993
▁sao	-9.29093
▁hanop	-9.29184
▁weight	-9.29231
▁wonder	-9.29427
▁binanao	-9.30183
▁Tina	-9.30292
zang	-9.30313
most	-9.30367
rough	-9.30401
hanian	-9.30404
ti	-9.30624
▁own	-9.3071
▁masinaoba	-9.30712
▁beautiful	-9.30784
▁cloud	-9.30784
▁grocer	-9.30784
▁taught	-9.30784
▁stopped	-9.30785
▁millet	-9.30785
▁dragonflies	-9.30785
▁climb	-9.30786
▁Masihal	-9.30786
▁fall	-9.30788
▁salvi	-9.30792
ip	-9.30792
▁invite	-9.30793
▁kiokai	-9.30797
▁zoo	-9.30803
▁vano	-9.30808
▁true	-9.30815
▁mamangan	-9.30827
▁pahasia	-9.30837
▁warm	-9.30858
▁pig	-9.30897
▁coat	-9.30909
▁macingav	-9.30913
▁trib	-9.30917
▁malodah	-9.31243
▁rainy	-9.31265
▁working	-9.31344
▁icia	-9.31357
nasto	-9.31611
▁sees	-9.31623
▁red	-9.31694
▁kill	-9.31816
ation	-9.32282
▁earl	-9.32289
▁qodanan	-9.32406
▁fire	-9.32496
▁dihanin	-9.32502
lent	-9.33504
▁maiza	-9.33701
▁kai	-9.34436
▁hood	-9.34452
▁nao	-9.34567
anakan	-9.34758
0	-9.34952
▁parents	-9.35286
▁K	-9.35356
▁Iha	-9.35617
▁aipi	-9.35723
▁set	-9.35881
▁ina	-9.35942
olan	-9.36047
▁hour	-9.36069
dason	-9.36091
▁asaon	-9.36268
▁dai	-9.36466
▁pas	-9.36625
▁Cima	-9.36716
▁de	-9.36759
toza	-9.3685
▁kat	-9.36998
▁bark	-9.37058
onting	-9.37295
▁moqna	-9.37299
▁Kavi	-9.37328
▁MRT	-9.37344
▁hospital	-9.37344
▁legend	-9.37344
▁pineapple	-9.37344
▁competition	-9.37344
▁expensive	-9.37344
▁roof	-9.37344
▁bunch	-9.37345
▁forget	-9.37346
▁market	-9.37346
▁steam	-9.37353
▁member	-9.37354
▁mosohis	-9.37354
▁kikilim	-9.37362
▁mikoa	-9.37378
▁forward	-9.37391
▁minpongol	-9.37397
▁green	-9.37397
▁mapataz	-9.3741
▁manahip	-9.37415
▁taller	-9.37443
▁lovlov	-9.37456
▁married	-9.37507
▁Kava	-9.37527
▁Bai	-9.37591
▁unt	-9.37612
lass	-9.37778
vahlas	-9.37869
▁thinks	-9.37899
▁tin	-9.37921
▁sold	-9.3799
▁front	-9.38136
▁Manias	-9.38137
▁Mavia	-9.38139
▁ngabol	-9.3814
▁maipati	-9.3815
▁car	-9.38198
▁miqomicang	-9.38266
▁mamantok	-9.38312
▁called	-9.38468
ca	-9.3865
▁singing	-9.38948
▁Gre	-9.39004
ansom	-9.39007
▁sh	-9.39212
▁lo	-9.39981
ling	-9.40126
top	-9.40429
daing	-9.40452
v	-9.41202
▁names	-9.41611
▁say	-9.41754
sh	-9.41773
▁mat	-9.41842
here	-9.42726
▁taki	-9.4296
▁classmate	-9.43157
▁Ye	-9.43167
▁move	-9.43289
haizang	-9.43352
▁asks	-9.43519
▁hahanop	-9.43601
▁nut	-9.43606
▁songhahaol	-9.43649
▁taini	-9.43767
▁vahlas	-9.43804
▁steal	-9.44242
▁burn	-9.44301
▁both	-9.44301
▁under	-9.44341
▁daughter	-9.44363
▁hundred	-9.44363
lthough	-9.44363
▁Taipei	-9.44363
▁dirty	-9.44363
▁enough	-9.44363
▁holiday	-9.44363
▁hometown	-9.44363
▁lunchbox	-9.44363
▁rabbit	-9.44363
▁rock	-9.44363
▁twenty	-9.44363
▁Panpongol	-9.44363
▁warehouse	-9.44364
▁Balan	-9.44365
▁Taihoko	-9.44366
▁dalah	-9.44368
▁Hanaivaz	-9.44368
▁ovavaz	-9.44368
▁peaches	-9.44369
▁lift	-9.44372
▁malbonto	-9.44375
▁Umas	-9.44377
▁ground	-9.44384
▁mohalhal	-9.44385
▁pull	-9.44387
▁matter	-9.44398
ness	-9.44403
▁mati	-9.44419
▁N	-9.44438
▁kopo	-9.44442
▁baso	-9.44449
▁taisis	-9.44452
▁total	-9.44453
▁arrived	-9.44457
▁madahpa	-9.44458
▁angry	-9.44461
▁finish	-9.44466
▁office	-9.44478
nata	-9.44481
bit	-9.44491
▁kongadah	-9.44494
ers	-9.44552
▁osadoan	-9.44616
▁mapasadoo	-9.44647
▁masaiv	-9.44801
asa	-9.44977
▁boan	-9.4499
▁To	-9.4509
▁sidi	-9.45111
▁odoli	-9.45172
▁mapahainan	-9.45214
▁students	-9.45414
▁malkama	-9.45511
▁lovlovan	-9.45953
▁pasado	-9.45994
▁mind	-9.46016
side	-9.46144
avail	-9.46247
▁paintataiv	-9.46316
▁qalop	-9.46335
▁laopang	-9.46341
▁Iso	-9.4635
▁f	-9.46523
▁kaoman	-9.46583
▁chickens	-9.46586
▁male	-9.46622
▁Ta	-9.46764
▁isnavan	-9.47017
▁friends	-9.4713
▁ear	-9.47174
▁el	-9.47175
▁tingmot	-9.47504
▁bananaz	-9.47799
▁sapoz	-9.48041
saba	-9.48207
▁mina	-9.48249
▁ba	-9.48753
▁toki	-9.48771
▁iha	-9.48772
▁mita	-9.49058
▁tongqovali	-9.49064
ily	-9.49789
round	-9.4988
▁egg	-9.50702
us	-9.50717
▁miqomic	-9.50873
deng	-9.51123
▁sinimol	-9.51272
▁Pa	-9.51382
▁Qodanan	-9.51492
▁drop	-9.51719
▁meet	-9.51724
▁Mas	-9.51798
▁Ho	-9.51851
▁baloko	-9.51913
▁kitchen	-9.51913
▁winter	-9.51914
▁shoot	-9.51914
▁birthday	-9.51916
▁sinhanat	-9.51917
▁block	-9.51926
▁grandma	-9.51931
▁police	-9.51931
▁macisbai	-9.51936
▁taboo	-9.51939
▁Bato	-9.51943
bye	-9.51944
▁Siza	-9.51945
▁classroom	-9.51947
▁goodbye	-9.51951
inhamo	-9.5198
otok	-9.52002
▁mi	-9.52007
▁laak	-9.52038
▁story	-9.52045
▁maaq	-9.52089
▁mataz	-9.52181
▁Sima	-9.52209
▁sleeping	-9.52332
▁vao	-9.52395
▁Was	-9.524
▁olos	-9.52593
▁minutes	-9.52757
▁imo	-9.52767
▁pasnanavan	-9.52802
▁todiip	-9.52821
▁otovai	-9.52833
▁hodaspingaz	-9.52834
try	-9.5298
▁maq	-9.5301
▁paito	-9.53274
▁kava	-9.53653
▁aminon	-9.53703
▁Lan	-9.53793
▁$20	-9.5389
ci	-9.53914
▁knows	-9.53945
ami	-9.53966
▁eating	-9.54021
▁babo	-9.54047
▁10	-9.54258
▁kodiip	-9.54357
rate	-9.5461
▁mis	-9.54858
ally	-9.54895
▁works	-9.54912
▁qoo	-9.54999
acang	-9.55014
▁fruits	-9.55101
patas	-9.55155
▁nano	-9.5518
▁dailaz	-9.55301
oang	-9.55433
▁touch	-9.55778
▁plant	-9.55904
▁bai	-9.56321
asang	-9.5638
▁days	-9.5646
▁light	-9.56505
▁l	-9.56653
long	-9.56838
▁gre	-9.57144
▁tu	-9.57262
▁nanaz	-9.57268
▁ngol	-9.57687
▁hand	-9.57895
▁Han	-9.58022
▁kaa	-9.58056
oa	-9.58488
▁pon	-9.58569
▁guy	-9.58825
▁taho	-9.58847
▁student	-9.58865
hose	-9.58873
▁hornet	-9.58874
daza	-9.58877
qo	-9.59088
ampok	-9.59271
igh	-9.59472
azing	-9.59488
hodas	-9.59488
▁cinhoza	-9.5962
,"	-9.59792
▁Isia	-9.59803
▁mapasado	-9.59833
▁swell	-9.59853
z	-9.59886
▁cheap	-9.60025
ica	-9.60063
▁elephant	-9.6008
▁Bazai	-9.6008
▁apologize	-9.6008
▁further	-9.6008
▁ishahaishais	-9.6008
▁pepper	-9.6008
▁sincoaz	-9.6008
▁village	-9.6008
▁dancing	-9.6008
▁tamoong	-9.6008
▁better	-9.6008
rchi	-9.6008
▁axe	-9.6008
▁welcome	-9.6008
▁zikang	-9.60081
▁week	-9.60081
▁box	-9.60081
▁mapakaon	-9.60082
▁video	-9.60082
▁timoqos	-9.60083
▁Sinsi	-9.60083
▁20	-9.60084
▁tastolomah	-9.60084
▁Abis	-9.60085
▁blue	-9.60085
▁stories	-9.60089
▁Sipal	-9.60089
▁cookies	-9.60092
▁floor	-9.60096
▁Tondaza	-9.60108
▁fern	-9.6011
▁dance	-9.60111
▁white	-9.60112
▁bike	-9.60131
▁Island	-9.60149
▁weaving	-9.60151
king	-9.60159
njoy	-9.6017
▁mihomisang	-9.60179
▁makois	-9.60192
▁grain	-9.60207
▁passed	-9.60228
▁maldaok	-9.60253
▁tonha	-9.60255
▁cici	-9.60279
▁ocia	-9.60295
▁hope	-9.60312
▁ikma	-9.60318
▁sir	-9.60321
▁stars	-9.60377
▁animals	-9.60472
▁hug	-9.60639
▁dalaq	-9.6075
▁iskosia	-9.60767
▁tanghaio	-9.60861
▁antalam	-9.60886
▁sanganin	-9.60967
▁un	-9.61004
▁bantas	-9.61089
baliv	-9.6112
▁haimangsot	-9.6112
▁salt	-9.61242
▁mahima	-9.61336
dol	-9.61345
▁Sha	-9.61541
ze	-9.61585
▁kosbabai	-9.61593
song	-9.61662
▁bahlo	-9.6171
een	-9.61749
▁isnava	-9.61789
▁Maca	-9.61944
▁monlodon	-9.62042
▁mapadangi	-9.62417
▁lak	-9.62566
ced	-9.63023
ybe	-9.63074
▁kato	-9.63135
sapoz	-9.63167
▁va	-9.63201
▁cona	-9.63376
out	-9.63483
▁Tas	-9.63623
▁Ping	-9.63914
▁ingadah	-9.64015
▁Sado	-9.64021
di	-9.64209
▁baskets	-9.6441
▁qabas	-9.64578
▁piaq	-9.64948
▁tired	-9.65126
ept	-9.65221
▁erasers	-9.65278
dailaz	-9.6535
pu	-9.65637
ba	-9.65655
▁icaq	-9.65977
qa	-9.6611
▁hong	-9.66324
kao	-9.66485
ap	-9.66505
▁ten	-9.66589
▁ita	-9.66726
ave	-9.66734
adas	-9.6679
cin	-9.66852
▁room	-9.6695
▁tanam	-9.67074
op	-9.67468
▁vegetable	-9.67772
▁Mon	-9.67924
ding	-9.68035
day	-9.68125
fore	-9.68199
aqoaq	-9.68204
▁panpongol	-9.68249
▁via	-9.68377
ndigenous	-9.68399
▁pluck	-9.68692
▁mohna	-9.68853
▁Pasimol	-9.68941
lower	-9.68962
▁Grandpa	-9.68973
▁Penghu	-9.68973
▁afraid	-9.68973
▁female	-9.68973
▁husband	-9.68973
▁mocingkol	-9.68973
▁pancinaon	-9.68973
▁patcilasan	-9.68973
▁refrigerator	-9.68973
▁shocked	-9.68973
▁tonghabin	-9.68973
▁vingkio	-9.68973
▁weekend	-9.68973
▁Miqomisang	-9.68973
▁jump	-9.68973
▁ancestors	-9.68973
▁oranges	-9.68973
▁tohaspingaz	-9.68973
▁listen	-9.68974
▁tanangaos	-9.68974
▁handsome	-9.68974
▁color	-9.68975
mosqot	-9.68975
▁gun	-9.68975
▁knee	-9.68976
▁bonglai	-9.68976
collective	-9.68977
ridge	-9.68977
▁sinkozakoza	-9.68978
▁bitten	-9.68983
▁mainok	-9.68988
▁daliv	-9.68991
▁sintopa	-9.68997
▁mapasimol	-9.69
▁owl	-9.69
▁cisdadaan	-9.69024
▁mosaso	-9.69042
▁thirty	-9.69043
▁sickle	-9.69044
▁those	-9.69046
▁ilomah	-9.69061
▁Tongan	-9.69091
▁die	-9.69093
▁soon	-9.69112
▁masinap	-9.69118
▁Mantan	-9.6912
▁sweeping	-9.69125
▁manaoaz	-9.69127
▁mapising	-9.69139
▁Ival	-9.69145
▁Alang	-9.69151
▁minnadii	-9.69167
yard	-9.69213
▁clothing	-9.69231
▁meeting	-9.69311
▁naoto	-9.6932
▁skin	-9.69328
▁harvested	-9.69409
anan	-9.69437
▁mango	-9.69481
▁shin	-9.69678
izaon	-9.69687
▁qaitmal	-9.70002
▁Taichung	-9.70069
▁looked	-9.70242
▁pasadoo	-9.70262
▁cooking	-9.70273
▁islonghoan	-9.70705
▁mapi	-9.70868
vali	-9.70915
▁kalat	-9.71182
ery	-9.71548
▁tamahodas	-9.71605
▁panto	-9.71698
▁chop	-9.7206
▁qanian	-9.72063
mas	-9.72069
00	-9.72177
▁isbaliv	-9.72204
▁noon	-9.72274
▁qana	-9.72427
▁Pi	-9.72434
ovazan	-9.72502
▁imoo	-9.72662
sian	-9.72736
Bonon	-9.72791
▁vaivi	-9.7295
▁pay	-9.72966
▁As	-9.73117
▁moaz	-9.73263
ud	-9.73312
ngalan	-9.73318
im	-9.7343
po	-9.73545
dii	-9.73779
▁minton	-9.74243
ous	-9.74544
isa	-9.74557
▁ispa	-9.74671
▁comp	-9.74746
?"	-9.7496
pasnanava	-9.74965
▁fl	-9.74984
ngan	-9.75019
30	-9.75046
5	-9.7512
half	-9.75139
bul	-9.75317
▁Savi	-9.75417
The	-9.75438
dle	-9.75588
either	-9.75655
babalivan	-9.75689
▁paan	-9.75774
ao	-9.76136
▁spo	-9.76353
han	-9.76444
▁mohn	-9.76491
▁oskonan	-9.76534
▁lana	-9.76626
▁bed	-9.76653
▁trees	-9.76729
self	-9.7704
tle	-9.77548
▁nasto	-9.77675
▁gen	-9.77693
▁islongho	-9.77713
land	-9.77757
▁isnavaan	-9.7795
▁saa	-9.78143
▁yell	-9.78248
▁And	-9.78332
anoho	-9.78362
▁cloth	-9.78404
haol	-9.7843
ity	-9.78477
▁zakoan	-9.78524
▁aboriginal	-9.78609
▁grand	-9.78698
▁twi	-9.78708
▁identi	-9.78732
▁Biong	-9.78735
▁Biung	-9.78735
▁Bukun	-9.78735
▁Uncle	-9.78735
▁customers	-9.78735
▁discount	-9.78735
▁jacket	-9.78735
▁kangavas	-9.78735
▁pomelos	-9.78735
▁separate	-9.78735
▁stomach	-9.78735
▁tindangkol	-9.78735
▁Lomav	-9.78735
▁whether	-9.78735
▁attract	-9.78735
▁petasan	-9.78736
▁mouth	-9.7874
▁must	-9.78741
▁masabaq	-9.78742
▁Tataqo	-9.78742
▁bright	-9.78743
▁high	-9.78744
▁namodan	-9.78749
▁peel	-9.7875
▁sinaipok	-9.7875
▁katavin	-9.78753
▁price	-9.78754
▁louder	-9.78757
▁ranch	-9.78758
▁matatapol	-9.7876
▁chili	-9.78761
▁qodasnanaz	-9.78765
▁tilac	-9.78769
▁bosol	-9.78784
inpongol	-9.78787
▁iniqomican	-9.78788
▁mataqdong	-9.78807
▁iskozakoza	-9.78818
▁tampo	-9.78821
▁Macial	-9.78822
▁hilav	-9.78832
▁malmanano	-9.78872
oszangan	-9.78882
▁pour	-9.78897
las	-9.78898
▁masoqis	-9.78907
▁purp	-9.78909
▁ongat	-9.78926
▁modan	-9.78995
rank	-9.79014
▁myself	-9.79025
▁bra	-9.79096
▁tokii	-9.79134
▁missing	-9.7923
▁waiting	-9.79255
▁Mina	-9.79385
▁samo	-9.79396
wheat	-9.79403
kin	-9.79476
▁hides	-9.79484
▁oil	-9.79527
▁pl	-9.79794
▁kaol	-9.79795
ver	-9.79853
▁possible	-9.79945
▁qaimangsot	-9.79948
▁haqil	-9.79965
▁pangka	-9.80001
allow	-9.80006
▁laqbingin	-9.80043
osovaz	-9.8007
▁dingalan	-9.80081
▁qodasn	-9.80219
missed	-9.80379
▁tamako	-9.80415
led	-9.80606
pot	-9.80614
bo	-9.80632
▁maka	-9.80681
bra	-9.80835
ead	-9.8096
oman	-9.81103
▁Nama	-9.8127
▁ima	-9.81319
▁laihlaih	-9.81543
▁mahanat	-9.81573
mm	-9.81957
▁pain	-9.81975
sen	-9.82283
▁bul	-9.8239
▁packs	-9.82407
▁weave	-9.82424
hav	-9.82516
▁comes	-9.82697
oskon	-9.82915
▁arrow	-9.82994
▁isai	-9.83187
▁Maq	-9.83406
ance	-9.83467
anpok	-9.83489
▁Tan	-9.83627
▁wa	-9.83656
de	-9.83674
bos	-9.83797
▁sore	-9.83857
▁sizaon	-9.84015
sopah	-9.84402
▁chas	-9.84699
▁Tahail	-9.84815
▁nest	-9.84822
▁tikis	-9.84915
kosia	-9.85074
▁age	-9.85438
ts	-9.85565
▁kit	-9.85816
▁past	-9.85825
way	-9.85878
ric	-9.86068
▁mak	-9.86135
▁pra	-9.86136
isin	-9.86524
▁Mal	-9.86545
sanglav	-9.86979
haiap	-9.87041
ki	-9.87196
2	-9.8721
up	-9.87333
50	-9.87381
gree	-9.87512
kosbabai	-9.87557
stick	-9.87618
What	-9.8767
Incomin	-9.87684
house	-9.8769
▁Maqa	-9.87863
▁frogs	-9.87878
qol	-9.87919
▁dro	-9.8799
ning	-9.8806
▁sound	-9.88278
▁bee	-9.8829
▁minute	-9.88337
▁field	-9.88348
▁las	-9.88498
▁rid	-9.88568
sanglavan	-9.88679
▁antala	-9.88795
▁Papi	-9.89025
coko	-9.89074
▁mala	-9.89297
▁war	-9.89318
haip	-9.89364
ac	-9.89395
▁vanglaz	-9.89497
▁langqa	-9.89499
omorrow	-9.89506
▁Some	-9.89513
ckets	-9.89554
▁Hakka	-9.89554
▁Husung	-9.89554
▁Lumav	-9.89554
▁Rail	-9.89554
▁Sunday	-9.89554
▁Takisilazan	-9.89554
▁Tangavolan	-9.89554
▁across	-9.89554
▁backpack	-9.89554
▁baqosaz	-9.89554
▁breakfast	-9.89554
▁cabbage	-9.89554
▁carrot	-9.89554
▁caught	-9.89554
▁croquet	-9.89554
▁knew	-9.89554
▁kokotdaqon	-9.89554
▁occasion	-9.89554
▁straight	-9.89554
▁throat	-9.89554
▁watermelon	-9.89554
▁Kimat	-9.89554
▁observe	-9.89554
▁prepare	-9.89554
▁barn	-9.89554
▁bintoqan	-9.89554
▁chair	-9.89554
▁neck	-9.89554
▁2022	-9.89554
▁saviki	-9.89554
▁tamacina	-9.89554
▁Lokos	-9.89555
▁small	-9.89555
▁voice	-9.89555
fini	-9.89555
▁vaivivaivi	-9.89556
▁rinse	-9.89557
▁inaicia	-9.89557
▁bongka	-9.89557
▁matapol	-9.89558
▁Bokon	-9.89561
▁kamasia	-9.89563
Nantou	-9.89564
▁bump	-9.89564
▁few	-9.89564
▁sakot	-9.89569
▁teeth	-9.89569
▁bedroom	-9.89569
▁Makazhav	-9.89569
▁plain	-9.89569
▁tatnolan	-9.89574
▁toward	-9.89575
▁modadaan	-9.89578
▁Puni	-9.89585
▁boat	-9.89585
▁Iskaan	-9.89586
▁maqlis	-9.89587
▁hook	-9.89588
▁Madavos	-9.89591
▁hanvang	-9.89592
▁ago	-9.89595
rget	-9.89596
▁fat	-9.89605
▁tilas	-9.89611
▁dish	-9.89613
▁dadosa	-9.89617
▁tac	-9.89622
▁cheaper	-9.89631
▁broom	-9.8964
▁pantry	-9.89646
tivi	-9.89649
▁arm	-9.89664
▁inkadoan	-9.89668
▁pic	-9.89676
▁masinav	-9.89677
▁Kako	-9.89695
tely	-9.89709
▁blowing	-9.8971
▁ansahan	-9.8972
▁since	-9.89727
▁eighty	-9.89734
▁kazima	-9.89743
▁month	-9.89745
▁mailan	-9.89753
▁dan	-9.89764
▁ran	-9.89767
zz	-9.89792
uck	-9.89827
▁oong	-9.89855
▁gone	-9.89872
▁taking	-9.89982
▁modanin	-9.90003
▁qodan	-9.90003
▁macinso	-9.90063
▁nor	-9.90113
▁longer	-9.90122
▁kan	-9.90135
▁wish	-9.90184
ive	-9.90188
▁haipi	-9.90238
▁koco	-9.90284
dado	-9.90296
▁dropp	-9.90306
▁haling	-9.90321
ingki	-9.90332
▁Poni	-9.90335
gain	-9.90349
▁rained	-9.90353
▁minaonin	-9.90407
▁Naminha	-9.90514
▁Uoto	-9.90535
▁wood	-9.90649
▁silas	-9.90779
▁manaq	-9.90783
▁goat	-9.90804
▁niap	-9.90849
▁lohom	-9.90899
▁maltatala	-9.90901
▁lie	-9.90955
▁siniza	-9.90966
▁Ica	-9.9097
it	-9.91003
▁matoa	-9.91012
▁hodan	-9.91022
▁killed	-9.91057
▁mazako	-9.91095
▁vaha	-9.91153
▁milo	-9.91182
▁isnanavan	-9.91278
▁otan	-9.91286
▁bokzavan	-9.91311
yams	-9.91387
▁pant	-9.91498
▁cat	-9.91527
▁kodip	-9.91687
▁meal	-9.91793
▁Li	-9.91888
path	-9.91931
ice	-9.9201
▁kisia	-9.92145
▁smoke	-9.92168
▁Papia	-9.92245
si	-9.92371
▁tatavi	-9.92599
▁sang	-9.92679
irr	-9.92691
▁tikic	-9.92738
azima	-9.9274
▁mindangkaz	-9.92745
▁dolaz	-9.92818
▁cultures	-9.92955
S	-9.93089
▁enter	-9.93148
inam	-9.93305
fic	-9.93515
xi	-9.93653
uilt	-9.93673
▁30	-9.93831
▁hair	-9.93852
▁loo	-9.93871
▁includ	-9.93972
▁elders	-9.94124
▁Al	-9.94175
▁totoza	-9.94255
▁swims	-9.94416
nasia	-9.94452
▁da	-9.94502
▁At	-9.94677
no	-9.94686
▁sinta	-9.9476
fully	-9.94829
▁Mais	-9.94885
plants	-9.95105
▁Sh	-9.95126
▁qato	-9.95199
ier	-9.95652
▁pahos	-9.95973
moav	-9.96039
qais	-9.96134
use	-9.9622
▁ho	-9.96286
▁continue	-9.96348
be	-9.96349
▁maqi	-9.96469
▁malavi	-9.96479
▁six	-9.96488
▁macak	-9.96851
ali	-9.96855
hatba	-9.96989
ress	-9.97273
▁bo	-9.97286
▁niang	-9.97372
▁maipata	-9.97407
▁qaal	-9.97469
ood	-9.97514
aho	-9.97559
bu	-9.97894
▁tonlehle	-9.97982
▁dis	-9.9807
where	-9.98268
▁mananolo	-9.98274
▁bean	-9.98714
▁mata	-9.99019
uddenly	-9.9902
sure	-9.99126
▁Wh	-9.9924
ot	-9.99482
ft	-9.9969
ame	-9.99864
mantok	-10.0004
red	-10.0022
▁ex	-10.0029
▁hurt	-10.0044
▁paha	-10.0054
▁mihomis	-10.007
pok	-10.0071
cak	-10.0095
maopacia	-10.01
kas	-10.0124
hima	-10.0131
▁pr	-10.0136
▁sinpit	-10.0137
habas	-10.0144
▁saita	-10.0147
▁saiki	-10.0155
ball	-10.0161
▁careful	-10.0166
umber	-10.0166
▁sinma	-10.0167
8	-10.0168
▁lehleh	-10.0168
▁Hima	-10.0169
▁Lukus	-10.0169
▁alcohol	-10.0169
▁believe	-10.0169
▁community	-10.0169
▁differen	-10.0169
▁discuss	-10.0169
▁garden	-10.0169
▁kahohozas	-10.0169
▁problem	-10.0169
▁reconciliation	-10.0169
▁squirrel	-10.0169
▁thunder	-10.0169
▁weapons	-10.0169
▁photograph	-10.0169
▁qemangsot	-10.0169
▁question	-10.0169
zongzong	-10.0169
▁direct	-10.0169
▁eagle	-10.0169
▁sugar	-10.0169
▁vomit	-10.0169
inliskin	-10.0169
▁sleeve	-10.0169
▁Kulu	-10.0169
▁country	-10.0169
▁kavila	-10.0169
▁taro	-10.0169
stair	-10.0169
▁middle	-10.0169
▁cards	-10.0169
▁malhaqo	-10.0169
▁fresh	-10.0169
▁otobai	-10.0169
▁madaidaz	-10.0169
▁Toza	-10.0169
▁tontanpo	-10.017
▁rainbow	-10.017
▁rake	-10.017
▁pismali	-10.017
▁maitolkok	-10.017
▁course	-10.017
konbo	-10.017
▁maskalon	-10.0171
laz	-10.0171
▁Pinsoma	-10.0171
▁supp	-10.0171
▁daqdaqanin	-10.0171
twee	-10.0171
▁halop	-10.0172
▁show	-10.0172
▁macindon	-10.0172
▁Laong	-10.0173
▁mapaloh	-10.0173
▁sitting	-10.0173
▁carefully	-10.0174
pahood	-10.0174
qanvang	-10.0174
▁Sipongol	-10.0175
▁tatlomaq	-10.0175
▁moment	-10.0175
▁twist	-10.0176
lac	-10.0176
▁moampok	-10.0177
prin	-10.0178
▁mikoi	-10.0178
▁kodi	-10.0179
▁binano	-10.018
makoa	-10.018
▁hill	-10.0181
▁kipo	-10.0181
▁Cis	-10.0182
▁maisnasia	-10.0183
▁namabaliv	-10.0183
▁mark	-10.0184
▁papandoan	-10.0184
▁throw	-10.0185
▁itchy	-10.0185
▁Monhaan	-10.0187
▁Apin	-10.019
itali	-10.019
▁isbabaliv	-10.0194
ible	-10.0195
▁lost	-10.0197
▁masohis	-10.0197
▁Abus	-10.0197
▁stolen	-10.0198
▁mistaken	-10.0198
easure	-10.0199
▁hodanan	-10.0203
▁damo	-10.0206
pinsoma	-10.0207
hapavon	-10.0207
▁plucking	-10.0208
▁ismot	-10.0209
▁kokozaon	-10.0209
▁broken	-10.021
▁Asang	-10.0211
▁hang	-10.0212
▁sila	-10.0213
came	-10.0215
▁ripen	-10.0221
▁mosquitoes	-10.0226
▁madavosan	-10.0233
▁toqasna	-10.0238
me	-10.0241
scree	-10.0248
▁horses	-10.0261
lang	-10.0261
tasa	-10.0266
iston	-10.027
aki	-10.0278
▁laihlih	-10.0288
▁walking	-10.029
naqtong	-10.0291
▁most	-10.0294
▁Cimaq	-10.0294
▁ikamin	-10.0302
▁matoto	-10.031
▁snail	-10.0317
▁idii	-10.0318
▁palihansiap	-10.0319
▁aunt	-10.0322
▁qazam	-10.0322
▁kacaw	-10.0323
▁qaqanop	-10.0324
▁mahiav	-10.0325
▁part	-10.0327
▁sibotbot	-10.0328
▁Ibo	-10.0339
▁talmadia	-10.0346
▁vanaqan	-10.0347
za	-10.035
▁shouldn	-10.0359
▁sinapon	-10.036
▁Aopa	-10.0368
▁sour	-10.0368
▁Abos	-10.0369
qe	-10.0369
qanglas	-10.0374
kai	-10.0387
▁taao	-10.0403
▁savil	-10.0456
▁baino	-10.0457
qanin	-10.0463
▁ever	-10.0472
▁organ	-10.0477
▁Ali	-10.0477
▁issia	-10.0488
made	-10.0496
lodon	-10.0519
▁ngi	-10.0526
▁body	-10.0526
▁loqai	-10.0527
▁saincin	-10.0528
▁Mai	-10.0539
▁salin	-10.0545
▁soko	-10.0549
▁bananas	-10.0555
sabah	-10.0566
taqo	-10.057
ix	-10.0576
cal	-10.0587
pit	-10.0596
vang	-10.0608
kong	-10.0611
ping	-10.0614
unt	-10.0665
▁Ba	-10.0686
▁qanciap	-10.0692
ug	-10.0693
▁sharp	-10.0712
▁coop	-10.0723
▁ica	-10.0724
▁kaosian	-10.073
▁palinoto	-10.0731
▁continu	-10.0733
▁step	-10.0733
▁Th	-10.0733
▁woof	-10.0734
▁break	-10.0734
▁may	-10.0752
▁ngaos	-10.0792
oko	-10.0806
▁ami	-10.0844
▁todip	-10.0851
▁nasi	-10.0942
▁able	-10.0945
▁pang	-10.1017
▁kana	-10.1027
▁sisila	-10.1055
▁patas	-10.1079
▁kailat	-10.1082
lavi	-10.1116
▁mov	-10.1136
▁mada	-10.1145
doo	-10.1157
manano	-10.1167
ais	-10.1172
ob	-10.1185
▁malao	-10.1216
zo	-10.1217
zaq	-10.1226
▁q	-10.1237
tong	-10.125
lomaq	-10.1251
nom	-10.126
▁pito	-10.1275
ke	-10.1284
▁olo	-10.1291
kanbantas	-10.131
iza	-10.1343
ouch	-10.1354
▁tail	-10.14
boriginal	-10.1405
killed	-10.1411
▁manano	-10.1417
▁ising	-10.1419
latan	-10.1421
daan	-10.1427
▁dangi	-10.1434
ream	-10.1476
▁flo	-10.1477
▁qabasin	-10.1493
▁broke	-10.1502
boq	-10.1506
▁isnanava	-10.1514
ising	-10.1519
▁tanga	-10.1524
▁follow	-10.1529
▁think	-10.1535
rt	-10.1536
▁laihli	-10.1544
ight	-10.1545
▁Bo	-10.1548
ache	-10.1549
▁Bra	-10.155
▁taodadaniv	-10.155
9	-10.155
depend	-10.155
▁Hokkien	-10.155
▁THSR	-10.155
▁Tanivu	-10.155
▁abroad	-10.155
▁ancaqan	-10.155
▁announce	-10.155
▁centimeters	-10.155
▁correct	-10.155
▁customs	-10.155
▁homework	-10.155
▁hungry	-10.155
▁onzokai	-10.155
▁pheasant	-10.155
▁restaurant	-10.155
▁scythe	-10.155
▁shrimp	-10.155
▁soccer	-10.155
▁swollen	-10.155
▁vacation	-10.155
▁Tanivo	-10.155
▁pahainanan	-10.155
▁Japanese	-10.155
▁heavily	-10.155
▁monkey	-10.155
▁malilia	-10.155
▁complete	-10.155
▁rope	-10.155
▁kisaco	-10.155
▁fine	-10.155
▁fifteen	-10.155
▁tweeting	-10.155
▁hav	-10.155
▁salozo	-10.155
▁drunk	-10.155
▁leaving	-10.155
▁spear	-10.155
▁Atul	-10.155
▁masivit	-10.155
▁linas	-10.155
▁witchc	-10.155
▁neighbor	-10.155
▁bohosaz	-10.155
▁divide	-10.155
▁isqaqesqes	-10.155
▁Laung	-10.155
▁laili	-10.155
▁Look	-10.155
▁iahai	-10.155
▁reach	-10.1551
▁branch	-10.1551
▁sheep	-10.1551
▁order	-10.1551
▁modadaok	-10.1551
▁mot	-10.1551
▁flip	-10.1551
▁shaking	-10.1551
▁apples	-10.1551
▁bloom	-10.1552
▁plow	-10.1552
▁deep	-10.1552
▁rat	-10.1553
▁crop	-10.1553
▁tatini	-10.1553
▁loqi	-10.1553
▁eye	-10.1553
▁Kolo	-10.1553
▁Atol	-10.1553
▁mosoqis	-10.1553
▁lazy	-10.1554
▁everyday	-10.1554
▁However	-10.1554
▁kaononkaonon	-10.1556
▁bath	-10.1556
▁Langoi	-10.1557
▁number	-10.1557
▁change	-10.1557
▁dadangian	-10.1558
▁meaning	-10.1558
▁masobnoh	-10.1558
▁kick	-10.1559
▁Kaot	-10.1559
▁Abang	-10.156
▁scared	-10.156
▁bend	-10.156
▁taldaingin	-10.1561
▁plum	-10.1561
▁Aki	-10.1561
▁bleeding	-10.1561
▁happening	-10.1561
▁mabahis	-10.1563
▁aloskonan	-10.1564
▁minkailas	-10.1565
▁Monhan	-10.1565
▁minadas	-10.1566
▁elderly	-10.1567
▁apology	-10.1568
econ	-10.1568
▁crying	-10.157
▁bread	-10.1575
▁siol	-10.1576
eep	-10.1576
▁sohaison	-10.1576
▁bur	-10.1578
▁seat	-10.1578
ton	-10.1578
▁nibo	-10.1578
▁odamoan	-10.158
alute	-10.1581
▁naiia	-10.1583
ware	-10.1583
▁Kama	-10.1586
dy	-10.1591
▁yelling	-10.1591
▁makocia	-10.1595
▁Oh	-10.1597
▁fre	-10.1598
▁takao	-10.16
▁sow	-10.1601
▁kaan	-10.1601
▁masanglav	-10.1607
▁seven	-10.161
▁blo	-10.1611
▁lid	-10.1613
▁barking	-10.1613
ck	-10.1613
▁Simol	-10.1614
▁Maqo	-10.1633
▁idea	-10.1634
▁sakon	-10.1636
cop	-10.1636
▁standing	-10.1638
bonon	-10.164
liq	-10.1646
▁matin	-10.1649
▁manao	-10.1651
▁atikis	-10.1653
▁sad	-10.166
▁madavos	-10.1667
qoaq	-10.1668
▁start	-10.1679
▁mocoqais	-10.1681
T	-10.1682
▁Kadang	-10.1697
▁lala	-10.1698
▁davoc	-10.1703
ained	-10.1706
▁tomato	-10.1712
▁pingaz	-10.1715
ponahtong	-10.1717
▁sting	-10.1719
▁naipi	-10.172
nuts	-10.1723
▁daqdaq	-10.1724
▁mine	-10.1727
▁taontaon	-10.1727
▁iasoi	-10.1728
▁pinilomah	-10.1729
▁ngolos	-10.1729
▁kanadan	-10.173
▁kahaningo	-10.173
▁loklas	-10.173
▁mastan	-10.1733
naip	-10.1737
▁onion	-10.1742
▁mopa	-10.1743
▁tonda	-10.1748
Bunun	-10.175
▁siva	-10.1752
▁bor	-10.1756
▁ispaka	-10.1772
▁maopata	-10.1773
▁lay	-10.1775
▁mistaba	-10.1792
▁land	-10.1797
▁masomsom	-10.1798
▁siata	-10.1802
of	-10.1815
▁origin	-10.1816
▁kokka	-10.182
tangos	-10.182
maopa	-10.1822
ban	-10.1827
by	-10.184
▁cu	-10.1857
binanaoaz	-10.1874
press	-10.1885
▁kokoza	-10.1888
tonghaz	-10.189
kocia	-10.1928
'/	-10.1928
▁shot	-10.1939
▁pasibotbot	-10.1948
dazon	-10.195
▁mabiskav	-10.1952
qaiban	-10.1958
patopa	-10.1964
▁lotbo	-10.1968
aliva	-10.1971
▁stor	-10.1977
▁avola	-10.1981
▁pot	-10.1986
uc	-10.2002
qos	-10.2038
▁makas	-10.2066
pan	-10.21
▁hod	-10.2101
▁men	-10.2103
▁even	-10.211
▁pieces	-10.2151
cess	-10.2156
rode	-10.2156
moskon	-10.2159
tock	-10.2165
his	-10.2188
▁saicin	-10.2197
▁makazav	-10.2216
▁ice	-10.2217
▁macion	-10.2229
inadas	-10.2251
▁kili	-10.2262
amo	-10.2271
ich	-10.2289
hos	-10.2291
▁Hai	-10.2295
set	-10.2299
▁minsia	-10.2315
ble	-10.233
▁ail	-10.2341
sain	-10.2353
▁Namon	-10.236
et	-10.2383
van	-10.2385
▁pass	-10.2431
pi	-10.245
aiv	-10.2464
▁adason	-10.2478
▁tangqa	-10.248
rary	-10.2504
liv	-10.2515
ainon	-10.2517
▁nett	-10.2548
um	-10.2549
cingav	-10.255
▁ista	-10.257
loq	-10.2599
qei	-10.2604
▁maqato	-10.2636
onko	-10.2656
kinoz	-10.2657
▁Da	-10.2691
▁$2	-10.2727
▁arr	-10.2743
▁Qodas	-10.2783
▁tavi	-10.2808
▁lako	-10.2811
cy	-10.2814
pis	-10.2818
▁G	-10.2824
▁tr	-10.2842
simaq	-10.2849
mali	-10.2859
▁malolo	-10.2897
ical	-10.2928
dangaz	-10.2937
yu	-10.2951
koas	-10.2955
lt	-10.2957
zavan	-10.2963
ada	-10.2979
j	-10.2985
oto	-10.2996
▁naobana	-10.2997
bong	-10.3007
▁answer	-10.3016
anhan	-10.3022
▁remain	-10.3025
vin	-10.3027
▁horse	-10.303
▁hide	-10.3039
▁loki	-10.3051
sok	-10.3076
▁tamohong	-10.308
▁qala	-10.3081
▁sasaipok	-10.3085
▁mavao	-10.3097
sai	-10.3103
pasnava	-10.3115
▁sabah	-10.3121
▁sweep	-10.3125
▁eight	-10.3127
▁jo	-10.3135
▁Bali	-10.314
▁potato	-10.3147
▁Ea	-10.3149
eoples	-10.315
▁birth	-10.3151
apap	-10.3151
▁Hu	-10.3152
▁glut	-10.3152
▁$5	-10.3152
▁Chinese	-10.3152
▁Kalavoong	-10.3152
▁Langui	-10.3152
▁Usung	-10.3152
▁cousins	-10.3152
▁earthquake	-10.3152
▁folk	-10.3152
▁halongsiva	-10.3152
▁maningzav	-10.3152
▁muntjac	-10.3152
▁overflow	-10.3152
▁overturn	-10.3152
▁pretty	-10.3152
▁pulp	-10.3152
▁pumpkin	-10.3152
▁roast	-10.3152
▁taldanav	-10.3152
▁tesmomot	-10.3152
▁various	-10.3152
▁haipani	-10.3152
▁mastatala	-10.3152
▁pencil	-10.3152
▁princip	-10.3152
▁Mihomisang	-10.3152
▁antaban	-10.3152
▁split	-10.3152
▁ansaqan	-10.3152
▁samba	-10.3152
▁blind	-10.3152
▁comb	-10.3152
▁quiet	-10.3152
▁tolmi	-10.3152
▁paloso	-10.3152
▁silolo	-10.3152
▁malodaq	-10.3152
▁Poot	-10.3152
▁appear	-10.3152
▁fence	-10.3152
▁laopakadao	-10.3152
▁Masinav	-10.3152
▁Uningan	-10.3152
emble	-10.3152
▁telephone	-10.3152
▁paitotaongqo	-10.3152
▁sikapot	-10.3152
▁baqlo	-10.3152
▁studied	-10.3152
mishang	-10.3152
▁feet	-10.3152
▁halacan	-10.3152
▁lolonglong	-10.3152
▁Ulai	-10.3152
▁bucket	-10.3152
▁mantatala	-10.3153
▁dark	-10.3153
▁Taicio	-10.3153
▁blood	-10.3153
▁straw	-10.3153
▁cismaz	-10.3153
▁filt	-10.3153
rise	-10.3153
▁Law	-10.3153
▁paliqabasan	-10.3153
▁heavy	-10.3153
▁repair	-10.3153
▁lopako	-10.3153
▁rot	-10.3153
▁tonhapav	-10.3153
80	-10.3153
▁woman	-10.3153
▁Namabaliv	-10.3153
▁histor	-10.3154
▁macoqes	-10.3154
▁bitter	-10.3154
▁macihal	-10.3154
▁reduce	-10.3154
▁tonsila	-10.3154
▁Taioan	-10.3155
▁qacila	-10.3155
▁manamboq	-10.3155
▁photo	-10.3155
gue	-10.3155
▁mintasal	-10.3156
▁earth	-10.3156
▁sikaopa	-10.3156
▁ph	-10.3156
▁pimadai	-10.3157
▁masisipol	-10.3157
▁mahaizo	-10.3157
▁Mataqdong	-10.3157
▁aloaz	-10.3157
▁matmoz	-10.3158
▁Talmadin	-10.3159
▁sinpasnava	-10.3159
kolaz	-10.316
▁aingka	-10.316
▁blessing	-10.3161
atula	-10.3161
▁flower	-10.3161
▁maqlic	-10.3162
poci	-10.3162
▁malaskan	-10.3163
▁ene	-10.3163
▁mabazo	-10.3164
▁scold	-10.3164
▁Re	-10.3165
▁monacang	-10.3166
▁rele	-10.3166
▁urinat	-10.3167
iaan	-10.3168
▁maqaisqais	-10.3168
▁madikla	-10.3169
▁mantala	-10.317
▁qansiapon	-10.317
▁namoqnang	-10.3171
clock	-10.3172
▁nipon	-10.3173
▁auntie	-10.3173
▁lose	-10.3176
atter	-10.3177
lingko	-10.3178
▁sintaqo	-10.318
▁pile	-10.318
▁post	-10.3181
oin	-10.3181
▁andingalan	-10.3181
kaiva	-10.3181
saiv	-10.3184
▁manah	-10.3184
▁soika	-10.3184
man	-10.3185
palhaqo	-10.3186
nglas	-10.3189
▁alone	-10.319
▁Qal	-10.319
▁antlers	-10.319
▁sis	-10.3194
koav	-10.3198
bazang	-10.3198
▁hate	-10.3198
▁mapahood	-10.3198
▁owner	-10.3199
▁mid	-10.32
▁shoes	-10.32
lan	-10.3201
epi	-10.3202
▁Tol	-10.3203
▁sahal	-10.3205
band	-10.3206
▁matinon	-10.3208
ories	-10.321
▁pacid	-10.3211
▁monso	-10.3212
▁qaito	-10.3221
▁bother	-10.3222
▁burning	-10.3222
ngos	-10.3224
▁patan	-10.3229
icy	-10.3236
▁extr	-10.3236
▁madoh	-10.3241
▁makoaq	-10.3243
▁shoulder	-10.3244
lalai	-10.3247
ittle	-10.3253
▁masato	-10.3255
▁Lao	-10.3274
cell	-10.328
aipi	-10.3281
aic	-10.3289
noq	-10.3296
▁heart	-10.3305
▁sinimolan	-10.3309
▁hurts	-10.3322
ata	-10.3322
▁inata	-10.3324
▁kama	-10.3324
dikos	-10.3332
▁balivosan	-10.3358
▁daiza	-10.3358
▁hikoki	-10.3362
▁inpico	-10.3362
▁davaz	-10.3362
anakanak	-10.3362
▁uhm	-10.3363
▁losqa	-10.3363
▁paqosil	-10.3365
▁samang	-10.3366
▁aboriginals	-10.3367
▁lasasing	-10.3367
▁hansiap	-10.3368
hozas	-10.337
▁mapal	-10.3372
▁maqmot	-10.3373
▁macoaz	-10.3375
night	-10.3375
▁maqav	-10.3379
▁linoqos	-10.3379
▁tasban	-10.3381
cion	-10.3398
▁See	-10.3406
cial	-10.3408
stain	-10.3413
▁inter	-10.3415
bi	-10.3422
▁islonghoin	-10.3444
▁sopa	-10.3446
▁cinhozaon	-10.346
▁50	-10.3485
▁asat	-10.3517
avor	-10.352
▁kotonin	-10.3539
▁somsoman	-10.354
bang	-10.3552
aliv	-10.3555
▁tribes	-10.3555
tamasaz	-10.3555
wor	-10.3563
navaan	-10.3573
ary	-10.3579
mapasavai	-10.3582
▁stops	-10.3585
▁daokdaok	-10.359
sadoo	-10.3593
hoo	-10.3595
▁wet	-10.3605
O	-10.3611
nopa	-10.3615
ipa	-10.3619
ngaz	-10.3625
mon	-10.3629
▁dapan	-10.3635
▁labian	-10.3637
▁paitasan	-10.3642
▁ship	-10.3644
▁mohiav	-10.3644
▁hivhiv	-10.3645
ngis	-10.3647
▁kitngab	-10.3648
weight	-10.3649
window	-10.3651
▁minsomain	-10.3651
▁tool	-10.3652
bow	-10.3656
nkinoz	-10.3657
from	-10.3658
child	-10.366
meat	-10.3662
iskaan	-10.3673
▁anatopa	-10.3682
rice	-10.3684
kaz	-10.3687
It	-10.3688
lakoa	-10.3693
parents	-10.3719
leg	-10.3719
▁ngalan	-10.3734
hong	-10.374
▁malis	-10.3743
say	-10.3756
oth	-10.376
pak	-10.3765
▁aizaan	-10.3772
aqanciap	-10.378
tch	-10.3799
▁passi	-10.3801
ten	-10.3809
▁mation	-10.3811
died	-10.3811
pabaliv	-10.3831
obon	-10.3865
▁kadangaz	-10.387
▁Kalavun	-10.3885
M	-10.3886
▁Tho	-10.3887
▁cimaq	-10.389
naskal	-10.3901
▁Takao	-10.3937
▁tangis	-10.3951
▁ciko	-10.3957
▁pando	-10.3969
▁taos	-10.3989
▁halhalo	-10.401
▁regi	-10.402
sala	-10.4021
hto	-10.4031
nii	-10.4033
▁baliv	-10.4041
ted	-10.4048
▁tian	-10.409
▁kil	-10.4107
▁acc	-10.4121
Whe	-10.4125
mi	-10.418
▁shar	-10.419
▁kombo	-10.4207
▁participate	-10.4213
▁san	-10.4215
has	-10.4249
▁lip	-10.4268
kako	-10.4277
eaten	-10.4295
▁pak	-10.4305
nahtong	-10.4308
opping	-10.4312
avan	-10.4317
abo	-10.4346
madoq	-10.436
▁top	-10.4371
icaq	-10.4372
baqis	-10.4382
along	-10.4389
▁squa	-10.4405
qas	-10.4421
▁malo	-10.4433
▁loklac	-10.4436
▁Co	-10.4438
▁taito	-10.4475
▁leg	-10.4477
and	-10.4497
▁Amin	-10.451
kazav	-10.452
▁kitnga	-10.4527
▁hozas	-10.4577
arre	-10.4608
hile	-10.4629
ignit	-10.4643
▁maina	-10.4663
ototo	-10.4666
▁cent	-10.4676
Do	-10.4683
▁Af	-10.4705
ar	-10.4746
ongab	-10.4751
▁non	-10.4756
nahaan	-10.4768
ols	-10.4819
▁mapato	-10.4823
▁acce	-10.484
▁Va	-10.4845
▁kadangazin	-10.4861
▁makan	-10.487
cele	-10.4871
D	-10.4883
▁mistake	-10.4886
dang	-10.4904
pea	-10.4905
▁aizan	-10.4917
▁wrong	-10.4925
▁sometime	-10.494
▁sibling	-10.4942
ati	-10.4958
▁kaha	-10.4971
hal	-10.4974
▁intention	-10.4984
▁qu	-10.4986
▁clea	-10.4998
loskon	-10.4999
cree	-10.5
▁real	-10.5009
▁yar	-10.5012
▁kozkoza	-10.5014
▁stole	-10.5014
▁tanabal	-10.5017
▁Aiza	-10.5021
▁qoqo	-10.5021
▁writ	-10.5024
▁podanon	-10.5025
ized	-10.5025
▁los	-10.5025
▁kavava	-10.5026
tomasqing	-10.5027
dangkaz	-10.503
▁ski	-10.5031
▁shout	-10.5035
ound	-10.5036
▁marri	-10.5037
▁blow	-10.5037
▁Rea	-10.5046
weet	-10.5046
soqis	-10.505
nik	-10.5051
▁fro	-10.5052
▁miqomis	-10.5053
ihomis	-10.5053
babazbaz	-10.5058
oz	-10.5059
▁cima	-10.506
▁horn	-10.5061
▁dragonfl	-10.5061
TVH	-10.5061
▁breast	-10.5061
hanvangtakismoot	-10.5061
▁Buy	-10.5061
▁Kiokai	-10.5061
▁Laihlaih	-10.5061
▁Pankalkalan	-10.5061
▁behind	-10.5061
▁certain	-10.5061
▁cockroach	-10.5061
▁comfort	-10.5061
▁fabric	-10.5061
▁mapaladoaz	-10.5061
▁medicine	-10.5061
▁namintalabal	-10.5061
▁playground	-10.5061
▁puppy	-10.5061
▁qancaipon	-10.5061
▁sinsosoaz	-10.5061
▁sufficient	-10.5061
▁thirsty	-10.5061
clusi	-10.5061
▁balokan	-10.5061
▁leaf	-10.5061
▁montaito	-10.5061
▁talabal	-10.5061
guar	-10.5061
ogra	-10.5061
▁cross	-10.5061
▁entire	-10.5061
▁below	-10.5061
▁qamican	-10.5061
▁paaqpon	-10.5061
▁Talbonto	-10.5061
▁maisinavin	-10.5061
▁maimazima	-10.5061
▁vongka	-10.5061
▁misbosok	-10.5061
▁poison	-10.5061
▁kaodiip	-10.5061
▁roll	-10.5061
▁catties	-10.5061
▁takismomoot	-10.5061
▁trapped	-10.5061
▁kinolot	-10.5061
▁subway	-10.5061
▁mamoqo	-10.5061
▁present	-10.5061
▁bangkal	-10.5062
▁bintohan	-10.5062
▁hodasnanaz	-10.5062
▁slip	-10.5062
▁Vi	-10.5062
▁qaipoan	-10.5062
▁cry	-10.5062
▁laopaka	-10.5062
▁voos	-10.5062
tasali	-10.5062
▁dandan	-10.5062
▁bahat	-10.5062
▁wound	-10.5062
▁hatabang	-10.5062
▁qatibing	-10.5062
▁taodaniv	-10.5062
▁hobong	-10.5062
▁makisaiv	-10.5062
▁kononkonon	-10.5062
▁spouse	-10.5062
▁sasado	-10.5062
▁lalonglong	-10.5062
▁crab	-10.5062
▁pangqa	-10.5062
▁pataliva	-10.5063
▁daqvisan	-10.5063
▁aingkon	-10.5063
▁wipe	-10.5063
▁fight	-10.5063
▁strong	-10.5063
▁polit	-10.5063
▁fast	-10.5063
▁term	-10.5063
▁push	-10.5064
▁baby	-10.5064
▁Tamazo	-10.5064
anism	-10.5064
▁Usong	-10.5064
▁Ai	-10.5064
takzang	-10.5064
▁Dason	-10.5064
▁Vaso	-10.5064
▁emb	-10.5065
▁qapong	-10.5065
▁count	-10.5065
▁kakalang	-10.5065
▁miniqomis	-10.5065
▁enjoy	-10.5066
weat	-10.5066
▁mush	-10.5066
▁colle	-10.5066
▁tamatina	-10.5066
▁buck	-10.5067
▁mapait	-10.5067
▁takihaan	-10.5068
▁che	-10.5068
▁Tonlaihliht	-10.5069
▁seni	-10.5069
▁indica	-10.507
▁macoqais	-10.507
▁matodoldol	-10.507
▁justice	-10.5071
▁pe	-10.5071
▁maisisia	-10.5071
▁latoza	-10.5071
▁loak	-10.5073
▁scra	-10.5074
▁Pimad	-10.5074
▁taimi	-10.5074
▁begin	-10.5074
mah	-10.5074
▁aco	-10.5074
▁boav	-10.5075
▁stumble	-10.5075
▁mapabazbaz	-10.5076
▁happened	-10.5076
▁miqomisang	-10.5076
▁Ina	-10.5076
▁qaloa	-10.5078
▁masonga	-10.5078
▁nib	-10.5079
▁shaken	-10.508
▁candy	-10.508
▁Nataqo	-10.508
▁maopat	-10.508
▁weigh	-10.508
zima	-10.508
▁tur	-10.5081
▁macakbit	-10.5081
▁bear	-10.5082
▁Dosa	-10.5083
▁Baliv	-10.5083
▁nasiza	-10.5083
▁Masial	-10.5084
▁siho	-10.5088
▁suck	-10.5088
▁Maipa	-10.5089
▁Mahto	-10.5089
▁gather	-10.5091
ni	-10.5091
elect	-10.5092
▁shouting	-10.5093
▁Moqnang	-10.5095
▁pidaing	-10.5097
▁pihan	-10.5098
▁cic	-10.5099
▁namaqto	-10.5102
racti	-10.5102
hree	-10.5105
phone	-10.5106
▁Aizan	-10.5106
▁pidi	-10.5109
▁mamanano	-10.5109
▁soqaison	-10.5111
▁Anak	-10.5114
▁paat	-10.5114
inimol	-10.5115
vol	-10.5119
▁kn	-10.5121
▁planted	-10.5127
oqnang	-10.5129
▁laas	-10.513
▁Lako	-10.5136
▁waste	-10.5137
▁Mati	-10.5141
ies	-10.5141
▁laws	-10.5143
▁sasaipokan	-10.5147
sial	-10.5148
▁saying	-10.5153
tures	-10.5155
▁sinapo	-10.5166
pen	-10.5168
▁oma	-10.517
tment	-10.5177
▁coqaison	-10.5177
▁mapin	-10.518
lant	-10.5185
▁Pii	-10.5188
▁tire	-10.5189
▁held	-10.519
▁mabol	-10.5192
pair	-10.5197
▁sometimes	-10.5198
loqos	-10.5204
▁exam	-10.5209
▁Tokao	-10.5209
▁ahead	-10.5211
pat	-10.5212
haolan	-10.5212
▁sur	-10.5218
cis	-10.5227
▁kon	-10.5233
event	-10.5245
eh	-10.5246
▁paton	-10.5251
▁qoa	-10.5251
ne	-10.5253
▁Kilim	-10.5253
▁namaon	-10.5254
▁Manan	-10.5257
▁masamo	-10.5261
▁mosoqais	-10.5264
iled	-10.527
▁fle	-10.5271
▁calo	-10.5277
▁todiipin	-10.5279
ives	-10.5283
▁Macan	-10.5297
<'	-10.53
▁notes	-10.5309
urd	-10.531
kombo	-10.5311
▁monlomaq	-10.5314
▁maqoaq	-10.5316
▁mahol	-10.5316
▁masmoq	-10.5316
▁songqaqaol	-10.5318
▁lingqaol	-10.5319
▁brew	-10.5319
▁mapasiza	-10.532
▁mapishaiap	-10.5321
▁mavala	-10.5321
▁isn	-10.5322
▁madavoc	-10.5324
▁monkako	-10.5325
▁arriv	-10.5327
▁fis	-10.5329
▁totopa	-10.533
▁carrie	-10.5332
▁matahdong	-10.5337
▁w	-10.534
▁motaq	-10.5341
▁kokoav	-10.5349
▁pasaqal	-10.535
sisila	-10.5351
qal	-10.5359
koc	-10.5362
▁malaongkav	-10.5363
ure	-10.5387
▁papa	-10.5388
anki	-10.539
ssor	-10.5396
▁saitan	-10.5405
▁itch	-10.541
zu	-10.5413
▁tohas	-10.5414
▁qaso	-10.5422
▁pasimolan	-10.5428
▁madiav	-10.5455
iav	-10.546
▁dongzav	-10.5471
▁kali	-10.5478
nim	-10.548
▁inst	-10.5481
aopata	-10.5484
ibiskav	-10.5494
▁fe	-10.5501
nga	-10.5504
▁sudden	-10.5512
▁conven	-10.5516
▁makal	-10.5519
iskang	-10.5521
▁maita	-10.5534
▁maposanhan	-10.5534
▁cinis	-10.5542
▁amoo	-10.5542
▁dig	-10.5553
qat	-10.5557
▁salo	-10.5576
▁paav	-10.5584
▁yours	-10.5602
▁mohaz	-10.5604
▁padangi	-10.5604
ngi	-10.5608
▁sea	-10.5608
erc	-10.5616
mita	-10.5619
opin	-10.5621
vaz	-10.5628
▁tipol	-10.5628
▁tosa	-10.5636
▁palontan	-10.5664
bazbaz	-10.5668
▁maqaihav	-10.5669
40	-10.5673
▁loc	-10.5691
ter	-10.5696
▁cave	-10.5702
non	-10.5703
umb	-10.5728
antan	-10.5729
konon	-10.5735
▁ipin	-10.5738
teen	-10.5744
indangaz	-10.5746
▁ciata	-10.5747
adason	-10.5758
▁sida	-10.5759
▁homa	-10.5771
ovaz	-10.5775
▁ju	-10.5778
arr	-10.5779
med	-10.5791
▁An	-10.5795
the	-10.5797
stur	-10.5808
namo	-10.5814
tikis	-10.5824
▁tak	-10.5853
ado	-10.5854
toqas	-10.5856
sday	-10.5859
oc	-10.5874
rse	-10.5874
▁cr	-10.5874
hoe	-10.5876
aiza	-10.5877
piaq	-10.589
mol	-10.5891
head	-10.5899
trary	-10.5917
qabas	-10.5919
▁masqa	-10.5924
ripe	-10.5929
▁pasimolin	-10.5937
iving	-10.594
string	-10.5954
cio	-10.5957
haongon	-10.5958
hangsia	-10.5959
ngqai	-10.5976
Sai	-10.5978
▁bao	-10.5981
sanavanin	-10.5987
▁guys	-10.5998
Tahail	-10.5999
C	-10.6005
cold	-10.6007
light	-10.6008
▁losbot	-10.6013
qaningo	-10.6014
[	-10.6017
bird	-10.6018
madadaingaz	-10.6019
ockon	-10.602
like	-10.6021
pantamaon	-10.6022
▁kailata	-10.6023
Talom	-10.6025
year	-10.6026
qaal	-10.6031
Tama	-10.6033
sidoh	-10.6041
kos	-10.6049
▁koi	-10.6056
bato	-10.6063
even	-10.6066
sidoq	-10.6079
tired	-10.6086
ul	-10.609
strati	-10.6105
▁ninet	-10.6109
ung	-10.6112
▁moc	-10.6118
bee	-10.6121
▁sinka	-10.6126
▁kaka	-10.6136
▁Sinc	-10.6147
asia	-10.616
soi	-10.618
halhal	-10.6183
onha	-10.6186
doing	-10.6214
ngaos	-10.6236
onto	-10.6237
maqto	-10.6247
ry	-10.6251
nest	-10.6269
der	-10.6272
▁tako	-10.6304
▁maqo	-10.6313
dangqas	-10.636
ty	-10.6361
hood	-10.6378
ef	-10.6385
▁onata	-10.6388
▁hangsia	-10.6393
▁haongon	-10.6415
ama	-10.6418
▁ispasimol	-10.6429
ngol	-10.6441
painok	-10.6469
▁mol	-10.6469
▁iska	-10.6485
isaiv	-10.6509
diqanin	-10.6525
alk	-10.6528
urse	-10.6537
nghaio	-10.6555
bongo	-10.6558
▁Uva	-10.6582
▁Isn	-10.6597
sted	-10.6597
▁Mos	-10.6618
nin	-10.6618
singav	-10.6631
▁sinpa	-10.6632
▁maqai	-10.6668
▁Malan	-10.6687
▁noo	-10.6691
dong	-10.6699
▁haizin	-10.6707
bahi	-10.6729
kang	-10.6735
ating	-10.676
▁laqai	-10.6773
▁Maa	-10.6785
soo	-10.6787
gho	-10.6802
▁Maina	-10.6817
das	-10.6829
vice	-10.686
anti	-10.6862
▁woode	-10.6874
▁wor	-10.6874
doh	-10.6876
▁simaq	-10.6881
ee	-10.6888
▁tongna	-10.69
▁Maopa	-10.6912
spina	-10.6929
▁lakoa	-10.6934
▁app	-10.6961
▁malos	-10.6969
▁ones	-10.6976
anvali	-10.6979
kaonan	-10.6986
angik	-10.7011
▁Makoq	-10.7021
llow	-10.7027
▁yam	-10.703
pol	-10.7066
▁oto	-10.7073
▁Un	-10.7082
▁taic	-10.7094
gle	-10.7097
talk	-10.7102
ndle	-10.7104
▁haiia	-10.711
▁makasa	-10.7116
▁sinpata	-10.7121
▁mong	-10.7126
▁hid	-10.7142
▁taldi	-10.7145
mash	-10.7148
rried	-10.7149
▁qi	-10.715
mpo	-10.7152
▁Tali	-10.7154
▁expe	-10.7161
▁kola	-10.7184
kav	-10.7195
ainposav	-10.72
▁Icima	-10.7207
▁gra	-10.7208
▁makila	-10.7211
▁develop	-10.7227
adac	-10.7245
isk	-10.7261
ako	-10.7278
▁aiz	-10.7289
▁snake	-10.7302
dahpa	-10.7303
qil	-10.7304
▁animal	-10.7305
▁bokzav	-10.7328
okan	-10.7329
lalaskan	-10.7332
▁bl	-10.7351
▁spr	-10.7351
qac	-10.7355
mis	-10.7358
▁map	-10.7366
▁tana	-10.7369
▁koci	-10.7372
vaaz	-10.7373
▁talmadi	-10.7375
▁tru	-10.738
▁Api	-10.7386
▁isaq	-10.7387
▁sanvali	-10.7391
azang	-10.7392
▁Unin	-10.7392
▁ontin	-10.7399
▁rip	-10.7409
iqomis	-10.7414
▁aborigin	-10.7415
▁becom	-10.7416
cicia	-10.7417
okhiv	-10.7417
▁erase	-10.7419
ful	-10.7419
▁minsom	-10.7419
▁loud	-10.742
eath	-10.7421
▁Tahai	-10.7421
awn	-10.7422
voqvoq	-10.7422
▁Fr	-10.7422
ihdian	-10.7422
paqpaq	-10.7422
▁Atayal	-10.7422
▁Grandfather	-10.7422
▁Tulbus	-10.7422
▁Utovai	-10.7422
▁balikoan	-10.7422
▁battlefield	-10.7422
▁bocolkahkah	-10.7422
▁charcoal	-10.7422
▁cingcing	-10.7422
▁holbo	-10.7422
▁iliskinon	-10.7422
▁maikikingna	-10.7422
▁masaohzang	-10.7422
▁monKako	-10.7422
▁monpongav	-10.7422
▁moqalqal	-10.7422
▁motingkol	-10.7422
▁nonsense	-10.7422
▁pantataip	-10.7422
▁qalindis	-10.7422
▁qalingdis	-10.7422
▁salinbonoaz	-10.7422
▁salitong	-10.7422
▁stripping	-10.7422
▁talingkokas	-10.7422
▁taohtaohon	-10.7422
▁tosmomot	-10.7422
iskalonan	-10.7422
▁Ponhapav	-10.7422
▁ashaili	-10.7422
▁repeat	-10.7422
▁talmonto	-10.7422
▁tasikavan	-10.7422
▁acipol	-10.7422
▁banhil	-10.7422
▁saiciin	-10.7422
kalapat	-10.7422
▁paqpon	-10.7422
▁hammer	-10.7422
▁Uhm	-10.7422
▁Umav	-10.7422
▁spilt	-10.7422
▁glasses	-10.7422
▁pishaidang	-10.7422
treatment	-10.7422
▁Taoyuan	-10.7422
▁Malqamaq	-10.7422
▁malalabas	-10.7422
▁Iniw	-10.7422
▁daqpoot	-10.7422
▁hinod	-10.7422
▁policies	-10.7422
▁iahloop	-10.7422
▁lodom	-10.7423
▁Mananolo	-10.7423
▁Seho	-10.7423
▁words	-10.7423
▁maibabovanis	-10.7423
▁stuff	-10.7423
▁kazhavqanin	-10.7423
▁boqtong	-10.7423
▁lamongan	-10.7423
▁tosaoc	-10.7423
▁mapaklang	-10.7423
ficient	-10.7423
▁paitacan	-10.7423
▁masmoh	-10.7423
▁Banga	-10.7423
▁sahosbo	-10.7423
▁bocol	-10.7423
▁life	-10.7423
loqoc	-10.7423
▁malong	-10.7423
▁taonasian	-10.7423
▁maciskon	-10.7423
▁beginning	-10.7423
▁mandodoot	-10.7423
▁represent	-10.7423
▁modandan	-10.7423
▁paitosanavan	-10.7423
▁identity	-10.7423
▁malosapoz	-10.7423
▁collect	-10.7423
sisivit	-10.7423
▁Toqao	-10.7423
iscaiv	-10.7423
▁pisqanciap	-10.7423
▁mocoqis	-10.7424
▁hici	-10.7424
▁above	-10.7424
▁mapaska	-10.7424
▁cherry	-10.7424
▁Daniv	-10.7424
▁cinkois	-10.7424
▁kolali	-10.7424
▁koskon	-10.7424
▁macaoqais	-10.7424
▁grab	-10.7424
rig	-10.7424
ilazan	-10.7424
▁deqanin	-10.7424
▁Good	-10.7424
▁Antan	-10.7424
itori	-10.7425
▁belly	-10.7425
▁pinanah	-10.7425
▁tantangaos	-10.7425
▁naingka	-10.7425
▁truth	-10.7425
▁mailmanano	-10.7425
▁qaisqaisi	-10.7425
▁nokis	-10.7425
▁Qoqo	-10.7425
▁Ulang	-10.7425
▁satoo	-10.7425
▁mondiip	-10.7425
alaongkav	-10.7425
▁whisper	-10.7425
▁anghaib	-10.7426
▁tonlaihlihsapoz	-10.7426
▁iongi	-10.7426
▁kaidaqvasan	-10.7426
stum	-10.7426
▁vivi	-10.7426
▁modadan	-10.7426
▁Qanciaz	-10.7427
▁lapat	-10.7427
▁palkada	-10.7427
qenan	-10.7427
▁lokic	-10.7427
aving	-10.7427
▁teza	-10.7427
▁sakolaz	-10.7427
anlehleh	-10.7427
assed	-10.7428
▁mindahpa	-10.7428
▁nobananaz	-10.7428
▁Ear	-10.7428
▁sisili	-10.7429
didin	-10.7429
acco	-10.7429
▁masipaton	-10.7429
▁mavis	-10.7429
▁qaonong	-10.7429
kaboo	-10.7429
lipoah	-10.7429
rite	-10.7429
▁wok	-10.743
▁sinihomis	-10.743
neg	-10.7431
▁decide	-10.7432
▁loop	-10.7432
▁Talmadia	-10.7432
▁Kaut	-10.7432
▁Nanto	-10.7433
rien	-10.7433
▁painlivan	-10.7433
▁takisia	-10.7434
▁mahansom	-10.7434
▁hanoin	-10.7434
▁num	-10.7434
▁makaiha	-10.7434
▁mouse	-10.7434
▁zi	-10.7435
tumble	-10.7435
cious	-10.7435
rk	-10.7435
▁mohos	-10.7435
anoqo	-10.7435
▁mangki	-10.7436
oqdong	-10.7436
▁niboh	-10.7436
▁kahna	-10.7436
▁mokombo	-10.7437
▁matono	-10.7437
▁Maisna	-10.7437
▁tele	-10.7437
▁thread	-10.7437
▁navo	-10.7437
▁fur	-10.7438
▁pinit	-10.7438
▁madangqac	-10.7438
▁mavohvoh	-10.7438
pasitda	-10.7438
▁maqaizo	-10.7439
▁cilas	-10.7439
▁tainos	-10.7439
▁pinong	-10.7439
▁nahodan	-10.7439
▁haval	-10.744
500	-10.744
▁spill	-10.7441
▁minsanavan	-10.7442
▁Pro	-10.7442
▁masikoa	-10.7443
ative	-10.7444
aklang	-10.7444
▁torn	-10.7444
▁minkaon	-10.7445
▁sidaza	-10.7445
ichoan	-10.7446
▁langi	-10.7447
sakak	-10.7447
▁ickoinin	-10.7448
lock	-10.7448
▁Haito	-10.745
▁Min	-10.745
▁bin	-10.7451
ningav	-10.7451
▁skill	-10.7452
uce	-10.7452
▁ontini	-10.7452
▁stay	-10.7454
▁fac	-10.7455
▁tanngadah	-10.7456
▁outsider	-10.7457
▁masivaon	-10.7457
▁malongqo	-10.7459
lig	-10.7459
▁mosa	-10.7463
mot	-10.7467
▁viia	-10.7467
▁Ipin	-10.7468
rbi	-10.7468
▁isdangza	-10.7469
tec	-10.7475
▁masoqaz	-10.7478
▁passing	-10.7479
▁pre	-10.7481
▁kozkozaon	-10.7483
▁Madaing	-10.7484
fty	-10.7485
▁sinnava	-10.7492
▁madeia	-10.7493
▁malkacia	-10.7497
otmang	-10.7498
▁oninin	-10.7498
▁pisqancaip	-10.7499
▁koos	-10.7501
▁masiol	-10.7503
▁yes	-10.7505
▁laihliht	-10.7506
▁paid	-10.7506
▁pet	-10.7507
building	-10.7507
▁maloo	-10.7509
▁atikic	-10.7512
thod	-10.7512
▁minnasia	-10.7514
▁kaca	-10.7515
bok	-10.7517
▁islalaskan	-10.7517
▁Pinta	-10.7518
▁taona	-10.7522
kamana	-10.7525
aft	-10.7527
rown	-10.7534
yuan	-10.7536
▁hala	-10.7536
▁atta	-10.7539
▁pads	-10.755
nous	-10.7552
tton	-10.7554
St	-10.7563
▁bat	-10.7569
▁harvesting	-10.7572
ient	-10.7576
lying	-10.7577
ccess	-10.7578
▁saosia	-10.758
lim	-10.7581
▁mado	-10.7583
▁mistakes	-10.7586
haiapan	-10.7588
▁maopacia	-10.7599
▁Tais	-10.7603
visi	-10.7605
rd	-10.7609
oons	-10.7614
▁mahon	-10.7616
▁remains	-10.762
▁angr	-10.7623
▁matal	-10.7624
▁osado	-10.7627
▁tig	-10.7631
au	-10.7638
▁nanii	-10.7646
lative	-10.7647
▁sta	-10.767
▁dainposa	-10.7692
nan	-10.7693
ect	-10.7694
▁songhahaolan	-10.7696
▁mavaon	-10.77
▁Laopan	-10.7702
▁mabo	-10.7719
▁isdomdom	-10.772
pising	-10.7725
▁maimaon	-10.7726
▁chang	-10.7727
▁matakonav	-10.773
▁tishaqo	-10.7731
ist	-10.7732
onata	-10.7738
lmanano	-10.7743
▁mahaip	-10.7744
▁tomaz	-10.7744
▁Minton	-10.7745
▁Me	-10.7747
▁vaqa	-10.775
▁minqamisan	-10.775
gener	-10.775
▁tostos	-10.7752
▁isdamo	-10.7753
▁vovohvoh	-10.7753
▁lihai	-10.7753
▁Ngaingai	-10.7754
qoma	-10.7755
▁mapotis	-10.7755
▁hive	-10.7755
▁trans	-10.7755
▁hiko	-10.7756
▁mahao	-10.7757
▁kavivila	-10.7758
▁mapinsia	-10.7759
▁manangqat	-10.7761
▁minihomis	-10.7761
▁qabang	-10.7767
▁Isa	-10.7773
▁coa	-10.7774
▁100	-10.7775
▁maco	-10.7775
▁za	-10.7778
aniv	-10.7788
▁vaso	-10.7789
▁qomah	-10.7792
▁fan	-10.7802
due	-10.7805
▁bu	-10.7809
▁ismoot	-10.7813
▁tosasaos	-10.7816
ese	-10.783
▁insi	-10.7832
kal	-10.7832
▁Sin	-10.7836
▁pad	-10.7858
oting	-10.7861
▁momo	-10.7865
▁saiv	-10.7867
▁hono	-10.7875
▁tonight	-10.7879
▁paang	-10.7879
ture	-10.7889
topa	-10.7896
aopas	-10.7897
▁kozakozaon	-10.7898
choan	-10.791
bonto	-10.7911
inolo	-10.7913
▁talolongan	-10.7926
haz	-10.7928
▁nait	-10.7929
▁naoaz	-10.7936
▁Los	-10.7943
ors	-10.7946
▁panc	-10.7948
olot	-10.7954
▁Ibi	-10.796
dat	-10.7961
doldol	-10.7963
ante	-10.797
▁2	-10.7975
longqo	-10.7983
▁mindia	-10.7992
▁squ	-10.7997
halav	-10.8
▁lailai	-10.8001
▁pide	-10.8006
▁Mato	-10.8008
▁paaz	-10.8012
ahon	-10.802
▁race	-10.8028
▁isima	-10.8028
▁hop	-10.8029
▁saisia	-10.8029
maoq	-10.8031
iman	-10.8054
row	-10.8064
▁mah	-10.8069
lah	-10.8073
ilic	-10.808
▁pakaon	-10.8119
▁moko	-10.8121
▁Namodan	-10.8135
I	-10.8135
odan	-10.8135
▁makai	-10.8154
tao	-10.8156
zako	-10.8158
▁qaidang	-10.8166
isain	-10.8167
▁kavong	-10.8173
▁hoe	-10.8175
▁Aminon	-10.8177
ears	-10.8179
enty	-10.8185
dalavdav	-10.819
bosziq	-10.8196
▁ingalan	-10.8197
okombo	-10.8199
▁masisa	-10.8202
▁kaopakaopa	-10.8203
▁bantac	-10.8203
▁kanaqtong	-10.8209
von	-10.8217
ndaza	-10.822
▁gr	-10.8225
▁daik	-10.8226
▁tri	-10.8229
▁game	-10.8232
inhomis	-10.8239
▁minang	-10.8243
tala	-10.8263
▁talima	-10.8265
loloa	-10.8269
ants	-10.8271
▁todii	-10.8289
▁kao	-10.8291
▁hi	-10.83
▁con	-10.8301
kaodo	-10.831
▁lis	-10.8325
ngkav	-10.8331
hanin	-10.836
bananaz	-10.8366
▁molomaqin	-10.8369
taol	-10.8369
▁Pan	-10.8371
asaz	-10.8386
▁Pin	-10.8394
▁monga	-10.8403
▁squat	-10.8408
▁son	-10.8412
sanavan	-10.8425
oaz	-10.8438
▁ilav	-10.8444
ial	-10.8446
kaopa	-10.845
simol	-10.8454
▁bis	-10.8462
▁cra	-10.8465
dan	-10.8504
sal	-10.8517
asato	-10.853
iang	-10.8532
ester	-10.8547
▁kitngaa	-10.8556
avang	-10.8622
▁saon	-10.8624
▁sixt	-10.8628
▁kilimok	-10.8632
tais	-10.8635
avonon	-10.8648
hoes	-10.865
ngo	-10.8671
laq	-10.8686
Ma	-10.8693
isaicia	-10.8693
▁aim	-10.8708
anaka	-10.8732
madia	-10.8774
ngka	-10.8781
qaz	-10.8782
sic	-10.8794
▁Thanks	-10.8827
▁stu	-10.8845
▁Nan	-10.8865
▁katd	-10.888
ckle	-10.8899
tombak	-10.8912
nish	-10.8922
kilim	-10.8939
▁sok	-10.8973
▁tongnangada	-10.8975
kosbai	-10.898
kaop	-10.8983
▁Mu	-10.8987
Sbalay	-10.8993
hod	-10.9011
tolkok	-10.9016
tingmot	-10.9033
valo	-10.9039
pos	-10.904
▁Mado	-10.9055
Takao	-10.9056
qabasan	-10.9064
▁Namako	-10.9067
break	-10.9081
woof	-10.9081
time	-10.9083
step	-10.9083
palinoto	-10.9088
▁Poson	-10.9092
saicin	-10.9096
10	-10.9101
Savi	-10.9102
K	-10.9108
leave	-10.9109
qato	-10.911
fruit	-10.911
cooked	-10.9113
izok	-10.9114
losbot	-10.9115
books	-10.9117
coop	-10.9124
ahil	-10.9129
taki	-10.9131
mabananaz	-10.9131
kaosian	-10.9135
koton	-10.9141
kanahtong	-10.9143
arrow	-10.9149
dao	-10.9152
kavi	-10.9152
▁malkasi	-10.9159
vaivi	-10.9164
makazav	-10.9164
ession	-10.9168
pataz	-10.9168
kol	-10.9184
cav	-10.9185
kolot	-10.9188
tangis	-10.919
masnava	-10.9205
hon	-10.9205
▁paqa	-10.9206
tongq	-10.9206
▁mao	-10.921
taho	-10.9215
dikla	-10.9218
▁mahai	-10.9229
▁maisin	-10.923
nclude	-10.9232
izin	-10.9257
ile	-10.9275
ease	-10.9278
qanop	-10.9281
if	-10.9282
pah	-10.9283
riti	-10.9285
adaq	-10.931
▁pala	-10.9312
sila	-10.9365
taqol	-10.9367
▁tra	-10.9378
▁maliba	-10.9384
▁coko	-10.9389
eces	-10.9389
▁tat	-10.9398
mahto	-10.9424
hu	-10.9434
▁Asi	-10.9442
tama	-10.9462
patasan	-10.9469
ccur	-10.9477
nood	-10.9477
▁mapos	-10.9481
▁tinaongqo	-10.9483
now	-10.9487
klo	-10.9488
maz	-10.9491
tted	-10.9505
▁main	-10.9507
onang	-10.9533
sinap	-10.954
kaan	-10.9542
ingadah	-10.9575
▁pasan	-10.9588
aming	-10.9616
tok	-10.9616
ried	-10.9618
▁tato	-10.963
▁qaa	-10.9634
▁cl	-10.9637
▁maba	-10.9642
idi	-10.9655
laton	-10.9662
saqal	-10.9668
que	-10.9682
▁sanavanin	-10.9711
bol	-10.9722
▁happ	-10.9723
▁Qam	-10.973
▁lao	-10.9737
cimaq	-10.9748
▁fo	-10.9765
tina	-10.9772
▁Maqoa	-10.9797
aimi	-10.9798
min	-10.9803
▁talpia	-10.9804
ward	-10.9809
toki	-10.9819
koqa	-10.9827
▁makao	-10.9841
▁Pas	-10.9852
sand	-10.9852
▁aio	-10.9863
▁ona	-10.9863
vah	-10.9873
▁onol	-10.9909
insoma	-10.9935
ilav	-10.9939
▁aho	-10.9958
▁pidai	-10.997
ngha	-10.9978
iiv	-11.0005
▁taldaqvasin	-11.0012
▁cho	-11.0019
▁bang	-11.0027
kilimon	-11.0032
▁kolin	-11.0032
icio	-11.0036
wl	-11.0036
tions	-11.0039
▁dang	-11.0052
▁mil	-11.0083
ival	-11.0117
ioo	-11.0124
nqovali	-11.0129
nahip	-11.0135
▁moda	-11.0142
▁qoc	-11.0156
nano	-11.016
dis	-11.0161
cok	-11.018
▁star	-11.019
tongtong	-11.021
▁relat	-11.0225
vail	-11.0234
ongha	-11.024
oon	-11.0244
▁Mada	-11.0247
▁tis	-11.026
▁zain	-11.0272
zan	-11.0285
▁dri	-11.0302
▁kini	-11.0316
oqaz	-11.0333
npasdo	-11.035
pdit	-11.0369
hit	-11.0374
▁Malas	-11.039
▁Qoda	-11.0393
▁Lakoa	-11.0395
imperative	-11.0397
qaisqais	-11.0398
▁rub	-11.0402
kato	-11.0407
kan	-11.0418
▁San	-11.0419
lok	-11.042
odip	-11.0422
padamo	-11.0427
andiip	-11.043
▁sevent	-11.0437
pacingav	-11.044
▁odamo	-11.0448
▁mahas	-11.045
▁Namoda	-11.0451
▁Malka	-11.0463
odah	-11.0465
▁happen	-11.0466
▁miko	-11.0468
hamo	-11.0473
▁though	-11.048
raw	-11.0481
onglao	-11.0482
tahdong	-11.0482
dangazi	-11.0483
umble	-11.0484
mperatives	-11.0491
▁thirt	-11.0491
▁peck	-11.0492
▁monda	-11.0493
▁isto	-11.0493
▁scar	-11.0493
▁sinado	-11.0496
▁bleed	-11.0497
▁masiva	-11.0497
▁mosquitoe	-11.0499
▁mava	-11.0501
▁maindodoaz	-11.0502
▁takioc	-11.0503
▁mahanso	-11.0504
▁dra	-11.0509
▁Tonlehle	-11.0511
ovaiv	-11.0511
taloqan	-11.0513
▁mataqdo	-11.0513
lung	-11.0514
▁manambo	-11.0514
▁Banit	-11.0515
aqdaqanin	-11.0515
ongqo	-11.0515
witch	-11.0517
wing	-11.0517
ciki	-11.0517
▁kinki	-11.0517
▁Daqvisan	-11.0518
▁Ex	-11.0518
▁Just	-11.0518
▁mocoqes	-11.0518
%	-11.0518
pinittaonghovali	-11.0518
qansaipan	-11.0518
▁Ngaosa	-11.0518
▁Pangkalkalan	-11.0518
▁Poonho	-11.0518
▁Sinadoo	-11.0518
▁Taupas	-11.0518
▁Zako	-11.0518
▁davoctilac	-11.0518
▁davostilas	-11.0518
▁hakhak	-11.0518
▁haqel	-11.0518
▁icqaqesqes	-11.0518
▁industrious	-11.0518
▁inondadanan	-11.0518
▁kandondah	-11.0518
▁kinozkozan	-11.0518
▁malkazingking	-11.0518
▁mananghat	-11.0518
▁minmakazhav	-11.0518
▁minsonab	-11.0518
▁mintanabal	-11.0518
▁mortar	-11.0518
▁palinanoto	-11.0518
▁qalmang	-11.0518
▁qamotic	-11.0518
▁qepoan	-11.0518
▁sonhahaol	-11.0518
▁strength	-11.0518
▁succeed	-11.0518
▁taklilibos	-11.0518
▁tangerine	-11.0518
▁taongkol	-11.0518
▁tosasaoc	-11.0518
mazavmazav	-11.0518
▁accident	-11.0518
▁kailakin	-11.0518
▁kaimadoh	-11.0518
▁mahasmav	-11.0518
▁maqasmav	-11.0518
▁olozi	-11.0518
▁pasampanah	-11.0518
▁sentence	-11.0518
▁suffer	-11.0518
▁Masmoq	-11.0518
▁iskokoniv	-11.0518
▁sinepok	-11.0518
▁talmainto	-11.0518
▁vavano	-11.0518
dahdah	-11.0518
fair	-11.0518
▁Masipolin	-11.0518
▁Minsomin	-11.0518
▁bosvit	-11.0518
▁demand	-11.0518
▁salinghanoaz	-11.0518
▁Todai	-11.0518
▁Mishoan	-11.0518
▁anymore	-11.0518
▁cultural	-11.0518
▁daisiq	-11.0518
▁linodah	-11.0518
▁patindangkol	-11.0518
▁ponsanan	-11.0518
▁protect	-11.0518
▁importan	-11.0518
▁bocolkaka	-11.0518
▁nakozakozaon	-11.0518
▁kalilovlov	-11.0518
▁tontampo	-11.0518
▁accord	-11.0518
rote	-11.0518
▁Taicong	-11.0518
▁mintalaban	-11.0518
▁makitvaivi	-11.0518
▁masasngol	-11.0518
cinghoza	-11.0518
▁mamaszang	-11.0518
▁miahan	-11.0518
▁papacqal	-11.0518
▁isqool	-11.0518
▁taonadiip	-11.0518
silop	-11.0518
▁equality	-11.0518
▁uphill	-11.0518
▁makilansan	-11.0518
▁antannata	-11.0518
▁siliba	-11.0518
▁tatqalop	-11.0518
▁okiliman	-11.0518
▁sinpalihomis	-11.0518
▁finger	-11.0518
▁matindon	-11.0518
▁laopadao	-11.0518
▁misqang	-11.0518
mamaklang	-11.0518
▁talidikos	-11.0518
▁takilibos	-11.0518
▁qasisi	-11.0518
▁lakangkang	-11.0518
▁paitotongqovali	-11.0518
▁Later	-11.0518
▁liniqaiban	-11.0518
Bantalang	-11.0518
▁daqpot	-11.0518
▁pattolkokan	-11.0518
▁reason	-11.0518
▁Halasan	-11.0518
▁taonghovali	-11.0518
▁basis	-11.0518
▁taonton	-11.0518
▁human	-11.0518
▁iniqomisan	-11.0518
▁mapasahaal	-11.0518
ladder	-11.0518
▁pakaapavon	-11.0518
▁madoqlas	-11.0518
▁Sanavan	-11.0518
▁mapiszang	-11.0518
▁matdaq	-11.0518
▁whistle	-11.0518
▁naingkon	-11.0518
▁patamaon	-11.0518
▁ponpin	-11.0518
▁sisdang	-11.0518
▁haqomocqot	-11.0518
▁commission	-11.0518
▁offende	-11.0518
▁paitotingmot	-11.0518
▁yea	-11.0518
▁nabalivon	-11.0519
▁tongkol	-11.0519
▁bizakbizak	-11.0519
▁tinqanop	-11.0519
▁haqailqaisqais	-11.0519
▁vanaas	-11.0519
▁Tanapima	-11.0519
▁namodaan	-11.0519
▁maivanis	-11.0519
pang	-11.0519
mihdi	-11.0519
▁Vanis	-11.0519
▁halasan	-11.0519
▁startled	-11.0519
▁taqna	-11.0519
▁lovos	-11.0519
▁modandaan	-11.0519
▁malisBonon	-11.0519
▁Thayan	-11.0519
ometimes	-11.052
▁patolkokan	-11.052
▁twins	-11.052
▁isqaqaiso	-11.052
▁banoaz	-11.052
▁matidoo	-11.052
itqanin	-11.052
Qalavang	-11.052
▁matahosngi	-11.052
▁qaimos	-11.052
ibonsio	-11.052
▁mangdavan	-11.052
▁minpinang	-11.052
▁saolomah	-11.052
tostosvali	-11.052
▁farmer	-11.052
▁Banitol	-11.052
▁daqat	-11.052
▁masangkon	-11.052
mangmang	-11.0521
▁madolo	-11.0521
▁bakal	-11.0521
▁nakolomah	-11.0521
Palavian	-11.0521
▁onanata	-11.0522
▁balang	-11.0522
▁sinpalasong	-11.0522
▁kamacia	-11.0522
▁modaokdaok	-11.0522
▁holocbonon	-11.0522
▁polomaq	-11.0522
▁toqao	-11.0522
▁songkat	-11.0522
ilaoq	-11.0522
▁onicin	-11.0522
▁tasasikis	-11.0523
▁mismoq	-11.0523
▁olomahon	-11.0523
▁saviq	-11.0523
▁qoqool	-11.0523
cikaopa	-11.0523
▁Ponpi	-11.0523
adul	-11.0523
▁songhaol	-11.0523
verb	-11.0524
▁hibolan	-11.0524
▁Maposan	-11.0524
▁pipit	-11.0524
▁qapoan	-11.0524
▁daongkav	-11.0524
▁katondaq	-11.0524
▁misnahaan	-11.0524
▁Hotan	-11.0525
▁olostan	-11.0525
▁masinaobananaz	-11.0525
▁disappeared	-11.0525
▁malqato	-11.0525
▁pasiza	-11.0526
pahosil	-11.0526
▁Macisit	-11.0526
▁Mohaz	-11.0526
sohis	-11.0526
▁dingki	-11.0526
▁Naqodanan	-11.0527
▁mapolpol	-11.0527
aisko	-11.0527
▁matoqtoq	-11.0527
serve	-11.0527
▁masitohas	-11.0527
▁mahovaiv	-11.0527
▁qasila	-11.0528
odinon	-11.0528
▁mangai	-11.0528
▁monkombo	-11.0528
▁moiav	-11.0528
▁loqei	-11.0528
▁sasbinaz	-11.0528
laoto	-11.0528
▁nipaq	-11.0528
▁diki	-11.0528
▁mokhiv	-11.0529
▁panay	-11.0529
▁sintataqo	-11.0529
▁mapaqosil	-11.0529
▁mahaliv	-11.0529
▁Tonganonin	-11.0529
▁sintaho	-11.0529
▁Kinozin	-11.0529
▁Amis	-11.0529
arch	-11.0529
patishaqo	-11.053
▁mapodaan	-11.053
▁tinsoso	-11.053
▁mainson	-11.053
▁ref	-11.053
▁manisbi	-11.053
▁hom	-11.0531
▁cisha	-11.0531
▁ngaong	-11.0532
oqeson	-11.0532
▁qancepon	-11.0532
▁mahaqo	-11.0532
▁hahima	-11.0533
▁nataskon	-11.0533
hatob	-11.0533
kaok	-11.0533
▁sikoa	-11.0533
▁inaita	-11.0533
▁lib	-11.0533
▁thou	-11.0534
▁oqna	-11.0534
gnan	-11.0534
okii	-11.0534
▁Haqo	-11.0534
▁kaoma	-11.0534
▁masohaz	-11.0534
▁fill	-11.0535
mapisial	-11.0535
duut	-11.0535
▁kosisila	-11.0535
▁laqa	-11.0535
▁kadavos	-11.0536
▁become	-11.0536
▁macka	-11.0536
▁kandapan	-11.0537
▁laughing	-11.0537
▁kaitaikla	-11.0537
▁Toqas	-11.0537
▁manami	-11.0538
▁Yuan	-11.0538
oqtic	-11.0538
▁paqoo	-11.0538
dne	-11.0539
▁mishoan	-11.0539
gian	-11.0539
▁talmindoo	-11.0539
oanlaihlih	-11.0539
▁mahaishais	-11.0539
▁matabal	-11.054
▁seiz	-11.054
▁sopahdaingaz	-11.054
▁malaoskav	-11.054
▁pinanam	-11.054
▁masalpo	-11.054
▁moposan	-11.054
▁osa	-11.054
▁haanti	-11.054
tmata	-11.0541
indangkaz	-11.0542
▁inten	-11.0543
▁kikai	-11.0543
▁Masingav	-11.0544
▁issue	-11.0545
▁papatasan	-11.0545
▁lisav	-11.0545
▁madaqvas	-11.0546
lick	-11.0546
▁konia	-11.0546
llar	-11.0546
▁monnata	-11.0547
▁katokato	-11.0547
cies	-11.0547
▁mapongadah	-11.0547
▁visitor	-11.0548
taoloo	-11.0548
▁sidih	-11.0548
▁himself	-11.0549
rag	-11.055
▁sinadoo	-11.055
▁talmaindoo	-11.0552
▁masinaobah	-11.0552
▁cil	-11.0552
▁palando	-11.0552
taoqas	-11.0553
▁guavas	-11.0554
▁wall	-11.0554
isoh	-11.0556
▁kakaonan	-11.0556
▁pow	-11.0558
▁talpataz	-11.0558
soms	-11.056
▁askadii	-11.056
▁naobah	-11.056
▁nipin	-11.0561
▁pisvan	-11.0562
▁machoan	-11.0562
otaki	-11.0562
▁tonganin	-11.0563
▁kakonon	-11.0564
▁islongqo	-11.0564
▁pishasibangan	-11.0564
▁Bahoan	-11.0565
▁maitacan	-11.0567
macingmot	-11.0568
▁moqos	-11.0569
▁masailang	-11.0569
▁tanodo	-11.0569
▁mindodoaz	-11.0571
rely	-11.0572
hansaipon	-11.0572
shi	-11.0572
▁laopa	-11.0574
▁moti	-11.0575
▁maisinin	-11.0576
▁namapikoa	-11.0576
lkapataz	-11.0576
▁cour	-11.0576
▁matomasqing	-11.0577
▁mapais	-11.0579
▁sinkai	-11.0579
▁tonpa	-11.0579
▁masoqais	-11.0579
aisbanan	-11.058
▁itqal	-11.0581
▁page	-11.0581
▁namal	-11.0581
▁gla	-11.0581
▁maimas	-11.0582
▁sanvalion	-11.0584
▁por	-11.0587
ismomoot	-11.0588
▁Kono	-11.0589
▁cakot	-11.0592
kolkol	-11.0592
▁maponsia	-11.0593
▁noban	-11.0596
▁pandoo	-11.0597
tapaz	-11.0597
tomashing	-11.0601
▁mazaom	-11.0604
▁join	-11.0604
▁Masao	-11.0606
qah	-11.0608
ple	-11.061
▁yelled	-11.0611
▁ispadamo	-11.0614
vant	-11.0615
▁cre	-11.0617
▁altopat	-11.0618
▁sisinapo	-11.0619
▁Minna	-11.0621
▁case	-11.0621
▁paint	-11.0634
▁rubbi	-11.0634
▁Masmot	-11.0639
▁siahi	-11.0642
sankonan	-11.0642
oszoq	-11.0644
▁tangaa	-11.0645
▁master	-11.0646
▁fel	-11.0648
▁nice	-11.0652
▁anpasdo	-11.0654
▁tonadiip	-11.0656
▁Maza	-11.0656
imoo	-11.0658
iday	-11.0659
sitoqas	-11.066
▁kal	-11.0663
▁Laqa	-11.0664
")	-11.0667
▁madi	-11.0668
▁stealing	-11.067
▁tamohongan	-11.0672
cingavan	-11.0673
ollows	-11.0673
▁poss	-11.0676
owe	-11.0678
▁makis	-11.0679
▁minna	-11.068
alat	-11.068
ishalcis	-11.0681
sialon	-11.0684
▁tonna	-11.0685
pantas	-11.0685
▁once	-11.0685
lomaqan	-11.0685
▁Molo	-11.0691
▁mill	-11.0692
▁picked	-11.0693
▁Talpia	-11.0694
▁sioni	-11.0701
▁mosqa	-11.0702
▁tes	-11.0702
pasimolin	-11.0702
lomah	-11.0708
▁Isnava	-11.0712
nal	-11.0714
▁Qodananin	-11.0715
▁mahoq	-11.0716
▁sleepy	-11.0718
▁pantina	-11.072
ngr	-11.0726
▁aga	-11.0728
dow	-11.0728
▁Madaingaz	-11.0736
bahis	-11.0736
ated	-11.0743
▁napi	-11.0757
spat	-11.0759
▁taok	-11.0762
▁ric	-11.0763
kanaang	-11.0764
ialo	-11.0766
ngal	-11.078
▁repres	-11.0781
rit	-11.0783
sdangza	-11.0783
▁Pia	-11.0783
▁Masi	-11.0786
evelopment	-11.0789
▁madaingaza	-11.079
▁ja	-11.0805
kosi	-11.0806
▁kaong	-11.0807
eves	-11.0809
pasaqna	-11.081
▁panpongolan	-11.081
▁kapa	-11.0813
▁nail	-11.0819
ttle	-11.0824
are	-11.0825
ngono	-11.0826
saqbit	-11.0828
▁totongtong	-11.083
hick	-11.0832
olok	-11.0843
▁Cia	-11.0845
▁malaspo	-11.0849
▁Laopa	-11.085
▁pac	-11.0854
▁tait	-11.0856
ansaba	-11.0859
▁Maz	-11.0862
▁nita	-11.0869
ops	-11.0871
▁mondip	-11.0872
aak	-11.0873
ngiit	-11.0875
cakbit	-11.0879
▁halo	-11.0881
▁smo	-11.0887
isoma	-11.0888
▁Mopa	-11.0891
▁harvester	-11.0893
▁hato	-11.0898
▁Toko	-11.0899
nisaikin	-11.09
rself	-11.09
▁vanaq	-11.0907
▁nakilimon	-11.0907
▁balivos	-11.0919
▁plu	-11.0922
joy	-11.0925
ailang	-11.0927
onta	-11.093
ligent	-11.0932
▁namon	-11.0933
▁ok	-11.0935
▁madaozong	-11.0941
▁aizang	-11.0943
▁talmaindo	-11.0947
▁maltala	-11.0949
rang	-11.0952
▁kankan	-11.0964
▁onglai	-11.0965
▁laihlihpokpok	-11.098
▁lovoc	-11.098
▁milolo	-11.0983
▁qesing	-11.0984
▁vaqlac	-11.0984
▁bilva	-11.0984
▁qinanop	-11.0985
▁bank	-11.0985
▁bisokbisok	-11.0986
▁taiklas	-11.0987
▁kokai	-11.0988
▁mataok	-11.0992
▁cindon	-11.0993
▁sepok	-11.0996
▁piniloma	-11.0998
▁Lipon	-11.1
▁beans	-11.1001
▁kazhav	-11.1004
▁malaitaz	-11.1004
▁mazmaz	-11.1005
▁omanon	-11.1006
▁Moskona	-11.1008
▁patazon	-11.1015
▁slo	-11.102
▁dus	-11.102
▁noom	-11.1024
▁namonhan	-11.1024
ush	-11.1026
osong	-11.1029
ir	-11.103
aas	-11.1049
shoan	-11.1052
my	-11.1055
mer	-11.1064
▁mahanimolmol	-11.1067
▁hoho	-11.1067
▁macis	-11.1067
▁tamong	-11.1067
▁sik	-11.1068
▁belong	-11.1072
▁pani	-11.1081
mohan	-11.1083
▁malkamaz	-11.1089
pingadah	-11.1092
▁mazav	-11.11
yum	-11.1105
▁ladoaz	-11.1109
sohais	-11.1109
▁soqaiso	-11.1111
okin	-11.1111
▁kadi	-11.1124
▁naong	-11.1125
▁saidip	-11.1131
pakanbantas	-11.1132
▁maisnava	-11.1132
oonin	-11.114
▁Manomo	-11.1144
itor	-11.1156
▁ota	-11.1161
▁pins	-11.1166
odadaza	-11.117
iong	-11.1171
▁appl	-11.1185
pakalat	-11.1197
▁Haizan	-11.12
▁bran	-11.1225
▁hours	-11.1243
▁Masta	-11.1247
▁Tangos	-11.1255
sam	-11.1261
▁naipon	-11.1266
homa	-11.1268
▁anaqa	-11.1284
▁spa	-11.1287
▁simal	-11.1289
▁masoq	-11.1295
owa	-11.1295
niza	-11.1297
▁Miko	-11.1308
▁dist	-11.1319
▁note	-11.132
vilic	-11.1321
▁azaq	-11.1325
▁baz	-11.133
ican	-11.134
▁kaot	-11.1345
▁pos	-11.1348
isnavaanin	-11.135
▁poza	-11.1361
▁des	-11.1392
toh	-11.1396
▁pasi	-11.1401
▁maposq	-11.1401
bing	-11.1403
▁tastolomaqan	-11.1429
▁tompo	-11.1431
qanciap	-11.1433
asing	-11.1439
▁balivan	-11.1443
pla	-11.1445
▁Qav	-11.1458
piaqin	-11.146
lik	-11.1481
▁namin	-11.1501
▁pabazbaz	-11.1506
▁hunters	-11.1509
daqvas	-11.1523
imadiav	-11.1527
▁manan	-11.1527
boqanin	-11.1535
sling	-11.1545
▁mananoloa	-11.155
uh	-11.1552
▁manak	-11.1555
▁taldaqvas	-11.1555
▁deers	-11.1557
▁qaltis	-11.1567
▁aizana	-11.157
▁haningo	-11.1577
domdom	-11.1584
▁nama	-11.1609
ivong	-11.1625
▁hoo	-11.1631
▁nicio	-11.1635
noqan	-11.1648
ron	-11.1663
▁inisai	-11.1667
habo	-11.1668
▁tanpo	-11.1678
ongho	-11.1693
ananin	-11.1723
▁koso	-11.1728
▁sak	-11.1738
▁toqo	-11.1749
habasang	-11.1749
akes	-11.1765
x	-11.1772
maq	-11.1782
moo	-11.1783
▁tonh	-11.18
zin	-11.1806
▁nin	-11.1814
dadan	-11.1817
micqang	-11.1819
▁tongan	-11.1824
angan	-11.183
qosva	-11.1835
▁dada	-11.1837
▁mapas	-11.184
▁mahait	-11.1843
▁sand	-11.1848
el	-11.1849
uni	-11.1852
▁kin	-11.186
▁todaza	-11.1865
laon	-11.1868
voca	-11.1885
inodanan	-11.1891
▁pacingav	-11.1898
▁5	-11.1899
▁ovava	-11.19
odol	-11.1909
▁half	-11.1911
navi	-11.1922
ola	-11.1966
asah	-11.197
▁tantongoan	-11.1971
hoho	-11.1972
toto	-11.1986
bot	-11.1987
▁ben	-11.1996
▁saqbit	-11.201
ncomin	-11.2011
▁ant	-11.2018
ngas	-11.2023
▁Paqa	-11.2065
▁makos	-11.2073
ount	-11.2084
▁hu	-11.2138
kopa	-11.2143
▁moot	-11.2161
nango	-11.2171
▁participat	-11.2173
oho	-11.2179
bout	-11.219
ahto	-11.219
▁naka	-11.2193
▁sip	-11.2201
binon	-11.2215
▁palaskana	-11.222
▁pail	-11.2276
▁valo	-11.2313
▁kaop	-11.2314
▁Sbalay	-11.2316
W	-11.2318
soh	-11.2318
ndii	-11.232
aika	-11.2321
▁others	-11.2326
▁mapito	-11.2331
▁lan	-11.2339
hosaz	-11.2349
▁te	-11.2359
sop	-11.2377
▁Soq	-11.2387
idaza	-11.2407
▁cik	-11.2418
▁maisnaha	-11.2418
pon	-11.2421
inbaliv	-11.2447
qatol	-11.2468
imi	-11.2493
apdit	-11.2513
voq	-11.2518
lansan	-11.2565
aop	-11.2635
vas	-11.2664
▁isang	-11.2671
▁nine	-11.2687
sopaha	-11.2697
iskos	-11.2738
qan	-11.2741
ju	-11.275
ump	-11.2758
▁okan	-11.2778
sato	-11.2784
ivoq	-11.2803
▁grea	-11.2803
▁fore	-11.2813
babaliv	-11.2814
▁ripe	-11.2831
▁monit	-11.2845
▁molo	-11.2849
askalon	-11.2852
cept	-11.2857
▁masisala	-11.2877
matapdi	-11.288
dangian	-11.2895
moot	-11.2896
▁aii	-11.2914
iu	-11.2918
nets	-11.2923
vandi	-11.2953
▁Untin	-11.2954
▁Abo	-11.2968
onik	-11.2978
bokla	-11.2981
▁minsi	-11.2982
ida	-11.2986
kis	-11.3
olo	-11.3016
all	-11.3028
▁string	-11.3046
ngosol	-11.3065
▁mokak	-11.3068
aok	-11.3097
ool	-11.3106
pal	-11.3122
matap	-11.3132
iho	-11.3179
ipal	-11.3222
nodanan	-11.3227
pin	-11.3265
▁ispak	-11.3281
ipin	-11.3297
touch	-11.33
▁hohoda	-11.3324
▁mapon	-11.3335
qani	-11.3336
qazo	-11.3339
lov	-11.3361
ack	-11.3364
▁maitas	-11.3367
tokoa	-11.3368
▁tong	-11.3379
diaho	-11.3408
soidaing	-11.3408
Balay	-11.3409
taisqang	-11.3416
qanito	-11.3417
tikic	-11.3419
pokan	-11.3424
davos	-11.3429
zingva	-11.344
▁iskaka	-11.344
taka	-11.3441
toskon	-11.3447
A	-11.3452
iskanan	-11.3475
tataqo	-11.3479
▁koisa	-11.348
▁bon	-11.3486
tanpo	-11.3488
homis	-11.3491
loh	-11.3494
ney	-11.3498
pasado	-11.3499
daokdaok	-11.35
▁madoq	-11.3503
▁amos	-11.3507
aqdil	-11.3507
daoq	-11.3508
inataz	-11.3512
tqait	-11.3513
haningo	-11.3514
hai	-11.352
hivhiv	-11.3523
fe	-11.3527
bantac	-11.353
inpataz	-11.3535
kaopakaopa	-11.3545
game	-11.3546
palontan	-11.3557
adi	-11.3557
guys	-11.3557
maqaihav	-11.3558
ovava	-11.3564
kaonon	-11.3565
▁katsia	-11.3565
kitngab	-11.3567
paitasan	-11.3567
saincin	-11.357
halinga	-11.3571
mohiav	-11.3574
ship	-11.3578
loc	-11.3584
body	-11.3585
tavi	-11.3586
▁Doo	-11.3587
lotbo	-11.359
mapa	-11.3593
laihlaih	-11.3593
loqai	-11.3594
▁sika	-11.3595
tamahodas	-11.3596
mahanat	-11.3597
mapadangi	-11.3599
laopang	-11.3601
qalop	-11.3602
avola	-11.3603
people	-11.3603
masnanava	-11.3603
▁una	-11.3604
fire	-11.3605
mavia	-11.3607
happy	-11.3608
mindangkaz	-11.361
malospingaz	-11.361
piece	-11.361
government	-11.361
isnavan	-11.361
sleep	-11.361
grandmother	-11.3612
dihanin	-11.3612
labian	-11.3613
▁Aw	-11.3613
write	-11.3613
Taito	-11.3615
sinsi	-11.3618
▁Tai	-11.3618
ivot	-11.3621
kanaqtong	-11.3623
makav	-11.3625
dapan	-11.3627
lve	-11.3627
P	-11.3632
moqnang	-11.3633
qodanan	-11.3637
malkama	-11.3638
sipolan	-11.3639
paintataiv	-11.3641
babo	-11.3641
nicio	-11.3645
near	-11.3648
kaviaz	-11.3651
kama	-11.3653
tatavi	-11.3654
qaltis	-11.366
isvaqon	-11.3665
▁Te	-11.3665
sion	-11.3678
boar	-11.3689
inasto	-11.3692
cong	-11.3703
▁indangaz	-11.3707
N	-11.3711
▁mangk	-11.3712
dolaz	-11.3716
anatopa	-11.3731
some	-11.3732
olongqo	-11.3737
eve	-11.3741
onong	-11.3748
pia	-11.3752
masial	-11.3753
▁mapasavai	-11.3758
▁La	-11.3759
easi	-11.3759
naz	-11.376
▁lad	-11.3762
isang	-11.3765
▁tap	-11.3768
lehlehqatomo	-11.3771
port	-11.3786
can	-11.3805
masipol	-11.3824
▁tamasaz	-11.3824
line	-11.3838
kavong	-11.3841
ato	-11.3849
inaam	-11.386
lohi	-11.3868
▁vin	-11.3869
idadaza	-11.3871
siza	-11.3872
▁enco	-11.3884
▁mahal	-11.3886
tipol	-11.3886
solot	-11.3897
▁sl	-11.39
mod	-11.3903
haitas	-11.3906
shot	-11.391
iliar	-11.391
maaq	-11.3914
▁nakilim	-11.3918
pasibotbot	-11.3923
malavi	-11.3924
▁convene	-11.393
vai	-11.3932
naam	-11.3934
mantokon	-11.3939
kaoman	-11.3939
ngac	-11.3953
around	-11.3956
kes	-11.3962
tis	-11.3968
▁Aivin	-11.4021
siqail	-11.4023
▁mabaqai	-11.405
moaz	-11.405
kokoza	-11.4066
saoq	-11.4069
▁wi	-11.4071
somsoma	-11.4077
avik	-11.4077
ngav	-11.4093
▁namo	-11.4102
▁smok	-11.4107
▁Ko	-11.4109
store	-11.4113
aboha	-11.4125
▁vili	-11.4134
kahaitas	-11.414
▁mapasaqa	-11.4144
▁Maon	-11.415
▁soso	-11.4151
▁Misna	-11.4155
konav	-11.4158
qaidang	-11.4171
▁Naton	-11.4173
nail	-11.4176
masingav	-11.4194
pabazbaz	-11.4202
▁daz	-11.4217
azavang	-11.4219
aizin	-11.4219
▁masasa	-11.4228
ncin	-11.4234
tance	-11.4237
pong	-11.4239
saicia	-11.4243
kahozas	-11.4243
▁nani	-11.4288
doq	-11.4298
▁tando	-11.4299
▁nip	-11.4304
ay	-11.4306
▁pansan	-11.4335
▁maboszi	-11.435
ovi	-11.4365
pasimol	-11.4398
▁qangla	-11.4415
▁Sadoo	-11.4417
qangvang	-11.4425
enter	-11.4427
▁butt	-11.443
▁cha	-11.4432
ically	-11.4434
lue	-11.4445
ihi	-11.445
▁tatanson	-11.4461
eq	-11.4461
▁pingko	-11.4463
ihon	-11.4463
tasip	-11.4472
qiv	-11.4485
▁minto	-11.4497
baliva	-11.4502
▁Kilima	-11.4516
▁dina	-11.4519
▁Aiv	-11.4528
adaozong	-11.4534
▁mapis	-11.4539
sit	-11.4545
qailis	-11.4554
▁Pasimoli	-11.4557
▁lov	-11.4558
hopp	-11.4561
baas	-11.4565
anomon	-11.4565
soqais	-11.4573
▁icima	-11.4576
qatomo	-11.4577
▁ass	-11.4587
qalis	-11.4592
▁lisk	-11.4598
▁vo	-11.4602
cus	-11.4623
▁tinis	-11.4624
▁koli	-11.4635
▁panga	-11.4644
daoqpo	-11.4658
vik	-11.466
inka	-11.467
zoq	-11.4679
▁maki	-11.468
gar	-11.4692
gdo	-11.4693
lkom	-11.47
▁molos	-11.4701
erv	-11.4701
▁izao	-11.4705
akadan	-11.4708
▁pingk	-11.4727
zis	-11.4734
Sho	-11.4745
palavaaz	-11.477
▁adaso	-11.477
isnahaan	-11.478
Sobali	-11.4783
▁goi	-11.4783
iko	-11.4788
▁mavai	-11.4792
▁sinpal	-11.4821
pped	-11.4822
halcis	-11.4826
▁sosoa	-11.483
tmang	-11.4834
sea	-11.4836
▁Mac	-11.4839
till	-11.4839
idaz	-11.4841
lako	-11.4843
ngon	-11.4845
▁build	-11.4848
osol	-11.4849
qancaipan	-11.4855
qodas	-11.4859
hazon	-11.4861
bab	-11.4863
qapo	-11.4868
ompan	-11.487
saipok	-11.4875
odas	-11.488
▁Tal	-11.4881
▁effort	-11.4882
atomashing	-11.4892
▁antler	-11.4893
anglav	-11.4896
▁pear	-11.4902
ispasado	-11.4902
▁tipin	-11.4906
ster	-11.4912
imal	-11.4915
takonav	-11.4917
qaongo	-11.4917
diip	-11.4917
mar	-11.4917
ohnang	-11.4926
cikis	-11.4926
▁Moqna	-11.4927
iniqomic	-11.4927
▁kado	-11.4928
nposav	-11.4929
haib	-11.4932
▁Abu	-11.4934
itda	-11.4935
▁ansaha	-11.4935
ract	-11.4936
▁mindodo	-11.4938
glav	-11.4938
▁finishe	-11.4939
▁hinanop	-11.4941
▁pakatoszang	-11.4941
▁Bahu	-11.4943
▁shoe	-11.4944
▁lahaib	-11.4945
sqit	-11.4946
▁maitac	-11.4953
cut	-11.4953
liva	-11.4954
taqan	-11.496
kaote	-11.4961
▁Baho	-11.4965
▁akitmata	-11.4965
▁ondo	-11.4967
vohvoh	-11.4967
zim	-11.4968
boot	-11.4969
halan	-11.4969
taqdong	-11.497
▁Incomi	-11.4972
laskan	-11.4972
▁Hodanan	-11.4974
▁ickoin	-11.4976
dangqac	-11.4978
anta	-11.4978
taimang	-11.4982
vonsio	-11.4982
laoskav	-11.4983
tiqav	-11.4983
qaizo	-11.4984
▁Nansal	-11.4984
sobnoh	-11.4985
salpo	-11.4985
▁shake	-11.4986
▁conve	-11.4986
▁laugh	-11.4987
sakbit	-11.4987
altopa	-11.499
lonqo	-11.4991
▁Toqasna	-11.4991
▁Sipong	-11.4991
▁bless	-11.4991
▁taldaing	-11.4993
omo	-11.4994
▁minpo	-11.4994
bobo	-11.4994
▁talmindo	-11.4995
▁Aunt	-11.4998
alth	-11.4998
madas	-11.5
longkav	-11.5001
asbinaz	-11.5001
nongsiva	-11.5001
sinanaipok	-11.5002
onghahaolan	-11.5002
▁lop	-11.5004
antasal	-11.5005
▁Qo	-11.5008
tilasan	-11.501
hato	-11.501
▁famil	-11.5011
saingo	-11.5011
damoan	-11.5011
hildren	-11.5012
makmoz	-11.5012
antamaon	-11.5012
▁whisp	-11.5012
▁Eve	-11.5013
alontan	-11.5013
▁namoqna	-11.5013
▁stro	-11.5013
▁peach	-11.5013
iskapat	-11.5014
qomican	-11.5014
qmot	-11.5016
palasong	-11.5017
▁butterfl	-11.5017
isaco	-11.5017
▁kikilkil	-11.5018
▁malintoaz	-11.5018
+	-11.5018
▁mintalmindo	-11.5018
▁recogniz	-11.5018
#	-11.5018
Bueno	-11.5018
Government	-11.5018
bantiq	-11.5018
penultimate	-11.5018
talokai	-11.5018
‹	-11.5018
▁1945	-11.5018
▁Aquz	-11.5018
▁Christ	-11.5018
▁Namatinghilo	-11.5018
▁Palkalkalan	-11.5018
▁Pangcah	-11.5018
▁President	-11.5018
▁Qabinaz	-11.5018
▁Qasilah	-11.5018
▁Ququaz	-11.5018
▁Talmontokin	-11.5018
▁Talolong	-11.5018
▁Tuwak	-11.5018
▁alngangasan	-11.5018
▁antatalam	-11.5018
▁assimilat	-11.5018
▁bonoazbosol	-11.5018
▁ciqotciqot	-11.5018
▁cliff	-11.5018
▁dapoot	-11.5018
▁deliberat	-11.5018
▁discriminat	-11.5018
▁fortunately	-11.5018
▁haminsan	-11.5018
▁inspect	-11.5018
▁isdadamo	-11.5018
▁isqeqesqes	-11.5018
▁isqesqes	-11.5018
▁itanangaos	-11.5018
▁kantondah	-11.5018
▁kinilotan	-11.5018
▁knock	-11.5018
▁lobobonon	-11.5018
▁longholabal	-11.5018
▁madainpos	-11.5018
▁mahaivhaiv	-11.5018
▁malasLipoon	-11.5018
▁malasPoot	-11.5018
▁malasamilika	-11.5018
▁malaslepon	-11.5018
▁mangasngas	-11.5018
▁maqaltom	-11.5018
▁maqesqes	-11.5018
▁masahdil	-11.5018
▁matoktok	-11.5018
▁matomacq	-11.5018
▁monvanglaz	-11.5018
▁ngicngic	-11.5018
▁paitotongovali	-11.5018
▁paladoazin	-11.5018
▁piskakazavan	-11.5018
▁piskazhavan	-11.5018
▁qainivalval	-11.5018
▁qaongqaong	-11.5018
▁qongqongan	-11.5018
▁receive	-11.5018
▁sangliza	-11.5018
▁singhaili	-11.5018
▁singongoh	-11.5018
▁solution	-11.5018
▁talmadai	-11.5018
▁tanaskaon	-11.5018
▁tastozikang	-11.5018
▁tilibi	-11.5018
▁tindakol	-11.5018
▁tindankol	-11.5018
▁tonbaqaqais	-11.5018
妹	-11.5018
弟	-11.5018
hilhil	-11.5018
nstitution	-11.5018
▁Aqoz	-11.5018
▁Paqpon	-11.5018
▁bikni	-11.5018
▁cidanoman	-11.5018
▁hanivalval	-11.5018
▁inisnis	-11.5018
▁internet	-11.5018
▁isqaqisq	-11.5018
▁kodamono	-11.5018
▁lamoqo	-11.5018
▁malenqas	-11.5018
▁manisnis	-11.5018
▁milickin	-11.5018
▁opportunit	-11.5018
▁otanbaona	-11.5018
▁qamotis	-11.5018
▁representatives	-11.5018
▁sintotopa	-11.5018
▁sivsiv	-11.5018
▁taoblas	-11.5018
▁tiktik	-11.5018
anhanvao	-11.5018
halidang	-11.5018
qaivosvos	-11.5018
taoqtaoq	-11.5018
▁Batu	-11.5018
▁Hadul	-11.5018
▁Langus	-11.5018
▁deserves	-11.5018
▁dodolap	-11.5018
▁misqolong	-11.5018
▁mondaqvisan	-11.5018
▁sapil	-11.5018
▁tohtohmali	-11.5018
▁patcician	-11.5018
ensive	-11.5018
zokozaon	-11.5018
▁mahancom	-11.5018
▁manocq	-11.5018
&	-11.5018
eanwhile	-11.5018
▁honcong	-11.5018
▁kangab	-11.5018
▁mintalabal	-11.5018
▁movazis	-11.5018
▁pongkang	-11.5018
▁respond	-11.5018
▁tamonos	-11.5018
aintaivtaiv	-11.5018
▁Alimus	-11.5018
▁bingkio	-11.5018
▁nakaodiip	-11.5018
▁patqeman	-11.5018
▁tilivi	-11.5018
abinaz	-11.5018
▁forgive	-11.5018
▁linqa	-11.5018
▁makatpal	-11.5018
▁minsosoma	-11.5018
▁tidanoman	-11.5018
albobonto	-11.5018
baqec	-11.5018
▁Savong	-11.5018
▁doandoan	-11.5018
▁malmimihdi	-11.5018
DU	-11.5018
▁Masinaoba	-11.5018
▁Tamalasan	-11.5018
▁appro	-11.5018
▁consider	-11.5018
有	-11.5018
▁siokako	-11.5018
▁tohlokis	-11.5018
poszak	-11.5018
talboq	-11.5018
▁enpic	-11.5018
▁tatangkaonan	-11.5018
Frog	-11.5018
▁malahtan	-11.5018
▁monzakoan	-11.5018
▁papasahaal	-11.5018
▁ispaska	-11.5018
▁malovos	-11.5018
▁mapapaq	-11.5018
▁oncinian	-11.5018
▁iskokosia	-11.5018
▁mananakis	-11.5018
▁ovaokon	-11.5018
kolapha	-11.5018
▁simabin	-11.5018
▁talaban	-11.5018
▁Aziman	-11.5018
▁takismoot	-11.5018
mimqamisan	-11.5018
▁isqoqoo	-11.5018
▁vanahon	-11.5018
▁Mindangza	-11.5018
▁koknav	-11.5018
▁ozongko	-11.5018
▁sinpacqal	-11.5018
replace	-11.5018
▁kalinkosbai	-11.5018
▁maqosil	-11.5018
▁Paaqpo	-11.5018
▁sinkadaid	-11.5018
2][	-11.5018
kaongkaon	-11.5018
▁istitin	-11.5018
▁vanlaz	-11.5018
▁hanvangngabol	-11.5018
▁Pankanaqtong	-11.5018
▁tongkovali	-11.5018
▁lakakangkang	-11.5018
▁talohan	-11.5018
▁macinhav	-11.5018
▁taikisian	-11.5018
▁tingqoza	-11.5018
▁zoking	-11.5018
▁hoqtong	-11.5018
▁paotpaot	-11.5018
▁ibolan	-11.5018
▁Kalavong	-11.5018
▁maqaingil	-11.5018
▁siqi	-11.5018
▁tankaono	-11.5018
lacdangqac	-11.5018
▁taiklac	-11.5018
mansot	-11.5018
pacinpalavaaz	-11.5018
▁kociosinsi	-11.5018
▁laihlihqaongo	-11.5018
▁nakadangaz	-11.5018
▁lahnot	-11.5018
▁paqainan	-11.5018
▁qanivalval	-11.5018
Kalib	-11.5018
▁ahilkoskos	-11.5018
▁matanson	-11.5018
▁street	-11.5018
▁sub	-11.5018
motmot	-11.5018
▁naminhamisan	-11.5018
▁silili	-11.5018
▁ispapatac	-11.5018
speci	-11.5018
▁Bosol	-11.5018
▁kantolon	-11.5018
▁laplaq	-11.5018
▁pistanaqtaq	-11.5018
▁kantang	-11.5018
▁fun	-11.5018
▁pigeon	-11.5018
▁qaloop	-11.5018
▁taqao	-11.5018
▁mangaspa	-11.5018
▁Kopo	-11.5018
▁tikokoto	-11.5018
▁talmai	-11.5018
▁dingoa	-11.5018
▁Panay	-11.5018
▁dosapaan	-11.5018
▁macampat	-11.5018
unu	-11.5018
▁balivansanglav	-11.5018
▁macakbitsala	-11.5018
▁namosohisi	-11.5018
▁Mahao	-11.5018
▁binaliv	-11.5018
▁kamadoh	-11.5018
vakico	-11.5019
▁ispalka	-11.5019
▁ponpia	-11.5019
▁minoqo	-11.5019
▁indeed	-11.5019
▁loloman	-11.5019
▁namainok	-11.5019
▁bonoaz	-11.5019
vindoq	-11.5019
▁Kacaw	-11.5019
▁pakasvala	-11.5019
taknol	-11.5019
▁sinmalk	-11.5019
▁sintapol	-11.5019
▁pattilasan	-11.5019
▁pintataiv	-11.5019
▁inihomisan	-11.5019
▁nakatasa	-11.5019
▁piningzav	-11.5019
qaciap	-11.5019
▁Haisol	-11.5019
▁halfway	-11.5019
▁bitqoh	-11.5019
▁sintosaoc	-11.5019
▁todaniv	-11.5019
▁qaivalval	-11.5019
▁zamon	-11.5019
▁tombi	-11.5019
▁ansaso	-11.5019
▁iahlop	-11.5019
palatongtong	-11.5019
▁Lizu	-11.5019
sqav	-11.5019
▁ovazpingaz	-11.5019
▁aokaok	-11.5019
▁requ	-11.5019
▁mamoho	-11.5019
▁expens	-11.5019
▁Dusqav	-11.5019
▁exist	-11.5019
tanned	-11.5019
▁season	-11.5019
pdal	-11.5019
sapaq	-11.5019
sitsit	-11.5019
▁miqan	-11.5019
▁sinpapanaq	-11.5019
▁Qainodanan	-11.5019
taohomis	-11.5019
taikoto	-11.5019
▁Niboh	-11.5019
▁vavalo	-11.502
▁tatsaba	-11.502
▁moqaiv	-11.502
▁mapibaqis	-11.502
▁mongaos	-11.502
▁pinithanian	-11.502
▁paiso	-11.502
▁Lizo	-11.502
▁Mosoqais	-11.502
▁madohlas	-11.502
paonghol	-11.502
▁rul	-11.502
▁kitlomaq	-11.502
pakiong	-11.502
▁cishot	-11.502
▁palaqo	-11.502
poltav	-11.502
▁express	-11.502
▁moboat	-11.502
▁Taivang	-11.502
▁transition	-11.502
ismoq	-11.502
▁fift	-11.502
taqbo	-11.502
▁kokkacin	-11.502
anvahao	-11.5021
▁aoklo	-11.5021
▁matingoc	-11.5021
opsil	-11.5021
▁Pisoo	-11.5021
▁monhohoma	-11.5021
zokan	-11.5021
▁namaci	-11.5021
qainanop	-11.5021
qolais	-11.5021
▁hiip	-11.5021
▁Tonqato	-11.5021
▁siqot	-11.5021
▁pisaok	-11.5021
nson	-11.5021
panahan	-11.5021
qaisvaz	-11.5021
▁Namaipa	-11.5021
▁kinli	-11.5021
▁divers	-11.5021
▁mokbas	-11.5021
asangkonan	-11.5021
▁haqobantac	-11.5021
▁Hanoin	-11.5021
▁isizaav	-11.5021
▁mopolaz	-11.5021
▁tatako	-11.5021
pinasaq	-11.5021
▁Umin	-11.5021
▁Saviki	-11.5021
▁mililiskin	-11.5022
kantondaq	-11.5022
▁paskaopa	-11.5022
▁minotda	-11.5022
zingki	-11.5022
▁masanbot	-11.5022
▁matahos	-11.5022
▁mivonsio	-11.5022
▁twe	-11.5022
▁pinanaq	-11.5022
▁roughly	-11.5022
▁hancom	-11.5022
calpo	-11.5022
▁maciha	-11.5023
▁maklangqanin	-11.5023
▁qomon	-11.5023
▁tondadaan	-11.5023
▁mapocis	-11.5023
▁tiskapat	-11.5023
vindaoq	-11.5023
sapal	-11.5023
▁matosok	-11.5023
laqtai	-11.5023
▁grill	-11.5023
▁kazkaz	-11.5023
aqbingin	-11.5023
hibol	-11.5024
▁mazaingo	-11.5024
▁makmozin	-11.5024
▁dawn	-11.5024
▁death	-11.5024
poaqin	-11.5024
▁iqti	-11.5024
▁sinbalong	-11.5024
lear	-11.5024
▁Ulih	-11.5024
▁Laopako	-11.5024
▁sinsaipok	-11.5024
▁madav	-11.5024
▁patataqo	-11.5024
▁naobahna	-11.5024
▁siqoi	-11.5024
▁pananasto	-11.5024
▁pinaak	-11.5024
▁Namaltatala	-11.5024
hahanopa	-11.5024
▁patilasan	-11.5024
▁qonanan	-11.5024
▁Saipok	-11.5024
anlaihlih	-11.5025
▁Ponma	-11.5025
kozako	-11.5025
▁toncozinsa	-11.5025
sohazon	-11.5025
▁tangtang	-11.5025
▁mapithas	-11.5025
▁sihailaz	-11.5025
▁sintokoa	-11.5025
▁pistabah	-11.5025
▁malaisko	-11.5025
▁tosaos	-11.5025
palasbonon	-11.5025
toholan	-11.5026
▁samash	-11.5026
▁Taqo	-11.5026
▁mindangqac	-11.5026
▁Malovlov	-11.5026
▁Mahansiap	-11.5026
soqsoq	-11.5026
▁Haqil	-11.5026
▁menok	-11.5027
tacsabah	-11.5027
▁kaono	-11.5027
▁monghav	-11.5027
▁patac	-11.5027
tonbak	-11.5027
▁tabalan	-11.5027
▁Salu	-11.5027
▁mindikla	-11.5028
▁power	-11.5028
isdom	-11.5028
▁montaloqan	-11.5028
▁kamingmi	-11.5029
bling	-11.5029
▁pantongtong	-11.5029
talikao	-11.5029
▁Bazin	-11.5029
ismotan	-11.5029
▁monidi	-11.5029
cila	-11.5029
▁kananaq	-11.503
▁Masiva	-11.503
inavo	-11.503
▁monTakao	-11.503
▁mapisia	-11.503
▁Uli	-11.503
▁noisy	-11.503
▁sindam	-11.503
pasisiza	-11.503
▁tinnao	-11.503
▁society	-11.5031
▁searching	-11.5031
▁laoq	-11.5031
▁piqao	-11.5032
▁qaonon	-11.5032
▁kadangza	-11.5032
▁piskakazhav	-11.5032
▁pasato	-11.5032
▁Taolo	-11.5032
▁intaa	-11.5032
▁caoqaison	-11.5032
zb	-11.5033
insiq	-11.5033
▁sokodan	-11.5033
▁binto	-11.5033
▁maimakoa	-11.5033
▁talbi	-11.5033
▁madaimpos	-11.5033
▁maqolpiq	-11.5033
▁masaningsing	-11.5033
▁matokolaaz	-11.5033
▁mataishang	-11.5033
▁maboal	-11.5033
atsinanaipokan	-11.5034
▁tangingi	-11.5034
▁maiqanvang	-11.5034
▁sikvin	-11.5034
▁mahosbo	-11.5034
▁madoqlac	-11.5034
▁naiskokoza	-11.5034
▁qalto	-11.5034
▁sinbazbaz	-11.5034
▁haqas	-11.5034
▁Manongsiva	-11.5035
▁loma	-11.5035
odadaan	-11.5035
▁pataki	-11.5035
▁mazaipoq	-11.5035
▁namohnang	-11.5035
▁Molomaq	-11.5035
▁santasal	-11.5035
▁Tosingav	-11.5035
haisav	-11.5035
▁tikola	-11.5036
tastodiqanin	-11.5036
Del	-11.5036
siap	-11.5036
▁Maqmot	-11.5036
ohdong	-11.5036
▁mapinqansiap	-11.5036
▁taozo	-11.5036
▁ovaazangik	-11.5036
▁macqas	-11.5037
▁michoan	-11.5037
vakai	-11.5037
alsialang	-11.5037
▁haipanito	-11.5037
hoata	-11.5037
▁qailic	-11.5038
cqo	-11.5038
omic	-11.5038
nopan	-11.5038
▁Lango	-11.5038
tabal	-11.5039
▁mapasimolko	-11.5039
▁Masaopa	-11.5039
▁mongaosang	-11.504
▁bitvaq	-11.504
▁molongqo	-11.504
ette	-11.504
▁Mahaiva	-11.504
paliskadan	-11.504
▁takisilazan	-11.504
▁maikosia	-11.504
▁iingkai	-11.5041
papakahaitas	-11.5041
▁motmang	-11.5042
▁baat	-11.5042
dadaok	-11.5042
▁osiza	-11.5042
▁inkad	-11.5042
▁tesaq	-11.5042
▁taomi	-11.5042
▁check	-11.5042
botiqo	-11.5042
akico	-11.5043
▁maindodoazang	-11.5043
▁takiocang	-11.5043
▁patoh	-11.5043
▁masaoq	-11.5043
▁katmang	-11.5043
▁namamantok	-11.5043
boqol	-11.5044
▁sinpatopa	-11.5044
pacilosho	-11.5044
▁motaki	-11.5044
▁tainga	-11.5044
▁bothol	-11.5045
▁kadiip	-11.5045
▁monpi	-11.5045
▁mapiqa	-11.5045
▁damoh	-11.5045
▁lolokla	-11.5045
▁Taoy	-11.5045
▁mosoo	-11.5046
▁langqata	-11.5046
▁vanglazta	-11.5046
pakapa	-11.5046
▁ohaiva	-11.5046
mindoldola	-11.5046
▁ngoto	-11.5047
▁qolbo	-11.5047
slonghon	-11.5047
▁maopadi	-11.5047
atingting	-11.5048
▁laoqi	-11.5048
▁Aizang	-11.5048
▁kadipin	-11.5048
▁aipcin	-11.5048
▁pantao	-11.5049
▁pavaz	-11.505
▁moqai	-11.505
▁kanho	-11.505
▁coco	-11.505
pitdaza	-11.505
▁namaca	-11.505
▁bononsidoq	-11.505
▁Natopa	-11.5051
▁tatangis	-11.5051
▁maldailaz	-11.5051
sisimol	-11.5051
mapakasia	-11.5051
▁Nansalo	-11.5052
▁mindado	-11.5052
▁cinma	-11.5052
▁samoh	-11.5053
▁munt	-11.5053
othol	-11.5053
▁taisah	-11.5053
▁minka	-11.5054
▁malonqo	-11.5054
▁mataimang	-11.5054
▁masakbit	-11.5054
▁masansan	-11.5054
▁andikos	-11.5054
potol	-11.5054
▁paisoo	-11.5055
esinav	-11.5055
▁bongan	-11.5055
▁anghaip	-11.5055
▁Pidaing	-11.5056
▁daqo	-11.5056
svala	-11.5057
▁nosong	-11.5057
▁masaingo	-11.5058
▁laqdot	-11.5058
▁pitda	-11.5058
▁kalomah	-11.5058
▁mapalodah	-11.5058
▁muc	-11.5058
▁patanam	-11.5058
▁lavian	-11.5059
alapa	-11.5059
▁mahivhiv	-11.5059
tonlaihlihqaongo	-11.506
▁Namaca	-11.506
▁pecked	-11.5061
▁pongnin	-11.5061
▁manomon	-11.5061
▁patido	-11.5061
vity	-11.5061
ign	-11.5061
▁tozainin	-11.5061
▁haza	-11.5062
▁Hodananin	-11.5062
▁ailoan	-11.5062
diq	-11.5062
▁Naih	-11.5062
▁macoqaz	-11.5063
▁idiip	-11.5063
iobi	-11.5064
ailai	-11.5065
ddition	-11.5066
▁mintoza	-11.5066
smodon	-11.5066
▁state	-11.5067
pasinap	-11.5067
▁appe	-11.5067
onghav	-11.5067
▁sadodoo	-11.5068
bongqa	-11.5068
ponda	-11.5068
▁ispaqosil	-11.5068
angtang	-11.5069
▁akitmatan	-11.507
▁makit	-11.507
▁anpasdoo	-11.5071
▁alasan	-11.5072
▁koloton	-11.5072
onsens	-11.5072
▁toqoo	-11.5073
kadaiza	-11.5073
▁babalivon	-11.5073
▁minpon	-11.5074
▁kabahi	-11.5075
▁islalaq	-11.5075
▁sintoqomis	-11.5077
▁molas	-11.5077
matomaq	-11.5078
▁matapaz	-11.5078
▁Hodas	-11.5079
▁maniza	-11.508
▁pisbaqis	-11.5081
▁naminham	-11.5082
▁mahalinga	-11.5082
vevi	-11.5082
▁papiaq	-11.5082
▁writer	-11.5082
livaq	-11.5083
▁osadoa	-11.5083
▁mahasol	-11.5084
pinsiaon	-11.5084
vadaq	-11.5085
▁mapac	-11.5085
mamakazhav	-11.5086
paongho	-11.5088
cikoto	-11.5088
▁patos	-11.5088
tatnol	-11.5089
▁totot	-11.509
▁isaincin	-11.509
▁mosi	-11.5091
▁qomata	-11.5091
slod	-11.5092
▁zon	-11.5093
▁aoqsa	-11.5094
cloc	-11.5094
hines	-11.5094
▁Bahuan	-11.5094
▁hinanopan	-11.5094
▁pakatoszangan	-11.5094
▁papal	-11.5095
naivaz	-11.5096
▁lahaiban	-11.5096
▁madangqas	-11.5097
▁siking	-11.5097
potoq	-11.5098
koniv	-11.5098
ilis	-11.5099
▁matac	-11.51
▁kapak	-11.51
▁niapang	-11.5101
▁boho	-11.5101
▁pisia	-11.5102
cipa	-11.5102
ev	-11.5103
ceq	-11.5103
onlaihlihqaongo	-11.5105
lval	-11.5105
olongqoan	-11.5106
apaan	-11.5106
▁fact	-11.5107
hanoaz	-11.5107
▁shop	-11.5108
▁zao	-11.511
▁pakima	-11.5111
▁inaqan	-11.5111
▁paptoh	-11.5112
▁mastala	-11.5113
▁padosa	-11.5113
▁qavi	-11.5114
▁malaopa	-11.5115
▁mapinqa	-11.5115
▁malaongl	-11.5115
▁Mantala	-11.5117
dies	-11.5119
doc	-11.5119
▁lili	-11.5119
▁lopa	-11.512
educ	-11.5121
oqnin	-11.5121
ikoabin	-11.5121
pongadah	-11.5121
aklis	-11.5122
▁mabaqis	-11.5122
▁hatal	-11.5123
▁qati	-11.5124
thaal	-11.5125
sisipolan	-11.5125
▁manosq	-11.5125
▁namapin	-11.5125
▁admi	-11.5125
▁ithal	-11.5127
▁aizakon	-11.5128
▁Lopa	-11.5128
▁Todiip	-11.513
koang	-11.5132
▁kosoan	-11.5132
▁sinpas	-11.5132
▁tatn	-11.5132
▁stat	-11.5133
▁sinok	-11.5135
boqan	-11.5135
▁malma	-11.5135
▁napainok	-11.5135
▁manakis	-11.5136
▁sinposa	-11.5137
▁mobo	-11.5138
▁tanabalin	-11.5138
ainono	-11.5138
▁islongqoan	-11.5138
▁podanonin	-11.5139
▁following	-11.5139
▁takiqabas	-11.5142
▁honol	-11.5143
ider	-11.5144
lngangaos	-11.5145
saisan	-11.5148
▁polo	-11.5148
▁deci	-11.5152
▁polic	-11.5152
▁pacingavan	-11.5152
▁doot	-11.5152
▁malsisi	-11.5152
▁efforts	-11.5155
ihalacan	-11.5156
▁kavavaa	-11.516
nee	-11.5166
labot	-11.5171
pinqatomo	-11.5171
▁maqot	-11.5171
▁noka	-11.5173
▁Panhaan	-11.5177
▁mahav	-11.5181
▁talti	-11.5182
asikis	-11.5182
▁tanka	-11.5184
▁De	-11.5184
kokoa	-11.5185
▁kavang	-11.5186
oanta	-11.5186
poza	-11.5188
tek	-11.5188
▁Qanit	-11.5189
▁mocoqaisin	-11.5189
▁coll	-11.5189
haishais	-11.5189
pahahainan	-11.5192
▁minso	-11.5193
acing	-11.5194
vaq	-11.5196
only	-11.5197
onsian	-11.5198
▁namonha	-11.5199
▁iskilim	-11.5202
tonasia	-11.5203
▁masoaq	-11.5204
▁mapasi	-11.5206
qombo	-11.5206
noaz	-11.5209
▁Monha	-11.5209
▁pongn	-11.5212
▁Icaqa	-11.5212
natopa	-11.5215
cini	-11.5215
asipaat	-11.5217
▁onataan	-11.5217
▁monita	-11.5217
tinsoo	-11.5217
somal	-11.5218
maqos	-11.5218
▁lains	-11.5219
▁iskakal	-11.5219
dasav	-11.5225
▁hodananin	-11.5226
lata	-11.5227
▁aval	-11.5233
inokan	-11.5233
▁realize	-11.5234
hainan	-11.5235
▁kalin	-11.5235
els	-11.5236
▁losan	-11.5236
▁tondan	-11.5236
▁Makoaq	-11.5238
vely	-11.5241
monlodon	-11.5242
▁madailaz	-11.5243
soian	-11.5243
adoan	-11.5246
sasing	-11.5249
paqaqais	-11.5253
▁lino	-11.5255
hacol	-11.5255
▁takilo	-11.5258
▁Soqaiso	-11.5258
▁qoaz	-11.5259
angqai	-11.526
▁qaol	-11.5263
taongqo	-11.5271
lf	-11.5272
▁onghai	-11.5272
▁Pat	-11.5273
▁azoq	-11.5274
▁mapala	-11.5279
▁matingo	-11.5281
▁tinpalava	-11.5281
stem	-11.5282
!,"	-11.5285
aszang	-11.5287
molong	-11.5287
ishaqo	-11.529
▁motin	-11.5291
vern	-11.5294
inbabaq	-11.5296
pasnavaan	-11.5299
ual	-11.5301
▁kahan	-11.5302
act	-11.5308
▁manas	-11.5309
bohan	-11.5315
▁masoko	-11.5316
ihal	-11.5322
▁pounding	-11.5325
▁saso	-11.5328
▁ispapat	-11.5331
▁Lim	-11.5333
▁Madin	-11.5336
asabahan	-11.5337
▁bosolkavi	-11.5339
laiti	-11.534
▁asikon	-11.5341
▁akia	-11.5346
▁tolkom	-11.5346
▁minsal	-11.5346
▁tanciki	-11.5352
▁isavan	-11.5358
ately	-11.5359
diipin	-11.5361
abini	-11.5361
tolon	-11.5368
▁mantok	-11.5368
▁mapinkoa	-11.5369
▁Sako	-11.5372
▁paqan	-11.5374
isdadaan	-11.5374
ken	-11.5376
acin	-11.5379
tale	-11.5385
balong	-11.5388
▁intentions	-11.5392
▁wrongs	-11.5394
▁asitas	-11.5396
▁Soi	-11.5398
isqat	-11.5404
inasaz	-11.5405
naqan	-11.5407
▁Tanam	-11.5409
nipasav	-11.5411
▁sana	-11.5411
longlong	-11.5426
iar	-11.5427
▁manaip	-11.5431
cingqal	-11.5432
▁prev	-11.5433
ongkombo	-11.5433
▁qodananin	-11.5435
▁tacan	-11.5442
pstick	-11.5451
monca	-11.5457
▁contong	-11.546
▁Amo	-11.5466
▁answers	-11.5475
▁kakava	-11.5477
▁matah	-11.5478
▁samantok	-11.548
aqon	-11.5483
▁qood	-11.5486
▁panhaan	-11.5487
▁taisaq	-11.5488
▁kav	-11.5489
action	-11.5495
cisit	-11.5506
hosol	-11.5509
pababaliv	-11.551
▁Tinan	-11.5513
otaz	-11.5528
▁Pasimolav	-11.5532
▁masling	-11.5534
▁tali	-11.5534
▁Aba	-11.5538
ampokan	-11.5545
incin	-11.5552
laitaz	-11.5553
▁coqais	-11.5555
pac	-11.5557
▁lit	-11.5561
▁malasqa	-11.5564
palaqa	-11.5568
qlic	-11.5577
▁sodo	-11.5582
anahip	-11.5588
wards	-11.5592
▁bru	-11.56
▁qangz	-11.5604
ontonton	-11.5604
▁bini	-11.5607
reh	-11.5609
▁ongadah	-11.5613
▁babaliva	-11.5616
▁exp	-11.5618
per	-11.5619
▁pitdia	-11.5621
pisihal	-11.5624
▁cast	-11.5627
▁Naha	-11.5629
▁moha	-11.5634
aiding	-11.5637
▁paqo	-11.5637
nsais	-11.5647
▁hahanopan	-11.5648
▁leqangvan	-11.5649
inanaoaz	-11.5649
▁dec	-11.565
▁napa	-11.5654
▁madano	-11.5654
nglo	-11.5655
▁makam	-11.5656
▁Tao	-11.5656
▁sav	-11.5656
▁lands	-11.5661
▁saoqbong	-11.5661
hailang	-11.5662
▁tikoto	-11.5667
▁met	-11.5674
▁paz	-11.5675
▁whom	-11.5676
sses	-11.5692
▁Her	-11.5694
▁kait	-11.5702
olanan	-11.5702
▁panha	-11.5704
▁sangkon	-11.5704
▁woods	-11.5705
▁macido	-11.5707
bal	-11.5711
azi	-11.5714
istala	-11.5714
▁Makois	-11.5718
▁qalo	-11.572
▁pishasibang	-11.5721
▁sounds	-11.5723
lailai	-11.5724
▁papando	-11.5727
▁isqaqai	-11.5727
▁sc	-11.5728
▁mamo	-11.5729
pite	-11.5734
▁Pot	-11.5747
▁tanbona	-11.5751
▁tonqato	-11.5753
kailas	-11.5754
ilan	-11.5755
danom	-11.5755
▁moslo	-11.5763
▁mamaon	-11.5766
▁qaltic	-11.5774
sansan	-11.5775
▁totosvali	-11.578
kokkat	-11.5781
▁bazo	-11.5781
▁tonlaihlih	-11.5783
mos	-11.5784
▁pistaba	-11.5786
▁lingva	-11.5786
▁mapaloszang	-11.5787
▁bonol	-11.5788
▁isqa	-11.5788
▁tisqot	-11.579
▁Mava	-11.579
▁Kaz	-11.5792
▁tonbaso	-11.5794
iton	-11.5795
▁oknav	-11.5795
▁dahvian	-11.5796
▁tanhiko	-11.5799
▁linaoqoc	-11.5799
▁sipolon	-11.58
▁qansaipon	-11.58
▁sozainsia	-11.5801
▁amini	-11.5801
▁laqming	-11.5801
▁tiqoc	-11.5802
▁patilacan	-11.5802
▁patohavit	-11.5802
▁sivazon	-11.5802
▁makazkaz	-11.5802
▁vovoqvoq	-11.5802
▁tapaha	-11.5803
▁makoacona	-11.5805
▁talbonto	-11.5806
▁saolok	-11.5807
▁iviv	-11.5809
ingqal	-11.5809
▁taongho	-11.581
▁didingalan	-11.5811
pasaq	-11.5812
▁tokiso	-11.5814
▁madanghas	-11.5814
livan	-11.5818
apavon	-11.582
▁ciqa	-11.5828
pri	-11.5829
▁laoqa	-11.5836
▁Taoloo	-11.5839
▁sim	-11.5841
▁matiqav	-11.5841
▁qaihav	-11.5842
▁sibo	-11.5844
▁maipin	-11.5849
▁macoqa	-11.585
amaon	-11.5855
▁tokias	-11.5857
▁maidosa	-11.5857
▁mahavon	-11.5861
▁pakasia	-11.5864
▁mavilis	-11.5875
ec	-11.5876
▁mongi	-11.589
somsoman	-11.5891
haii	-11.5905
▁kazin	-11.5906
▁dangza	-11.5906
▁moqa	-11.5912
pus	-11.5916
▁cismo	-11.5919
ips	-11.5922
cim	-11.5927
▁taol	-11.5931
pisingon	-11.5934
▁beg	-11.5935
▁icpapata	-11.5941
▁sokoi	-11.5945
▁tosqang	-11.5946
▁Ke	-11.5947
▁pacin	-11.5951
▁sah	-11.5952
▁mahaiv	-11.5953
race	-11.5971
▁daokdaoka	-11.5972
▁ikmantok	-11.5992
▁Uki	-11.5995
akio	-11.5996
▁paaq	-11.5997
▁swelled	-11.6002
▁siki	-11.6009
▁masaopa	-11.6011
inpito	-11.6011
▁dangianan	-11.6016
urb	-11.6019
nails	-11.6021
▁mahos	-11.6024
▁Idi	-11.6028
ntac	-11.6031
▁Lo	-11.6031
rows	-11.604
nataz	-11.604
nomon	-11.6048
apa	-11.606
▁aliba	-11.6066
▁doon	-11.6086
com	-11.6086
▁toqacb	-11.6087
▁tozain	-11.6094
▁ban	-11.6103
▁malabon	-11.6109
slos	-11.6109
azan	-11.6109
▁Namonha	-11.6123
adaan	-11.6131
mal	-11.6132
Im	-11.6144
▁Moa	-11.6146
▁qon	-11.6152
kdadaan	-11.6153
olavi	-11.616
▁daq	-11.6172
val	-11.6172
▁saina	-11.6232
▁babaliv	-11.6235
▁sasa	-11.6251
▁masam	-11.6252
▁lai	-11.6256
▁pasimolav	-11.6268
▁matl	-11.6275
▁paipa	-11.6279
ipo	-11.628
▁palta	-11.6285
sio	-11.6289
▁Su	-11.629
hap	-11.6299
▁qaima	-11.6304
tav	-11.6308
▁wonders	-11.6324
▁tokocia	-11.6324
▁mindangqa	-11.6341
mapisi	-11.6342
happi	-11.6344
▁maqon	-11.6344
▁maqat	-11.6345
▁tosingav	-11.6359
molomaqin	-11.6367
▁Ukain	-11.6372
▁lang	-11.6382
ikako	-11.6383
▁pinmama	-11.6394
zav	-11.6398
▁tinp	-11.6411
▁poo	-11.6412
ikoa	-11.6423
▁tatansonan	-11.6429
ivang	-11.6435
ages	-11.6439
adii	-11.644
hasan	-11.6442
chin	-11.6443
qtic	-11.6445
ondaza	-11.6454
sikon	-11.6461
▁pakas	-11.6462
▁kaote	-11.6484
▁kain	-11.6485
biskav	-11.6488
nanasto	-11.6504
ought	-11.6505
ern	-11.6509
▁lohi	-11.652
▁inol	-11.6528
ingkolaz	-11.6536
tonqaol	-11.6548
Su	-11.6579
ered	-11.6582
sao	-11.6595
▁eas	-11.6612
▁Kan	-11.6614
▁makav	-11.6626
▁ispin	-11.6628
icokbicok	-11.6646
▁tantongoa	-11.6647
▁moskona	-11.6655
▁palan	-11.6663
▁isisil	-11.6671
▁tolkokan	-11.6672
▁baba	-11.6672
▁qailis	-11.6678
amon	-11.6682
alakan	-11.6686
ured	-11.6706
ikvin	-11.6708
▁inai	-11.6742
▁Kas	-11.6757
pinang	-11.6775
saqdil	-11.6796
▁lehlehqatomo	-11.6796
serv	-11.6797
anah	-11.681
kisia	-11.6813
▁katsi	-11.6823
▁zas	-11.6824
biskava	-11.6825
vain	-11.6867
salaz	-11.6875
▁momola	-11.6886
ongqovali	-11.6888
▁minpa	-11.6888
inkois	-11.6892
avili	-11.6898
▁ispapatason	-11.6907
▁taka	-11.6912
▁isvaqon	-11.6913
▁zingva	-11.6913
▁taisqang	-11.6925
▁loklacon	-11.6929
▁Balay	-11.6933
hano	-11.6936
tongo	-11.6955
▁habasan	-11.6963
▁sopahan	-11.6994
sbai	-11.6994
▁soidaing	-11.6995
ties	-11.6999
▁kadangazon	-11.7
▁dais	-11.7002
▁qazo	-11.7006
▁haizan	-11.701
▁daoq	-11.7016
anhanp	-11.7022
produc	-11.703
anohoa	-11.7036
▁daqvas	-11.7046
ever	-11.7047
▁traditions	-11.7056
▁qanito	-11.7058
▁Mala	-11.7065
kvil	-11.7065
▁tokoa	-11.7066
olomah	-11.7074
▁micqang	-11.7076
▁qam	-11.7077
monsian	-11.7094
inkangna	-11.7104
isi	-11.7108
cqal	-11.7139
▁taik	-11.7141
avaz	-11.7141
▁Lu	-11.7184
▁pason	-11.7216
balivan	-11.7217
▁laq	-11.7222
osqo	-11.7223
loman	-11.7225
▁macoq	-11.7225
▁mem	-11.7229
▁babah	-11.7254
abdit	-11.727
▁lio	-11.7279
▁occ	-11.7281
▁kaoni	-11.729
ontonoh	-11.7294
oskonon	-11.7309
ohaiv	-11.7316
qaipi	-11.7325
atan	-11.7336
▁tongqovalik	-11.737
hanopan	-11.7424
lav	-11.7426
▁floo	-11.7433
▁kislao	-11.7436
isbaqaic	-11.7445
▁siqe	-11.7454
bon	-11.7483
▁Lamo	-11.7485
▁res	-11.749
dodosa	-11.7532
▁maqas	-11.7543
▁taosia	-11.7554
▁maqan	-11.7556
▁mav	-11.7565
▁mim	-11.7574
ious	-11.7585
olin	-11.7591
▁kadangazi	-11.7611
songa	-11.7622
hiav	-11.7635
kolapa	-11.764
akonko	-11.7641
qoza	-11.7642
▁tang	-11.7652
▁Tata	-11.7654
▁cake	-11.7661
▁kolot	-11.7662
▁bah	-11.7672
▁saoha	-11.7678
▁hohod	-11.768
qamaq	-11.774
▁dikla	-11.7767
onqovali	-11.7776
▁Pidia	-11.7781
dipa	-11.7801
iq	-11.7808
asaba	-11.7819
monata	-11.7823
ioq	-11.7835
paav	-11.7865
▁mod	-11.7872
zas	-11.7877
asak	-11.7892
kakan	-11.7893
▁pu	-11.7903
▁sinpat	-11.7908
bah	-11.7924
ndol	-11.7931
paonting	-11.7939
sipol	-11.7944
oncozinsa	-11.7959
▁haiz	-11.8014
▁Mahi	-11.8025
ihaan	-11.8027
▁iskanan	-11.8028
bahlo	-11.8029
▁nah	-11.8065
▁viat	-11.8067
simal	-11.8068
kakaon	-11.8069
▁kosbai	-11.8103
osoav	-11.812
pha	-11.8146
col	-11.8162
▁Masa	-11.8162
▁qao	-11.8167
cvaq	-11.8168
▁tonkao	-11.8168
▁idi	-11.8176
islo	-11.818
▁tombak	-11.8196
▁biq	-11.8214
iap	-11.8263
vaqon	-11.8282
▁dalavdav	-11.8282
daq	-11.8285
urs	-11.8293
▁ste	-11.8294
▁cla	-11.8298
▁maoq	-11.8303
▁kaida	-11.8334
ingkai	-11.8346
ohoa	-11.8351
diav	-11.837
nong	-11.8397
omi	-11.8409
od	-11.8424
▁bataq	-11.8424
▁malank	-11.8431
konan	-11.8432
▁mabont	-11.8453
▁pataz	-11.8458
vav	-11.8459
isinap	-11.848
natpo	-11.8493
kozo	-11.8499
vo	-11.8544
atpo	-11.855
▁qabasan	-11.8585
▁adi	-11.8594
▁reg	-11.8594
▁pol	-11.8606
▁toqasn	-11.8617
coqis	-11.862
sanin	-11.8622
qot	-11.8625
▁Le	-11.8627
vil	-11.8657
asmoav	-11.8665
aoqa	-11.8705
▁naco	-11.8739
ndodo	-11.8745
laihlihsapoz	-11.8765
▁Babali	-11.8775
aci	-11.8784
cozinsa	-11.8785
atosa	-11.8789
qansiapan	-11.881
lai	-11.8818
qeli	-11.8825
▁qoco	-11.8844
earn	-11.8845
▁itho	-11.8847
aqbit	-11.8857
▁dangqas	-11.8868
istrati	-11.89
piah	-11.89
lasBonon	-11.8903
naak	-11.8914
▁palaskan	-11.8916
otda	-11.8923
▁nala	-11.8936
▁tid	-11.8941
▁Taki	-11.8942
▁watche	-11.8971
▁sisz	-11.8975
▁pinma	-11.8981
okodan	-11.8994
qoqo	-11.901
zamian	-11.9017
aipa	-11.9018
▁Isian	-11.902
▁namolomaq	-11.9022
▁cont	-11.9039
▁Pis	-11.9051
▁Kalavu	-11.9118
lean	-11.9122
onlaihlihsapoz	-11.9125
ocks	-11.914
katas	-11.9172
▁mapasaq	-11.9174
tiqo	-11.9195
polaz	-11.9203
gav	-11.9207
losho	-11.9219
locbot	-11.9238
pasaqal	-11.9249
nama	-11.9265
qlo	-11.9296
lislis	-11.9318
amongan	-11.9333
onita	-11.9346
▁bing	-11.9365
pata	-11.9387
aliba	-11.9393
noomon	-11.9395
▁moa	-11.94
lisihal	-11.9405
▁topao	-11.9462
tamong	-11.9469
▁sanglavan	-11.9472
lic	-11.9478
lala	-11.9478
avai	-11.9486
dadaan	-11.9511
▁kisl	-11.9519
▁maloh	-11.952
sipa	-11.9552
bdit	-11.9563
angsi	-11.957
angna	-11.9608
▁montono	-11.9621
sosomsom	-11.9638
pas	-11.9639
azon	-11.9642
libah	-11.9648
ov	-11.965
uq	-11.9652
▁Sadoa	-11.9673
ment	-11.9685
▁kanto	-11.9696
▁Sal	-11.9775
▁mail	-11.9783
▁Di	-11.9791
siki	-11.9797
▁tastosaba	-11.9809
beat	-11.9813
▁piso	-11.9818
▁motao	-11.9831
▁Isin	-11.9834
▁tonlail	-11.9858
taao	-11.9861
▁tinonqo	-11.9921
▁qui	-11.9937
▁tata	-11.9953
kokka	-11.9974
gsi	-11.9986
▁takida	-12.0002
ciah	-12.0011
▁tonta	-12.0045
ember	-12.0073
oving	-12.0074
dangza	-12.0098
▁kozakozao	-12.0113
langan	-12.0126
aih	-12.019
ndailaz	-12.02
▁Mapi	-12.0204
▁west	-12.0213
asan	-12.0219
naq	-12.0228
4	-12.0238
sasaa	-12.0238
▁pino	-12.0244
qaibas	-12.0245
▁kiki	-12.0265
kangna	-12.032
▁malta	-12.0323
▁sinlo	-12.0335
▁pres	-12.038
saikin	-12.0388
▁sinsa	-12.0393
ahavon	-12.0401
nkokoza	-12.0458
pay	-12.0482
kadazo	-12.0513
▁tanap	-12.053
haqo	-12.055
qaolan	-12.056
▁kalav	-12.0564
▁moon	-12.0577
▁bicokbic	-12.0577
rr	-12.0601
ear	-12.0606
andii	-12.0626
▁Namodani	-12.065
qonan	-12.0661
ova	-12.0662
hoza	-12.0679
ail	-12.0688
▁organi	-12.0693
libonto	-12.0699
▁soh	-12.0715
poz	-12.0731
▁Unti	-12.0738
nliva	-12.0739
imaq	-12.0752
Ing	-12.076
ompi	-12.0785
ngsi	-12.0802
▁monica	-12.081
▁taoi	-12.0829
▁qaqti	-12.0834
todoldol	-12.0863
isan	-12.0866
▁maposanhanta	-12.0872
ries	-12.0878
sSobali	-12.0887
mpi	-12.0891
balivos	-12.0916
vaso	-12.0919
antonghaz	-12.0921
qabin	-12.0923
maona	-12.0937
voc	-12.0958
mind	-12.0963
sohaisa	-12.0982
▁iok	-12.0995
▁su	-12.1027
▁loca	-12.1029
aopin	-12.1076
tani	-12.1078
asaipok	-12.1079
▁Tangosa	-12.1096
ab	-12.1112
ingalan	-12.1113
isoni	-12.1116
diah	-12.1124
tatdiq	-12.1126
comin	-12.1126
ohos	-12.1139
angko	-12.1139
ngzavin	-12.1145
▁mohazi	-12.1152
original	-12.1192
▁Kaha	-12.1195
haiza	-12.1214
dingalan	-12.1233
▁taina	-12.1258
▁aboqan	-12.1264
▁minsa	-12.1275
▁napin	-12.1282
aipon	-12.1286
▁kik	-12.1288
▁koko	-12.1297
baba	-12.1308
soma	-12.1318
inap	-12.133
▁macina	-12.1345
▁pisbaqa	-12.1354
▁qata	-12.1355
hodan	-12.1364
mabaliva	-12.1366
▁Toto	-12.1373
▁Tonlaihlih	-12.1376
▁imp	-12.1377
Alim	-12.1382
nos	-12.1386
sibotbot	-12.1396
▁malqa	-12.142
late	-12.1444
istabah	-12.1448
okain	-12.1456
▁pishai	-12.1469
posan	-12.1478
▁sinpala	-12.1479
▁moboszi	-12.1494
▁icpapat	-12.1519
qoon	-12.1533
coqais	-12.154
kotoh	-12.1543
anhanta	-12.1544
ainsanancin	-12.1547
▁kakoson	-12.1594
anoaz	-12.1597
▁kaido	-12.1606
noom	-12.1607
naoaz	-12.1612
▁Nic	-12.1622
imolmol	-12.1623
▁lani	-12.1649
lmindo	-12.1652
▁coo	-12.1657
ngabin	-12.1672
kitngaa	-12.1677
laihlih	-12.1686
mapinsia	-12.1689
qaihav	-12.1693
hanimolmolan	-12.1697
nadipin	-12.1698
old	-12.1703
laongkavin	-12.1706
▁lado	-12.1713
▁dosasaba	-12.173
▁pisqai	-12.174
sinapon	-12.1745
▁stre	-12.1746
hansiap	-12.175
kazhav	-12.1751
▁pini	-12.1762
paqosil	-12.1763
mavilis	-12.1764
talbonto	-12.1765
makazkaz	-12.1765
patilacan	-12.1765
patohavit	-12.1765
sivazon	-12.1766
vovoqvoq	-12.1766
Taoloo	-12.1766
tapaha	-12.1766
swelled	-12.1767
sozainsia	-12.1767
laqming	-12.1768
didingalan	-12.1768
qansaipon	-12.1768
maidosa	-12.1769
tiqoc	-12.177
matiqav	-12.1771
saolok	-12.1771
pishasibang	-12.1772
linaoqoc	-12.1773
tosqang	-12.1775
madanghas	-12.1776
makoacona	-12.1778
papando	-12.1779
oknav	-12.1779
mahos	-12.178
taiklas	-12.178
hot	-12.1781
mahavon	-12.1781
tonbaso	-12.1782
qlis	-12.1782
pistaba	-12.1783
mongi	-12.1783
iviv	-12.1783
tatanson	-12.1785
tokias	-12.1786
tisqot	-12.1789
panha	-12.1792
mapaloszang	-12.1792
sokoi	-12.1798
cindon	-12.18
Hey	-12.18
totosvali	-12.1806
taongho	-12.1812
qaltic	-12.1817
▁seek	-12.1819
▁adv	-12.182
taldaqvas	-12.1822
tanhiko	-12.1828
padangi	-12.1832
Un	-12.1833
kozakoza	-12.1834
maposq	-12.1834
lovlov	-12.1842
mataok	-12.1844
tokiso	-12.1844
qinanop	-12.1844
moslo	-12.1844
bilva	-12.1844
Lipon	-12.1845
mazmaz	-12.1845
namonhan	-12.1846
bisokbisok	-12.1846
alty	-12.1846
vaqlac	-12.1846
belong	-12.1847
lingva	-12.1847
loklas	-12.1849
qesing	-12.185
dahvian	-12.185
malaitaz	-12.185
with	-12.1851
talmaindo	-12.1855
laihlihpokpok	-12.1858
kaka	-12.1861
qai	-12.1862
milolo	-12.1868
qamisan	-12.187
bank	-12.1875
Ibi	-12.1876
L	-12.1876
Ngaingai	-12.188
mapotis	-12.188
minihomis	-12.1882
kadi	-12.1882
sepok	-12.1882
trans	-12.1883
lovoc	-12.1884
manangqat	-12.1885
qabang	-12.1887
molomaq	-12.1887
tostos	-12.1888
ismoot	-12.1888
patazon	-12.189
isdamo	-12.189
tosasaos	-12.1893
maca	-12.1897
lihai	-12.1897
baino	-12.1897
bonol	-12.1899
brew	-12.19
lingqaol	-12.19
mapasiza	-12.19
mavala	-12.1901
songqaqaol	-12.1901
U	-12.1903
madavoc	-12.1903
▁Dut	-12.1903
nanii	-12.1904
mahao	-12.1904
monkako	-12.1906
qomah	-12.1913
kavivila	-12.1913
inpico	-12.1914
tonlaihlih	-12.1914
mamantok	-12.1915
masmoq	-12.1915
linoqos	-12.1916
Pu	-12.1916
losqa	-12.1916
vovohvoh	-12.1918
saitan	-12.1918
matahdong	-12.1918
cinhozaon	-12.1918
tompo	-12.1918
maqmot	-12.1921
taontaon	-12.1922
Who	-12.1923
kokoav	-12.1923
hikoki	-12.1925
macoaz	-12.1925
taskon	-12.1927
daqdaq	-12.1928
lasasing	-12.1928
maltatala	-12.1929
madavos	-12.1929
kacaw	-12.1929
Abos	-12.1931
siva	-12.1931
▁nais	-12.1931
tasban	-12.1932
talmadia	-12.1932
daokdaoka	-12.1933
oloq	-12.1934
isnanavan	-12.1935
Aopa	-12.1935
qazam	-12.1937
qaimangsot	-12.1939
hunting	-12.1939
Taichung	-12.194
ngolos	-12.194
know	-12.194
bantas	-12.194
possible	-12.1941
islonghoan	-12.1941
islonghoin	-12.1942
siniza	-12.1942
haimangsot	-12.1943
coi	-12.1943
This	-12.1944
pinilomah	-12.1944
hiko	-12.1944
hodaspingaz	-12.1945
because	-12.1945
minqamisan	-12.1946
binanao	-12.1947
ngabol	-12.1947
painsanan	-12.1948
Manias	-12.1948
miqomicang	-12.1948
otovai	-12.1948
Mavia	-12.1948
osado	-12.1948
uhm	-12.1948
haqil	-12.1948
children	-12.1949
just	-12.1949
two	-12.195
front	-12.1951
mountain	-12.1951
Asa	-12.1951
Why	-12.1952
maibabo	-12.1952
We	-12.1952
pangkaka	-12.1952
His	-12.1952
mapahainan	-12.1953
tamako	-12.1953
hamisan	-12.1953
maipati	-12.1953
kalala	-12.1953
pandian	-12.1954
▁istin	-12.1954
pangka	-12.1954
Daho	-12.1954
qalinga	-12.1955
naoba	-12.1955
aingai	-12.1956
samang	-12.1956
mapishaiap	-12.1956
laopako	-12.1956
toqasnanaz	-12.1958
part	-12.1959
cinpising	-12.1959
aplaq	-12.1959
kokai	-12.196
masoaz	-12.196
masitoqas	-12.196
lohom	-12.1961
hazam	-12.1962
Pot	-12.1963
Du	-12.1963
kids	-12.1964
todiip	-12.1964
Are	-12.1965
libos	-12.1966
tingting	-12.1967
Topa	-12.1968
maqav	-12.1969
davaz	-12.1969
motaq	-12.197
manaskal	-12.197
iasoi	-12.197
kanadan	-12.1971
macial	-12.1971
wa	-12.1975
vanis	-12.1976
minang	-12.1978
raining	-12.1979
mahima	-12.1979
mocoqais	-12.1984
called	-12.1984
sipolon	-12.1987
tokoc	-12.1989
coii	-12.1991
qaqanop	-12.1991
pid	-12.1992
▁Avan	-12.1998
bazo	-12.2
▁tanb	-12.2001
hanop	-12.2001
alido	-12.2001
smell	-12.2004
du	-12.2005
gently	-12.2006
tatao	-12.2008
sangan	-12.201
oqbong	-12.2012
▁malsi	-12.2013
vanaqan	-12.2016
qam	-12.2016
▁Inaa	-12.2019
▁Malkapi	-12.2021
kalat	-12.2024
G	-12.2025
tido	-12.2031
niap	-12.2032
kahaningo	-12.2033
mahiav	-12.2034
lovlovan	-12.2034
eration	-12.2034
mindangaz	-12.2039
anbongo	-12.2041
bokzavan	-12.2043
palihansiap	-12.2046
daiza	-12.2048
tolkokan	-12.2049
manis	-12.205
mahol	-12.2056
tomato	-12.2058
lokis	-12.2066
vaqa	-12.2073
ispaka	-12.2077
kotonin	-12.2094
pound	-12.2098
Maopa	-12.2103
tasto	-12.2103
qtong	-12.2111
▁sifte	-12.2112
tahoan	-12.2113
todip	-12.2118
anqan	-12.2121
maqa	-12.2124
ntonton	-12.2136
kodi	-12.2138
laoqa	-12.2141
▁aingqai	-12.2142
Ka	-12.2142
tional	-12.2142
maqon	-12.2149
ispa	-12.2159
qanian	-12.2162
qaso	-12.2165
sinpava	-12.2166
▁bainolai	-12.2168
aiz	-12.217
they	-12.2175
maopat	-12.2176
singing	-12.2183
vanaq	-12.2184
ift	-12.2186
▁Kana	-12.2187
please	-12.2189
▁mabaliva	-12.2189
tangaos	-12.219
ngzin	-12.2193
nkisia	-12.2206
call	-12.2211
hive	-12.2212
qancep	-12.2222
▁daolo	-12.2228
inter	-12.2228
Tai	-12.2238
talim	-12.2241
tonqato	-12.2243
▁movi	-12.2245
ook	-12.2245
took	-12.2249
▁east	-12.226
▁masina	-12.2261
mohi	-12.2264
rge	-12.2267
▁Malongk	-12.227
iskan	-12.2273
▁mesh	-12.228
qaising	-12.2281
inmas	-12.2282
pingaz	-12.2287
tanbona	-12.2289
Doo	-12.2293
cam	-12.2303
▁mapisih	-12.2306
▁bot	-12.2307
kankan	-12.2308
tishaqo	-12.2309
loang	-12.2315
ahoa	-12.2317
▁manka	-12.232
loo	-12.2323
monlomaq	-12.2324
daik	-12.2326
inmot	-12.2329
sadoan	-12.2331
On	-12.2335
kola	-12.2336
skonon	-12.2343
indigenous	-12.2353
▁cinp	-12.2364
amina	-12.2366
hlis	-12.2371
Ta	-12.2374
omanon	-12.2378
move	-12.2383
haliv	-12.2385
malala	-12.2386
▁iovin	-12.2388
ngingi	-12.2388
hasia	-12.2391
this	-12.2397
boy	-12.24
▁mapalma	-12.2407
▁tisqa	-12.2443
akihaan	-12.2444
davoc	-12.2446
aizaan	-12.2452
qaitmal	-12.2454
malasbonon	-12.2459
pitdia	-12.2465
▁Namaq	-12.2467
iz	-12.2479
onglai	-12.2486
▁matoko	-12.2498
mosoqais	-12.2509
ashailang	-12.2516
▁naminha	-12.2536
she	-12.2537
tonda	-12.2545
ongkav	-12.2546
odoli	-12.2549
tinian	-12.2563
aoman	-12.2569
Ala	-12.2573
▁iahlo	-12.2579
miss	-12.2597
▁maqe	-12.2601
gia	-12.2608
maltala	-12.262
malasBonon	-12.2631
▁Pul	-12.2632
▁sisil	-12.2635
sidi	-12.264
okao	-12.2644
haiz	-12.265
maposan	-12.265
pao	-12.2666
hna	-12.2674
▁Malong	-12.268
cionin	-12.2688
soso	-12.2692
▁din	-12.2694
▁Tonlehleh	-12.2696
ize	-12.27
▁ciq	-12.2705
taik	-12.2709
▁haal	-12.2724
ombo	-12.2726
andailaz	-12.2729
▁Maoqna	-12.273
▁tangi	-12.2739
ishes	-12.2762
idoan	-12.2777
▁kakal	-12.2785
isqaqai	-12.279
maza	-12.2798
tinaon	-12.2804
▁mapacing	-12.2811
▁tik	-12.2826
▁listo	-12.2828
▁mavili	-12.2835
▁Asaon	-12.2842
paspas	-12.2846
▁paqaqai	-12.2847
sopahan	-12.2855
▁pancan	-12.2863
ainan	-12.2878
▁mahac	-12.2889
▁paip	-12.2894
mat	-12.2906
oqaison	-12.2908
he	-12.2908
ments	-12.2928
▁Masmotin	-12.2937
▁Maontin	-12.295
pasnanavaan	-12.295
▁makin	-12.2953
onadiipin	-12.2955
ngai	-12.2956
▁tinos	-12.2965
baqaic	-12.2971
emp	-12.2986
altala	-12.2992
tmal	-12.3003
idii	-12.3015
▁Mach	-12.3017
▁namol	-12.3018
dipin	-12.302
▁Panha	-12.3021
hahainan	-12.3021
▁patanto	-12.3031
nonan	-12.3032
gal	-12.3035
▁maim	-12.3037
▁tibo	-12.3043
▁Sihala	-12.3044
takt	-12.3048
▁Se	-12.3052
sasaos	-12.3052
▁dr	-12.3059
▁qoda	-12.3062
nhahapav	-12.3065
ngangaos	-12.307
balivosan	-12.3072
▁thi	-12.3076
▁mabal	-12.3077
madaozong	-12.3092
▁maanso	-12.3092
▁hanin	-12.3096
snanava	-12.3107
▁kavai	-12.3109
▁nitomak	-12.311
▁Mot	-12.3113
▁del	-12.3115
▁matala	-12.3117
olongo	-12.3117
▁bicokbi	-12.3122
momoot	-12.3132
ration	-12.3132
▁Madav	-12.3134
▁papto	-12.3144
▁namapiko	-12.3147
daqvasin	-12.315
ibotbot	-12.3151
saolva	-12.3158
▁sinpaci	-12.3168
▁kaihans	-12.3173
cingmot	-12.3175
▁maisina	-12.3177
painta	-12.3178
▁babali	-12.3178
▁panpo	-12.318
lect	-12.3181
longho	-12.3181
ually	-12.3182
matakonav	-12.3183
▁Kaman	-12.319
pology	-12.3194
▁masohisi	-12.3198
offe	-12.3198
▁Manta	-12.32
bed	-12.3202
Lap	-12.3202
ingavon	-12.3203
pongol	-12.3204
▁namoso	-12.3204
▁masisina	-12.3208
ltopat	-12.321
▁kamamakaz	-12.321
▁palka	-12.3211
tnol	-12.3212
▁qomic	-12.3213
ntalam	-12.3216
▁sintoqomi	-12.3217
▁pisbaqi	-12.3218
oqsa	-12.322
▁guava	-12.3223
▁noba	-12.3226
▁aok	-12.3231
▁linoqo	-12.3232
angka	-12.3233
bic	-12.3233
qoh	-12.3238
▁masoqai	-12.3239
▁makama	-12.324
sBonon	-12.3242
▁kaiha	-12.3242
parent	-12.3247
hanimolmol	-12.3252
▁Hoda	-12.3253
▁minkaila	-12.3254
isaisa	-12.3255
▁Talmadi	-12.3255
asibang	-12.3256
maimaon	-12.3257
▁haongo	-12.326
aqdotan	-12.3262
sue	-12.3263
▁Tana	-12.3264
laqnot	-12.3268
▁islab	-12.3268
izi	-12.3269
▁sinpo	-12.3269
dahvi	-12.3269
paidan	-12.3269
lam	-12.327
crat	-12.3275
▁mapikoa	-12.3276
ntataiv	-12.3277
rying	-12.3277
pishaiap	-12.3278
▁Pidai	-12.3278
▁Yu	-12.3279
▁hahai	-12.3279
asomsom	-12.328
rinking	-12.328
▁minsanav	-12.3281
ipolon	-12.3281
▁somsom	-12.3283
▁kandapa	-12.3285
▁dadangi	-12.3285
longhoin	-12.3288
mangsot	-12.3289
poda	-12.329
pasavai	-12.3291
▁inkadoa	-12.3291
maszangan	-12.3291
▁pandai	-12.3293
cozins	-12.3293
ozong	-12.3294
malasBon	-12.3295
ully	-12.3295
mit	-12.3296
▁monsia	-12.3298
▁mosko	-12.3298
sipia	-12.3298
paliskada	-12.3299
▁takisilaza	-12.3299
danga	-12.3303
▁zak	-12.3304
▁kaononkaono	-12.3304
kahnaa	-12.3304
ingmota	-12.3305
▁Mahaiv	-12.3305
▁indic	-12.3305
▁malasbono	-12.3305
▁Masnanav	-12.3305
kadoan	-12.3307
▁misho	-12.3308
▁painliva	-12.3309
▁Kinoz	-12.3309
ngnada	-12.3311
▁mopos	-12.3312
rib	-12.3312
▁painl	-12.3314
▁gam	-12.3314
▁kaosia	-12.3315
▁Lipo	-12.3315
itvaqan	-12.3315
qolpiq	-12.3315
▁diqani	-12.3315
tokolaaz	-12.3315
taishang	-12.3315
saningsing	-12.3316
danghas	-12.3316
▁katoka	-12.3316
daimpos	-12.3316
liliskin	-12.3316
▁mavo	-12.3316
nangqat	-12.3317
▁tonlaihl	-12.3317
sitohas	-12.3317
toqtoq	-12.3318
▁piskakazha	-12.3318
hosbo	-12.3319
gqo	-12.3319
mozin	-12.332
▁isqaqa	-12.332
▁kadip	-12.332
taongq	-12.3321
▁search	-12.3321
▁tattin	-12.3322
ckoinin	-12.3322
klangan	-12.3323
untie	-12.3324
▁kanada	-12.3325
tondaq	-12.3325
▁disappear	-12.3325
▁societ	-12.3325
▁bosolkav	-12.3325
Lam	-12.3325
nisbi	-12.3326
sipaton	-12.3326
ngaosang	-12.3327
aokdaoka	-12.3327
spapatas	-12.3327
▁pask	-12.3328
mingmi	-12.3328
cisbai	-12.3329
uilding	-12.333
akoacona	-12.333
qomis	-12.333
▁tib	-12.3331
naipok	-12.3332
▁Qanci	-12.3333
▁babal	-12.3333
ihailaz	-12.3333
▁sinpali	-12.3334
▁Commi	-12.3334
▁Ever	-12.3335
anpopo	-12.3335
▁makaih	-12.3336
ainok	-12.3336
un	-12.3336
equa	-12.3337
▁Miqomic	-12.3337
▁podan	-12.3339
sisipol	-12.3339
▁patisha	-12.334
▁ispalha	-12.334
indoldola	-12.334
doqlac	-12.3341
ummer	-12.3341
daokang	-12.3341
mangdav	-12.3342
▁kap	-12.3342
daqvis	-12.3342
obanan	-12.3342
▁madadaing	-12.3342
hovaiv	-12.3343
▁panmang	-12.3343
aihlihsapoz	-12.3343
atahosngi	-12.3343
ffice	-12.3343
tobai	-12.3344
asinoba	-12.3344
igani	-12.3344
anamboq	-12.3344
zakoza	-12.3344
▁masitoqa	-12.3344
Thaya	-12.3345
micang	-12.3345
dodoaz	-12.3345
▁laihlai	-12.3345
isokbisok	-12.3345
ransition	-12.3346
almaindoo	-12.3346
▁tamoho	-12.3346
ruth	-12.3346
▁isqaqesq	-12.3346
nhahap	-12.3346
▁qatibin	-12.3346
orrid	-12.3346
▁namohna	-12.3346
imoqos	-12.3347
npongolan	-12.3347
izakbizak	-12.3347
▁neighbo	-12.3347
nciah	-12.3347
▁piha	-12.3347
▁sintosao	-12.3348
▁linaoqo	-12.3348
aitacan	-12.3349
macisba	-12.3349
akangkang	-12.3349
mocqot	-12.3349
divid	-12.3349
tanaqtaq	-12.3349
malasTa	-12.3349
▁mamanto	-12.3349
aodaniv	-12.335
▁flow	-12.335
anguages	-12.335
sahaal	-12.335
daongk	-12.335
elcome	-12.335
▁ismomo	-12.335
makand	-12.3351
▁vegeta	-12.3351
itchen	-12.3351
▁moqo	-12.3351
totongqovali	-12.3351
▁Japan	-12.3351
dangkolan	-12.3351
liskinan	-12.3351
▁treat	-12.3351
▁Bun	-12.3351
vtaiv	-12.3351
▁reconcil	-12.3351
oanlaihl	-12.3351
*	-12.3351
ographi	-12.3351
。	-12.3351
三	-12.3351
位	-12.3351
沒	-12.3351
maonmaon	-12.3351
nkalkal	-12.3351
ticipate	-12.3351
aqailqai	-12.3351
rase	-12.3351
dodoot	-12.3351
▁paotpa	-12.3351
我	-12.3351
tolom	-12.3351
▁moloma	-12.3351
▁Palka	-12.3351
alipoa	-12.3351
▁commi	-12.3351
olaii	-12.3352
intatako	-12.3352
▁bononsido	-12.3352
▁isqaqe	-12.3352
▁stri	-12.3352
see	-12.3352
nmazav	-12.3352
tototot	-12.3352
hilon	-12.3352
iniqaiban	-12.3353
▁loqe	-12.3353
▁tamp	-12.3353
poc	-12.3353
epai	-12.3353
pintata	-12.3353
asabaq	-12.3353
anangqa	-12.3353
tozika	-12.3353
▁fru	-12.3354
▁Ngai	-12.3354
▁cult	-12.3354
aizong	-12.3354
mocq	-12.3354
▁ancest	-12.3354
▁maqancia	-12.3354
aptoh	-12.3354
aldidi	-12.3355
iahci	-12.3355
uff	-12.3355
▁mabis	-12.3355
tohtoh	-12.3355
inqainano	-12.3356
▁isbabaz	-12.3356
haizo	-12.3356
▁sisip	-12.3357
almimi	-12.3357
gsotan	-12.3357
asanbot	-12.3357
incon	-12.3357
lahci	-12.3357
vesti	-12.3357
acaoqais	-12.3358
▁pur	-12.3358
▁imper	-12.3358
▁resp	-12.3358
▁kociosin	-12.3359
aoma	-12.3359
▁papi	-12.3359
▁taoqt	-12.3359
koskos	-12.336
▁coqaisi	-12.336
▁pacinga	-12.336
scu	-12.336
Cha	-12.336
anbao	-12.336
▁kamama	-12.336
tamal	-12.3361
qaong	-12.3361
▁Lau	-12.3361
▁sus	-12.3361
▁talmin	-12.3361
▁piniza	-12.3361
pikoa	-12.3361
asipat	-12.3361
ngianan	-12.3361
▁slow	-12.3362
tomanto	-12.3364
aizak	-12.3364
apando	-12.3364
▁mocoqa	-12.3364
vide	-12.3364
Tu	-12.3364
rtic	-12.3364
iiapan	-12.3364
padao	-12.3365
▁Tonlehlehq	-12.3365
khiva	-12.3365
isisia	-12.3365
zaipoq	-12.3367
][	-12.3367
▁ispaqo	-12.3367
inonas	-12.3367
▁mapiq	-12.3367
▁roo	-12.3367
ordin	-12.3368
›	-14.6599
X	-14.66
Z	-14.6601
6	-14.6602
J	-14.6603
\	-14.6604
3	-14.6605
F	-14.6606
$	-14.6607
R	-14.6608
V	-14.6609
E	-14.661
Q	-14.6611
(	-14.6612
Y	-14.6613
B	-14.6614
H	-14.6615
