<pad>	0
<unk>	0
<s>	0
</s>	0
<2dru>	0
<2zh>	0
▁	-1.59808
.	-3.67134
,	-3.71622
。	-3.72735
?	-4.2574
'	-4.28848
▁ko	-4.42633
▁ka	-4.44342
▁ki	-4.49442
a	-4.70352
的	-4.89106
o	-5.03312
▁kay	-5.1006
nga	-5.13961
i	-5.22361
▁la	-5.32627
e	-5.34008
▁si	-5.404
li	-5.42751
so	-5.47094
ka	-5.47755
ta	-5.53445
▁'	-5.59762
▁lo	-5.60149
!	-5.681
la	-5.74155
▁ta	-5.75553
▁ma	-5.77387
▁na	-5.77584
是	-5.86692
ko	-5.883
嗎	-5.90263
了	-5.95141
▁kai	-6.01568
我	-6.05764
dra	-6.10125
▁sa	-6.10564
▁wa	-6.15867
要	-6.16947
na	-6.19358
ni	-6.20924
ane	-6.21962
有	-6.22054
在	-6.2319
ini	-6.25549
ma	-6.25629
lri	-6.25692
▁pa	-6.30264
ng	-6.30865
ki	-6.32653
pa	-6.34826
lra	-6.35289
ra	-6.36794
-	-6.39256
va	-6.40719
si	-6.42036
▁你	-6.42365
▁so	-6.42765
不	-6.44003
da	-6.44018
sa	-6.45224
ba	-6.45425
我們	-6.46073
ne	-6.48088
dha	-6.50055
、	-6.52717
le	-6.53251
你	-6.54442
▁to	-6.56686
lo	-6.63179
y	-6.63908
▁laso	-6.63981
bo	-6.68179
他	-6.69642
nai	-6.71595
會	-6.72754
說	-6.73604
就	-6.75223
mo	-6.75505
se	-6.76224
▁mwa	-6.76629
ya	-6.76661
▁lri	-6.76842
w	-6.78806
來	-6.79312
wa	-6.79513
nge	-6.80529
一	-6.81734
ke	-6.82154
re	-6.82185
到	-6.84368
▁我	-6.86808
▁mado	-6.86841
▁ai	-6.86842
▁mo	-6.87096
時	-6.87847
去	-6.89067
lro	-6.89097
很	-6.90625
to	-6.91073
好	-6.9129
人	-6.92575
ro	-6.92731
▁他	-6.95386
和	-7.01003
n	-7.01231
ca	-7.01486
kai	-7.02889
kay	-7.03813
上	-7.05217
吃	-7.06429
子	-7.07071
▁kwi	-7.07429
lre	-7.07995
沒有	-7.08094
ri	-7.08556
用	-7.08569
te	-7.10605
iya	-7.11221
▁yakai	-7.11803
▁kikay	-7.12418
ci	-7.13199
mi	-7.13418
▁maka	-7.14238
;	-7.14748
me	-7.16131
對	-7.18099
▁nomi	-7.19509
大	-7.19567
ngo	-7.19921
ce	-7.20501
bi	-7.22514
▁"	-7.24194
do	-7.25252
be	-7.25738
ina	-7.27712
▁nay	-7.28032
水	-7.28485
他們	-7.28609
po	-7.29509
r	-7.2958
把	-7.29697
pe	-7.29851
做	-7.29951
kane	-7.29997
co	-7.30906
pi	-7.31178
▁no	-7.31473
▁amani	-7.31553
ngi	-7.31924
▁moa	-7.32588
:「	-7.32625
ti	-7.33814
看	-7.34624
k	-7.3598
/	-7.36207
被	-7.38233
dro	-7.39239
叫	-7.39555
ge	-7.39569
tha	-7.40207
gi	-7.41025
thi	-7.41419
ana	-7.41424
▁ikai	-7.41457
▁twa	-7.41719
都	-7.42672
dre	-7.42944
也	-7.43497
可以	-7.43668
▁iya	-7.43939
vi	-7.44236
▁我們	-7.45057
ho	-7.46407
▁malra	-7.47198
▁ala	-7.48178
在哪裡	-7.48278
▁taka	-7.48395
她	-7.48799
l	-7.49322
▁kwani	-7.49839
ga	-7.50097
下	-7.50125
部落	-7.53449
no	-7.53459
go	-7.54156
帶	-7.54266
▁swa	-7.54605
地	-7.54786
▁mani	-7.55066
這	-7.55472
the	-7.56038
ako	-7.56786
▁iké	-7.56813
著	-7.56819
拿	-7.57305
家	-7.57704
我的	-7.58477
▁那	-7.59301
s	-7.59986
kɨ	-7.60008
▁po	-7.60618
ha	-7.60738
▁koini	-7.61269
lay	-7.61871
那	-7.62461
ve	-7.62595
▁lra	-7.62943
走	-7.62987
nomi	-7.63045
lane	-7.63546
aka	-7.64098
ae	-7.6526
ngane	-7.65501
t	-7.65967
天	-7.66221
lrao	-7.6735
▁ama	-7.67587
he	-7.6869
小	-7.69491
的時候	-7.70428
ino	-7.70541
▁你們	-7.7089
打	-7.70908
:	-7.71194
ké	-7.71472
▁tara	-7.71731
▁sana	-7.72667
▁ani	-7.72952
ai	-7.72985
mao	-7.73332
de	-7.74278
di	-7.74728
▁paka	-7.74946
▁aliso	-7.75022
老師	-7.75313
olo	-7.75998
▁kwini	-7.76061
什麼	-7.76573
。」	-7.78121
後	-7.78237
▁amo	-7.78256
m	-7.78533
kwa	-7.79039
開	-7.79149
工作	-7.79224
▁kodra	-7.79535
▁kake	-7.79877
▁apa	-7.80072
為	-7.80253
山	-7.8039
小米	-7.80564
給	-7.80618
vo	-7.81014
不要	-7.81734
呢	-7.81868
多	-7.82202
▁ikay	-7.83688
▁idra	-7.84209
▁lro	-7.84289
▁yai	-7.84554
過	-7.84839
p	-7.8555
長	-7.86601
▁ni	-7.86935
▁cekele	-7.8779
年	-7.87919
▁kya	-7.88027
裡	-7.88197
的人	-7.88475
再	-7.888
c	-7.89005
dri	-7.89009
cɨ	-7.89574
中	-7.89673
頭	-7.89716
▁yakay	-7.89784
很多	-7.90039
▁kavay	-7.90051
想	-7.90244
從	-7.90963
ange	-7.91171
hi	-7.91233
▁toramoro	-7.91511
▁這	-7.92291
tho	-7.92609
買	-7.9261
▁madha	-7.9261
你們	-7.93048
▁tai	-7.93522
▁daane	-7.93718
朋友	-7.94111
自己	-7.94175
心	-7.9423
yo	-7.9445
手	-7.96072
還	-7.96659
▁madalame	-7.97371
▁ti	-7.98103
▁ina	-7.98393
▁kɨkɨ	-7.99199
▁pwa	-7.99741
▁她	-7.99787
而	-8.00099
▁mathariri	-8.00574
▁那是	-8.01579
吧	-8.02182
▁這是	-8.028
得	-8.04497
b	-8.04579
v	-8.05048
ili	-8.05652
ele	-8.06111
出	-8.06609
煮	-8.06765
就會	-8.07029
sɨ	-8.07716
iyakay	-8.07728
所以	-8.08215
▁kini	-8.08732
當	-8.09363
lɨ	-8.09551
放	-8.09741
"	-8.10255
▁sinsi	-8.10321
喜歡	-8.10653
sane	-8.11168
一個	-8.11203
▁aki	-8.1166
lini	-8.11695
lai	-8.12127
u	-8.12635
種	-8.12883
▁kwadra	-8.12956
▁ana	-8.1383
▁angato	-8.14176
這個	-8.14185
▁asi	-8.14304
起來	-8.14546
生	-8.15005
們	-8.15206
成	-8.15296
apa	-8.15533
asa	-8.15636
▁singsi	-8.15757
不能	-8.15957
▁ya	-8.16359
ao	-8.16401
作	-8.16713
米	-8.16925
分	-8.17621
▁makalra	-8.17881
ono	-8.17938
樹	-8.18427
讓	-8.18686
toko	-8.1869
▁ngi	-8.18899
先	-8.19229
▁eene	-8.19932
▁你的	-8.20157
「	-8.20391
lray	-8.20416
▁dhona	-8.20495
tɨ	-8.21032
mɨ	-8.21142
oa	-8.21183
衣服	-8.21583
▁A	-8.21821
▁kela	-8.21853
他的	-8.21883
▁kadrwa	-8.21891
▁manemane	-8.22085
swa	-8.22241
▁ngia	-8.22728
elre	-8.22787
▁arakay	-8.23223
▁mia	-8.23743
ali	-8.2384
一起	-8.24314
▁gako	-8.24409
mwa	-8.24521
名	-8.25301
風	-8.26092
不會	-8.26487
花	-8.27118
愛	-8.27158
已經	-8.27273
dho	-8.27408
."	-8.27525
▁ino	-8.2753
掉	-8.27594
不是	-8.27801
但是	-8.27876
▁amia	-8.28077
跟	-8.28208
▁laka	-8.28223
mita	-8.28394
然後	-8.28499
快	-8.28642
現在	-8.28658
所	-8.28694
mado	-8.28849
菜	-8.28914
魯凱族	-8.29389
將	-8.29878
為什麼	-8.30252
草	-8.30421
ete	-8.30821
▁我的	-8.31081
▁這個	-8.31094
我要	-8.31283
又	-8.31543
tomane	-8.31565
▁saka	-8.31924
kela	-8.31949
ay	-8.32062
使	-8.32246
lraw	-8.32535
▁nagane	-8.32606
小孩	-8.32611
▁kane	-8.33052
因為	-8.33258
▁aga	-8.33325
怎麼	-8.33467
聽	-8.33562
等	-8.3435
魚	-8.34352
alra	-8.3458
非常	-8.34783
▁vavalake	-8.34959
lisi	-8.35036
▁t	-8.35277
你的	-8.36122
學	-8.36149
請	-8.36195
law	-8.36334
nay	-8.36391
最	-8.36837
▁amiya	-8.36891
▁poa	-8.37109
kalra	-8.3744
nane	-8.37658
洗	-8.37673
力	-8.37858
mane	-8.38077
很好	-8.38105
▁naw	-8.3832
ngɨ	-8.38761
▁kaivai	-8.38768
狗	-8.38995
drosa	-8.39371
vane	-8.39496
▁ababay	-8.39514
▁palrapalra	-8.39703
▁kaykameane	-8.39786
火	-8.39906
ala	-8.40043
▁pi	-8.40463
才	-8.40761
lrima	-8.41085
▁m	-8.41109
▁tako	-8.41372
▁kné	-8.4155
學校	-8.41556
ava	-8.41946
▁不要	-8.42133
我們的	-8.42389
常	-8.4259
▁tama	-8.42607
ata	-8.42892
看到	-8.42908
lala	-8.42931
大家	-8.4295
是誰	-8.42993
tolro	-8.43087
高	-8.43212
tolo	-8.43387
dolro	-8.43401
我們要	-8.43468
之	-8.4352
lé	-8.4352
rane	-8.43654
palra	-8.43863
錢	-8.43999
可	-8.44
▁lavavalake	-8.4404
及	-8.4404
這裡	-8.44376
的地方	-8.45154
kaw	-8.45339
一直	-8.45387
ikay	-8.45647
colo	-8.46001
▁wathingale	-8.4609
▁aso	-8.46332
▁taki	-8.46343
▁sya	-8.46505
名字	-8.46795
▁kwa	-8.46919
酒	-8.47131
與	-8.47259
▁ngo	-8.47323
dria	-8.47359
▁omi	-8.47464
toma	-8.47845
▁p	-8.48306
▁今天	-8.48362
ale	-8.48369
跳舞	-8.48586
za	-8.48963
別	-8.49141
mani	-8.49265
別人	-8.49334
mia	-8.49406
▁aci	-8.49472
▁taw	-8.49482
動	-8.49817
bɨ	-8.49943
▁nyani	-8.50105
喝	-8.50589
下雨	-8.50998
背	-8.5103
▁alra	-8.51066
以	-8.51167
這樣	-8.51283
點	-8.51348
▁iniane	-8.51662
▁vai	-8.51743
▁solate	-8.51823
▁La	-8.51849
ikai	-8.52008
ɨ	-8.52102
▁dreele	-8.5238
▁omiki	-8.52382
老	-8.52485
玩	-8.5262
angi	-8.52945
地瓜	-8.5326
ene	-8.5327
▁kadrowa	-8.53419
▁nakwane	-8.53442
owa	-8.53589
東西	-8.53631
▁madro	-8.53708
1	-8.53966
aw	-8.54235
olri	-8.54434
mai	-8.54455
dhane	-8.54514
▁koidra	-8.54594
我是	-8.54612
事	-8.5465
祭	-8.54729
zoko	-8.5481
物	-8.55384
▁malisi	-8.5586
向	-8.56156
好嗎	-8.56191
回家	-8.56634
太	-8.56782
siya	-8.5696
互相	-8.57202
▁moso	-8.57661
太陽	-8.57724
男	-8.5789
bolro	-8.58209
ano	-8.58244
包	-8.58326
▁他們	-8.58422
飯	-8.58739
重	-8.5875
d	-8.58786
ela	-8.58834
穿	-8.58981
ia	-8.59035
咱們	-8.59037
能	-8.59039
的話	-8.59121
▁s	-8.59133
miya	-8.59297
▁如果	-8.59409
砍	-8.59799
▁kdroo	-8.598
ngé	-8.59853
找	-8.59897
lriho	-8.59912
▁tali	-8.60629
bwa	-8.60632
結婚	-8.60753
知道	-8.61099
個	-8.61119
lringa	-8.61174
obo	-8.61177
▁lapa	-8.6118
木	-8.61246
自	-8.61284
日	-8.61291
rɨ	-8.61476
pia	-8.61619
▁那個	-8.6189
ongo	-8.62007
é	-8.62293
給我	-8.6235
▁pia	-8.63076
saw	-8.63283
只有	-8.63523
書	-8.63556
傳統	-8.63573
adha	-8.63617
兩	-8.63963
▁kawriva	-8.64055
的東西	-8.64235
▁lalaso	-8.64501
vai	-8.64645
?」	-8.64808
或	-8.64849
lr	-8.64852
回來	-8.64942
明天	-8.64976
pane	-8.64984
ani	-8.64985
▁Ta	-8.6518
▁tapa	-8.65202
nia	-8.65417
robo	-8.65466
cane	-8.65538
api	-8.65663
▁toki	-8.65757
雞	-8.6592
lrane	-8.65962
▁是的	-8.6602
langai	-8.6651
問	-8.66658
ici	-8.66811
moa	-8.66894
dia	-8.67114
以前	-8.67517
腳	-8.67626
▁vaga	-8.67795
nɨ	-8.67997
睡覺	-8.68056
ase	-8.68078
刀	-8.68166
g	-8.68187
女	-8.68333
要用	-8.68468
sé	-8.68626
▁acilay	-8.69269
住	-8.69466
▁miya	-8.69691
sya	-8.69784
石頭	-8.69896
▁makanaelre	-8.69945
口	-8.7005
▁Ka	-8.70061
唱歌	-8.70171
一樣	-8.70397
熱	-8.7067
並	-8.70765
往	-8.70769
猴子	-8.70776
pɨ	-8.70796
▁agi	-8.71176
idhe	-8.71204
雨	-8.71319
▁aneane	-8.71409
lebe	-8.71414
vava	-8.71574
iyane	-8.7159
▁laymay	-8.71601
▁ara	-8.71785
▁kaido	-8.71922
親	-8.71945
少	-8.72281
變	-8.72373
belenge	-8.72535
gane	-8.72929
cenge	-8.73157
抓	-8.7324
lrisi	-8.73245
▁ngwa	-8.73276
▁bwala	-8.73411
naw	-8.73942
nako	-8.74066
芋頭	-8.74124
一點	-8.74219
lrwa	-8.74241
▁payso	-8.74557
tw	-8.74775
aro	-8.74905
流	-8.74977
走路	-8.75041
ing	-8.75173
於	-8.75194
made	-8.75219
kece	-8.75398
出來	-8.75464
▁tha	-8.75524
zi	-8.75597
▁pango	-8.75683
學生	-8.75697
但	-8.75752
痛	-8.75752
眼	-8.75866
▁nao	-8.75939
▁paki	-8.76152
借	-8.76194
坐	-8.76673
鳥	-8.76728
▁pangi	-8.76828
真	-8.77016
起	-8.77254
olra	-8.7734
處	-8.77506
aba	-8.77673
piya	-8.77695
▁baai	-8.78203
▁manema	-8.78204
過去	-8.7859
弟弟	-8.79043
」	-8.79096
▁kidroway	-8.79156
回	-8.79166
拉	-8.79414
isi	-8.79438
▁sesa	-8.79538
tiki	-8.79675
kake	-8.7974
氣	-8.79892
我會	-8.79957
就是	-8.80458
iyo	-8.80493
▁k	-8.8075
sia	-8.80812
nae	-8.81083
甚麼	-8.81195
2	-8.81217
開始	-8.8124
以後	-8.81293
▁kiname	-8.8148
rara	-8.81762
adhi	-8.81799
好的	-8.81912
下來	-8.82002
斷	-8.82143
倒	-8.82154
▁sawvalay	-8.8216
女生	-8.82193
給他	-8.82239
▁mosowa	-8.82321
聲	-8.8236
讀書	-8.82404
anga	-8.82558
eene	-8.8263
dhe	-8.82663
講	-8.83079
如何	-8.83093
全部	-8.83112
name	-8.83238
很會	-8.83631
合	-8.84026
球	-8.84033
奶奶	-8.84034
ila	-8.84273
那些	-8.84621
多納	-8.8477
山豬	-8.84862
公	-8.8496
者	-8.84983
元	-8.84984
▁kala	-8.85045
▁sia	-8.85077
如果	-8.85104
▁kidremedreme	-8.85119
lwa	-8.85308
只要	-8.85309
vay	-8.8531
L	-8.85564
lenge	-8.85573
ama	-8.85673
邊	-8.85733
熟	-8.85914
切	-8.85928
萬山	-8.85942
▁cengele	-8.85962
maw	-8.86784
bongo	-8.86797
行	-8.86821
inga	-8.86864
色	-8.86865
燒	-8.86874
的名字	-8.86882
ami	-8.86927
路	-8.8697
▁nyaso	-8.87043
▁nako	-8.87079
你要	-8.8721
頭目	-8.87282
ape	-8.87342
青蛙	-8.87775
跑	-8.87861
您	-8.87888
哭	-8.8789
橘子	-8.87894
它	-8.87934
▁mya	-8.87962
kala	-8.88522
ongolo	-8.88662
發	-8.8871
肉	-8.88738
▁loka	-8.88753
taleke	-8.8876
晚上	-8.88788
歌	-8.88864
跳	-8.88867
爺爺	-8.88877
▁becenge	-8.88944
mara	-8.8896
不好	-8.89049
▁kadro	-8.89082
lange	-8.89416
牛	-8.89875
~	-8.89875
房子	-8.89893
▁omawmase	-8.89967
▁té	-8.90146
部落的	-8.90169
到了	-8.90322
baka	-8.90504
▁pato	-8.9074
啊	-8.90805
▁nakay	-8.90828
位	-8.90849
病	-8.90851
bay	-8.90858
檳榔	-8.90882
▁margi	-8.90883
參加	-8.90883
iso	-8.91037
▁iyo	-8.91179
話	-8.91383
十	-8.91399
沒	-8.91514
▁odale	-8.91585
比較	-8.91618
A	-8.91625
在這裡	-8.91676
自己的	-8.91699
外	-8.91789
▁ato	-8.91825
黑	-8.91886
▁kiya	-8.91939
▁laiya	-8.91945
一下	-8.92055
▁Ko	-8.92119
放在	-8.92616
明	-8.92859
ang	-8.92878
入	-8.92908
更	-8.92925
singi	-8.92982
h	-8.93076
!」	-8.93371
idha	-8.93458
▁ia	-8.93571
niya	-8.93875
drele	-8.93907
乾	-8.93943
lralra	-8.93959
▁abéya	-8.93967
▁katwase	-8.93968
cilri	-8.93987
éni	-8.93991
同	-8.94217
▁當	-8.94478
▁kadroa	-8.94489
正在	-8.94527
oco	-8.94609
族人	-8.94627
▁lalake	-8.94756
gia	-8.94853
omo	-8.94857
apece	-8.94943
田裡	-8.95284
▁yaie	-8.95317
avai	-8.95567
▁pasi	-8.95671
接	-8.96048
亂	-8.96078
喔	-8.96078
若	-8.96265
▁pasa	-8.96306
的衣服	-8.96315
落	-8.9634
她的	-8.96424
這是	-8.96522
誰	-8.96779
▁momo	-8.96789
amece	-8.97031
平	-8.97074
▁lregelrege	-8.97127
村	-8.97136
皮	-8.97145
準備	-8.97151
▁sakora	-8.97176
面	-8.97712
獵	-8.97885
▁tawpongo	-8.97963
山上	-8.97986
哪裡	-8.98003
iae	-8.98128
maka	-8.98159
工	-8.98188
立	-8.98217
唱	-8.98221
davace	-8.9823
▁kelra	-8.98262
ong	-8.98276
▁moswane	-8.98278
iki	-8.98299
很大	-8.98345
bai	-8.98391
▁kaingo	-8.98417
▁sito	-8.98479
取	-8.98514
都是	-8.98518
▁yi	-8.98582
olro	-8.98612
三	-8.98622
常常	-8.9877
收	-8.99016
ea	-8.99072
意	-8.99076
▁他是	-8.99288
taka	-8.99316
各	-8.9933
▁Moni	-8.99331
▁angi	-8.99331
lidha	-8.9949
▁lrenege	-8.99575
語	-8.99615
像	-8.99879
▁tomo	-9.00045
做的	-9.00202
bake	-9.00233
那是	-9.00238
ita	-9.00292
ré	-9.00382
線	-9.0042
望	-9.00432
外面	-9.00449
之後	-9.00513
bava	-9.00534
pongo	-9.00795
▁ngya	-9.00797
oka	-9.00908
ine	-9.01155
已	-9.01308
離開	-9.01317
▁wacekecekele	-9.01401
講話	-9.01452
drɨ	-9.01494
石	-9.01516
挖	-9.01559
▁hongo	-9.01608
▁ocao	-9.01693
alri	-9.0197
▁Lo	-9.02002
此	-9.02641
本	-9.02662
▁lama	-9.02704
原住民	-9.02899
才會	-9.02916
▁iloko	-9.02969
▁mene	-9.03158
情	-9.03428
▁kapa	-9.03584
受	-9.03707
malri	-9.03777
畫	-9.03806
apo	-9.03806
通	-9.03813
滿	-9.03815
裝	-9.03824
drane	-9.03975
給你	-9.04016
bane	-9.04056
pingi	-9.04104
▁請	-9.0413
也是	-9.04249
▁ico	-9.04445
定	-9.04887
多少	-9.04953
你好	-9.05049
dringay	-9.051
dhi	-9.05131
前	-9.05137
▁thingale	-9.0521
▁然後	-9.05244
iloko	-9.0536
▁wakela	-9.0546
男生	-9.05645
thingale	-9.05731
oma	-9.05774
roko	-9.05843
所有	-9.05922
昨天	-9.06072
dredre	-9.06152
▁malrigili	-9.06171
▁drosa	-9.06361
編	-9.06535
droma	-9.06705
ake	-9.06718
baba	-9.06752
▁iko	-9.06758
▁iki	-9.07238
食	-9.07336
四	-9.07338
戴	-9.07348
指	-9.07352
3	-9.07358
游泳	-9.07358
thane	-9.07359
無法	-9.07367
kali	-9.07647
▁apo	-9.07731
dreele	-9.07907
進	-9.0797
▁dreela	-9.08179
vé	-9.08398
▁kwane	-9.08411
valri	-9.08499
zega	-9.0856
比賽	-9.08561
ingi	-9.08671
這些	-9.08693
dane	-9.08874
oko	-9.08951
▁amwa	-9.09084
dreme	-9.09096
土	-9.09291
布	-9.09395
▁omase	-9.09585
還有	-9.09633
清	-9.09764
禁	-9.09771
生氣	-9.09814
有很多	-9.09881
要去	-9.09931
▁taha	-9.10342
死	-9.1074
▁Sa	-9.10774
▁若	-9.10789
相	-9.10968
mya	-9.10981
神	-9.10987
蛇	-9.10998
妳	-9.11007
kace	-9.11067
上學	-9.11188
▁Kay	-9.11203
ece	-9.11251
家族	-9.1144
kamani	-9.11454
th	-9.11499
父母	-9.11581
▁siya	-9.11934
▁omawma	-9.12186
蓋	-9.1222
5	-9.12232
五	-9.12232
比	-9.12245
祖先	-9.12256
manema	-9.12291
▁iniya	-9.12308
yane	-9.12336
?"	-9.12457
cay	-9.12488
▁omo	-9.12488
只	-9.12542
▁nadroma	-9.12636
他們的	-9.12758
oca	-9.12824
要去哪裡	-9.12883
vala	-9.13
draw	-9.132
傳	-9.1339
阿	-9.13489
剛	-9.13492
睡	-9.13513
Muni	-9.13513
nao	-9.13554
eke	-9.13698
cebe	-9.13736
angato	-9.13736
lake	-9.13981
▁tay	-9.14051
▁caili	-9.1417
boro	-9.14328
onga	-9.14409
竹	-9.14421
筆	-9.14514
oro	-9.14516
▁不是	-9.14563
白	-9.14687
早	-9.14688
壞	-9.14761
茂林	-9.14779
綁	-9.14791
穀	-9.14791
姊姊	-9.14792
幫忙	-9.14794
舉行	-9.14798
aga	-9.15157
awkay	-9.15218
bolrobolro	-9.15263
lava	-9.15321
有人	-9.15374
maca	-9.15431
▁paiso	-9.15468
是什麼	-9.15475
那個	-9.15488
malra	-9.15513
aina	-9.15703
koa	-9.15732
eme	-9.1581
né	-9.15855
▁sapa	-9.15993
果	-9.15995
族	-9.16213
paw	-9.16244
▁maadraw	-9.16359
為了	-9.16377
▁nakoa	-9.16563
▁anea	-9.1661
無	-9.16654
avava	-9.16901
請問	-9.17042
由	-9.17143
關	-9.17184
父親	-9.17246
漂亮	-9.17308
理	-9.17365
法	-9.17381
殺	-9.17387
oponoho	-9.17398
頭飾	-9.17426
silape	-9.17477
▁mama	-9.17743
▁mosoa	-9.17889
dranga	-9.18018
iname	-9.18098
▁loiya	-9.18391
隻	-9.18592
latadre	-9.18662
野	-9.18712
兄弟姊妹	-9.18727
▁lini	-9.18868
ara	-9.19016
▁sesane	-9.19025
▁lamanemane	-9.19092
▁I	-9.19356
cele	-9.19373
製作	-9.19406
妹妹	-9.19541
新	-9.19607
真的	-9.19612
等一下	-9.19792
正	-9.19801
Taromak	-9.19821
方	-9.19822
▁langay	-9.19908
kodro	-9.20009
美麗	-9.20015
▁Koi	-9.20017
麻	-9.20058
舞	-9.20059
)	-9.20074
▁ababai	-9.20081
▁tina	-9.20185
▁mosoane	-9.20662
送	-9.20675
gako	-9.2073
lopo	-9.20746
門	-9.21084
採	-9.21115
群	-9.21163
paca	-9.21198
▁apaka	-9.21281
▁mati	-9.21327
洞	-9.21421
紅	-9.21424
換	-9.21431
▁pao	-9.21438
▁Ngodradrekay	-9.21439
文化	-9.2144
pacase	-9.21654
pétha	-9.21837
豬	-9.21876
lringi	-9.22177
▁makasi	-9.22219
aolai	-9.22264
你們的	-9.22311
很快	-9.22405
▁老師	-9.22496
▁這些	-9.2264
▁tya	-9.2265
烤	-9.22808
dreka	-9.22812
陷	-9.22823
▁maelanenga	-9.22823
畫圖	-9.22831
▁vaiyana	-9.22905
odho	-9.23024
elrelre	-9.23092
地方	-9.2323
生活	-9.23348
吃飯	-9.23373
doro	-9.23548
yana	-9.23641
全	-9.23791
!"	-9.23889
ace	-9.23938
ecenge	-9.23984
▁maca	-9.23993
doko	-9.24035
lalra	-9.24091
賣	-9.24219
養	-9.24221
▁malimeme	-9.24226
幾	-9.24567
▁kao	-9.24647
教	-9.24758
▁nakoane	-9.2478
▁mala	-9.24855
我們家	-9.25016
penge	-9.25124
nyane	-9.25136
lako	-9.25188
完	-9.25276
abe	-9.254
機	-9.25529
kaneane	-9.25565
小朋友	-9.25588
▁senay	-9.25592
臉	-9.25649
▁你有幾個	-9.25652
結	-9.25683
kadalame	-9.25686
kange	-9.25688
禮	-9.25987
很高	-9.26064
一次	-9.26156
bange	-9.26202
ola	-9.26401
kadha	-9.26478
dholro	-9.26611
▁謝謝	-9.26892
離	-9.27052
美	-9.27091
(	-9.27094
拜訪	-9.27094
存	-9.27094
平民	-9.27098
▁omaomase	-9.2712
繩子	-9.2712
lrini	-9.27168
的是	-9.27515
ate	-9.27563
amo	-9.27569
▁kaka	-9.27697
不同	-9.27757
▁你有	-9.27784
魯凱語	-9.2782
neta	-9.27827
eve	-9.27907
ese	-9.27967
▁ikadra	-9.2798
▁Ki	-9.28045
sisi	-9.28082
moso	-9.28287
見	-9.28443
葉	-9.28471
記	-9.28505
具	-9.28526
式	-9.28538
品	-9.2854
▁soko	-9.28551
▁你怎麼	-9.28741
光	-9.28827
dɨ	-9.28973
織布	-9.29019
gay	-9.29107
koro	-9.29141
▁miti	-9.29281
▁我在	-9.29451
告訴	-9.29531
kikay	-9.29899
家人	-9.29948
區	-9.30002
飛	-9.30032
鐵	-9.3004
形	-9.3004
稱	-9.30043
▁sovlé	-9.30046
場	-9.30046
任何	-9.30047
boboro	-9.30555
saka	-9.30645
數	-9.30852
▁kaw	-9.31078
屋	-9.31122
直	-9.31329
才能	-9.31391
石板	-9.3155
國	-9.31551
蛋	-9.31555
▁makocingalre	-9.31564
小心	-9.31682
女人	-9.31754
▁liniane	-9.31931
▁dane	-9.32063
▁madraw	-9.32068
elra	-9.32242
longo	-9.32301
cac	-9.32546
pé	-9.32799
hai	-9.32857
enga	-9.32931
dele	-9.32986
不可以	-9.32989
K	-9.33038
羊	-9.33046
婚	-9.33066
代	-9.33066
園	-9.33079
大武	-9.33096
▁pai	-9.33149
koko	-9.33163
上面	-9.33167
ito	-9.33186
看看	-9.33245
▁ango	-9.33287
alre	-9.33323
▁twalay	-9.33425
▁vorasi	-9.33465
那裡	-9.3349
桌子	-9.33576
▁我們的	-9.33767
▁T	-9.3421
食物	-9.34269
祖母	-9.34273
來了	-9.34346
帽子	-9.34545
近	-9.34601
牠	-9.34645
來的	-9.34652
kathariri	-9.34654
幫我	-9.3476
▁eea	-9.34881
▁nakowa	-9.34881
dringai	-9.34979
langay	-9.34983
就要	-9.35119
▁你為什麼	-9.35196
▁alo	-9.35201
▁vaeva	-9.35234
isadra	-9.35374
▁tato	-9.35468
▁lata	-9.35501
acase	-9.35572
田	-9.35578
sinaw	-9.35718
vaga	-9.35841
elaela	-9.35856
經過	-9.36005
dr	-9.3608
mako	-9.36145
因	-9.3615
加	-9.36197
lodro	-9.36205
sipi	-9.36206
領	-9.36225
隨便	-9.36228
肚子	-9.36234
kisamola	-9.36253
kaiyane	-9.36328
▁kawai	-9.36398
小孩子	-9.36449
S	-9.36484
▁Lri	-9.36494
dalro	-9.36585
dreke	-9.36765
valra	-9.3682
▁mata	-9.36943
一隻	-9.36944
▁gili	-9.36988
▁mapa	-9.37017
▁sara	-9.37172
kakalra	-9.37195
renge	-9.37269
▁toa	-9.3767
身	-9.37699
冷	-9.37735
二	-9.37804
期	-9.37818
啦	-9.37832
▁tangea	-9.37837
▁saowalai	-9.37847
▁awngane	-9.37856
opa	-9.38021
iga	-9.38063
長大	-9.38174
oto	-9.38245
ray	-9.38279
拿去	-9.38456
你會	-9.38475
lriya	-9.38529
次	-9.38639
lrigo	-9.38643
rimo	-9.38811
出去	-9.3884
好了	-9.38953
lreme	-9.3916
不知道	-9.39166
的工作	-9.39297
原	-9.39307
部	-9.39313
橡皮擦	-9.39338
傷	-9.39399
香蕉	-9.39464
▁Yakay	-9.39464
Balenge	-9.39465
休息	-9.39465
bɨrɨ	-9.39509
生病	-9.39512
pelaela	-9.39516
信	-9.39584
lreke	-9.39605
▁paso	-9.39729
主	-9.40036
▁我沒有	-9.40089
cae	-9.4023
bolo	-9.40262
一定要	-9.40505
算	-9.40556
igo	-9.40662
▁pidra	-9.40721
titi	-9.40731
在家	-9.40829
兩個	-9.40837
tobi	-9.40909
讓我們	-9.40946
kini	-9.4095
家裡	-9.41103
弄	-9.41112
南	-9.41122
試	-9.41123
海	-9.41123
bé	-9.41197
的事	-9.41225
adringi	-9.41232
故事	-9.41406
say	-9.41432
dringi	-9.41444
▁pelaela	-9.41445
pwa	-9.41477
iyaw	-9.41512
▁masi	-9.41839
alro	-9.41896
kisalro	-9.41912
是學生	-9.41969
▁naiyane	-9.41995
▁kadalranane	-9.42334
偷	-9.42399
dale	-9.42419
獵物	-9.42512
什麼時候	-9.42555
還是	-9.42556
depe	-9.42577
保	-9.42808
彩	-9.42812
根	-9.42812
罵	-9.42812
Elrenge	-9.42812
長輩	-9.42817
分享	-9.42821
▁obolo	-9.4301
我想	-9.43076
是要	-9.43088
▁sanaka	-9.4332
rigo	-9.43384
在一起	-9.43399
mé	-9.43454
男人	-9.4371
你們要	-9.43826
▁taelre	-9.44041
vaeva	-9.44077
coco	-9.44171
cai	-9.44174
用來	-9.44252
tongo	-9.44281
adraw	-9.44311
linga	-9.44322
謝謝	-9.44379
毛	-9.44515
累	-9.44526
刺	-9.44526
短	-9.44529
午餐	-9.4453
▁sabiki	-9.44533
▁taopongo	-9.44533
mangeale	-9.4454
pili	-9.44573
belebele	-9.44615
其他	-9.4497
lriane	-9.45055
於是	-9.45307
▁pikai	-9.45404
身體	-9.45439
molo	-9.45449
tane	-9.45621
祖父	-9.45667
iyae	-9.45841
▁pata	-9.45936
打獵	-9.45967
玩耍	-9.46097
輕	-9.46129
飾	-9.46224
▁ska	-9.4624
▁Teldreka	-9.46276
油	-9.46276
▁kadaengane	-9.46276
卻	-9.46276
約	-9.46276
下午	-9.46285
時要	-9.46299
一些	-9.46323
老人家	-9.46328
kaeaea	-9.46333
多少錢	-9.46369
條	-9.4647
我去	-9.46489
bere	-9.46568
需要	-9.46569
▁cokoi	-9.46618
viri	-9.46639
煮的	-9.4666
▁Tanebake	-9.46712
lama	-9.47138
回去	-9.47149
pate	-9.47186
▁maongo	-9.47233
mana	-9.47551
不喜歡	-9.47562
▁mw	-9.47606
▁calrisi	-9.47679
樣	-9.47788
我可以	-9.47801
我和	-9.4783
類	-9.47924
遠	-9.47951
深	-9.47952
taw	-9.4798
貴族	-9.48048
▁ika	-9.48052
夜	-9.48053
▁Ngodradrekai	-9.48053
塊	-9.48053
4	-9.48054
▁Twaomase	-9.48055
老鼠	-9.48062
thɨ	-9.48069
▁Kui	-9.48074
ame	-9.48093
raw	-9.48109
去學校	-9.48151
▁tacekecekelane	-9.48164
balriw	-9.48219
dame	-9.48714
▁agili	-9.49089
▁maava	-9.49177
take	-9.49178
neso	-9.49294
lege	-9.4935
lriw	-9.49651
▁wamalra	-9.49819
表	-9.49845
追	-9.49855
廁所	-9.49864
椅子	-9.49865
活動	-9.49883
▁babila	-9.49883
▁masa	-9.49915
yako	-9.49944
▁laimay	-9.50028
▁dadavace	-9.50225
pilri	-9.50421
使用	-9.50449
東	-9.50742
lacenge	-9.50954
月	-9.51355
三個	-9.51422
▁beeke	-9.51525
待	-9.5167
配	-9.51677
交	-9.51683
利	-9.51684
電	-9.51688
青年	-9.51698
節	-9.51704
湯	-9.51705
甘	-9.51707
緊	-9.51707
槍	-9.51707
夢	-9.51707
芒果	-9.51707
負責	-9.51708
▁Taiwan	-9.5171
lribate	-9.51713
▁kawvay	-9.51737
▁ahakai	-9.51752
很久	-9.51781
▁botolo	-9.51782
lringaw	-9.52027
▁akaneane	-9.52061
odo	-9.52139
天氣	-9.52501
eneme	-9.52514
▁tadrosa	-9.52893
歲	-9.53319
lragi	-9.53462
drange	-9.53466
爬	-9.53497
頭髮	-9.53527
丟	-9.53557
求	-9.53574
嘴	-9.5358
笑	-9.53582
低	-9.53585
▁cekecekele	-9.53586
▁那個男人	-9.53611
saba	-9.53627
anane	-9.53673
很喜歡	-9.53753
▁她是	-9.53756
idra	-9.53808
▁waigo	-9.53869
ceke	-9.53938
▁lalakeini	-9.53971
idi	-9.53987
drawdra	-9.5399
好像	-9.54004
▁tomé	-9.54029
nwa	-9.54083
▁wadolro	-9.54294
的孩子	-9.54308
▁katoase	-9.54503
leke	-9.54586
▁daedae	-9.54657
aca	-9.54733
我們來	-9.54891
▁kada	-9.54913
其	-9.54963
ringi	-9.55088
kani	-9.55147
▁kaongo	-9.55151
ceele	-9.5519
thingala	-9.5521
活	-9.55274
會被	-9.55322
走了	-9.55355
鍋	-9.55413
藥	-9.55457
▁adri	-9.55465
吹	-9.55472
雲	-9.55498
擦	-9.55498
百合花	-9.55499
舊	-9.55499
茶	-9.55499
蟲	-9.55499
夫	-9.55499
▁manini	-9.55567
lrange	-9.55578
▁pava	-9.55595
koco	-9.55731
lrawlraw	-9.55762
aki	-9.55765
imia	-9.55826
▁B	-9.55838
想要	-9.55931
▁我們在	-9.56036
Palri	-9.5608
odale	-9.56229
z	-9.56323
我有	-9.56325
tingi	-9.56403
後面	-9.5669
了嗎	-9.56774
lrame	-9.56912
momo	-9.56966
種的	-9.57032
ikaiya	-9.57076
wane	-9.57302
tavanane	-9.57338
溪	-9.57362
現	-9.57374
dreelane	-9.57424
體	-9.57438
怕	-9.57444
格	-9.5745
Paelrese	-9.5745
故鄉	-9.57451
祭典	-9.57451
▁drapale	-9.57452
南瓜	-9.57452
旁邊	-9.57453
擁有	-9.57473
▁mabo	-9.57548
裡的	-9.57621
ipa	-9.57749
laylay	-9.57984
ipi	-9.58009
我們一起	-9.58119
▁akwa	-9.58147
dede	-9.58294
atha	-9.58383
▁kilalra	-9.58402
ananae	-9.58904
除	-9.59175
我來	-9.59187
內	-9.59197
Ta	-9.59234
kete	-9.59345
道	-9.59417
C	-9.59422
粉	-9.59436
圍	-9.59438
錯	-9.5944
台灣	-9.59443
害怕	-9.59445
打掃	-9.59458
▁kipa	-9.59469
多久	-9.5948
apobaka	-9.59486
▁aikiedha	-9.595
▁talo	-9.59505
是原住民	-9.5951
dalame	-9.59582
cekele	-9.5965
一邊	-9.5967
neli	-9.5974
很好吃	-9.59866
lroko	-9.60072
一定	-9.60101
▁kaika	-9.60119
▁lrai	-9.60405
lehe	-9.60429
▁cin	-9.60522
難	-9.60533
vele	-9.60673
valre	-9.60882
人們	-9.61047
bwale	-9.61169
久	-9.61196
lrongo	-9.61347
kingi	-9.61425
散	-9.61428
toro	-9.61441
網	-9.61444
第	-9.61452
角	-9.61453
步	-9.61456
器	-9.61465
搬	-9.61467
連	-9.61469
修	-9.6147
金	-9.6147
貓	-9.6147
涼	-9.61471
▁laomaomase	-9.61471
雖然	-9.61471
▁dramare	-9.61492
孫子	-9.61503
▁madalram	-9.61509
每天	-9.61517
oso	-9.61564
lolo	-9.61571
▁aracɨ	-9.61576
vana	-9.61691
老人	-9.61713
▁matha	-9.61731
badhabadha	-9.61792
soro	-9.61867
celre	-9.61897
kiyo	-9.62036
daw	-9.62096
帶著	-9.62135
▁cayli	-9.62197
manemane	-9.62239
awbo	-9.62278
▁saki	-9.62343
去哪裡	-9.62401
快樂	-9.62409
vale	-9.62477
pange	-9.62495
每	-9.62622
▁kiara	-9.62717
實	-9.62875
dhaace	-9.62885
要做	-9.6304
iyaiya	-9.63262
▁kone	-9.63393
congolo	-9.63418
貓頭鷹	-9.63421
gɨ	-9.63497
師	-9.63523
▁wata	-9.63533
髒	-9.63535
守	-9.6354
選	-9.63541
蝶	-9.63543
百步蛇	-9.63543
推	-9.63543
百	-9.63543
壺	-9.63543
餓	-9.63544
▁tingse	-9.63545
▁balebale	-9.63553
cavili	-9.63558
聊天	-9.63565
樹豆	-9.63567
完成	-9.63586
riva	-9.63624
▁lani	-9.63732
▁dwa	-9.63871
▁madhalame	-9.63934
ayini	-9.64055
▁nomiane	-9.64082
在睡覺	-9.64198
給他們	-9.64476
sopate	-9.6448
▁atho	-9.64556
量	-9.64649
kwi	-9.64708
時間	-9.64982
▁matia	-9.65035
吃的	-9.65073
▁patha	-9.65133
nganako	-9.65261
管	-9.65498
便	-9.65519
片	-9.65543
▁tapi	-9.65576
雨傘	-9.65604
建	-9.65655
鬼	-9.65659
太陽出來了	-9.6566
紋	-9.6566
醫院	-9.65661
vake	-9.65707
▁lwange	-9.65709
roro	-9.65868
olrao	-9.65894
▁tinaini	-9.65974
dare	-9.66076
▁mat	-9.66137
kaelaela	-9.66196
▁titina	-9.66249
▁kayngo	-9.66383
▁kasa	-9.66434
kwane	-9.66462
讓我	-9.66531
你去	-9.66771
nini	-9.66868
ango	-9.66929
sasa	-9.67
會唱歌	-9.67199
▁lraiya	-9.67254
lriyo	-9.67448
▁kikai	-9.67467
ethe	-9.67472
找到	-9.67551
過來	-9.67605
車	-9.67656
他是	-9.67706
bara	-9.67769
音	-9.67807
告	-9.67818
耶	-9.67822
▁bengelray	-9.67822
▁madwane	-9.67822
Takanaw	-9.67823
慢慢	-9.67825
課本	-9.67827
velevele	-9.67829
剛剛	-9.6784
蓋房子	-9.67846
動物	-9.67876
平地	-9.67929
去山上	-9.68505
sange	-9.68599
也有	-9.68606
語言	-9.68619
▁koso	-9.68669
不到	-9.68673
rongo	-9.68786
livi	-9.68853
▁把那	-9.68855
bora	-9.69005
站	-9.69079
liya	-9.69125
族語	-9.69561
cako	-9.69667
hao	-9.69754
母親	-9.69777
下次	-9.69923
六	-9.70013
agi	-9.70018
貴	-9.70021
警察	-9.70032
R	-9.70032
摩托車	-9.70032
認識	-9.70032
▁kivavange	-9.70035
屋頂	-9.7004
特別	-9.70041
▁coaw	-9.70078
isa	-9.70091
的部落	-9.70191
豬肉	-9.70249
edhe	-9.70338
cvélé	-9.70583
▁tédra	-9.707
回到	-9.70825
也不	-9.70977
▁kelanga	-9.71109
tara	-9.71369
cengele	-9.71422
langadha	-9.71714
的小孩	-9.71718
起床	-9.71919
lalake	-9.72036
本書	-9.72199
去找	-9.72208
▁ilra	-9.72217
要給	-9.72242
碎	-9.72246
kongadavane	-9.72263
喜	-9.72264
翻	-9.72276
敬	-9.7229
則	-9.7229
8	-9.72292
穿山甲	-9.72293
搭火車	-9.72294
如此	-9.72303
▁aongane	-9.7235
▁péso	-9.72417
aliki	-9.72422
早上	-9.72447
ladhane	-9.72503
高興	-9.72635
要小心	-9.72709
謝謝你	-9.72809
▁tala	-9.72924
kidri	-9.7297
▁tawmo	-9.73182
tale	-9.73397
這是什麼	-9.7365
▁So	-9.73701
valrigi	-9.73737
都會	-9.73797
幾歲	-9.73882
esa	-9.73954
紅色的	-9.73969
biri	-9.74206
▁kanea	-9.74227
kisi	-9.74376
boko	-9.74402
半	-9.74493
cici	-9.74548
aramoro	-9.74552
如	-9.74578
兒	-9.74583
失	-9.74585
melre	-9.7459
該	-9.74598
至	-9.74603
掛	-9.74604
藤	-9.74604
提	-9.74604
▁babwi	-9.74604
▁karadrare	-9.74604
刮	-9.74604
琉璃珠	-9.74604
覺得	-9.74608
受傷	-9.74621
▁sakacekele	-9.74636
▁kené	-9.74643
認真	-9.74667
我不	-9.74672
你要買	-9.74695
▁batoko	-9.74752
▁adravane	-9.74762
abayane	-9.74835
也會	-9.74858
了很多	-9.74909
跟著	-9.74923
時候	-9.74989
▁alopo	-9.75022
drolro	-9.75052
是用	-9.7533
空	-9.75347
oho	-9.75383
你的朋友	-9.75408
eni	-9.75525
ding	-9.75556
要做什麼	-9.75632
iyakayni	-9.75681
▁omoa	-9.758
erece	-9.75802
教會	-9.75972
cingi	-9.76162
可能	-9.76282
一起去	-9.76453
霧台	-9.76661
eng	-9.76773
inako	-9.76822
然	-9.76826
會說	-9.76827
未	-9.76857
整	-9.76894
akai	-9.76897
曬	-9.76939
濕	-9.76962
制	-9.76966
化	-9.76968
強	-9.7697
kacaysyane	-9.76971
▁tohamoho	-9.76971
烏	-9.76971
照顧	-9.76972
便宜	-9.76973
▁kakodhane	-9.76983
▁mataadhi	-9.76998
他們家有	-9.76998
▁doo	-9.77002
禮物	-9.77003
天空	-9.77019
▁Laoco	-9.7702
社會	-9.77022
女名	-9.77048
▁nina	-9.77059
▁naiya	-9.7708
木頭	-9.77091
▁Pa	-9.77101
先生	-9.77112
▁téka	-9.77132
很漂亮	-9.77135
男子	-9.7725
▁kathane	-9.77295
thili	-9.7739
male	-9.77487
在讀書	-9.77494
用的	-9.77565
▁talragi	-9.77674
▁yakaino	-9.77745
▁ik	-9.77929
kedre	-9.78024
▁solraw	-9.78044
elraelra	-9.78166
▁konako	-9.78226
拔	-9.78449
omase	-9.78643
bowa	-9.78684
cogo	-9.78739
在那裡	-9.78828
ngana	-9.78927
個人	-9.79336
集	-9.7934
照	-9.79383
害	-9.79388
忙	-9.79391
抱	-9.79395
caemane	-9.79432
裡面	-9.79481
▁acilai	-9.79514
otobay	-9.7952
ngata	-9.79575
▁sabao	-9.7966
ahaki	-9.7969
▁vaha	-9.79706
女性	-9.7982
▁takataka	-9.79834
▁下雨了	-9.79896
▁ngitha	-9.79928
okai	-9.79981
▁mapini	-9.80116
▁padolro	-9.8027
▁apango	-9.8031
▁nene	-9.80561
縫	-9.80615
▁toké	-9.80674
sapa	-9.80674
拿來	-9.80678
樂	-9.80733
▁magi	-9.80798
苦	-9.80811
cece	-9.80938
namɨ	-9.80961
▁tamaso	-9.81116
bala	-9.81149
adrao	-9.81252
lame	-9.81326
原住民族	-9.81338
性	-9.81409
魯凱族人	-9.81416
的小米	-9.81416
kawriva	-9.8143
▁oha	-9.81496
▁ona	-9.81567
sako	-9.8168
ciya	-9.81704
▁nowa	-9.81713
baai	-9.8177
達	-9.81772
懶惰	-9.81779
豆	-9.81852
電話	-9.81853
頂	-9.81871
排	-9.81873
彎	-9.81877
牙	-9.81878
粒	-9.8188
香	-9.8188
7	-9.8188
▁kahingalai	-9.8188
針	-9.8188
▁madlame	-9.8188
醒	-9.8188
▁gakko	-9.8188
應該	-9.81883
▁kaiasaa	-9.81894
發現	-9.81898
生命	-9.819
用手	-9.81901
前面	-9.81908
▁有一天	-9.81913
記得	-9.81935
▁lrika	-9.82069
▁omale	-9.82088
aiso	-9.82167
▁twalai	-9.82271
alay	-9.82317
▁valrio	-9.82362
elrenge	-9.82379
pato	-9.82424
beleng	-9.8245
▁pakela	-9.82548
oilri	-9.82588
▁acini	-9.82646
蜜蜂	-9.82765
beceng	-9.82783
anini	-9.82811
的家	-9.82891
caeme	-9.82894
▁analo	-9.82901
籃子	-9.8299
魯凱	-9.83156
▁kaiso	-9.83223
朋友們	-9.83236
鬆	-9.83353
▁maki	-9.83436
天天	-9.83463
時會	-9.83516
ngaso	-9.83634
很痛	-9.83641
gogo	-9.83663
▁pana	-9.83735
▁kisa	-9.83782
她是我的	-9.83794
pono	-9.83812
imite	-9.83882
相信	-9.84237
間	-9.84251
▁madhao	-9.84272
就可以	-9.84283
那你	-9.84292
趕	-9.84336
我要去	-9.84352
owane	-9.84354
假	-9.84369
balrithi	-9.84394
產	-9.84397
安	-9.844
靈	-9.84413
圓	-9.84418
揹	-9.84422
越	-9.84425
依	-9.84426
轉	-9.84426
豐年祭	-9.84428
酸	-9.84428
首	-9.84428
剪	-9.84428
他是我的老師	-9.84428
cɨnglɨ	-9.84428
▁kinawmasane	-9.84429
月亮	-9.84434
跑步	-9.84447
趕快	-9.84453
女方	-9.8446
在地上	-9.84468
Tanobake	-9.84474
之前	-9.84476
客人	-9.8448
收成	-9.84495
看見	-9.84542
竹子	-9.846
lrepenge	-9.84601
的小	-9.84644
dad	-9.84665
nagane	-9.8471
aamadhalae	-9.84735
▁dae	-9.84736
wako	-9.84752
▁wada	-9.84819
ciw	-9.84854
dray	-9.84878
solate	-9.84932
kebe	-9.84963
lrimo	-9.85037
▁valro	-9.85059
avi	-9.85105
mala	-9.85129
▁tino	-9.85141
kongo	-9.8533
去看	-9.85347
或是	-9.85373
出現	-9.85394
說話	-9.85435
▁apasi	-9.8547
▁mra	-9.85494
▁takalra	-9.85496
來吃	-9.85583
▁你喜歡	-9.85837
▁yasa	-9.85881
不用	-9.85944
kavay	-9.86056
母	-9.86107
醫生	-9.8616
▁tapo	-9.8622
▁miki	-9.86395
變成	-9.86663
回答	-9.86926
勤勞	-9.86942
vate	-9.87013
乾淨	-9.8702
念	-9.87024
負	-9.87035
料	-9.87039
觀	-9.8704
Masegesege	-9.87042
盪鞦韆	-9.87042
mwadringadringai	-9.87042
▁lwigane	-9.87042
排灣族	-9.87043
注意	-9.87044
晚餐	-9.87044
房間	-9.87047
taetale	-9.87053
karodrange	-9.87055
播種	-9.87067
zo	-9.87069
▁我要買	-9.8708
起立	-9.8708
▁thenay	-9.87091
▁kamadha	-9.87113
▁agane	-9.87231
mɨcɨ	-9.87239
arakay	-9.87315
cakena	-9.87488
tolrolo	-9.87607
他的朋友	-9.87643
▁lalalake	-9.87713
的聲音	-9.87714
鄉	-9.87774
▁pikay	-9.87794
▁wakane	-9.8783
lrede	-9.87889
dradreela	-9.88099
enge	-9.8814
成為	-9.88256
ngalrao	-9.8827
▁他在	-9.88308
in	-9.8832
▁kibolro	-9.8836
最後	-9.88364
▁amali	-9.88593
lrobo	-9.88869
▁toba	-9.89125
▁ap	-9.89398
好吃	-9.89415
留	-9.89467
dé	-9.89678
▁taiya	-9.89679
破	-9.8969
舉	-9.89712
逃	-9.89713
味	-9.8972
思	-9.89722
堅	-9.89723
源	-9.89724
飽	-9.89726
谷	-9.89727
突然	-9.89727
硬	-9.89727
號	-9.89727
搗	-9.89727
治	-9.89727
狀	-9.89727
9	-9.89728
以免	-9.89729
豐收	-9.89731
意義	-9.89732
嘴巴	-9.89734
運動	-9.89738
小時候	-9.8978
壞掉	-9.89781
kaoriva	-9.89822
kɨné	-9.89835
samali	-9.89967
居住	-9.90003
gara	-9.90003
Ase	-9.9002
baro	-9.90026
▁omia	-9.90046
ku	-9.90092
sarare	-9.90331
▁maha	-9.90654
angiya	-9.90767
看到了	-9.90771
ngipa	-9.90848
omoko	-9.90868
▁wasa	-9.90898
▁pada	-9.90908
▁silo	-9.90985
進去	-9.91005
P	-9.91022
nema	-9.91062
gaw	-9.91182
sw	-9.91373
土地	-9.91502
kene	-9.91504
留下	-9.9154
solo	-9.91548
我們會	-9.91658
madra	-9.91735
daane	-9.91848
nɨma	-9.91892
嫁	-9.91898
pong	-9.91947
mola	-9.92015
的腳	-9.92016
kwange	-9.92128
大家都	-9.92192
▁nipa	-9.92323
原來	-9.92447
碗	-9.92462
共	-9.92468
秋天	-9.92471
八	-9.92472
較	-9.92474
箭	-9.92481
單	-9.92485
細	-9.92485
價	-9.92486
腳踏車	-9.92486
Pelenge	-9.92486
蟻	-9.92486
瘦	-9.92486
答應	-9.92487
▁kaanaeni	-9.92487
搬運	-9.9249
小姐	-9.92495
▁orogo	-9.92511
柱子	-9.92512
kipi	-9.92535
會說族語	-9.92545
他的名字是	-9.9257
▁patoelre	-9.9257
看起來很	-9.92592
長老	-9.92643
▁在下雨	-9.9265
▁mogako	-9.92736
mwane	-9.92741
種子	-9.93003
族群	-9.93049
▁你明天	-9.93117
kayyane	-9.93176
tolalake	-9.93208
紅色	-9.9328
kici	-9.93355
lapo	-9.93489
▁kimade	-9.93504
tay	-9.93562
▁wamwa	-9.93736
ngico	-9.93797
孩子們	-9.93855
ovo	-9.93861
▁tasi	-9.93884
dhako	-9.93946
可以出去玩	-9.94089
他說	-9.94487
都有	-9.94495
就好	-9.94569
piane	-9.94575
大聲	-9.94686
馬	-9.94785
▁pakane	-9.9481
的事情	-9.94858
▁ilata	-9.9499
boco	-9.95015
衣	-9.9523
興	-9.95291
服	-9.95298
某	-9.95303
黃	-9.95308
剝	-9.9531
市	-9.95311
度	-9.95317
射	-9.95318
查	-9.95322
E	-9.95322
[	-9.95323
]	-9.95323
吊	-9.95323
▁mapapangale	-9.95323
Laucu	-9.95323
踏	-9.95323
雲豹	-9.95323
摘	-9.95324
困難	-9.95325
聚落	-9.95328
河邊	-9.95334
白色	-9.95355
發生	-9.95407
年輕人	-9.9541
▁大家好	-9.95415
生日	-9.95434
上主	-9.95475
便當	-9.95485
坐著	-9.95493
喜歡讀書	-9.95506
osay	-9.95686
▁macaeme	-9.95788
▁wailoko	-9.95906
有一個	-9.95924
▁lrolay	-9.95961
▁waapece	-9.95972
份	-9.9603
新的	-9.96274
是醫生	-9.96275
loto	-9.96324
rake	-9.96566
colro	-9.96632
enɨ	-9.96669
▁tomoso	-9.96753
ngimia	-9.96873
pake	-9.97185
中午	-9.97205
胖	-9.97422
hoko	-9.97578
▁mob	-9.97739
▁我們今天	-9.97778
ilidhe	-9.97999
的地瓜	-9.98075
重要	-9.98084
我知道	-9.98093
drekase	-9.98097
房	-9.98142
鐘	-9.9817
▁lalakeli	-9.98172
製	-9.98204
搭	-9.98214
獨	-9.98224
另	-9.98229
巴	-9.98231
服飾	-9.98233
擺	-9.98237
準	-9.98239
介	-9.98242
練	-9.98242
套	-9.98242
僅	-9.98242
搭公車	-9.98242
▁kinadroway	-9.98243
削	-9.98243
賞	-9.98243
述	-9.98243
▁talropono	-9.98243
滑	-9.98243
繼承	-9.98243
訪問	-9.98244
▁baboi	-9.98247
教導	-9.98247
thingalre	-9.9825
▁這是誰的	-9.98259
敵人	-9.98265
男性	-9.98266
是不好的	-9.98271
邀請	-9.98281
裙子	-9.9829
▁viene	-9.98294
▁好啊	-9.98301
一件	-9.98314
▁madalamako	-9.98362
vagavaga	-9.98433
水果	-9.98666
yakai	-9.98835
從前	-9.98879
dolo	-9.98997
vongo	-9.99341
▁kwidra	-9.99432
去田裡	-9.99612
volro	-9.9967
我們的部落	-9.99718
dike	-9.99742
▁Pi	-9.99822
▁arakayya	-9.99855
」。	-9.99907
aelre	-10.0004
幫	-10.0008
drwa	-10.001
去教會	-10.0023
opo	-10.0031
還沒	-10.0033
洗衣服	-10.0039
的生活	-10.0043
madɨ	-10.0049
一位	-10.0053
改	-10.0069
libi	-10.0084
dravane	-10.0097
忘記	-10.0108
▁arakai	-10.0114
支	-10.0114
萬	-10.0121
台	-10.0123
談	-10.0124
雙	-10.0124
慢	-10.0124
亮	-10.0124
摔	-10.0124
靜	-10.0124
寫	-10.0125
環	-10.0125
呀	-10.0125
怎樣	-10.0125
疊	-10.0125
慣	-10.0125
兄弟姐妹	-10.0125
抬	-10.0125
磨	-10.0125
篩	-10.0125
▁你今天從哪裡來	-10.0125
層	-10.0125
政府	-10.0125
▁tatakesikesiya	-10.0125
牙齒	-10.0125
▁kacalrisiane	-10.0125
聘禮	-10.0125
▁odha	-10.0125
我的名字是	-10.0125
▁dilrongo	-10.0126
女兒	-10.0127
▁kname	-10.0134
遲到	-10.0136
車子	-10.0137
▁waodaodale	-10.0139
onai	-10.0141
▁mitaane	-10.0149
tobalre	-10.0165
kwani	-10.0172
▁ooma	-10.0174
一把	-10.0174
▁maagi	-10.0179
papia	-10.019
bece	-10.0193
吃完	-10.0193
▁takane	-10.0214
哪	-10.0214
一天	-10.0236
sivi	-10.0239
▁kipaelre	-10.0242
歲了	-10.0263
singsi	-10.0268
kele	-10.0284
▁lakai	-10.0285
你看	-10.0292
視	-10.0296
cing	-10.03
有空	-10.0301
ralobo	-10.0309
▁nya	-10.0337
她在	-10.0343
▁dada	-10.0351
kadrwa	-10.0364
的故事	-10.0383
解	-10.0388
▁pangia	-10.039
主要	-10.0415
lrapa	-10.042
▁apaki	-10.0424
拍	-10.043
裂	-10.0431
辦	-10.0432
枝	-10.0432
麵	-10.0434
趣	-10.0435
不好意思	-10.0435
船	-10.0435
咬	-10.0435
插	-10.0435
燙	-10.0435
▁menanae	-10.0435
▁talialalay	-10.0435
災	-10.0435
滾	-10.0435
粥	-10.0435
庫	-10.0435
慶祝	-10.0435
▁orgo	-10.0435
bila	-10.0435
也沒有	-10.0436
第二	-10.0436
期待	-10.0437
石板屋	-10.0437
cocobongo	-10.0438
袋子	-10.0439
ngeangea	-10.0441
▁mobaliyo	-10.0443
▁marodrange	-10.0444
riri	-10.0445
▁不行	-10.0446
▁mathahihi	-10.0446
煮飯	-10.0449
bekele	-10.0459
▁zikange	-10.046
▁dralray	-10.0464
很少	-10.0473
▁bali	-10.0478
很小	-10.0494
paelre	-10.0501
nganay	-10.0506
來到	-10.0511
▁miyalri	-10.0523
bwane	-10.0525
▁tamo	-10.0541
dralri	-10.0557
gé	-10.056
▁pako	-10.0562
住在	-10.0569
他叫	-10.0574
ngele	-10.0579
分給	-10.0585
▁Kai	-10.059
什麼東西	-10.0596
hana	-10.06
▁katha	-10.0611
iyanga	-10.0615
▁Kako	-10.0632
就不會	-10.0637
caili	-10.0655
編織	-10.0656
twaladha	-10.0659
很難	-10.067
▁omikikai	-10.0672
ica	-10.0674
elebe	-10.0679
使他	-10.0701
人口	-10.0702
床	-10.0707
許多	-10.0712
給我們	-10.0717
跌倒	-10.0729
lromay	-10.073
鹿	-10.0748
程	-10.0751
年輕	-10.0752
九	-10.0754
造	-10.0754
消	-10.0755
隊	-10.0755
錄	-10.0755
象	-10.0755
標	-10.0755
▁Drekai	-10.0755
▁你今天	-10.0755
斜	-10.0755
窮	-10.0755
▁takesikesi	-10.0755
引	-10.0755
混	-10.0755
星星	-10.0755
橋	-10.0755
talyala	-10.0755
cegecege	-10.0755
窗戶	-10.0755
pathagili	-10.0756
taromara	-10.0756
▁你們家有幾個	-10.0756
禮拜	-10.0756
婦女	-10.0757
▁lasito	-10.0757
剩下	-10.0757
因此	-10.0758
阿公	-10.0759
還要	-10.076
太太	-10.0764
收起來	-10.0764
▁lrikape	-10.0765
▁Vedai	-10.0767
▁lamalala	-10.0767
▁molrae	-10.0771
下面	-10.0772
▁maolai	-10.0773
太多	-10.0773
葉子	-10.0774
▁lritara	-10.0781
belengane	-10.0783
才可以	-10.0787
的族人	-10.0788
▁dida	-10.0788
▁aimaka	-10.0792
▁piké	-10.0794
thé	-10.0831
▁takali	-10.0832
abee	-10.0834
的食物	-10.0838
▁badha	-10.0839
ngili	-10.084
最好	-10.084
ngkwa	-10.0843
awa	-10.0852
屬於	-10.0856
後來	-10.0867
ilo	-10.0872
▁isiw	-10.0891
聽到	-10.0892
edheke	-10.0893
▁opi	-10.0908
力量	-10.091
imiya	-10.091
alapi	-10.091
送給	-10.0911
▁ngoa	-10.0913
▁lakamani	-10.0918
▁魯凱族的	-10.0927
下去	-10.0945
boale	-10.0949
▁inya	-10.0964
ngolane	-10.0975
hongo	-10.1053
我的孩子	-10.1062
再見	-10.1068
必	-10.107
甜	-10.1076
容易	-10.1076
dadavace	-10.1076
都很	-10.1077
U	-10.1083
壓	-10.1084
圖	-10.1085
嬰	-10.1085
懷	-10.1085
任	-10.1085
滴	-10.1086
腿	-10.1086
術	-10.1086
摸	-10.1086
Bikare	-10.1086
圈	-10.1086
弓	-10.1086
▁tigami	-10.1086
階級	-10.1086
▁twakesi	-10.1086
網袋	-10.1086
▁thné	-10.1086
台東	-10.1087
▁pangwa	-10.1087
topalra	-10.1088
Ipolo	-10.1088
這張桌子很重	-10.1088
水桶	-10.1088
而且	-10.1089
▁maiyalri	-10.1089
damay	-10.109
同學	-10.109
分配	-10.1091
集中	-10.1091
▁vecenge	-10.1091
▁barange	-10.1092
都可以	-10.1094
幾天	-10.1097
▁那小朋友	-10.11
▁vlavlake	-10.1102
ngisi	-10.1107
▁mitane	-10.1109
dokolro	-10.1113
分開	-10.1115
獵人	-10.1116
visi	-10.1124
▁dola	-10.113
▁kaiyasa	-10.1135
make	-10.1136
▁Ini	-10.1141
在山上	-10.1145
kesa	-10.1147
幫你	-10.1151
dalrane	-10.1152
▁senai	-10.1157
omaca	-10.1164
kopingi	-10.1166
她們	-10.1169
我們就	-10.1204
I	-10.1207
modo	-10.1209
▁我喜歡	-10.1213
zako	-10.1231
▁kacaeme	-10.1257
重要的	-10.1258
calrisi	-10.1264
topo	-10.127
kelane	-10.1279
man	-10.1282
▁我們有	-10.1302
路上	-10.1305
在家裡	-10.1315
▁kani	-10.1316
▁pakay	-10.1319
她是	-10.1356
▁coko	-10.1358
bekela	-10.1363
bw	-10.137
好看	-10.1382
dh	-10.1385
▁tapia	-10.1387
▁sigo	-10.1388
▁esi	-10.1395
▁mialri	-10.1396
我們沒有	-10.1399
thariri	-10.1401
▁mapi	-10.1409
cake	-10.141
停	-10.1411
隨	-10.1413
相同	-10.1417
瓶	-10.1419
即	-10.1425
古	-10.1426
順	-10.1426
夾	-10.1427
持	-10.1427
務	-10.1427
張	-10.1427
容	-10.1428
O	-10.1428
型	-10.1428
壁	-10.1428
▁laomawmase	-10.1428
6	-10.1428
寶	-10.1428
急	-10.1428
農	-10.1428
毒	-10.1428
甚至	-10.1428
浪費	-10.1428
繼續	-10.1428
lringedele	-10.1428
在都市	-10.1428
故意	-10.1428
▁aangai	-10.1428
消失	-10.1428
保護	-10.1428
有一隻狗	-10.1429
raedre	-10.1429
方便	-10.1429
釀酒	-10.1429
直接	-10.1431
工具	-10.1431
▁olrodro	-10.1432
valavala	-10.1432
飛機	-10.1433
如果雨停了	-10.1433
開車	-10.1434
幾個人	-10.1439
▁lapanay	-10.1439
鍋子	-10.1443
身上	-10.1446
▁todaane	-10.1449
kaava	-10.1464
女子	-10.1465
隻狗	-10.1473
一定會	-10.1476
▁olopo	-10.1477
▁maelrenge	-10.1487
一看到	-10.1489
kisia	-10.1502
tiya	-10.1503
miti	-10.1534
使我	-10.154
請問你	-10.1544
elreng	-10.1544
人都	-10.1562
去了	-10.1569
車站	-10.1569
▁sango	-10.1574
agae	-10.1581
kɨkɨ	-10.1583
事情	-10.1592
▁matiya	-10.161
的豬	-10.1614
odholro	-10.1624
▁bin	-10.1627
lrogo	-10.1643
▁apia	-10.1655
好多	-10.1656
▁kivaga	-10.1661
▁你們家	-10.1664
你們有	-10.1681
我叫	-10.1684
要放在	-10.1693
聲音	-10.1694
▁Si	-10.1714
我忘了帶	-10.1775
架	-10.1777
捕	-10.1777
搖	-10.1779
影	-10.1781
祖靈	-10.1781
防	-10.1781
兄弟	-10.1782
灰	-10.1782
顆	-10.1782
幹	-10.1782
疼	-10.1782
精	-10.1782
輪	-10.1782
bariangalay	-10.1782
▁kalralrekete	-10.1782
粗	-10.1782
厚	-10.1782
婆	-10.1782
煙	-10.1782
員	-10.1782
沖	-10.1782
補	-10.1782
的貓是黑色的	-10.1782
割	-10.1782
▁tinse	-10.1782
幫助	-10.1782
表示	-10.1782
專門	-10.1782
祖父祖母	-10.1782
帶著雨傘	-10.1783
隨意	-10.1783
木材	-10.1783
整理	-10.1783
祭拜	-10.1783
殺豬	-10.1784
進入	-10.1786
生產	-10.1786
黑色	-10.1786
▁pelenge	-10.1787
就說	-10.1787
▁mosobaka	-10.179
▁taikaiyane	-10.1791
akamolo	-10.1793
▁alrace	-10.1796
一半	-10.1799
地位	-10.18
很遠	-10.1802
▁valisi	-10.1803
▁那位	-10.1803
▁mowa	-10.1814
▁sonagane	-10.1817
使我們	-10.1821
▁apase	-10.1825
除了	-10.1829
▁你妹妹	-10.1833
▁palongo	-10.1836
做什麼	-10.1847
▁lrabo	-10.1847
danɨ	-10.1848
改變	-10.1848
gaga	-10.1866
▁lrimaka	-10.1883
非常的	-10.1892
叫他	-10.1907
跟你	-10.1913
會下雨	-10.1918
celra	-10.193
gwa	-10.1935
▁lalakeso	-10.1941
V	-10.1943
inome	-10.1949
cocongolane	-10.1964
selre	-10.1991
一年	-10.2
借你	-10.2009
baza	-10.2014
iniya	-10.2019
給人	-10.2023
男女	-10.2041
badhane	-10.2068
▁poko	-10.208
▁lolray	-10.2084
要帶	-10.2086
生長	-10.213
河	-10.2133
辛苦	-10.2139
ingpic	-10.2139
命	-10.2143
且	-10.2144
adolro	-10.2147
爭	-10.2147
熊	-10.2147
星期	-10.2147
護	-10.2147
靠	-10.2148
灣	-10.2148
堆	-10.2148
戶	-10.2148
暗	-10.2149
日本人	-10.2149
復	-10.2149
喊	-10.2149
善	-10.2149
didiwsa	-10.2149
▁pamenanae	-10.2149
▁dhidhape	-10.2149
天黑了	-10.2149
耳朵	-10.2149
遷移	-10.2149
刺繡	-10.2149
季節	-10.2149
尊重	-10.215
高雄	-10.215
辦法	-10.215
▁sawkoa	-10.215
asolasolate	-10.215
代表	-10.2151
捕魚	-10.2151
整個	-10.2152
▁kɨname	-10.2153
進行	-10.2153
▁你有幾隻	-10.2154
Kaku	-10.2155
不夠	-10.2155
我想要	-10.2155
山藥	-10.2157
一點點	-10.2157
lravane	-10.2158
▁ceelre	-10.216
說族語	-10.2161
pacay	-10.2162
很懶惰	-10.2164
▁他是老師	-10.2165
吃了	-10.2176
▁pakia	-10.2176
▁twabolro	-10.218
▁patwa	-10.218
這裡有	-10.2185
過年	-10.2189
屋內	-10.2194
tékadra	-10.2195
▁tatava	-10.22
▁nanini	-10.2216
dadaane	-10.2217
都要	-10.2235
我所	-10.2246
mti	-10.2255
bilane	-10.2266
果實	-10.2268
▁tamaini	-10.2272
▁omini	-10.2279
很輕	-10.2294
▁paswa	-10.2297
lekete	-10.2299
▁asaa	-10.2302
arwa	-10.2315
▁koisang	-10.2317
thya	-10.2318
ongola	-10.2338
不一樣	-10.2342
心裡	-10.2344
molra	-10.235
ledra	-10.2351
▁inali	-10.2354
我跟	-10.2357
▁madho	-10.2393
reme	-10.2393
有五個人	-10.2403
lepe	-10.2409
rolo	-10.2414
eaea	-10.2421
polo	-10.2424
民	-10.2434
cabo	-10.2442
thath	-10.2475
▁iloka	-10.2487
台北	-10.2487
ceela	-10.2489
nono	-10.2502
aela	-10.2512
稻	-10.2518
鼻	-10.2521
許	-10.2526
鼠	-10.2526
脫	-10.2527
婦	-10.2528
院	-10.2528
左	-10.2528
足	-10.2528
問題	-10.2528
總	-10.2529
遷	-10.2529
▁Ngodra	-10.2529
伴	-10.2529
春	-10.2529
農作物	-10.253
里	-10.253
閒	-10.253
閉	-10.253
Pilelresane	-10.253
腫	-10.253
虎頭蜂	-10.253
Kalrimadraw	-10.253
drisidrisi	-10.253
lrehelrehe	-10.253
▁cekecekelre	-10.253
▁ipoingaw	-10.253
功	-10.253
軟	-10.253
f	-10.253
癢	-10.253
景	-10.253
惜	-10.253
差	-10.253
▁maesale	-10.253
▁bakico	-10.253
關係	-10.253
月桃	-10.253
死亡	-10.253
Kolele	-10.253
▁laveke	-10.2531
味道	-10.2531
靠近	-10.2531
Arasɨ	-10.2531
沒關係	-10.2531
tobitobi	-10.2532
鞋子	-10.2532
▁tatavi	-10.2532
玩具	-10.2535
中間	-10.2535
上課	-10.2536
▁comai	-10.2537
掉落	-10.2539
savo	-10.2543
這件	-10.2544
▁nyamo	-10.2544
balate	-10.2544
很美麗	-10.2547
ilape	-10.2547
▁dromane	-10.2548
▁今天天氣	-10.2549
depɨ	-10.255
拿出來	-10.2553
▁我們去	-10.2561
那邊	-10.2565
lingaw	-10.2565
家屋	-10.2566
▁adrala	-10.2569
drodro	-10.2569
▁lrolai	-10.2586
▁你怎麼了	-10.2599
就像	-10.2605
▁moswa	-10.2612
otobai	-10.2627
難過	-10.2644
花生	-10.2645
bebelenge	-10.2658
先去	-10.2671
回家了	-10.2672
▁maela	-10.2681
lregelrege	-10.2684
venge	-10.2686
abebe	-10.2686
家名	-10.2704
我都	-10.2708
por	-10.271
叫人	-10.2717
tomé	-10.2735
我正在	-10.2748
lradhane	-10.2749
acilay	-10.2752
使他們	-10.2762
一個人	-10.2763
kelakela	-10.2777
在這	-10.2779
衣服嗎	-10.28
要吃什麼	-10.2802
▁tak	-10.2805
我自己	-10.2808
cé	-10.281
dawlo	-10.2816
tedre	-10.2842
▁yata	-10.2865
range	-10.2866
kolodro	-10.2901
人家	-10.2916
出門	-10.2921
士	-10.2922
搭飛機	-10.2922
捲	-10.2923
lace	-10.2923
報	-10.2924
備	-10.2925
移	-10.2925
響	-10.2925
窗	-10.2925
姐姐	-10.2925
冰	-10.2926
窩	-10.2926
驚	-10.2926
不聽話	-10.2926
尿	-10.2926
擊	-10.2926
番石榴	-10.2926
飛來飛去	-10.2926
▁adhadhame	-10.2926
必須	-10.2926
腰	-10.2926
釘	-10.2926
▁Taihoko	-10.2926
鳴	-10.2926
▁laobobolo	-10.2926
尤其	-10.2926
救	-10.2926
達魯瑪克	-10.2926
彈	-10.2926
組	-10.2926
冠	-10.2926
▁tradro	-10.2926
不見了	-10.2926
建築	-10.2926
我明天要去	-10.2926
沙	-10.2926
祝福	-10.2926
▁mawriva	-10.2926
立刻	-10.2927
▁那個女孩子喜歡	-10.2927
參與	-10.2927
vaevaeva	-10.2927
經常	-10.2927
並且	-10.2928
上班	-10.2928
dadavaca	-10.2928
放置	-10.2928
聚會	-10.2933
帶雨傘	-10.2936
溪水	-10.294
▁tokolro	-10.2941
▁tinono	-10.2942
todro	-10.2946
穿著	-10.2954
▁walromay	-10.2955
▁mokani	-10.2957
piti	-10.296
有時候	-10.296
▁piki	-10.2962
好好	-10.2963
▁longai	-10.2964
原來是	-10.2967
yakay	-10.2967
這條	-10.2971
agaga	-10.2972
些	-10.2978
▁pagay	-10.2988
▁wakanekane	-10.2988
▁syakay	-10.2993
重視	-10.3001
小米酒	-10.3004
▁我們正在	-10.3005
兩個人	-10.3008
不要再	-10.3016
讓他	-10.3017
▁akece	-10.3024
▁nakoni	-10.3037
沒有人	-10.3049
▁tinaso	-10.3053
▁valo	-10.3054
▁timo	-10.307
▁你現在	-10.3071
▁lina	-10.3074
edrekane	-10.308
當時	-10.3097
kadroa	-10.31
keme	-10.3106
tolri	-10.3106
▁pwaki	-10.311
的錢	-10.3123
palay	-10.3162
senay	-10.3164
pwalra	-10.3166
▁ngika	-10.318
aese	-10.3182
▁aha	-10.319
它的	-10.3197
結果	-10.3206
ongdo	-10.3214
家鄉	-10.3222
▁tamali	-10.3227
取名	-10.3229
asilanga	-10.3237
imae	-10.3272
▁amalra	-10.3275
esai	-10.3285
父	-10.3285
kecenge	-10.3289
kodrolro	-10.3302
ciyo	-10.3304
▁nito	-10.3308
一種	-10.331
碰	-10.3314
▁akanea	-10.3316
lodho	-10.3322
晚	-10.3329
電視	-10.3333
拜	-10.3335
應	-10.3336
釀	-10.3336
七	-10.3337
喪	-10.3337
資	-10.3338
吸	-10.3338
聖	-10.3338
避	-10.3338
終	-10.3338
逐	-10.3338
握	-10.3338
苗	-10.3338
躺	-10.3338
騙	-10.3338
沉	-10.3338
釣竿	-10.3338
▁Lavorase	-10.3338
▁bolabolay	-10.3338
▁makavyenenga	-10.3338
▁thkadane	-10.3338
侵	-10.3338
占	-10.3338
▁icecelrenge	-10.3338
那些孩子在玩耍	-10.3338
星星出來了	-10.3338
鹹	-10.3338
▁那個人是誰	-10.3338
acakelae	-10.3338
Kecelre	-10.3338
厲害	-10.3338
▁sobelebelenge	-10.3338
增加	-10.3338
草蓆	-10.3338
▁hikoki	-10.3338
感冒	-10.3338
kalrigili	-10.3338
們常常去探望祖父	-10.3339
可憐	-10.3339
釣魚	-10.3339
無論	-10.3339
▁sawalay	-10.3339
lringolo	-10.3339
熱鬧	-10.334
▁sangwa	-10.334
山林	-10.334
另外	-10.334
交代	-10.334
超過	-10.334
thɨné	-10.3341
vaaho	-10.3341
見面	-10.3342
傷口	-10.3342
掃地	-10.3343
▁lredreke	-10.3343
▁那個女人	-10.3343
放假	-10.3343
地板	-10.3343
等待	-10.3344
bici	-10.3344
男方	-10.3344
dethe	-10.3345
lribo	-10.3348
dayli	-10.3358
tokotoko	-10.3363
回部落	-10.3364
▁dodoli	-10.3364
▁wakelakela	-10.3372
很像	-10.3376
kaamani	-10.3379
在做什麼	-10.3381
▁niyama	-10.3383
madro	-10.3389
▁cekeleta	-10.3395
▁avé	-10.3396
▁drekai	-10.3405
singsili	-10.3406
boroboro	-10.3411
你的孩子	-10.3413
bibilrili	-10.3416
ikakwa	-10.3441
都在	-10.3455
的時候要	-10.3462
dawdaw	-10.347
▁yaino	-10.3476
▁takala	-10.3477
在田裡	-10.3491
▁lroiya	-10.3492
molatadre	-10.3501
▁maelre	-10.3509
cengecenge	-10.3517
二十	-10.3524
錢嗎	-10.3563
▁他被	-10.3575
▁ado	-10.3584
▁pavai	-10.3619
有一個妹妹	-10.3621
點鐘	-10.3634
papacay	-10.3637
tovi	-10.3653
▁makece	-10.3677
kameane	-10.372
打開	-10.3729
成熟	-10.3755
夏天	-10.3758
板	-10.376
止	-10.3761
裏	-10.3762
血	-10.3767
權	-10.3768
鹽	-10.3768
珠	-10.3768
福	-10.3768
詞	-10.3768
躲	-10.3768
聞	-10.3768
棒	-10.3768
傍晚	-10.3768
的儀式	-10.3768
陰	-10.3768
Cangale	-10.3768
▁ténsɨ	-10.3768
▁那個男孩子正在	-10.3768
感謝	-10.3768
唸	-10.3768
tiatina	-10.3768
哇	-10.3768
按	-10.3768
替	-10.3768
Usau	-10.3768
▁karidrange	-10.3769
▁oomoe	-10.3769
▁sovalé	-10.3769
教育	-10.3769
inpici	-10.3769
▁iday	-10.3769
適合	-10.3769
樂器	-10.3769
ivoko	-10.377
黃色	-10.377
平安	-10.377
曬乾	-10.3771
曬太陽	-10.3772
流利	-10.3772
▁cekelre	-10.3772
畫畫	-10.3773
▁talalé	-10.3773
停止	-10.3774
▁Taito	-10.3774
Takao	-10.3775
芋頭乾	-10.3775
身分	-10.3776
鼻子	-10.3778
瓶子	-10.3779
他們天天看電視	-10.378
的路	-10.3781
直到	-10.3781
dawda	-10.3783
到達	-10.3787
才不會	-10.3788
▁maolay	-10.3788
為甚麼	-10.3788
不客氣	-10.3789
放學	-10.3791
sawlri	-10.3793
▁是啊	-10.3793
▁waangeange	-10.3794
部分	-10.3802
到處	-10.3822
了解	-10.3828
athingalane	-10.3846
▁walopo	-10.3846
到獵物	-10.3852
能夠	-10.386
▁aolro	-10.3863
的是什麼	-10.3872
alranga	-10.3873
thithi	-10.3885
就還	-10.39
的日子	-10.3922
的時間	-10.3927
到田裡	-10.3937
每一	-10.3939
你弟弟	-10.3941
inino	-10.3944
kwakwa	-10.3944
請你	-10.3947
adrava	-10.3984
angeange	-10.3993
lrelre	-10.4024
odolri	-10.4054
▁tikiya	-10.4061
adili	-10.4064
會洗衣服	-10.4075
地面	-10.408
就叫	-10.4093
之事	-10.4094
▁pati	-10.4098
ngimiya	-10.411
日子	-10.4111
在唱歌	-10.4162
amadhalae	-10.4163
drima	-10.4166
salro	-10.4168
pici	-10.4171
件	-10.419
ceace	-10.4192
嚴	-10.4204
感	-10.4207
矮	-10.4208
繩	-10.4209
聊	-10.4213
我已經	-10.4213
透	-10.4214
骨	-10.4214
材	-10.4214
醫	-10.4215
藏	-10.4215
團	-10.4216
鬧	-10.4216
煩	-10.4217
季	-10.4217
盡	-10.4217
戰	-10.4217
霧	-10.4217
扁	-10.4217
勞	-10.4218
溫	-10.4218
那張椅子	-10.4218
系	-10.4218
埋	-10.4218
堂	-10.4218
優	-10.4218
嚼	-10.4218
坡	-10.4218
惡	-10.4218
池	-10.4218
▁demedeme	-10.4218
▁golrogolrane	-10.4218
▁icngɨcngɨ	-10.4218
▁月亮出來了	-10.4218
▁那些女孩子喜歡	-10.4218
森林	-10.4218
汗	-10.4218
蘭嶼	-10.4218
阿美族	-10.4218
顯	-10.4218
▁Usao	-10.4218
寬	-10.4218
忍	-10.4218
湖	-10.4218
議	-10.4218
很開心	-10.4218
途	-10.4218
Takanao	-10.4218
▁kinaomasa	-10.4218
簡單	-10.4218
永遠	-10.4218
asaseane	-10.4218
▁alopae	-10.4218
商量	-10.4218
▁sawalray	-10.4218
免得	-10.4218
守喪	-10.4218
教室	-10.4218
附近	-10.4219
老鷹	-10.4219
palribolo	-10.4219
制度	-10.4219
六個人	-10.4219
沒問題	-10.4219
▁odrava	-10.4219
動物園	-10.422
▁idai	-10.4221
某物	-10.4221
個性	-10.4221
自然	-10.4221
▁thené	-10.4222
樹枝	-10.4222
神明	-10.4223
▁aswala	-10.4223
那裏	-10.4224
很勤勞	-10.4224
labe	-10.4225
打電話	-10.4226
▁tatama	-10.4228
▁marodrawdrange	-10.4228
隨時	-10.4232
▁ngoalay	-10.4232
rima	-10.4233
dholrokali	-10.4234
▁kisace	-10.4236
他們昨天去	-10.4237
▁osolate	-10.4241
▁oonai	-10.4241
lawlaw	-10.4242
cɨngɨ	-10.4244
▁alraceni	-10.4244
▁nayyane	-10.4246
出生	-10.4249
▁Tay	-10.4251
機會	-10.4252
了許多	-10.4256
我的眼睛	-10.4264
eleme	-10.427
▁我父親	-10.4272
▁kalatadrane	-10.4282
做成	-10.4284
有關	-10.4287
soape	-10.4292
為了要	-10.4296
nagana	-10.431
▁kivaivay	-10.4312
▁on	-10.4342
mece	-10.4342
胖了	-10.4346
我的頭	-10.4364
malramalra	-10.4374
告訴我們	-10.4378
是男生	-10.4379
▁naganeini	-10.4386
▁madhe	-10.4396
當我們	-10.4397
ngoto	-10.441
留在	-10.442
▁midra	-10.4426
drekay	-10.4437
▁myaso	-10.4447
kabibilrili	-10.4451
個小孩有幾	-10.4461
▁這個小孩	-10.4465
▁Va	-10.4477
pito	-10.4479
kawrivane	-10.4485
還會	-10.4529
▁nosi	-10.4529
哪一	-10.4534
方式	-10.4539
女朋友	-10.4554
▁paswala	-10.4555
婚禮	-10.4561
一家人	-10.4567
和他	-10.4577
lrenege	-10.4583
但我	-10.4595
我沒有在	-10.4595
peelaela	-10.4605
遇	-10.4624
▁你會洗	-10.4637
居	-10.4639
長出	-10.4646
gelrethe	-10.4659
malreme	-10.4661
T	-10.4675
天天看電視	-10.4676
客	-10.4677
課	-10.4678
眾	-10.4678
就把	-10.4679
冬天	-10.468
kalromal	-10.4681
褲	-10.4684
世	-10.4684
特	-10.4685
運	-10.4686
知	-10.4686
▁他喜歡	-10.4686
友	-10.4687
座	-10.4687
願	-10.4687
積	-10.4687
餐	-10.4688
黑熊	-10.4688
卡	-10.4688
息	-10.4688
業	-10.4688
敢	-10.4688
宴	-10.4688
擠	-10.4688
戴著帽子	-10.4688
規	-10.4688
計	-10.4688
嚇	-10.4688
燈	-10.4688
Legeai	-10.4688
▁rgerge	-10.4688
岩	-10.4688
Malala	-10.4688
▁maelranenga	-10.4688
▁颱風來了	-10.4688
患	-10.4688
漏	-10.4688
蝦	-10.4688
下課了	-10.4688
勇士	-10.4688
項鍊	-10.4688
▁mabarenger	-10.4688
Lavakaw	-10.4689
鄰居	-10.4689
▁betakane	-10.4689
▁marimora	-10.4689
zioga	-10.4689
訓練	-10.4689
村莊	-10.4689
那張椅子很重	-10.4689
Sisili	-10.4689
湯匙	-10.4689
材料	-10.4689
新娘	-10.4689
鐵絲	-10.4689
那間房子很大	-10.4689
安靜	-10.4689
順便	-10.4689
▁emeeme	-10.4689
折斷	-10.4689
▁mararamaw	-10.469
vlak	-10.4691
▁masongo	-10.4692
裝滿	-10.4693
kiwco	-10.4694
▁yacengecenge	-10.4694
每年	-10.4697
▁lingase	-10.4697
▁makecelre	-10.4698
稻子	-10.4699
cengela	-10.47
11	-10.4702
尋找	-10.4702
▁awlro	-10.4703
心情	-10.4704
▁lodhaa	-10.4707
omece	-10.471
很冷	-10.4717
成熟了	-10.4717
▁wapacay	-10.472
lrikili	-10.4725
我的橡皮擦	-10.4726
▁idoro	-10.4726
何時	-10.4732
不懂	-10.4734
拿掉	-10.4735
oloco	-10.4742
▁lribange	-10.4743
kalrale	-10.4744
吃東西	-10.4748
霧台部落	-10.475
okolodro	-10.4753
lepenge	-10.4755
▁kicakwa	-10.4763
獵到	-10.4763
我們今天要去	-10.4764
dreadrekadhane	-10.4768
vavaga	-10.477
roboro	-10.4778
我從	-10.4785
tomatomane	-10.4795
要好好	-10.4797
多納部落	-10.4799
一起唱歌	-10.4805
▁kakolo	-10.4834
▁nakayla	-10.4842
apeca	-10.4842
的方式	-10.4843
▁vaiya	-10.4845
▁abai	-10.4875
vahe	-10.4877
rivo	-10.4896
出去玩	-10.4905
▁namiya	-10.4918
自己的孩子	-10.492
回來了	-10.4923
只是	-10.4926
siyo	-10.4944
現在是	-10.4945
cege	-10.4949
▁gar	-10.4953
▁Sia	-10.4963
目前	-10.4992
要互相	-10.5016
▁taiyane	-10.5017
▁tinali	-10.5024
▁Kava	-10.505
lropi	-10.5053
的土地	-10.5056
aniname	-10.5062
我很想念	-10.5064
我的衣服	-10.5074
vaiyane	-10.5114
apiyani	-10.5118
的眼睛	-10.5132
經	-10.5152
atakataka	-10.5155
odaodale	-10.5159
幾個	-10.5164
掃	-10.5166
marodrang	-10.5171
Kui	-10.5177
▁aikie	-10.5177
我今天	-10.5179
祈	-10.518
樑	-10.518
孩子喜歡畫圖	-10.5181
牆	-10.5181
盛	-10.5181
繡	-10.5181
文	-10.5182
蜂	-10.5182
曲	-10.5182
電腦	-10.5182
串	-10.5182
絕	-10.5182
塗	-10.5182
千	-10.5182
炒	-10.5182
臨	-10.5182
oponohae	-10.5182
▁Dripongo	-10.5182
▁makocingay	-10.5182
▁tevelengae	-10.5182
▁thiyawbo	-10.5182
危險	-10.5182
嘛	-10.5182
底	-10.5182
旱	-10.5182
餐廳	-10.5182
Lavurase	-10.5182
撒	-10.5182
鳳	-10.5182
調	-10.5182
ataleese	-10.5182
基	-10.5182
▁labaybay	-10.5182
限	-10.5182
隔	-10.5182
屏東縣	-10.5182
畢業	-10.5182
知識	-10.5182
洞穴	-10.5182
配偶	-10.5183
冰箱	-10.5183
賽跑	-10.5183
lrilrikodro	-10.5183
terese	-10.5183
獵獲	-10.5183
▁那些孩子喜歡	-10.5184
祈雨祭	-10.5184
▁padaalro	-10.5184
圓形	-10.5184
每次	-10.5184
朵花	-10.5184
剝皮	-10.5185
第一次	-10.5185
母語	-10.5185
▁valavalake	-10.5186
跟隨	-10.5186
我今天從	-10.5186
完了	-10.5187
挑水	-10.5187
▁mabeabe	-10.5187
兩條	-10.5187
烤肉	-10.5188
▁kaowai	-10.5188
▁kosianga	-10.5188
過程	-10.5189
門口	-10.5189
只能	-10.519
▁請坐	-10.5192
▁bilibili	-10.5193
▁他是你的	-10.5195
▁omiidhe	-10.5195
▁twalrai	-10.5197
馬上	-10.5198
能力	-10.5198
▁molregelrege	-10.5199
▁vaivai	-10.5199
變得	-10.5202
dresenge	-10.5202
inono	-10.5202
gelregelr	-10.5205
▁piyani	-10.5206
dradrao	-10.5207
人類	-10.5211
一下子	-10.5225
大石頭	-10.5229
▁lobibilrili	-10.523
▁bokosi	-10.5234
▁niake	-10.5234
▁twatomane	-10.5238
drepet	-10.524
▁madrao	-10.5244
langadhako	-10.5245
去哪裡了	-10.5247
▁amya	-10.5259
馬路	-10.5262
adhaili	-10.5263
有些	-10.5267
awngo	-10.5268
個月	-10.5277
rotho	-10.5279
去打獵	-10.5288
怎麼說	-10.5289
▁kaiyana	-10.5293
▁kɨla	-10.5301
▁makito	-10.5304
▁lridolro	-10.5308
telray	-10.5313
也可以	-10.5313
比較好	-10.532
omikiae	-10.5321
把這	-10.5323
omoni	-10.5327
很長	-10.5327
kanani	-10.5357
巢	-10.5361
▁amowa	-10.5367
▁mohi	-10.539
你的衣服	-10.5485
sidrama	-10.5525
lebeane	-10.5563
我天天	-10.5569
撞	-10.5573
每個	-10.5613
互	-10.5635
何	-10.5648
▁talragili	-10.5661
dipi	-10.5663
認	-10.5683
願意	-10.5687
katwasa	-10.569
孫	-10.5693
裙	-10.5694
呼	-10.5694
置	-10.5697
髮	-10.5698
baliyo	-10.5698
健康	-10.5699
雜	-10.5699
讀	-10.57
確	-10.5701
西	-10.5701
訂	-10.5701
附	-10.5701
招	-10.5701
助	-10.5701
陪	-10.5702
是黑色的	-10.5702
設	-10.5702
肩	-10.5702
哀	-10.5702
密	-10.5702
踩	-10.5702
俗	-10.5702
展	-10.5702
爛	-10.5702
Z	-10.5702
島	-10.5702
良	-10.5702
弱	-10.5702
損	-10.5702
染	-10.5702
盆	-10.5702
valvalke	-10.5702
▁lravavalrake	-10.5702
▁mahimoho	-10.5702
▁taiLabowa	-10.5702
▁takaahodhange	-10.5702
syereke	-10.5702
▁matelrege	-10.5702
▁senasenay	-10.5702
▁那些男孩子正在	-10.5702
鋪	-10.5702
lawbobolo	-10.5702
osahio	-10.5702
▁barongolo	-10.5702
催	-10.5702
吞	-10.5702
盤	-10.5702
醃	-10.5702
攪拌	-10.5702
甕	-10.5702
繞	-10.5702
莖	-10.5702
lingilingi	-10.5702
執	-10.5702
布農族	-10.5702
樓梯	-10.5702
蒸	-10.5702
阿姨	-10.5702
▁aningitha	-10.5702
尾巴	-10.5702
▁wathingalako	-10.5702
西瓜	-10.5702
讚美	-10.5702
iidheme	-10.5702
▁kaocaae	-10.5702
鹽巴	-10.5702
法律	-10.5703
▁totomo	-10.5703
▁takawngo	-10.5703
順利	-10.5703
洪水	-10.5703
▁請問您	-10.5703
霧台鄉	-10.5703
追求	-10.5704
▁他們的朋友很	-10.5704
逃跑	-10.5705
失望	-10.5705
集合	-10.5705
六十	-10.5705
kiragay	-10.5705
杯子	-10.5705
完全	-10.5706
▁pagai	-10.5706
kirarimo	-10.5706
認為	-10.5706
令人	-10.5706
▁ngwadreke	-10.5707
▁thakongadavane	-10.5709
早一點	-10.5709
kisaalro	-10.5709
最近	-10.571
▁cekelae	-10.5711
▁dingva	-10.5711
▁kayasane	-10.5711
漢人	-10.5713
很矮	-10.5714
感到	-10.5715
ahwa	-10.5715
▁kodrolo	-10.5717
嚴重	-10.5718
在樹上	-10.5718
而已	-10.5718
當然	-10.572
darepe	-10.572
我是魯凱族	-10.5723
不要忘記	-10.5724
ililoko	-10.5724
▁tikiane	-10.5727
esadhane	-10.5727
▁lenay	-10.5729
▁ingpico	-10.5731
kacipi	-10.5733
▁yakaiyana	-10.5735
bilibil	-10.5739
雨停了	-10.574
syaeke	-10.574
▁kivaevange	-10.5741
送到	-10.5744
跌倒了	-10.5745
▁coloko	-10.5748
▁mwasaka	-10.5748
yiene	-10.5749
傳說	-10.5753
▁你們為什麼	-10.5753
kɨtɨ	-10.5756
他很喜歡	-10.5759
▁他講話	-10.576
▁abay	-10.5772
遇到	-10.5773
▁pakisalro	-10.5775
也不會	-10.5791
▁soTaromak	-10.5802
bekace	-10.5807
▁wadreele	-10.5807
死了	-10.5816
▁makaelaela	-10.5821
bilrili	-10.5824
▁ngokay	-10.5829
▁lenai	-10.5846
sinsi	-10.5855
nɨme	-10.5856
把它	-10.5859
cecele	-10.588
我很喜歡	-10.592
▁alakai	-10.5925
daedae	-10.5938
的身體	-10.5959
▁apaw	-10.5997
adradraw	-10.603
▁Po	-10.6032
言	-10.6036
有好多	-10.6048
▁kwalri	-10.6078
開花	-10.6108
▁cvél	-10.6113
pwane	-10.6117
我們家有	-10.6126
很多人	-10.6145
▁sokobo	-10.6172
家中	-10.619
社	-10.6237
肚	-10.6241
享	-10.6247
akocingalre	-10.6247
遊	-10.6248
收穫	-10.6248
弟	-10.6249
臟	-10.6249
攤	-10.6249
仍	-10.6249
祝	-10.6249
猪	-10.625
頸	-10.625
Tanubake	-10.625
從事什麼	-10.625
Mabalriw	-10.625
尖	-10.625
齊	-10.625
▁tarwarodrang	-10.625
▁thɨkadane	-10.625
今年幾歲	-10.625
屁股	-10.625
潔	-10.625
童	-10.625
袖	-10.625
鉤	-10.625
babiabila	-10.625
▁maihange	-10.625
捆	-10.625
預	-10.625
幼	-10.625
慕	-10.625
Cakere	-10.625
致	-10.625
太貴了	-10.625
端	-10.625
▁tiyanese	-10.625
▁mabebere	-10.625
▁lwangay	-10.625
kongadangadavane	-10.625
歌謠	-10.625
▁solasolate	-10.625
膝蓋	-10.625
商店	-10.625
bilrilane	-10.625
Vaaho	-10.625
ivivai	-10.625
信仰	-10.625
創造	-10.625
▁tahokoko	-10.625
耳環	-10.625
▁tianese	-10.625
除非	-10.625
dremare	-10.625
▁lwangai	-10.625
財產	-10.6251
olilio	-10.6251
否則	-10.6251
thengete	-10.6251
▁polringao	-10.6251
▁asasaa	-10.6251
傳承	-10.6251
去探望祖父	-10.6251
藍色	-10.6251
真正的	-10.6251
你是不是	-10.6252
▁throbo	-10.6252
去看醫生	-10.6252
八十	-10.6253
▁tilila	-10.6253
兔子	-10.6253
去採	-10.6253
蛇類	-10.6253
▁aolrolai	-10.6254
過世	-10.6255
同學們	-10.6255
▁kawrivariva	-10.6255
分鐘	-10.6255
▁talaisi	-10.6256
▁latadhe	-10.6257
▁obolane	-10.6258
▁sabaw	-10.6259
▁baadha	-10.626
給別人	-10.626
▁aanai	-10.6261
通常	-10.6261
打碎	-10.6261
adaili	-10.6262
▁sakiké	-10.6263
需要什麼	-10.6264
▁sasopisopilrane	-10.6264
▁karadha	-10.6264
碰到	-10.6264
很辛苦	-10.6265
很容易	-10.6267
從此	-10.6268
ngelre	-10.6269
olalai	-10.6269
yoobi	-10.6271
穿衣服	-10.6271
行為	-10.6274
動作	-10.6274
▁vasaw	-10.6275
爬上	-10.6276
是否	-10.6277
這本書	-10.6278
▁modaane	-10.6278
一片	-10.6279
▁isivi	-10.628
很深	-10.6282
對方	-10.6282
▁wadawlo	-10.6284
▁bavane	-10.6296
▁lroza	-10.6302
去台北	-10.6306
這次	-10.6307
▁mamodo	-10.631
▁kidredrem	-10.6314
過後	-10.6318
▁我常常	-10.6331
▁acebe	-10.6338
lailai	-10.6343
是什麼時候	-10.6348
▁他常	-10.6354
嫁給	-10.6369
maposale	-10.6373
竹籃	-10.6375
的妹妹	-10.6378
▁abolro	-10.638
採收	-10.638
▁dhoma	-10.6381
vaivay	-10.6388
開門	-10.6393
▁bolri	-10.6446
背籃	-10.6449
天天讀書	-10.6479
cengane	-10.6514
是做什麼	-10.6541
kaneako	-10.6552
學會	-10.6561
lreeme	-10.6578
payso	-10.6583
▁polebe	-10.6587
▁eh	-10.6631
字	-10.6657
很重	-10.6667
animo	-10.67
懂	-10.6771
popoli	-10.6785
否	-10.68
的頭髮很長	-10.6814
掌	-10.6816
泥	-10.6822
論	-10.6825
獲	-10.6825
反	-10.6826
朵	-10.6827
刻	-10.6829
室	-10.6829
專	-10.6829
導	-10.6829
絲	-10.6829
財	-10.6829
耳	-10.6829
勤	-10.6829
級	-10.683
費	-10.683
咒	-10.683
恐	-10.683
Kulele	-10.683
餘	-10.683
磚	-10.683
施	-10.683
我的爸爸是	-10.683
退	-10.683
Palripilripi	-10.683
傲	-10.683
舒	-10.683
乳	-10.683
悲	-10.683
我來找你	-10.683
蹲	-10.683
局	-10.683
緣	-10.683
耐	-10.683
臭	-10.683
誇	-10.683
那麼多	-10.683
aovaovaha	-10.683
▁kacalisiya	-10.683
▁karimorimoro	-10.683
暈	-10.683
生殖器	-10.683
的顏色	-10.683
石壓式陷阱	-10.683
脆	-10.683
臼	-10.683
他是我的哥哥	-10.683
是哪一族	-10.683
胸	-10.683
Aru	-10.683
卑南族	-10.683
咳	-10.683
祈雨	-10.683
哪些	-10.683
的衣服是紅色的	-10.683
▁drinki	-10.683
均	-10.683
勢	-10.683
岸	-10.683
▁vanidho	-10.683
糯米飯	-10.683
teresɨ	-10.683
lribalribate	-10.683
溫暖	-10.683
▁mokoné	-10.683
▁poalrace	-10.683
▁senate	-10.683
皮膚	-10.683
thingathingale	-10.683
旅遊	-10.683
曾經	-10.683
協助	-10.683
世界	-10.683
佩戴	-10.683
討論	-10.683
聚餐	-10.683
刷牙	-10.683
▁kawariva	-10.683
▁lroolai	-10.683
訂婚	-10.6831
迷路	-10.6831
排隊	-10.6831
糧食	-10.6831
嬰兒	-10.6831
稱呼	-10.6831
澆水	-10.6831
賣完了	-10.6831
綠色	-10.6831
盛裝	-10.6831
石牆	-10.6831
▁那個女人有幾	-10.6831
▁orasi	-10.6831
位置	-10.6831
▁marpa	-10.6832
kongokongo	-10.6832
回報	-10.6832
破壞	-10.6832
▁taikie	-10.6832
dwo	-10.6832
擔心	-10.6833
戴帽子	-10.6834
為何	-10.6834
稻米	-10.6834
▁solote	-10.6834
▁comé	-10.6835
加入	-10.6835
最重要的	-10.6836
drimiti	-10.6836
▁kialalra	-10.6836
接受	-10.6837
▁lamataka	-10.6837
四十	-10.6837
三十	-10.6837
▁ngodoi	-10.6838
哪一個	-10.6838
▁borasi	-10.6839
▁pomadro	-10.6839
ecengae	-10.684
yobing	-10.6842
站著	-10.6844
▁calringa	-10.6845
▁那裡有	-10.6846
▁cingpi	-10.6846
那樣	-10.6846
tamatama	-10.6849
▁déda	-10.6856
未來	-10.6858
▁watomatomane	-10.6859
▁tapya	-10.6865
odroli	-10.6869
一個一個	-10.687
▁wamece	-10.6874
▁mobere	-10.6875
kilalra	-10.6877
再見了	-10.6877
▁我吃了	-10.6884
有空嗎	-10.6884
▁我不知道	-10.6888
都是用	-10.6892
▁odoro	-10.6894
cekela	-10.6903
這位	-10.6912
▁lingao	-10.6914
laapa	-10.6943
是由	-10.6944
elrehe	-10.6951
同意	-10.6956
▁liké	-10.7004
▁anatoma	-10.7005
langalanga	-10.7009
▁bobo	-10.7015
要知道	-10.7027
然後就	-10.7029
tangadran	-10.7057
如果我們	-10.7064
他常常	-10.7078
pokoan	-10.7083
兩人	-10.7111
mikita	-10.7124
lrelreme	-10.714
thadalane	-10.7199
火車	-10.7199
的學校	-10.721
▁kalakecelra	-10.7249
bekelane	-10.726
langalangai	-10.7263
人民	-10.7288
Tanebake	-10.729
看電視	-10.7295
vorasi	-10.7295
▁madhalameka	-10.7338
太大	-10.7341
大學	-10.7361
家裡來	-10.7371
pasolri	-10.7371
imay	-10.7374
▁zikang	-10.7397
asika	-10.7399
omiki	-10.7403
他的孩子	-10.7408
客氣	-10.7417
聚	-10.743
桌	-10.7435
袋	-10.7436
青	-10.7438
目	-10.744
▁Drokai	-10.7443
充	-10.7444
糧	-10.7444
探望	-10.7444
休	-10.7445
討	-10.7445
犯	-10.7445
奇	-10.7445
迎	-10.7445
店	-10.7445
伸	-10.7445
唉	-10.7445
辣	-10.7445
榮	-10.7445
Sulriape	-10.7445
樓	-10.7445
Drepelrange	-10.7445
柄	-10.7445
凹	-10.7445
斗	-10.7445
晃	-10.7445
汁	-10.7445
塞	-10.7445
太陽下山了	-10.7445
浮	-10.7445
潭	-10.7445
甲	-10.7445
膽	-10.7445
Cegaw	-10.7445
talovayvay	-10.7445
▁avalrovalro	-10.7445
▁makocingai	-10.7445
▁teldrɨdrɨkane	-10.7445
你叫什麼名字	-10.7445
官	-10.7445
我有一個哥哥	-10.7445
搭火車去臺東	-10.7445
搭高鐵去高雄	-10.7445
李	-10.7445
繫	-10.7445
雪	-10.7445
drakehale	-10.7445
▁bɨcɨnge	-10.7445
偏	-10.7445
寄	-10.7445
搭捷運	-10.7445
老公公	-10.7445
額	-10.7445
嫩	-10.7445
梳	-10.7445
龍	-10.7445
她忘了	-10.7445
縣	-10.7445
Pagare	-10.7445
對不起	-10.7445
缺乏	-10.7445
湊	-10.7445
維	-10.7445
賜福	-10.7445
anahalre	-10.7445
抱歉	-10.7445
丟擲	-10.7445
▁makalrilaw	-10.7445
足夠	-10.7446
▁valisane	-10.7446
▁saabaw	-10.7446
▁topapalra	-10.7446
▁kayasasane	-10.7446
勉強	-10.7446
象徵	-10.7446
▁sarké	-10.7446
擔任	-10.7446
賺錢	-10.7446
芒草	-10.7446
錄影	-10.7446
▁thkebe	-10.7446
護士	-10.7446
▁osagi	-10.7446
掀開	-10.7446
▁pwatase	-10.7446
聚在一起	-10.7446
懷念	-10.7446
▁Uono	-10.7446
drangedrange	-10.7447
麻煩	-10.7447
▁kakorongo	-10.7447
我們買了	-10.7447
星期幾	-10.7447
你們有賣	-10.7447
syalikay	-10.7447
特色	-10.7447
▁laobolo	-10.7447
親友	-10.7448
常常說族語	-10.7448
thingalane	-10.7448
在吃芋頭	-10.7448
弄髒	-10.7448
九十	-10.7448
▁kalalekete	-10.7449
karedele	-10.7449
samadre	-10.745
怎麼辦	-10.745
正式	-10.745
命名	-10.745
捲起來	-10.745
洗碗	-10.7451
之間	-10.7451
padalronga	-10.7451
▁我是一個	-10.7452
肚子痛	-10.7452
▁lomase	-10.7452
處理	-10.7453
▁siyanea	-10.7454
發燒	-10.7454
獵刀	-10.7455
忘記帶	-10.7457
做事情	-10.7458
其中	-10.7458
傷心	-10.7459
就是這樣	-10.746
▁titini	-10.7462
我們去買	-10.7462
快到了	-10.7463
▁isiyo	-10.7465
▁talagi	-10.7467
▁malisilisi	-10.7467
這支	-10.7468
三天	-10.7473
▁你們昨天	-10.7474
thekadan	-10.7476
怎麼樣	-10.7478
外地	-10.7479
rothoko	-10.7482
▁ilroko	-10.7482
我的帽子	-10.7483
好久	-10.7484
有許多	-10.7485
▁sinci	-10.7494
雨水	-10.7499
不在家	-10.7508
同時	-10.7509
osakene	-10.7517
owalay	-10.7524
▁niara	-10.7531
這是山豬	-10.7536
後天	-10.7538
kaswi	-10.7563
saha	-10.7582
很想念祖母	-10.7596
就離開	-10.7598
▁pacongol	-10.76
露出	-10.7603
amaninga	-10.7635
▁多吃	-10.7638
鐘起床	-10.7646
可能會	-10.7649
cogane	-10.7705
不好吃	-10.7709
valeval	-10.7761
我的陷阱	-10.7795
silapa	-10.78
ongting	-10.7898
也沒	-10.7918
露	-10.7936
一條	-10.7944
我們要去	-10.7947
給孩子	-10.7947
▁tacekecekel	-10.7962
需	-10.7973
陽光	-10.7979
很高興	-10.8007
大家一起	-10.8011
kidremedreme	-10.8038
吃水果	-10.804
▁mabab	-10.8046
▁kivaevang	-10.8072
▁madalama	-10.8074
▁and	-10.8078
boboo	-10.8089
▁omaoma	-10.8093
織	-10.8099
義	-10.81
綠	-10.81
右	-10.81
忘	-10.81
續	-10.81
示	-10.81
紙	-10.8101
遺	-10.8101
捉	-10.8101
姊妹	-10.8101
協	-10.8101
吉	-10.8101
棵	-10.8101
段	-10.8101
默	-10.8101
又大又	-10.8101
速	-10.8101
壯	-10.8101
尺	-10.8101
缺	-10.8101
▁你爸爸很	-10.8101
暴	-10.8101
洋	-10.8101
穩	-10.8101
我的鉛筆	-10.8101
伯	-10.8101
句	-10.8101
吼	-10.8101
枯	-10.8101
疲	-10.8101
藝	-10.8101
makalrwalromale	-10.8101
matikorwane	-10.8101
takidremedremane	-10.8101
toladhekae	-10.8101
trɨtrɨ	-10.8101
▁Kongadavane	-10.8101
▁icongoonga	-10.8101
▁kakwakodhane	-10.8101
▁rarokodrane	-10.8101
▁soragele	-10.8101
克	-10.8101
唷	-10.8101
彩虹出來了	-10.8101
摺	-10.8101
胃	-10.8101
計程車	-10.8101
Tahomake	-10.8101
▁bingkiyo	-10.8101
▁marodrenge	-10.8101
▁zyoga	-10.8101
拆	-10.8101
talrailragi	-10.8101
▁好久不見	-10.8101
你從哪裡來	-10.8101
我今年	-10.8101
沾	-10.8101
這棵樹	-10.8101
騎摩托車去	-10.8101
umu	-10.8101
vilrilae	-10.8101
▁mabelreng	-10.8101
第一名	-10.8101
▁matoalrai	-10.8101
▁retesane	-10.8101
伐	-10.8101
倆	-10.8101
感覺	-10.8101
王	-10.8101
跟同學借	-10.8101
Lavaoso	-10.8101
▁drakeale	-10.8101
歷史	-10.8101
素	-10.8101
跡	-10.8101
▁你晚上幾點	-10.8101
▁我最喜歡	-10.8101
榮耀	-10.8101
搓揉	-10.8101
劈	-10.8101
一個小時	-10.8101
辣椒	-10.8101
▁asingitha	-10.8101
▁salawngane	-10.8101
溫泉	-10.8101
▁marɨgi	-10.8101
蜂蜜	-10.8101
那棵樹	-10.8101
kalavalava	-10.8101
延續	-10.8101
kaohiva	-10.8101
▁amokoani	-10.8102
lripethel	-10.8102
參觀	-10.8102
▁coboso	-10.8102
野獸	-10.8102
▁alaiyasi	-10.8102
超越	-10.8102
貢品	-10.8102
dwai	-10.8102
結束	-10.8102
的樣子	-10.8102
彎曲	-10.8102
civare	-10.8102
▁movalrio	-10.8102
盡量	-10.8102
vongovongo	-10.8102
揹負	-10.8103
▁kahaha	-10.8103
飛鼠	-10.8103
打雷	-10.8103
▁apwi	-10.8103
照片	-10.8103
其實	-10.8104
流血	-10.8104
▁palraingi	-10.8104
▁ikné	-10.8104
drengedrenge	-10.8104
雜草	-10.8104
▁我要離開	-10.8104
▁不論	-10.8105
搖動	-10.8105
▁sapacapacasane	-10.8105
vangate	-10.8105
傳統服飾	-10.8105
脫掉	-10.8106
原本	-10.8106
palalé	-10.8106
▁asesane	-10.8107
接近	-10.8107
一起去打獵	-10.8107
清理	-10.8107
▁capange	-10.8107
五十	-10.8109
請假	-10.8109
ngikakamani	-10.8109
喜愛	-10.8109
水泥	-10.8109
sarade	-10.811
打架	-10.811
解開	-10.811
拍打	-10.8111
▁tedrane	-10.8111
▁maligilri	-10.8114
忘了帶筆	-10.8114
vienɨ	-10.8115
▁kadola	-10.8115
少女	-10.8117
放在那裡	-10.8117
▁男用	-10.8117
火燒	-10.8117
▁sakabane	-10.8118
上衣	-10.8119
langalangay	-10.812
出去的時候	-10.812
掉下來	-10.8121
快一點	-10.8122
不願意	-10.8122
▁syavava	-10.8122
▁caylri	-10.8122
cikipi	-10.8123
白天	-10.8127
lɨngé	-10.813
和我們一起	-10.8133
不必	-10.8134
abibay	-10.8134
tinokocingalrane	-10.8136
走的路	-10.8137
paramoro	-10.8139
這是貓頭鷹	-10.8141
▁nyama	-10.8143
▁motavanane	-10.8146
你的筆在	-10.8151
帶回家	-10.8152
不管	-10.8153
受到	-10.8166
▁noama	-10.8167
▁opoa	-10.8171
幫他	-10.818
▁我的筆在	-10.8185
ngwalai	-10.8207
babadhane	-10.8209
小刀	-10.8217
每個人	-10.8223
的份	-10.8234
▁ngwakai	-10.8241
driyane	-10.8253
▁你等一下要	-10.8259
被偷	-10.8259
▁Twa	-10.8262
▁peela	-10.8268
教你	-10.8275
cecelre	-10.8281
就算	-10.8335
難得	-10.8396
▁tobava	-10.844
縫製	-10.845
東魯凱	-10.8454
ngiamia	-10.8476
無力	-10.8485
一份	-10.8487
vagé	-10.8515
▁看他	-10.8533
▁mathaithariri	-10.8563
親屬	-10.8583
▁tomatoma	-10.8645
▁laceng	-10.8666
傘	-10.8726
wmasane	-10.8785
dredrele	-10.8793
瓜	-10.8795
錶	-10.88
▁那些孩子	-10.88
撿	-10.88
drengere	-10.88
尊	-10.8801
答	-10.8801
藍	-10.8802
折	-10.8802
適	-10.8802
豐	-10.8802
考	-10.8802
微	-10.8802
商	-10.8802
困	-10.8802
周	-10.8802
貨	-10.8803
階	-10.8803
舖	-10.8803
箱	-10.8803
冒	-10.8803
膀	-10.8803
塑	-10.8803
罪	-10.8803
延	-10.8803
暫	-10.8803
生孩子	-10.8803
智慧	-10.8803
舉行儀式	-10.8803
封	-10.8803
安慰	-10.8803
斤	-10.8803
罰	-10.8803
臥	-10.8803
衝	-10.8803
喚	-10.8803
餵	-10.8803
acocaocao	-10.8803
avaevaehe	-10.8803
tangidrakakalane	-10.8803
▁akanekanea	-10.8803
▁bébibé	-10.8803
▁médavli	-10.8803
▁tarasolrasolraw	-10.8803
戒	-10.8803
灑	-10.8803
的衣服是白色的	-10.8803
祝你生日快樂	-10.8803
要努力	-10.8803
陷阱抓	-10.8803
Gilagilaw	-10.8803
Paidrisi	-10.8803
solsolt	-10.8803
topatilai	-10.8803
▁拿出你的	-10.8803
扛	-10.8803
渣	-10.8803
打噴嚏	-10.8803
抽	-10.8803
蔥	-10.8803
都喜歡唱歌	-10.8803
makataamani	-10.8803
sahivoe	-10.8803
▁talaalibi	-10.8803
初	-10.8803
吃早餐	-10.8803
快進來	-10.8803
昭和草	-10.8803
淹	-10.8803
藜	-10.8803
lrilrigili	-10.8803
▁maimoro	-10.8803
▁yikolaw	-10.8803
祂	-10.8803
紛	-10.8803
模仿	-10.8803
▁cokocoko	-10.8803
Drengere	-10.8803
戀	-10.8803
的外套	-10.8803
▁現在是夏天	-10.8803
▁kiasamola	-10.8803
▁matwase	-10.8803
規範	-10.8803
討厭	-10.8803
這是我種的	-10.8803
▁tangimiane	-10.8803
▁現在是幾點	-10.8803
▁dramahe	-10.8803
瞭解	-10.8803
靈魂	-10.8803
tingnao	-10.8803
▁baboy	-10.8803
▁aswalalanga	-10.8804
▁soadrekay	-10.8804
我的名字叫	-10.8804
holrolo	-10.8804
堆積	-10.8804
談論	-10.8804
毛巾	-10.8804
最大的	-10.8804
▁sawngolane	-10.8804
決定	-10.8804
▁odalre	-10.8804
招待	-10.8804
祈求	-10.8804
餅乾	-10.8804
拍照	-10.8805
▁tomaomase	-10.8805
水缸	-10.8805
右邊	-10.8805
枕頭	-10.8805
田鼠	-10.8805
▁konadroma	-10.8805
▁kacalrisiya	-10.8805
▁alwalo	-10.8805
▁okaodho	-10.8805
lapolapo	-10.8805
▁上課的時候	-10.8805
retege	-10.8805
座位	-10.8805
▁lwiya	-10.8805
期間	-10.8805
遊玩	-10.8806
回應	-10.8806
表現	-10.8806
薪水	-10.8806
河流	-10.8806
用手指	-10.8807
▁laalake	-10.8807
kelrakelra	-10.8807
交換	-10.8807
獲得	-10.8807
saleké	-10.8807
趕鳥	-10.8808
藏起來	-10.8808
cɨngɨlɨ	-10.8808
道路	-10.8808
▁wadoo	-10.8809
長褲	-10.8809
骨頭	-10.8809
▁Toko	-10.881
野外	-10.881
男青年	-10.8811
▁ngodalrane	-10.8811
sipelreng	-10.8812
軍人	-10.8812
bangalre	-10.8812
裂開	-10.8813
掃把	-10.8813
小小的	-10.8814
眾人	-10.8818
12	-10.8819
冬天時	-10.8819
白米	-10.882
▁kaelrea	-10.882
人很勤勞	-10.8821
夏天時	-10.8821
起火	-10.8822
山羊	-10.8823
▁takesi	-10.8823
isasadra	-10.8824
那隻狗	-10.8825
才知道	-10.8825
▁bakale	-10.8826
palangane	-10.8827
手鍬	-10.8828
不停	-10.8829
我的頭髮	-10.8831
icecelen	-10.8834
▁alracedha	-10.8834
baadhane	-10.8834
▁adethe	-10.8835
▁haoso	-10.8836
回答說	-10.8837
▁miakaw	-10.8839
▁lakoni	-10.8841
屋子	-10.8845
▁ocengele	-10.8847
asalisi	-10.885
▁moasaka	-10.8851
lrialria	-10.8855
▁itara	-10.8866
我們的老師	-10.8878
給你們	-10.8879
cavalri	-10.8886
這是你的	-10.8887
發出	-10.8888
▁dodo	-10.891
凸出	-10.8916
那是地瓜	-10.8928
ragai	-10.8933
▁apokoa	-10.8933
olrwane	-10.894
▁sasing	-10.8941
kiraraga	-10.895
lecege	-10.8952
我的學校	-10.8961
喜歡看電視	-10.8989
tawpongo	-10.9006
祖	-10.9051
pacengecenge	-10.9088
痛苦	-10.9118
▁maeae	-10.9145
人數	-10.9145
odripi	-10.9163
民族	-10.9166
kilrongo	-10.9221
cingase	-10.926
為主	-10.9299
▁siking	-10.9388
ababay	-10.939
avagay	-10.9413
小米田	-10.9521
挑	-10.9551
剩	-10.9552
超	-10.9554
擔	-10.9554
屬	-10.9555
非	-10.9555
雄	-10.9556
承	-10.9557
歡	-10.9557
那間房子	-10.9557
餅	-10.9557
娘	-10.9557
育	-10.9557
責	-10.9557
列	-10.9558
刷	-10.9558
慶	-10.9558
職	-10.9558
曾	-10.9558
怪	-10.9558
異	-10.9558
降	-10.9558
質	-10.9558
派	-10.9558
衛生紙	-10.9558
席	-10.9558
娶	-10.9558
泰雅族	-10.9558
涉	-10.9558
炭	-10.9558
秀	-10.9558
遭	-10.9558
驅	-10.9558
Drangalro	-10.9558
垂	-10.9558
奔	-10.9558
拳	-10.9558
牽	-10.9558
羞	-10.9558
越來越	-10.9558
ipoyingaw	-10.9558
makatamalie	-10.9558
▁Kalrimadrao	-10.9558
▁Mooni	-10.9558
▁madileange	-10.9558
▁makapayrange	-10.9558
▁mkatamné	-10.9558
▁salesese	-10.9558
▁saseveha	-10.9558
▁tangilribatane	-10.9558
國民小學	-10.9558
旺	-10.9558
杖	-10.9558
真是太棒了	-10.9558
票	-10.9558
鎖	-10.9558
騎腳踏車上學	-10.9558
驚訝	-10.9558
biilanenga	-10.9558
▁madɨlamɨ	-10.9558
▁podriadringay	-10.9558
▁sikakathane	-10.9558
城	-10.9558
腔	-10.9558
▁Mrino	-10.9558
▁aidridringane	-10.9558
▁mialrealre	-10.9558
乘	-10.9558
妝	-10.9558
渴	-10.9558
滅	-10.9558
漲	-10.9558
老師要帶我們去	-10.9558
茄苳樹	-10.9558
蘭	-10.9558
遍	-10.9558
▁kalimeme	-10.9558
▁pakisopilri	-10.9558
▁大約要	-10.9558
很有趣	-10.9558
捏	-10.9558
灌	-10.9558
糰	-10.9558
薯	-10.9558
晴朗	-10.9558
▁sesesane	-10.9558
劃	-10.9558
黏	-10.9558
宣	-10.9558
我有很多朋友	-10.9558
普	-10.9558
阻擋	-10.9558
飲	-10.9558
ipasolriya	-10.9558
避免	-10.9558
osakaele	-10.9558
pasalrivane	-10.9558
浸泡	-10.9558
肯	-10.9558
▁matelege	-10.9558
gobabocolo	-10.9558
▁marimoro	-10.9558
升	-10.9558
長高了	-10.9558
manemele	-10.9558
遊戲	-10.9558
例如	-10.9558
跛腳	-10.9559
旋轉	-10.9559
義務	-10.9559
seasenay	-10.9559
丟棄	-10.9559
排列	-10.9559
aiyawy	-10.9559
歡樂	-10.9559
購買	-10.9559
sihaovo	-10.9559
尊敬	-10.9559
▁legelege	-10.9559
宗教	-10.9559
連續	-10.9559
Kadrangil	-10.9559
竹竿	-10.9559
贈送	-10.9559
▁taowana	-10.9559
製造	-10.9559
▁madelame	-10.9559
dalamane	-10.9559
tomatomana	-10.9559
▁valakini	-10.9559
擋住	-10.956
泥土	-10.956
▁thɨrobo	-10.956
▁tolrisisi	-10.956
茂林社	-10.956
▁kipingini	-10.956
kavaivai	-10.956
通知	-10.956
thathatha	-10.956
滿足	-10.9561
▁lamolai	-10.9561
七十	-10.9561
雙方	-10.9561
鐘睡覺	-10.9561
左邊	-10.9561
▁alroono	-10.9561
撿起來	-10.9561
▁kɨnamɨ	-10.9562
木板	-10.9562
現代	-10.9562
▁toomao	-10.9562
四個人	-10.9562
▁lamatakataka	-10.9562
男士	-10.9562
身體健康	-10.9562
三本書	-10.9563
pathagila	-10.9563
笛子	-10.9563
鋸子	-10.9563
▁borathi	-10.9563
全身	-10.9563
角落	-10.9563
點鐘睡覺	-10.9563
茂林區	-10.9564
阿禮	-10.9564
三次	-10.9564
貴族頭目	-10.9564
paytha	-10.9565
▁Labowa	-10.9565
鳥類	-10.9565
的是什麼東西	-10.9565
拔草	-10.9566
▁cengecengele	-10.9566
學族語	-10.9567
偷東西	-10.9567
意外	-10.9568
教書	-10.9568
▁ngiabwale	-10.9569
風吹	-10.9569
萬山話	-10.9569
15	-10.9571
在學校裡	-10.9571
erecane	-10.9572
▁saseverane	-10.9573
住在一起	-10.9573
我們的語言	-10.9573
▁mikakwa	-10.9573
區分	-10.9573
整天	-10.9574
▁zaisan	-10.9574
散開	-10.9574
aloalopo	-10.9574
水鹿	-10.9575
▁vaalro	-10.9576
▁séto	-10.9578
她的頭髮很長	-10.958
抓魚	-10.9581
很甜	-10.9582
山豬肉	-10.9584
kataadhi	-10.9586
▁alono	-10.9586
taingea	-10.9588
你怎麼知道	-10.9588
很快地	-10.9589
▁tawmane	-10.9589
下方	-10.9591
araramaw	-10.9592
給我們吃	-10.9597
balrolane	-10.9599
動手	-10.96
pasopalra	-10.9601
apaalra	-10.9601
學校讀書	-10.9603
▁oaha	-10.9605
atoloho	-10.9613
lrigilri	-10.9629
帶傘	-10.964
請教	-10.9642
senadha	-10.9642
今天熱	-10.9649
這是青蛙	-10.965
kalilisi	-10.9662
obalrio	-10.9672
▁naiyana	-10.9712
還有很多	-10.9718
撞到	-10.9725
kiangeange	-10.9726
takanao	-10.9756
輕視	-10.9763
apecane	-10.98
是我的朋友	-10.9818
五個人	-10.9823
▁tangoka	-10.9836
一個妹妹	-10.9847
輕鬆	-10.9892
kolokolo	-10.9946
katoase	-10.9985
twalra	-11.0034
hag	-11.0039
sokoba	-11.0055
karimor	-11.0081
▁paraloba	-11.0123
deethe	-11.015
lraceng	-11.0209
kabola	-11.0278
ebele	-11.028
▁sasevera	-11.0359
軍	-11.0365
播	-11.0367
參	-11.0371
▁aloalo	-11.0373
旁	-11.0373
巾	-11.0374
匙	-11.0374
顧	-11.0374
據	-11.0374
兄	-11.0374
印	-11.0374
富	-11.0374
浪	-11.0375
特殊	-11.0375
鄰	-11.0375
不舒服	-11.0375
驗	-11.0375
崇	-11.0375
Galraigai	-11.0375
減	-11.0375
瓷	-11.0375
啃	-11.0375
圖書館	-11.0375
嫌	-11.0375
番	-11.0375
Kelesai	-11.0375
cawcakwane	-11.0375
golagolay	-11.0375
iidhedheme	-11.0375
oponoponohae	-11.0375
tolrevege	-11.0375
▁Madalam	-11.0375
▁Mathariri	-11.0375
▁didilrongo	-11.0375
▁kadadalranane	-11.0375
▁kivavavange	-11.0375
▁laabaybay	-11.0375
▁mahimoha	-11.0375
▁malimeeme	-11.0375
▁margagi	-11.0375
▁sialrigolrigo	-11.0375
▁takdrengé	-11.0375
▁talialaalay	-11.0375
▁zeazega	-11.0375
▁我可以借你的	-11.0375
介紹人	-11.0375
促	-11.0375
去澎湖	-11.0375
姑婆芋	-11.0375
末	-11.0375
欠	-11.0375
膿	-11.0375
蛀	-11.0375
賽夏族	-11.0375
kaladrangedranga	-11.0375
legeageay	-11.0375
▁biwingi	-11.0375
▁ckɨckɨl	-11.0375
▁makawrivariva	-11.0375
夥	-11.0375
姓	-11.0375
撕	-11.0375
擾	-11.0375
月桃蓆	-11.0375
測	-11.0375
獎	-11.0375
琴	-11.0375
蝨	-11.0375
▁kyasamola	-11.0375
我忘記帶錢了	-11.0375
我還要買	-11.0375
私	-11.0375
縮	-11.0375
mangesale	-11.0375
▁他們全家有	-11.0375
游	-11.0375
被稱為	-11.0375
▁madradrawnga	-11.0375
借他東西	-11.0375
慶典	-11.0375
貼	-11.0375
爐	-11.0375
太魯閣族	-11.0375
▁labaibay	-11.0375
▁payrange	-11.0375
▁sakavalrae	-11.0375
佈	-11.0375
▁mahodrange	-11.0375
構	-11.0375
▁bohasi	-11.0375
▁tyanese	-11.0375
可以借我	-11.0375
摩擦	-11.0375
河川	-11.0375
▁sasolravane	-11.0375
犯罪	-11.0375
Kacaw	-11.0375
可以收成了	-11.0375
搖籃	-11.0375
稱讚	-11.0375
觀察	-11.0375
▁我問他	-11.0375
喜歡春天	-11.0375
歡迎	-11.0375
▁makanaele	-11.0375
滴答	-11.0375
捕捉	-11.0375
kelretane	-11.0375
▁sakabaane	-11.0375
陪伴	-11.0375
cegecega	-11.0375
收拾	-11.0375
▁tatitiki	-11.0375
▁aikatoma	-11.0375
ralrangedrangane	-11.0376
寫字	-11.0376
戰爭	-11.0376
遺失	-11.0376
壓扁	-11.0376
周圍	-11.0376
toloholrae	-11.0376
▁ngokakay	-11.0376
老虎	-11.0376
magarange	-11.0376
▁tékika	-11.0376
▁bangate	-11.0376
▁sarakaykaiyan	-11.0376
topeela	-11.0376
發芽	-11.0376
青葉	-11.0376
團體	-11.0376
atengatenga	-11.0376
▁aitaha	-11.0376
射箭	-11.0376
正確	-11.0377
相互	-11.0377
palapalay	-11.0377
tekepe	-11.0377
▁bongka	-11.0377
沿著	-11.0377
木瓜	-11.0377
lripoco	-11.0377
部份	-11.0377
▁balrio	-11.0377
▁Uno	-11.0378
anopapalr	-11.0378
爭取	-11.0378
ihaki	-11.0378
kakoakodha	-11.0378
木樑	-11.0378
Ubake	-11.0378
女士	-11.0379
機車	-11.0379
▁傳統女	-11.0379
手錶	-11.0379
獨自	-11.038
▁kamaongo	-11.038
翻倒	-11.038
▁matakataka	-11.038
▁Kocapongane	-11.0381
▁mapoli	-11.0381
▁那個醫生	-11.0382
pairange	-11.0382
透過	-11.0382
相關	-11.0382
▁Veday	-11.0383
▁daigak	-11.0383
破掉	-11.0383
明白	-11.0384
▁toabay	-11.0384
thangeda	-11.0385
呼叫	-11.0385
洞口	-11.0385
日記	-11.0386
外村	-11.0386
公平	-11.0386
蓋住	-11.0386
丟掉	-11.0387
重新	-11.0387
▁avétha	-11.0387
solatɨ	-11.0387
在家等	-11.0388
我要回去	-11.0388
▁daroro	-11.0388
跑出來	-11.0389
sinavane	-11.0389
趕走	-11.0391
抓住	-11.0392
▁kwalrialri	-11.0394
▁lralrake	-11.0394
▁ngiyaw	-11.0394
腳掌	-11.0395
▁oalrao	-11.0396
河裡	-11.0401
碰撞	-11.0402
pacasane	-11.0403
dwape	-11.0409
avelre	-11.0411
rinu	-11.042
Amale	-11.0425
這些東西	-11.044
下次再來	-11.0445
adavili	-11.0451
yakaai	-11.0459
▁Anean	-11.0462
akwadraw	-11.05
ereke	-11.0592
▁cokoé	-11.0626
▁nodoo	-11.0697
拔出	-11.07
ikipingi	-11.0734
macaem	-11.0751
valrivalri	-11.0753
▁twatwatoma	-11.0849
adrisi	-11.0866
我有二	-11.0877
ecebane	-11.0901
vongvongo	-11.0913
蜜	-11.0943
akwapingi	-11.0962
kidolro	-11.1017
icengeceng	-11.1056
matikay	-11.1077
nyani	-11.1077
是星期日	-11.1114
padali	-11.1115
sikatha	-11.1132
latadrane	-11.1138
柱	-11.1256
桶	-11.1257
冬	-11.1259
林	-11.126
納	-11.126
棄	-11.126
律	-11.1263
贈	-11.1263
統	-11.1263
宜	-11.1263
吵	-11.1263
易	-11.1264
嗣	-11.1264
戲	-11.1264
旅	-11.1264
嗡	-11.1264
魔	-11.1264
Lridaku	-11.1264
佳	-11.1264
凡	-11.1264
拖	-11.1264
攪	-11.1264
謂	-11.1264
幸	-11.1264
獵到的獵物	-11.1264
籠	-11.1264
筋	-11.1264
遙	-11.1264
政	-11.1264
有幾族	-11.1264
炸	-11.1264
阿凡提	-11.1264
▁Legeane	-11.1264
客廳	-11.1264
殼	-11.1264
污	-11.1264
tawpungu	-11.1264
▁mahavehavehe	-11.1264
▁老師今天要帶你們去	-11.1264
供	-11.1264
笨	-11.1264
茅	-11.1264
隱	-11.1264
Tinebenga	-11.1264
acoavani	-11.1264
kiaseasene	-11.1264
kɨdrɨdrɨmɨ	-11.1264
thlévava	-11.1264
▁23:	-11.1264
▁asavasavahe	-11.1264
▁athiyoko	-11.1264
▁makocingale	-11.1264
▁matyelrege	-11.1264
▁ngodrangodro	-11.1264
▁nimakavalane	-11.1264
▁solosolote	-11.1264
▁tarogotogo	-11.1264
們天天一起讀書	-11.1264
晨	-11.1264
會騎腳踏車	-11.1264
淺	-11.1264
空心菜	-11.1264
茄	-11.1264
蘆	-11.1264
踢	-11.1264
▁balrilawlaw	-11.1264
▁kodamono	-11.1264
▁mokavole	-11.1264
▁tolonéni	-11.1264
扮	-11.1264
抵	-11.1264
歪	-11.1264
牲	-11.1264
舔	-11.1264
螫	-11.1264
頌	-11.1264
becebecenge	-11.1264
latavelengae	-11.1264
molekate	-11.1264
moromoro	-11.1264
▁drekerle	-11.1264
一間學校讀書	-11.1264
屎	-11.1264
我會怕蛇	-11.1264
我要買兩瓶	-11.1264
揚	-11.1264
糞	-11.1264
薄	-11.1264
誤	-11.1264
夏季	-11.1264
天氣很熱	-11.1264
怒	-11.1264
我有一個姊姊	-11.1264
手工藝	-11.1264
澤	-11.1264
雕刻	-11.1264
Ubakɨ	-11.1264
driyadringai	-11.1264
▁lrevege	-11.1264
懶	-11.1264
疾	-11.1264
砰	-11.1264
襲	-11.1264
幽	-11.1264
雅	-11.1264
ㄧ	-11.1264
偷竊	-11.1264
召	-11.1264
極	-11.1264
豐盛的	-11.1264
gyagi	-11.1264
▁vintang	-11.1264
赤腳	-11.1264
▁mardé	-11.1264
技	-11.1264
既	-11.1264
ngodwi	-11.1264
▁até	-11.1264
他搭飛機去	-11.1264
▁holrice	-11.1264
舅舅	-11.1264
要多喝	-11.1264
▁dradrongo	-11.1264
雅美族	-11.1264
▁dhamahe	-11.1264
▁tikca	-11.1264
豐富	-11.1264
埋葬	-11.1264
訪談	-11.1264
的對象	-11.1264
▁Lridako	-11.1264
縫隙	-11.1264
要去翻土	-11.1264
▁wadreela	-11.1264
▁lamengae	-11.1264
潮濕	-11.1265
你最喜歡	-11.1265
敲鐘	-11.1265
dengece	-11.1265
▁twalisiya	-11.1265
設置	-11.1265
姐姐的名字是	-11.1265
▁lrangici	-11.1265
▁takawngane	-11.1265
珠繡	-11.1265
▁peaelaela	-11.1265
防止	-11.1265
ialrace	-11.1265
▁sarakaikaiya	-11.1265
仍然	-11.1265
▁星期日	-11.1265
▁pasopaa	-11.1265
hahamao	-11.1265
▁maelele	-11.1265
內臟	-11.1265
總共	-11.1265
▁pingko	-11.1266
堅持	-11.1266
▁dwavadavac	-11.1266
taotao	-11.1266
拔河	-11.1266
數字	-11.1266
kalaelange	-11.1266
權利	-11.1266
pangodrale	-11.1266
團結	-11.1266
▁滿滿	-11.1266
教材	-11.1266
交談	-11.1266
kalisilisi	-11.1267
鐵夾	-11.1267
angatongato	-11.1267
▁loigane	-11.1267
dhipolo	-11.1267
▁Drokaizoko	-11.1267
ngolringava	-11.1267
市區	-11.1267
懂事	-11.1267
外院	-11.1268
▁kaoawngo	-11.1268
pangepange	-11.1268
安全	-11.1268
cekale	-11.1268
青菜	-11.1268
▁lwadhane	-11.1268
▁idoo	-11.1269
捕抓	-11.1269
壓住	-11.1269
bolobolo	-11.1269
反而	-11.127
▁你要怎麼	-11.127
▁Akao	-11.127
▁pasodalro	-11.127
▁cokwi	-11.127
禮品	-11.127
▁cɨbake	-11.1271
即使	-11.1271
毛線	-11.1271
▁drelreke	-11.1271
▁秋天時	-11.1271
加工	-11.1272
溪流	-11.1272
▁lrevake	-11.1272
洗乾淨	-11.1273
▁mawlai	-11.1273
▁kosyanga	-11.1273
▁agiagi	-11.1273
麻線	-11.1273
很久以前	-11.1273
malrimale	-11.1273
▁聽起來	-11.1274
魚網	-11.1275
drepele	-11.1278
切斷	-11.1279
▁dredreele	-11.1279
▁taingeane	-11.1279
位於	-11.1279
▁kaocae	-11.128
cngle	-11.1282
▁tapeapec	-11.1283
▁thwa	-11.1283
lrailrai	-11.1284
▁wanene	-11.1284
▁sahakaiya	-11.1284
cɨvél	-11.1286
們家有多少人	-11.1292
drikisi	-11.1294
▁他沒有洗	-11.1318
lepelepe	-11.1328
ngiapalay	-11.1332
▁kaomasa	-11.1345
tovaa	-11.1362
edrepe	-11.1369
▁ninem	-11.1409
dreadre	-11.1437
paswalala	-11.1446
alapai	-11.1458
lralroka	-11.1483
Aras	-11.1486
Bonon	-11.1538
siwlri	-11.1592
korokoro	-11.1592
mwagako	-11.1596
kidrali	-11.1739
▁cocongola	-11.1742
▁toram	-11.1772
▁babengelradha	-11.1823
posale	-11.2023
▁kidremedrem	-11.2049
dridring	-11.2142
正在唱歌	-11.2143
▁雨停	-11.2152
wavaiva	-11.2174
mohikai	-11.2179
來看你	-11.218
▁vlavlak	-11.2192
我喜歡吃	-11.2204
thahihi	-11.2205
尋	-11.2211
▁sasopisopilra	-11.2216
▁maligi	-11.2228
候	-11.223
午	-11.2231
猴	-11.2232
始	-11.2236
kocingalrane	-11.2238
擋	-11.2239
迷	-11.2239
芽	-11.2239
竿	-11.2239
決	-11.2239
聘	-11.2239
麗	-11.2239
怎	-11.224
勇	-11.224
識	-11.224
旋	-11.224
銀	-11.224
暖	-11.224
舅	-11.224
界	-11.224
浸	-11.224
糠	-11.224
Ciamare	-11.224
Ciawdingi	-11.224
貪	-11.224
陣	-11.224
鞭	-11.224
繩索陷阱	-11.224
今天天氣很	-11.224
叮	-11.224
獻	-11.224
嘗	-11.224
我想請問你關於	-11.224
梅	-11.224
甩	-11.224
飢	-11.224
▁你那裡的天氣	-11.224
▁我們是一群	-11.224
噴	-11.224
搶	-11.224
糊	-11.224
運動會那天	-11.224
▁takaoawngane	-11.224
▁thkadanɨ	-11.224
嗚	-11.224
填	-11.224
墊	-11.224
奇怪	-11.224
梗	-11.224
況	-11.224
潑	-11.224
遮	-11.224
Aruladenge	-11.224
besebese	-11.224
itovolrimiya	-11.224
masiasilange	-11.224
pakolrolrolo	-11.224
thaybakebake	-11.224
topodhaolae	-11.224
verevere	-11.224
▁aboobolro	-11.224
▁diheheele	-11.224
▁drakeralre	-11.224
▁kcarisi	-11.224
▁mangangerece	-11.224
▁marodrarodrange	-11.224
▁mposle	-11.224
▁odaodalre	-11.224
▁podriadringadha	-11.224
▁samosakisakidra	-11.224
▁tomékné	-11.224
▁waodriodripi	-11.224
▁我爸爸的名字是	-11.224
他有孩子	-11.224
和爸爸媽媽一起住	-11.224
她常常戴帽子	-11.224
我早上六點	-11.224
會到臺中	-11.224
淡	-11.224
烏克蘭	-11.224
知道嬸嬸明天要來	-11.224
粽	-11.224
蛛	-11.224
談戀愛	-11.224
acwavan	-11.224
ulu	-11.224
▁sangepahe	-11.224
▁tamoamoane	-11.224
▁我有一台	-11.224
▁這個小孩有幾個	-11.224
伊	-11.224
廣	-11.224
競	-11.224
親朋好友	-11.224
Mayau	-11.224
patengatengane	-11.224
q	-11.224
▁dhoadhaace	-11.224
▁makakelrete	-11.224
們知道祖母明天要來	-11.224
我可以跟你借	-11.224
掐	-11.224
搞	-11.224
明年冬天會很冷	-11.224
老師今天要帶大家去	-11.224
華	-11.224
那天會下雨	-11.224
▁masobka	-11.224
太遠的地方	-11.224
我們全家都	-11.224
痕	-11.224
陸	-11.224
▁kɨcaris	-11.224
▁nwamiso	-11.224
▁otahapinga	-11.224
▁saceacebe	-11.224
▁titodale	-11.224
▁你什麼時候要還我	-11.224
們打獵的武器	-11.224
正在洗臉	-11.224
▁varokoro	-11.224
我沒有帶傘	-11.224
邁	-11.224
aliliding	-11.224
▁binkiw	-11.224
兄妹	-11.224
口簧琴	-11.224
媳婦	-11.224
淘氣	-11.224
tangetange	-11.224
宰	-11.224
有些人去	-11.224
瑪	-11.224
▁ngialisiane	-11.224
噶瑪蘭族	-11.224
載	-11.224
我也沒有帶	-11.224
▁kalabecenga	-11.224
儲	-11.224
斷崖	-11.224
▁Sinisi	-11.2241
究	-11.2241
▁lamaliali	-11.2241
兄姊	-11.2241
懷疑	-11.2241
▁layacengecenge	-11.2241
▁雄性	-11.2241
▁tayngeane	-11.2241
經歷	-11.2241
榕樹	-11.2241
▁他怎麼去	-11.2241
放屁	-11.2241
▁miyakakwa	-11.2241
▁vagisi	-11.2241
灰塵	-11.2241
kiboboli	-11.2241
▁comay	-11.2241
▁waswape	-11.2241
哎呀	-11.2241
鼻笛	-11.2241
勇敢	-11.2241
ngidrakale	-11.2241
不斷地	-11.2241
▁mabitolro	-11.2241
吵架	-11.2241
喜歡那本書	-11.2241
maridare	-11.2241
幾乎	-11.2241
▁tatokono	-11.2241
▁tacebeane	-11.2241
聖經	-11.2241
舌頭	-11.2241
▁titiodale	-11.2241
不用客氣	-11.2241
該怎麼辦	-11.2241
apicongo	-11.2241
影響	-11.2241
momawma	-11.2241
deemele	-11.2242
▁singsé	-11.2242
▁loadhana	-11.2242
▁tarokoko	-11.2242
bɨsɨbɨsɨ	-11.2242
告知	-11.2242
tolravai	-11.2242
dhopele	-11.2242
gagarange	-11.2242
▁那些孩子喜歡玩耍	-11.2242
累積	-11.2242
▁otaha	-11.2242
思念	-11.2242
充滿	-11.2242
建造	-11.2243
麵粉	-11.2243
▁siikace	-11.2243
▁Aoba	-11.2243
民國	-11.2243
祖靈屋	-11.2243
禁止	-11.2243
的衣服是黑色的	-11.2243
的由來	-11.2243
病得很	-11.2243
▁想念	-11.2243
▁外面會很	-11.2243
dralrangedrange	-11.2244
房屋	-11.2244
dringdring	-11.2244
biciingi	-11.2244
放棄	-11.2244
弄濕	-11.2244
▁kiraragay	-11.2244
今天是星期幾	-11.2244
是很好的	-11.2245
請開門	-11.2245
神靈	-11.2245
kepelre	-11.2245
▁kilibake	-11.2245
共同	-11.2245
古老的	-11.2245
飾品	-11.2246
東方	-11.2246
▁wapana	-11.2247
kitobolro	-11.2247
anoaelre	-11.2247
Kooi	-11.2249
▁dralrai	-11.2249
kabocoko	-11.225
langoy	-11.2251
dromolro	-11.2252
sadroko	-11.2255
kamolini	-11.2256
balribalrith	-11.2257
padhalro	-11.2259
miyainiya	-11.226
morikay	-11.2264
▁kadelam	-11.2266
lrabotho	-11.2266
tomoita	-11.2268
kirimoa	-11.2272
是我的花	-11.2282
korisi	-11.2285
kakecelre	-11.2307
所說的	-11.2322
lromalroma	-11.2342
在晚上出	-11.2355
angokis	-11.2382
dremedremako	-11.2385
akakoanga	-11.2432
icelreba	-11.2454
們天天來這裡吃晚餐	-11.2458
ilokako	-11.2507
▁tokaang	-11.2519
▁ikatéka	-11.2536
▁ovil	-11.2581
mathaithariringa	-11.2589
▁kwisang	-11.2631
ebeke	-11.269
的陷阱在哪裡	-11.2723
palribola	-11.2749
edrere	-11.2868
topela	-11.2918
蜂巢	-11.293
夠	-11.3069
saladha	-11.315
天氣怎麼樣	-11.3278
▁yathil	-11.3294
邀	-11.3307
籃	-11.331
家有幾	-11.3316
故	-11.3318
賽	-11.332
鷹	-11.332
宗	-11.3321
貢	-11.3321
▁wadradre	-11.3321
束	-11.3321
勉	-11.3322
北	-11.3322
敲	-11.3322
比特幣	-11.3322
創	-11.3322
徵	-11.3322
上山打獵	-11.3322
證	-11.3322
鍊	-11.3322
虛	-11.3322
廠	-11.3322
敗	-11.3322
鳳梨和桃子	-11.3322
兵	-11.3322
呵	-11.3322
瞭解自己族群的文化	-11.3322
孝	-11.3322
阻	-11.3322
德	-11.3322
泣	-11.3322
蠟	-11.3322
臀	-11.3322
鮮	-11.3322
知道的不多	-11.3322
▁他們的簍子裝滿了	-11.3322
株	-11.3322
耶和華	-11.3322
鼓勵	-11.3322
瘡	-11.3322
x	-11.3322
皆	-11.3322
零	-11.3322
龍頭山	-11.3322
Seehe	-11.3322
Tuku	-11.3322
katoatoase	-11.3322
thilithilibi	-11.3322
▁Mayao	-11.3322
▁akarodrangane	-11.3322
▁dhakehale	-11.3322
▁didyosa	-11.3322
▁kalarigarigane	-11.3322
▁makcɨngé	-11.3322
▁marahemetre	-11.3322
▁mengesle	-11.3322
▁ngolatatadre	-11.3322
▁niciobi	-11.3322
▁sitlesɨ	-11.3322
▁tailailabowana	-11.3322
▁taliyalalay	-11.3322
▁thiagenge	-11.3322
▁watinotinono	-11.3322
▁今天是好天氣	-11.3322
▁你早上幾點	-11.3322
▁從前有一位	-11.3322
偶爾也會	-11.3322
山胡椒	-11.3322
康	-11.3322
我想去拜訪你	-11.3322
搭什麼車	-11.3322
昏	-11.3322
簿	-11.3322
絡	-11.3322
虧	-11.3322
Alaelrepe	-11.3322
lrevelreve	-11.3322
talicovongae	-11.3322
tawbaliri	-11.3322
▁Balren	-11.3322
▁kyavaevaevange	-11.3322
▁madrekadrekase	-11.3322
▁pakatwase	-11.3322
▁saovalay	-11.3322
▁tɨkapɨra	-11.3322
▁他有幾張	-11.3322
▁偷偷地	-11.3322
什麼時候要還	-11.3322
啄	-11.3322
戳	-11.3322
賀	-11.3322
週	-11.3322
鬚	-11.3322
Ziluane	-11.3322
dongodongo	-11.3322
kipadradresenge	-11.3322
lavavalakane	-11.3322
tahomaha	-11.3322
▁azazam	-11.3322
▁dwahepe	-11.3322
▁kalimeeme	-11.3322
▁lramatakataka	-11.3322
▁madekre	-11.3322
▁pakivavange	-11.3322
▁pasiagisi	-11.3322
一個星期有	-11.3322
三地門	-11.3322
吃得飽	-11.3322
棟	-11.3322
碩	-11.3322
2022	-11.3322
baebalre	-11.3322
mavalrolo	-11.3322
巴冷公主	-11.3322
爐灶	-11.3322
盒	-11.3322
舍	-11.3322
跟旁邊同學	-11.3322
kirikiri	-11.3322
▁kamangolo	-11.3322
▁paihange	-11.3322
▁skargi	-11.3322
▁tharirane	-11.3322
含	-11.3322
振	-11.3322
控	-11.3322
搔癢	-11.3322
歸	-11.3322
緩	-11.3322
Tangooco	-11.3322
kasolivate	-11.3322
lrawlrapongo	-11.3322
▁mwakalrivili	-11.3322
▁thangapolo	-11.3322
▁tɨradro	-11.3322
有芭樂	-11.3322
筒	-11.3322
蓋被子	-11.3322
maolohonga	-11.3322
捨	-11.3322
濃	-11.3322
Sula	-11.3322
▁kaanaedha	-11.3322
▁watinono	-11.3322
嚐	-11.3322
字典	-11.3322
撒奇萊雅族	-11.3322
尚	-11.3322
Kanau	-11.3322
龍葵	-11.3322
▁tarathaino	-11.3322
腐蝕	-11.3322
itolropongo	-11.3322
patarathingale	-11.3322
wacebecebe	-11.3322
態	-11.3322
腮	-11.3322
palrapalrane	-11.3322
sakabilrilanenga	-11.3322
▁pitepi	-11.3322
愈	-11.3322
孤兒	-11.3322
▁wasinasina	-11.3322
仔細	-11.3322
Otonga	-11.3322
▁tolralrake	-11.3322
▁byoing	-11.3322
弟妹	-11.3322
▁satwatoma	-11.3322
▁請問我可以錄	-11.3322
覆蓋	-11.3322
myalrealre	-11.3323
▁takawkaw	-11.3323
老師我們要到	-11.3323
身分證	-11.3323
draidraza	-11.3323
會製作套索陷阱	-11.3323
▁真奇怪	-11.3323
▁lrigilane	-11.3323
▁palrayngi	-11.3323
吉露	-11.3323
肩膀	-11.3323
職業	-11.3323
雉雞	-11.3323
去玩球	-11.3323
吃吃看	-11.3323
lraolraodro	-11.3323
ivecenge	-11.3323
topodriadringa	-11.3323
▁likolraw	-11.3323
凸	-11.4339
敵	-11.4526
令	-11.4526
杯	-11.4527
昨	-11.4531
輩	-11.4532
探	-11.4534
亡	-11.4534
姊	-11.4535
奶	-11.4535
揉	-11.4535
泡	-11.4535
雌	-11.4535
仿	-11.4535
付	-11.4535
判	-11.4535
晴	-11.4535
墓	-11.4535
爾	-11.4535
紫	-11.4535
逗	-11.4535
登	-11.4535
蔭	-11.4535
輸	-11.4535
酵	-11.4535
惱	-11.4535
淋	-11.4535
瓢	-11.4535
窺	-11.4535
薑	-11.4535
蟬	-11.4535
逛	-11.4535
卜	-11.4535
叉	-11.4535
嚥	-11.4535
嫂	-11.4535
序	-11.4535
眨	-11.4535
肝	-11.4535
舀	-11.4535
萎	-11.4535
蕨	-11.4535
裹	-11.4535
託	-11.4535
併	-11.4535
波	-11.4535
辱	-11.4535
醜	-11.4535
境	-11.4536
稅	-11.4536
省	-11.4536
飄	-11.4536
惹	-11.4536
懲	-11.4536
肺	-11.4536
館	-11.4536
兆	-11.4536
奏	-11.4536
誠	-11.4536
哄	-11.4536
隆	-11.4536
竟	-11.4536
穗	-11.4536
繁	-11.4536
B	-11.5249
鍬	-11.5866
笛	-11.5907
鋸	-11.5908
鞋	-11.5908
武	-11.5909
芋	-11.5913
釣	-11.5914
憐	-11.5914
項	-11.5915
星	-11.5915
偶	-11.5916
妹	-11.5916
桃	-11.5916
繼	-11.5916
辛	-11.5916
察	-11.5916
簡	-11.5916
哎	-11.5916
賜	-11.5916
恩	-11.5916
猶	-11.5916
模	-11.5916
矛	-11.5916
肢	-11.5916
邪	-11.5916
丘	-11.5916
拼	-11.5916
搓	-11.5916
診	-11.5916
凱	-11.5916
勵	-11.5916
妨	-11.5916
側	-11.5916
唯	-11.5916
啼	-11.5916
囊	-11.5916
朝	-11.5916
犬	-11.5916
荒	-11.5916
兜	-11.5916
甦	-11.5916
賠	-11.5916
俯	-11.5916
塔	-11.5916
寞	-11.5916
斯	-11.5916
汙	-11.5916
沈	-11.5916
羅	-11.5916
膩	-11.5916
刨	-11.5916
熄	-11.5916
爆	-11.5916
吠	-11.5916
愉	-11.5916
懸	-11.5916
柑	-11.5916
樁	-11.5916
烹	-11.5916
索	-11.5916
蒲	-11.5916
諒	-11.5916
鈍	-11.5916
鑽	-11.5916
鵝	-11.5916
悔	-11.5916
腋	-11.5916
償	-11.5916
憶	-11.5916
拐	-11.5916
櫥	-11.5916
演	-11.5916
聯	-11.5916
培	-11.5916
宅	-11.5916
敘	-11.5916
橫	-11.5916
似	-11.5916
脹	-11.5916
苣	-11.5917
迫	-11.5917
嘆	-11.5917
扶	-11.5917
鬥	-11.5917
予	-11.5917
稠	-11.5917
眠	-11.5917
餡	-11.5917
擁	-11.7499
班	-11.751
兔	-11.751
橘	-11.751
薪	-11.7512
係	-11.7512
雷	-11.7514
覺	-11.7514
枕	-11.7515
拾	-11.7518
獸	-11.7518
乎	-11.7518
仰	-11.7518
訴	-11.7518
魂	-11.7518
畢	-11.7519
尾	-11.7519
潮	-11.7519
訓	-11.7519
塵	-11.7519
歷	-11.7519
泉	-11.7519
川	-11.7519
椒	-11.7519
喻	-11.7519
砸	-11.7519
勒	-11.7519
屍	-11.7519
筵	-11.7519
荖	-11.7519
藉	-11.7519
概	-11.7519
胞	-11.7519
魯	-11.7519
麥	-11.7519
兇	-11.7519
墳	-11.7519
循	-11.7519
攀	-11.7519
略	-11.7519
謹	-11.7519
闖	-11.7519
爲	-11.7519
%	-11.7519
剁	-11.7519
哈	-11.7519
售	-11.7519
堵	-11.7519
峽	-11.7519
懼	-11.7519
扣	-11.7519
扯	-11.7519
撐	-11.7519
杓	-11.7519
檜	-11.7519
渠	-11.7519
濾	-11.7519
盪	-11.7519
碾	-11.7519
肘	-11.7519
莓	-11.7519
蔓	-11.7519
蚱	-11.7519
蜢	-11.7519
謾	-11.7519
譯	-11.7519
鏟	-11.7519
霜	-11.7519
餌	-11.7519
營	-11.7519
益	-11.7519
禍	-11.7519
辨	-11.7519
巧	-11.7519
抹	-11.7519
櫃	-11.7519
猜	-11.7519
霉	-11.7519
桑	-11.7519
綿	-11.7519
效	-11.7519
癒	-11.7519
撥	-11.7519
操	-11.7519
濁	-11.7519
奮	-11.7519
沃	-11.7519
租	-11.7519
麴	-11.7519
轄	-11.7519
漢	-11.9384
姐	-11.9421
沿	-11.9423
秋	-11.9423
陽	-11.9425
訪	-11.9426
虎	-11.9426
淨	-11.9427
注	-11.9427
腦	-11.9427
永	-11.9427
齒	-11.9428
隙	-11.9428
瞭	-11.9428
範	-11.9428
葬	-11.9428
梯	-11.9428
勾	-11.9428
悅	-11.9428
説	-11.9428
乏	-11.9428
貝	-11.9428
脈	-11.9428
茸	-11.9428
衡	-11.9428
泛	-11.9428
潛	-11.9428
逝	-11.9428
撈	-11.9428
瓦	-11.9428
怯	-11.9428
旦	-11.9428
監	-11.9428
迴	-11.9428
忽	-11.9428
朗	-11.9428
炫	-11.9428
黎	-11.9428
呦	-11.9428
托	-11.9428
掙	-11.9428
楓	-11.9428
烈	-11.9428
耙	-11.9428
舟	-11.9428
仇	-11.9428
侶	-11.9428
噁	-11.9428
屑	-11.9428
疤	-11.9428
聾	-11.9428
豪	-11.9428
轟	-11.9428
鏽	-11.9428
鼓	-11.9428
匹	-11.9428
咐	-11.9428
崩	-11.9428
帥	-11.9428
干	-11.9428
拇	-11.9428
斧	-11.9428
晒	-11.9428
杵	-11.9428
槌	-11.9428
泊	-11.9428
煞	-11.9428
痰	-11.9428
睏	-11.9428
碴	-11.9428
繭	-11.9428
聆	-11.9428
醬	-11.9428
颳	-11.9428
匠	-11.9428
銅	-11.9428
劇	-11.9428
勸	-11.9428
巨	-11.9428
憤	-11.9428
挨	-11.9428
揮	-11.9428
款	-11.9428
衫	-11.9428
裁	-11.9428
譜	-11.9428
伍	-11.9428
没	-11.9428
牢	-11.9428
琉	-11.9428
窄	-11.9428
罐	-11.9428
郊	-11.9428
陀	-11.9428
宿	-11.9428
貌	-11.9428
蹤	-11.9428
亞	-11.9428
姿	-11.9428
采	-11.9428
勻	-11.9428
帽	-12.1781
免	-12.1784
校	-12.1787
典	-12.1787
讚	-12.1787
歉	-12.1788
焦	-12.1788
摩	-12.1788
址	-12.1788
擲	-12.1788
豹	-12.1788
築	-12.1789
媒	-12.1789
疑	-12.1789
仔	-12.1789
勝	-12.1789
篇	-12.1789
賭	-12.1789
耀	-12.1789
槳	-12.1789
謀	-12.1789
姆	-12.1789
寒	-12.1789
艱	-12.1789
_	-12.1789
腐	-12.1789
頓	-12.1789
寡	-12.1789
挺	-12.1789
佔	-12.1789
哼	-12.1789
啟	-12.1789
激	-12.1789
纏	-12.1789
賦	-12.1789
噪	-12.1789
繳	-12.1789
孔	-12.1789
恨	-12.1789
眉	-12.1789
貞	-12.1789
逸	-12.1789
批	-12.1789
棍	-12.1789
粘	-12.1789
剔	-12.1789
喳	-12.1789
嘿	-12.1789
孵	-12.1789
旨	-12.1789
梁	-12.1789
毀	-12.1789
氓	-12.1789
溜	-12.1789
畜	-12.1789
痣	-12.1789
禦	-12.1789
蝗	-12.1789
褢	-12.1789
鋼	-12.1789
侮	-12.1789
喘	-12.1789
坦	-12.1789
敷	-12.1789
靶	-12.1789
氏	-12.1789
竭	-12.1789
虱	-12.1789
跎	-12.1789
鈎	-12.1789
仗	-12.1789
儉	-12.1789
章	-12.1789
覓	-12.1789
販	-12.1789
際	-12.1789
亦	-12.1789
屠	-12.1789
率	-12.1789
齡	-12.1789
祥	-12.1789
妥	-12.1789
詩	-12.1789
─	-12.1789
憑	-12.1789
牌	-12.1789
井	-12.1789
宇	-12.1789
衛	-12.1789
给	-12.179
哦	-12.179
穫	-12.1799
缸	-12.4877
洪	-12.4877
澆	-12.4878
夏	-12.488
掀	-12.488
芒	-12.4881
賺	-12.4882
跛	-12.4883
己	-12.4883
佩	-12.4883
謠	-12.4883
莊	-12.4883
穴	-12.4883
膝	-12.4883
虐	-12.4884
孤	-12.4884
突	-12.4884
菇	-12.4884
弔	-12.4884
甚	-12.4884
雖	-12.4884
哩	-12.4884
謝	-12.4884
媳	-12.4884
健	-12.4884
蒙	-12.4884
厭	-12.4884
灶	-12.4884
龐	-12.4884
幻	-12.4884
頰	-12.4884
峨	-12.4884
茫	-12.4884
賴	-12.4884
穢	-12.4884
赴	-12.4884
跪	-12.4884
顛	-12.4884
丁	-12.4884
卸	-12.4884
愁	-12.4884
痢	-12.4884
符	-12.4884
鷥	-12.4884
媚	-12.4884
怨	-12.4884
漆	-12.4884
砂	-12.4884
稈	-12.4884
箕	-12.4884
釋	-12.4884
鎬	-12.4884
杉	-12.4884
凋	-12.4884
划	-12.4884
募	-12.4884
君	-12.4884
唔	-12.4884
嗨	-12.4884
噓	-12.4884
峭	-12.4884
弧	-12.4884
徒	-12.4884
志	-12.4884
恕	-12.4884
恭	-12.4884
慮	-12.4884
憂	-12.4884
抗	-12.4884
昇	-12.4884
朴	-12.4884
桐	-12.4884
榔	-12.4884
獄	-12.4884
疹	-12.4884
磋	-12.4884
箏	-12.4884
耗	-12.4884
腹	-12.4884
蹟	-12.4884
隸	-12.4884
=	-12.4884
姦	-12.4884
描	-12.4884
暢	-12.4884
柏	-12.4884
紗	-12.4884
翹	-12.4884
莽	-12.4884
評	-12.4884
墜	-12.4884
杜	-12.4884
欸	-12.4884
瘋	-12.4884
督	-12.4884
矇	-12.4884
糟	-12.4884
艷	-12.4884
蹉	-12.4884
逮	-12.4884
乖	-12.4885
徑	-12.4885
拓	-12.4885
挽	-12.4885
斥	-12.4885
澀	-12.4885
芙	-12.4885
棺	-12.4885
匯	-12.4885
閣	-12.4885
洩	-12.4885
疏	-12.4885
菁	-12.4885
裕	-12.4885
訊	-12.4885
慎	-12.4885
擅	-12.4885
昂	-12.4885
陡	-12.4885
拌	-12.4885
驪	-12.4885
擴	-12.4885
盼	-12.4885
擬	-12.4885
遲	-12.9176
舌	-12.9381
購	-12.9381
廁	-12.9382
耍	-12.9382
題	-12.9383
跌	-12.9383
膚	-12.9383
增	-12.9384
覆	-12.9384
尤	-12.9384
偽	-12.9384
宋	-12.9384
嶺	-12.9384
返	-12.9384
惑	-12.9384
狂	-12.9384
凶	-12.9384
嶼	-12.9384
涵	-12.9384
爪	-12.9384
罈	-12.9384
鑲	-12.9384
鞘	-12.9384
糾	-12.9384
什	-12.9384
帕	-12.9384
枚	-12.9384
殖	-12.9384
熬	-12.9384
畚	-12.9384
碑	-12.9384
遣	-12.9384
智	-12.9384
倚	-12.9384
凌	-12.9384
吻	-12.9384
街	-12.9384
躁	-12.9384
稗	-12.9384
誘	-12.9384
F	-12.9384
·	-12.9384
』	-12.9384
倫	-12.9384
兢	-12.9384
吶	-12.9384
咦	-12.9384
咧	-12.9384
啞	-12.9384
嗶	-12.9384
嘰	-12.9384
垮	-12.9384
奈	-12.9384
奪	-12.9384
婿	-12.9384
寛	-12.9384
州	-12.9384
强	-12.9384
役	-12.9384
征	-12.9384
徹	-12.9384
悟	-12.9384
惠	-12.9384
愚	-12.9384
慈	-12.9384
撘	-12.9384
杆	-12.9384
梆	-12.9384
梢	-12.9384
棋	-12.9384
椽	-12.9384
歐	-12.9384
殘	-12.9384
毅	-12.9384
灘	-12.9384
燜	-12.9384
癮	-12.9384
禾	-12.9384
竽	-12.9384
篤	-12.9384
簾	-12.9384
纍	-12.9384
翩	-12.9384
航	-12.9384
蠻	-12.9384
誣	-12.9384
諺	-12.9384
豔	-12.9384
趁	-12.9384
辭	-12.9384
迦	-12.9384
邋	-12.9384
鋁	-12.9384
鏈	-12.9384
鰻	-12.9384
塌	-12.9384
柳	-12.9384
ㄚ	-12.9384
佃	-12.9384
响	-12.9384
孺	-12.9384
憋	-12.9384
懇	-12.9384
斟	-12.9384
熨	-12.9384
蹦	-12.9384
轎	-12.9384
捧	-12.9385
博	-12.9385
揀	-12.9385
曉	-12.9385
欲	-12.9385
泰	-12.9385
潺	-12.9385
蹋	-12.9385
鋒	-12.9385
騷	-12.9385
鷄	-12.9385
伙	-12.9385
翼	-12.9385
舂	-12.9385
芭	-12.9385
誦	-12.9385
蹺	-12.9385
遐	-12.9385
邈	-12.9385
呆	-12.9385
鎮	-12.9385
諸	-12.9385
罷	-12.9385
鶲	-13.7259
鵯	-13.726
鯨	-13.7261
鯝	-13.7262
驢	-13.7263
駕	-13.7264
饑	-13.7265
顫	-13.7266
韭	-13.7267
雹	-13.7268
隧	-13.7269
陳	-13.727
闔	-13.7271
銳	-13.7272
遞	-13.7273
輛	-13.7274
軋	-13.7275
踝	-13.7276
趨	-13.7277
豫	-13.7278
諾	-13.7279
詹	-13.728
襪	-13.7281
裳	-13.7282
袍	-13.7283
蜈	-13.7284
蚣	-13.7285
虔	-13.7286
蔑	-13.7287
蓉	-13.7288
茹	-13.7289
茱	-13.729
苞	-13.7291
艾	-13.7292
臂	-13.7293
膜	-13.7294
肪	-13.7295
肅	-13.7296
耘	-13.7297
翔	-13.7298
罩	-13.7299
纖	-13.73
綽	-13.7301
粱	-13.7302
粟	-13.7303
笆	-13.7304
秩	-13.7305
祢	-13.7306
礎	-13.7307
矩	-13.7308
瞬	-13.7309
瞇	-13.731
盈	-13.7311
皓	-13.7312
瘟	-13.7313
獷	-13.7314
烧	-13.7315
溶	-13.7316
湃	-13.7317
淫	-13.7318
津	-13.7319
沐	-13.732
歇	-13.7321
樟	-13.7322
棲	-13.7323
梭	-13.7324
柺	-13.7325
暄	-13.7326
晝	-13.7327
晉	-13.7328
擎	-13.7329
撇	-13.733
揭	-13.7331
措	-13.7332
拋	-13.7333
扳	-13.7334
截	-13.7335
愣	-13.7336
弦	-13.7337
廨	-13.7338
廊	-13.7339
帚	-13.734
帆	-13.7341
尼	-13.7342
尷	-13.7343
尬	-13.7344
寧	-13.7345
宙	-13.7346
妮	-13.7347
奴	-13.7348
夕	-13.7349
壤	-13.735
坍	-13.7351
噤	-13.7352
喀	-13.7353
哺	-13.7354
呎	-13.7355
副	-13.7356
剃	-13.7357
凝	-13.7358
儆	-13.7359
偉	-13.736
佇	-13.7361
么	-13.7362
『	-13.7363
饅	-13.7364
頁	-13.7365
鞠	-13.7366
閱	-13.7367
鄭	-13.7368
躬	-13.7369
謊	-13.737
蚌	-13.7371
葛	-13.7372
菊	-13.7373
膏	-13.7374
腥	-13.7375
脅	-13.7376
糴	-13.7377
策	-13.7378
窰	-13.7379
稜	-13.738
礫	-13.7381
瞧	-13.7382
眺	-13.7383
盹	-13.7384
癲	-13.7385
癇	-13.7386
疵	-13.7387
燿	-13.7388
炤	-13.7389
濫	-13.739
濤	-13.7391
澳	-13.7392
澈	-13.7393
湧	-13.7394
淆	-13.7395
涸	-13.7396
洶	-13.7397
洲	-13.7398
氾	-13.7399
桂	-13.74
柿	-13.7401
旗	-13.7402
憾	-13.7403
彰	-13.7404
庇	-13.7405
巷	-13.7406
峐	-13.7407
嬷	-13.7408
威	-13.7409
奉	-13.741
壽	-13.7411
嚀	-13.7412
嗝	-13.7413
唬	-13.7414
勘	-13.7415
函	-13.7416
凍	-13.7417
丐	-13.7418
鷺	-13.7419
鱗	-13.742
障	-13.7421
鈔	-13.7422
酬	-13.7423
貫	-13.7424
誼	-13.7425
襯	-13.7426
褪	-13.7427
藐	-13.7428
芝	-13.7429
臍	-13.743
締	-13.7431
綑	-13.7432
紮	-13.7433
紉	-13.7434
籍	-13.7435
笠	-13.7436
科	-13.7437
碟	-13.7438
瞞	-13.7439
睦	-13.744
瘩	-13.7441
痊	-13.7442
疫	-13.7443
疙	-13.7444
瑕	-13.7445
猛	-13.7446
狸	-13.7447
狐	-13.7448
燕	-13.7449
濘	-13.745
滓	-13.7451
溉	-13.7452
淵	-13.7453
浴	-13.7454
沫	-13.7455
榜	-13.7456
栽	-13.7457
授	-13.7458
扎	-13.7459
憊	-13.746
恥	-13.7461
徙	-13.7462
彆	-13.7463
帳	-13.7464
壘	-13.7465
嘍	-13.7466
嘉	-13.7467
嗇	-13.7468
喇	-13.7469
啪	-13.747
咪	-13.7471
呈	-13.7472
吩	-13.7473
吝	-13.7474
叭	-13.7475
匕	-13.7476
倦	-13.7477
佼	-13.7478
○	-13.7479
鷲	-13.748
饋	-13.7481
諱	-13.7482
袒	-13.7483
莫	-13.7484
荷	-13.7485
荊	-13.7486
績	-13.7487
緻	-13.7488
玻	-13.7489
漿	-13.749
溺	-13.7491
渡	-13.7492
椰	-13.7493
棘	-13.7494
曝	-13.7495
暮	-13.7496
寸	-13.7497
娛	-13.7498
委	-13.7499
嗯	-13.75
喧	-13.7501
喂	-13.7502
吟	-13.7503
叩	-13.7504
兼	-13.7505
傻	-13.7506
債	-13.7507
俄	-13.7508
伏	-13.7509
違	-13.751
衍	-13.7511
蚤	-13.7512
萵	-13.7513
菖	-13.7514
膨	-13.7515
肋	-13.7516
紊	-13.7517
籤	-13.7518
礙	-13.7519
碼	-13.752
痠	-13.7521
版	-13.7522
滷	-13.7523
滲	-13.7524
核	-13.7525
枇	-13.7526
杷	-13.7527
晾	-13.7528
攝	-13.7529
拒	-13.753
帖	-13.7531
巒	-13.7532
寂	-13.7533
嫉	-13.7534
夭	-13.7535
埃	-13.7536
兮	-13.7537
倍	-13.7538
仙	-13.7539
鴿	-13.754
駝	-13.7541
逼	-13.7542
迅	-13.7543
踐	-13.7544
趴	-13.7545
豎	-13.7546
諧	-13.7547
蟋	-13.7548
蟀	-13.7549
蝠	-13.755
蝙	-13.7551
腺	-13.7552
腎	-13.7553
籩	-13.7554
碌	-13.7555
瞌	-13.7556
獠	-13.7557
犧	-13.7558
燭	-13.7559
橢	-13.756
柔	-13.7561
捻	-13.7562
投	-13.7563
審	-13.7564
坑	-13.7565
嘲	-13.7566
嘩	-13.7567
啡	-13.7568
哨	-13.7569
咖	-13.757
咀	-13.7571
允	-13.7572
傾	-13.7573
\	-13.7574
鴉	-13.7575
餚	-13.7576
贏	-13.7577
贅	-13.7578
蟑	-13.7579
螂	-13.758
蕗	-13.7581
蕎	-13.7582
蕃	-13.7583
脖	-13.7584
簷	-13.7585
矢	-13.7586
睜	-13.7587
爽	-13.7588
澱	-13.7589
汲	-13.759
撫	-13.7591
掩	-13.7592
扇	-13.7593
憫	-13.7594
悶	-13.7595
恢	-13.7596
垢	-13.7597
噎	-13.7598
嘔	-13.7599
亭	-13.76
跨	-13.7601
誕	-13.7602
融	-13.7603
蘇	-13.7604
蓮	-13.7605
葫	-13.7606
純	-13.7607
籬	-13.7608
研	-13.7609
皿	-13.761
沼	-13.7611
欣	-13.7612
檸	-13.7613
檬	-13.7614
攻	-13.7615
撬	-13.7616
廩	-13.7617
妒	-13.7618
乞	-13.7619
丈	-13.762
鬍	-13.7621
頑	-13.7622
閩	-13.7623
躍	-13.7624
譽	-13.7625
譏	-13.7626
謙	-13.7627
螺	-13.7628
蔬	-13.7629
葡	-13.763
萄	-13.7631
脂	-13.7632
瞄	-13.7633
皺	-13.7634
療	-13.7635
畏	-13.7636
獅	-13.7637
燃	-13.7638
漬	-13.7639
涕	-13.764
敞	-13.7641
括	-13.7642
慘	-13.7643
埔	-13.7644
噶	-13.7645
鏡	-13.7646
鎚	-13.7647
邵	-13.7648
蚯	-13.7649
蚓	-13.765
薦	-13.7651
脾	-13.7652
瀑	-13.7653
拭	-13.7654
鴨	-13.7655
騰	-13.7656
複	-13.7657
萊	-13.7658
般	-13.7659
簧	-13.766
筌	-13.7661
砌	-13.7662
漱	-13.7663
浩	-13.7664
柚	-13.7665
悄	-13.7666
塘	-13.7667
佑	-13.7668
詢	-13.7669
藷	-13.767
苳	-13.7671
膠	-13.7672
胎	-13.7673
翅	-13.7674
筍	-13.7675
俊	-13.7676
詛	-13.7677
蝸	-13.7678
蜘	-13.7679
粨	-13.768
窯	-13.7681
澎	-13.7682
溢	-13.7683
毫	-13.7684
案	-13.7685
悉	-13.7686
唇	-13.7687
閃	-13.7688
距	-13.7689
蚊	-13.769
羨	-13.7691
瞎	-13.7692
濟	-13.7693
昭	-13.7694
抖	-13.7695
域	-13.7696
嚏	-13.7697
雀	-13.7698
貧	-13.7699
蘿	-13.77
蔔	-13.7701
筷	-13.7702
燥	-13.7703
漁	-13.7704
溝	-13.7705
擇	-13.7706
掘	-13.7707
央	-13.7708
嗽	-13.7709
椅	-13.7709
叢	-13.771
鐺	-13.7711
蘋	-13.7712
稀	-13.7713
烘	-13.7714
剖	-13.7715
蓆	-13.7715
屁	-13.7715
榕	-13.7715
驕	-13.7716
雉	-13.7716
赤	-13.7716
崖	-13.7716
淘	-13.7716
飼	-13.7717
劍	-13.7717
吱	-13.7717
姨	-13.7717
竊	-13.7717
儘	-13.7717
恆	-13.7717
细	-13.7717
軒	-13.7717
麓	-13.7717
黥	-13.7717
例	-13.7717
廳	-13.7717
厲	-13.7717
府	-13.7717
慰	-13.7717
史	-13.7717
蕉	-13.7717
訝	-13.7717
搔	-13.7717
須	-13.7717
京	-13.7717
履	-13.7717
惟	-13.7717
捍	-13.7717
攬	-13.7717
殮	-13.7717
洛	-13.7717
燻	-13.7717
秧	-13.7717
絞	-13.7717
綻	-13.7717
编	-13.7717
芬	-13.7717
蘊	-13.7717
踨	-13.7717
魅	-13.7717
齋	-13.7717
傍	-13.7717
雕	-13.7718
震	-13.7718
葵	-13.7718
恍	-13.7718
晦	-13.7718
淮	-13.7718
湍	-13.7718
稟	-13.7718
绑	-13.7718
詳	-13.7718
譴	-13.7718
殊	-13.7718
森	-13.7718
慧	-13.7718
》	-13.7718
侯	-13.7718
倘	-13.7718
剉	-13.7718
厥	-13.7718
咻	-13.7718
唏	-13.7718
嗆	-13.7718
嘶	-13.7718
媾	-13.7718
嬌	-13.7718
宮	-13.7718
彿	-13.7718
暉	-13.7718
朱	-13.7718
棕	-13.7718
歧	-13.7718
毯	-13.7718
汰	-13.7718
涨	-13.7718
液	-13.7718
灼	-13.7718
瞰	-13.7718
秕	-13.7718
粃	-13.7718
紐	-13.7718
聒	-13.7718
臘	-13.7718
菌	-13.7718
蕘	-13.7718
蛭	-13.7718
衰	-13.7718
錘	-13.7718
餠	-13.7718
鶴	-13.7718
警	-13.7718
殉	-13.7718
胱	-13.7718
蝕	-13.7718
爺	-13.7718
險	-13.7718
X	-13.7718
|	-13.7718
‧	-13.7718
│	-13.7718
《	-13.7718
乒	-13.7718
乓	-13.7718
亀	-13.7718
仁	-13.7718
仟	-13.7718
伺	-13.7718
佬	-13.7718
佰	-13.7718
偕	-13.7718
傭	-13.7718
僕	-13.7718
億	-13.7718
冇	-13.7718
冕	-13.7718
准	-13.7718
刃	-13.7718
刑	-13.7718
劣	-13.7718
匿	-13.7718
却	-13.7718
叁	-13.7718
吁	-13.7718
吾	-13.7718
咸	-13.7718
喬	-13.7718
喲	-13.7718
嗅	-13.7718
嘎	-13.7718
嘻	-13.7718
噢	-13.7718
噩	-13.7718
嚮	-13.7718
嚷	-13.7718
囂	-13.7718
囉	-13.7718
囑	-13.7718
囚	-13.7718
圃	-13.7718
墮	-13.7718
壑	-13.7718
夷	-13.7718
契	-13.7718
妄	-13.7718
妖	-13.7718
妙	-13.7718
姑	-13.7718
娌	-13.7718
娜	-13.7718
娥	-13.7718
嫰	-13.7718
宵	-13.7718
寢	-13.7718
屐	-13.7718
屜	-13.7718
屯	-13.7718
岡	-13.7718
峯	-13.7718
峰	-13.7718
峻	-13.7718
崗	-13.7718
巍	-13.7718
幕	-13.7718
廟	-13.7718
彙	-13.7718
恤	-13.7718
悍	-13.7718
悠	-13.7718
悼	-13.7718
惶	-13.7718
慌	-13.7718
慾	-13.7718
憔	-13.7718
户	-13.7718
戾	-13.7718
披	-13.7718
拯	-13.7718
挾	-13.7718
掇	-13.7718
掏	-13.7718
掰	-13.7718
搜	-13.7718
撲	-13.7718
敦	-13.7718
斑	-13.7718
昌	-13.7718
曙	-13.7718
杈	-13.7718
栗	-13.7718
棧	-13.7718
椎	-13.7718
椪	-13.7718
楠	-13.7718
楣	-13.7718
榆	-13.7718
槴	-13.7718
槽	-13.7718
樋	-13.7718
檉	-13.7718
欄	-13.7718
毆	-13.7718
氛	-13.7718
沛	-13.7718
沸	-13.7718
泠	-13.7718
浦	-13.7718
淒	-13.7718
渦	-13.7718
渺	-13.7718
溯	-13.7718
溼	-13.7718
瀉	-13.7718
瀕	-13.7718
炮	-13.7718
焢	-13.7718
焰	-13.7718
煉	-13.7718
燦	-13.7718
爹	-13.7718
犄	-13.7718
狼	-13.7718
玼	-13.7718
畔	-13.7718
畦	-13.7718
症	-13.7718
瘧	-13.7718
癌	-13.7718
盯	-13.7718
睞	-13.7718
睫	-13.7718
砲	-13.7718
硫	-13.7718
磁	-13.7718
磺	-13.7718
祟	-13.7718
禢	-13.7718
禽	-13.7718
禿	-13.7718
秉	-13.7718
秘	-13.7718
秤	-13.7718
稚	-13.7718
窒	-13.7718
箍	-13.7718
籲	-13.7718
粿	-13.7718
糙	-13.7718
絮	-13.7718
綴	-13.7718
繹	-13.7718
繽	-13.7718
组	-13.7718
缢	-13.7718
翁	-13.7718
肆	-13.7718
股	-13.7718
脊	-13.7718
腊	-13.7718
芫	-13.7718
芳	-13.7718
苔	-13.7718
茉	-13.7718
莉	-13.7718
莎	-13.7718
菅	-13.7718
菟	-13.7718
菰	-13.7718
菱	-13.7718
萸	-13.7718
葚	-13.7718
葦	-13.7718
蒂	-13.7718
蓄	-13.7718
蔘	-13.7718
蕩	-13.7718
蕪	-13.7718
蕽	-13.7718
薏	-13.7718
薩	-13.7718
薰	-13.7718
蛆	-13.7718
蛔	-13.7718
蛹	-13.7718
蛾	-13.7718
蜍	-13.7718
螢	-13.7718
蟾	-13.7718
蠍	-13.7718
蠕	-13.7718
裔	-13.7718
註	-13.7718
詐	-13.7718
誌	-13.7718
誓	-13.7718
諦	-13.7718
謎	-13.7718
说	-13.7718
賊	-13.7718
賓	-13.7718
賤	-13.7718
趟	-13.7718
趾	-13.7718
跋	-13.7718
跖	-13.7718
蹄	-13.7718
輔	-13.7718
辯	-13.7718
迂	-13.7718
迪	-13.7718
逾	-13.7718
遂	-13.7718
遏	-13.7718
遢	-13.7718
郡	-13.7718
酣	-13.7718
醇	-13.7718
釁	-13.7718
釦	-13.7718
鉗	-13.7718
銷	-13.7718
鍍	-13.7718
鍼	-13.7718
鐲	-13.7718
鐸	-13.7718
鑣	-13.7718
閨	-13.7718
陌	-13.7718
隼	-13.7718
雇	-13.7718
霖	-13.7718
頗	-13.7718
餒	-13.7718
饒	-13.7718
馭	-13.7718
駐	-13.7718
駛	-13.7718
骯	-13.7718
骹	-13.7718
髓	-13.7718
髦	-13.7718
魄	-13.7718
鱸	-13.7718
黨	-13.7718
倖	-13.7718
啤	-13.7718
埸	-13.7718
妯	-13.7718
廢	-13.7718
惰	-13.7718
捶	-13.7718
摀	-13.7718
晶	-13.7718
洽	-13.7718
狹	-13.7718
瞪	-13.7718
菝	-13.7718
蠔	-13.7718
衊	-13.7718
諂	-13.7718
錦	-13.7718
鏇	-13.7718
丢	-13.7718
悴	-13.7718
挫	-13.7718
撹	-13.7718
曆	-13.7718
棠	-13.7718
椹	-13.7718
榖	-13.7718
濺	-13.7718
烙	-13.7718
盾	-13.7718
芎	-13.7718
苓	-13.7718
蚪	-13.7718
蝌	-13.7718
蠖	-13.7718
蠶	-13.7718
袓	-13.7718
証	-13.7718
軛	-13.7718
镸	-13.7718
鵪	-13.7718
鵲	-13.7718
鶉	-13.7718
】	-13.7718
乃	-13.7718
云	-13.7718
冀	-13.7718
堪	-13.7718
嬉	-13.7718
抄	-13.7718
昆	-13.7718
曼	-13.7718
歹	-13.7718
瀟	-13.7718
熏	-13.7718
盟	-13.7718
眷	-13.7718
着	-13.7718
艘	-13.7718
莧	-13.7718
蒐	-13.7718
藹	-13.7718
蘯	-13.7718
襄	-13.7718
謐	-13.7718
豁	-13.7718
逢	-13.7718
鑿	-13.7718
霄	-13.7718
顎	-13.7718
危	-13.7718
ㄇ	-13.7718
傑	-13.7718
吮	-13.7718
屆	-13.7718
擩	-13.7718
昔	-13.7718
曠	-13.7718
瑞	-13.7718
竣	-13.7718
籌	-13.7718
籐	-13.7718
紡	-13.7718
紳	-13.7718
繪	-13.7718
贊	-13.7718
踪	-13.7718
鄧	-13.7718
鑒	-13.7718
【	-13.7718
蠅	-13.7719
唁	-13.7719
庾	-13.7719
蕭	-13.7719
瑟	-13.7719
蒼	-13.772
檢	-13.7721
鄒	-13.7722
輯	-13.7723
菸	-13.7724
淚	-13.7725
松	-13.7726
郎	-13.7727
羽	-13.7728
犁	-13.7729
暑	-13.773
遵	-13.7731
廚	-13.7732
值	-13.7733
鑰	-13.7734
鈴	-13.7735
蹈	-13.7736
穌	-13.7737
炎	-13.7738
扭	-13.7739
幣	-13.774
嬤	-13.7741
*	-13.7742
腸	-13.7743
糬	-13.7744
捷	-13.7745
嚨	-13.7746
吐	-13.7747
稍	-13.7748
櫻	-13.7749
棉	-13.775
攜	-13.7751
墾	-13.7752
郵	-13.7753
苧	-13.7754
澡	-13.7755
楚	-13.7756
汽	-13.7757
帝	-13.7758
姻	-13.7759
蜻	-13.776
蜓	-13.7761
英	-13.7762
紀	-13.7763
榴	-13.7764
垃	-13.7765
圾	-13.7766
蔗	-13.7767
聰	-13.7768
珍	-13.7769
司	-13.777
皂	-13.7771
喉	-13.7772
j	-13.7773
龜	-13.7774
螞	-13.7775
胡	-13.7776
羌	-13.7777
孕	-13.7778
嬸	-13.7779
欺	-13.778
鋤	-13.7781
糖	-13.7782
祀	-13.7783
寮	-13.7784
闆	-13.7785
梨	-13.7786
+	-13.7787
陶	-13.7788
巫	-13.7789
卑	-13.779
牧	-13.7791
漸	-13.7792
觸	-13.7793
禱	-13.7794
鐮	-13.7795
耆	-13.7796
紹	-13.7797
屏	-13.7798
醉	-13.7799
狩	-13.78
彼	-13.7801
妻	-13.7802
蟹	-13.7803
螃	-13.7804
蝴	-13.7805
固	-13.7806
W	-13.7807
糯	-13.7808
璃	-13.7809
戚	-13.781
顏	-13.7811
鉛	-13.7812
H	-13.7813
庭	-13.7814
耕	-13.7815
肥	-13.7816
簍	-13.7817
希	-13.7818
騎	-13.7819
植	-13.782
虹	-13.7821
柴	-13.7822
G	-13.7823
韆	-13.7824
鞦	-13.7825
臺	-13.7826
倉	-13.7827
努	-13.7828
睛	-13.7829
泳	-13.783
橡	-13.7831
糕	-13.7832
忌	-13.7833
玉	-13.7834
Y	-13.7835
檳	-13.7836
儀	-13.7837
颱	-13.7838
茂	-13.7839
漂	-13.784
阱	-13.7841
蛙	-13.7842
咱	-13.7843
叔	-13.7844
習	-13.7845
N	-13.7846
D	-13.7847
0	-13.7848
哥	-13.7849
朋	-13.785
M	-13.7851
今	-13.7852
爸	-13.7853
媽	-13.7854
孩	-13.7855
麼	-13.7856
