<pad>	0
<unk>	0
<s>	0
</s>	0
<2tao>	0
<2zh>	0
▁	-1.75778
,	-3.37344
.	-3.45941
。	-3.48564
▁o	-3.79018
▁a	-3.95326
?	-4.19809
▁ya	-4.30017
▁do	-4.35971
▁no	-4.38688
▁na	-4.50274
▁so	-4.617
▁am	-4.65623
▁ko	-4.67092
的	-4.92161
▁mo	-4.92166
▁ka	-4.94416
an	-5.15278
▁ni	-5.17114
▁da	-5.2008
▁rana	-5.36693
▁ji	-5.38247
▁si	-5.44193
了	-5.47323
▁ta	-5.54095
▁pa	-5.57546
!	-5.63495
▁tao	-5.75459
▁ma	-5.76182
en	-5.76999
a	-5.79612
▁to	-5.82631
▁mi	-5.92108
我	-5.92771
▁你	-5.96383
是	-5.97922
嗎	-6.02798
▁我	-6.04064
i	-6.12496
在	-6.13539
▁namen	-6.15609
▁sira	-6.20209
你	-6.20786
▁ori	-6.24054
'	-6.33827
有	-6.38718
o	-6.41468
說	-6.42362
他	-6.44335
不	-6.45634
▁"	-6.45859
▁他	-6.50948
人	-6.55826
子	-6.5756
要	-6.58383
▁sia	-6.61733
si	-6.64775
去	-6.65714
、	-6.66271
▁vahay	-6.66644
▁ito	-6.66672
我們	-6.68614
▁jia	-6.69843
好	-6.71173
會	-6.71391
一	-6.80707
吃	-6.80987
▁mavakes	-6.83518
來	-6.83682
和	-6.86108
ya	-6.87078
他們	-6.88162
▁mangey	-6.88464
很	-6.89498
n	-6.91171
都	-6.91305
到	-6.91519
:「	-6.92503
▁mangay	-6.93556
▁asa	-6.93812
ma	-6.95841
;	-6.96445
就	-6.96863
上	-6.97172
▁among	-7.00259
▁yaken	-7.00989
▁nio	-7.0108
▁kanen	-7.03333
▁apia	-7.03732
魚	-7.04443
▁abo	-7.07499
▁ili	-7.07713
▁koan	-7.08325
▁ina	-7.08732
na	-7.09475
ng	-7.12046
時	-7.13315
把	-7.19137
to	-7.19195
▁i	-7.19628
也	-7.20309
用	-7.20426
k	-7.2219
g	-7.24583
▁anak	-7.2613
▁m	-7.28117
呢	-7.28131
▁imo	-7.28244
▁kano	-7.28665
▁amian	-7.28865
水	-7.29349
大	-7.29633
▁ama	-7.30139
▁ayob	-7.3106
天	-7.31383
沒有	-7.3173
m	-7.31835
ra	-7.32441
▁man	-7.32902
ka	-7.35231
被	-7.35303
▁aro	-7.36497
▁aka	-7.36682
下	-7.36714
。」	-7.36723
▁kamo	-7.37629
她	-7.38004
小	-7.38064
▁pi	-7.38227
▁他們	-7.38592
著	-7.39186
ta	-7.39368
▁pongso	-7.40309
▁ikongo	-7.42247
mo	-7.42712
對	-7.42738
ko	-7.43523
為	-7.44122
看	-7.44616
▁vakong	-7.45925
ci	-7.47874
▁sino	-7.48338
▁kayo	-7.48406
ji	-7.48604
pa	-7.49467
啊	-7.50505
."	-7.50698
wa	-7.50726
▁我們	-7.5125
▁kaka	-7.52914
後	-7.52954
▁kois	-7.53165
w	-7.53454
中	-7.53854
ey	-7.54054
▁ajin	-7.5418
▁maci	-7.55454
▁nima	-7.57665
裡	-7.57709
地瓜	-7.58472
▁wakay	-7.59349
▁mey	-7.60113
▁ngaran	-7.60494
吧	-7.61451
給	-7.61904
no	-7.63633
過	-7.63638
得	-7.63862
▁tamo	-7.63878
▁mai	-7.64882
這	-7.65345
那	-7.65406
▁mian	-7.65735
s	-7.65797
▁yanan	-7.66606
▁dang	-7.67622
▁pala	-7.68118
ap	-7.68548
▁ang	-7.68753
in	-7.69535
帶	-7.70044
▁kanakan	-7.70526
在哪裡	-7.71691
▁jimo	-7.72191
可以	-7.72549
▁vazay	-7.72597
t	-7.73367
▁nizpi	-7.73508
d	-7.7372
年	-7.73966
▁tatala	-7.73968
地	-7.742
ro	-7.75651
▁maka	-7.75992
▁araw	-7.76557
從	-7.76685
船	-7.76756
▁ikong	-7.79188
sa	-7.79507
▁koman	-7.79633
▁ranom	-7.82776
而	-7.82824
▁tey	-7.82972
▁vahey	-7.83054
▁tana	-7.83444
叫	-7.84712
y	-7.8482
at	-7.8487
z	-7.85012
▁wari	-7.85041
再	-7.85153
▁ikakza	-7.8533
▁sinsi	-7.85996
的人	-7.86077
長	-7.86278
出	-7.86801
頭	-7.87456
▁jiaken	-7.87761
一起	-7.88657
▁ipanci	-7.9023
▁ciriciring	-7.903
▁nokakoa	-7.903
▁saon	-7.90374
拿	-7.90778
zi	-7.91606
yo	-7.91663
▁Masaray	-7.92624
錢	-7.92869
▁mehakay	-7.92906
▁mang	-7.9311
▁Paloy	-7.9372
am	-7.9392
已經	-7.94087
與	-7.94233
p	-7.94352
nan	-7.94701
▁wawa	-7.95662
ow	-7.95667
開	-7.96263
你們	-7.96774
以後	-7.97044
▁beken	-7.97057
▁ino	-7.97292
▁ika	-7.97324
wan	-7.97361
很多	-7.97593
當	-7.98245
一下	-7.9851
▁lima	-7.98671
因為	-7.98881
工作	-7.99585
"	-8.00189
的時候	-8.00781
b	-8.00891
豬	-8.01028
▁yakan	-8.01192
▁asaka	-8.0135
e	-8.01497
自己	-8.01828
▁mahakay	-8.02602
▁vato	-8.02602
▁gako	-8.02602
miyan	-8.03276
▁mapa	-8.03599
▁akes	-8.0407
▁你們	-8.04894
跟	-8.05787
po	-8.06329
生	-8.06473
海	-8.06498
ang	-8.06566
起來	-8.06814
做	-8.06848
家	-8.07186
先	-8.07232
▁toda	-8.0728
ni	-8.07343
▁takey	-8.07349
▁aroa	-8.07451
▁noon	-8.0755
?」	-8.07734
打	-8.08066
買	-8.08086
非常	-8.08525
部落	-8.09812
多	-8.11019
▁nimi	-8.11637
放	-8.1191
走	-8.12197
▁如果	-8.13016
所以	-8.132
樹	-8.13285
煮	-8.13303
:	-8.13323
▁我在	-8.13548
一個	-8.13757
▁sya	-8.14914
▁nia	-8.15145
ay	-8.15312
現在	-8.15501
▁om	-8.15675
心	-8.16401
將	-8.16476
問	-8.16603
菜	-8.16629
▁maniring	-8.16633
l	-8.16669
好嗎	-8.17054
▁rarakeh	-8.17952
最	-8.18288
mi	-8.18324
到了	-8.18334
不是	-8.18746
分	-8.19747
個	-8.19915
石頭	-8.19993
然後	-8.20052
▁kakawan	-8.20111
山	-8.20378
所	-8.20456
還	-8.20476
▁soli	-8.208
教	-8.20947
請	-8.2162
成	-8.21831
oy	-8.22029
h	-8.22085
▁manga	-8.22092
聽	-8.2251
▁ipi	-8.22545
▁mata	-8.22611
想	-8.23142
飛魚	-8.23173
yan	-8.23553
▁koysang	-8.23566
?"	-8.23676
ngan	-8.23687
我的	-8.24197
這個	-8.24419
掉	-8.24448
▁teyka	-8.24758
那裡	-8.24849
你的	-8.24937
飯	-8.25145
▁mateneng	-8.25577
讓	-8.26983
月	-8.27096
之	-8.27099
前	-8.27885
芋頭	-8.27954
▁jino	-8.28106
▁mina	-8.2853
koan	-8.28738
等	-8.28787
as	-8.28792
▁macita	-8.28873
▁rako	-8.29056
/	-8.29093
▁kadai	-8.29096
織布	-8.29097
食物	-8.29529
▁這	-8.30534
▁我的	-8.30829
外	-8.30994
▁tokon	-8.3104
so	-8.31379
▁jira	-8.3147
一直	-8.31791
它	-8.32158
r	-8.32712
哦	-8.32958
▁apira	-8.32959
▁mianoanood	-8.33
▁mivazay	-8.33082
!」	-8.33164
▁把	-8.33419
老師	-8.33468
▁我要	-8.33545
狗	-8.33933
又	-8.33942
▁ipa	-8.34105
ep	-8.34368
衣服	-8.34432
蟹	-8.34899
及	-8.34925
抓	-8.34948
▁tozatoza	-8.34949
青蛙	-8.34949
手	-8.36039
回	-8.36084
沒	-8.36339
住	-8.36778
▁siciaraw	-8.36989
族人	-8.371
▁kagagan	-8.3774
種	-8.37946
看到	-8.37953
但	-8.38796
我們的	-8.38824
▁kagling	-8.39051
▁mamimin	-8.39128
這是	-8.39476
▁jya	-8.39665
才	-8.40114
只有	-8.4042
喜歡	-8.40974
禮	-8.41127
玩	-8.41128
▁Ya	-8.41196
▁maran	-8.41236
▁manazang	-8.41255
pi	-8.4131
蘭嶼	-8.41484
ed	-8.41749
za	-8.41817
不要	-8.41849
家裡	-8.42037
▁sang	-8.42226
ing	-8.42472
▁nimangay	-8.42517
key	-8.42598
找	-8.42712
bo	-8.42763
ong	-8.42818
以	-8.43112
▁ney	-8.43256
▁eya	-8.43485
lang	-8.4391
人們	-8.44257
▁ciring	-8.44608
今天	-8.45187
mey	-8.45252
da	-8.45688
man	-8.45772
on	-8.45836
ak	-8.46094
小米	-8.46134
弟弟	-8.4618
▁kato	-8.46275
eza	-8.46807
li	-8.47032
但是	-8.47203
大家	-8.47386
▁mivatvatek	-8.47417
kan	-8.47628
村	-8.47657
tan	-8.47709
丟	-8.47772
▁rayon	-8.478
▁citaen	-8.47982
高	-8.49166
就會	-8.49359
關	-8.49915
san	-8.49998
▁ri	-8.50206
la	-8.50323
▁這是	-8.50797
aw	-8.51609
ot	-8.52316
火	-8.52475
愛	-8.52475
▁araraw	-8.52493
回家	-8.52943
▁apen	-8.5362
oya	-8.5386
▁niapoan	-8.53877
進	-8.53912
▁sicya	-8.54064
能	-8.54138
不會	-8.54211
ri	-8.54265
▁kakanan	-8.54698
邊	-8.54739
處	-8.54741
rako	-8.54797
取	-8.54893
流	-8.54898
▁sicia	-8.54928
▁rarahan	-8.54967
▁vehan	-8.55188
eh	-8.55452
!"	-8.55527
出來	-8.55549
▁mika	-8.56073
▁akay	-8.56777
知道	-8.56849
朋友	-8.56938
▁mangap	-8.57077
石	-8.57349
是什麼	-8.57373
▁aleleh	-8.57388
▁mitkeh	-8.57388
那個	-8.574
▁meyngen	-8.57423
老	-8.57696
os	-8.58411
下來	-8.59272
這樣	-8.59365
女	-8.59554
他的	-8.59736
開始	-8.59757
穿	-8.59865
向	-8.59914
啦	-8.59936
ah	-8.60391
睡覺	-8.60546
nanao	-8.60846
▁simaraw	-8.6089
達悟族	-8.61266
▁macinanao	-8.61334
哪裡	-8.61526
▁那是	-8.61877
重	-8.61918
pan	-8.61984
挖	-8.62168
叔叔	-8.62238
▁nira	-8.62299
鳥	-8.62454
▁kakoa	-8.6247
哥哥	-8.62503
行	-8.62524
▁avang	-8.6255
蓋	-8.62554
▁kataotao	-8.62834
▁itoro	-8.62848
是誰	-8.62948
真	-8.63103
來了	-8.63162
生活	-8.63267
動	-8.63278
▁adoa	-8.63287
▁angay	-8.6335
it	-8.6385
eng	-8.63989
▁paka	-8.64012
三	-8.64147
五	-8.64306
給我	-8.64429
▁jito	-8.64519
一樣	-8.64689
我要	-8.64857
▁你要	-8.6513
這裡	-8.65174
阿	-8.65219
花	-8.65224
跳	-8.65226
▁Ozamen	-8.65235
▁vazey	-8.65235
▁karawan	-8.65252
吃飯	-8.65263
▁「	-8.6534
▁marahet	-8.65562
▁arako	-8.65631
▁他在	-8.66082
快	-8.66098
學校	-8.66168
唱歌	-8.66517
▁ala	-8.66588
▁你的	-8.66797
田	-8.66814
小孩子	-8.67027
兩	-8.67353
可	-8.67523
rahet	-8.67652
▁anjin	-8.67833
刀	-8.67847
口	-8.67869
▁ai	-8.67885
米	-8.67904
▁amyan	-8.67913
洗	-8.67933
正	-8.67963
往	-8.67967
▁apiya	-8.67997
▁mahakey	-8.67998
▁baka	-8.68012
女性	-8.68022
▁makongo	-8.68504
像	-8.68523
▁Nagat	-8.68708
傳統	-8.68836
還有	-8.69011
的地方	-8.69361
日	-8.69413
gi	-8.6963
es	-8.70084
起	-8.70285
跑	-8.7031
「	-8.70405
喝	-8.70745
▁manok	-8.70767
已	-8.70808
砍	-8.70814
▁vayo	-8.70831
▁teyrahem	-8.70839
▁katenngan	-8.70936
事	-8.71163
tarek	-8.71255
只	-8.71294
▁akmi	-8.71571
就是	-8.71739
ikoa	-8.71882
數	-8.72552
草	-8.72853
▁iya	-8.73215
很大	-8.73232
學	-8.73452
背	-8.73731
▁macimoy	-8.73767
們	-8.74231
awa	-8.74386
親	-8.74754
▁nam	-8.74842
angday	-8.7489
▁那個	-8.74905
▁inapo	-8.75052
▁mikala	-8.75092
▁kapa	-8.7529
的衣服	-8.75559
teneng	-8.75755
▁p	-8.75866
▁pey	-8.76239
▁mipa	-8.76247
▁kani	-8.76303
醫生	-8.76469
▁key	-8.7653
這些	-8.76631
作	-8.76649
因	-8.76675
白	-8.76678
▁Ko	-8.76756
▁kawalan	-8.76758
約	-8.76758
▁sazo	-8.76815
男人	-8.76839
dan	-8.76891
一點	-8.76999
hen	-8.77562
▁ovok	-8.77691
▁yamyan	-8.77715
kala	-8.78458
幫我	-8.78882
太	-8.79107
女人	-8.79187
點	-8.79535
身	-8.79596
族	-8.79695
痛	-8.79737
屋	-8.79775
▁likta	-8.79784
此	-8.79838
場	-8.79848
美	-8.7985
▁alibangbang	-8.79859
喔	-8.7986
▁ilaod	-8.79885
apen	-8.79899
不能	-8.80129
男性	-8.80184
▁你不要	-8.80353
ata	-8.80629
▁那	-8.80691
▁Ma	-8.81095
▁nimai	-8.81098
▁你把	-8.81299
mar	-8.82449
▁我們去	-8.82492
keh	-8.82594
nang	-8.82728
太陽	-8.83034
公	-8.83041
入	-8.83041
▁Ji	-8.83046
▁vatvatek	-8.8306
滿	-8.8306
▁kakanakan	-8.83062
東西	-8.83141
▁makapia	-8.83221
▁makey	-8.83565
pang	-8.84063
▁ipan	-8.84247
不可以	-8.843
▁nika	-8.84748
sya	-8.84919
肉	-8.8494
文化	-8.84962
山上	-8.85477
ai	-8.85602
明天	-8.85699
pangayan	-8.85719
坐	-8.85802
▁panci	-8.85833
回來	-8.85858
新	-8.86133
講	-8.86346
蛋	-8.86361
聲	-8.86365
休息	-8.86366
老鼠	-8.86369
邀請	-8.8637
▁masanib	-8.86383
ten	-8.86823
▁makarang	-8.87074
▁tomi	-8.87343
人家	-8.87427
▁teyma	-8.8819
▁yala	-8.88508
」	-8.88561
hap	-8.88818
▁pan	-8.88834
hay	-8.89107
收	-8.89219
▁akey	-8.89505
跳舞	-8.89648
看見	-8.89663
眼	-8.89771
黑	-8.89779
婦女	-8.8979
常常	-8.89796
離開	-8.89805
▁ora	-8.90194
palolo	-8.90227
不知道	-8.90531
那是	-8.90711
▁nyo	-8.90951
想要	-8.91436
幫	-8.91461
nen	-8.91681
死	-8.91714
▁nohon	-8.91997
吃了	-8.9209
面	-8.92237
唱	-8.92628
很好	-8.92914
於	-8.92971
男	-8.92972
使	-8.93074
遠	-8.93213
▁awa	-8.93277
稱	-8.93312
元	-8.93321
風	-8.93322
▁kankanen	-8.93325
▁vazavazay	-8.93325
捉	-8.93325
圍	-8.93325
木柴	-8.93325
餓	-8.93325
▁asoy	-8.93337
▁manita	-8.93352
▁karam	-8.93359
manoma	-8.93822
▁koza	-8.93908
▁nipa	-8.94112
▁atlo	-8.94211
▁kapi	-8.94688
neng	-8.94886
各	-8.95013
用的	-8.95189
自己的	-8.95268
你們的	-8.95274
apia	-8.95287
ood	-8.95321
▁nakem	-8.95515
raw	-8.95823
is	-8.95849
包	-8.95897
▁ayo	-8.96059
歌	-8.96136
飛	-8.96147
看看	-8.96572
過來	-8.96597
島	-8.96801
常	-8.96851
比較	-8.96854
頭髮	-8.96863
球	-8.96946
告訴	-8.96957
不然	-8.96959
食	-8.96972
布	-8.9698
期	-8.9698
妹妹	-8.96984
裝	-8.96989
切	-8.96993
香蕉	-8.96994
▁dehdeh	-8.96995
▁tagakal	-8.96995
牛	-8.96995
▁miayob	-8.96996
▁kaminan	-8.96996
▁makaranes	-8.96998
發現	-8.96999
停	-8.97019
死了	-8.97424
過去	-8.97479
▁kangay	-8.97567
teng	-8.976
▁ipang	-8.97639
給你	-8.97837
od	-8.9786
id	-8.98116
熱	-8.98306
在這裡	-8.98317
▁nimapo	-8.98355
▁alikey	-8.99085
▁kakteh	-8.99184
▁manngo	-8.992
雨	-8.99303
kad	-8.99467
借	-8.99472
下雨	-8.99566
我就	-8.99707
▁她	-8.99891
▁mam	-9.00072
把它	-9.00187
voz	-9.00483
若	-9.00496
自	-9.00573
車	-9.00608
發	-9.00655
的工作	-9.00676
定	-9.00679
因此	-9.00744
妳	-9.00773
lavi	-9.00773
語	-9.00785
倒	-9.00793
線	-9.00795
▁vineveh	-9.00805
▁inaorod	-9.00805
則	-9.00805
▁mogis	-9.00806
學習	-9.00806
帽子	-9.00811
▁kai	-9.01032
▁miwalam	-9.01044
全	-9.01326
了一	-9.01428
do	-9.02013
han	-9.02196
▁cinedkeran	-9.02249
lili	-9.02536
gen	-9.02604
zakat	-9.03053
如果	-9.03214
▁是的	-9.03449
儀式	-9.03462
路	-9.03692
他們的	-9.03698
▁Keysodan	-9.0392
▁這個	-9.04258
mia	-9.04273
同	-9.0448
傳	-9.04584
果	-9.0464
氣	-9.04649
間	-9.04652
羊	-9.04693
提	-9.04748
比	-9.04758
拉	-9.04764
▁Jimowrod	-9.04765
rekmeh	-9.04765
▁maganam	-9.04765
雞	-9.04766
▁likod	-9.04768
覺得	-9.04769
父親	-9.04769
▁payong	-9.0477
釣魚	-9.04808
房子	-9.04814
ngen	-9.04858
▁anood	-9.0488
為什麼	-9.04901
▁mowyat	-9.04991
▁Ka	-9.05072
taw	-9.05515
▁masta	-9.05536
ala	-9.05644
女生	-9.05762
腳	-9.05783
讀書	-9.05925
▁ayoy	-9.06148
門	-9.06165
em	-9.06262
dey	-9.0683
ney	-9.06864
還是	-9.07185
我是	-9.07984
▁cita	-9.08123
游泳	-9.08127
別	-9.08146
ked	-9.08329
結	-9.08468
▁oo	-9.08484
上學	-9.08514
有很多	-9.0857
或	-9.08619
▁arow	-9.08714
晚	-9.08739
部	-9.08854
奶奶	-9.08861
▁alima	-9.08863
者	-9.08869
很久	-9.08885
光	-9.08886
共	-9.08886
颱風	-9.08889
-	-9.08889
▁seyvo	-9.08889
▁vanga	-9.08889
咬	-9.0889
▁bozo	-9.0889
▁Jiayo	-9.08901
mareng	-9.08913
▁anito	-9.08928
▁ikakey	-9.0893
早上	-9.08952
出海	-9.08997
▁akman	-9.0907
名字	-9.09141
明	-9.09208
▁kangey	-9.09217
▁manakem	-9.09434
四	-9.09466
真的	-9.09506
的事情	-9.09703
vazay	-9.09805
好了	-9.09912
▁kong	-9.10182
▁inana	-9.10303
▁不要	-9.1033
▁kawan	-9.10574
的話	-9.10653
▁mapi	-9.10796
並	-9.10964
地方	-9.11072
▁tona	-9.11231
ke	-9.11279
以前	-9.11345
幾	-9.11685
▁adan	-9.11696
祭	-9.11734
在那裡	-9.11753
意	-9.11789
我不	-9.11841
你好	-9.11856
土	-9.11977
撿	-9.12036
做什麼	-9.12554
▁ip	-9.12691
個人	-9.12758
戴	-9.13024
力	-9.13065
mango	-9.13076
接	-9.131
理	-9.13141
色	-9.13144
由	-9.13174
清	-9.1318
連	-9.13189
亂	-9.13191
皮	-9.13191
綁	-9.13191
講話	-9.13202
▁iwawalam	-9.13209
經過	-9.1321
ikadoa	-9.13224
等一下	-9.1323
我們來	-9.13239
▁kadoan	-9.13242
竹子	-9.13264
cinon	-9.1327
上山	-9.13385
▁malovot	-9.13395
▁inaoy	-9.13402
▁oya	-9.13439
▁jinio	-9.13447
▁apoy	-9.13489
於是	-9.13505
▁talili	-9.13644
人類	-9.13671
▁omalam	-9.13693
捕魚	-9.13881
avak	-9.13943
lay	-9.13989
tong	-9.1403
哭	-9.14081
▁ipisa	-9.14233
帶著	-9.14235
▁nimo	-9.14409
▁sidongen	-9.14525
▁yamen	-9.14535
▁angit	-9.14548
你看	-9.14694
pacici	-9.15157
▁yam	-9.15162
很會	-9.15252
walam	-9.15335
ping	-9.15383
ina	-9.15955
arakoa	-9.16132
原住民	-9.16506
也是	-9.16528
myan	-9.16782
▁誰	-9.16814
▁pia	-9.17068
謝謝	-9.172
少	-9.17531
raroa	-9.17539
名	-9.17621
笑	-9.17621
父母	-9.17646
工	-9.17665
弄	-9.17678
強	-9.17681
祖父	-9.17682
▁kavavatanen	-9.17686
▁miawawat	-9.17686
▁sikoki	-9.17686
▁cimoy	-9.17686
累	-9.17686
鬼	-9.17686
▁icicirawat	-9.17687
▁kabang	-9.17687
多少	-9.1771
▁我要去	-9.17711
走路	-9.1772
請問	-9.1776
上面	-9.17809
aka	-9.18059
他的孩子	-9.18099
▁pzapzatan	-9.18445
onong	-9.18929
有人	-9.18968
▁apo	-9.19031
▁kalang	-9.19244
akawan	-9.19274
▁mowney	-9.19403
▁我把	-9.19421
趕	-9.19426
▁yaten	-9.19599
nim	-9.19726
去了	-9.19903
▁icioy	-9.20407
很快	-9.20557
▁noka	-9.211
落	-9.21302
時候	-9.21329
ket	-9.21359
▁為什麼	-9.21456
有一個	-9.21488
▁magaga	-9.21605
的東西	-9.218
除	-9.21932
書	-9.22124
晚上	-9.223
相	-9.22303
木	-9.22307
記	-9.22333
視	-9.22379
更	-9.22379
電腦	-9.22388
Talomo	-9.22392
小男孩	-9.22392
▁ngepen	-9.22393
卻	-9.22393
禁忌	-9.22393
▁takamo	-9.22394
舉行	-9.22394
希望	-9.22396
▁teyteyka	-9.22414
需要	-9.22431
老人家	-9.22438
放在	-9.22458
▁後來	-9.22495
▁jiamen	-9.22497
▁tokap	-9.22507
▁nimacita	-9.22577
讓我	-9.22582
ngay	-9.22648
▁mivilang	-9.22657
▁masaray	-9.22714
走了	-9.23377
akay	-9.23626
每	-9.24172
▁你去	-9.24172
▁angayan	-9.24174
mowa	-9.24358
山豬	-9.25389
c	-9.25579
還不	-9.25634
▁老師	-9.25932
▁paci	-9.26376
姊姊	-9.26485
的魚	-9.26585
zez	-9.26624
根	-9.26751
次	-9.26844
漂亮	-9.26882
saray	-9.26886
vilang	-9.26935
活	-9.26944
物	-9.27127
兒	-9.27169
變	-9.27244
sinmo	-9.27256
立	-9.27271
病	-9.27298
舞	-9.27313
換	-9.27315
乾	-9.27317
台	-9.27318
曾	-9.27324
寫	-9.27326
vatek	-9.27328
貓頭鷹	-9.27331
拼板舟	-9.27331
▁kakawakawan	-9.27332
▁kahasan	-9.27332
▁karatayan	-9.27332
▁mazikna	-9.27332
繼續	-9.27332
雖然	-9.27333
祝福	-9.27335
▁totoo	-9.27336
▁Mazngang	-9.27348
▁wakey	-9.27354
Malala	-9.2736
那些	-9.27361
▁ngina	-9.27366
出去	-9.27393
感到	-9.27407
▁katangked	-9.27435
▁asio	-9.27499
makacita	-9.27538
▁快	-9.28449
ik	-9.29137
tey	-9.29185
▁akokey	-9.29229
最後	-9.29533
冷	-9.29624
得到	-9.29632
偷	-9.30031
浪	-9.30047
信	-9.30194
擺	-9.30259
一起去	-9.30543
▁今天	-9.30584
我的衣服	-9.31272
類	-9.31285
▁angey	-9.31385
▁ngernan	-9.31428
ovo	-9.31496
ez	-9.3167
來的	-9.31728
waw	-9.31785
天氣	-9.31855
ngi	-9.32116
toy	-9.32137
▁kasa	-9.32169
送給	-9.32236
樣	-9.32295
翻	-9.32379
O	-9.32387
▁ipangan	-9.32405
平	-9.32409
panazang	-9.32412
湯	-9.32417
夜	-9.32464
產	-9.32479
畫	-9.32495
近	-9.32503
剛	-9.32504
害	-9.32507
母	-9.32507
▁以前	-9.32508
通	-9.32519
無	-9.32521
揹	-9.32521
棒	-9.32525
睡	-9.32526
項鍊	-9.32527
短	-9.32527
鹿	-9.32527
▁vazacinok	-9.32527
姐姐	-9.32528
▁akokay	-9.32528
▁papira	-9.32528
naknakem	-9.32531
▁tominon	-9.32532
▁sahad	-9.32533
▁iweywawalam	-9.32537
▁sakop	-9.32542
肚子	-9.32555
▁mabazangbang	-9.32577
▁marai	-9.32581
rios	-9.32595
▁hana	-9.32636
先生	-9.32639
別人	-9.32778
▁nikoman	-9.32857
▁ik	-9.32922
可能	-9.3321
▁kali	-9.33279
zan	-9.33306
rakep	-9.33371
出現	-9.3358
il	-9.33811
傳統的	-9.33908
▁raon	-9.34069
ili	-9.3443
al	-9.34554
很高	-9.3471
部落裡	-9.34959
sen	-9.3509
go	-9.35554
ti	-9.35587
kongo	-9.35648
ngong	-9.3574
▁ateneng	-9.36108
不好	-9.36122
▁他的	-9.36133
▁lo	-9.36823
▁makeykai	-9.36851
vehan	-9.36868
兩個	-9.37101
掉了	-9.37346
oli	-9.37426
▁gaza	-9.37507
條	-9.37548
壞	-9.3757
▁我是	-9.37604
難	-9.3763
beken	-9.37664
堆	-9.37752
mak	-9.37756
▁kono	-9.37795
受	-9.37868
原	-9.37919
pareng	-9.37946
oan	-9.37956
參加	-9.37975
輕	-9.37992
怕	-9.37998
該	-9.37998
飛魚季	-9.38006
tazak	-9.38007
蛇	-9.38007
▁mitotoaw	-9.38008
▁pananazangan	-9.38008
▁tizibi	-9.38008
▁vanoa	-9.38008
年輕人	-9.38008
▁makcin	-9.38009
▁sosoli	-9.38011
▁peyvatvatkan	-9.38012
▁No	-9.38014
忙	-9.38015
橘子	-9.38016
▁akmey	-9.38021
▁ciai	-9.38024
▁toki	-9.38025
▁salang	-9.38026
lisna	-9.38029
▁pantaw	-9.3804
▁ononongan	-9.38045
▁jiya	-9.38134
▁pangay	-9.38141
▁misega	-9.38144
之後	-9.38167
▁mateyka	-9.38212
可以吃	-9.38218
的故事	-9.38266
awan	-9.38327
位	-9.38424
▁tapi	-9.3891
ayo	-9.39169
的部落	-9.39608
用來	-9.39713
akaw	-9.39761
住在	-9.40187
話	-9.40265
你就	-9.403
▁katengan	-9.40417
在家	-9.40743
▁Panigen	-9.40778
跟你	-9.40857
▁awan	-9.40972
國	-9.41295
▁有一天	-9.41345
▁viniay	-9.41345
群	-9.41386
▁這是我	-9.41488
▁kap	-9.41712
了很多	-9.41869
anga	-9.41929
say	-9.42135
ingen	-9.42449
很喜歡	-9.42607
全部	-9.4277
我可以	-9.42839
oa	-9.42913
▁你為什麼	-9.42924
▁angan	-9.42978
cya	-9.4299
kas	-9.43303
拔	-9.43444
神	-9.4373
gaz	-9.43735
他就	-9.43738
網袋	-9.43753
離	-9.43767
曬	-9.43779
節	-9.43787
十	-9.4379
紅	-9.43794
性	-9.43795
如何	-9.43797
利	-9.43802
祝	-9.43802
順	-9.43802
燒	-9.43804
越	-9.43805
瑪	-9.43805
領	-9.43805
世界	-9.43806
Salang	-9.43806
▁cininon	-9.43806
▁ipangongopas	-9.43806
▁malalavayo	-9.43806
▁meakey	-9.43806
▁mownay	-9.43806
▁teyngato	-9.43806
雕刻	-9.43806
▁mahataw	-9.43806
▁mowgaraw	-9.43806
▁libangbang	-9.43806
老鷹	-9.43807
決定	-9.4381
應該	-9.43811
身體	-9.43814
房間	-9.43815
▁saki	-9.43828
▁inio	-9.43871
▁maataw	-9.439
mankap	-9.4394
▁mabsoy	-9.43942
▁mahep	-9.44085
採	-9.44308
▁paoli	-9.44351
份	-9.44382
我的手	-9.44477
ikongo	-9.44522
▁A	-9.44767
▁acita	-9.44882
▁I	-9.44889
原住民族	-9.44889
aen	-9.44932
ngo	-9.44976
aapan	-9.45044
awawan	-9.45098
pe	-9.45115
miarap	-9.45269
ngaran	-9.4536
nek	-9.45548
乾淨	-9.45601
▁我去	-9.45864
豬肉	-9.46246
過了	-9.46467
▁nga	-9.46733
▁rara	-9.46736
akano	-9.46754
▁ngai	-9.47244
enep	-9.47295
嚇	-9.47386
▁M	-9.47416
誰	-9.47583
▁yabo	-9.47608
rarakeh	-9.47813
二	-9.47853
織	-9.48033
cin	-9.48532
▁yangey	-9.48579
▁mangan	-9.48586
ming	-9.48613
▁oyod	-9.48693
▁yama	-9.48712
隻	-9.48747
men	-9.48775
▁manoyong	-9.48812
送	-9.48837
▁mayaw	-9.4904
▁awawan	-9.49096
賣	-9.4911
完	-9.49361
▁toma	-9.49364
其	-9.49449
網	-9.49483
然	-9.49693
早	-9.49739
見	-9.49775
方	-9.49798
靠	-9.49873
挑	-9.49928
照	-9.49936
▁siya	-9.49939
牠	-9.49945
摸	-9.49946
助	-9.49946
幫忙	-9.49952
飽	-9.49957
旁邊	-9.49961
排	-9.49961
細	-9.49961
沉	-9.49961
規	-9.49961
▁kanekanen	-9.49961
▁lilisnan	-9.49961
▁malavang	-9.49961
▁mavang	-9.49961
▁micininon	-9.49961
剩	-9.49961
的聲音	-9.49961
載	-9.49961
撕	-9.49962
滾	-9.49962
辛苦	-9.49962
追	-9.49962
準備	-9.49963
認識	-9.49965
▁你的孩子	-9.49966
▁mipipis	-9.4997
月亮	-9.49976
▁poo	-9.4998
地瓜園	-9.49987
▁keylian	-9.49993
造船	-9.49997
▁dengdengen	-9.50013
▁mangonong	-9.50014
▁pivatvatekan	-9.50018
▁ipivatvatek	-9.50026
▁kalaen	-9.50079
▁iyangey	-9.50083
從前	-9.50108
▁iyakan	-9.50111
▁vonongen	-9.50162
▁panga	-9.50258
上的	-9.50329
▁makdeng	-9.50335
▁jiaten	-9.50351
gan	-9.50493
要去	-9.50733
aza	-9.50826
有沒有	-9.50884
karilaw	-9.50935
▁apereh	-9.51104
mtad	-9.51114
也會	-9.51191
kanem	-9.51198
我去	-9.5136
aro	-9.51375
洞	-9.51435
快樂	-9.51613
▁miva	-9.5185
主人	-9.52056
hey	-9.52069
就要	-9.5209
▁我沒有	-9.52317
▁mojis	-9.52352
的名字	-9.52356
▁nya	-9.52464
lavat	-9.52492
▁nitoro	-9.52525
孩子們	-9.52642
sazi	-9.53117
pakapia	-9.53122
都會	-9.53382
你的書	-9.53408
▁你有	-9.53451
主	-9.53546
▁kasi	-9.5371
▁Repay	-9.53739
她的	-9.53837
pit	-9.53972
▁kapang	-9.54097
lag	-9.54302
海上	-9.54332
我來	-9.54518
yangey	-9.54825
nakem	-9.54853
斷	-9.55126
▁Osi	-9.55148
重要的	-9.55163
釣	-9.55191
留	-9.55381
的事	-9.554
▁Kazo	-9.55549
要去哪裡	-9.55658
az	-9.55664
直	-9.55709
捕	-9.55842
dengdeng	-9.55872
還沒	-9.55986
makoyab	-9.56052
代	-9.56314
感	-9.564
達	-9.56413
經	-9.56421
隨	-9.56453
世	-9.5647
季	-9.56484
片	-9.56493
試	-9.56499
鉤	-9.56513
農	-9.56514
服	-9.56514
臺	-9.56515
退	-9.56518
八	-9.56519
推	-9.56519
野	-9.5652
▁avoa	-9.5652
▁keysodan	-9.5652
▁ovay	-9.5652
▁vaey	-9.5652
▁velek	-9.5652
▁voong	-9.5652
Atonen	-9.56521
▁zipos	-9.56521
盛	-9.56521
耕	-9.56521
▁tamek	-9.56521
▁lapik	-9.56525
▁nipanci	-9.56528
經常	-9.56533
擁有	-9.5654
有的	-9.56543
▁pivazaing	-9.56548
阿公	-9.56557
山羊	-9.56567
Kololo	-9.56572
▁inomen	-9.56588
▁apey	-9.56589
▁nimapalolo	-9.56623
▁聽說	-9.56629
▁nanaoen	-9.56664
他不	-9.56703
▁amizingen	-9.56753
跟著	-9.56804
mizizyak	-9.56807
海水	-9.56827
taotao	-9.56832
部落的	-9.56847
yakan	-9.56943
教會	-9.56993
其他	-9.57041
就把	-9.57169
marehmet	-9.5717
▁別	-9.57395
還沒有	-9.57419
row	-9.57686
okso	-9.57795
▁ozong	-9.57901
兄弟姊妹	-9.58281
▁apat	-9.5841
law	-9.58443
▁他把	-9.58445
你的衣服	-9.58475
akan	-9.58512
ek	-9.58704
niahey	-9.58809
yat	-9.58816
角	-9.58893
ngit	-9.59121
塊	-9.59237
▁asi	-9.59292
大船	-9.59712
Panigen	-9.60075
zang	-9.60169
mangap	-9.60293
zaza	-9.60294
▁maz	-9.60479
▁Ngeskes	-9.60565
養	-9.61144
不動	-9.61295
namen	-9.61329
pia	-9.61401
▁我正在	-9.61417
blis	-9.61548
的生活	-9.61643
存	-9.61759
doa	-9.61901
mih	-9.62032
▁pamaring	-9.62075
事情	-9.62165
▁mamizing	-9.62403
▁Italan	-9.62517
lolo	-9.62664
▁malas	-9.62757
路上	-9.6278
失	-9.62802
gaga	-9.62807
lovot	-9.62957
剪	-9.63013
pis	-9.63089
一些	-9.63103
sdep	-9.63116
也有	-9.63224
孩子的	-9.63311
深	-9.63434
造	-9.63486
飛機	-9.63499
▁ikasi	-9.63508
量	-9.63512
加	-9.63514
餐	-9.63516
岸	-9.63519
低	-9.63524
法	-9.63525
改	-9.63526
血	-9.63527
籃	-9.63531
保	-9.63534
求	-9.63538
戰	-9.63538
貓	-9.6354
甘	-9.6354
轉	-9.6354
銀帽	-9.6354
▁mialilima	-9.6354
▁pangozayan	-9.6354
不好意思	-9.6354
擦	-9.6354
愈	-9.6354
椰油部落	-9.6354
殼	-9.6354
燙	-9.6354
▁cyaha	-9.6354
七	-9.63541
▁manotong	-9.63541
▁mangaaap	-9.63541
▁taroy	-9.63542
終於	-9.63542
▁yapiya	-9.63545
比賽	-9.63546
結婚	-9.63547
同學	-9.63547
▁niaken	-9.63547
整理	-9.6355
ilek	-9.63551
日本	-9.63554
落成	-9.63559
母親	-9.6356
▁iyangay	-9.63565
活動	-9.63566
動物	-9.63567
komaro	-9.63573
akakaw	-9.63608
▁nanpang	-9.63616
▁maveveh	-9.63633
▁nimazakat	-9.63637
alikey	-9.63693
hep	-9.63701
喝水	-9.63716
小蘭嶼	-9.63755
▁matava	-9.63807
大家都	-9.63824
▁miyakan	-9.63829
panay	-9.63901
才會	-9.63965
mili	-9.64086
▁kosozi	-9.6414
pangap	-9.64166
▁moli	-9.64263
幾個	-9.64593
takaw	-9.64705
abo	-9.64735
▁maep	-9.64769
好吃	-9.64925
▁nakenakem	-9.65131
▁anaro	-9.65332
▁yaro	-9.65428
masingkad	-9.65462
的芋頭	-9.65494
wat	-9.65501
▁oyo	-9.65501
紅色的	-9.65618
den	-9.65845
nyo	-9.65939
待	-9.6618
▁Omaw	-9.66292
▁somdep	-9.66295
me	-9.66407
angan	-9.66511
不同	-9.66539
rara	-9.66555
rana	-9.66701
▁sazangan	-9.66772
ngyan	-9.66812
▁tom	-9.66916
他說	-9.66954
▁likey	-9.66984
gami	-9.67161
awaz	-9.67282
▁你不	-9.67335
▁nonan	-9.67409
▁ranaw	-9.67439
都很	-9.6753
的孩子	-9.67632
▁kara	-9.67697
pat	-9.67705
ino	-9.67782
聽到	-9.67784
吃魚	-9.67814
▁teyaro	-9.67842
▁som	-9.6786
▁manci	-9.67931
yin	-9.67997
ahap	-9.68099
mina	-9.68236
vok	-9.68488
kanio	-9.68563
lin	-9.68711
達悟族人	-9.68945
遇	-9.68971
就好	-9.69032
Nagat	-9.69113
指	-9.69367
一隻	-9.69466
▁Longi	-9.69522
▁manma	-9.69718
▁mas	-9.69891
拿來	-9.70194
kapia	-9.70208
男生	-9.70372
醒	-9.70378
久	-9.70598
祖母	-9.70678
小心	-9.7069
筆	-9.70705
機	-9.70721
我想	-9.70792
管	-9.70917
結束	-9.70937
橡皮擦	-9.70937
adaday	-9.70977
原來	-9.70981
makong	-9.71
半	-9.71002
建	-9.71051
室	-9.71057
割	-9.7107
聚	-9.71075
巴	-9.71077
油	-9.71077
招	-9.71078
長大	-9.71082
器	-9.71084
張	-9.71086
圓	-9.7109
那麼多	-9.7109
cireng	-9.7109
civet	-9.7109
▁Tao	-9.7109
▁kavahayan	-9.7109
▁laklaktat	-9.7109
▁volay	-9.7109
▁warawara	-9.7109
彩	-9.7109
敲	-9.7109
景	-9.7109
繫	-9.7109
▁Tahakey	-9.7109
▁apzatan	-9.7109
歸	-9.7109
雨停了	-9.7109
▁irala	-9.7109
▁tenetenen	-9.71091
區	-9.71091
▁ararow	-9.71092
raet	-9.71092
bakbak	-9.71093
▁yapira	-9.71093
▁kehakay	-9.71094
▁ananak	-9.71095
稱呼	-9.71095
幫助	-9.71096
製作	-9.71098
無法	-9.71099
▁Taiwan	-9.71101
▁pivatvatkan	-9.71115
▁citahen	-9.71122
月份	-9.71124
禮物	-9.71125
天空	-9.71148
發生	-9.71155
▁mikariag	-9.71173
客人	-9.71177
兒子	-9.71245
▁miavas	-9.7126
▁inyo	-9.71261
她們	-9.71274
出生	-9.71292
▁masarey	-9.71297
kmi	-9.71325
piapia	-9.71325
都不	-9.71369
看起來	-9.71397
▁karoan	-9.71473
▁maniahey	-9.71476
zot	-9.71521
子女	-9.71524
在下雨	-9.71543
或是	-9.71572
▁jingyan	-9.71596
主屋	-9.71647
身上	-9.71726
捕到	-9.71759
song	-9.71763
結果	-9.71863
的祖先	-9.72078
回來了	-9.72171
▁maraw	-9.72265
▁他要	-9.72362
▁akan	-9.72408
mang	-9.72624
ilap	-9.7283
teteneng	-9.72846
土地	-9.7307
在地上	-9.73136
bot	-9.73157
海裡	-9.73188
遇到	-9.73245
▁ablis	-9.73315
書包	-9.73356
族群	-9.73442
我們一起	-9.73586
yokay	-9.73604
▁好的	-9.7368
kaliman	-9.73842
▁kavakes	-9.74066
他們就	-9.7412
的文化	-9.74173
你喜歡	-9.74385
擺在	-9.74522
tlo	-9.74753
小山豬	-9.74794
本	-9.75111
katlo	-9.75118
yanan	-9.75173
cik	-9.75363
oyan	-9.75382
ikoan	-9.75589
▁你在	-9.75599
你會	-9.75696
▁keysakan	-9.75799
▁哇	-9.758
▁mamasil	-9.758
▁mivahay	-9.75817
angangay	-9.75852
▁tomipa	-9.75879
一塊	-9.75931
田裡	-9.76154
▁makas	-9.76456
大的	-9.7648
拿去	-9.76487
老人	-9.76561
peh	-9.76608
ngononong	-9.76788
▁mamo	-9.76806
singkad	-9.76957
tay	-9.77083
姊妹	-9.77091
▁mapo	-9.77114
yam	-9.77372
vaci	-9.7756
幫你	-9.77787
去看	-9.77983
pong	-9.77992
遭	-9.78212
給他	-9.78216
嫁	-9.78508
房	-9.78675
來到	-9.78716
去學校	-9.78845
這裡有	-9.78855
認	-9.78864
manazang	-9.78921
mowyat	-9.78923
raraten	-9.7898
▁akma	-9.79
may	-9.7909
竹	-9.7911
槍	-9.79142
▁savong	-9.79174
溪	-9.79185
屋頂	-9.79213
髮	-9.79216
架	-9.79216
六	-9.79217
整	-9.79238
表	-9.79239
伴	-9.79248
掛	-9.79249
識	-9.79251
希	-9.79252
您	-9.79252
貝	-9.79252
Kacaw	-9.79253
南	-9.79254
煙	-9.79255
練習	-9.79256
躺	-9.79256
刺	-9.79257
格	-9.79257
maganinam	-9.79257
maviay	-9.79257
otobay	-9.79257
▁amoamong	-9.79257
▁iciatatao	-9.79257
▁ireyrayan	-9.79257
▁masalit	-9.79257
▁masirem	-9.79257
▁pananadengan	-9.79257
▁somalap	-9.79257
▁tomozokosi	-9.79257
埋	-9.79257
tazokok	-9.79257
▁teykakza	-9.79257
屁	-9.79257
捏	-9.79257
柱	-9.79257
泡	-9.79257
罪	-9.79257
麵	-9.79257
呀	-9.79257
▁kararay	-9.79257
沒關係	-9.79257
漁人村	-9.79257
manongsong	-9.79257
▁pivazayan	-9.79257
容易	-9.79258
▁simarow	-9.79258
表示	-9.79258
▁miratat	-9.79258
▁atenngi	-9.79259
黃金	-9.79259
戰爭	-9.79259
▁osagi	-9.7926
親友	-9.7926
ogto	-9.79262
▁vavahay	-9.79264
改變	-9.79267
abtan	-9.79269
▁omalalam	-9.79269
參與	-9.7927
剛剛	-9.79271
今年	-9.79278
生氣	-9.79278
▁teylaod	-9.79282
▁pacinanaoan	-9.79294
▁nojia	-9.79295
▁mannget	-9.79298
salaw	-9.79309
citoai	-9.79358
▁minom	-9.7936
▁angangayan	-9.79362
▁manakaw	-9.79364
等等	-9.79372
piwalam	-9.79384
▁makaveyvow	-9.794
用力	-9.79404
作為	-9.79424
▁ngian	-9.79426
tapino	-9.79482
▁ipanta	-9.7951
很高興	-9.79529
傳統文化	-9.79542
到處	-9.79608
▁mayokay	-9.79616
▁mao	-9.79632
▁sitoai	-9.79647
一邊	-9.7965
mosok	-9.79723
▁ici	-9.79727
▁mangna	-9.79794
▁inawan	-9.79818
一次	-9.79843
▁niman	-9.79866
▁mancian	-9.79986
makdeng	-9.80032
lala	-9.80041
00	-9.80185
▁mik	-9.80206
aroo	-9.80275
▁他們把	-9.8035
都沒有	-9.80471
raraen	-9.80673
pangonong	-9.80753
我會	-9.80757
patelem	-9.8083
gza	-9.80966
不一樣	-9.81166
lip	-9.81179
▁yatey	-9.81397
重要	-9.81409
▁nimaci	-9.81468
yalalam	-9.81531
mis	-9.81722
▁我們在	-9.82319
種的	-9.82355
回家了	-9.82483
iden	-9.8251
sia	-9.82732
sta	-9.82748
許多	-9.82772
kod	-9.83147
髒	-9.83187
toktok	-9.8334
這是我的	-9.83434
我今天	-9.83441
的學校	-9.84311
裡面	-9.84488
pakacita	-9.84497
naro	-9.84499
很好吃	-9.84534
是學生	-9.84821
▁我和	-9.8485
tao	-9.8518
的食物	-9.85443
他很	-9.85506
在睡覺	-9.85604
▁pato	-9.85705
piva	-9.85721
樂	-9.85772
所有	-9.8584
amoon	-9.85886
勤勞	-9.86107
每天	-9.86134
擔心	-9.86146
內	-9.86302
lis	-9.86328
ori	-9.86344
▁niakan	-9.86348
citan	-9.8644
tava	-9.8674
去哪裡	-9.86781
就可以	-9.87191
teyka	-9.87377
mood	-9.87731
變成	-9.87767
▁amizing	-9.87832
幹嘛	-9.87846
Y	-9.87858
什麼東西	-9.87883
未	-9.87899
▁maozi	-9.8797
民	-9.8799
avong	-9.88004
可憐	-9.88052
空	-9.88082
熟	-9.88091
▁To	-9.88098
分享	-9.88098
具	-9.88106
划	-9.88107
如	-9.88121
龍眼	-9.88126
交	-9.88127
字	-9.88129
反	-9.88131
碗	-9.88132
復	-9.8814
酸	-9.88141
望	-9.88142
1	-9.88143
形	-9.88143
團	-9.88145
至	-9.88146
影	-9.88147
準	-9.88148
設	-9.88148
選	-9.88149
游	-9.8815
返	-9.8815
Sekalo	-9.8815
懶	-9.8815
毛	-9.8815
avay	-9.8815
乘	-9.8815
椰油村	-9.8815
)	-9.8815
Imowrod	-9.8815
kekjit	-9.8815
pazezevengan	-9.8815
zipozipos	-9.8815
▁Irala	-9.8815
▁liktamahakay	-9.8815
▁nokakyab	-9.8815
▁pangengneban	-9.8815
▁rangirang	-9.8815
斜	-9.8815
癢	-9.8815
耶	-9.8815
Pakawang	-9.8815
dingwa	-9.8815
lalabngan	-9.8815
夢	-9.8815
沒辦法	-9.8815
臭	-9.8815
這麼多	-9.8815
tovong	-9.8815
抬	-9.8815
禱告	-9.8815
突然	-9.88151
▁tabako	-9.88151
敬	-9.88151
西瓜	-9.88151
繼承	-9.88151
畢業	-9.88151
花園	-9.88151
mamaring	-9.88152
▁mangahahap	-9.88154
▁malalayo	-9.88154
巨人	-9.88157
前院	-9.88157
順便	-9.88157
問題	-9.88157
▁你有幾個	-9.8816
▁ikapaw	-9.88161
▁masngen	-9.88165
分配	-9.88165
直接	-9.88165
kaygi	-9.88168
mangannget	-9.88169
matenen	-9.8817
有兩個	-9.88172
章魚	-9.88173
kotat	-9.88176
▁kolitan	-9.88177
名稱	-9.88177
划船	-9.88194
▁kayokayo	-9.88203
ngongyod	-9.88219
到底	-9.88223
▁teyngi	-9.88227
▁pakapiaen	-9.8823
以及	-9.88253
zat	-9.88297
▁madagdag	-9.88301
煮飯	-9.88303
▁ipey	-9.88309
▁tomita	-9.8833
▁mitatala	-9.88332
▁vilangan	-9.88338
nowji	-9.8834
ramon	-9.88348
主要	-9.88349
採集	-9.88356
小鳥	-9.88374
▁miyowyaw	-9.884
▁ipangap	-9.88418
tedted	-9.88456
很痛	-9.88457
原來是	-9.88458
的家	-9.88516
傳說	-9.88534
只要	-9.88592
▁nimangey	-9.8865
▁angin	-9.88651
▁awao	-9.88715
的時間	-9.88764
還要	-9.88921
除了	-9.88986
agom	-9.88988
實	-9.89016
▁ikaro	-9.89079
▁mapalolo	-9.89102
▁zaka	-9.89168
起來了	-9.89193
▁yasa	-9.89228
sarow	-9.89311
koman	-9.89361
你要去哪裡	-9.89444
Italan	-9.89474
Kazo	-9.89499
要做什麼	-9.89512
mayaw	-9.89545
mimin	-9.89577
▁onas	-9.89612
mamizing	-9.89623
mivatvatek	-9.89723
▁mici	-9.89757
kakanan	-9.89765
要帶	-9.89813
yaken	-9.89834
arang	-9.8989
▁siri	-9.8994
有好多	-9.90096
的日子	-9.9021
▁他對	-9.90271
買了	-9.90304
找到	-9.90443
天上	-9.90586
▁我用	-9.90617
▁mala	-9.90816
學生	-9.90934
來吃	-9.91168
走到	-9.91423
當時	-9.91532
ngey	-9.91644
okaw	-9.91709
國家	-9.92069
▁我們要	-9.92084
開心	-9.92409
asan	-9.9269
▁kaza	-9.93205
你還	-9.93208
ikatlo	-9.93262
大家好	-9.9335
他的衣服	-9.93369
songit	-9.93373
ba	-9.93443
直到	-9.93455
▁kat	-9.93464
aten	-9.93605
toroan	-9.94126
▁karako	-9.94369
esa	-9.94382
arai	-9.94503
傷	-9.94546
地上	-9.94573
lam	-9.94866
pili	-9.94974
▁icia	-9.95798
apaw	-9.95844
saw	-9.95847
你拿	-9.95896
pito	-9.95907
破	-9.96162
魚類	-9.96211
硬	-9.96334
我沒有在	-9.96556
好多	-9.96587
ita	-9.96879
算	-9.97024
」。	-9.97052
▁kapaka	-9.97062
▁macilolo	-9.9708
現	-9.97354
這樣的	-9.97357
是我的	-9.97383
kapiya	-9.97415
golang	-9.97424
胖	-9.97463
toai	-9.97554
sidong	-9.97585
▁panirisiring	-9.97589
▁vonong	-9.97634
本書	-9.97656
罵	-9.97761
族語	-9.97781
起床	-9.97792
tokzos	-9.97816
害怕	-9.97822
且	-9.97859
寶	-9.97865
獵	-9.9787
道	-9.97872
應	-9.97875
品	-9.97876
合	-9.9789
電	-9.97891
命	-9.97892
牙	-9.97895
涼	-9.97895
依	-9.97898
東	-9.97898
金	-9.97899
唷	-9.97902
拜訪	-9.97902
吸	-9.97905
兄弟	-9.97905
嘴	-9.97905
引	-9.97906
ngavavaw	-9.9791
Wangcyali	-9.97911
藏	-9.97911
咪	-9.97911
蟲	-9.97911
禁止	-9.97912
Selep	-9.97912
樓	-9.97912
雲	-9.97912
pakowbot	-9.97912
侵	-9.97912
吵	-9.97912
靠背石	-9.97912
▁Pitepi	-9.97912
▁Tinnaw	-9.97912
▁kiokay	-9.97912
▁malavayo	-9.97912
▁maloit	-9.97912
▁oneonod	-9.97912
▁panganpen	-9.97912
▁pangtoktoan	-9.97912
▁vocid	-9.97912
▁yancomin	-9.97912
怎麼樣	-9.97912
摩托車	-9.97912
警察	-9.97912
賓客	-9.97912
針	-9.97912
▁Likdem	-9.97912
▁miketeh	-9.97912
刻	-9.97912
夾	-9.97912
盪	-9.97912
真正的	-9.97912
胸	-9.97912
航	-9.97912
吊	-9.97912
繁	-9.97912
野銀部落	-9.97912
▁mitawaz	-9.97912
梳	-9.97912
照顧	-9.97912
▁paoben	-9.97912
▁talinga	-9.97913
厚	-9.97913
法律	-9.97913
▁itazogaw	-9.97913
▁mapno	-9.97913
味道	-9.97914
建造	-9.97916
特別	-9.97919
代表	-9.9792
▁zazawan	-9.97921
▁Amis	-9.97922
命名	-9.97922
早餐	-9.97923
喝酒	-9.97924
itkehan	-9.97928
年紀	-9.97929
山藥	-9.97929
▁segan	-9.97929
▁siken	-9.97936
妻子	-9.97936
▁neymakdeng	-9.97941
一定	-9.97942
龍眼樹	-9.97945
▁nanala	-9.97946
處理	-9.97958
▁karay	-9.97972
▁rala	-9.97973
kakeykai	-9.97977
Tonang	-9.9799
▁omlavi	-9.97994
洗手	-9.98
開門	-9.98001
變得	-9.98009
sak	-9.98012
放學	-9.98018
langet	-9.98032
海鳥	-9.98037
▁mialalam	-9.98038
小時候	-9.98049
一定要	-9.98054
釣到	-9.98068
到達	-9.98069
neyked	-9.98075
▁paloloen	-9.98076
做成	-9.98099
▁nokano	-9.98112
不管	-9.98123
慢慢	-9.98132
▁ipanazang	-9.98137
打開	-9.98151
▁asisi	-9.98178
了呢	-9.98181
很遠	-9.9819
pikariag	-9.98264
amaog	-9.98347
進來	-9.98378
變成了	-9.98392
這就是	-9.98398
sapo	-9.98412
工作房	-9.9843
趕走	-9.98482
▁今天是	-9.98529
使用	-9.98631
▁kokay	-9.98658
有關	-9.98672
▁cina	-9.98696
▁我喜歡吃	-9.98763
很漂亮	-9.9883
有些	-9.9884
▁kadoa	-9.98879
yop	-9.98916
▁ngar	-9.98985
papalit	-9.99043
的臉	-9.9909
cing	-9.99138
為了	-9.99149
家人	-9.99169
ngaranan	-9.99173
看到了	-9.9924
分給	-9.99393
yowyaw	-9.99509
▁arara	-9.9968
▁你先	-9.9968
▁pancian	-9.99769
▁manai	-9.99773
2	-9.99904
▁anem	-9.99907
在一起	-10.0003
▁makaha	-10.0003
一位	-10.0007
三個	-10.0024
nonan	-10.0025
最大	-10.0026
不錯	-10.0029
▁他沒有	-10.0052
的草	-10.0056
naw	-10.0058
▁我從	-10.0064
舊的	-10.0066
回去	-10.0087
▁alavat	-10.0115
心地	-10.0126
婦	-10.0153
進去	-10.0158
▁moing	-10.0161
是很	-10.0171
nohon	-10.0179
arap	-10.0192
海邊	-10.0192
Paloy	-10.0194
▁sicyar	-10.0206
芋頭田	-10.0256
去海邊	-10.0267
▁nikat	-10.0289
tod	-10.0291
aod	-10.0293
kayo	-10.0314
yama	-10.0327
醫院	-10.033
不用	-10.033
oyo	-10.0348
家族	-10.0351
漁獲	-10.0362
我們都	-10.0369
趕快	-10.0369
因為他	-10.037
ehza	-10.038
▁ipaka	-10.0387
完了	-10.0406
soso	-10.0418
tes	-10.0424
跟我	-10.0433
nio	-10.0453
▁tata	-10.0456
▁nito	-10.0477
j	-10.0502
拿走	-10.0513
atay	-10.052
我的書	-10.0526
的朋友	-10.0536
arow	-10.0539
你弟弟	-10.0552
angey	-10.0564
另一	-10.0574
舊	-10.0575
neb	-10.0587
panta	-10.06
sad	-10.0622
cita	-10.0625
▁kakan	-10.0637
哪	-10.0659
歌謠	-10.0662
▁miy	-10.0668
pereh	-10.0671
習俗	-10.0677
的眼睛	-10.0712
四個	-10.0718
se	-10.0732
teysa	-10.0738
第一	-10.0741
▁mangai	-10.0743
臉	-10.0743
tog	-10.0747
受到	-10.0756
moan	-10.0762
居	-10.0785
支	-10.0788
屋裡	-10.0791
瘦	-10.0794
各種	-10.0803
請你	-10.0819
很大的	-10.0819
些	-10.082
時間	-10.0822
silo	-10.0844
bezbez	-10.0845
總	-10.0846
pivatvatek	-10.0851
jin	-10.0852
鍋	-10.0854
ari	-10.0855
鼻	-10.0858
殺	-10.086
畫圖	-10.0862
亮	-10.0863
候	-10.0864
涼台	-10.0864
metdeh	-10.0865
情	-10.0865
腿	-10.0866
keteketeh	-10.0867
森林	-10.0868
漁	-10.0868
摘	-10.0868
編	-10.0869
餵	-10.087
醫	-10.087
碎	-10.087
拍	-10.087
體	-10.087
剝	-10.087
紋	-10.087
記得	-10.0871
運	-10.0871
安	-10.0871
▁manao	-10.0871
耳	-10.0871
木板	-10.0872
較	-10.0872
晒	-10.0872
某	-10.0872
柴	-10.0872
怎麼辦	-10.0872
制	-10.0872
紙	-10.0872
盤	-10.0872
尾	-10.0873
度	-10.0873
黃	-10.0873
壓	-10.0873
拍手歌會	-10.0873
驚	-10.0873
散	-10.0873
文	-10.0873
暖	-10.0873
告	-10.0873
珠	-10.0873
負	-10.0873
料	-10.0873
圈	-10.0873
馬	-10.0873
kisodan	-10.0873
吐	-10.0873
單	-10.0873
愈來愈	-10.0873
插	-10.0873
暗	-10.0873
株	-10.0873
ivay	-10.0873
你怎麼不	-10.0873
avaw	-10.0873
somidong	-10.0873
▁Syawpo	-10.0873
▁aviay	-10.0873
▁cinalab	-10.0873
▁kekezdas	-10.0873
▁makowbot	-10.0873
▁nokakoyab	-10.0873
▁onowned	-10.0873
▁sinavat	-10.0873
捉螃蟹	-10.0873
擋	-10.0873
Iranmeylek	-10.0873
pipilapila	-10.0873
reket	-10.0873
▁mipaltog	-10.0873
▁rakwa	-10.0873
燈	-10.0873
登	-10.0873
達悟語	-10.0873
omaom	-10.0873
丁字褲	-10.0873
我爸爸在	-10.0873
寬	-10.0873
肥皂	-10.0873
葬	-10.0873
陷	-10.0873
▁ineyna	-10.0873
▁sesdepan	-10.0873
Sincyang	-10.0873
潮間帶	-10.0873
遷	-10.0873
麻煩	-10.0873
mavaheng	-10.0873
感謝	-10.0873
▁minozi	-10.0873
▁這是誰的	-10.0873
植物	-10.0873
▁alilikey	-10.0873
烏克蘭	-10.0873
pakakasi	-10.0873
觀念	-10.0873
財產	-10.0873
方式	-10.0873
mararaw	-10.0873
loalolog	-10.0873
iciaroa	-10.0874
訪問	-10.0874
權利	-10.0874
朵花	-10.0874
▁Jivalino	-10.0874
▁kalovotan	-10.0874
注意	-10.0874
▁kalilian	-10.0874
nehed	-10.0874
工具	-10.0874
▁tomanek	-10.0875
長輩	-10.0875
ngai	-10.0875
請假	-10.0875
▁neymakarang	-10.0876
裙子	-10.0876
▁siciarow	-10.0876
女兒	-10.0877
鍋子	-10.0878
而且	-10.0878
▁mamaen	-10.0878
▁mizeziak	-10.0878
▁mivanoa	-10.0879
▁ngoso	-10.0879
▁omlisna	-10.0879
panita	-10.088
▁奶奶說	-10.0881
zoay	-10.0881
▁annget	-10.0881
孫子	-10.0881
過世	-10.0881
想念	-10.0882
▁isarey	-10.0883
▁mangananao	-10.0885
不論	-10.0887
▁ikarahet	-10.0888
下次	-10.0888
接著	-10.089
tomayo	-10.089
機會	-10.0891
備用	-10.0894
得動	-10.0894
▁apzapzatan	-10.0895
挖地瓜	-10.0896
hakawan	-10.0899
總是	-10.0899
kozongen	-10.0903
未來	-10.0904
▁pipia	-10.0909
altog	-10.091
yopen	-10.091
讓他	-10.0916
▁tosia	-10.0917
sega	-10.0927
了許多	-10.0931
新的	-10.0941
他們就會	-10.0943
村人	-10.0946
也可以	-10.0954
一條	-10.0961
居住	-10.0961
才有	-10.0967
zok	-10.0968
▁你把它	-10.0971
可是	-10.098
他的名字	-10.0985
會洗衣服	-10.0985
是醫生	-10.0985
我的孩子	-10.0986
。「	-10.0988
成為	-10.0989
叫他	-10.1028
有三	-10.1036
▁kawanan	-10.1037
▁inan	-10.1045
angangey	-10.1056
▁apito	-10.1109
住了	-10.1116
kateysa	-10.113
ekeh	-10.1139
她是	-10.1142
吃完	-10.1147
▁pin	-10.1183
多了	-10.119
isan	-10.1193
坐下	-10.1196
sozi	-10.1197
▁你在哪裡	-10.1203
就這樣	-10.1209
很小	-10.1213
打掃	-10.1221
ilili	-10.1226
▁jini	-10.123
karong	-10.1235
是達悟族	-10.1264
是為了	-10.1271
去山上	-10.1277
的傳統	-10.1312
▁pangain	-10.1319
語言	-10.133
人數	-10.1346
likey	-10.1357
的飛魚	-10.1361
看著	-10.1366
nem	-10.1368
給了	-10.1371
▁makoa	-10.1373
gsah	-10.1377
的漁獲	-10.1412
名字叫	-10.1427
有兩	-10.1457
▁nimaka	-10.1465
yoen	-10.147
一顆	-10.1471
並不	-10.1473
sang	-10.148
▁iyan	-10.1489
ikapira	-10.1515
rahan	-10.152
esep	-10.1528
sazangan	-10.154
在蘭嶼	-10.154
去拿	-10.1556
▁yato	-10.1564
layo	-10.157
mangey	-10.1582
比特幣	-10.1594
katengan	-10.16
所有的	-10.1609
一看	-10.1658
▁ha	-10.1699
100	-10.1739
都有	-10.174
在唱歌	-10.1743
不想	-10.1747
都可以	-10.1779
kozong	-10.1789
錯	-10.1795
好像	-10.1803
紅頭村	-10.1803
poan	-10.1809
港口	-10.1815
吃芋頭	-10.1818
洗衣服	-10.1844
跟他	-10.1846
vaon	-10.1863
日子	-10.1871
也不	-10.1888
你很	-10.1891
去捕魚	-10.1899
島上	-10.1908
bak	-10.194
opi	-10.1943
不可	-10.195
cingo	-10.1964
akawen	-10.1965
niaap	-10.1966
▁tamtamek	-10.1971
▁他們家	-10.1979
▁asiasi	-10.1983
angno	-10.1984
到你	-10.1995
narang	-10.201
葉	-10.2013
noyong	-10.2017
相信	-10.2023
從哪裡	-10.2023
ben	-10.2024
anoanood	-10.2028
pianoanood	-10.2041
歲	-10.2041
夠	-10.2044
務	-10.205
集	-10.2051
avas	-10.2051
sarey	-10.2057
躲	-10.2061
園	-10.2062
足	-10.2066
底	-10.2068
件	-10.2069
論	-10.207
令	-10.2071
撈	-10.2071
客	-10.2072
六個	-10.2072
便	-10.2073
▁veha	-10.2076
抱	-10.2076
爬	-10.2076
假	-10.2079
員	-10.2079
做芋糕	-10.2081
站	-10.2082
隊	-10.2082
業	-10.2083
苗	-10.2083
衣	-10.2083
許	-10.2083
九	-10.2083
縫	-10.2084
阿美族	-10.2084
獨	-10.2084
婚	-10.2084
創	-10.2084
螺	-10.2085
材	-10.2085
voka	-10.2085
計	-10.2085
卡	-10.2085
避	-10.2085
▁親愛的	-10.2085
止	-10.2085
願	-10.2085
權	-10.2085
鬆	-10.2085
kteb	-10.2085
福	-10.2086
刮	-10.2086
夫	-10.2086
座	-10.2086
啃	-10.2086
岩	-10.2086
兄	-10.2086
貨幣	-10.2086
適	-10.2086
守	-10.2086
枝	-10.2086
預	-10.2086
擊	-10.2086
咒	-10.2086
差	-10.2086
攤	-10.2086
杖	-10.2086
程	-10.2086
音	-10.2086
助產士	-10.2086
霧	-10.2086
2022	-10.2086
[	-10.2086
tametamek	-10.2086
vonas	-10.2086
▁Iratay	-10.2086
▁Jiratay	-10.2086
▁makopad	-10.2086
▁misakop	-10.2086
▁ovey	-10.2086
▁vahanga	-10.2086
▁vooden	-10.2086
▁voovoong	-10.2086
摔	-10.2086
槳	-10.2086
熊	-10.2086
鹹	-10.2086
Matnaw	-10.2086
]	-10.2086
karakarang	-10.2086
manhatow	-10.2086
romiag	-10.2086
▁Manongsong	-10.2086
▁ciaha	-10.2086
▁cinoat	-10.2086
▁mangdes	-10.2086
們昨天去	-10.2086
刷	-10.2086
彈	-10.2086
朗島村	-10.2086
浮	-10.2086
策	-10.2086
ktokto	-10.2086
嗯	-10.2086
灰	-10.2086
Maomay	-10.2086
▁manilo	-10.2086
▁mavasa	-10.2086
▁mikangin	-10.2086
苦	-10.2086
周	-10.2086
大螃蟹	-10.2086
喂	-10.2086
餌	-10.2086
肺	-10.2086
勢	-10.2086
掌	-10.2086
vitos	-10.2086
吃飽了	-10.2086
夫妻	-10.2086
危險	-10.2086
池	-10.2086
耳朵	-10.2086
感覺	-10.2086
▁nimacimoy	-10.2086
南瓜	-10.2087
記號	-10.2087
藍色	-10.2087
斧頭	-10.2087
▁Ivalino	-10.2087
屬於	-10.2087
唸書	-10.2087
附近	-10.2087
▁zagaw	-10.2087
標記	-10.2087
傳承	-10.2087
現代	-10.2087
zamit	-10.2087
環島	-10.2087
▁lingko	-10.2087
平安	-10.2087
pasisit	-10.2087
願意	-10.2087
▁syong	-10.2087
▁kalahen	-10.2087
獵物	-10.2088
▁Ipong	-10.2088
台東	-10.2088
▁arayo	-10.2088
▁kapisega	-10.2088
獲得	-10.2088
▁korang	-10.2088
aomas	-10.2088
聚落	-10.2088
▁mavalang	-10.2088
▁lali	-10.2088
ingato	-10.2088
▁tawaz	-10.2088
▁minapodpod	-10.2089
肉片	-10.2089
站起來	-10.209
肉類	-10.209
irang	-10.209
▁sapang	-10.209
除草	-10.2091
白色	-10.2091
打架	-10.2091
其它	-10.2092
集中	-10.2092
新屋	-10.2092
射魚	-10.2093
很美麗	-10.2093
關於	-10.2094
之意	-10.2094
▁那個男人	-10.2095
只能	-10.2095
osok	-10.2095
漢人	-10.2095
面前	-10.2096
alimango	-10.2096
開車	-10.2098
床	-10.2099
一家人	-10.2101
▁manaod	-10.2101
net	-10.2102
▁singkadan	-10.2102
要記得	-10.2102
alolog	-10.2103
anoyongan	-10.2103
本來	-10.2104
▁macyang	-10.2104
網魚	-10.2105
黑色的	-10.2107
▁mapatoyon	-10.2107
不敢	-10.2108
水果	-10.2109
田地	-10.2109
下面	-10.2109
paring	-10.2109
ngarnan	-10.2109
是一個	-10.2109
最多	-10.211
白天	-10.2115
很少	-10.2116
穿著	-10.2116
yowyat	-10.2118
liktaw	-10.212
pehes	-10.2121
下去	-10.2121
avavangan	-10.2126
不然會	-10.2129
歌會	-10.213
你要買	-10.213
就像	-10.2131
就開始	-10.2135
apo	-10.2138
大石頭	-10.2139
▁你為什麼要	-10.214
算了	-10.2141
是用來	-10.2146
totwa	-10.2149
amogaw	-10.2153
▁ikey	-10.2157
▁kapianoanood	-10.2163
▁jiateng	-10.2166
▁sako	-10.2171
▁你來	-10.2176
壞了	-10.2186
真的很	-10.2192
▁miyop	-10.2214
是男生	-10.2217
失去	-10.2218
看過	-10.222
▁omoli	-10.2226
▁raraan	-10.2228
kasngen	-10.2235
的路	-10.2236
在學校	-10.2237
大魚	-10.2253
去哪裡了	-10.2262
kasiam	-10.2267
5	-10.2271
死掉	-10.2275
▁makasi	-10.2276
的嘴巴	-10.2301
很快就	-10.2303
哪有	-10.2309
老了	-10.231
arwa	-10.232
▁mat	-10.2326
死的	-10.2338
你的朋友	-10.2338
船上	-10.234
有一隻	-10.2352
zog	-10.2353
kapoan	-10.2353
很熱	-10.2353
onot	-10.2356
的情形	-10.2363
hat	-10.2363
很勤勞	-10.2377
aroaro	-10.238
malavat	-10.2388
▁kanang	-10.2393
各式各樣的	-10.2404
tana	-10.2404
▁malap	-10.2419
我們就	-10.2422
堂	-10.2423
不喜歡	-10.2425
涼台上	-10.2427
tatlo	-10.2427
yob	-10.2448
▁yangay	-10.2476
都要	-10.248
▁omra	-10.2488
sidongen	-10.2494
ge	-10.2525
二十	-10.2528
▁pacicin	-10.2549
baba	-10.2581
▁karo	-10.2644
島上的	-10.2665
▁saza	-10.2681
lik	-10.2682
去紅頭村	-10.2686
就不會	-10.269
pangmay	-10.2691
dpon	-10.2696
還在	-10.2704
olo	-10.2709
cicing	-10.2716
pala	-10.2739
kapira	-10.2752
▁saka	-10.2753
真好	-10.2769
▁mapat	-10.2782
inom	-10.2794
patoktok	-10.2795
kay	-10.2796
我才	-10.2806
liman	-10.281
在讀書	-10.2826
他們會	-10.285
ling	-10.2856
親家	-10.2874
kapat	-10.288
tak	-10.2914
sibo	-10.2943
▁makala	-10.2951
acing	-10.2951
eman	-10.2954
他人	-10.2955
garan	-10.2959
婦人	-10.2963
kap	-10.2973
的腳	-10.2981
ozong	-10.3035
papaw	-10.3039
kalat	-10.3058
▁他們兩個	-10.3061
owyat	-10.3064
▁pipi	-10.308
rek	-10.3086
dep	-10.3099
留下	-10.311
坐在	-10.3132
▁我跟	-10.3139
tatala	-10.3142
nakenakem	-10.3151
ipisa	-10.3158
makarang	-10.3164
oden	-10.3165
畫畫	-10.3178
jya	-10.3183
mangay	-10.3191
mangaz	-10.3192
▁蘭嶼的	-10.3226
嘴巴	-10.3227
ozok	-10.3246
▁Mo	-10.3246
oi	-10.3259
salap	-10.3266
iak	-10.3273
tad	-10.3273
tonton	-10.328
出去玩	-10.331
ngayan	-10.3322
onongi	-10.3328
果實	-10.3329
pacita	-10.3338
到家	-10.3348
acimoy	-10.3354
▁alilin	-10.3358
▁katey	-10.3368
▁nimay	-10.3374
會唱歌	-10.3381
njing	-10.3387
laod	-10.3394
月時	-10.3401
小小	-10.342
薄	-10.3424
鋸	-10.3426
成熟	-10.3428
nget	-10.3428
bsoy	-10.3429
敢	-10.3442
牙齒	-10.3446
op	-10.3453
頂	-10.3454
念	-10.3456
射	-10.3458
目	-10.346
vera	-10.3461
城	-10.3462
酒	-10.3462
電視	-10.3463
河	-10.3463
rahem	-10.3464
▁今天天氣	-10.3464
podpod	-10.3465
糕	-10.3465
緣	-10.3465
疼	-10.3465
惡	-10.3465
錄	-10.3466
保護	-10.3466
決	-10.3466
觀	-10.3466
百	-10.3466
賽	-10.3466
西	-10.3466
習慣	-10.3466
唸	-10.3466
招飛魚祭	-10.3466
makaveyvo	-10.3466
pangay	-10.3466
漲潮	-10.3467
善	-10.3467
報	-10.3467
扁	-10.3467
odtod	-10.3467
姑婆芋	-10.3467
討	-10.3467
絕	-10.3467
avit	-10.3467
致	-10.3467
Ziyating	-10.3467
奇	-10.3467
腰	-10.3467
搶	-10.3467
即	-10.3467
千	-10.3467
淹	-10.3467
側	-10.3467
局	-10.3467
必	-10.3467
▁ngeskes	-10.3467
例如	-10.3467
滴	-10.3467
積	-10.3467
遍	-10.3467
劈	-10.3467
嘛	-10.3467
緊	-10.3467
肥	-10.3467
懂	-10.3467
▁mialeleh	-10.3467
粗	-10.3467
靜	-10.3467
encomin	-10.3467
logod	-10.3467
moimoing	-10.3467
pokpok	-10.3467
tovisan	-10.3467
vean	-10.3467
wadwad	-10.3467
▁Dahan	-10.3467
▁Okelan	-10.3467
▁avat	-10.3467
▁kanaronaro	-10.3467
▁kapaganam	-10.3467
▁makamizing	-10.3467
▁maveyvow	-10.3467
▁miciamadadayan	-10.3467
▁mivazey	-10.3467
▁nimawakwak	-10.3467
▁oneoned	-10.3467
▁peyret	-10.3467
▁peyvatvatekan	-10.3467
▁sancinosto	-10.3467
▁taopalasyan	-10.3467
▁vonitan	-10.3467
▁vottow	-10.3467
佳	-10.3467
到哪裡去了	-10.3467
去台灣	-10.3467
叫什麼名字	-10.3467
塞	-10.3467
疊	-10.3467
盡	-10.3467
beywan	-10.3467
somaway	-10.3467
u	-10.3467
▁parparngen	-10.3467
▁zawang	-10.3467
▁那些孩子喜歡	-10.3467
藤	-10.3467
龜	-10.3467
健	-10.3467
喉	-10.3467
旱	-10.3467
瞧不起	-10.3467
瞭解	-10.3467
踢	-10.3467
典	-10.3467
凡	-10.3467
按	-10.3467
詞	-10.3467
染	-10.3467
gilo	-10.3467
makateh	-10.3467
肩	-10.3467
pitotoaw	-10.3467
我明天要去	-10.3467
▁alinged	-10.3467
犯	-10.3467
稻	-10.3467
障	-10.3467
▁nimamong	-10.3467
披	-10.3467
靈魂	-10.3467
zaig	-10.3467
護士	-10.3467
課本	-10.3467
的行為	-10.3467
teywara	-10.3467
陽光	-10.3468
▁Omis	-10.3468
初	-10.3468
覆蓋	-10.3468
病毒	-10.3468
▁jyaken	-10.3468
▁malma	-10.3468
山蘇	-10.3468
探望	-10.3468
▁pangavavawan	-10.3468
▁他是老師	-10.3468
鐵棒	-10.3468
▁啊喲	-10.3468
互相	-10.3468
洗澡	-10.3468
▁adowa	-10.3468
▁ingingn	-10.3468
禮帽	-10.3468
▁pinapo	-10.3468
▁Taitong	-10.3468
▁ononed	-10.3468
尋找	-10.3468
建材	-10.3468
▁由於	-10.3468
幾點鐘	-10.3468
尾巴	-10.3468
▁Matopos	-10.3468
舉行招飛魚祭	-10.3468
▁papoen	-10.3468
產婦	-10.3469
▁sipisa	-10.3469
受傷	-10.3469
安全	-10.3469
大家一起	-10.3469
▁ganam	-10.3469
另外	-10.3469
照片	-10.3469
▁Masarey	-10.3469
vivias	-10.3469
▁這是第	-10.3469
並且	-10.3469
曾經	-10.3469
mararow	-10.3469
海膽	-10.347
晚餐	-10.347
▁mangarilaw	-10.347
聽不到	-10.347
▁lalitan	-10.347
打獵	-10.3471
六個部落	-10.3471
作物	-10.3471
方向	-10.3472
落成禮	-10.3472
Tanaro	-10.3472
起立	-10.3472
船員	-10.3472
掃把	-10.3473
kapzat	-10.3473
父母親	-10.3473
pivo	-10.3474
森林裡	-10.3474
▁macisidong	-10.3475
大便	-10.3475
生病	-10.3477
禮肉	-10.3477
船隻	-10.3478
kakarang	-10.3478
bobo	-10.3478
果樹	-10.3478
▁manba	-10.3479
▁migonagonay	-10.3479
一件	-10.3479
很矮	-10.3479
木頭	-10.3479
洞裡	-10.3479
隨著	-10.3481
才能	-10.3481
出門	-10.3481
對方	-10.3482
▁parengen	-10.3482
你們的豬	-10.3482
▁mipazos	-10.3483
▁meywalam	-10.3486
▁mapait	-10.3486
macipalit	-10.3487
▁kalologod	-10.3487
魚槍	-10.3487
▁minenenet	-10.3487
malektek	-10.3488
拿出來	-10.3489
▁makateneng	-10.3489
panpan	-10.3489
oned	-10.3491
長老	-10.3491
▁movo	-10.3491
心想	-10.3492
sadang	-10.3492
一代	-10.3492
對於	-10.3493
面對	-10.3493
來我們家	-10.3494
帶回家	-10.3496
▁macitarek	-10.3498
分開	-10.3498
時常	-10.35
▁他看見	-10.3501
我們的祖先	-10.3503
▁ikasnek	-10.3503
▁mibezbez	-10.3504
三天	-10.3505
teymarahet	-10.3506
ngalam	-10.3507
他的錢	-10.3509
▁panirisiringen	-10.3514
▁我買了	-10.3515
▁wo	-10.3515
車子	-10.3516
▁你幹嘛	-10.3516
朋友們	-10.3521
▁apnezak	-10.3522
keytan	-10.3527
loas	-10.3527
bedbedan	-10.3528
kalima	-10.353
只會	-10.3531
說話	-10.3534
rey	-10.3538
vahey	-10.3542
來家裡	-10.3544
長大了	-10.355
▁我喜歡	-10.3551
很難	-10.3557
斷了	-10.3564
從哪裡來	-10.3565
▁simakoyab	-10.357
一支	-10.3578
是原住民	-10.3579
水芋田	-10.3581
因為他們	-10.3583
▁apeleh	-10.3584
很長	-10.3585
跟我們	-10.3592
走過	-10.3593
▁inanao	-10.3595
▁ipama	-10.3597
醒來	-10.3602
▁你明天	-10.3603
piavehan	-10.361
你的手	-10.361
你們有	-10.3616
謝謝你	-10.3626
▁kavo	-10.3627
的手	-10.3629
▁soba	-10.363
▁pais	-10.3631
▁我們把	-10.3636
挖掉	-10.3637
▁paney	-10.3638
小小的	-10.3641
破了	-10.3644
去上學	-10.3648
家庭	-10.365
他是我的	-10.3654
▁jiabo	-10.3655
pisan	-10.3656
▁wanjin	-10.3657
gaw	-10.3662
教我	-10.3679
ngapa	-10.3689
▁toong	-10.3704
manci	-10.3717
▁mangayo	-10.372
sira	-10.3732
lalam	-10.3741
ic	-10.3743
pisirisiring	-10.375
每天都	-10.3751
▁dadan	-10.3753
ngang	-10.3763
的習俗	-10.3784
er	-10.3796
mimina	-10.3809
不到	-10.3828
▁makowya	-10.3833
▁Mi	-10.3895
azab	-10.3899
美麗的	-10.3919
lalak	-10.3942
的儀式	-10.396
makongo	-10.3973
▁kabo	-10.3985
boang	-10.399
asanib	-10.4013
留在	-10.4017
co	-10.4031
zasa	-10.4061
lapo	-10.4082
poas	-10.4083
的信	-10.4101
nas	-10.4103
書本	-10.4116
▁mansidong	-10.412
angay	-10.412
▁為什麼你	-10.4138
ononong	-10.414
不同的	-10.418
偷吃	-10.4187
它們	-10.4201
祖先	-10.4248
兩個人	-10.4268
cil	-10.4268
manakem	-10.4269
apan	-10.4273
▁nip	-10.4306
有許多	-10.431
很髒	-10.4312
imamayo	-10.4317
zod	-10.432
kadey	-10.4356
▁makava	-10.44
mata	-10.4406
rowan	-10.4409
的語言	-10.4414
後面	-10.4425
的角	-10.4434
syo	-10.4445
的門	-10.4454
待在	-10.4463
ahad	-10.4478
rong	-10.4484
ema	-10.4501
long	-10.451
cisirisiring	-10.4517
agag	-10.4525
抽	-10.4544
▁當時我	-10.4563
▁nipangay	-10.4569
那隻	-10.4591
忘記	-10.4606
為什麼不	-10.4654
bek	-10.4676
連續	-10.4679
情形	-10.471
sapa	-10.4724
oyat	-10.4732
pakavos	-10.4747
nged	-10.4781
吃地瓜	-10.4787
akzan	-10.4818
▁matoa	-10.4841
pitapi	-10.4847
用手	-10.4854
是我們的	-10.486
kaci	-10.4879
沒有看到	-10.4898
▁你什麼時候	-10.49
你們家	-10.4904
gamo	-10.492
揹籃	-10.4922
K	-10.4926
oso	-10.4931
小島	-10.4935
芋田的	-10.4938
撞	-10.495
soro	-10.4966
河邊	-10.4972
每一	-10.4973
non	-10.4991
▁pacinana	-10.4996
tekete	-10.4998
vahe	-10.5
計算	-10.5015
超	-10.5016
開水	-10.5026
在台灣	-10.5035
mapey	-10.5039
今	-10.5055
巨	-10.5055
藥	-10.5055
孫	-10.5055
ekez	-10.5056
需	-10.5056
矮	-10.5056
看電視	-10.5056
萬	-10.5058
平原	-10.5058
甜	-10.5059
聞	-10.5059
的親戚	-10.506
打電話	-10.5061
▁pivazain	-10.5063
ivanoa	-10.5063
放棄	-10.5064
Mazngang	-10.5064
紅頭部落	-10.5065
T	-10.5065
kavang	-10.5065
padket	-10.5065
瘡	-10.5066
骨	-10.5066
配	-10.5066
要去哪	-10.5066
父	-10.5066
官	-10.5067
邀	-10.5067
製	-10.5067
故	-10.5068
旁	-10.5068
舉	-10.5068
師	-10.5068
捕撈	-10.5068
環	-10.5068
豐	-10.5068
鐘	-10.5068
調	-10.5068
▁vava	-10.5068
捆	-10.5068
Yancomin	-10.5068
特	-10.5069
非	-10.5069
注	-10.5069
靈	-10.5069
附	-10.5069
替	-10.5069
仍	-10.5069
ovil	-10.5069
響	-10.5069
歉	-10.5069
哥	-10.5069
簍	-10.5069
限	-10.5069
軍	-10.5069
堅	-10.5069
確	-10.5069
雨傘	-10.5069
持	-10.5069
叢	-10.5069
芋頭糕	-10.507
頸	-10.507
丈夫	-10.507
童	-10.507
飾	-10.507
象	-10.507
遊	-10.507
沙	-10.507
勞	-10.507
恐	-10.507
維	-10.507
列	-10.507
晨	-10.507
狀	-10.507
鎖	-10.507
拜	-10.507
滅	-10.507
繞	-10.507
翅	-10.507
忌	-10.507
~	-10.507
充	-10.507
固	-10.507
鹽	-10.507
paciamizing	-10.507
優	-10.507
痕	-10.507
蠟	-10.507
L	-10.507
▁voyaw	-10.507
擱	-10.507
Ikavatoan	-10.507
Jipeygangen	-10.507
abneken	-10.507
balangbang	-10.507
enpocay	-10.507
evek	-10.507
ipeyvatvatek	-10.507
masbang	-10.507
mavezed	-10.507
meyyawawat	-10.507
nginangina	-10.507
ngodngod	-10.507
ovid	-10.507
pansahadan	-10.507
pisinsinmo	-10.507
tagzezeng	-10.507
talamozong	-10.507
tobwo	-10.507
vahangso	-10.507
zavat	-10.507
zavozavoz	-10.507
zigton	-10.507
▁Savatan	-10.507
▁Yeso	-10.507
▁kakyab	-10.507
▁kalavayo	-10.507
▁kangkang	-10.507
▁kapalangayan	-10.507
▁kinsivo	-10.507
▁loiloit	-10.507
▁maneysavat	-10.507
▁mavaeng	-10.507
▁mazaponay	-10.507
▁meyciamadadayan	-10.507
▁mibebnen	-10.507
▁nimakava	-10.507
▁nimavang	-10.507
▁vagato	-10.507
▁voley	-10.507
▁votdak	-10.507
▁zampo	-10.507
▁我媽媽在	-10.507
乳	-10.507
仇	-10.507
供	-10.507
嚐	-10.507
恩	-10.507
扛	-10.507
澆	-10.507
獨角仙	-10.507
的顏色	-10.507
考	-10.507
舔	-10.507
議	-10.507
豆	-10.507
賞	-10.507
Kaswal	-10.507
zadaw	-10.507
▁manakep	-10.507
▁tomawag	-10.507
寄	-10.507
移	-10.507
這件衣服	-10.507
那些孩子在玩耍	-10.507
omlida	-10.507
palanginan	-10.507
▁mikonjing	-10.507
▁昨天我	-10.507
印	-10.507
墊	-10.507
戳	-10.507
概	-10.507
竹竿	-10.507
豐富	-10.507
野銀村	-10.507
陪	-10.507
陰	-10.507
飼養	-10.507
Jiteywan	-10.507
mazwey	-10.507
▁sazaban	-10.507
哄	-10.507
太陽出來了	-10.507
撒	-10.507
炭	-10.507
術	-10.507
▁mownged	-10.507
世世代代	-10.507
句	-10.507
用左手	-10.507
pirayon	-10.507
▁makaniow	-10.507
▁tawagan	-10.507
似	-10.507
外地人	-10.507
部落灘頭	-10.507
tangtang	-10.507
▁manongit	-10.507
必須	-10.507
急	-10.507
置	-10.507
選擇	-10.507
鄰居	-10.507
鉛筆	-10.507
抵達	-10.507
kazazakad	-10.507
meykali	-10.507
矮黑人	-10.507
太長了	-10.507
▁siciakoa	-10.507
▁syasing	-10.507
tekteb	-10.507
▁mililiman	-10.507
▁panarangen	-10.507
▁tamonong	-10.507
我只是在	-10.507
欺負	-10.507
nengdeng	-10.507
▁malahet	-10.507
▁momodan	-10.507
mioyaoya	-10.507
▁anyoy	-10.507
▁waranay	-10.507
▁lacyo	-10.507
在水裡	-10.507
pingaranen	-10.507
pinpin	-10.507
▁kapanci	-10.507
招喚	-10.507
palipalit	-10.507
增加	-10.507
▁toyotoyon	-10.507
攜帶	-10.507
確實	-10.507
迎接	-10.507
papispis	-10.507
意義	-10.507
各項	-10.507
麻線	-10.507
的褲子	-10.507
種植	-10.5071
困難	-10.5071
開墾	-10.5071
▁tovil	-10.5071
農作物	-10.5071
可惜	-10.5071
▁koyta	-10.5071
石牆	-10.5071
seyked	-10.5071
▁anioy	-10.5071
寶貝	-10.5071
帶著雨傘	-10.5071
跑步	-10.5071
你是不是	-10.5071
編織	-10.5071
▁icialaw	-10.5071
風吹	-10.5071
aryag	-10.5071
▁mirayon	-10.5071
雜草	-10.5071
表達	-10.5071
▁cinatazak	-10.5071
停止	-10.5072
nanpang	-10.5072
同情	-10.5072
第一次	-10.5072
教導	-10.5072
祭品	-10.5072
如此	-10.5072
ipakarang	-10.5072
首先	-10.5072
▁padponen	-10.5072
▁pasagiten	-10.5072
管理	-10.5072
靠近	-10.5072
▁mibozo	-10.5072
nahet	-10.5072
非常高興	-10.5072
喪家	-10.5073
找不到	-10.5073
為何	-10.5073
不然你會	-10.5073
隔天	-10.5073
▁odong	-10.5073
玩具	-10.5073
▁Jiraraley	-10.5073
miyonong	-10.5074
骨頭	-10.5074
各國	-10.5074
ngotas	-10.5074
回應	-10.5074
免得	-10.5074
▁niangayan	-10.5074
▁naknakmen	-10.5074
平常	-10.5074
口感	-10.5074
▁mapivazay	-10.5074
頭目	-10.5075
▁manginana	-10.5075
很會捕魚	-10.5075
偷東西	-10.5075
mowamowa	-10.5075
餵豬	-10.5075
▁padketen	-10.5075
很難過	-10.5076
pseng	-10.5076
▁lida	-10.5076
田螺	-10.5077
palalayo	-10.5077
能力	-10.5078
▁mangpeh	-10.5078
王子	-10.5078
太太	-10.5079
最重要的	-10.5079
▁apoaw	-10.5079
看不到	-10.5079
ozib	-10.5079
的父母	-10.508
重新	-10.508
▁teygami	-10.508
樹木	-10.5081
再見	-10.5081
上山工作	-10.5084
可以用來	-10.5084
小兒子	-10.5084
哪一	-10.5085
快一點	-10.5085
每年	-10.5086
要好好	-10.5086
過夜	-10.5086
想起	-10.5087
到海邊	-10.5087
喜歡畫圖	-10.5088
▁rakepen	-10.5088
▁你要不要	-10.5088
▁obowbotan	-10.5088
之處	-10.5089
一半	-10.5089
很可憐	-10.509
▁mawaz	-10.509
saoli	-10.509
丟掉	-10.5091
teyray	-10.5091
家園	-10.5091
kanig	-10.5093
戴著	-10.5094
gcin	-10.5094
之前	-10.5095
很深	-10.5095
這本書	-10.5095
的人口	-10.5096
從事	-10.5097
你的頭髮	-10.51
回頭	-10.5104
台灣的	-10.5105
▁ingaran	-10.5105
mangmay	-10.5107
▁maoyat	-10.5107
▁ioli	-10.5107
一把	-10.5107
pinanan	-10.5107
帶傘	-10.5109
▁isaray	-10.5111
ped	-10.5112
位子	-10.5115
▁sicyako	-10.5115
生長	-10.5116
▁kadowa	-10.5116
以為	-10.5119
成熟了	-10.5121
nganay	-10.5126
心裡	-10.5126
能夠	-10.5127
全都	-10.5128
比較好	-10.5129
吃東西	-10.513
想睡覺	-10.5131
▁ziwang	-10.5132
bedbeden	-10.5132
不能吃	-10.5133
學會	-10.5144
▁mivaci	-10.5145
就算	-10.5147
在晚上	-10.5152
sorod	-10.5153
所以我不	-10.5153
播種	-10.516
mipapia	-10.5163
到河邊	-10.5168
▁misinmo	-10.5168
▁omlivon	-10.5169
▁這時	-10.5171
所以就	-10.5176
拔掉	-10.5176
那是我的	-10.518
撞到	-10.5192
▁ayoi	-10.5197
▁你在那裡	-10.52
▁macika	-10.5201
為什麼要	-10.5201
pakdeng	-10.5202
的學生	-10.5209
對著	-10.521
我的頭	-10.5221
▁nidengdeng	-10.5224
我的眼睛	-10.5224
幾個月	-10.5232
出去了	-10.5237
哭了	-10.5242
▁mitarek	-10.5243
▁nimakas	-10.5267
最好的	-10.5268
一根	-10.5272
▁anmo	-10.5294
▁kakza	-10.5294
不斷	-10.5311
一起吃飯	-10.5311
跑了	-10.5312
sirisiring	-10.5314
low	-10.5316
要不要	-10.5324
我們家的	-10.5342
就一直	-10.535
▁ikabo	-10.535
吃飯了	-10.5354
izeziak	-10.5355
poo	-10.5355
在海邊	-10.5365
otod	-10.5401
mapakavos	-10.5403
的歌	-10.5404
我們島上	-10.5426
▁nimimin	-10.5441
手指	-10.5459
你的孩子	-10.5465
▁pikal	-10.5474
ngali	-10.5483
我再	-10.5487
在路上	-10.5487
ipanci	-10.551
mot	-10.5527
你們要	-10.5527
10	-10.5558
dadayan	-10.5611
kainom	-10.5624
傷心	-10.5666
借你	-10.5685
▁makar	-10.5788
的大船	-10.5794
ranom	-10.5828
▁spa	-10.584
▁ipaci	-10.5842
▁ipiyak	-10.5862
vazi	-10.5874
不熱	-10.5876
來的時候	-10.5933
逃	-10.5946
nib	-10.5952
tok	-10.5971
30	-10.5978
▁又有	-10.5985
在海上	-10.601
放假	-10.604
tarem	-10.6045
出現了	-10.6047
很冷	-10.6079
masazi	-10.6091
▁我要吃	-10.6141
▁如果有	-10.6146
avavang	-10.6161
▁他們都	-10.6166
ozai	-10.6198
angana	-10.6235
來看看	-10.6239
aban	-10.6256
ngam	-10.6276
▁tonga	-10.6318
▁我們家	-10.6334
在哭	-10.6336
美麗	-10.636
soo	-10.6361
每個	-10.6383
kakcin	-10.6431
malam	-10.645
tenngan	-10.6458
snesnek	-10.6476
各式各樣	-10.6482
izo	-10.6483
kdeng	-10.6509
米飯	-10.6527
幾年	-10.6529
來這裡	-10.6544
她是我的	-10.656
tolang	-10.6578
才不會	-10.658
再來	-10.6589
大海	-10.6597
的過程	-10.6597
有幾個人	-10.66
keyli	-10.6625
鬼頭刀魚	-10.6647
叫做	-10.6672
arilaw	-10.6673
sagit	-10.668
50	-10.6684
alitan	-10.6729
下去了	-10.6753
palit	-10.6775
▁pip	-10.678
kpeh	-10.6783
捲	-10.6803
源	-10.6814
▁nimano	-10.6817
▁你的衣服很	-10.6818
▁valia	-10.6822
pid	-10.6835
胖了	-10.6842
▁manara	-10.6847
濕了	-10.685
歲了	-10.6861
他們的豬	-10.6889
我們祖先	-10.6893
種小米	-10.6895
傳統習俗	-10.6902
iwangen	-10.6905
vatvatkan	-10.691
高興	-10.6911
我們達悟族	-10.6914
我剛才	-10.6915
也不會	-10.6922
解	-10.6923
慢	-10.693
▁kazo	-10.6934
dagdag	-10.6945
kaveyvow	-10.6945
patoyon	-10.6946
nenenet	-10.6951
我們今天要去	-10.6954
▁vao	-10.6955
領袖	-10.6958
zag	-10.696
停在	-10.6963
掃	-10.6963
漢	-10.6963
▁vono	-10.6969
第二	-10.6969
zom	-10.6973
林	-10.6973
aton	-10.6973
標	-10.6973
免	-10.6974
串	-10.6974
喪	-10.6975
botbot	-10.6975
吹	-10.6975
膽	-10.6976
▁Tay	-10.6976
蓋房子	-10.6976
烤	-10.6976
爭	-10.6976
呼	-10.6977
右	-10.6977
鼠	-10.6977
龍	-10.6977
雜	-10.6977
憐	-10.6977
長條肥肉片	-10.6978
潮	-10.6978
忘	-10.6978
綠	-10.6978
壯	-10.6978
逢	-10.6978
弟	-10.6978
困	-10.6978
圖	-10.6978
承	-10.6978
褲	-10.6978
袋	-10.6978
陶	-10.6978
顧	-10.6978
加密貨幣	-10.6978
喜	-10.6978
香	-10.6978
祈	-10.6978
isinaoli	-10.6978
增	-10.6978
思	-10.6978
味	-10.6978
溫	-10.6978
化	-10.6978
搬	-10.6978
getget	-10.6979
資	-10.6979
貴	-10.6979
季節	-10.6979
喊	-10.6979
蝦	-10.6979
複	-10.6979
嚴	-10.6979
封	-10.6979
戶	-10.6979
稀	-10.6979
莎	-10.6979
荒	-10.6979
Kasomran	-10.6979
takzes	-10.6979
又大又	-10.6979
救	-10.6979
牲	-10.6979
升	-10.6979
肯	-10.6979
蒸	-10.6979
襲	-10.6979
握	-10.6979
異	-10.6979
胡	-10.6979
套	-10.6979
azestes	-10.6979
ivava	-10.6979
北	-10.6979
噢	-10.6979
女方家	-10.6979
密	-10.6979
弱	-10.6979
揮	-10.6979
東清部落	-10.6979
沖	-10.6979
層	-10.6979
鋪	-10.6979
額	-10.6979
Sbalay	-10.6979
pitanatana	-10.6979
▁Samoz	-10.6979
天天看電視	-10.6979
尿	-10.6979
朗島部落	-10.6979
衛	-10.6979
誠	-10.6979
飲食	-10.6979
aglaglaw	-10.6979
kemkem	-10.6979
pintek	-10.6979
somlet	-10.6979
tetehnan	-10.6979
tolatolang	-10.6979
valiked	-10.6979
vezay	-10.6979
zozogoan	-10.6979
▁Ivatan	-10.6979
▁Lote	-10.6979
▁aksemen	-10.6979
▁cingdasan	-10.6979
▁katatapilan	-10.6979
▁kazikna	-10.6979
▁kikay	-10.6979
▁komavos	-10.6979
▁macizanod	-10.6979
▁makaikailian	-10.6979
▁maseyrem	-10.6979
▁mawakwak	-10.6979
▁mehakey	-10.6979
▁meyvatvatek	-10.6979
▁miaven	-10.6979
▁pangangavangan	-10.6979
▁panonotongan	-10.6979
▁pivahayan	-10.6979
▁tiennaw	-10.6979
▁viniey	-10.6979
▁zateb	-10.6979
下午要	-10.6979
亂七八糟	-10.6979
伯	-10.6979
冰	-10.6979
剩餘的	-10.6979
勝	-10.6979
勾	-10.6979
四面環海	-10.6979
怒	-10.6979
拔茅草	-10.6979
朝	-10.6979
滑	-10.6979
父子三人	-10.6979
省	-10.6979
老闆說	-10.6979
英	-10.6979
蜂	-10.6979
訂	-10.6979
醉	-10.6979
馬鞍藤	-10.6979
E	-10.6979
azetazestes	-10.6979
mahamaha	-10.6979
mazonos	-10.6979
vavagot	-10.6979
▁Maoyong	-10.6979
▁kisat	-10.6979
▁laksa	-10.6979
▁makaniaw	-10.6979
▁makeykeylian	-10.6979
▁paneneb	-10.6979
個小孩有幾	-10.6979
宿	-10.6979
智慧	-10.6979
百合花	-10.6979
磨	-10.6979
茂	-10.6979
gskes	-10.6979
matdong	-10.6979
sawalan	-10.6979
▁pikatang	-10.6979
▁seysio	-10.6979
倆	-10.6979
榮	-10.6979
淋	-10.6979
燃	-10.6979
疑	-10.6979
軟	-10.6979
kowran	-10.6979
pisakop	-10.6979
冒	-10.6979
商店	-10.6979
混	-10.6979
裝滿了	-10.6979
跨	-10.6979
這塊土地	-10.6979
4	-10.6979
agnat	-10.6979
atngeh	-10.6979
isaboay	-10.6979
▁lipao	-10.6979
下課了	-10.6979
兄弟姐妹	-10.6979
孔	-10.6979
尖	-10.6979
擔任	-10.6979
武	-10.6979
用右手	-10.6979
矛	-10.6979
秋	-10.6979
dokdok	-10.6979
屋簷下	-10.6979
灶	-10.6979
matamek	-10.6979
▁nokamnasa	-10.6979
▁pepnezak	-10.6979
脫	-10.6979
莖	-10.6979
apipia	-10.6979
▁maoran	-10.6979
▁teyrain	-10.6979
釣竿	-10.6979
▁cilad	-10.6979
▁誰叫你	-10.6979
牧	-10.6979
gsaz	-10.6979
tazangpos	-10.6979
吁	-10.6979
太熱了	-10.6979
技術	-10.6979
▁manmanma	-10.6979
捨不得	-10.6979
治	-10.6979
摩	-10.6979
爛	-10.6979
補	-10.6979
▁papaid	-10.6979
8	-10.6979
勇敢	-10.6979
型	-10.6979
syasey	-10.6979
▁igang	-10.6979
simsim	-10.6979
▁piilian	-10.6979
▁你有幾隻	-10.6979
▁zangkap	-10.6979
偏	-10.6979
宣	-10.6979
幸	-10.6979
▁nimicia	-10.6979
的時期	-10.6979
▁magid	-10.6979
今天的天氣	-10.6979
分贈禮肉	-10.6979
nangdang	-10.6979
▁pangahahapan	-10.6979
▁kanitoan	-10.6979
今年幾歲	-10.6979
不聽話	-10.6979
域	-10.6979
搗小米	-10.6979
搬運	-10.6979
▁paloy	-10.6979
外婆	-10.6979
ranow	-10.6979
▁ngilin	-10.6979
發抖	-10.6979
討論	-10.6979
聖經	-10.6979
掀開	-10.698
頭蝨	-10.698
▁miyangay	-10.698
sinkad	-10.698
漁夫	-10.698
點鐘	-10.698
快樂王子	-10.698
眼鏡	-10.698
豐收	-10.698
▁vazit	-10.698
▁Manidong	-10.698
▁kapisinaoli	-10.698
改善	-10.698
聚集	-10.698
除喪	-10.698
yoyaw	-10.698
綠色	-10.698
擴大	-10.698
matoro	-10.698
隨便	-10.698
方便	-10.698
正式	-10.698
去找你	-10.698
▁masari	-10.698
▁nivatekan	-10.698
輕鬆	-10.698
linasan	-10.698
▁ikasanib	-10.698
戴著帽子	-10.698
▁tazogaw	-10.698
護	-10.6981
觀光	-10.6981
上班	-10.6981
地震	-10.6981
▁apzeng	-10.6981
整經	-10.6981
木耳	-10.6981
交換	-10.6981
▁kaozi	-10.6981
不見了	-10.6981
▁啊唷	-10.6981
右邊	-10.6981
▁misisi	-10.6981
我知道了	-10.6981
寫字	-10.6981
這些都是	-10.6981
扇子	-10.6981
adkan	-10.6981
▁kangangey	-10.6981
船板	-10.6981
▁taim	-10.6982
摸摸	-10.6982
串成	-10.6982
posing	-10.6982
漁場	-10.6982
▁kavosan	-10.6982
力量	-10.6982
捕撈飛魚	-10.6982
花紋	-10.6982
運動	-10.6982
pipipis	-10.6983
▁Taywan	-10.6983
收割	-10.6983
lololos	-10.6983
piamong	-10.6983
接受	-10.6983
織線	-10.6983
minmo	-10.6983
羊群	-10.6983
掃地	-10.6983
害者	-10.6984
▁rakrak	-10.6984
▁mamangan	-10.6984
▁ngahay	-10.6984
數量	-10.6984
跟你借	-10.6984
▁apik	-10.6984
▁nimiavas	-10.6984
ineynara	-10.6984
上山去了	-10.6984
曬太陽	-10.6984
不斷地	-10.6984
清理	-10.6984
azogaw	-10.6984
信任	-10.6984
牠們	-10.6985
miroa	-10.6985
便當	-10.6985
或者	-10.6985
saoden	-10.6985
他正在	-10.6986
第二天	-10.6986
▁ikaglaw	-10.6986
那隻狗	-10.6986
▁naned	-10.6986
各自	-10.6986
五個	-10.6986
▁nimapanpan	-10.6987
kosiko	-10.6987
雞肉	-10.6987
做芋糕給	-10.6987
▁makoat	-10.6987
多久	-10.6987
▁kakali	-10.6988
痛死了	-10.6988
相關	-10.6988
比較快	-10.6989
▁jimaka	-10.6989
▁gom	-10.6989
▁micicinda	-10.699
▁mitaretarek	-10.699
nisibo	-10.699
▁lila	-10.699
和解	-10.699
▁malavo	-10.6991
砍草	-10.6991
認得	-10.6991
很甜	-10.6992
動作	-10.6992
天亮	-10.6992
▁palitan	-10.6992
kaitkeh	-10.6992
立起來	-10.6993
你們的老師	-10.6994
ahahapan	-10.6994
▁kamoamoon	-10.6994
爬上	-10.6995
大巨人	-10.6995
小米田	-10.6996
殺魚	-10.6996
再次	-10.6996
後代	-10.6997
溪水	-10.6997
galagal	-10.6998
就能	-10.6998
那樣	-10.6998
前往	-10.6999
▁mataripis	-10.6999
▁tokzosan	-10.7
快跑	-10.7001
出發	-10.7001
很害怕	-10.7001
天神	-10.7003
dem	-10.7003
五個人	-10.7003
葉子	-10.7003
令人	-10.7003
放這裡	-10.7003
生日	-10.7003
ikawao	-10.7005
一定會	-10.7005
我們的老師	-10.7006
路得	-10.7006
▁malotoy	-10.7007
▁ikapat	-10.7007
濕的	-10.7008
▁makarala	-10.7008
笑著	-10.7009
zakzaka	-10.7009
一起唱歌	-10.7009
回到了	-10.701
回到家	-10.701
種樹	-10.701
你要不要吃	-10.701
逃跑	-10.7011
singat	-10.7011
▁pasalan	-10.7012
▁simanngo	-10.7012
hakakaw	-10.7013
▁pakaro	-10.7014
完成了	-10.7014
跌倒了	-10.7014
▁那裡有	-10.7014
我的頭髮	-10.7014
macivahey	-10.7015
▁mikasa	-10.7016
▁asin	-10.7016
跑得	-10.7016
pakaranes	-10.7017
▁piney	-10.7018
雨水	-10.7018
otwan	-10.702
會送	-10.7022
同時	-10.7023
了解	-10.7023
▁mikeyk	-10.7026
▁cinai	-10.7027
▁karey	-10.7027
▁ipangna	-10.7028
mangoma	-10.7029
▁我們明天	-10.703
再將	-10.703
種地瓜	-10.7033
小朋友	-10.7034
手機	-10.7035
lapi	-10.7036
▁panma	-10.7036
▁nivatvatkan	-10.704
▁kareyan	-10.704
▁他看見了	-10.7042
▁anit	-10.7048
▁他們開始	-10.7048
imasaodan	-10.7048
▁malayo	-10.7049
是什麼東西	-10.7052
▁沒有人	-10.7056
ananaro	-10.7057
angazan	-10.7058
▁我祖母	-10.706
吃草	-10.7062
認真	-10.7063
男子	-10.7065
▁mararaten	-10.7066
▁tomaci	-10.7066
▁mangci	-10.7076
▁simakoa	-10.7078
▁manoo	-10.7079
okot	-10.7081
這些人	-10.7082
親人	-10.7084
相信他	-10.7088
已經沒有	-10.709
來自	-10.709
刀子	-10.709
快要	-10.7091
neban	-10.7095
掉到	-10.7101
魚網	-10.7101
cyo	-10.7102
▁他們已經	-10.7112
放到	-10.7117
ksez	-10.7118
將來	-10.7122
▁nilap	-10.7123
很瘦	-10.7123
▁katene	-10.7125
▁tanek	-10.7127
種子	-10.7128
的工作是	-10.713
吃的魚類	-10.7137
▁mipai	-10.714
▁sey	-10.7142
水源	-10.7146
▁你若	-10.7148
▁kowar	-10.715
▁macig	-10.715
我的腳	-10.7156
sdepan	-10.7156
嫁給	-10.7166
只是	-10.7172
angoan	-10.7189
wakay	-10.719
頭會	-10.7195
織好	-10.7202
魚群	-10.7208
太胖	-10.7212
第	-10.722
等你	-10.7224
不太	-10.7225
▁我吃了	-10.7233
▁請坐	-10.7235
去游泳	-10.7236
akpeh	-10.7244
有賣	-10.7246
zow	-10.7262
▁Name	-10.7272
kapow	-10.7272
家鄉的	-10.7277
我的話	-10.7278
在意	-10.7282
etek	-10.7284
atoatonton	-10.7294
收起來	-10.7298
我姊姊	-10.7339
同意	-10.7346
釣鬼頭刀	-10.7362
inaaapan	-10.7368
▁你們家有幾	-10.7374
謠	-10.7379
macita	-10.7395
船內	-10.7407
會說族語	-10.7412
Longi	-10.7412
pamaring	-10.7417
採收	-10.7422
▁那個女	-10.7423
makeykai	-10.7423
ngernan	-10.7425
nizpi	-10.743
Keysodan	-10.7431
贈送	-10.7436
Masaray	-10.7445
pangaaap	-10.7447
magaga	-10.7457
manoyong	-10.7465
▁makatenng	-10.7468
M	-10.7468
Osi	-10.7474
oyod	-10.7486
kois	-10.7486
noon	-10.7496
eten	-10.7502
存放	-10.7513
教你	-10.7535
另	-10.7551
要走了	-10.7554
撿到	-10.7557
做完	-10.7562
快來	-10.7602
kozay	-10.7604
最好	-10.7627
ataw	-10.765
cicici	-10.7692
祭祖	-10.7702
pateyka	-10.7743
had	-10.7744
所以他	-10.7746
▁你有沒有	-10.7782
但是他	-10.7821
會下雨	-10.7878
嚇到	-10.7883
ngangan	-10.7895
你是誰	-10.7903
一起住	-10.792
回家去	-10.7926
▁浪很	-10.8021
一隻狗	-10.8069
顆	-10.8071
pangali	-10.8073
3	-10.8091
▁teymanga	-10.8108
▁ipakatene	-10.8118
moli	-10.8122
livon	-10.8124
▁miparo	-10.8156
▁小山豬的	-10.8206
mavaci	-10.8248
patoro	-10.826
pangsad	-10.8301
alalam	-10.8349
兩隻	-10.8424
十位	-10.8491
▁apz	-10.8499
ngon	-10.8514
去採	-10.8541
voos	-10.8557
掃乾淨	-10.8577
pawan	-10.8623
aznga	-10.8659
kal	-10.8681
karoa	-10.8714
個洞	-10.8723
navazay	-10.8729
伸	-10.8767
aliw	-10.8777
收成	-10.8832
20	-10.884
topos	-10.8857
說族語	-10.886
lok	-10.8861
piyowyaw	-10.8869
anavak	-10.8877
lal	-10.8884
▁rakepa	-10.8904
patok	-10.8978
rakeh	-10.9031
N	-10.904
雨下	-10.9046
etket	-10.9048
▁zakata	-10.9062
▁zazacit	-10.907
一份	-10.9076
▁pazomtad	-10.9103
pay	-10.9117
▁rarah	-10.9122
peleh	-10.9135
moamoa	-10.9192
我忘了帶	-10.9211
故事	-10.922
kariag	-10.9221
ngyen	-10.924
擔	-10.9244
們的家	-10.9247
腫	-10.9249
▁akcin	-10.9257
masaod	-10.9259
跌倒	-10.9263
社	-10.9281
備	-10.9291
蘭嶼島	-10.9294
鬧	-10.9298
sasnad	-10.9302
alektek	-10.9303
veveh	-10.9306
tangara	-10.9307
完成	-10.9308
karala	-10.9314
船釣	-10.9315
pazos	-10.9317
騙人	-10.9318
lotoy	-10.9318
ongyod	-10.932
▁sitai	-10.9322
雙	-10.9324
隻雞	-10.9325
edbed	-10.9325
王	-10.9325
肚	-10.9326
段	-10.9328
totow	-10.9328
▁cicil	-10.9329
首	-10.9332
簡單的	-10.9332
▁koysan	-10.9333
紀	-10.9335
鄉	-10.9335
▁kamama	-10.9336
參	-10.9336
▁Tai	-10.9336
組	-10.9336
輩	-10.9336
導	-10.9336
興	-10.9336
▁Jiraral	-10.9337
眾	-10.9337
分贈	-10.9337
隔壁	-10.9337
式	-10.9337
paziman	-10.9337
azimanen	-10.9338
valino	-10.9338
穗	-10.9338
屬	-10.9338
端	-10.9338
渴	-10.9338
步	-10.9338
katkat	-10.9338
續	-10.9338
▁miray	-10.9338
言	-10.9339
怪	-10.9339
探	-10.9339
oyotoyon	-10.9339
小女孩	-10.9339
統	-10.9339
獻	-10.9339
財	-10.9339
妹	-10.9339
歷	-10.9339
篩	-10.9339
聖	-10.9339
談	-10.9339
示	-10.9339
姪	-10.9339
喚	-10.9339
容	-10.9339
姊	-10.9339
越來越	-10.9339
拼	-10.934
早期的	-10.934
腦	-10.934
徵	-10.934
漂	-10.934
展	-10.934
鬥	-10.934
辦	-10.934
2023	-10.934
士	-10.934
速	-10.934
奪	-10.934
忍	-10.934
悅	-10.934
保障	-10.934
媒	-10.934
慰	-10.934
擾	-10.934
極	-10.934
藉	-10.934
恆	-10.934
yaleleh	-10.934
阿美語	-10.934
顯	-10.934
1984	-10.934
煩	-10.934
Jikavatoan	-10.934
Manlikod	-10.934
付	-10.934
兵	-10.934
吱	-10.934
懸	-10.934
我的蘋果	-10.934
makateyte	-10.934
傳統族服	-10.934
男方母親	-10.934
看清楚	-10.934
▁老鷹去問	-10.934
凌	-10.934
卜	-10.934
棵	-10.934
衝	-10.934
塌	-10.934
太貴了	-10.934
胃	-10.934
NGazamo	-10.934
maneyran	-10.934
valag	-10.934
一群人	-10.934
囉	-10.934
汁	-10.934
blit	-10.934
▁miziziak	-10.934
▁pananarangan	-10.934
▁ragarag	-10.934
▁那個男孩子正在	-10.934
屑	-10.934
烏	-10.934
Jiahaod	-10.934
Maysang	-10.934
Paningen	-10.934
W	-10.934
alimotmot	-10.934
bagbag	-10.934
bonbon	-10.934
cinalolot	-10.934
gonagoney	-10.934
leslet	-10.934
livolivon	-10.934
masagpaw	-10.934
mipoapoag	-10.934
mitatanek	-10.934
nazowsaw	-10.934
ngengyod	-10.934
ngetngeten	-10.934
pavehvehs	-10.934
pikaokaod	-10.934
samsam	-10.934
sasaodan	-10.934
sele	-10.934
tomalilis	-10.934
vahawat	-10.934
varok	-10.934
vazavazey	-10.934
zomakzak	-10.934
▁Iraraley	-10.934
▁Jimagaod	-10.934
▁Meyvilang	-10.934
▁Saysia	-10.934
▁amizika	-10.934
▁apzapzaptan	-10.934
▁atbed	-10.934
▁aviao	-10.934
▁aviasan	-10.934
▁aviik	-10.934
▁gazoak	-10.934
▁ipanlanlag	-10.934
▁ipilimoang	-10.934
▁jiamizing	-10.934
▁jyatenngi	-10.934
▁kaviay	-10.934
▁komikomiring	-10.934
▁macisidosidong	-10.934
▁mahaman	-10.934
▁mameyret	-10.934
▁mapakamotdeh	-10.934
▁mavota	-10.934
▁mawalawalam	-10.934
▁mazaponey	-10.934
▁mikamadadayan	-10.934
▁neykakza	-10.934
▁ngazidan	-10.934
▁nimakowbot	-10.934
▁nisompo	-10.934
▁nitawazan	-10.934
▁nokaminasa	-10.934
▁omavang	-10.934
▁omowmalalam	-10.934
▁omvoyog	-10.934
▁pacinoken	-10.934
▁paciracirayin	-10.934
▁pamizingen	-10.934
▁parioriosan	-10.934
▁rarapoyan	-10.934
▁rayyon	-10.934
▁sazowsaw	-10.934
▁somazap	-10.934
▁takoyab	-10.934
▁tehed	-10.934
▁teymasalit	-10.934
▁townong	-10.934
▁tozantehed	-10.934
▁vaed	-10.934
▁vanselio	-10.934
▁vatavat	-10.934
▁vitoka	-10.934
▁vizaoz	-10.934
▁wakawakay	-10.934
▁zikzikna	-10.934
▁他眼睛	-10.934
▁那些女孩子喜歡	-10.934
不客氣	-10.934
個人來幫忙	-10.934
功	-10.934
勤奮	-10.934
唱拍手歌	-10.934
嚼	-10.934
四門房	-10.934
因為牠在	-10.934
扭	-10.934
據	-10.934
整個部落	-10.934
斤	-10.934
晃	-10.934
暈	-10.934
林投果	-10.934
椰子蟹	-10.934
浸	-10.934
消	-10.934
灘	-10.934
災	-10.934
番石榴	-10.934
痰	-10.934
的貓是黑色的	-10.934
翹	-10.934
老師問大家	-10.934
藍寶石	-10.934
贏	-10.934
銀手環	-10.934
雄	-10.934
靜不下來	-10.934
Anopan	-10.934
Jisivosot	-10.934
▁Jizakazang	-10.934
▁Makaiyawey	-10.934
▁Manaik	-10.934
▁Mapapo	-10.934
▁Mitozid	-10.934
▁Sakayan	-10.934
▁ipasaod	-10.934
▁kamalig	-10.934
▁kazapaz	-10.934
▁kekehen	-10.934
▁lomoas	-10.934
▁malimot	-10.934
▁meyrataten	-10.934
▁milolay	-10.934
▁nilalagan	-10.934
▁nimalalayo	-10.934
▁omoyab	-10.934
▁我們兄弟姊妹共	-10.934
▁那些男孩子正在	-10.934
啊呀呀	-10.934
回村莊	-10.934
彎曲	-10.934
慕	-10.934
擠	-10.934
渣	-10.934
漁人部落	-10.934
釘	-10.934
Imasik	-10.934
Jilangoy	-10.934
Yoki	-10.934
anowanood	-10.934
eva	-10.934
isiasiay	-10.934
kaloaloang	-10.934
pangikngiktan	-10.934
skeske	-10.934
▁Meysang	-10.934
▁atkaw	-10.934
▁ipanganiaw	-10.934
▁ngiangian	-10.934
▁nimaziman	-10.934
▁rayom	-10.934
呵	-10.934
拉普又得	-10.934
涼台的柱子	-10.934
烏雲密	-10.934
瑪瑙珠串	-10.934
的寶物	-10.934
踏	-10.934
鈍	-10.934
ayoayob	-10.934
cinaknan	-10.934
▁Jiyayo	-10.934
▁Mapey	-10.934
▁lomaji	-10.934
▁pialalamen	-10.934
▁你們每人	-10.934
仰	-10.934
你的鞋子	-10.934
宴	-10.934
我來找你	-10.934
的根部	-10.934
衝突	-10.934
keketan	-10.934
▁malden	-10.934
▁piniaw	-10.934
也穿上	-10.934
噴	-10.934
娶妻	-10.934
嫌	-10.934
小凱正在和	-10.934
序	-10.934
延續	-10.934
手牽手	-10.934
暫	-10.934
甩	-10.934
肝	-10.934
苦苦的	-10.934
貪吃鬼	-10.934
際	-10.934
▁mapingsan	-10.934
冰箱	-10.934
單人船	-10.934
夏天時	-10.934
帆	-10.934
盒	-10.934
逗	-10.934
galo	-10.934
▁pikavangan	-10.934
▁他嚇得	-10.934
有一百	-10.934
Jitaoy	-10.934
▁nomakoa	-10.934
▁piniow	-10.934
小米祭的活動	-10.934
年輕時	-10.934
沒有飯吃	-10.934
Jipaptok	-10.934
pialilima	-10.934
牽	-10.934
貼	-10.934
飛行員	-10.934
鼓	-10.934
aporon	-10.934
便宜	-10.934
▁salit	-10.934
太重了	-10.934
拿俄米	-10.934
纏繞	-10.934
證	-10.934
pasoad	-10.934
他還是沒有	-10.934
道謝	-10.934
都長得	-10.934
▁kavonong	-10.934
2019	-10.934
▁taktakzes	-10.934
一會兒	-10.934
白毛魚	-10.934
的意思	-10.934
香瓜	-10.934
把飛魚和	-10.934
▁iwangan	-10.934
拖	-10.934
▁mayokey	-10.934
洞穴	-10.934
遵守	-10.934
窗戶	-10.934
pivonong	-10.934
嚴禁	-10.934
睡著了	-10.934
達悟族不吃	-10.934
parngen	-10.934
▁maoyong	-10.934
Cokitok	-10.934
們常常去探望祖父	-10.934
還很年輕	-10.934
▁yameyngen	-10.934
淡	-10.934
永遠	-10.934
資源	-10.934
maizay	-10.934
paspas	-10.934
▁inyapo	-10.934
▁nitaid	-10.934
weywalam	-10.934
到外面	-10.934
龍蝦	-10.934
▁tangdan	-10.934
▁貓咪	-10.934
你最喜歡	-10.934
我不敢吃	-10.934
▁itoyotoyon	-10.934
奇怪	-10.934
患	-10.934
▁pananala	-10.934
限制	-10.934
調解	-10.934
▁nigom	-10.934
▁pangcyo	-10.934
依賴	-10.934
表演	-10.934
▁totoang	-10.934
sogat	-10.934
歡樂	-10.934
▁mizezyak	-10.934
gegetget	-10.9341
拼命	-10.9341
溫暖	-10.9341
戲弄	-10.9341
的由來	-10.9341
的樣子	-10.9341
軍隊	-10.9341
鐵鉤	-10.9341
精神	-10.9341
aipaid	-10.9341
記錄	-10.9341
至今	-10.9341
▁maimai	-10.9341
▁請問您	-10.9341
▁mizing	-10.9341
均分	-10.9341
西方的	-10.9341
雙方	-10.9341
輕易	-10.9341
手錶	-10.9341
試探	-10.9341
道歉	-10.9341
香煙	-10.9341
我的名字是	-10.9341
祈求	-10.9341
經歷	-10.9341
製造	-10.9341
他們正在	-10.9341
影響	-10.9341
那間房子很大	-10.9341
鋤頭	-10.9341
patotolaw	-10.9341
▁amoamoon	-10.9341
枕頭	-10.9341
的想法	-10.9341
修理	-10.9341
我們家在部落	-10.9341
墓地	-10.9341
組織	-10.9341
集體	-10.9341
報應	-10.9341
退潮	-10.9341
漁業	-10.9341
OK	-10.9341
kaboabo	-10.9341
舂小米	-10.9341
燒烤	-10.9341
竹簍	-10.9341
透過	-10.9341
▁kamala	-10.9341
▁nazangi	-10.9341
▁peypeypangayan	-10.9341
強壯	-10.9341
▁lawpan	-10.9341
▁通常	-10.9341
makamong	-10.9341
吸引	-10.9341
▁tenngi	-10.9341
▁kararey	-10.9341
漁具	-10.9341
▁mazngang	-10.9341
洗餐盤	-10.9341
▁omanam	-10.9341
的生命	-10.9341
花朵	-10.9341
誕生	-10.9341
ngiwang	-10.9341
炒菜	-10.9341
紙張	-10.9341
祭天神	-10.9342
▁Ilaod	-10.9342
▁等待	-10.9342
eybozo	-10.9342
▁nilangi	-10.9342
飽足	-10.9342
seksekan	-10.9342
口渴	-10.9342
器具	-10.9342
▁nagat	-10.9342
▁tekeh	-10.9342
舌頭	-10.9342
拍照	-10.9342
計畫	-10.9342
男人吃的魚類	-10.9342
▁剛才	-10.9342
木材	-10.9342
▁pantow	-10.9342
你要買多少	-10.9342
來臨	-10.9342
招待	-10.9342
某物	-10.9342
saboy	-10.9342
晒乾	-10.9342
打雷	-10.9342
▁kekey	-10.9342
很久很久以	-10.9343
pisopo	-10.9343
▁somaod	-10.9343
▁pasapat	-10.9343
烤火	-10.9343
車站	-10.9343
爭取	-10.9343
卡車	-10.9343
▁piayob	-10.9343
交通	-10.9343
拜訪祖父	-10.9343
復活	-10.9343
▁mikaranom	-10.9343
祖先們	-10.9343
被迫	-10.9343
memen	-10.9343
laloy	-10.9343
作業	-10.9343
第二個	-10.9344
相遇	-10.9344
山林	-10.9344
cibciban	-10.9344
疼愛	-10.9344
konokon	-10.9344
樹林	-10.9344
倉裡	-10.9344
▁Ni	-10.9344
我來畫	-10.9344
▁cizopen	-10.9344
後院	-10.9344
難受	-10.9344
拍手	-10.9344
機車	-10.9345
大家穿著	-10.9345
上課	-10.9345
黏在	-10.9345
很遠的地方	-10.9345
▁達悟族之	-10.9345
被騙	-10.9345
輕視	-10.9345
▁kolo	-10.9345
▁cilo	-10.9345
洗碗	-10.9345
縫衣服	-10.9345
lololo	-10.9345
gozang	-10.9345
汗水	-10.9345
▁meyyoyo	-10.9345
完全	-10.9346
somozi	-10.9346
幾位	-10.9346
▁atapan	-10.9346
加入	-10.9346
▁狗狗	-10.9346
方面	-10.9346
低一點	-10.9346
見面	-10.9346
▁Malaw	-10.9346
位於	-10.9346
▁lolay	-10.9346
夜間	-10.9346
▁omhat	-10.9347
ngtek	-10.9347
kapitoan	-10.9347
抱起來	-10.9347
ladang	-10.9347
▁makakavang	-10.9347
芋頭苗	-10.9347
我以前是	-10.9347
相同	-10.9347
心情	-10.9347
▁mapangyangyalak	-10.9347
▁botboten	-10.9347
早已	-10.9347
今天天氣很好	-10.9347
▁天色	-10.9348
ehnep	-10.9348
岸邊	-10.9348
原住民族群	-10.9348
力氣	-10.9348
打碎	-10.9348
▁kalawan	-10.9348
述說	-10.9348
kataid	-10.9348
▁mangavas	-10.9348
殺豬	-10.9348
▁matatava	-10.9348
隊長	-10.9349
兩條	-10.9349
amakbak	-10.9349
喝湯	-10.9349
▁pakdengen	-10.9349
煮熟	-10.9349
▁ipanahes	-10.9349
前室	-10.9349
▁atda	-10.935
兩次	-10.935
禮主	-10.935
幫妳	-10.935
城裡	-10.935
bobow	-10.935
ngdot	-10.935
▁meyvahey	-10.935
▁veraen	-10.935
真相	-10.9351
太好了	-10.9351
沒有放棄	-10.9351
Nani	-10.9351
▁maciliman	-10.9351
提親	-10.9351
ngongaw	-10.9351
地瓜葉	-10.9351
少女	-10.9351
emes	-10.9352
一段	-10.9352
妳們	-10.9352
▁napop	-10.9352
外國	-10.9352
去山裡	-10.9352
最早	-10.9353
▁niyapo	-10.9353
▁ikakanio	-10.9353
發動	-10.9353
▁manazab	-10.9353
makza	-10.9353
▁meyketeketeh	-10.9353
開飛機	-10.9354
抱著	-10.9354
▁這個給你	-10.9354
挑起來	-10.9354
太陽很大	-10.9354
▁mangazaw	-10.9354
生氣地	-10.9355
面向	-10.9355
▁lita	-10.9355
▁ikapow	-10.9355
雙人	-10.9355
的頭髮很長	-10.9356
掉落	-10.9356
教書	-10.9356
分享給	-10.9356
聞到	-10.9356
▁nyakan	-10.9356
▁teyrayan	-10.9356
▁mikagagan	-10.9357
到了晚上	-10.9357
產生	-10.9357
▁ikalaw	-10.9357
大腿	-10.9357
然而	-10.9358
ngiyan	-10.9358
ratod	-10.9358
吃藥	-10.9358
萬一	-10.9358
▁nikali	-10.9358
睡覺的地方	-10.9358
meyheza	-10.9359
masonong	-10.9359
撈魚	-10.9359
▁我們去找	-10.9359
結束後	-10.936
pakametdeh	-10.936
▁rangan	-10.936
前面	-10.936
平地	-10.936
蟹肉	-10.936
網袋裡	-10.9361
進行	-10.9361
▁asiam	-10.9361
真的打	-10.9361
vaoyo	-10.9361
一頂	-10.9361
▁miveravera	-10.9361
▁onotan	-10.9363
隻狗	-10.9363
打球	-10.9364
豬羊	-10.9364
名叫	-10.9364
你的書包	-10.9365
等一下再	-10.9365
▁pilovot	-10.9366
男人們	-10.9366
niakakanan	-10.9367
三月	-10.9367
挖芋頭	-10.9367
靠著	-10.9368
快點	-10.9368
發出	-10.9368
▁mitotow	-10.9369
▁mangaod	-10.9369
一本書	-10.9371
▁我們去山上	-10.9371
喜歡看電視	-10.9372
工作結束	-10.9373
tangaraen	-10.9373
他的手	-10.9374
▁pacicien	-10.9374
看書	-10.9375
kekez	-10.9375
不足	-10.9375
鼻子	-10.9375
▁manmama	-10.9375
所以不會	-10.9375
六個人	-10.9375
▁makapya	-10.9375
nitaa	-10.9375
raratan	-10.9376
▁mamno	-10.9376
liliw	-10.9378
▁nilita	-10.9378
makasasnad	-10.9378
女人們	-10.9378
山蟹	-10.9379
▁我在找	-10.9379
我要去找	-10.9379
罵人	-10.9379
非常喜歡	-10.9381
這位	-10.9382
▁teyrahet	-10.9382
掉你的	-10.9384
gek	-10.9386
人民	-10.9386
raing	-10.9386
魚湯	-10.9387
達悟族的傳統	-10.9387
躲在	-10.9388
▁Yayo	-10.9388
▁ngaoda	-10.9388
kaowan	-10.9389
大雨	-10.939
▁miangay	-10.9391
▁nimakala	-10.9392
我的橡皮擦	-10.9392
▁ipong	-10.9393
pinmo	-10.9393
很不好	-10.9393
▁apya	-10.9393
lipet	-10.9394
也因此	-10.9394
傳統主屋	-10.9395
趕上	-10.9397
▁mikadoa	-10.94
戴上	-10.9401
信物	-10.9403
而成	-10.9404
我們的豬	-10.9409
口水	-10.9409
zazasag	-10.9414
非常地	-10.942
mamaog	-10.9422
超過	-10.9423
我們去游泳	-10.9432
他們家有	-10.9445
我們家有	-10.9447
休假	-10.9447
▁panganga	-10.9447
喜歡唱歌	-10.945
這種	-10.9454
好久	-10.9454
喜歡跳舞	-10.9454
jiasta	-10.9458
吃過的	-10.9459
▁nikaka	-10.9461
芋頭堆	-10.9462
▁他是你的	-10.9463
pivahey	-10.9466
這讓	-10.9467
zanegan	-10.9469
lino	-10.9472
我們的東西	-10.9482
你的眼睛	-10.9484
破掉	-10.9484
本族	-10.9492
pacinanao	-10.9494
kakw	-10.95
▁apingke	-10.9504
▁kananma	-10.9506
citaey	-10.9512
kapya	-10.953
▁karoaro	-10.9532
▁tojia	-10.9558
tokas	-10.956
siasing	-10.9562
zavoz	-10.9566
mez	-10.9566
▁marate	-10.9583
衣服濕	-10.9595
tonod	-10.9601
kotas	-10.9618
zazacitan	-10.9619
azazo	-10.9637
可以出去玩	-10.9641
▁kalas	-10.9651
我的叔叔	-10.9659
kaday	-10.9663
tozok	-10.9673
遭受	-10.9674
▁nyap	-10.9679
▁omngana	-10.9683
laik	-10.9732
oban	-10.9745
teypa	-10.9747
很硬	-10.9762
掉下去	-10.9772
喜歡讀書	-10.9779
patoto	-10.9783
peywala	-10.9798
yoyo	-10.9852
要吃地瓜	-10.9919
mzat	-10.992
asnesnekan	-11.0016
opas	-11.0025
擔心你	-11.004
osos	-11.0045
wawalam	-11.0082
niakanan	-11.0144
magza	-11.018
mnek	-11.0272
garaw	-11.0323
▁anebe	-11.0329
mipiapia	-11.0332
gagay	-11.0334
alovo	-11.036
malas	-11.0387
ikalak	-11.042
個比特幣	-11.0439
ciring	-11.0443
sinsi	-11.0451
哇	-11.0506
mamasil	-11.0506
mivahay	-11.0506
keysakan	-11.0507
Ngeskes	-11.0512
Repay	-11.0514
viniay	-11.0518
有一天	-11.0519
I	-11.052
icioy	-11.0524
kakteh	-11.0528
niapoan	-11.0538
vakong	-11.0544
mavakes	-11.0546
nimangay	-11.0547
pongso	-11.0553
nimai	-11.0555
假日	-11.0561
inge	-11.0597
maesep	-11.0628
kanyo	-11.0637
傘	-11.0658
manngo	-11.066
▁citai	-11.069
posan	-11.0708
在醫院	-11.0733
kokod	-11.0737
teyaro	-11.0745
ozo	-11.0764
taem	-11.0775
們大家一起	-11.0833
mirarakeh	-11.0969
pinan	-11.102
各部落	-11.1051
aniaheyan	-11.1136
▁我們每人	-11.1311
pias	-11.133
紅色	-11.1465
kapik	-11.148
堂兄弟	-11.1546
maman	-11.1554
lol	-11.16
macinanao	-11.1613
要去紅頭村	-11.164
贈	-11.1691
het	-11.1765
asagitan	-11.1806
etak	-11.1928
家鄉	-11.1947
庭	-11.2002
gato	-11.2018
0	-11.2044
saha	-11.2138
akzeben	-11.2146
▁makse	-11.2202
播	-11.225
電話	-11.226
▁bedbed	-11.2263
zizyak	-11.2284
anokos	-11.2324
▁Na	-11.2329
zasagan	-11.2337
snekan	-11.2349
tangked	-11.2362
ozit	-11.2363
慢走	-11.2364
▁黑色	-11.2383
欺	-11.2389
atoato	-11.2394
icingi	-11.2394
taripis	-11.24
bazangbang	-11.2402
veravera	-11.2404
gonagonay	-11.2407
打死我	-11.241
騙	-11.2414
輪流	-11.242
panahes	-11.2423
板	-11.2425
任	-11.2425
院	-11.2426
章	-11.2426
汗	-11.2428
隔	-11.2428
姐	-11.2428
何	-11.2428
▁iweywawala	-11.2429
瓜	-11.2429
kolit	-11.2429
獲	-11.243
祖	-11.243
倉	-11.243
icibcib	-11.243
良	-11.243
cizop	-11.243
▁mipipi	-11.243
▁vivi	-11.2431
終	-11.2431
朵	-11.2431
始	-11.2432
棄	-11.2432
雷	-11.2432
題	-11.2432
義	-11.2433
銀	-11.2433
旅遊	-11.2433
交易	-11.2433
輪	-11.2433
習	-11.2433
互	-11.2433
牆	-11.2433
惜	-11.2433
易	-11.2433
鐵	-11.2434
項	-11.2434
友	-11.2434
麻	-11.2434
鏡	-11.2434
騎	-11.2434
▁總共	-11.2434
修	-11.2434
迎	-11.2434
歡	-11.2434
讀	-11.2434
掘	-11.2434
演	-11.2434
費	-11.2434
這件事情	-11.2434
喲	-11.2434
▁mazda	-11.2434
晾	-11.2434
精	-11.2434
構	-11.2434
ozatoza	-11.2435
律	-11.2435
閉	-11.2435
亞	-11.2435
漲	-11.2435
▁pival	-11.2435
彎	-11.2435
賴	-11.2435
誤	-11.2435
糟	-11.2435
灌	-11.2435
畢	-11.2435
鄰	-11.2435
勇士	-11.2435
魂	-11.2435
遺	-11.2435
階	-11.2435
飢	-11.2435
介	-11.2435
幼	-11.2435
有愈來愈多的	-11.2435
梭	-11.2435
為何人們會相信	-11.2435
藍色琉璃珠	-11.2435
辦公室	-11.2435
防	-11.2435
守護	-11.2435
窗	-11.2435
亡	-11.2435
祈福儀式	-11.2435
延	-11.2435
伊	-11.2435
僅	-11.2435
定情物	-11.2435
憑	-11.2435
敗	-11.2435
生吃的肉丁	-11.2435
質	-11.2435
巡	-11.2435
操	-11.2435
儲	-11.2435
唉	-11.2435
昆	-11.2435
東北季風	-11.2435
騎腳踏車	-11.2435
▁2021	-11.2435
休閒	-11.2435
值	-11.2435
勉	-11.2435
卡車司機	-11.2435
叉	-11.2435
宗	-11.2435
富裕	-11.2435
尋求幫助	-11.2435
尚	-11.2435
彩虹出來了	-11.2435
技藝	-11.2435
捻	-11.2435
昌	-11.2435
暴	-11.2435
最年長	-11.2435
案	-11.2435
灑	-11.2435
爆	-11.2435
甕	-11.2435
的傳統節慶	-11.2435
的基因	-11.2435
的海域	-11.2435
竊	-11.2435
腸	-11.2435
膚	-11.2435
蔓	-11.2435
訓練	-11.2435
譯	-11.2435
這條魚	-11.2435
飛來飛去	-11.2435
商	-11.2435
姑婆芋葉	-11.2435
艱	-11.2435
蹤	-11.2435
▁他們跟著青蛙來到了	-11.2435
今天老師要教大家	-11.2435
八支蘭竹	-11.2435
姑婆葉	-11.2435
我介紹	-11.2435
旋	-11.2435
朗	-11.2435
番	-11.2435
臂	-11.2435
與你們同	-11.2435
露	-11.2435
晴	-11.2435
mahaso	-11.2435
mapasakasak	-11.2435
mavavah	-11.2435
▁Cyong	-11.2435
▁kavavahay	-11.2435
▁mikaraherahet	-11.2435
▁nitovoy	-11.2435
▁paciscis	-11.2435
▁pikakasa	-11.2435
▁vangon	-11.2435
▁wakwak	-11.2435
▁zomoazoay	-11.2435
▁有節慶時	-11.2435
上部落與下部落	-11.2435
太陽下山	-11.2435
那麼快	-11.2435
9	-11.2435
amiamizing	-11.2435
ateheb	-11.2435
atovang	-11.2435
azidangdang	-11.2435
bingkiok	-11.2435
ciwciw	-11.2435
eylamnay	-11.2435
eyveyvazay	-11.2435
gesagesah	-11.2435
gogad	-11.2435
golgol	-11.2435
iavoavoit	-11.2435
kzakza	-11.2435
mapavahi	-11.2435
masleb	-11.2435
mavotovot	-11.2435
melem	-11.2435
meybebnen	-11.2435
meysyasy	-11.2435
meyvazey	-11.2435
miliktow	-11.2435
mitateynep	-11.2435
mivoak	-11.2435
mowpawan	-11.2435
nanatnganan	-11.2435
nimangangankanen	-11.2435
pabosbos	-11.2435
pahahay	-11.2435
pakamizing	-11.2435
panadnad	-11.2435
paneveng	-11.2435
patateynep	-11.2435
pavahai	-11.2435
pavanaw	-11.2435
pavonong	-11.2435
pavood	-11.2435
peylingalingayan	-11.2435
peyvazey	-11.2435
pikanokanoka	-11.2435
pinapinan	-11.2435
pzoci	-11.2435
samorang	-11.2435
someksek	-11.2435
tomiknoz	-11.2435
varivad	-11.2435
vavakes	-11.2435
vilavilang	-11.2435
wvong	-11.2435
yahahay	-11.2435
yogyog	-11.2435
zongboy	-11.2435
ʉ	-11.2435
▁Jirakoatokon	-11.2435
▁Kesye	-11.2435
▁Meynon	-11.2435
▁Naemi	-11.2435
▁Talinon	-11.2435
▁avwavong	-11.2435
▁balinas	-11.2435
▁bosbosan	-11.2435
▁ezsadan	-11.2435
▁gogolo	-11.2435
▁ikaviay	-11.2435
▁inavosang	-11.2435
▁ioywawalam	-11.2435
▁ipamingit	-11.2435
▁ipangahahap	-11.2435
▁isezez	-11.2435
▁jinatenngi	-11.2435
▁kahanghang	-11.2435
▁kapiawawat	-11.2435
▁kavalatan	-11.2435
▁komalat	-11.2435
▁laktat	-11.2435
▁lamlamsoy	-11.2435
▁limoten	-11.2435
▁mabalinas	-11.2435
▁macipaganaganam	-11.2435
▁makakaley	-11.2435
▁makjit	-11.2435
▁maliodod	-11.2435
▁manadeng	-11.2435
▁managit	-11.2435
▁mangangankanen	-11.2435
▁mapivazey	-11.2435
▁masazowsaw	-11.2435
▁mavanaw	-11.2435
▁mavanow	-11.2435
▁mawagwag	-11.2435
▁meytabtabeh	-11.2435
▁meyvaey	-11.2435
▁meyyasasalap	-11.2435
▁migegcin	-11.2435
▁migoagoay	-11.2435
▁mikenakena	-11.2435
▁milingalingay	-11.2435
▁mipakoyab	-11.2435
▁misasakeb	-11.2435
▁misiasiey	-11.2435
▁mivoong	-11.2435
▁mizazacit	-11.2435
▁motdeh	-11.2435
▁mowamek	-11.2435
▁ngavang	-11.2435
▁ngazongoten	-11.2435
▁ngongoney	-11.2435
▁nimazikna	-11.2435
▁nimikapseng	-11.2435
▁nivatkan	-11.2435
▁pagloen	-11.2435
▁pakedkedan	-11.2435
▁palilaen	-11.2435
▁pangavavaoen	-11.2435
▁pangzekan	-11.2435
▁pikezia	-11.2435
▁pinatoyon	-11.2435
▁pipazapazangan	-11.2435
▁rakpen	-11.2435
▁simakateysaraw	-11.2435
▁simiwondokay	-11.2435
▁tahaman	-11.2435
▁taktakan	-11.2435
▁tateynep	-11.2435
▁teymavalang	-11.2435
▁teymazikna	-11.2435
▁teyteyngato	-11.2435
▁teztez	-11.2435
▁vaay	-11.2435
▁vahao	-11.2435
▁valangan	-11.2435
▁vasaw	-11.2435
▁vatovato	-11.2435
▁vazcinok	-11.2435
▁vazongot	-11.2435
▁veysen	-11.2435
▁volavolaw	-11.2435
▁vovonongan	-11.2435
不長命	-11.2435
令人驚訝	-11.2435
你怎麼知道	-11.2435
倖	-11.2435
催	-11.2435
削	-11.2435
去男方家	-11.2435
吞	-11.2435
含	-11.2435
咐	-11.2435
啄	-11.2435
喜歡用左手的人	-11.2435
嗚	-11.2435
嗨	-11.2435
在什麼地方	-11.2435
在客廳	-11.2435
垢	-11.2435
大口大口的吃	-11.2435
大聲一點	-11.2435
從山上回來	-11.2435
復振	-11.2435
德	-11.2435
快走開	-11.2435
態	-11.2435
慰勞他們	-11.2435
手電筒	-11.2435
投	-11.2435
抽不出來	-11.2435
損	-11.2435
搥	-11.2435
摺	-11.2435
撫	-11.2435
擤鼻涕	-11.2435
日昇之處	-11.2435
旺	-11.2435
曬魚架	-11.2435
最珍貴的	-11.2435
正在滾動的大石頭	-11.2435
殖	-11.2435
沒飯吃	-11.2435
沿	-11.2435
泣	-11.2435
滲	-11.2435
澎	-11.2435
獎	-11.2435
用沙子撒	-11.2435
的另一個名稱	-11.2435
看電影	-11.2435
真是太棒了	-11.2435
票	-11.2435
窩	-11.2435
粗粗的	-11.2435
紅頭山	-11.2435
級	-11.2435
羞	-11.2435
職	-11.2435
臟	-11.2435
臥	-11.2435
荷蘭人	-11.2435
被雨淋	-11.2435
謂	-11.2435
豐年祭	-11.2435
賀	-11.2435
迄	-11.2435
遙	-11.2435
鎮	-11.2435
閃	-11.2435
隱	-11.2435
頻	-11.2435
龍眼樹下盪鞦韆	-11.2435
Jitapeh	-11.2435
Talonon	-11.2435
alikawag	-11.2435
btekan	-11.2435
peypalalayo	-11.2435
rehrehmet	-11.2435
zwazw	-11.2435
▁ciawang	-11.2435
▁cigyan	-11.2435
▁icieycia	-11.2435
▁icyoy	-11.2435
▁kasolian	-11.2435
▁katoatontonan	-11.2435
▁kavocidan	-11.2435
▁makekdeng	-11.2435
▁mamozas	-11.2435
▁mangalalas	-11.2435
▁manownaw	-11.2435
▁matoklay	-11.2435
▁memehak	-11.2435
▁meypaltog	-11.2435
▁mikalsong	-11.2435
▁mipangavangav	-11.2435
▁mipehnep	-11.2435
▁nirisiring	-11.2435
▁pacizitan	-11.2435
▁pakarakehen	-11.2435
▁sapopoen	-11.2435
▁vagot	-11.2435
▁你們什麼時候	-11.2435
▁你趴著	-11.2435
▁待會兒	-11.2435
▁拿出你的	-11.2435
▁茅草是	-11.2435
▁那位是	-11.2435
一部份	-11.2435
匙	-11.2435
卑南族	-11.2435
取外號	-11.2435
在台北	-11.2435
堵	-11.2435
大學畢業	-11.2435
太陽曬得很	-11.2435
奔	-11.2435
我帶你去	-11.2435
我要買兩瓶	-11.2435
把你的腳泡	-11.2435
晒魚架	-11.2435
末	-11.2435
湯碗裡	-11.2435
疤	-11.2435
的鞋子很	-11.2435
絆	-11.2435
臀	-11.2435
臼	-11.2435
舀	-11.2435
蓆	-11.2435
遮	-11.2435
金片胸飾	-11.2435
鎚	-11.2435
閉上眼睛	-11.2435
akasasaoy	-11.2435
kavalangan	-11.2435
vanavana	-11.2435
▁itlen	-11.2435
▁maciheza	-11.2435
▁mangaleh	-11.2435
▁mazway	-11.2435
▁miraraod	-11.2435
▁mivinavi	-11.2435
▁nokamaep	-11.2435
▁omoyot	-11.2435
▁powbot	-11.2435
▁你們兩個一起	-11.2435
▁野草莓	-11.2435
往前走	-11.2435
息	-11.2435
6	-11.2435
kasanoson	-11.2435
marakat	-11.2435
▁Tahakay	-11.2435
▁gaksi	-11.2435
▁makanyow	-11.2435
▁mirarala	-11.2435
▁pozos	-11.2435
任何	-11.2435
劃	-11.2435
喘	-11.2435
外村來的	-11.2435
姿	-11.2435
拖拖拉拉的	-11.2435
捕魚很辛苦	-11.2435
椰殼碗裡	-11.2435
欄	-11.2435
毛毛蟲	-11.2435
池塘裡	-11.2435
泊	-11.2435
瀝乾架	-11.2435
現在是夏天	-11.2435
第九年	-11.2435
粥	-11.2435
絲	-11.2435
腋	-11.2435
萊	-11.2435
這麼貴呀	-11.2435
那麼久	-11.2435
鑽	-11.2435
降	-11.2435
陣	-11.2435
駝	-11.2435
魚腥味	-11.2435
麥	-11.2435
黏黏的	-11.2435
asanonso	-11.2435
▁katanatana	-11.2435
▁pizavozavoza	-11.2435
▁我爸爸正在	-11.2435
俯	-11.2435
傳統地名	-11.2435
找找看	-11.2435
月亮出來了	-11.2435
東清村	-11.2435
稍	-11.2435
舅舅	-11.2435
要提到的	-11.2435
黑翅飛魚	-11.2435
▁icyoi	-11.2435
▁teyrala	-11.2435
模仿	-11.2435
liotot	-11.2435
pasazap	-11.2435
▁tonazestes	-11.2435
▁尤其	-11.2435
丁	-11.2435
切割外翻	-11.2435
匆	-11.2435
婆婆	-11.2435
完整的	-11.2435
很涼快	-11.2435
忘了拿	-11.2435
恨	-11.2435
敵	-11.2435
曲調	-11.2435
煮好飯	-11.2435
研	-11.2435
突破	-11.2435
窮	-11.2435
竟	-11.2435
缺	-11.2435
船要沉了	-11.2435
虎	-11.2435
詛	-11.2435
誇	-11.2435
躍	-11.2435
邀請的賓客	-11.2435
青少年	-11.2435
館	-11.2435
驗	-11.2435
齡	-11.2435
一個禮拜	-11.2435
上個月	-11.2435
來接球	-11.2435
有幾張	-11.2435
裁決	-11.2435
manzavok	-11.2435
▁azkem	-11.2435
▁makakakan	-11.2435
▁papatow	-11.2435
打得過	-11.2435
牲畜	-11.2435
肚兜	-11.2435
AN	-11.2435
ziknan	-11.2435
▁maniora	-11.2435
▁他們不好意思對老人家	-11.2435
循	-11.2435
搖籃上披	-11.2435
沒看到你	-11.2435
沾	-11.2435
石頭很重	-11.2435
置物架上	-11.2435
被山土	-11.2435
要加固你們的房子	-11.2435
途	-11.2435
bzak	-11.2435
▁paganam	-11.2435
kinsa	-11.2435
kacimoyan	-11.2435
▁tatanangan	-11.2435
▁何必	-11.2435
不耐煩	-11.2435
俄國	-11.2435
保佑我們	-11.2435
個靠背石的石柱	-11.2435
剖	-11.2435
奉	-11.2435
廣	-11.2435
微	-11.2435
懼	-11.2435
指撐開	-11.2435
新冠病毒	-11.2435
炸	-11.2435
祈求作物豐	-11.2435
系統	-11.2435
絡繹不絕	-11.2435
造船的人不會	-11.2435
ciklap	-11.2435
▁mehma	-11.2435
看不見	-11.2435
一個小時	-11.2435
嘔吐	-11.2435
慰勞節	-11.2435
滿滿的	-11.2435
看不起	-11.2435
我肚子痛	-11.2435
飲料	-11.2435
去撿田螺	-11.2435
媳婦	-11.2435
握拳	-11.2435
歡喜	-11.2435
飛魚捕撈期	-11.2435
panapten	-11.2435
堅持	-11.2435
遊戲	-11.2435
隙縫	-11.2435
▁我很怕	-11.2435
▁他們全是	-11.2435
千萬不	-11.2435
回娘家	-11.2435
的嫩葉	-11.2435
箭	-11.2435
老年人	-11.2435
鰻	-11.2435
▁nipeymamayo	-11.2435
▁agagazan	-11.2435
▁jiapiya	-11.2435
▁kotakotat	-11.2436
姑婆芋的葉子	-11.2436
實在是	-11.2436
▁pangingi	-11.2436
故鄉	-11.2436
飢荒	-11.2436
高高的	-11.2436
▁nimakaranes	-11.2436
變得越來越	-11.2436
階段	-11.2436
kasbil	-11.2436
遺忘	-11.2436
乾脆	-11.2436
▁他就把我	-11.2436
manlita	-11.2436
▁macilo	-11.2436
也要分	-11.2436
弟妹	-11.2436
彎腰	-11.2436
權益	-11.2436
沒有一個人	-11.2436
的後代長得跟	-11.2436
製陶	-11.2436
項飾	-11.2436
▁singasingeh	-11.2436
把門關	-11.2436
▁pavitosen	-11.2436
2010	-11.2436
舉辦	-11.2436
▁onooned	-11.2436
一下子就	-11.2436
呼喊	-11.2436
科學	-11.2436
▁mizaka	-11.2436
基本	-11.2436
灌頂	-11.2436
農曆	-11.2436
指甲	-11.2436
pipingsan	-11.2436
▁masengseng	-11.2436
有一種	-11.2436
疫情	-11.2436
twai	-11.2436
▁pamsan	-11.2436
餐盤	-11.2436
龍骨	-11.2436
▁nipacinanaoan	-11.2436
用石頭打	-11.2436
▁somibo	-11.2436
上去吧	-11.2436
錯誤	-11.2436
▁karwan	-11.2436
幫忙做家事	-11.2436
米粒	-11.2436
▁laladang	-11.2436
持續	-11.2436
搶奪	-11.2436
祭儀	-11.2436
ilalaktat	-11.2436
▁tinaw	-11.2436
吃吃看	-11.2436
法院	-11.2436
思念	-11.2436
烘乾	-11.2436
kovot	-11.2436
構造	-11.2436
詐騙集團	-11.2436
掐住	-11.2436
▁tanoro	-11.2436
▁miapid	-11.2436
陶鍋	-11.2436
流淚	-11.2436
▁nokapnezak	-11.2436
交談	-11.2436
▁kawakayan	-11.2436
互助	-11.2436
守護神	-11.2436
驚喜	-11.2436
巨岩	-11.2436
形容	-11.2436
解散	-11.2436
▁nikeyka	-11.2436
開墾田地	-11.2436
ncio	-11.2436
▁itetngehan	-11.2436
▁你要不要啃	-11.2436
晾曬	-11.2436
竹篩	-11.2436
▁cinirara	-11.2436
▁misiay	-11.2436
mavozaw	-11.2436
otowta	-11.2436
指導	-11.2436
▁我先去	-11.2436
耳環	-11.2436
掘棒	-11.2436
singasing	-11.2436
▁picia	-11.2436
浪費	-11.2436
ngahapi	-11.2436
呼吸	-11.2436
papataw	-11.2436
要好好照顧	-11.2436
採姑婆芋葉	-11.2436
木瓜	-11.2436
pamalit	-11.2436
多年的	-11.2436
▁kabsoyan	-11.2436
▁mangaciacileb	-11.2436
iapis	-11.2436
kaloalovotan	-11.2436
騎車	-11.2436
▁parapa	-11.2436
壓扁	-11.2436
還在唸書	-11.2436
▁kalaodan	-11.2436
tomoaw	-11.2436
▁tovoin	-11.2436
▁mivangon	-11.2437
紅頭部落的祖先	-11.2437
難怪	-11.2437
▁macigzang	-11.2437
karilow	-11.2437
定義	-11.2437
▁過了很久	-11.2437
原來如此	-11.2437
sapasapa	-11.2437
制度	-11.2437
▁mehes	-11.2437
▁tatos	-11.2437
有一個小女孩	-11.2437
集合	-11.2437
找尋	-11.2437
ngazicin	-11.2437
▁inaraen	-11.2437
代替	-11.2437
豐收節	-11.2437
ocipot	-11.2437
akdas	-11.2437
▁ciana	-11.2437
▁matoto	-11.2437
manaken	-11.2437
▁各位	-11.2437
獻祭	-11.2437
鍋內	-11.2437
團體	-11.2437
▁walitan	-11.2437
依舊	-11.2437
每逢	-11.2437
好多好多	-11.2437
到更多	-11.2437
看到了好多	-11.2437
pamnekan	-11.2437
神靈	-11.2437
tageh	-11.2437
▁akteben	-11.2437
▁mamali	-11.2437
事情是拍手歌	-11.2437
配戴	-11.2437
▁ngomon	-11.2437
▁我正在刮	-11.2437
仍然	-11.2437
講故事	-11.2437
鍋巴	-11.2437
lolit	-11.2437
▁maakey	-11.2437
支筆	-11.2437
總共多少	-11.2437
壞習慣	-11.2437
打工者	-11.2437
銀行	-11.2437
去外面	-11.2438
離婚	-11.2438
bkab	-11.2438
海鮮	-11.2438
漢語	-11.2438
織衣	-11.2438
強調	-11.2438
tazapia	-11.2438
交易所	-11.2438
切長條肥肉片	-11.2438
蘭嶼旅遊	-11.2438
manlangi	-11.2438
▁tomakatakow	-11.2438
兩端	-11.2438
海水漲潮	-11.2438
一起去打獵	-11.2438
▁ioo	-11.2438
▁nivilangan	-11.2438
織紋	-11.2438
misavong	-11.2438
居然	-11.2438
建造大船	-11.2438
室內	-11.2438
的大小	-11.2438
賣完了	-11.2438
漁網	-11.2438
▁lingwa	-11.2438
涼臺	-11.2438
▁Yancoming	-11.2438
金片	-11.2438
最終	-11.2438
產業	-11.2438
獨立	-11.2438
一起去射魚	-11.2438
依然	-11.2438
▁豬油	-11.2438
▁macivahavahay	-11.2438
基地	-11.2438
該怎麼辦	-11.2438
▁ipiveravera	-11.2438
漁產	-11.2438
捆木柴	-11.2438
▁ananay	-11.2438
小米穗	-11.2438
▁你去下面	-11.2438
ropon	-11.2438
變瘦	-11.2438
難道	-11.2438
加油	-11.2439
掛鉤	-11.2439
▁sarowap	-11.2439
總理	-11.2439
拿出來看看	-11.2439
我是達悟族的	-11.2439
▁pangamay	-11.2439
老師要帶我們去	-11.2439
百元	-11.2439
▁一串	-11.2439
橘子酸	-11.2439
果園	-11.2439
misongi	-11.2439
物品	-11.2439
組成	-11.2439
要死掉了	-11.2439
獨自	-11.2439
▁neyrakeh	-11.2439
吹火	-11.2439
群架	-11.2439
避雨	-11.2439
喝開水	-11.2439
tagow	-11.2439
zapos	-11.2439
氣候	-11.2439
隔壁山	-11.2439
▁ananat	-11.2439
▁met	-11.2439
真實的	-11.244
道別	-11.244
所有人都	-11.244
長大之後	-11.244
的網子	-11.244
▁makahaod	-11.244
眾多	-11.244
aonay	-11.244
洗衣	-11.244
meysako	-11.244
可惡	-11.244
道路	-11.244
地板	-11.244
建立	-11.244
幫助那些	-11.244
他是我的哥哥	-11.244
創作	-11.244
nimisako	-11.244
▁pizeziak	-11.244
食品	-11.244
事件	-11.244
相機	-11.244
▁ananeng	-11.244
▁kaparpar	-11.244
河流	-11.244
邊緣	-11.244
裝在網袋	-11.2441
兩件	-11.2441
要買蛋	-11.2441
▁insay	-11.2441
yatek	-11.2441
kaglaw	-11.2441
▁animi	-11.2441
yowli	-11.2441
▁mania	-11.2441
並捕到	-11.2441
偷吃東西	-11.2441
牙痛	-11.2441
cimil	-11.2441
點起床	-11.2441
合身	-11.2441
捲起來	-11.2441
躲進	-11.2441
▁木板很	-11.2441
▁熱的時候	-11.2441
弄斷	-11.2441
▁kyokay	-11.2441
指定	-11.2441
曬乾	-11.2442
教官	-11.2442
▁kapivaci	-11.2442
船首	-11.2442
雞血	-11.2442
nidong	-11.2442
opso	-11.2442
蟹的腳	-11.2442
小姐	-11.2442
的目的	-11.2442
照明	-11.2442
▁ikakdeng	-11.2442
看見一隻	-11.2442
做芋頭糕	-11.2442
bosang	-11.2442
分贈給	-11.2443
反正	-11.2443
布塊	-11.2443
每次	-11.2443
建屋	-11.2443
主食	-11.2443
更換	-11.2443
幾條	-11.2443
izangkap	-11.2443
laposan	-11.2443
靠過去	-11.2443
tavaos	-11.2443
接近	-11.2443
要回去了	-11.2443
地標	-11.2443
▁我們正在	-11.2443
tomaodtod	-11.2443
magot	-11.2443
成員	-11.2443
買酒	-11.2444
遠方	-11.2444
飛機場	-11.2444
九個	-11.2444
活力	-11.2444
阿美族的男人	-11.2444
▁rararakeh	-11.2444
件事	-11.2444
▁mapaloas	-11.2444
長瘡	-11.2444
剝芋頭	-11.2444
▁apdo	-11.2444
船在海上	-11.2444
▁Masta	-11.2444
紅頭部落的人	-11.2444
我們要去學校	-11.2444
▁ikabsoy	-11.2444
▁malaina	-11.2444
一起去釣魚	-11.2445
編成	-11.2445
▁飛魚季時	-11.2445
海底	-11.2445
跟你講	-11.2445
相傳	-11.2445
▁patop	-11.2445
▁kapivilang	-11.2446
這個國家	-11.2446
吃魚眼	-11.2446
煮鍋	-11.2446
發明	-11.2446
飛魚季節	-11.2446
somag	-11.2446
美國	-11.2446
試穿	-11.2446
自由	-11.2446
要賣的	-11.2446
▁mamoong	-11.2446
部門	-11.2446
原因	-11.2446
gazagaz	-11.2446
有一個妹妹	-11.2446
▁pazimanen	-11.2447
▁同學好	-11.2447
取代	-11.2447
落入	-11.2447
▁kakwa	-11.2447
▁ngoli	-11.2448
期間	-11.2448
▁imad	-11.2448
zimot	-11.2448
pasoson	-11.2448
全球	-11.2448
給那位	-11.2448
地底	-11.2448
▁ngapi	-11.2449
傳家寶	-11.245
acipivaci	-11.245
的都是	-11.2451
▁mivalavalan	-11.2451
▁tapipi	-11.2451
singsi	-11.2451
citahey	-11.2451
哪一個	-11.2452
▁cimey	-11.2452
你的車子	-11.2453
你的牙齒	-11.2453
你們輪流	-11.2453
你們有賣	-11.2455
asbong	-11.2455
agazan	-11.2456
親戚們	-11.2456
abnebne	-11.2456
panotong	-11.2457
▁他們的朋友很	-11.2458
koyokoy	-11.2461
piokot	-11.2462
▁omavak	-11.2462
iteyto	-11.2463
你告訴我	-11.2469
panmama	-11.2469
alkek	-11.2469
我的牙齒	-11.247
peypangayan	-11.2471
opag	-11.2473
傳統領袖	-11.2473
我去跟他	-11.2479
我跌倒的	-11.248
欺騙	-11.2481
kamaraw	-11.2483
keyray	-11.2487
teymakey	-11.2487
很想念祖母	-11.2488
是我們部落	-11.2489
piyoyo	-11.2489
哭鬧	-11.2492
你有看到	-11.2493
要吃米飯	-11.2494
▁rarake	-11.2495
▁我哥哥很	-11.2496
pivatevatek	-11.2496
matamata	-11.2501
來我家	-11.2503
▁mangaha	-11.2509
傳統社會	-11.2516
▁tomoz	-11.2525
你先去	-11.2531
一起去游泳	-11.2533
事務	-11.2538
padondon	-11.2543
角落	-11.2551
計算出	-11.2552
pepe	-11.2553
pnet	-11.2555
腫起來	-11.2561
eralay	-11.2567
kanateng	-11.2569
的地瓜都	-11.2575
jingyen	-11.2575
tokos	-11.2575
芋頭葉	-11.2586
zagzag	-11.2613
yakes	-11.2621
raley	-11.2624
▁malangi	-11.2629
豬舍	-11.263
avatava	-11.2638
pimoamoa	-11.2642
eynoy	-11.2648
manokos	-11.2649
macilovot	-11.2664
讓它活	-11.2668
nayoan	-11.2701
▁valiat	-11.2711
▁kakzeb	-11.2733
捲走	-11.2739
▁mawai	-11.2747
我的揹籃	-11.2756
maciloloi	-11.2764
tamtamekan	-11.2767
的書給我	-11.2769
幾歲	-11.2771
什麼時候回來	-11.28
miyoyo	-11.2811
mamir	-11.2897
makakala	-11.294
ivaliat	-11.3017
剛才不是	-11.3037
▁pasal	-11.3045
張椅子很重	-11.311
▁miali	-11.3123
omw	-11.3167
喜歡畫畫	-11.3188
ipanap	-11.3195
可吃的魚類	-11.3246
是我的朋友	-11.3258
伸出	-11.3272
連續幾	-11.3305
tapil	-11.3329
們天天來這裡吃晚餐	-11.3426
不會忘記	-11.3481
抽出	-11.363
大的雨	-11.3656
pasagit	-11.3678
們的田	-11.3689
pipili	-11.3848
nirara	-11.4032
ikozi	-11.4049
mlivon	-11.4125
蘭嶼的達悟族	-11.4171
▁maspi	-11.4178
remen	-11.4285
快逃	-11.4445
padpon	-11.4614
kagagan	-11.5006
kavakes	-11.501
somdep	-11.5013
Omaw	-11.5013
akokey	-11.5025
mowney	-11.5028
cinedkeran	-11.5031
mojis	-11.5032
simaraw	-11.5038
▁Mangd	-11.505
madadaya	-11.5416
▁pant	-11.5452
▁makatoto	-11.5586
▁我們去涼台	-11.5606
▁matetene	-11.575
ipalayo	-11.5752
那張椅子很	-11.5962
▁mipas	-11.6135
▁manir	-11.6204
▁你剛才	-11.6221
mapate	-11.6316
rehmet	-11.6407
valavala	-11.6447
是族人最	-11.6497
nton	-11.6545
就讓它	-11.6582
▁zaneg	-11.6665
濕	-11.6673
akaha	-11.6709
pnezak	-11.6728
▁makanat	-11.6749
ralayan	-11.6753
dondon	-11.6769
abedbe	-11.6816
鬼頭刀	-11.6834
ivatevatek	-11.684
ranes	-11.6851
我很想念	-11.6853
lologod	-11.686
palo	-11.6875
▁obowbot	-11.6875
▁matene	-11.6884
都是女	-11.6897
amet	-11.6904
taretarek	-11.6907
cicinda	-11.6907
ivoga	-11.6911
omci	-11.6912
的傳家	-11.6912
yciar	-11.6916
述	-11.6918
▁Tana	-11.6918
帽	-11.6919
田裡撿田螺	-11.6919
妻	-11.6921
裙	-11.6921
橘	-11.6921
eyheza	-11.6923
課	-11.6925
▁快樂王子拜託燕子	-11.6926
▁bedbe	-11.6927
ahakey	-11.6927
覺	-11.6929
全村一起	-11.6929
迫	-11.6929
基	-11.693
尋	-11.6931
震	-11.6931
豬耳上	-11.6931
舌	-11.6931
鮮	-11.6932
墾	-11.6932
植	-11.6932
訪	-11.6932
誕	-11.6932
炒	-11.6932
享	-11.6932
pele	-11.6932
儀	-11.6932
舂	-11.6933
loalovot	-11.6933
澡	-11.6933
港	-11.6934
那間房子	-11.6934
校	-11.6934
束	-11.6934
戲	-11.6934
▁itetnge	-11.6934
抖	-11.6934
藍	-11.6934
雖	-11.6934
近親結婚	-11.6934
淨	-11.6934
烘	-11.6934
毒	-11.6934
曆	-11.6934
界	-11.6934
▁林投樹	-11.6934
都在戰爭中被	-11.6934
甲	-11.6934
號	-11.6934
袖	-11.6934
禁	-11.6934
抗	-11.6935
訴	-11.6935
富	-11.6935
勇	-11.6935
益	-11.6935
隙	-11.6935
齒	-11.6935
奮	-11.6935
隆	-11.6935
曠	-11.6935
禦	-11.6935
X	-11.6935
嫩	-11.6935
耐	-11.6935
轟	-11.6935
拳	-11.6935
賓	-11.6935
慈	-11.6935
舅	-11.6935
叔	-11.6935
威	-11.6935
姦	-11.6935
慘	-11.6935
穩	-11.6935
粉	-11.6935
聯	-11.6935
街	-11.6935
違	-11.6935
拌	-11.6935
捨	-11.6935
撐	-11.6935
饒	-11.6935
佔	-11.6935
剔	-11.6935
嗶	-11.6935
坡	-11.6935
宰	-11.6935
崩	-11.6935
店	-11.6935
洄	-11.6935
濃	-11.6935
詩	-11.6935
頌	-11.6935
騰	-11.6935
7	-11.6935
察	-11.6935
揀	-11.6935
湧	-11.6935
虫	-11.6935
豎	-11.6935
貨	-11.6935
週	-11.6935
酬	-11.6935
釀	-11.6935
閒	-11.6935
顫	-11.6935
壁	-11.6935
揚	-11.6935
濺	-11.6935
簡	-11.6935
V	-11.6935
嗝	-11.6935
H	-11.6935
予	-11.6935
佈	-11.6935
勸	-11.6935
叮	-11.6935
坦	-11.6935
填	-11.6935
壽	-11.6935
娘	-11.6935
宅	-11.6935
寒	-11.6935
寡	-11.6935
川	-11.6935
巫	-11.6935
弓	-11.6935
役	-11.6935
悔	-11.6935
惑	-11.6935
慮	-11.6935
戒	-11.6935
截	-11.6935
扯	-11.6935
搓	-11.6935
攔	-11.6935
昏	-11.6935
晶	-11.6935
框	-11.6935
梯	-11.6935
椒	-11.6935
橋	-11.6935
橫	-11.6935
汲	-11.6935
沛	-11.6935
派	-11.6935
淺	-11.6935
滔	-11.6935
漏	-11.6935
濁	-11.6935
燻	-11.6935
獄	-11.6935
瓢	-11.6935
痊	-11.6935
痠	-11.6935
癒	-11.6935
皿	-11.6935
盟	-11.6935
瞪	-11.6935
砸	-11.6935
碼	-11.6935
窺	-11.6935
筌	-11.6935
籍	-11.6935
籐	-11.6935
紫	-11.6935
翔	-11.6935
般	-11.6935
芽	-11.6935
茄	-11.6935
蔔	-11.6935
蕃	-11.6935
蘿	-11.6935
虛	-11.6935
註	-11.6935
謹	-11.6935
趟	-11.6935
趴	-11.6935
輛	-11.6935
輸	-11.6935
醜	-11.6935
颳	-11.6935
飄	-11.6935
鬚	-11.6935
鱗	-11.6935
搔	-11.6935
搧	-11.6935
攪	-11.6935
杓	-11.6935
湊	-11.6935
潑	-11.6935
瞧	-11.6935
脂	-11.6935
蘭	-11.6935
召	-11.6935
穢	-11.6935
俊	-11.6935
夥	-11.6935
測	-11.6935
牌	-11.6935
犁	-11.6935
盲	-11.6935
眨	-11.6935
藝	-11.6935
裏	-11.6935
訓	-11.6935
釋	-11.6935
瀉	-11.6935
聾	-11.6935
‧	-11.6935
兇	-11.6935
凱	-11.6935
吼	-11.6935
姑	-11.6935
嬉	-11.6935
尺	-11.6935
巧	-11.6935
志	-11.6935
惠	-11.6935
抹	-11.6935
揉	-11.6935
殯	-11.6935
睜	-11.6935
讚	-11.6935
趨	-11.6935
祂	-11.6935
亦	-11.6935
屆	-11.6935
徐	-11.6935
效	-11.6935
核	-11.6935
碰	-11.6935
誡	-11.6935
賜	-11.6935
辨	-11.6935
魄	-11.6935
既	-11.6936
瓶	-11.6936
智	-11.6936
撇	-11.6936
斯	-11.6936
克	-11.6936
諾	-11.6936
A	-12.3375
舍	-12.4603
休	-12.4767
擁	-12.5232
黏	-12.5246
扇	-12.5254
臨	-12.5257
班	-12.5259
擴	-12.5261
透	-12.5264
攜	-12.5264
墓	-12.5264
鋤	-12.5265
枕	-12.5265
蝨	-12.5265
斧	-12.5265
錶	-12.5265
掀	-12.5265
均	-12.5266
掐	-12.5266
蘇	-12.5266
陽	-12.5266
婆	-12.5266
搗	-12.5266
淚	-12.5267
粒	-12.5267
覆	-12.5267
飲	-12.5267
鷹	-12.5267
迅	-12.5267
穴	-12.5267
科	-12.5267
麗	-12.5267
突	-12.5267
永	-12.5267
竿	-12.5267
跌	-12.5267
謝	-12.5267
F	-12.5267
脆	-12.5268
喧	-12.5268
爪	-12.5268
販	-12.5268
贅	-12.5268
軸	-12.5268
勤	-12.5268
抵	-12.5268
旅	-12.5268
境	-12.5268
飼	-12.5268
練	-12.5268
振	-12.5268
擇	-12.5268
鉛	-12.5268
例	-12.5268
泳	-12.5268
系	-12.5268
嘔	-12.5268
曲	-12.5268
禱	-12.5268
繼	-12.5268
乖	-12.5268
傑	-12.5268
凸	-12.5268
勻	-12.5268
吟	-12.5268
夷	-12.5268
妝	-12.5268
屍	-12.5268
巒	-12.5268
巢	-12.5268
挪	-12.5268
施	-12.5268
樟	-12.5268
款	-12.5268
洲	-12.5268
滷	-12.5268
澳	-12.5268
煤	-12.5268
瑞	-12.5268
疆	-12.5268
瞬	-12.5268
礦	-12.5268
絃	-12.5268
縣	-12.5268
繳	-12.5268
肆	-12.5268
脅	-12.5268
荽	-12.5268
莉	-12.5268
虐	-12.5268
貢	-12.5268
貯	-12.5268
赴	-12.5268
遞	-12.5268
邏	-12.5268
鉅	-12.5268
騷	-12.5268
麴	-12.5268
宜	-12.5268
丈	-12.5268
技	-12.5268
裁	-12.5268
尤	-12.5268
幹	-12.5268
須	-12.5268
纏	-12.5268
兜	-12.5268
闖	-12.5268
纖	-12.5268
疫	-12.5268
畜	-12.5268
慣	-12.5268
皂	-12.5268
准	-12.5268
判	-12.5268
嗣	-12.5268
峰	-12.5268
帝	-12.5268
悠	-12.5268
惹	-12.5268
扶	-12.5268
掏	-12.5268
榕	-12.5268
蓄	-12.5268
貧	-12.5268
趣	-12.5268
遣	-12.5268
慧	-12.5268
遵	-12.5268
俗	-12.5268
餽	-12.5268
仁	-12.5268
咧	-12.5268
嗦	-12.5268
慚	-12.5268
憋	-12.5268
懇	-12.5268
昇	-12.5268
欖	-12.5268
緩	-12.5268
肌	-12.5268
臘	-12.5268
趁	-12.5268
娶	-12.5268
幣	-12.5268
裕	-12.5268
俄	-12.5269
媳	-12.5269
警	-12.5269
奶	-12.5269
偶	-12.5269
爾	-12.5269
箱	-12.5269
瞭	-12.5269
〝	-12.5269
x	-12.5269
○	-12.5269
〇	-12.5269
丐	-12.5269
么	-12.5269
乏	-12.5269
乞	-12.5269
仟	-12.5269
企	-12.5269
伍	-12.5269
佩	-12.5269
併	-12.5269
侯	-12.5269
促	-12.5269
俐	-12.5269
倚	-12.5269
偽	-12.5269
僥	-12.5269
兌	-12.5269
冊	-12.5269
刨	-12.5269
剁	-12.5269
劣	-12.5269
劫	-12.5269
募	-12.5269
匠	-12.5269
匯	-12.5269
叱	-12.5269
吉	-12.5269
吠	-12.5269
吮	-12.5269
吶	-12.5269
吻	-12.5269
呦	-12.5269
咀	-12.5269
咻	-12.5269
咽	-12.5269
哀	-12.5269
哨	-12.5269
啞	-12.5269
嗜	-12.5269
噶	-12.5269
嚀	-12.5269
嚏	-12.5269
嚥	-12.5269
囊	-12.5269
囑	-12.5269
囚	-12.5269
址	-12.5269
執	-12.5269
埸	-12.5269
塗	-12.5269
墳	-12.5269
壺	-12.5269
夕	-12.5269
奬	-12.5269
妥	-12.5269
孽	-12.5269
寵	-12.5269
寸	-12.5269
屏	-12.5269
岬	-12.5269
峽	-12.5269
巾	-12.5269
席	-12.5269
庫	-12.5269
彙	-12.5269
彰	-12.5269
徊	-12.5269
徒	-12.5269
忠	-12.5269
怡	-12.5269
惶	-12.5269
慎	-12.5269
慾	-12.5269
憤	-12.5269
憲	-12.5269
扎	-12.5269
扣	-12.5269
押	-12.5269
拂	-12.5269
拄	-12.5269
拭	-12.5269
拯	-12.5269
掙	-12.5269
揍	-12.5269
搞	-12.5269
摑	-12.5269
摳	-12.5269
撬	-12.5269
撰	-12.5269
撼	-12.5269
擤	-12.5269
攀	-12.5269
攏	-12.5269
敏	-12.5269
敞	-12.5269
昂	-12.5269
晝	-12.5269
曼	-12.5269
朱	-12.5269
朽	-12.5269
杏	-12.5269
析	-12.5269
柑	-12.5269
柔	-12.5269
柿	-12.5269
桶	-12.5269
梅	-12.5269
梢	-12.5269
棚	-12.5269
棟	-12.5269
棠	-12.5269
楓	-12.5269
槽	-12.5269
檜	-12.5269
毀	-12.5269
毆	-12.5269
汰	-12.5269
況	-12.5269
泄	-12.5269
波	-12.5269
泰	-12.5269
涉	-12.5269
液	-12.5269
涸	-12.5269
淘	-12.5269
淫	-12.5269
湍	-12.5269
溉	-12.5269
溢	-12.5269
漠	-12.5269
漱	-12.5269
潔	-12.5269
澈	-12.5269
濱	-12.5269
瀆	-12.5269
烈	-12.5269
熔	-12.5269
燬	-12.5269
燼	-12.5269
爽	-12.5269
犬	-12.5269
狂	-12.5269
獅	-12.5269
獸	-12.5269
珍	-12.5269
申	-12.5269
皆	-12.5269
皎	-12.5269
監	-12.5269
睏	-12.5269
睬	-12.5269
瞰	-12.5269
矩	-12.5269
砌	-12.5269
碑	-12.5269
碾	-12.5269
礎	-12.5269
窄	-12.5269
競	-12.5269
符	-12.5269
筋	-12.5269
簽	-12.5269
糊	-12.5269
糞	-12.5269
糧	-12.5269
素	-12.5269
紡	-12.5269
絖	-12.5269
絞	-12.5269
絡	-12.5269
綜	-12.5269
綿	-12.5269
緝	-12.5269
縮	-12.5269
績	-12.5269
缶	-12.5269
罰	-12.5269
罷	-12.5269
耽	-12.5269
聳	-12.5269
肪	-12.5269
胎	-12.5269
胞	-12.5269
腎	-12.5269
腔	-12.5269
腥	-12.5269
腹	-12.5269
膿	-12.5269
臍	-12.5269
舖	-12.5269
苞	-12.5269
莿	-12.5269
菸	-12.5269
蒂	-12.5269
蔥	-12.5269
蔭	-12.5269
薦	-12.5269
藷	-12.5269
藻	-12.5269
虧	-12.5269
蚣	-12.5269
蚤	-12.5269
蚱	-12.5269
蛀	-12.5269
蛙	-12.5269
蜢	-12.5269
蜥	-12.5269
蜴	-12.5269
融	-12.5269
蟬	-12.5269
蠑	-12.5269
蠕	-12.5269
衍	-12.5269
褻	-12.5269
誌	-12.5269
誓	-12.5269
誣	-12.5269
説	-12.5269
諸	-12.5269
譴	-12.5269
賊	-12.5269
賦	-12.5269
赦	-12.5269
趾	-12.5269
跡	-12.5269
跪	-12.5269
踝	-12.5269
蹟	-12.5269
辮	-12.5269
迴	-12.5269
邁	-12.5269
邵	-12.5269
鄧	-12.5269
鄭	-12.5269
醬	-12.5269
鍾	-12.5269
鏟	-12.5269
鑲	-12.5269
閂	-12.5269
閘	-12.5269
閩	-12.5269
闔	-12.5269
雌	-12.5269
零	-12.5269
頓	-12.5269
頰	-12.5269
顎	-12.5269
飆	-12.5269
餅	-12.5269
餿	-12.5269
饋	-12.5269
馴	-12.5269
魯	-12.5269
鰓	-12.5269
鳩	-12.5269
鴿	-12.5269
鵝	-12.5269
鷲	-12.5269
齊	-12.5269
〞	-12.5269
栽	-12.5269
\	-12.5269
仆	-12.5269
仗	-12.5269
剉	-12.5269
卵	-12.5269
哎	-12.5269
嗆	-12.5269
嗓	-12.5269
坑	-12.5269
屎	-12.5269
弔	-12.5269
悼	-12.5269
栓	-12.5269
溺	-12.5269
瓦	-12.5269
膩	-12.5269
萄	-12.5269
葡	-12.5269
虔	-12.5269
蜈	-12.5269
郊	-12.5269
鈕	-12.5269
錘	-12.5269
鑰	-12.5269
顚	-12.5269
危	-12.5269
劑	-12.5269
揪	-12.5269
枚	-12.5269
疏	-12.5269
盾	-12.5269
督	-12.5269
腡	-12.5269
蒐	-12.5269
蛤	-12.5269
詮	-12.5269
諧	-12.5269
閱	-12.5269
模	-12.5269
險	-12.5269
啟	-12.5269
姓	-12.5269
宵	-12.5269
徘	-12.5269
抒	-12.5269
旦	-12.5269
映	-12.5269
棲	-12.5269
樸	-12.5269
欸	-12.5269
殊	-12.5269
沽	-12.5269
焚	-12.5269
狩	-12.5269
猶	-12.5269
眉	-12.5269
秩	-12.5269
純	-12.5269
脊	-12.5269
芭	-12.5269
菲	-12.5269
袍	-12.5269
踴	-12.5269
驅	-12.5269
仿	-12.5269
倡	-12.5269
唤	-12.5269
埃	-12.5269
捐	-12.5269
措	-12.5269
旬	-12.5269
昔	-12.5269
氏	-12.5269
泛	-12.5269
畏	-12.5269
租	-12.5269
覓	-12.5269
軌	-12.5269
腐	-12.5269
頒	-12.5269
旗	-12.5269
羅	-12.5269
森	-12.527
尼	-12.527
齦	-12.7244
鹰	-12.7245
鸚	-12.7246
鶯	-12.7247
鰥	-12.7248
鯨	-12.7249
鯊	-12.725
鮪	-12.7251
魔	-12.7252
鬍	-12.7253
髻	-12.7254
駛	-12.7255
駕	-12.7256
饑	-12.7257
頑	-12.7258
鞭	-12.7259
陳	-12.726
陡	-12.7261
陌	-12.7262
錦	-12.7263
邪	-12.7264
逝	-12.7265
辣	-12.7266
貿	-12.7267
谷	-12.7268
謾	-12.7269
謊	-12.727
諦	-12.7271
誼	-12.7272
蝸	-12.7273
蜘	-12.7274
蛛	-12.7275
蚯	-12.7276
蚓	-12.7277
蓮	-12.7278
葵	-12.7279
華	-12.728
荖	-12.7281
苔	-12.7282
艦	-12.7283
肋	-12.7284
耘	-12.7285
耗	-12.7286
糾	-12.7287
糯	-12.7288
籤	-12.7289
簧	-12.729
究	-12.7291
私	-12.7292
秀	-12.7293
祀	-12.7294
磲	-12.7295
碩	-12.7296
硨	-12.7297
瞎	-12.7298
瞌	-12.7299
眩	-12.73
眠	-12.7301
盼	-12.7302
皺	-12.7303
痴	-12.7304
疾	-12.7305
瑚	-12.7306
琴	-12.7307
珊	-12.7308
玻	-12.7309
狹	-12.731
犧	-12.7311
炬	-12.7312
炙	-12.7313
湖	-12.7314
污	-12.7315
汛	-12.7316
槌	-12.7317
桿	-12.7318
柵	-12.7319
柚	-12.732
暢	-12.7321
撥	-12.7322
控	-12.7323
授	-12.7324
憶	-12.7325
愧	-12.7326
愉	-12.7327
惱	-12.7328
悍	-12.7329
悉	-12.733
怖	-12.7331
廢	-12.7332
廊	-12.7333
帥	-12.7334
崖	-12.7335
峭	-12.7336
宙	-12.7337
宇	-12.7338
嫉	-12.7339
娛	-12.734
委	-12.7341
姆	-12.7342
妒	-12.7343
坍	-12.7344
嘯	-12.7345
嗽	-12.7346
喻	-12.7347
啡	-12.7348
哺	-12.7349
哈	-12.735
咳	-12.7351
咖	-12.7352
咎	-12.7353
吩	-12.7354
勵	-12.7355
劍	-12.7356
凝	-12.7357
凍	-12.7358
允	-12.7359
傢	-12.736
伙	-12.7361
默	-12.7362
鴨	-12.7363
鱉	-12.7364
賭	-12.7365
豪	-12.7366
誨	-12.7367
詢	-12.7368
蟻	-12.7369
蟑	-12.737
螞	-12.7371
螂	-12.7372
蜜	-12.7373
薯	-12.7374
薩	-12.7375
蔬	-12.7376
莓	-12.7377
荷	-12.7378
舒	-12.7379
膠	-12.738
脾	-12.7381
肘	-12.7382
羨	-12.7383
繹	-12.7384
穀	-12.7385
碌	-12.7386
瞄	-12.7387
略	-12.7388
爐	-12.7389
營	-12.739
焦	-12.7391
炫	-12.7392
瀝	-12.7393
瀑	-12.7394
欣	-12.7395
檢	-12.7396
棍	-12.7397
查	-12.7398
擲	-12.7399
挨	-12.74
拒	-12.7401
拐	-12.7402
廠	-12.7403
塑	-12.7404
嚨	-12.7405
唇	-12.7406
咱	-12.7407
卷	-12.7408
僕	-12.7409
佰	-12.741
佇	-12.7411
伐	-12.7412
仔	-12.7413
亭	-12.7414
鷺	-12.7415
鷥	-12.7416
郵	-12.7417
郎	-12.7418
逛	-12.7419
迸	-12.742
蹲	-12.7421
距	-12.7422
跛	-12.7423
賺	-12.7424
諱	-12.7425
詐	-12.7426
蝠	-12.7427
蝙	-12.7428
薪	-12.7429
蕨	-12.743
萎	-12.7431
舵	-12.7432
膝	-12.7433
築	-12.7434
礙	-12.7435
燭	-12.7436
濟	-12.7437
渠	-12.7438
浴	-12.7439
榴	-12.744
桃	-12.7441
柄	-12.7442
杵	-12.7443
暑	-12.7444
掩	-12.7445
拇	-12.7446
扮	-12.7447
憫	-12.7448
慷	-12.7449
慨	-12.745
悶	-12.7451
恢	-12.7452
徙	-12.7453
帳	-12.7454
孝	-12.7455
噎	-12.7456
嘍	-12.7457
啪	-12.7458
史	-12.7459
叩	-12.746
卑	-12.7461
勁	-12.7462
兮	-12.7463
佑	-12.7464
丹	-12.7465
丘	-12.7466
鞍	-12.7467
阻	-12.7468
闢	-12.7469
遲	-12.747
逐	-12.7471
蹈	-12.7472
貌	-12.7473
診	-12.7474
裂	-12.7475
蜻	-12.7476
蜓	-12.7477
蒼	-12.7478
聆	-12.7479
耀	-12.748
紹	-12.7481
筷	-12.7482
筒	-12.7483
穫	-12.7484
烹	-12.7485
欠	-12.7486
李	-12.7487
拋	-12.7488
悲	-12.7489
廚	-12.749
康	-12.7491
姻	-12.7492
埂	-12.7493
嘗	-12.7494
厭	-12.7495
儘	-12.7496
價	-12.7497
乎	-12.7498
+	-12.7499
驕	-12.75
餚	-12.7501
賠	-12.7502
貪	-12.7503
蠅	-12.7504
蝶	-12.7505
蝴	-12.7506
簷	-12.7507
穌	-12.7508
療	-12.7509
涕	-12.751
枯	-12.7511
杯	-12.7512
折	-12.7513
忽	-12.7514
寮	-12.7515
嬸	-12.7516
培	-12.7517
冠	-12.7518
償	-12.7519
傲	-12.752
鳳	-12.7521
餘	-12.7522
韆	-12.7523
鞦	-12.7524
鈔	-12.7525
迷	-12.7526
踩	-12.7527
購	-12.7528
訝	-12.7529
託	-12.753
觸	-12.7531
蚌	-12.7532
蚊	-12.7533
苧	-12.7534
膀	-12.7535
索	-12.7536
笆	-12.7537
泉	-12.7538
梨	-12.7539
梗	-12.754
普	-12.7541
廳	-12.7542
孤	-12.7543
噁	-12.7544
司	-12.7545
傾	-12.7546
艘	-12.7547
耆	-12.7548
琉	-12.7549
熄	-12.755
洋	-12.7551
柬	-12.7552
寨	-12.7553
嬤	-12.7554
垃	-12.7555
圾	-12.7556
Z	-12.7557
雅	-12.7558
闆	-12.7559
鐮	-12.756
蘆	-12.7561
葦	-12.7562
芒	-12.7563
脖	-12.7564
股	-12.7565
炎	-12.7566
拾	-12.7567
括	-12.7568
惰	-12.7569
尊	-12.757
塘	-12.7571
嘲	-12.7572
唯	-12.7573
否	-12.7574
阱	-12.7575
責	-12.7576
蘋	-12.7577
羌	-12.7578
紛	-12.7579
璃	-12.758
燕	-12.7581
春	-12.7582
托	-12.7583
央	-12.7584
埔	-12.7585
嗇	-12.7586
吝	-12.7587
厲	-12.7588
協	-12.7589
傍	-12.759
仙	-12.7591
B	-12.7592
蔗	-12.7593
聰	-12.7594
糖	-12.7595
潛	-12.7596
洪	-12.7597
楚	-12.7598
棉	-12.7599
G	-12.76
(	-12.7601
籬	-12.7602
盆	-12.7603
茅	-12.7604
玉	-12.7605
廁	-12.7606
努	-12.7607
D	-12.7608
莊	-12.7609
狸	-12.761
搖	-12.7611
專	-12.7612
嬰	-12.7613
陸	-12.7614
虹	-12.7615
範	-12.7616
椅	-12.7617
彼	-12.7618
兔	-12.7619
狐	-12.762
桌	-12.7621
市	-12.7622
顏	-12.7623
瑙	-12.7624
戚	-12.7625
礁	-12.7626
溝	-12.7627
泥	-12.7628
橡	-12.7629
R	-12.763
辛	-12.7631
雕	-12.7632
答	-12.7633
星	-12.7634
懷	-12.7635
冬	-12.7636
鞋	-12.7637
耍	-12.7638
聊	-12.7639
育	-12.764
左	-12.7641
姨	-12.7642
C	-12.7643
颱	-12.7644
古	-12.7645
舟	-12.7646
孕	-12.7647
蕉	-12.7648
夏	-12.7649
係	-12.765
甚	-12.7651
慶	-12.7652
繩	-12.7653
昨	-12.7654
府	-12.7655
鍊	-12.7656
猴	-12.7657
漸	-12.7658
檳	-12.7659
榔	-12.766
搭	-12.7661
睛	-12.7662
政	-12.7663
螃	-12.7664
椰	-12.7665
午	-12.7666
灣	-12.7667
爺	-12.7668
青	-12.7669
朋	-12.767
嶼	-12.7671
己	-12.7672
悟	-12.7673
知	-12.7674
S	-12.7675
P	-12.7676
J	-12.7677
怎	-12.7678
芋	-12.7679
爸	-12.768
孩	-12.7681
什	-12.7682
媽	-12.7683
麼	-12.7684
v	-12.7685
