<pad>	0
<unk>	0
<s>	0
</s>	0
<2bnn>	0
<2zh>	0
▁	-1.70219
,	-3.45653
.	-3.68199
。	-3.78642
'	-4.04031
▁to	-4.07565
?	-4.2962
-	-4.4335
an	-4.63213
▁a	-4.65722
a	-4.80056
▁hai	-4.80555
的	-4.81425
on	-4.98811
▁mas	-5.08846
in	-5.14185
i	-5.40617
▁na	-5.45913
▁ma	-5.59388
是	-5.63101
了	-5.64116
▁ca	-5.7512
o	-5.75668
az	-5.78921
!	-5.84844
嗎	-5.91898
▁ka	-5.92613
我	-5.95272
▁Ma	-5.99109
在	-6.07948
ia	-6.08561
ang	-6.09262
有	-6.09424
▁is	-6.11817
▁bonon	-6.19796
to	-6.25711
▁i	-6.31347
s	-6.32571
▁sia	-6.33573
ta	-6.33645
▁amin	-6.36167
is	-6.37513
▁mais	-6.37818
不	-6.38015
要	-6.41523
、	-6.47598
av	-6.52771
cia	-6.5295
▁ta	-6.54168
▁我	-6.54885
你	-6.57497
▁cia	-6.60199
ko	-6.60607
他	-6.61983
▁nii	-6.62392
▁saikin	-6.63223
▁你	-6.63409
▁sa	-6.64067
as	-6.66244
去	-6.67899
我們	-6.67945
ma	-6.68239
▁min	-6.68466
t	-6.68956
到	-6.69038
▁topa	-6.70917
人	-6.72057
說	-6.72946
子	-6.73003
會	-6.7346
▁so	-6.7474
被	-6.75503
就	-6.76747
ka	-6.77321
aq	-6.78515
;	-6.79308
▁Na	-6.80392
na	-6.80799
▁aso	-6.81051
n	-6.81501
▁Bonon	-6.82734
▁dii	-6.82976
▁at	-6.86913
▁他	-6.87102
▁pa	-6.90676
用	-6.915
▁aiza	-6.91753
很	-6.92836
和	-6.95029
▁asa	-6.95185
q	-6.95456
lo	-6.9576
so	-6.96224
▁ki	-6.96546
一	-6.97763
沒有	-6.99994
oni	-7.01125
ha	-7.01482
▁sin	-7.01983
▁dao	-7.02715
ba	-7.03049
時	-7.03406
大	-7.04462
▁maza	-7.06682
好	-7.06986
▁ni	-7.07146
os	-7.07536
上	-7.07712
對	-7.09091
▁mo	-7.09248
▁qa	-7.09438
▁mahto	-7.09536
▁aopa	-7.09655
來	-7.09812
▁我們	-7.10511
吃	-7.11352
pa	-7.1154
他們	-7.11978
▁Maza	-7.12105
因為	-7.1228
/	-7.14086
▁ito	-7.1428
h	-7.16852
ho	-7.17295
把	-7.17723
▁ha	-7.19311
▁tama	-7.19506
▁saia	-7.22161
也	-7.22234
▁soo	-7.24458
▁inaak	-7.26229
ik	-7.26458
ng	-7.26542
ong	-7.27539
▁cin	-7.27813
tan	-7.27882
著	-7.32145
p	-7.33974
▁nito	-7.34078
這個	-7.34378
▁Uo	-7.34941
:	-7.35724
▁kaso	-7.36129
qo	-7.36526
▁maqto	-7.36694
▁Mais	-7.36935
m	-7.37224
的時候	-7.37244
la	-7.38317
▁maca	-7.39265
qa	-7.39695
水	-7.39866
l	-7.40396
▁ata	-7.40851
ki	-7.41032
sa	-7.4138
▁sado	-7.41442
do	-7.43045
si	-7.43389
可以	-7.43485
c	-7.44266
▁maon	-7.46312
ak	-7.46347
▁nai	-7.46796
地	-7.46968
▁cak	-7.46976
e	-7.47018
頭	-7.47731
看	-7.4788
▁haip	-7.47963
▁"	-7.4858
▁I	-7.48636
▁si	-7.49734
過	-7.49849
▁他們	-7.5008
li	-7.5074
▁mon	-7.50841
都	-7.50861
的人	-7.50895
da	-7.51049
▁mal	-7.51128
▁saak	-7.51789
▁Ka	-7.5204
▁naak	-7.52141
bo	-7.52628
▁saicia	-7.52637
做	-7.53144
這	-7.53829
山	-7.54232
▁ko	-7.54683
va	-7.54687
ok	-7.55542
▁ovaaz	-7.55624
中	-7.56113
di	-7.56275
▁isaicia	-7.56716
ol	-7.56843
下	-7.56873
al	-7.57297
▁mapa	-7.5745
小	-7.58053
在哪裡	-7.588
ci	-7.60725
▁是的	-7.60912
帶	-7.62017
▁aak	-7.62033
裡	-7.62093
▁isia	-7.62348
k	-7.638
▁tan	-7.63922
kon	-7.64016
▁cina	-7.64365
▁tas	-7.64715
▁mai	-7.65442
mo	-7.65545
z	-7.67961
oq	-7.68007
sia	-7.68337
ca	-7.6871
那個	-7.69351
她	-7.69661
很多	-7.69949
ah	-7.70144
▁Nii	-7.71274
:「	-7.71832
ing	-7.72021
anak	-7.72142
▁soi	-7.7249
▁ovaz	-7.72649
▁oka	-7.72719
所	-7.73171
▁siin	-7.73683
▁Haiza	-7.74186
長	-7.74626
從	-7.75035
han	-7.75234
▁maopa	-7.75671
什麼	-7.76053
種	-7.76131
▁A	-7.76401
叫	-7.76418
▁Pa	-7.7778
▁Ado	-7.78912
呢	-7.79152
ton	-7.7956
▁ti	-7.79798
▁isoo	-7.79842
老師	-7.80187
打	-7.81527
給	-7.81786
▁pan	-7.82271
hai	-7.82361
co	-7.82614
▁lodon	-7.82962
▁kaimin	-7.83116
▁azak	-7.83183
為	-7.83342
▁lomaq	-7.83372
▁masnanava	-7.83824
▁haiza	-7.83898
po	-7.83962
io	-7.84515
走	-7.84585
▁topaon	-7.8465
▁lomah	-7.85048
▁lokis	-7.85142
▁Asa	-7.85321
▁aipa	-7.85946
家	-7.86005
▁mako	-7.86215
工作	-7.86477
▁kosia	-7.86635
還	-7.8681
daingaz	-7.86883
▁oo	-7.87093
▁pis	-7.87436
這些	-7.87747
▁nak	-7.88387
▁zako	-7.88422
▁sain	-7.88425
u	-7.89082
▁moskon	-7.89185
bin	-7.8954
的話	-7.89541
小孩	-7.89756
起來	-7.90286
▁maszang	-7.90545
▁kata	-7.91186
媽媽	-7.91759
喜歡	-7.92158
▁tasto	-7.9248
狗	-7.92848
it	-7.936
ti	-7.93993
非常	-7.94202
▁inak	-7.94231
▁masa	-7.94421
吧	-7.94482
那	-7.94695
跟	-7.94866
▁asang	-7.95155
qai	-7.9572
▁這是	-7.95724
▁siza	-7.9574
▁Maca	-7.96534
小米	-7.96853
b	-7.97475
多	-7.9762
我的	-7.97776
一起	-7.98886
iv	-7.99526
以	-7.99534
cin	-7.99569
▁kozakoza	-8.00137
▁bananaz	-8.00148
「	-8.00517
mas	-8.01038
▁tina	-8.01129
▁sopah	-8.01294
▁madia	-8.0131
▁diqanin	-8.01559
▁ai	-8.01895
先	-8.01924
▁mazima	-8.01952
▁sai	-8.0201
▁Mo	-8.02359
▁pi	-8.02379
那些	-8.02549
買	-8.02797
▁tal	-8.03482
▁mata	-8.0357
▁Ni	-8.03721
▁danom	-8.03967
後	-8.0416
就是	-8.04432
肉	-8.04549
出	-8.04758
▁laopako	-8.05123
▁Is	-8.05243
za	-8.0547
一個	-8.05503
而	-8.05579
得	-8.05779
▁請	-8.05786
▁那個	-8.05909
▁maz	-8.0593
▁naipa	-8.06002
las	-8.06541
onin	-8.06785
錢	-8.0692
▁Aiza	-8.07471
成	-8.07715
▁Ta	-8.07751
ai	-8.07797
Uo	-8.0825
▁pin	-8.08268
看到	-8.08296
已經	-8.08326
▁madadaingaz	-8.08488
部落	-8.09214
之	-8.09323
no	-8.09567
手	-8.10231
aza	-8.11138
▁takna	-8.11404
▁iso	-8.11634
花	-8.1184
▁Min	-8.11922
▁la	-8.11932
▁tai	-8.11948
不會	-8.12326
oo	-8.12344
▁Maaq	-8.12351
▁habas	-8.12355
菜	-8.1236
天	-8.12376
想	-8.12499
il	-8.12504
▁doma	-8.12921
布農族	-8.12986
tas	-8.12989
生	-8.13298
▁han	-8.13462
我們的	-8.1406
daza	-8.14074
▁kaviaz	-8.14206
am	-8.14314
at	-8.14696
啊	-8.1482
▁madas	-8.15657
anin	-8.15682
現在	-8.16741
pia	-8.17352
心	-8.17714
你們	-8.17839
vi	-8.17874
zo	-8.18164
▁aas	-8.18371
▁ngaan	-8.18531
▁boan	-8.18841
nga	-8.18859
▁這個	-8.19226
▁haan	-8.19315
使	-8.19433
煮	-8.19622
請	-8.19699
拿	-8.1981
▁ado	-8.19856
將	-8.20098
開	-8.20584
酒	-8.20649
聽	-8.20722
年	-8.21013
lomah	-8.21043
ima	-8.21693
▁U	-8.2182
▁qalinga	-8.22371
▁nama	-8.22387
▁kaonon	-8.2259
▁madaingaz	-8.22673
▁daingaz	-8.22881
▁Tama	-8.23219
是誰	-8.23826
再	-8.23983
樹	-8.24377
▁masial	-8.24423
▁Sa	-8.24442
住	-8.24585
lomaq	-8.24811
qan	-8.25102
沒	-8.25252
▁hanian	-8.25472
教	-8.25559
兒	-8.25724
魚	-8.26304
▁Mazima	-8.26331
不能	-8.26731
▁minsoma	-8.2694
▁Topa	-8.27012
分	-8.27078
與	-8.27473
的地方	-8.27615
高	-8.27694
放	-8.27713
ao	-8.27739
▁那是	-8.2775
▁maqa	-8.27822
▁如果	-8.28132
▁我的	-8.28218
▁vali	-8.28415
當	-8.28528
▁qamisan	-8.28625
個	-8.28683
"	-8.29013
▁imita	-8.29259
▁patasan	-8.29355
知道	-8.29372
dan	-8.29473
▁mita	-8.29493
g	-8.29711
回家	-8.30016
onko	-8.30285
▁ton	-8.30497
▁aat	-8.31167
一直	-8.31297
。」	-8.31426
opa	-8.31478
這裡	-8.31839
▁pat	-8.32126
▁tin	-8.3238
▁dosa	-8.32436
力	-8.32821
以前	-8.32965
▁ihaan	-8.3344
pin	-8.33501
los	-8.33729
」	-8.34101
但是	-8.34562
事	-8.34727
mi	-8.34837
▁mabaliv	-8.34923
amin	-8.35241
草	-8.35296
學校	-8.36112
▁man	-8.36271
avang	-8.36699
▁kan	-8.36974
鳥	-8.37186
nanaz	-8.37389
不是	-8.37454
▁taqo	-8.37643
▁sian	-8.37707
▁那	-8.37966
▁qabas	-8.38033
太	-8.38453
指	-8.38545
▁tasa	-8.38692
ot	-8.38813
▁aip	-8.38849
▁sadoo	-8.39196
▁mangki	-8.39271
讓	-8.39533
所以	-8.39719
▁To	-8.39737
▁amo	-8.39761
>	-8.40517
<	-8.40517
hal	-8.40825
布農族人	-8.40952
lan	-8.41101
▁sala	-8.42383
背	-8.42426
喝	-8.42432
▁ova	-8.42444
你的	-8.42551
pat	-8.42622
玩	-8.43192
Nii	-8.43429
豬	-8.43805
▁tao	-8.43813
▁madoh	-8.44862
lai	-8.44899
還有	-8.45021
東西	-8.45141
昨天	-8.45232
布農族的	-8.45333
pingaz	-8.45379
火	-8.4538
amo	-8.45476
不要	-8.45533
這是	-8.45695
掉	-8.45948
叫做	-8.46221
▁你們	-8.46408
vang	-8.46888
kin	-8.46921
▁La	-8.46992
阿	-8.4737
."	-8.47741
點	-8.47796
▁sanglav	-8.47851
米	-8.48008
▁maka	-8.48453
iap	-8.48633
書	-8.48782
long	-8.49043
Ma	-8.49045
青蛙	-8.49388
又	-8.49535
那邊	-8.49556
起	-8.4981
獵	-8.49891
▁binanao	-8.49954
於	-8.50013
衣服	-8.50115
自己	-8.50158
ic	-8.502
眼	-8.50263
▁naia	-8.50323
▁ispa	-8.50532
ica	-8.50692
月	-8.50763
nin	-8.51068
▁ngan	-8.51086
最	-8.51117
找	-8.512
祭	-8.51256
daing	-8.51283
aan	-8.51651
動	-8.51688
他的	-8.51705
▁kai	-8.51813
dang	-8.51865
▁sadoan	-8.51973
真的	-8.52127
pan	-8.52164
topa	-8.52688
▁daan	-8.52764
學	-8.52887
▁mac	-8.52896
dosa	-8.53041
雞	-8.53131
▁Maqto	-8.5329
ian	-8.53296
▁kat	-8.53316
ni	-8.53688
老	-8.53854
朋友	-8.53955
1	-8.53963
aang	-8.54501
ban	-8.54554
san	-8.54562
在這裡	-8.54623
▁mama	-8.5467
▁kilim	-8.5532
oka	-8.55376
流	-8.55506
mang	-8.55602
anan	-8.55753
▁homa	-8.5587
好嗎	-8.56076
▁sanavan	-8.56102
kas	-8.56128
▁Pi	-8.56194
也是	-8.56215
物	-8.5622
▁malospingaz	-8.56292
ning	-8.56606
▁malas	-8.56707
很好	-8.56707
用來	-8.56727
行	-8.56856
▁Si	-8.56874
怎麼	-8.56955
▁Inaak	-8.56987
啦	-8.57071
▁maiza	-8.57368
這樣	-8.57524
haan	-8.57649
vaivi	-8.57749
Subali	-8.57857
▁cici	-8.57993
▁我要	-8.5808
發	-8.58099
ikit	-8.58185
▁以前	-8.58286
三	-8.58451
唱	-8.58615
▁Sobali	-8.58649
▁tantongo	-8.58705
讀書	-8.58781
oan	-8.5879
ita	-8.58814
像	-8.58823
▁pal	-8.59178
▁sidoq	-8.59269
快	-8.5932
牛	-8.59413
▁tastolomaq	-8.59499
▁kaopa	-8.60203
大家	-8.60205
倒	-8.60252
▁olos	-8.60449
...	-8.60522
▁M	-8.60652
kal	-8.60741
筆	-8.6101
▁aam	-8.61024
▁Ko	-8.6105
sing	-8.611
oh	-8.61191
法	-8.61262
▁haito	-8.61441
cis	-8.61517
者	-8.61864
回	-8.61979
女	-8.62326
iti	-8.62675
▁mi	-8.62761
太陽	-8.628
▁masipol	-8.62853
▁Isaq	-8.6299
誰	-8.6302
aon	-8.63812
▁mato	-8.63897
布	-8.64364
haz	-8.64467
到了	-8.64593
nao	-8.64674
唱歌	-8.64785
回來	-8.64958
d	-8.65273
▁qan	-8.65546
om	-8.65699
作	-8.65999
Q	-8.66003
講	-8.66059
ling	-8.66102
生活	-8.66173
▁Uka	-8.66356
只有	-8.66494
就會	-8.66644
自	-8.6685
等	-8.66873
外	-8.66891
常	-8.67
▁Mal	-8.67166
lang	-8.67491
車	-8.67614
nava	-8.6776
愛	-8.67797
元	-8.67803
tala	-8.67836
▁kolomah	-8.67927
玉米	-8.68071
hav	-8.68212
我要	-8.68273
十	-8.68583
▁haising	-8.68699
▁masamo	-8.68711
同	-8.68715
▁malka	-8.68934
▁istaa	-8.68975
▁mapi	-8.6906
pos	-8.69311
isaq	-8.69471
tal	-8.69495
▁她	-8.69501
tao	-8.69504
▁miliskin	-8.69566
▁你的	-8.69674
重	-8.6986
有很多	-8.70045
們	-8.70147
之後	-8.70512
vo	-8.70896
▁今天	-8.71074
處	-8.71184
aiza	-8.71289
▁sisioh	-8.71371
▁這	-8.71593
放在	-8.71598
pas	-8.7166
▁Piaq	-8.71738
是什麼	-8.72115
▁媽媽	-8.72323
▁mapo	-8.72554
睡覺	-8.72562
kos	-8.72585
但	-8.7259
▁sinpa	-8.7263
抓	-8.72787
▁B	-8.72837
族	-8.72993
麻	-8.73173
▁davos	-8.73185
飯	-8.73784
▁zami	-8.73866
叔叔	-8.74098
▁kahozas	-8.74234
▁naicia	-8.74325
▁Ica	-8.74401
doo	-8.74461
asang	-8.74693
兩	-8.747
向	-8.75013
四	-8.75024
若	-8.7503
拉	-8.7503
▁ii	-8.75217
▁qai	-8.75432
▁los	-8.75698
洗	-8.75769
min	-8.7585
dao	-8.75965
ap	-8.75994
腳	-8.76003
▁現在	-8.76084
isa	-8.76254
dip	-8.76406
lodon	-8.76543
▁pit	-8.76579
▁heza	-8.76591
▁mapin	-8.76621
因	-8.76813
▁holos	-8.76947
▁madaing	-8.76959
▁mapasnava	-8.77141
maq	-8.77164
dia	-8.77176
▁saam	-8.77199
取	-8.77286
男	-8.77522
田	-8.77638
參加	-8.77882
學習	-8.77882
比較	-8.77884
常常	-8.77898
如果	-8.77909
走路	-8.77918
變成	-8.78063
lav	-8.7819
▁mis	-8.78525
偷	-8.78775
穿	-8.78782
▁mabananaz	-8.78804
禁忌	-8.7885
開始	-8.7885
橘子	-8.78855
月亮	-8.78866
▁不要	-8.79229
聲	-8.79755
殺	-8.79813
▁izok	-8.7983
▁Isia	-8.79844
為什麼	-8.79877
▁Papia	-8.79908
apav	-8.79923
▁Nama	-8.79984
ngan	-8.80186
才	-8.8049
▁不是	-8.80501
▁makoa	-8.80543
▁老師	-8.80561
▁babo	-8.80574
變	-8.80587
▁ispapatas	-8.80834
▁mastaan	-8.80891
吃飯	-8.81098
正在	-8.81133
has	-8.81149
mal	-8.81197
▁Isa	-8.81437
asa	-8.81454
那裡	-8.81489
▁pon	-8.81553
我們要	-8.81609
日	-8.81656
▁taki	-8.81659
相	-8.8175
五	-8.81791
歌	-8.81793
關	-8.81855
▁paka	-8.81856
▁acang	-8.81901
▁bongo	-8.82066
diip	-8.82173
pot	-8.82217
了嗎	-8.82499
方	-8.82624
痛	-8.82707
如	-8.82785
▁talolong	-8.82821
老人家	-8.82848
bi	-8.82936
▁maqanciap	-8.83122
▁Maopa	-8.83171
lis	-8.83278
▁mapatas	-8.83498
tos	-8.8364
路	-8.83787
比	-8.83826
哥哥	-8.83836
▁hanop	-8.83889
必須	-8.83948
進	-8.83978
女人	-8.84
▁ovavaz	-8.8414
可	-8.84161
▁modaan	-8.84184
能	-8.84214
oaz	-8.84451
一樣	-8.8473
木	-8.84771
▁tis	-8.84799
T	-8.84808
飛	-8.84855
平	-8.84858
▁holoc	-8.84876
qabas	-8.8493
▁azam	-8.85117
saba	-8.85199
Bonon	-8.85347
sado	-8.85384
▁所以	-8.8565
問	-8.8577
跑	-8.85892
saicia	-8.86105
學生	-8.8615
▁maopacia	-8.86181
v	-8.862
▁qani	-8.86256
▁sidoh	-8.86259
patas	-8.86262
▁nam	-8.86366
▁toza	-8.8646
只	-8.86468
▁tais	-8.86591
kaz	-8.86605
▁dalah	-8.86688
mot	-8.86694
蓋	-8.86943
應該	-8.86956
語	-8.87409
ac	-8.87509
▁halinga	-8.87725
它	-8.87921
打獵	-8.87948
場	-8.87994
線	-8.88016
▁Sopah	-8.88016
ovaaz	-8.88043
▁haiap	-8.88369
我會	-8.88431
▁qanop	-8.88456
死	-8.88561
▁Pia	-8.88607
tamasaz	-8.88709
或	-8.88724
親	-8.88922
Ta	-8.8894
口	-8.89071
往	-8.89073
父親	-8.89108
▁nano	-8.8924
hi	-8.89544
邊	-8.89819
明天	-8.89869
食	-8.89992
竹	-8.90148
今天	-8.9031
pon	-8.90329
別	-8.90469
▁mataz	-8.90547
oc	-8.90618
vali	-8.90645
▁mastan	-8.90652
▁monhan	-8.90777
▁isian	-8.90784
收	-8.90882
▁monhaan	-8.90918
前	-8.90973
▁他的	-8.9099
▁Sin	-8.91163
海	-8.9119
2	-8.91249
▁inaam	-8.9131
▁caak	-8.91577
以後	-8.9196
地瓜	-8.92288
氣	-8.92291
星星	-8.92369
▁ahil	-8.92401
晚上	-8.92434
▁kana	-8.92486
▁molomaq	-8.92556
daq	-8.92687
hos	-8.92726
▁cam	-8.9311
aipi	-8.93226
達	-8.93357
羊	-8.93443
亮	-8.93476
師	-8.93476
祖先	-8.9348
風	-8.93481
skon	-8.93488
跳舞	-8.93499
dailaz	-8.93519
▁maaq	-8.93572
▁sao	-8.93602
人們	-8.93669
▁sidi	-8.93875
▁me	-8.94186
kai	-8.9453
石頭	-8.94577
意	-8.94611
無	-8.94612
▁Talom	-8.94676
如何	-8.9485
我是	-8.94852
pala	-8.95149
▁maci	-8.95336
dai	-8.95757
球	-8.95772
隻	-8.9586
doan	-8.96076
送	-8.9627
aso	-8.96559
▁naip	-8.96598
已	-8.96671
▁ima	-8.96672
daan	-8.96675
▁Kaa	-8.96707
話	-8.96727
ngaos	-8.96819
接	-8.96852
由	-8.96855
雨	-8.96879
音	-8.96911
刀	-8.96914
otong	-8.97227
sisi	-8.97298
▁pai	-8.97481
▁Maz	-8.97602
被我	-8.9773
名	-8.97856
那隻	-8.98002
qais	-8.98065
haqo	-8.98328
iko	-8.9859
pis	-8.98913
▁pais	-8.98958
在家	-8.99115
記	-8.99261
蟲	-8.99288
▁lotbo	-8.99471
▁Masa	-8.99795
想要	-8.99806
▁kamo	-9.00067
▁maha	-9.00309
▁po	-9.00492
ih	-9.005
▁vaivivaivi	-9.00502
▁aingka	-9.0052
▁Bonontoza	-9.00585
baliv	-9.00669
bos	-9.00723
家裡	-9.00852
▁masabah	-9.0088
hodas	-9.00943
aopa	-9.01268
▁di	-9.01332
▁qodas	-9.01648
客	-9.01705
▁sinkozakoza	-9.01712
bon	-9.01756
謝謝	-9.01856
▁moo	-9.02045
▁macial	-9.02105
▁Mon	-9.02146
adas	-9.02263
▁malasBonon	-9.02966
獵物	-9.02977
▁mali	-9.03055
▁So	-9.03177
▁Ina	-9.03493
asik	-9.03568
▁taho	-9.03971
一隻	-9.04006
sbai	-9.04117
白	-9.0415
燒	-9.04171
告	-9.04176
養	-9.04187
換	-9.0419
一點	-9.04192
布農人	-9.043
▁Lo	-9.04359
▁cis	-9.04405
出來	-9.04437
habas	-9.04619
▁samo	-9.04683
射	-9.04713
!」	-9.04774
A	-9.04806
olan	-9.04835
aho	-9.04993
▁Ua	-9.05383
形	-9.05435
香蕉	-9.05451
很久	-9.05518
?」	-9.05702
▁masmoav	-9.05912
▁Ton	-9.05999
pal	-9.06049
▁maopata	-9.06116
▁namin	-9.06135
有人	-9.06236
▁mada	-9.06308
都是	-9.06314
位	-9.06416
還是	-9.06636
部	-9.0669
加	-9.06715
望	-9.06724
兄弟姊妹	-9.06729
▁dihanin	-9.0673
▁tat	-9.06841
男人	-9.06933
▁bazbaz	-9.07121
類	-9.07621
歲	-9.07656
▁ivot	-9.0773
▁miqomic	-9.07814
也會	-9.07913
晚	-9.07928
道	-9.0799
輕	-9.07996
▁mah	-9.08004
牠	-9.08007
滿	-9.08017
Talum	-9.08024
母親	-9.08032
▁kini	-9.08107
kav	-9.08239
▁Maaz	-9.08352
哪裡	-9.08516
一定	-9.0882
pol	-9.09107
▁tacini	-9.09199
完	-9.09211
奶奶	-9.09213
原	-9.09234
pataz	-9.09263
祖母	-9.09326
每天	-9.09354
▁modadaan	-9.09369
▁kakaonon	-9.09407
看起來	-9.09518
▁hazam	-9.09597
▁naoba	-9.09653
你好	-9.09687
sial	-9.09898
qanciap	-9.09974
▁icia	-9.10326
今年	-9.10421
麼	-9.10525
van	-9.10622
第	-9.10654
婚	-9.10658
叫甚麼名字	-9.10664
▁mahansiap	-9.10664
▁haimangsot	-9.10747
跟著	-9.10875
tasa	-9.10886
不知道	-9.11034
房子	-9.1104
一定要	-9.1127
家族	-9.11281
I	-9.11281
▁habasang	-9.11319
▁ovaaza	-9.11518
sal	-9.11769
身體	-9.11901
dangaz	-9.11919
dengaz	-9.11956
5	-9.1199
拜訪	-9.12011
追	-9.12011
很大	-9.12098
是嗎	-9.12105
▁manaskal	-9.12239
▁kama	-9.12271
互相	-9.12336
▁ciin	-9.125
那是	-9.12738
sabah	-9.1282
▁mala	-9.13
然	-9.13169
祖父	-9.13354
颱風	-9.13376
▁oboh	-9.13428
dii	-9.13521
▁manao	-9.13592
▁Manao	-9.1385
別人	-9.13898
醫生	-9.13952
singav	-9.1403
不可以	-9.14115
妹妹	-9.14201
▁madoq	-9.14389
▁mat	-9.14395
sain	-9.14572
的衣服	-9.14576
見	-9.14669
喔	-9.14674
裡面	-9.14674
壞	-9.14739
kinoz	-9.14779
▁saipok	-9.1479
▁bato	-9.1479
信	-9.15073
▁Maiza	-9.15135
tangos	-9.15536
▁Madia	-9.15594
vaz	-9.15657
在那裡	-9.15683
im	-9.15721
anko	-9.15794
食物	-9.1589
zong	-9.15923
sinap	-9.16035
門	-9.16086
皮	-9.16136
紅	-9.16155
蛋	-9.16164
藥	-9.16164
是否	-9.16271
kaopa	-9.16526
sopah	-9.16558
孩子們	-9.1678
幾	-9.16877
▁pali	-9.16909
es	-9.16966
C	-9.17089
sian	-9.17145
便	-9.1755
合	-9.17556
lovlov	-9.17587
▁sapalan	-9.17589
▁pandian	-9.1759
▁Moskon	-9.17635
▁An	-9.1767
sang	-9.17764
▁你怎麼	-9.17775
布農語	-9.17801
▁ala	-9.17834
dong	-9.18243
其他	-9.18248
熱	-9.18284
dahpa	-9.18344
cak	-9.18433
▁Taki	-9.18439
很高	-9.18478
ama	-9.18486
過去	-9.18546
kat	-9.18615
▁mapos	-9.18772
▁adii	-9.18937
明	-9.18995
剛	-9.18995
入	-9.19016
蛇	-9.19019
▁masitoqas	-9.19031
咬	-9.19031
雖然	-9.19032
▁bonbon	-9.19034
davoc	-9.19036
▁babalivan	-9.19083
▁hanvang	-9.19109
▁mantan	-9.1915
nak	-9.19199
豬肉	-9.1928
▁Sima	-9.19409
▁kaoman	-9.19417
小孩子	-9.19421
▁布農族	-9.19441
回去	-9.19571
▁oa	-9.19606
▁libos	-9.19725
qas	-9.19941
▁dangian	-9.19998
▁Makoa	-9.20079
nan	-9.20101
▁tolkok	-9.20105
szang	-9.20193
山豬	-9.20222
整	-9.2027
▁Mai	-9.20298
▁ana	-9.20323
▁sinsi	-9.20348
身	-9.20396
離	-9.20468
公	-9.20471
祭典	-9.2049
▁masinaoba	-9.20496
▁你有幾個	-9.20501
▁laopadao	-9.20502
織布	-9.20507
▁mapas	-9.20845
病	-9.21007
▁sangan	-9.21168
bonon	-9.21256
正	-9.21459
▁Tai	-9.21734
ngi	-9.21744
ito	-9.21795
陷阱	-9.21881
▁pangka	-9.21946
砍	-9.2196
▁tamacina	-9.22046
那位	-9.22107
damo	-9.22135
全	-9.22159
族語	-9.22185
▁Mako	-9.22297
loc	-9.22362
avan	-9.22396
dol	-9.22397
cing	-9.22441
▁Mas	-9.22503
使用	-9.22558
pok	-9.2262
zav	-9.22662
原來	-9.22751
ngadah	-9.2276
八	-9.22761
▁從前	-9.22772
來了	-9.22823
▁P	-9.23239
少	-9.2334
nom	-9.23368
舉行	-9.23489
▁Daho	-9.23493
姊姊	-9.23493
幫忙	-9.23495
故事	-9.23498
mantok	-9.23673
光	-9.23689
▁Simaq	-9.23733
toza	-9.24284
▁maisna	-9.24479
iska	-9.24496
vai	-9.24523
▁maso	-9.24583
坐	-9.24735
▁iska	-9.24764
▁Habas	-9.24796
快樂	-9.24854
▁coi	-9.24913
包	-9.24999
父母	-9.25014
游泳	-9.25019
交	-9.25025
算	-9.25026
▁masabaq	-9.25028
借	-9.25194
▁ovavaaz	-9.25409
anat	-9.2585
nasia	-9.26209
間	-9.26407
黑	-9.26543
及	-9.26548
qomic	-9.2656
momo	-9.26578
)	-9.26581
烤	-9.26581
Vilian	-9.26582
熊	-9.26582
3	-9.26583
休息	-9.26583
▁In	-9.26839
ngo	-9.26901
bot	-9.26928
mol	-9.26999
▁daiza	-9.27016
全部	-9.27292
▁lai	-9.27419
▁nata	-9.27528
lavi	-9.27565
▁mapit	-9.27743
斷	-9.27793
nasto	-9.27811
▁modan	-9.2783
▁Tan	-9.27878
▁iskaan	-9.27987
受	-9.28016
K	-9.28089
經過	-9.28117
乾	-9.28155
桌子	-9.28168
▁maibabo	-9.28179
ampok	-9.28204
▁simol	-9.28233
▁naoto	-9.28265
▁Nito	-9.28574
▁mapataz	-9.28649
▁inam	-9.28658
▁Tahai	-9.28686
Ihaan	-9.28836
落	-9.28845
▁Hai	-9.28892
mos	-9.28893
也有	-9.28943
▁qana	-9.2896
▁Ki	-9.29014
▁isiata	-9.29105
▁他是	-9.29251
▁kon	-9.29274
▁sima	-9.29403
主	-9.29405
▁然後	-9.29503
難	-9.29626
傳	-9.2964
▁nita	-9.29722
機	-9.29728
六	-9.29747
卻	-9.2977
細	-9.2977
▁monata	-9.29782
日本人	-9.29891
▁sipolan	-9.29892
面	-9.29916
▁ising	-9.30036
▁Cin	-9.30223
▁sintopa	-9.30309
oman	-9.3036
真	-9.30495
▁Po	-9.30726
出現	-9.30768
▁kako	-9.3078
▁Ito	-9.30998
▁masnava	-9.31043
的名字	-9.31192
早	-9.313
▁laqbing	-9.31307
dado	-9.31341
母	-9.31359
V	-9.31399
更	-9.31401
▁iniliskinan	-9.31402
▁kosbabai	-9.31402
老鼠	-9.31408
外面	-9.31413
▁Maqansiap	-9.31566
小心	-9.31632
的東西	-9.31675
你要	-9.3187
zan	-9.31894
二	-9.32137
tol	-9.3214
▁madamo	-9.32326
好像	-9.3248
的工作	-9.32929
bah	-9.32944
鹿	-9.33
tong	-9.33014
器	-9.33029
期	-9.33045
內	-9.33053
寫	-9.33057
(	-9.33061
笑	-9.33062
照顧	-9.33064
高雄	-9.33065
水果	-9.331
女生	-9.33122
上學	-9.33124
時間	-9.33157
▁tastolomah	-9.33173
ovaz	-9.33225
要去哪裡	-9.3364
▁pas	-9.33684
下來	-9.33801
其	-9.3391
Bo	-9.33976
boan	-9.34113
▁Pan	-9.34261
留	-9.34278
出去	-9.34304
▁monha	-9.34478
▁mihomis	-9.34538
布農	-9.34567
▁dalaq	-9.34632
laz	-9.34695
樂	-9.34714
圓	-9.34749
爬	-9.3475
湯	-9.3475
清	-9.3475
結婚	-9.34758
畫圖	-9.34763
▁iha	-9.34962
▁Taito	-9.3501
▁pasnanavan	-9.35019
▁tatini	-9.35052
qat	-9.35064
dadaza	-9.35195
pito	-9.35358
▁isnanava	-9.3545
原住民	-9.35485
氏族	-9.35584
▁andii	-9.35609
S	-9.35655
oz	-9.35762
kang	-9.35891
只是	-9.36122
lolo	-9.36128
屋	-9.36327
利	-9.3636
冷	-9.36369
代	-9.36419
森林	-9.36454
緊	-9.36458
跳	-9.36462
守	-9.36466
村	-9.36466
苦	-9.36467
▁nepa	-9.36467
▁haqil	-9.36467
認識	-9.36467
台東	-9.36468
射耳祭	-9.36469
kombo	-9.3647
▁miqomis	-9.36479
▁mosaso	-9.36495
▁inaicia	-9.36553
boq	-9.36624
danom	-9.37002
▁matas	-9.37007
▁dangi	-9.37109
▁matin	-9.37244
bak	-9.37325
▁iskozakoza	-9.37354
哪	-9.37508
▁otan	-9.37551
在睡覺	-9.37619
hoho	-9.37683
下雨	-9.37734
pak	-9.37912
haol	-9.37921
是我	-9.3799
hanian	-9.38083
bis	-9.38083
約	-9.38118
色	-9.38168
帽子	-9.38176
住在	-9.38194
味	-9.38202
雲	-9.38212
旁邊	-9.38215
突然	-9.38215
▁laopakadao	-9.38217
▁bantas	-9.38226
那個孩子	-9.38238
hodanan	-9.3833
▁mindangaz	-9.3839
boh	-9.38455
▁kalala	-9.38478
dason	-9.38521
▁nga	-9.38559
manano	-9.38625
can	-9.38635
minhamo	-9.38645
▁iskan	-9.38897
▁Ung	-9.38953
oma	-9.39005
qos	-9.39094
lac	-9.39171
▁Mapa	-9.39276
▁bai	-9.39333
不好	-9.39382
好了	-9.39505
國	-9.39537
日本	-9.39864
還沒	-9.39884
容易	-9.3989
▁painsanan	-9.39901
todiip	-9.39909
石	-9.39931
靈	-9.39962
槍	-9.3997
hong	-9.39975
美	-9.39977
夜	-9.3998
近	-9.39985
船	-9.39987
毛	-9.39991
根	-9.39991
祝福	-9.39992
qalmang	-9.40042
那麼	-9.40078
▁L	-9.40192
▁Cima	-9.40203
▁iskosia	-9.40237
▁我喜歡	-9.40267
ali	-9.40292
族人	-9.40326
一下	-9.40555
有的	-9.4065
▁titi	-9.4074
pang	-9.40766
bonto	-9.40771
不同	-9.4089
土	-9.40901
▁Pin	-9.40906
就是這樣	-9.40936
▁我是	-9.40994
davos	-9.41129
▁好的	-9.41235
▁asato	-9.41238
有一個	-9.41422
acang	-9.41431
sam	-9.41439
生病	-9.41477
pasnava	-9.41557
▁mina	-9.41569
我在	-9.41578
▁maipa	-9.41725
mon	-9.41755
河	-9.41768
傳統	-9.41774
餐	-9.41778
排	-9.41788
hamisan	-9.41793
domdom	-9.41801
▁Taihoko	-9.41801
亂	-9.41801
則	-9.41802
多少	-9.41811
教導	-9.41813
到底	-9.41837
en	-9.41875
老人	-9.41875
▁hima	-9.41935
▁ngol	-9.42016
是學生	-9.42071
▁maqansiap	-9.42084
▁mapasiza	-9.421
koang	-9.42126
▁我沒有	-9.42204
▁你有	-9.42242
▁masi	-9.42255
▁mamantok	-9.4228
▁baino	-9.42303
▁qoma	-9.42305
▁tac	-9.42323
▁tokao	-9.42487
das	-9.42498
nito	-9.42527
▁pasnanavaan	-9.42653
視	-9.42657
的是	-9.42697
bas	-9.42924
▁makosia	-9.42949
vis	-9.43002
是我的	-9.43269
我可以	-9.43314
▁naopa	-9.43347
qato	-9.43371
是這樣	-9.43456
等一下	-9.43461
久	-9.43511
畫	-9.43622
▁Ba	-9.43624
品	-9.43625
角	-9.43631
daz	-9.43631
摩托車	-9.43642
刺	-9.43643
doq	-9.43644
洞	-9.43644
Dahu	-9.43645
▁Takao	-9.43648
回答	-9.43649
早期	-9.43654
sila	-9.43668
▁Masamo	-9.43749
▁Sain	-9.43773
▁Cis	-9.43829
▁balivon	-9.43928
▁vahlas	-9.43984
然後	-9.43995
▁pantamaon	-9.44001
我們一起	-9.44029
lako	-9.44067
▁san	-9.44082
▁madahpa	-9.44157
喜歡吃	-9.44202
▁Tal	-9.44209
olo	-9.44258
longqo	-9.44274
儀式	-9.44313
▁aizan	-9.44601
▁te	-9.44706
▁ita	-9.44716
▁za	-9.44779
vin	-9.44957
▁vanis	-9.45275
Sai	-9.45311
性	-9.45489
cipol	-9.4549
量	-9.45497
床	-9.45502
強	-9.4552
呀	-9.45523
▁Mavia	-9.45532
▁malasbonon	-9.45547
▁Lipon	-9.4556
給你	-9.45653
▁是啊	-9.45765
ip	-9.46848
▁Sia	-9.46898
▁kis	-9.46963
▁Ciang	-9.46987
tok	-9.47155
弄	-9.47236
hapav	-9.47272
cina	-9.47317
遠	-9.47335
翻	-9.47362
夢	-9.47435
比賽	-9.47436
很漂亮	-9.47436
越	-9.47436
低	-9.47436
dikla	-9.47437
文化	-9.47439
忘記	-9.4744
生氣	-9.47488
成為	-9.4758
ion	-9.47599
▁islolos	-9.47608
不一樣	-9.47756
每	-9.4796
後面	-9.47971
編織	-9.47995
▁ilav	-9.48145
走了	-9.48346
▁masaiv	-9.48466
▁qaningo	-9.48913
新	-9.48988
▁sapoz	-9.4907
kak	-9.49103
▁tak	-9.49162
hozas	-9.49256
sin	-9.49257
橡皮擦	-9.49265
鍋	-9.49267
詞	-9.49294
理	-9.49354
會被	-9.49369
單	-9.49376
ihomis	-9.49379
胖	-9.49387
勇	-9.49387
轉	-9.49387
林	-9.49388
▁maklang	-9.49388
▁tosaoc	-9.49389
▁mikoa	-9.49391
動物	-9.49432
bong	-9.49449
上面	-9.49462
都會	-9.49466
▁asaon	-9.49527
Aping	-9.49544
請問	-9.49633
▁malala	-9.49673
iza	-9.49873
歲了	-9.4992
▁isa	-9.49928
▁padan	-9.49937
都要	-9.49968
過來	-9.50024
▁別	-9.50074
▁aipi	-9.501
moh	-9.50234
laq	-9.50257
▁niin	-9.50424
onian	-9.50474
nav	-9.50486
來的	-9.50496
七	-9.50553
▁sinta	-9.50959
daidaz	-9.50975
地方	-9.51008
paat	-9.5105
謝謝你	-9.51141
lom	-9.51195
溪	-9.51299
去山上	-9.51325
▁ihan	-9.51352
電	-9.51354
▁mati	-9.51376
搬	-9.51377
▁bintoqan	-9.51378
柴	-9.51378
曾經	-9.51382
tikic	-9.51384
▁binano	-9.51389
▁dadosa	-9.51418
男生	-9.51441
▁mosohis	-9.51544
▁Aopa	-9.5155
▁那是什麼	-9.51603
家人	-9.51652
▁hotan	-9.51674
用的	-9.51675
▁masomsom	-9.51745
很高興	-9.51792
獵人	-9.51795
non	-9.52031
的孩子	-9.52167
並	-9.52218
語言	-9.52249
山上	-9.52274
U	-9.52306
▁Pas	-9.52318
op	-9.52507
給我	-9.52726
▁Pal	-9.53078
▁masoaz	-9.5312
▁naam	-9.5323
本書	-9.53246
貓頭鷹	-9.5326
的朋友	-9.53295
makoa	-9.53324
情	-9.53351
工	-9.53384
世	-9.53396
失	-9.53406
哭	-9.53408
pasibotbot	-9.53408
▁Miqomicang	-9.53408
▁tosasaos	-9.53408
▁bosol	-9.53461
▁Cia	-9.53541
▁mangka	-9.53755
kalat	-9.54003
說話	-9.54193
▁taos	-9.54237
在下雨	-9.54395
▁Iso	-9.54475
tini	-9.54475
▁Tiang	-9.54559
bato	-9.54664
次	-9.54928
為了	-9.55065
Inak	-9.55274
定	-9.55346
塊	-9.55375
▁那個小孩	-9.55412
ansom	-9.55427
散	-9.55455
安	-9.55455
依	-9.55472
福	-9.55478
睡	-9.55479
拔	-9.55479
野	-9.5548
度	-9.5548
肥	-9.55481
▁Heza	-9.55481
吹	-9.55481
警察	-9.55481
續	-9.55481
芒草	-9.55484
▁vanglaz	-9.55485
▁mavia	-9.55498
anoho	-9.55538
lao	-9.55552
▁qaising	-9.55555
▁bokzavan	-9.55656
條	-9.55809
天上	-9.55836
qodanan	-9.55865
▁toqas	-9.55962
▁antala	-9.56245
▁nasto	-9.56251
▁pasnanava	-9.56275
lili	-9.56297
saiv	-9.56324
▁paci	-9.5708
svala	-9.57182
▁imo	-9.57229
nii	-9.57371
kola	-9.57398
tama	-9.5745
稻	-9.57456
農	-9.57493
切	-9.57502
如此	-9.57579
黃	-9.57588
丟	-9.57594
妳	-9.57597
賣	-9.57597
掛	-9.57597
otobai	-9.57597
惡	-9.57598
▁iniqomican	-9.57598
種植	-9.57602
▁pahasia	-9.57603
祭司	-9.57603
▁Mahto	-9.57603
▁tingmot	-9.57605
前面	-9.57615
下午	-9.57615
多少錢	-9.57634
一些	-9.57648
▁Tokao	-9.57662
▁lisav	-9.57665
天空	-9.57706
▁laqbingin	-9.57721
這邊	-9.57725
▁todipin	-9.57727
▁tondaza	-9.57759
kazhav	-9.57805
▁hao	-9.57895
saincin	-9.5798
▁Maqanciap	-9.58009
我們家	-9.58049
▁makan	-9.58133
▁tokii	-9.58225
或是	-9.58318
▁makocia	-9.58445
求	-9.58515
odan	-9.58555
▁kodip	-9.58596
式	-9.58834
結果	-9.5888
▁pishasibang	-9.58925
▁你們的	-9.58969
somsom	-9.59362
錯	-9.594
aki	-9.59534
▁kaa	-9.59613
圍	-9.59689
活	-9.59707
神	-9.59744
保	-9.59757
格	-9.59758
貓	-9.59759
張	-9.5976
準備	-9.5976
▁Biong	-9.5976
葬	-9.59761
Samingaz	-9.59761
椅子	-9.59767
▁tosaos	-9.59773
三個	-9.59778
▁qodasnao	-9.59792
saoqbong	-9.59816
▁那個男人	-9.59827
耕作	-9.59857
▁tamahodas	-9.59898
出來了	-9.59902
▁hood	-9.60121
hao	-9.60257
noom	-9.60275
了很多	-9.60616
singhal	-9.60835
smoav	-9.60848
▁tanam	-9.60909
去找	-9.60918
實	-9.61048
兩個	-9.61058
群	-9.61127
todip	-9.61276
kosia	-9.61388
▁tanangaos	-9.614
都很	-9.61545
baas	-9.61546
台灣	-9.61771
此	-9.61802
▁Savi	-9.61811
曬	-9.61942
唸	-9.61957
蝶	-9.61968
飽	-9.61969
辣	-9.6197
bangkal	-9.6197
幫助	-9.61972
隨便	-9.61976
因此	-9.61985
離開	-9.61988
▁sipongol	-9.61993
敵人	-9.6201
▁moqnang	-9.62021
煮飯	-9.62037
tikis	-9.62038
數	-9.62074
▁tataqo	-9.62132
▁ciia	-9.62288
▁ingadah	-9.62363
ting	-9.62416
hot	-9.62466
居住	-9.62649
▁kao	-9.6265
hod	-9.6272
ala	-9.6274
oskonan	-9.62758
▁Maqa	-9.62884
馬	-9.63111
▁Uninang	-9.63123
▁ina	-9.63275
kitnga	-9.63474
稱	-9.63627
vao	-9.63692
除	-9.63846
ibol	-9.63901
她是	-9.63906
通	-9.63916
▁Tao	-9.63934
的事	-9.63955
▁antalam	-9.63971
的生活	-9.64003
豆	-9.64078
衣	-9.6414
siva	-9.6416
照	-9.64198
體	-9.64213
裝	-9.64214
綁	-9.64217
害	-9.64217
深	-9.64221
連	-9.64221
文	-9.64226
癢	-9.64229
抱	-9.64229
▁sinsoaz	-9.64234
▁modadan	-9.64234
▁monhoma	-9.64236
▁qon	-9.64242
老鷹	-9.64242
製作	-9.64245
▁kazimaon	-9.64266
▁masihal	-9.64268
▁laopang	-9.64269
▁sakot	-9.64303
大約	-9.64342
天天	-9.64348
木頭	-9.64355
▁macindon	-9.64421
▁aipon	-9.64452
頭髮	-9.64454
ongqo	-9.64515
做什麼	-9.64622
▁miqomicang	-9.64631
我們是	-9.64647
▁請把	-9.64664
qot	-9.64872
結	-9.65144
能夠	-9.65157
ami	-9.6526
土地	-9.65276
▁ovaazcia	-9.65481
▁tomaz	-9.6555
▁Pis	-9.65575
過的	-9.65583
▁isnanavaan	-9.65618
▁mavaivi	-9.65711
▁sinto	-9.65878
▁qodan	-9.66181
於是	-9.66219
▁mado	-9.66309
她的	-9.664
雨傘	-9.66494
採	-9.66521
臭	-9.66529
臺灣	-9.66532
曾	-9.66537
節	-9.66539
油	-9.66541
足	-9.66542
顆	-9.66542
daokdaok	-9.66543
▁osadoan	-9.66543
屋頂	-9.66546
don	-9.66557
平安	-9.66557
▁kikilim	-9.66593
記得	-9.66604
▁Toza	-9.66658
▁Kaopa	-9.66778
去打獵	-9.66784
▁Namon	-9.66788
losbot	-9.66802
這樣子	-9.66847
▁hato	-9.66955
去學校	-9.6698
▁Mabaliv	-9.67039
▁sopahan	-9.67128
cial	-9.67137
anta	-9.67379
padangi	-9.6739
▁niang	-9.67402
kazav	-9.67616
lala	-9.67715
sipol	-9.6781
▁paaz	-9.67811
▁ovava	-9.67847
的小孩	-9.67867
你會	-9.68065
我想	-9.68116
liv	-9.68457
ul	-9.68484
經常	-9.6861
▁pasi	-9.68863
園	-9.68868
立	-9.68881
兄	-9.68903
犯	-9.68907
雨停了	-9.68908
▁Masnanava	-9.68909
▁tatnolan	-9.6891
剛剛	-9.68925
通常	-9.68927
▁palangan	-9.68927
天氣	-9.68933
▁anatopa	-9.68956
很勤勞	-9.68976
葉子	-9.68977
族群	-9.69016
自己的	-9.69053
▁pangkaka	-9.69092
很會	-9.69105
什麼時候	-9.69187
▁islongho	-9.6923
部落的	-9.69268
ngav	-9.69309
eq	-9.69459
ngol	-9.69519
naskal	-9.69546
一種	-9.6961
人的	-9.69766
qol	-9.69831
ovaiv	-9.6986
▁konan	-9.69882
Tiang	-9.69976
anhan	-9.70007
lah	-9.70016
qi	-9.70043
百	-9.70162
Pa	-9.70214
▁onto	-9.70363
lokis	-9.7039
吃了	-9.70534
原住民族	-9.70567
mata	-9.70628
結束	-9.70974
maopa	-9.70979
直	-9.71107
傷	-9.71273
織	-9.7129
▁makoang	-9.71293
貴	-9.71308
古	-9.71322
堆	-9.71331
金	-9.71332
善	-9.71333
]	-9.71333
hivhiv	-9.71333
聞	-9.71333
舊	-9.71333
雙	-9.71333
[	-9.71333
持	-9.71333
產	-9.71333
▁namahto	-9.71334
▁古時候	-9.71334
▁paitasan	-9.71334
▁mindodoaz	-9.71334
labian	-9.71339
特別	-9.7134
長輩	-9.71346
▁kaaz	-9.71359
祖先們	-9.71369
完成	-9.71391
馬上	-9.71425
▁aloaz	-9.71428
喝酒	-9.71433
▁mapon	-9.71546
一個人	-9.71611
▁isang	-9.71621
那個小孩	-9.71638
▁kosian	-9.71733
名稱	-9.71742
一次	-9.71866
ping	-9.72038
存	-9.72088
▁mopa	-9.72221
▁maqe	-9.72306
▁naipi	-9.72375
▁losan	-9.72516
loq	-9.72578
un	-9.7269
就可以	-9.72751
isko	-9.72759
▁cilas	-9.72906
Ung	-9.73016
▁maki	-9.73167
aminon	-9.73178
分享	-9.73448
不可	-9.73556
pasiza	-9.73588
▁naka	-9.73675
藏	-9.73777
居	-9.73783
熟	-9.73786
順	-9.73798
圖	-9.73806
移	-9.73811
尾	-9.73813
狀	-9.73817
sasbinaz	-9.73817
▁mailantangos	-9.73817
▁sinsosoaz	-9.73817
絲	-9.73817
至	-9.73817
甘	-9.73818
稱之為	-9.73818
術	-9.73818
慶祝	-9.73818
▁odoli	-9.73819
▁kiokai	-9.7382
運動	-9.73835
▁Qangla	-9.73839
▁macisbai	-9.73844
▁sizaon	-9.73857
▁有一天	-9.73857
▁Qai	-9.73881
▁hahanop	-9.73895
早上	-9.73947
鍋子	-9.73971
認真	-9.73983
▁inita	-9.7418
呼	-9.74229
▁nait	-9.74274
▁paon	-9.74335
這種	-9.74484
paska	-9.74671
Alang	-9.74871
▁moso	-9.74928
去哪裡	-9.75041
▁minoni	-9.75055
!"	-9.75057
▁現在是	-9.75105
空	-9.75317
聽到	-9.75352
▁Man	-9.75372
shot	-9.75476
cihal	-9.7549
mis	-9.75504
sisila	-9.75559
Pima	-9.7557
織法	-9.75647
ngos	-9.75659
qansiap	-9.7572
甜	-9.75723
▁Maka	-9.75789
最後	-9.75818
的家	-9.75827
破	-9.76003
是原住民	-9.76062
田地	-9.76187
zako	-9.76308
命	-9.7632
aiv	-9.76333
獨	-9.76346
意思	-9.76356
市	-9.76357
腳踏車	-9.76362
您	-9.76364
摘	-9.76365
胸	-9.76365
酸	-9.76365
蝴蝶	-9.76366
趕快	-9.76376
▁naobananaz	-9.76411
▁tatlomaq	-9.76419
▁Laopako	-9.76435
mangmang	-9.76442
▁我要買	-9.76492
▁ismoot	-9.76618
▁macingav	-9.76682
▁Macial	-9.7673
▁totoza	-9.76737
hima	-9.76818
▁namo	-9.76825
od	-9.76859
帶著	-9.76928
sohis	-9.76992
ding	-9.77033
Umas	-9.77087
▁tatao	-9.77108
moot	-9.77159
indangaz	-9.77254
▁liska	-9.77264
▁isnavaan	-9.77417
可是	-9.77475
noq	-9.77859
▁acipol	-9.77886
▁isain	-9.78008
▁Maq	-9.78043
▁naipon	-9.78112
▁ista	-9.78177
qoma	-9.78271
高興	-9.78442
有一	-9.7854
的聲音	-9.78685
待	-9.78703
件	-9.78857
製	-9.78925
具	-9.78941
捕	-9.78959
表	-9.78968
袋	-9.78974
針	-9.78978
鬼	-9.78978
程	-9.78979
撒	-9.7898
餵	-9.7898
▁mapatno	-9.78981
▁Nanto	-9.78984
▁qodasnanaz	-9.7903
▁Pos	-9.7904
▁ongat	-9.79076
madadengaz	-9.79087
▁Siza	-9.7909
我們在	-9.79111
這塊	-9.79115
▁nakaonon	-9.79202
▁isnavan	-9.7924
mong	-9.79347
還在	-9.79398
sapoz	-9.79419
▁pinit	-9.79478
不行	-9.7956
名字	-9.79668
▁minton	-9.79718
在家裡	-9.79854
▁zakon	-9.79875
▁mapis	-9.80007
ial	-9.80033
回到	-9.80107
▁pakaon	-9.80163
tom	-9.80244
nada	-9.80247
idi	-9.8042
haiza	-9.80507
幫	-9.80509
kalomaq	-9.8082
doh	-9.81055
▁Qodanan	-9.81074
qasmav	-9.81266
▁toki	-9.81266
dangqac	-9.81282
▁Tina	-9.81329
▁maita	-9.81575
屬	-9.81644
觀	-9.81653
慢	-9.81653
星期	-9.81655
片	-9.81658
耳	-9.8166
宴	-9.81663
姓	-9.81663
串	-9.81664
捉	-9.81664
r	-9.81664
挖	-9.81664
紙	-9.81665
禮拜	-9.81665
感謝	-9.81665
知識	-9.81666
耶	-9.81667
▁paloso	-9.8167
覺得	-9.81672
太陽出來了	-9.81687
玉山	-9.8169
跑步	-9.817
擁有	-9.81731
▁malastapang	-9.81738
之前	-9.81741
pising	-9.81764
水鹿	-9.81765
看見	-9.81765
▁inaita	-9.81792
一詞	-9.81794
不管	-9.81812
▁makaskas	-9.81814
方式	-9.81848
想念	-9.81944
▁ikma	-9.81955
可能	-9.82034
那隻狗	-9.82307
sanglav	-9.82338
我的孩子	-9.82475
▁Ala	-9.82504
▁qe	-9.82564
▁Uvaaz	-9.8259
kaviaz	-9.82734
▁kato	-9.82867
死了	-9.82923
taki	-9.83175
▁San	-9.83185
▁Tin	-9.8337
解	-9.84064
樣	-9.84141
bokzav	-9.84189
知	-9.84227
過了	-9.8435
領	-9.84372
下次	-9.84387
提	-9.84407
反	-9.84413
戴	-9.84415
建	-9.84418
娶	-9.84418
烏	-9.84421
替	-9.84422
孫	-9.84423
蒸	-9.84423
他是我的老師	-9.84423
斯	-9.84423
窗戶	-9.84424
茅草	-9.84424
lokic	-9.84427
立刻	-9.84427
為何	-9.84448
▁hilav	-9.84458
以及	-9.84484
山羊	-9.84556
dadaok	-9.84559
▁hodan	-9.84577
▁manahip	-9.84579
▁silas	-9.84585
很少	-9.84605
難過	-9.84665
▁Manaskal	-9.8472
▁mataqdong	-9.84756
大家都	-9.85017
▁madavos	-9.85037
▁我也	-9.85125
很好吃	-9.85289
我媽媽	-9.85573
ola	-9.85752
ngka	-9.85961
生命	-9.85961
cio	-9.8601
是布農族	-9.86234
▁moc	-9.86287
洗衣服	-9.86365
▁onisin	-9.86483
的房子	-9.86488
lancan	-9.86539
▁Sado	-9.86552
所有	-9.8656
即	-9.86642
的路	-9.86832
vong	-9.86869
念	-9.86962
起床	-9.87003
makazhav	-9.87041
▁mapasado	-9.87083
家庭	-9.87209
網	-9.87228
▁我把	-9.8723
卡	-9.8724
運	-9.87241
腫	-9.87252
怕	-9.87254
夏	-9.87254
彎	-9.87255
餓	-9.87256
功	-9.87257
短	-9.8726
刮	-9.8726
祢	-9.8726
藤	-9.87261
laongkav	-9.87262
房間	-9.87264
寫字	-9.87268
▁cisdadaan	-9.87272
▁pasimol	-9.87275
應當	-9.87278
蓋房子	-9.87291
在學校	-9.87329
▁aco	-9.87442
▁sanasia	-9.87563
叫什麼	-9.87609
▁mananolo	-9.87666
▁Mado	-9.87689
教會	-9.87748
▁Maszang	-9.87761
tipol	-9.87856
▁Masial	-9.87927
lolos	-9.87943
▁taona	-9.87977
長大	-9.87998
▁tokoc	-9.88138
不喜歡	-9.88195
路上	-9.88229
好多	-9.88346
因為他	-9.88365
▁nanii	-9.88413
▁zi	-9.88491
很喜歡	-9.88518
adason	-9.88562
hainan	-9.88579
▁malolo	-9.88714
▁sika	-9.88878
salpo	-9.89016
sop	-9.89067
在山上	-9.89097
祭儀	-9.89128
我們布農族	-9.89172
madia	-9.89176
」。	-9.89219
diqanin	-9.89532
qac	-9.89617
Tahai	-9.89637
▁Qal	-9.89749
醫院	-9.90055
讀	-9.90159
Hanai	-9.9017
社	-9.90171
溫	-9.90179
農作物	-9.9018
毒	-9.9018
胡	-9.9018
攤	-9.9018
縫	-9.9018
項	-9.9018
醒	-9.9018
料	-9.9018
顏色	-9.9018
▁dahis	-9.90181
適合	-9.90182
冬天	-9.90183
taontaon	-9.90185
尾巴	-9.90185
需要	-9.90189
河邊	-9.90193
nahaan	-9.90196
中午	-9.90205
上課	-9.9021
▁就是啊	-9.90214
mishang	-9.90224
它們	-9.90227
▁koton	-9.90236
你要買	-9.90242
▁mocqa	-9.90246
▁mamangan	-9.90261
你喜歡	-9.90298
▁via	-9.90338
Poot	-9.90343
不知	-9.9035
bit	-9.90404
lansan	-9.90418
臉	-9.90478
在那邊	-9.90532
男子	-9.90539
▁這是什麼	-9.90601
▁maqasmav	-9.90616
當時	-9.90628
oko	-9.90643
所有的	-9.9075
▁kotonin	-9.90777
一天	-9.90786
ndingalan	-9.90809
▁losqa	-9.90867
將來	-9.9105
去看	-9.911
hin	-9.91152
soqis	-9.9117
ngalan	-9.91234
,"	-9.91234
幾個	-9.91296
吃的	-9.91416
還要	-9.91449
▁他在	-9.91653
會唱歌	-9.91708
原來是	-9.91862
hanop	-9.9196
▁mapala	-9.91984
▁tamohong	-9.92205
hatba	-9.92325
liva	-9.92364
▁masling	-9.92384
▁antan	-9.92411
▁Cina	-9.92502
人家	-9.92566
那你	-9.926
停	-9.92629
▁qal	-9.92727
nanolo	-9.9287
這樣的	-9.92879
▁hala	-9.92922
▁isnava	-9.93037
的語言	-9.93067
南投	-9.93103
嫁	-9.93107
▁moqna	-9.93135
集	-9.9316
告訴我	-9.93171
禱	-9.93176
遷	-9.93177
造	-9.93178
影	-9.93178
修	-9.9318
曲	-9.93182
急	-9.93184
該	-9.93184
息	-9.93185
萬	-9.93187
懶	-9.93188
泡	-9.93188
鐵	-9.93188
▁makitvaivi	-9.93188
躺	-9.93188
累	-9.93188
報戰功	-9.93188
慶典	-9.93188
推	-9.93188
清楚	-9.93188
跌倒	-9.9319
L	-9.93206
▁Masihal	-9.93207
父母親	-9.93224
qomis	-9.93249
▁tilac	-9.93271
▁moqnin	-9.9332
laihlih	-9.93324
很遠	-9.93344
一家人	-9.9345
主人	-9.93464
▁oninang	-9.93493
▁你現在	-9.93584
ming	-9.93604
借我	-9.93705
▁paito	-9.93891
▁Taho	-9.93938
的小米	-9.9397
▁sinpal	-9.94089
tu	-9.94148
▁asoo	-9.94151
?"	-9.94153
▁saosia	-9.94362
一位	-9.94388
她是我的	-9.94437
怎麼說	-9.9456
時候	-9.94563
kavong	-9.94592
是用來	-9.94618
kahna	-9.94669
去了	-9.94769
▁kalomah	-9.9482
看看	-9.94829
▁panto	-9.94938
他說	-9.95036
▁nani	-9.9515
▁Ci	-9.95176
palka	-9.95253
▁mapaka	-9.95321
dada	-9.95674
vaha	-9.95696
看過	-9.95716
lodah	-9.95891
▁aizang	-9.96017
aisko	-9.96061
管	-9.96109
各	-9.9622
▁konon	-9.96249
電話	-9.96268
逃	-9.96274
材	-9.96274
夫	-9.96278
台	-9.96282
南	-9.96284
標	-9.96285
套	-9.96287
w	-9.96288
鹽	-9.96289
▁isqaqaisqais	-9.96289
遊	-9.96289
里	-9.96289
▁daisah	-9.96289
慧	-9.96289
▁hansiap	-9.9629
▁tohasnanaz	-9.9629
daoqpos	-9.9629
▁mabazo	-9.96291
午餐	-9.96293
pahosil	-9.96295
mavala	-9.96302
▁anaqat	-9.96302
教育	-9.96302
命名	-9.96304
第二	-9.96309
▁hobong	-9.96311
▁minang	-9.96326
hangsia	-9.96332
稱為	-9.96343
怎麼樣	-9.96368
▁latoza	-9.96375
▁qanian	-9.96378
生日	-9.96382
▁Maso	-9.96383
年輕人	-9.96399
▁Madaing	-9.96405
moskon	-9.96423
▁napi	-9.96462
找到	-9.96462
sisipol	-9.96493
▁minihomis	-9.96496
▁malmanano	-9.96607
▁katmang	-9.96671
不然	-9.96683
▁manah	-9.96717
tmang	-9.96738
▁Habasang	-9.96757
▁idadaza	-9.96782
▁imoo	-9.96783
▁pasado	-9.96854
會說	-9.96927
▁manaoaz	-9.97005
有點	-9.97104
不能吃	-9.97112
得到	-9.97135
sanavan	-9.97157
sidoq	-9.97161
鄉	-9.97266
▁napa	-9.97432
粒	-9.97687
再見	-9.97847
haliv	-9.97989
媽媽說	-9.98103
hang	-9.98208
二十	-9.98379
▁Mato	-9.98417
oqna	-9.98479
▁qoo	-9.9871
haip	-9.98735
▁kit	-9.98906
的水	-9.99067
經	-9.99332
撞	-9.99362
掃	-9.9939
隨	-9.99426
施	-9.99467
份	-9.99468
九	-9.99471
伊	-9.99474
步	-9.99475
麵	-9.99475
擦	-9.9948
調	-9.99483
戰	-9.99485
煙	-9.99488
八部合音	-9.99489
桶	-9.99489
▁Qanciap	-9.99489
▁lipoah	-9.99489
虎頭蜂	-9.99489
電腦	-9.99489
廚房	-9.99489
▁tamatina	-9.9949
課本	-9.9949
nisnis	-9.99491
乾淨	-9.99492
▁kapisingon	-9.99492
飛鼠	-9.99498
▁patcilasan	-9.99502
裝滿	-9.99505
▁Bokon	-9.99508
▁Incomin	-9.99508
釀酒	-9.9951
▁toqasnanaz	-9.99526
▁naobanao	-9.99534
▁koisang	-9.99534
就是如此	-9.99539
後代	-9.9955
▁minkailas	-9.99551
▁naingka	-9.99563
▁好啊	-9.99587
開車	-9.99592
▁malbonto	-9.99594
▁你們家	-9.99678
出生	-9.99697
到達	-9.99852
anpok	-9.99908
cingmot	-10
山裡	-10.0006
us	-10.0009
Ibi	-10.0011
人類	-10.0027
▁Mat	-10.0032
我知道	-10.0043
Ali	-10.0055
在讀書	-10.0073
給他	-10.0082
很多人	-10.0088
就好	-10.009
火車	-10.0092
loh	-10.0104
haiap	-10.0107
▁ilomah	-10.0108
見面	-10.0124
▁Maisna	-10.0127
送給	-10.0136
▁malavi	-10.0141
是醫生	-10.0143
▁maqo	-10.0144
字	-10.0145
從前	-10.0153
imin	-10.0187
要做什麼	-10.0215
可以吃	-10.0216
▁maisnasia	-10.0231
taqdong	-10.024
個人	-10.0256
M	-10.0261
panah	-10.0269
腰	-10.0274
qosil	-10.0275
▁Kan	-10.0276
另	-10.0278
半	-10.0279
靠	-10.0279
救	-10.0279
必	-10.0279
政府	-10.0279
基	-10.0279
設	-10.0279
剝	-10.0279
夾	-10.0279
滑	-10.0279
碎	-10.0279
Biung	-10.0279
▁langkitaz	-10.0279
▁lapaspas	-10.0279
號	-10.028
我忘了帶	-10.028
繞	-10.028
南瓜	-10.028
訪問	-10.028
願意	-10.0281
畫畫	-10.0281
▁Altopa	-10.0282
認為	-10.0282
起立	-10.0282
肚子	-10.0282
▁lohom	-10.0283
▁maldaok	-10.0283
▁Kalingko	-10.0284
打掃	-10.0284
再次	-10.0284
▁mamaszang	-10.0284
小時候	-10.0285
12	-10.0286
下面	-10.029
▁kakaonan	-10.0295
稻子	-10.0298
本來	-10.0301
我所	-10.0306
▁cona	-10.031
▁malodah	-10.0322
▁sasado	-10.0327
就要	-10.0329
留下	-10.0373
kako	-10.0392
▁mamo	-10.0397
koc	-10.042
▁minka	-10.0432
▁Tok	-10.0455
▁asat	-10.046
▁mapakaon	-10.047
回家了	-10.0483
paq	-10.0485
bazbaz	-10.0494
▁kodiip	-10.0501
台北	-10.0519
iav	-10.0528
sahal	-10.0541
▁monca	-10.0546
▁kanahtong	-10.0587
ova	-10.0588
B	-10.0602
▁Masta	-10.0607
未	-10.0608
▁naai	-10.061
cingav	-10.061
勤勞	-10.0612
年輕	-10.0617
輩	-10.0617
響	-10.062
moav	-10.062
秋天	-10.062
嘴	-10.0621
士	-10.0621
軟	-10.0621
奇	-10.0621
源	-10.0621
罵	-10.0621
sobnoh	-10.0621
▁Hosong	-10.0621
▁bintohan	-10.0621
▁pababazbaz	-10.0621
▁mocoqais	-10.0621
搗	-10.0621
daqvisan	-10.0621
蟻	-10.0621
▁tilivi	-10.0621
嚴	-10.0621
怎樣	-10.0621
▁vingkio	-10.0621
▁taiklas	-10.0622
▁tingami	-10.0622
姓氏	-10.0622
永遠	-10.0622
▁Tasto	-10.0622
慢慢	-10.0622
發現	-10.0623
黃色	-10.0623
分配	-10.0623
女性	-10.0625
進入	-10.0625
同學	-10.0628
▁人名	-10.0628
天黑	-10.0628
米飯	-10.0629
樹木	-10.063
▁moliva	-10.0632
女兒	-10.0632
變得	-10.0633
▁qolbo	-10.0633
▁kokoav	-10.0636
▁dolaz	-10.0637
▁kodadaza	-10.0637
要小心	-10.0637
▁kongadah	-10.0639
由於	-10.0645
傳說	-10.0647
▁kahaningo	-10.0649
nangadah	-10.0649
家有幾個人	-10.0652
鐘起床	-10.0656
▁isaan	-10.0662
紅色的	-10.0671
maza	-10.0675
▁kadavos	-10.0677
▁taisis	-10.0681
▁ke	-10.0682
▁這個是	-10.0687
在一起	-10.0692
的食物	-10.0695
田裡	-10.0703
onting	-10.0703
▁我昨天	-10.0719
就這樣	-10.0736
▁binanaoaz	-10.077
長得	-10.0797
▁saiia	-10.0806
嘛	-10.0818
直到	-10.0823
hais	-10.0832
將要	-10.0864
桃子	-10.0871
▁naita	-10.0873
好好	-10.0882
▁pantama	-10.0914
▁okas	-10.0926
身上	-10.0937
tataqo	-10.0944
sioh	-10.0947
pavali	-10.0959
的腳	-10.0963
瓜	-10.0967
tnol	-10.0971
禮	-10.0973
鷹	-10.0973
某	-10.0974
改	-10.0974
碗	-10.0974
擊	-10.0974
舞	-10.0975
談	-10.0975
象	-10.0975
濕	-10.0975
千	-10.0975
固	-10.0975
堂	-10.0975
尿	-10.0975
燈	-10.0975
童	-10.0975
驚	-10.0975
盡	-10.0975
▁Miqomisang	-10.0975
▁Takisilazan	-10.0975
▁dongzavin	-10.0975
兄弟姐妹	-10.0975
媳婦	-10.0975
y	-10.0975
擺	-10.0975
▁holbo	-10.0975
盤	-10.0975
朗	-10.0975
▁Azoq	-10.0975
daimpos	-10.0975
loklac	-10.0976
▁kapimaopa	-10.0976
問題	-10.0976
並且	-10.0976
▁haqail	-10.0976
世界	-10.0976
現代	-10.0976
靠近	-10.0976
▁konata	-10.0977
visvis	-10.0977
▁kaononkaonon	-10.0977
▁kakalang	-10.0977
晚餐	-10.0978
味道	-10.0978
屬於	-10.0978
natpo	-10.098
▁minpongol	-10.0983
oqbong	-10.0983
pistaba	-10.0984
能力	-10.0984
要吃什麼	-10.0986
▁Mantan	-10.0986
聚會	-10.0987
tantongo	-10.0987
都有	-10.0988
雞肉	-10.0991
這麼	-10.0992
忘了	-10.0993
▁lapat	-10.0999
▁kanaqtong	-10.1001
有時候	-10.1002
▁Poni	-10.1005
走吧	-10.1009
▁Un	-10.1018
▁下雨了	-10.1018
黑色的	-10.1018
上天	-10.1022
▁poaq	-10.1031
▁makazav	-10.1042
新的	-10.1045
▁naong	-10.1046
好吃	-10.105
▁mamas	-10.105
▁isbaliv	-10.1052
▁Li	-10.1065
konbo	-10.1074
不再	-10.1086
還沒有	-10.1108
有關	-10.1177
▁你明天	-10.1197
很快	-10.1199
dadaan	-10.1199
kois	-10.121
編	-10.1235
▁kaoni	-10.1245
家中	-10.1246
幫你	-10.125
互	-10.1252
cini	-10.1257
hom	-10.1266
▁taimi	-10.1267
dahvian	-10.1273
趕	-10.1299
daqvas	-10.1303
loskon	-10.1305
ovazan	-10.131
haningo	-10.1315
試	-10.1335
madoh	-10.1336
有兩個	-10.1338
粉	-10.134
混	-10.1341
摔	-10.1342
蝦	-10.1342
忙	-10.1342
爭	-10.1342
業	-10.1342
鬆	-10.1342
型	-10.1342
穀	-10.1342
選	-10.1342
Puni	-10.1342
幼	-10.1342
灰	-10.1342
▁Mahansiap	-10.1342
圈	-10.1342
搭公車	-10.1342
揹	-10.1342
首	-10.1342
健康	-10.1342
彼此	-10.1342
途	-10.1342
雜	-10.1342
▁talikoan	-10.1343
精	-10.1343
▁kavivila	-10.1343
植物	-10.1343
▁Isnanava	-10.1343
▁Mananoloa	-10.1343
鋤頭	-10.1343
屋內	-10.1344
▁Lamongan	-10.1344
青菜	-10.1344
這裏	-10.1345
▁intaa	-10.1346
成熟	-10.1347
▁mapisial	-10.1348
獵場	-10.1349
之間	-10.135
cakbit	-10.1352
▁halop	-10.1356
去教會	-10.1358
有許多	-10.1364
遇到	-10.1364
一直叫	-10.1369
▁mopata	-10.137
▁poah	-10.137
一邊	-10.1375
▁mongaos	-10.1379
有什麼	-10.1384
了解	-10.1391
▁masanglav	-10.1398
所謂的	-10.1401
▁locan	-10.1406
一年	-10.1407
▁iskaopa	-10.1423
▁Maci	-10.1424
maopacia	-10.1427
來吃	-10.1431
▁balivosan	-10.1434
vanis	-10.1439
我叫	-10.1447
被人	-10.1458
▁namon	-10.1478
▁diikon	-10.1478
因為他們	-10.1512
▁sias	-10.1513
vili	-10.1514
喜歡讀書	-10.1514
有一個妹妹	-10.1518
▁okin	-10.1518
說布農語	-10.1531
▁topato	-10.1545
toskon	-10.1552
▁Uva	-10.1583
▁haongon	-10.1588
▁Masi	-10.1611
在那	-10.1621
▁minaon	-10.1623
▁mapising	-10.1627
相信	-10.1636
非常好	-10.1647
▁minso	-10.166
但我	-10.1679
pikoa	-10.1689
本	-10.1699
▁mazako	-10.1704
聚	-10.171
區	-10.1712
▁mohna	-10.1713
香	-10.1713
搭	-10.172
醫	-10.172
導	-10.172
思	-10.1722
割	-10.1722
娘家	-10.1722
巴	-10.1722
統	-10.1722
服	-10.1723
務	-10.1723
4	-10.1723
殼	-10.1723
Dihanin	-10.1723
▁kadimanon	-10.1723
▁sintosaoc	-10.1723
滾	-10.1723
▁pinainok	-10.1723
▁talabal	-10.1723
Husung	-10.1723
池	-10.1723
釣竿	-10.1723
▁Minsoma	-10.1724
▁kavila	-10.1724
▁sinimol	-10.1724
夫妻	-10.1724
搭火車	-10.1724
真正的	-10.1724
▁qanivalval	-10.1724
婦女	-10.1724
害怕	-10.1724
白色	-10.1726
kolot	-10.1726
tongtong	-10.1726
一般	-10.1728
前往	-10.1728
一件	-10.1737
叫聲	-10.174
那裏	-10.1742
▁Amin	-10.1742
▁vano	-10.1748
屋子	-10.175
▁mahiav	-10.1751
▁inata	-10.1761
▁kaka	-10.1775
▁mihomisang	-10.1776
▁Maopata	-10.1792
▁manaq	-10.1797
bahis	-10.1805
▁kadangaz	-10.1811
也要	-10.1824
pinang	-10.1832
▁maos	-10.1844
才會	-10.185
種子	-10.1859
在唱歌	-10.1901
讓我	-10.1916
像是	-10.192
haizo	-10.1925
那條	-10.1934
各式各樣的	-10.1969
qaal	-10.1971
那張椅子很	-10.1972
時會	-10.1975
水田	-10.1981
Sani	-10.1985
patazon	-10.1987
發生	-10.1988
▁doon	-10.2007
不同的	-10.2014
me	-10.2037
有好多	-10.2048
許多	-10.2062
紅色	-10.2065
應	-10.2097
父	-10.2107
果	-10.2107
▁macinso	-10.2107
▁sinka	-10.2111
今	-10.2114
心裡	-10.2116
壓	-10.2117
血	-10.2117
樁	-10.2117
舍	-10.2118
傘	-10.2118
隊	-10.2118
飾	-10.2119
妹	-10.2119
質	-10.2119
箭	-10.2119
摸	-10.2119
超	-10.2119
▁你今天從哪裡來	-10.2119
倉庫	-10.2119
Ismahasan	-10.2119
剪	-10.2119
▁tangtang	-10.2119
埔	-10.2119
江	-10.2119
延	-10.2119
很懶惰	-10.2119
差	-10.212
攻擊	-10.212
載	-10.212
遭	-10.212
制	-10.212
阿美族	-10.212
▁miniqomis	-10.212
騙	-10.212
▁Tataqo	-10.212
▁tohaspingaz	-10.212
安靜	-10.212
觀察	-10.212
附近	-10.212
汽車	-10.212
豐收	-10.212
原本	-10.2121
禱告	-10.2121
地震	-10.2121
木瓜	-10.2121
相互	-10.2121
採收	-10.2122
laoskav	-10.2123
男性	-10.2123
傷心	-10.2124
haizang	-10.2125
▁Totoza	-10.2126
▁mohalhal	-10.2126
▁naobapingaz	-10.2126
▁katavin	-10.2128
▁lamis	-10.2128
▁siol	-10.2129
▁sana	-10.2139
▁Savo	-10.2156
都不	-10.216
▁Malka	-10.2163
▁icaq	-10.2171
▁Iha	-10.2172
▁isaincin	-10.2175
車子	-10.2176
學會	-10.2184
▁mahima	-10.2191
▁kava	-10.2201
nahtong	-10.2214
很熱	-10.2217
▁isaiv	-10.2223
吃過	-10.2237
在路上	-10.2242
▁Aip	-10.2245
站	-10.2275
bobo	-10.229
進去	-10.2293
▁minma	-10.23
米倉	-10.23
▁mapac	-10.2303
帶走	-10.2316
Bai	-10.2332
vav	-10.2332
來到	-10.2352
▁amoo	-10.2353
幾歲了	-10.2364
看病	-10.2379
被他	-10.238
▁sakon	-10.238
▁qaso	-10.2387
▁今天天氣	-10.239
▁Kal	-10.2396
▁他被	-10.2404
Tak	-10.247
loom	-10.2487
ikol	-10.2488
故鄉	-10.2502
▁mamaon	-10.2502
才能	-10.2508
Maina	-10.2511
葉	-10.2517
的事情	-10.2522
願	-10.2529
釀	-10.2529
tangis	-10.2529
目	-10.253
妻	-10.253
亡	-10.253
綠	-10.253
較	-10.253
Vatan	-10.253
頂	-10.2531
看電視	-10.2531
刻	-10.2531
派	-10.2532
富	-10.2532
姐姐	-10.2532
準	-10.2532
迷	-10.2532
治	-10.2532
牙	-10.2532
雅	-10.2532
沒關係	-10.2532
▁dadangian	-10.2532
▁maimadadaingaz	-10.2532
▁sinkokoza	-10.2532
哇	-10.2532
握	-10.2532
臼	-10.2532
8	-10.2532
vevi	-10.2532
叢	-10.2532
滅	-10.2532
▁mintivi	-10.2532
句	-10.2532
▁Anatopa	-10.2532
▁lopako	-10.2532
▁pinilomah	-10.2532
帶著雨傘	-10.2533
期待	-10.2533
免得	-10.2533
▁mazonga	-10.2534
約定	-10.2534
▁這是誰的	-10.2534
年糕	-10.2534
作為	-10.2534
接受	-10.2535
也許	-10.2536
paklang	-10.2538
發燒	-10.2538
kazkaz	-10.2538
無法	-10.2539
▁Nako	-10.254
▁maipati	-10.254
▁osiza	-10.2541
籃子	-10.2543
▁把那些	-10.2545
中間	-10.2546
danoh	-10.2549
ngki	-10.2549
▁cinahodas	-10.2549
▁siniza	-10.2552
以為	-10.2552
calpo	-10.2553
▁isaincia	-10.2556
▁tail	-10.2563
總是	-10.2564
在台灣	-10.2569
▁sinado	-10.2575
▁你妹妹	-10.258
Los	-10.2585
naqtong	-10.2585
qalop	-10.2586
▁saitan	-10.2601
▁oknav	-10.2602
tokoa	-10.2609
後來	-10.2609
今年幾歲	-10.2611
▁ismot	-10.2635
madiav	-10.2636
▁laopa	-10.2646
這裡的	-10.265
要用來	-10.266
▁matos	-10.2662
將會	-10.2665
▁tamohongan	-10.267
▁Losbo	-10.2682
有空	-10.2683
baav	-10.2683
ldikos	-10.2687
很痛	-10.2693
關於	-10.2703
▁ciko	-10.2708
我已經	-10.2722
▁takis	-10.2745
danghas	-10.2758
重視	-10.2759
alav	-10.276
hamo	-10.2763
▁Saik	-10.2787
言	-10.2788
明天要	-10.2797
你來	-10.2824
都可以	-10.2824
▁kaong	-10.2825
居住在	-10.2836
olok	-10.2846
ingna	-10.2847
P	-10.2892
hazam	-10.2895
感	-10.2901
islonghoan	-10.2903
很重	-10.2922
籃	-10.295
懂	-10.2959
化	-10.2959
枝	-10.2959
共	-10.296
喜	-10.296
演	-10.296
確	-10.296
特	-10.296
棒	-10.2961
全家	-10.2961
西	-10.2961
喊	-10.2961
9	-10.2961
報	-10.2961
騎腳踏車	-10.2962
侵	-10.2962
厚	-10.2962
班	-10.2962
左	-10.2962
引	-10.2962
卓社群	-10.2962
沙	-10.2962
王	-10.2962
Bukun	-10.2962
▁Qodas	-10.2962
吐	-10.2962
招	-10.2962
挑	-10.2962
hanimolmol	-10.2962
▁Bobokon	-10.2962
▁macistak	-10.2962
▁palinanoto	-10.2962
▁tiktik	-10.2962
▁tilibi	-10.2962
硬	-10.2962
▁sinaipok	-10.2962
枯	-10.2962
欺負	-10.2962
汁	-10.2962
踩	-10.2962
盪	-10.2962
閒	-10.2962
▁masinoba	-10.2962
小男孩	-10.2962
計	-10.2962
▁你有幾隻	-10.2962
▁baqlo	-10.2962
練習	-10.2962
罪	-10.2962
▁Mikoa	-10.2962
Ilisabit	-10.2962
Savu	-10.2962
▁mintasal	-10.2962
daoqlac	-10.2962
工寮	-10.2962
任何	-10.2962
salitong	-10.2962
我的名字是	-10.2963
圖紋	-10.2963
baqis	-10.2963
傳承	-10.2963
那座山	-10.2963
釣魚	-10.2963
受傷	-10.2964
上帝	-10.2964
▁maikikingna	-10.2964
另外	-10.2964
回娘家	-10.2964
美國	-10.2964
▁malinaskal	-10.2964
▁toqasnao	-10.2966
活動	-10.2966
▁aotok	-10.2967
杯子	-10.2967
打電話	-10.2968
據說	-10.2968
各種	-10.2968
qaisqais	-10.2968
onhoma	-10.297
▁maindodoaz	-10.297
出門	-10.2972
動作	-10.2972
在南投	-10.2974
一支	-10.2974
拿著	-10.2979
oancin	-10.2979
射中	-10.298
▁Malkama	-10.2981
Balan	-10.2983
▁ningav	-10.2994
衣服嗎	-10.3003
▁mabahis	-10.3008
tasipal	-10.3008
聲音	-10.3017
即是	-10.3019
▁tonha	-10.302
再來	-10.3027
▁kitngaa	-10.3027
除了	-10.3032
▁Ai	-10.3036
在樹上	-10.3038
獵到	-10.3038
▁laak	-10.304
部落裡	-10.3046
▁madaidaz	-10.305
大多	-10.3052
吃起來	-10.3053
這隻	-10.3059
真是	-10.306
qancaipon	-10.3061
▁Anaqat	-10.3061
lingko	-10.3066
就不會	-10.3067
▁如果是	-10.307
我的媽媽	-10.3089
▁Aso	-10.3091
拿來	-10.3093
pakas	-10.3097
是不是	-10.3103
聽過	-10.3117
▁matamasaz	-10.3127
▁piaq	-10.3138
bongo	-10.3139
ngai	-10.3148
▁andi	-10.3187
▁madoo	-10.3189
每個	-10.3219
▁mano	-10.3239
masial	-10.327
家鄉	-10.327
vivi	-10.3278
iapon	-10.3301
鐘	-10.3313
kaol	-10.3315
耕	-10.3316
▁kaza	-10.3319
▁Pat	-10.3334
現	-10.3339
saipok	-10.3348
▁macin	-10.3357
qtong	-10.3366
▁你們家有幾個	-10.3372
oskon	-10.3372
他的名字是	-10.3385
▁laihli	-10.3391
今天要	-10.3396
何	-10.3397
atas	-10.3406
樹上	-10.3407
配	-10.3409
盛	-10.3409
任	-10.341
承	-10.3411
界	-10.3411
敬	-10.3411
石板	-10.3411
店	-10.3411
selep	-10.3412
膿	-10.3412
棉	-10.3412
龍	-10.3412
廣	-10.3412
燙	-10.3412
▁banhil	-10.3412
斜	-10.3412
胎	-10.3412
資	-10.3412
▁madaozong	-10.3412
▁qaitmal	-10.3412
宗	-10.3412
鳴	-10.3412
丈夫	-10.3412
▁mihalang	-10.3412
介	-10.3412
牙齒	-10.3412
bantac	-10.3412
▁pancinaon	-10.3412
▁saviki	-10.3412
搖	-10.3412
禁止	-10.3412
芒果	-10.3412
palinoto	-10.3412
討論	-10.3412
▁kisaco	-10.3412
nsaipon	-10.3412
雲豹	-10.3412
感恩	-10.3412
聚集	-10.3412
▁sincoaz	-10.3412
不見了	-10.3412
▁minvaaz	-10.3412
qanglas	-10.3413
Manias	-10.3413
尋找	-10.3413
喝茶	-10.3413
朵花	-10.3413
邀請	-10.3414
早餐	-10.3414
整理	-10.3414
施法	-10.3414
飛機	-10.3415
qamisan	-10.3415
liskin	-10.3416
掉下來	-10.3418
幾點	-10.3418
阿公	-10.3418
dangqas	-10.3418
malalabas	-10.3419
壞掉	-10.3419
dainpos	-10.3419
鳥類	-10.342
sambot	-10.342
巨人	-10.342
多久	-10.342
▁大家好	-10.342
takonav	-10.3421
▁他是老師	-10.3424
▁pismantok	-10.3424
▁pisqanciap	-10.3426
收起來	-10.3427
▁Abos	-10.3429
三天	-10.3429
他們天天看電視	-10.3433
▁Sadoo	-10.3434
小偷	-10.3436
不想	-10.3442
sanvali	-10.3443
打開	-10.3446
▁tasban	-10.3446
小鳥	-10.3449
▁izaon	-10.3454
kong	-10.3459
▁madaqvas	-10.3461
maqto	-10.3471
▁kopa	-10.3475
破了	-10.3476
iongi	-10.3476
錯了	-10.3488
▁kanahtongin	-10.3491
▁maqi	-10.3499
hna	-10.3502
▁anaqa	-10.3508
去拿	-10.3521
▁ivotaz	-10.3522
homis	-10.3528
dalaq	-10.3536
一條	-10.3554
▁masingav	-10.3555
布農族是	-10.3566
也可以	-10.3604
▁siamas	-10.361
他叫	-10.3635
就像	-10.3653
▁qoqo	-10.3667
▁kodii	-10.3674
幫我	-10.3683
美麗的	-10.3686
車站	-10.3686
dav	-10.3703
▁他把	-10.3724
的學生	-10.3749
不得	-10.377
▁balivos	-10.3772
qei	-10.3772
借你	-10.3775
天氣如何	-10.3776
▁這些是	-10.3781
zing	-10.3788
▁你會洗	-10.3797
▁kokoza	-10.3813
hailang	-10.3814
▁paaq	-10.3829
總	-10.3842
biskav	-10.3846
認	-10.3846
sivit	-10.3847
▁pasadoo	-10.3852
▁takisia	-10.387
置	-10.3873
獲	-10.3879
舉	-10.388
民	-10.3881
篩	-10.3881
拍	-10.3881
專	-10.3881
裂	-10.3882
伯	-10.3882
官	-10.3882
伴	-10.3882
插	-10.3882
勤	-10.3882
瑪	-10.3882
冒	-10.3882
粟	-10.3882
暗	-10.3882
爐	-10.3882
飛來飛去	-10.3882
tomasqing	-10.3882
▁lobobonon	-10.3882
▁tonghabin	-10.3882
僅	-10.3882
困	-10.3882
沒辦法	-10.3882
百步蛇	-10.3882
菸	-10.3882
▁matmoz	-10.3882
棲	-10.3882
▁madongdong	-10.3882
粗	-10.3882
透	-10.3882
懷	-10.3882
敲	-10.3882
致	-10.3882
▁Pasimol	-10.3882
7	-10.3882
插秧	-10.3882
▁naminsoma	-10.3882
▁kangavas	-10.3882
級	-10.3882
退	-10.3882
浪費	-10.3882
消失	-10.3882
丹群	-10.3883
搭飛機	-10.3883
▁paqpon	-10.3883
▁lahaib	-10.3883
有一隻狗	-10.3883
哪些	-10.3883
qavic	-10.3883
▁takilibos	-10.3883
▁pakatoszang	-10.3883
告知	-10.3884
飲酒	-10.3884
▁maitolkok	-10.3884
聊天	-10.3885
Ival	-10.3885
▁panpongol	-10.3886
柱子	-10.3886
門口	-10.3887
跟隨	-10.3888
那樣	-10.3888
▁Taivang	-10.3889
位置	-10.3889
很美麗	-10.3889
五十	-10.389
何時	-10.3892
cindon	-10.3892
帶雨傘	-10.3892
▁sados	-10.3893
▁hiko	-10.3893
▁hotong	-10.3895
農地	-10.3895
個小孩有幾	-10.3898
▁baning	-10.3898
之處	-10.3899
▁tampo	-10.3899
▁antaban	-10.3899
▁itho	-10.39
▁mainok	-10.3904
行為	-10.3907
▁manas	-10.3911
▁Taqo	-10.3911
▁sinloc	-10.3913
▁Aizan	-10.3914
穿著	-10.3915
▁Ponpi	-10.3917
的妹妹	-10.3921
▁mavai	-10.3923
請教	-10.3927
躲	-10.3927
同時	-10.3931
skalon	-10.3936
▁Uvao	-10.394
坐在	-10.3941
▁kozkozaon	-10.3941
poot	-10.3943
我的陷阱	-10.3944
ainono	-10.3944
▁masisipol	-10.3946
▁他是你的	-10.3956
▁mapadangi	-10.3975
說族語	-10.3975
cicia	-10.3979
isoh	-10.3981
我沒有在	-10.3984
▁kitngab	-10.3989
稱做	-10.3996
很小	-10.4004
看著	-10.4006
kilim	-10.4008
sato	-10.4009
tanangaos	-10.4023
可以用來	-10.4023
kolaz	-10.4028
▁lakoa	-10.4032
pu	-10.4048
▁Antan	-10.4052
siking	-10.4067
Loki	-10.4077
果實	-10.408
▁nit	-10.41
halinga	-10.4103
madanghas	-10.4122
我喜歡吃	-10.4134
是不同的	-10.4154
babo	-10.4161
▁Kama	-10.4191
▁你今天	-10.4207
▁lak	-10.4214
我們都	-10.4217
alak	-10.4226
▁tamako	-10.4228
兩個人	-10.4236
hoz	-10.4268
我們家有	-10.435
日子	-10.4355
瘦	-10.4366
牽	-10.4369
babaliv	-10.437
假	-10.4371
架	-10.4372
座	-10.4373
是如何	-10.4374
院	-10.4374
絕	-10.4375
騎	-10.4375
紋	-10.4375
示	-10.4375
島	-10.4376
商	-10.4376
丹社群	-10.4376
決定	-10.4376
襲	-10.4376
陰	-10.4376
哎	-10.4376
拌	-10.4376
那些孩子在玩耍	-10.4376
Pasibotbot	-10.4376
▁islongosan	-10.4376
▁songhahaol	-10.4376
友	-10.4376
慕	-10.4376
染	-10.4376
的貓是黑色的	-10.4376
鎖	-10.4376
齊	-10.4376
▁bistav	-10.4376
搶	-10.4376
番石榴	-10.4376
歉	-10.4376
賜	-10.4376
閉	-10.4376
6	-10.4376
▁sincocoaz	-10.4376
蘭	-10.4376
抽	-10.4376
橫	-10.4376
▁baloko	-10.4376
▁painokan	-10.4376
▁sinbalong	-10.4376
~~	-10.4376
蜜蜂	-10.4376
權	-10.4376
良	-10.4376
▁Imita	-10.4376
穀倉	-10.4376
▁ansahan	-10.4376
吵架	-10.4376
耳朵	-10.4376
▁hangvang	-10.4377
木板	-10.4377
確實	-10.4377
看起來很美麗	-10.4377
▁mapakadaidaz	-10.4377
▁Tis	-10.4378
▁tocaos	-10.4378
直接	-10.4379
某物	-10.4379
天父	-10.438
七十	-10.438
這麼多	-10.4381
出去玩	-10.4382
樹豆	-10.4382
▁kaopahanian	-10.4382
菜園	-10.4382
牠們	-10.4383
合唱	-10.4383
講話	-10.4384
很矮	-10.4385
便當	-10.4385
▁mapahainan	-10.4385
鼻子	-10.4386
有些人	-10.4387
溪水	-10.4392
大家一起	-10.4394
▁matoa	-10.4395
去醫院	-10.4398
應用	-10.44
▁今天是	-10.44
大學	-10.4403
▁Sinsi	-10.4403
▁Laopa	-10.4408
怎麼辦	-10.4409
從事	-10.4411
受到	-10.4416
king	-10.4418
▁namaqto	-10.4426
做成	-10.4434
▁Haip	-10.4438
incomin	-10.4438
我從	-10.4441
▁mosoo	-10.4443
感到	-10.4446
女子	-10.4449
▁我不知道	-10.445
結束了	-10.4451
pavaz	-10.4456
coco	-10.4467
toshong	-10.4485
▁Qodananin	-10.4488
▁pikao	-10.4491
poh	-10.4494
現在在哪裡	-10.4499
▁kopo	-10.4508
▁coii	-10.4527
▁你媽媽	-10.4575
▁mindangkaz	-10.4578
Uli	-10.4595
mpo	-10.4603
▁那些孩子喜歡	-10.4614
的生命	-10.4615
zaq	-10.4622
▁masato	-10.4636
Malala	-10.4638
bahi	-10.4654
會洗衣服	-10.4661
是這樣的	-10.4664
要求	-10.467
分給	-10.4688
▁makasia	-10.4688
▁imi	-10.4737
▁milo	-10.4797
主要	-10.4829
▁makasa	-10.483
借給	-10.4855
遇	-10.4864
qala	-10.4876
的田地	-10.4878
房	-10.4882
瓶	-10.4884
腿	-10.489
青	-10.489
▁haizin	-10.489
賽	-10.4893
室	-10.4893
牆	-10.4895
誇	-10.4895
異	-10.4895
淚	-10.4895
驅	-10.4895
巒社群	-10.4896
團	-10.4896
雪	-10.4896
患	-10.4896
討厭	-10.4896
口簧琴	-10.4896
滴	-10.4896
micqang	-10.4896
▁Antalam	-10.4896
▁maqlic	-10.4896
▁mililiskin	-10.4896
▁sintosasaos	-10.4896
下課了	-10.4896
幹	-10.4896
戴著帽子	-10.4896
balokan	-10.4896
▁那些女孩子喜歡	-10.4896
喉	-10.4896
有智慧	-10.4896
優	-10.4896
瓢	-10.4896
翅膀	-10.4896
老闆說	-10.4896
▁ngabol	-10.4896
高麗菜	-10.4896
▁tanodoq	-10.4896
段	-10.4896
穗	-10.4896
▁binaliv	-10.4896
議	-10.4896
釘	-10.4896
otovai	-10.4896
祂	-10.4896
▁但願	-10.4896
總共	-10.4896
那間房子很大	-10.4896
季節	-10.4896
在都市	-10.4896
停止	-10.4896
仍然	-10.4896
房屋	-10.4896
意義	-10.4897
▁bonoaz	-10.4897
▁hodaspingaz	-10.4897
目前	-10.4898
Qalavangan	-10.4898
單位	-10.4898
taishang	-10.4899
▁monga	-10.4899
會下雨	-10.4901
農事	-10.4902
這支	-10.4903
殺死	-10.4903
男女	-10.4906
鄒族	-10.4906
借錢	-10.4907
▁macoaz	-10.4909
aopakadao	-10.4913
▁kamasia	-10.4915
未來	-10.4917
▁聽說	-10.4917
pdit	-10.4919
的臉	-10.4921
▁mapapatas	-10.4922
對面	-10.4923
豆子	-10.4924
▁sikaopa	-10.4926
▁sibos	-10.4926
我的橡皮擦	-10.4929
▁matahdong	-10.4932
▁hanito	-10.4938
▁matakonav	-10.4942
成長	-10.4945
▁sak	-10.4947
來自	-10.4948
▁cisoni	-10.4949
▁tastas	-10.4954
siki	-10.4956
我們今天要去	-10.4958
很快樂	-10.4962
去那裡	-10.4964
▁masalpo	-10.497
▁baso	-10.4971
▁kokozaon	-10.4973
有錢	-10.4978
▁minaonin	-10.4991
▁mapito	-10.4991
生病了	-10.5002
naicia	-10.5005
重要	-10.5009
ohaiv	-10.5009
▁Nano	-10.5018
在田裡	-10.5036
些	-10.5036
在台北	-10.5055
taban	-10.5062
▁我以前	-10.5064
很開心	-10.5072
一群	-10.5073
想起	-10.5086
▁laas	-10.5093
▁modanin	-10.5097
我不喜歡	-10.5104
oninko	-10.5104
pasavai	-10.5105
▁minsia	-10.5106
有些	-10.5113
要怎麼	-10.5117
▁lodoncia	-10.5126
ku	-10.5129
的族人	-10.5131
▁Andii	-10.5152
八十	-10.5157
kavas	-10.5167
一起唱歌	-10.5171
▁naoaz	-10.5187
▁bao	-10.5192
ung	-10.5208
▁katsia	-10.5211
ngat	-10.524
nsoma	-10.5242
kaonon	-10.5249
生長	-10.5263
odaan	-10.5276
有下雨	-10.5283
▁maopas	-10.5285
我將	-10.5313
走到	-10.5336
ngono	-10.5343
▁tanga	-10.5346
taic	-10.5357
daiza	-10.539
否	-10.5401
地上	-10.5409
▁夏天	-10.541
天天看電視	-10.5418
▁kokoa	-10.5424
矮	-10.5434
辛苦	-10.5434
折	-10.5435
鼠	-10.5439
箱	-10.5439
下方	-10.5439
終	-10.544
醉	-10.5442
尋	-10.5442
糖	-10.5443
東	-10.5443
吸	-10.5443
休	-10.5443
吵	-10.5443
恩	-10.5443
壁	-10.5443
巒	-10.5443
耐	-10.5444
寶	-10.5444
寒	-10.5444
餘	-10.5444
似	-10.5444
畢業	-10.5444
虎	-10.5444
姑婆芋	-10.5444
樓	-10.5444
維	-10.5444
黏	-10.5444
▁你晚上幾點	-10.5444
▁那些男孩子正在	-10.5444
環	-10.5444
生殖器	-10.5444
瘡	-10.5444
軍	-10.5444
Aziman	-10.5444
▁Malahtangia	-10.5444
▁masaohzang	-10.5444
▁naobahnao	-10.5444
涼	-10.5444
臟	-10.5444
這張桌子很重	-10.5444
鋪	-10.5444
驗	-10.5444
▁cisdadan	-10.5444
▁masaningsing	-10.5444
▁nenka	-10.5444
▁mihdi	-10.5444
包括	-10.5444
微	-10.5444
▁Maklang	-10.5444
感覺	-10.5444
扛	-10.5444
信仰	-10.5444
欄	-10.5444
▁cinhoza	-10.5444
▁pismali	-10.5444
糖果	-10.5444
考試	-10.5444
嘴巴	-10.5444
他們家有	-10.5444
▁paitosanavan	-10.5445
▁Masabaq	-10.5445
彎曲	-10.5445
▁mistaba	-10.5445
六個人	-10.5445
麵包	-10.5445
射擊	-10.5446
星期幾	-10.5446
五個人	-10.5446
▁Adal	-10.5446
▁Taicio	-10.5446
▁babovanis	-10.5446
曬乾	-10.5446
四個人	-10.5446
放假	-10.5447
而且	-10.5447
青年	-10.5447
告訴我們	-10.5447
傷口	-10.5447
客家人	-10.5447
音樂	-10.5448
▁bonol	-10.5448
▁mahanat	-10.5448
母語	-10.5449
蚊子	-10.5449
河流	-10.545
折斷	-10.5452
很辛苦	-10.5454
令人	-10.5455
幾年	-10.5455
等等	-10.5455
幾天	-10.5456
碰到	-10.5456
▁monqoma	-10.5456
▁請坐	-10.5457
很香	-10.5458
而已	-10.5459
去田裡	-10.5463
之外	-10.5464
▁你吃過	-10.5466
▁madolo	-10.5468
種類	-10.5468
naip	-10.5469
最多	-10.547
分開	-10.5471
這本書	-10.5473
出草	-10.5473
▁mahosbo	-10.5475
走的路	-10.5476
小米酒	-10.548
▁mapatopa	-10.5483
▁todiipin	-10.5484
▁makavas	-10.5485
▁saicin	-10.5488
sokod	-10.549
▁mabiskav	-10.5491
你叫什麼名字	-10.5493
▁kikai	-10.5499
趕走	-10.5503
的陷阱	-10.5513
cu	-10.5516
去工作	-10.5516
▁madangqac	-10.5527
▁tangaa	-10.553
▁macka	-10.5532
只要	-10.5533
taisah	-10.5541
tanam	-10.5574
去年	-10.5576
很甜	-10.5585
libat	-10.5587
▁Taioan	-10.5594
▁Namin	-10.5599
我的眼睛	-10.5604
所說的	-10.5613
▁masinav	-10.5615
lik	-10.562
去過	-10.5645
iqdi	-10.5652
▁tanghaio	-10.5657
我們的部落	-10.5661
美麗	-10.5669
▁qabasang	-10.567
nal	-10.5679
▁moncan	-10.569
halhal	-10.5745
lmanano	-10.5829
有一位	-10.5838
到這裡	-10.5838
▁saoha	-10.5846
玉	-10.5847
solot	-10.5868
▁kodi	-10.591
必須要	-10.596
kaoman	-10.598
走過	-10.5981
tahdong	-10.5984
saikin	-10.5991
▁Ik	-10.5995
▁他是你	-10.5996
論	-10.6006
dahda	-10.6009
碰	-10.6011
午	-10.6012
棄	-10.602
隔	-10.602
炒	-10.6021
聊	-10.6021
育	-10.6021
訪	-10.6022
典	-10.6022
義	-10.6022
疊	-10.6023
止	-10.6023
閃	-10.6023
按	-10.6023
助	-10.6023
練	-10.6023
歡	-10.6023
探望	-10.6023
社群	-10.6023
容	-10.6023
蜂	-10.6023
爛	-10.6023
中央山脈	-10.6023
窗	-10.6023
傲	-10.6023
腹	-10.6023
序	-10.6024
聯	-10.6024
巢	-10.6024
贏	-10.6024
隆	-10.6024
昏	-10.6024
踢	-10.6024
彈	-10.6024
扇	-10.6024
芽	-10.6024
這個嬰兒	-10.6024
▁Kamisama	-10.6024
伏	-10.6024
擠	-10.6024
檢查	-10.6024
澆	-10.6024
斤	-10.6024
松	-10.6024
補	-10.6024
麥	-10.6024
協	-10.6024
橋	-10.6024
我有一個哥哥	-10.6024
週	-10.6024
兇	-10.6024
含	-10.6024
Tamohong	-10.6024
▁masitohas	-10.6024
Ibu	-10.6024
屁股	-10.6024
賣完了	-10.6024
▁Uvavaaz	-10.6024
岸	-10.6024
▁ansaqan	-10.6024
弓箭	-10.6024
忍耐	-10.6024
我有二	-10.6024
▁tangqai	-10.6024
野獸	-10.6024
▁tingting	-10.6024
▁oslon	-10.6024
▁pinmama	-10.6024
理髮	-10.6024
▁linas	-10.6024
敬禮	-10.6024
藍色	-10.6024
▁papatasan	-10.6024
▁Takitodo	-10.6024
騎摩托車	-10.6025
▁paklis	-10.6025
▁talohan	-10.6025
美化	-10.6025
▁Kasima	-10.6025
▁isbinaz	-10.6025
幾點鐘	-10.6025
▁palaqanciap	-10.6025
的想法	-10.6025
工具	-10.6025
▁tatapa	-10.6025
小姐	-10.6025
pahood	-10.6025
的妻子	-10.6025
▁tokban	-10.6026
民族	-10.6026
▁tangia	-10.6026
男子名	-10.6026
照明	-10.6026
▁那個女孩子喜歡	-10.6027
禮物	-10.6027
▁malisvala	-10.6027
▁kamadoq	-10.6027
山坡	-10.6028
▁talpatazon	-10.6029
laitaz	-10.6029
Lipoon	-10.603
nastama	-10.603
▁lakda	-10.603
達海	-10.6031
海邊	-10.6031
牽著	-10.6031
掃地	-10.6034
ntonghaz	-10.6036
那時候	-10.6036
拿出來	-10.6037
▁savai	-10.6037
dikos	-10.6044
▁Manahip	-10.6044
sisiza	-10.6045
▁davaz	-10.6045
▁好吧	-10.6046
▁sanacia	-10.6047
很會唱歌	-10.6048
這一些	-10.6049
▁tatangis	-10.6049
▁palando	-10.6052
▁isbabaliv	-10.6054
▁dooq	-10.6055
▁malohos	-10.6056
▁sisipolan	-10.6058
利用	-10.6058
▁monapav	-10.6059
▁lipon	-10.6059
我明天要去	-10.6063
kaonos	-10.6065
去上學	-10.6069
▁Lakoa	-10.6069
喝水	-10.6072
▁macki	-10.6072
▁Isnava	-10.6073
▁nipon	-10.6076
了許多	-10.6078
▁mosqa	-10.6079
▁koling	-10.608
▁Laong	-10.6083
▁tilas	-10.6087
toszang	-10.6089
▁minsial	-10.609
像這樣	-10.609
斷了	-10.6091
▁tamol	-10.6095
▁simaq	-10.6102
bohas	-10.6103
可能是	-10.6103
kadoa	-10.6105
找到了	-10.6107
▁那些孩子	-10.6107
▁and	-10.6107
你是不是	-10.6108
整個	-10.6112
▁ihoho	-10.6116
的日子	-10.6121
全身	-10.6126
▁那裡有	-10.6142
▁Al	-10.6143
▁ispaka	-10.6154
全都	-10.6157
hiav	-10.6167
▁nakosia	-10.6201
▁tes	-10.6203
▁Misna	-10.6207
我的頭	-10.6208
▁dolpin	-10.6208
還會	-10.6211
我很喜歡	-10.6214
▁ispi	-10.6241
我今天	-10.6276
▁ican	-10.6291
doldol	-10.6299
sohaison	-10.6327
stob	-10.6334
daok	-10.6357
米粒	-10.6363
mapasavai	-10.6396
▁mavao	-10.6449
嚇	-10.6463
dangias	-10.651
laliva	-10.6514
▁cima	-10.6537
忘	-10.6602
Asang	-10.6626
底	-10.6627
令	-10.6627
鼻	-10.6627
made	-10.6631
汗	-10.6633
孩子喜歡畫圖	-10.6636
邀	-10.6636
糕	-10.6636
飲	-10.6636
棵	-10.6637
星	-10.6638
復	-10.6638
谷	-10.6638
聖	-10.6638
季	-10.6638
降	-10.6639
考	-10.6639
缺	-10.6639
郡社群	-10.6639
浪	-10.6639
易	-10.6639
敏	-10.6639
揚	-10.6639
我的爸爸是	-10.6639
莎	-10.6639
削	-10.6639
進倉祭	-10.6639
▁tanabal	-10.6639
刷	-10.6639
濃	-10.6639
mazavmazav	-10.6639
▁mapohanghang	-10.6639
▁tosasaoc	-10.6639
寬	-10.6639
忌諱	-10.6639
渴	-10.6639
尖	-10.6639
癒	-10.6639
督	-10.6639
貪	-10.6639
▁Takivatan	-10.6639
▁hanivalval	-10.6639
興趣	-10.6639
誤	-10.6639
遮	-10.6639
石壓式陷阱	-10.6639
mabongbong	-10.6639
沉	-10.6639
▁bahosaz	-10.6639
召	-10.6639
組	-10.6639
那瑪夏	-10.6639
遍	-10.6639
▁paliqabasan	-10.6639
閩南人	-10.6639
泰雅族	-10.6639
甲	-10.6639
經歷	-10.6639
▁inoliva	-10.6639
阿妲兒	-10.6639
▁tamoong	-10.6639
▁請問您	-10.6639
己經	-10.6639
便宜	-10.6639
們常常去探望祖父	-10.664
▁daqdaqanin	-10.664
sinloloc	-10.664
西瓜	-10.664
強壯	-10.664
背負	-10.664
Bazai	-10.664
qazam	-10.664
犁田	-10.664
集體	-10.664
桌上	-10.6641
Tamalasan	-10.6641
賽跑	-10.6641
假如	-10.6641
動物園	-10.6641
▁這件	-10.6641
終於	-10.6641
隨意	-10.6642
pongol	-10.6642
分鐘	-10.6643
樹枝	-10.6643
星星出來了	-10.6643
Laung	-10.6643
▁dingalan	-10.6644
太陽曬	-10.6644
▁motda	-10.6645
她的頭髮很長	-10.6646
道路	-10.6646
李子	-10.6647
少女	-10.6647
▁talmadia	-10.6647
▁makamon	-10.6647
力量	-10.6647
▁cinliskin	-10.665
▁tonganin	-10.665
很瘦	-10.6652
在做什麼	-10.6653
不夠	-10.6655
▁Atol	-10.6657
▁pabazbaz	-10.6661
▁多吃	-10.6661
Sipal	-10.6669
才不會	-10.6671
長老	-10.6676
qazo	-10.668
後天	-10.6681
▁ngaong	-10.6681
小朋友	-10.6683
小雞	-10.6683
把它	-10.6685
▁padangian	-10.6688
dimal	-10.669
▁kamadoh	-10.6692
Abis	-10.6692
的身體	-10.6694
奶奶說	-10.6698
▁cisha	-10.6699
▁maopacin	-10.6704
▁Bato	-10.6706
為主	-10.671
▁mapasadoo	-10.6711
▁lavian	-10.6717
▁我吃了	-10.6717
通過	-10.672
到處	-10.6728
solon	-10.6733
Inaak	-10.6738
sasaipok	-10.6739
不停	-10.6754
dalah	-10.6757
放到	-10.6777
那種	-10.6792
這就是	-10.6795
他的名字	-10.6801
mangai	-10.6891
瓶子	-10.6895
▁把那	-10.6898
pila	-10.6903
馬路	-10.6932
▁mosa	-10.6933
一百	-10.6948
sohais	-10.6959
返	-10.6975
vail	-10.6988
手上	-10.7009
並不	-10.7016
npasdo	-10.7018
▁Me	-10.7043
我們昨天	-10.7048
kadaan	-10.7069
隻狗	-10.7098
做什麼呢	-10.7099
▁minaha	-10.7109
totoa	-10.7118
真好	-10.7119
想著	-10.7156
ktas	-10.7166
dangkaz	-10.7188
洗臉	-10.7194
要好好	-10.7198
langqa	-10.7206
sakin	-10.7211
十二	-10.7222
叫什麼名字	-10.7237
ntongo	-10.726
個孩子	-10.7274
骨	-10.7289
vasvas	-10.7289
故	-10.7291
且	-10.7291
valval	-10.7291
答	-10.7293
茶	-10.7293
tapos	-10.7293
憐	-10.7294
注	-10.7294
姊	-10.7294
顧	-10.7294
媽	-10.7295
哥	-10.7295
繁	-10.7295
扭	-10.7295
尊	-10.7295
沿	-10.7295
漸漸	-10.7295
唉	-10.7295
palavaaz	-10.7295
哈	-10.7295
扁	-10.7295
鋸	-10.7295
模	-10.7295
▁你早上幾點	-10.7295
我早上六點	-10.7295
磨	-10.7295
端	-10.7295
妝	-10.7295
淋	-10.7295
淹	-10.7295
▁Qabasang	-10.7295
▁Tanapima	-10.7295
▁tongqovali	-10.7295
去蘭嶼	-10.7295
哀	-10.7295
唷	-10.7295
大部分	-10.7295
寄	-10.7295
搭火車去臺東	-10.7295
杵	-10.7295
▁malaqtainga	-10.7295
▁misbosok	-10.7295
▁mocingkol	-10.7295
▁pisqaitmal	-10.7295
嗯	-10.7295
液	-10.7295
Tulbus	-10.7295
batakan	-10.7295
▁Tolbos	-10.7295
▁pisvangdo	-10.7295
▁tindangkol	-10.7295
saoqzang	-10.7295
益	-10.7295
贈	-10.7295
▁mahaltom	-10.7295
上山打獵	-10.7295
巾	-10.7295
晃	-10.7295
宣	-10.7295
▁kanbantas	-10.7295
穫	-10.7295
習慣	-10.7295
咳	-10.7295
脫	-10.7295
不客氣	-10.7295
takzang	-10.7295
▁isdangza	-10.7295
▁kinolot	-10.7295
潔	-10.7295
陸	-10.7295
▁polavaz	-10.7295
▁pantina	-10.7295
展	-10.7295
擔任	-10.7295
鄰居	-10.7295
▁Kavava	-10.7295
貨	-10.7295
▁aipincin	-10.7295
配偶	-10.7295
祖靈	-10.7295
▁Tanaol	-10.7295
麻煩	-10.7295
鐘睡覺	-10.7295
搭乘	-10.7295
▁patacan	-10.7295
amaminan	-10.7295
▁malaskan	-10.7296
▁aohsa	-10.7296
例如	-10.7296
表示	-10.7296
misqang	-10.7296
▁nasiza	-10.7296
閃電	-10.7296
▁ngotos	-10.7296
olongqoan	-10.7296
網袋	-10.7296
數字	-10.7296
▁bonglai	-10.7296
那棵樹	-10.7297
+:	-10.7297
bazang	-10.7297
棒球	-10.7297
代表	-10.7297
參與	-10.7297
Hanaivaz	-10.7297
▁takiVatan	-10.7298
改變	-10.7298
成員	-10.7298
木材	-10.7298
教室	-10.7298
趕鳥	-10.7299
而言	-10.73
我今天從	-10.73
捕魚	-10.7301
▁hoboq	-10.7301
天天讀書	-10.7301
玩具	-10.7301
骨頭	-10.7301
kaop	-10.7301
三次	-10.7301
▁Cinpi	-10.7301
剛才	-10.7302
kailas	-10.7303
▁qaqanop	-10.7304
cikis	-10.7304
▁mangkon	-10.7304
山區	-10.7304
心情	-10.7304
hanglas	-10.7305
砍草	-10.7306
一點點	-10.7306
獵刀	-10.7307
試著	-10.7307
▁namodaan	-10.7308
▁tonsila	-10.7308
力氣	-10.731
▁那個老人	-10.731
▁qodasno	-10.7312
saqbit	-10.7313
前天	-10.7314
不論	-10.7315
▁tangosang	-10.7315
▁makackac	-10.7316
小山豬	-10.7319
撞到	-10.7321
▁bakal	-10.7322
坐著	-10.7325
兩種	-10.7326
▁itobonon	-10.7333
kaonan	-10.7335
花生	-10.7336
▁qen	-10.7337
▁tamong	-10.7343
▁hezang	-10.7347
▁masivit	-10.7354
她們	-10.7359
▁madohlas	-10.7359
▁macalpo	-10.736
這是山豬	-10.7365
▁maldikos	-10.7366
▁makolot	-10.7366
不要再	-10.7369
親家	-10.7372
Ulang	-10.7372
小狗	-10.7381
vilis	-10.7385
▁pangqa	-10.7396
分享給	-10.7397
▁saivan	-10.7404
那是樹	-10.7411
▁malkacia	-10.7414
cil	-10.7419
▁matono	-10.7434
patoc	-10.7442
▁Cimaq	-10.7446
▁kapi	-10.7447
odiip	-10.7453
到山上	-10.7466
▁Vali	-10.7476
▁你幾歲	-10.7481
嚇到	-10.7487
tanngadah	-10.7487
收到	-10.7505
ispakaon	-10.7523
▁noba	-10.7533
islancan	-10.7533
masiva	-10.7538
Savi	-10.7547
Ciang	-10.7549
cilasan	-10.7594
是嘛	-10.7599
很快就	-10.7615
sansan	-10.7627
▁pong	-10.7638
inataz	-10.7654
射到	-10.7666
▁taonasia	-10.768
ving	-10.7684
kadang	-10.7689
夠	-10.769
poda	-10.7698
抓到	-10.7713
如果沒有	-10.7715
iahdi	-10.7723
ntata	-10.7739
▁Icaq	-10.7762
存放	-10.7776
▁Lodon	-10.7786
春天	-10.7796
qaliv	-10.7813
待人	-10.7861
陷阱抓	-10.7866
▁Kon	-10.7866
laizo	-10.7874
hosbo	-10.7941
人數	-10.7962
支	-10.7967
在地上	-10.7967
▁madadaing	-10.7967
pinao	-10.7973
kaskas	-10.7978
雷	-10.7993
員	-10.7994
揮	-10.7995
豐	-10.7995
右	-10.7996
藍	-10.7996
錄	-10.7996
城	-10.7996
靜	-10.7996
觸	-10.7996
龜	-10.7996
偶	-10.7997
帥	-10.7997
徵	-10.7997
竿	-10.7997
臺東	-10.7997
歸	-10.7997
凡	-10.7997
測	-10.7997
揉	-10.7997
況	-10.7997
悔	-10.7997
我有一個姊姊	-10.7997
澀	-10.7997
的衣服是紅色的	-10.7997
範	-10.7997
籠	-10.7997
陶	-10.7997
O	-10.7997
paintataiv	-10.7997
qanimolmol	-10.7997
qasibang	-10.7997
▁kalapatan	-10.7997
▁mataliskang	-10.7997
▁takBanoaz	-10.7997
▁takisilazan	-10.7997
▁tantotongo	-10.7997
▁那個男孩子正在	-10.7997
又大又	-10.7997
告訴他	-10.7997
呵	-10.7997
在吃芋頭	-10.7997
欠	-10.7997
醃	-10.7997
▁timoqos	-10.7997
好久不見	-10.7997
密	-10.7997
相親相愛	-10.7997
▁aloszangan	-10.7997
嫩	-10.7997
診	-10.7997
▁siqoic	-10.7997
拋	-10.7997
禁戒	-10.7997
霧	-10.7997
危	-10.7997
pacqal	-10.7997
▁okiliman	-10.7997
治療	-10.7997
蝗蟲	-10.7997
安慰	-10.7997
kitvevi	-10.7997
長高了	-10.7997
建築	-10.7997
▁sisasa	-10.7997
害羞	-10.7997
下大雨	-10.7997
尊敬	-10.7997
▁iskalonan	-10.7997
kakiiv	-10.7997
誇功宴	-10.7997
商店	-10.7997
探視	-10.7997
獸皮	-10.7997
卡社群	-10.7998
去探望祖父	-10.7998
qainsaza	-10.7998
兄姊	-10.7998
呼吸	-10.7998
勸告	-10.7998
賺錢	-10.7998
▁Maqoaq	-10.7998
拍照	-10.7998
▁Panpongol	-10.7998
的衣服是白色的	-10.7998
年紀	-10.7998
四點鐘	-10.7998
排隊	-10.7998
Batu	-10.7998
可憐	-10.7999
我可以跟你	-10.7999
修理	-10.7999
布農族語	-10.7999
通稱	-10.7999
假日	-10.7999
器具	-10.7999
順利	-10.8
觀光	-10.8
共同	-10.8
其實	-10.8
▁halacan	-10.8
洗碗	-10.8
伊比	-10.8
▁taintongo	-10.8
玉米粉	-10.8
雞舍	-10.8001
點鐘睡覺	-10.8001
臭蟲	-10.8001
▁taohomis	-10.8001
▁mahaiav	-10.8001
▁kaimadoh	-10.8002
等待	-10.8002
壓住	-10.8002
▁她忘了	-10.8002
的學校在哪裡	-10.8002
懂得	-10.8002
完全	-10.8003
▁aloskonan	-10.8003
▁cikaopa	-10.8003
蛇類	-10.8003
重新	-10.8003
▁Langos	-10.8003
loqoc	-10.8003
站起來	-10.8004
▁dingki	-10.8004
polpol	-10.8004
小腿	-10.8004
六十	-10.8005
鞋子	-10.8005
法器	-10.8005
獵槍	-10.8005
▁malkabonon	-10.8005
聲部	-10.8006
▁Namabaliv	-10.8006
pakiton	-10.8008
15	-10.8008
快一點	-10.8008
▁takioc	-10.8008
晚上十	-10.8008
心靈	-10.8009
▁aboqan	-10.8009
▁Malastapang	-10.801
樹皮	-10.8011
taimang	-10.8012
三十	-10.8013
ladoaz	-10.8016
相當	-10.8016
▁Pangka	-10.8016
Uvau	-10.8017
▁kaqaningo	-10.8017
全家人	-10.802
▁mosoqis	-10.802
▁Uvaz	-10.8021
▁manongsiv	-10.8023
▁Kaoman	-10.8024
上衣	-10.8024
ozakoza	-10.8027
ptoh	-10.8031
▁hasila	-10.8034
和我們一起	-10.8035
ngadaq	-10.8036
▁sisbai	-10.8037
很冷	-10.8038
好喔	-10.8042
夏天時	-10.8043
吃完	-10.8043
▁maidosa	-10.8045
這是貓頭鷹	-10.805
▁mosbai	-10.8051
大石頭	-10.8054
▁Saisia	-10.8055
是我自己	-10.806
▁mindahpa	-10.8063
個小時	-10.8066
背著	-10.807
▁palioni	-10.8071
放在哪裡	-10.8071
▁minadas	-10.8078
sipal	-10.8085
進來	-10.8092
▁Haito	-10.8094
zingki	-10.8098
▁Makoaq	-10.8104
他們昨天去	-10.8107
cinicini	-10.8112
hibol	-10.812
▁Ising	-10.8123
會說族語	-10.8129
這是青蛙	-10.8146
些什麼	-10.8153
國家	-10.8174
▁mongab	-10.8182
▁cimaq	-10.8194
喜歡春天	-10.8203
對待	-10.8205
放進	-10.8212
libos	-10.8226
▁Tail	-10.8234
哪一個	-10.8271
還有很多	-10.829
生火	-10.8296
lohos	-10.8323
▁Tanam	-10.8333
oslod	-10.8336
▁taonasian	-10.8352
nahip	-10.8376
doqlac	-10.8385
todoldol	-10.8403
一個妹妹	-10.8426
▁把那個	-10.843
qanop	-10.8458
▁el	-10.8508
開心	-10.8539
modaanin	-10.8549
遷移	-10.8577
sidoh	-10.8588
▁kozkoza	-10.8678
躲在	-10.8678
本來就	-10.8717
許	-10.874
候	-10.8743
坡	-10.8747
參	-10.8748
司	-10.875
婆	-10.875
述	-10.875
罰	-10.875
犁	-10.875
丹	-10.8751
偶爾	-10.8751
怪	-10.8751
適	-10.8751
壯	-10.8751
是白色的	-10.8751
糊	-10.8751
升	-10.8751
乘	-10.8752
費	-10.8752
徒	-10.8752
迎	-10.8752
逐	-10.8752
苗	-10.8752
窩	-10.8752
衛生紙	-10.8752
▁這句話	-10.8752
咒	-10.8752
沾	-10.8752
漏	-10.8752
瞎	-10.8752
糞	-10.8752
耙	-10.8752
茄	-10.8752
▁Amilika	-10.8752
▁Laniaho	-10.8752
▁Takbanoaz	-10.8752
▁maitastolomah	-10.8752
▁petasan	-10.8752
▁pislipoahan	-10.8752
▁takiBakha	-10.8752
▁tesmomot	-10.8752
奏	-10.8752
我忘記帶錢了	-10.8752
歷史	-10.8752
肩	-10.8752
vohvoh	-10.8752
▁paklic	-10.8752
土石流	-10.8752
效	-10.8752
票	-10.8752
蔥	-10.8752
lakangkang	-10.8752
▁sintosaos	-10.8752
▁那個女人有幾	-10.8752
播種祭	-10.8752
撿	-10.8752
值	-10.8752
眾	-10.8752
證	-10.8752
醬油	-10.8752
▁Langoi	-10.8752
▁talmaindo	-10.8752
皮膚病	-10.8752
預備	-10.8752
Mihomisang	-10.8752
▁sintataho	-10.8752
跨	-10.8752
▁painokon	-10.8752
▁sinhanat	-10.8752
嚼	-10.8752
究	-10.8752
芭樂	-10.8752
比特幣	-10.8752
桃源	-10.8752
仁	-10.8752
▁bocol	-10.8752
勢	-10.8752
▁malosapoz	-10.8752
充	-10.8752
驅邪	-10.8752
▁nosong	-10.8752
構	-10.8752
▁taldanav	-10.8752
▁pahainanan	-10.8752
taisqang	-10.8752
夢占	-10.8752
公尺	-10.8752
Izok	-10.8752
▁Nalakoa	-10.8752
幸福	-10.8752
halidang	-10.8752
▁kohaav	-10.8752
▁olomahon	-10.8753
dinoon	-10.8753
特質	-10.8753
裏面	-10.8753
▁podanon	-10.8753
masipaton	-10.8753
戰爭	-10.8753
綁腿	-10.8753
建造	-10.8753
綠豆	-10.8753
▁siiho	-10.8753
舂打	-10.8753
故意	-10.8754
▁pihanon	-10.8754
採集	-10.8754
講述	-10.8754
正在洗臉	-10.8754
女子名	-10.8754
前院	-10.8754
混合	-10.8754
三個孩子	-10.8754
▁Qani	-10.8754
依照	-10.8754
▁zikang	-10.8754
集合	-10.8755
請開門	-10.8755
喜愛	-10.8755
亡者	-10.8755
▁Minpongol	-10.8756
流血	-10.8756
提親	-10.8756
mosqot	-10.8756
樁米	-10.8756
地板	-10.8756
nqaqavic	-10.8756
▁Sanavan	-10.8757
樹葉	-10.8757
祖父祖母	-10.8757
祖父母	-10.8757
國語	-10.8758
▁pakadaidaz	-10.8758
▁dandan	-10.8758
面前	-10.8759
▁malvasvas	-10.8759
▁Tamadiqanin	-10.8759
方面	-10.876
除草	-10.876
▁pisainon	-10.876
▁haval	-10.8761
▁tataho	-10.8761
▁Baliv	-10.8761
分散	-10.8762
這個孩子	-10.8762
還需要	-10.8762
sakbit	-10.8763
一起去打獵	-10.8764
地區	-10.8764
在家等	-10.8764
開門	-10.8765
motmot	-10.8765
如同	-10.8765
kazima	-10.8765
lhaipo	-10.8766
▁Sintopa	-10.8766
bahat	-10.8767
時鐘	-10.8767
▁lailai	-10.8768
▁langat	-10.8768
▁Andaza	-10.8768
偷東西	-10.877
▁sahosbo	-10.877
▁namabaliv	-10.877
白天	-10.8771
嫁給	-10.8771
delaz	-10.8772
tostos	-10.8772
▁tongko	-10.8776
▁tinnao	-10.8776
其中	-10.8776
palasong	-10.8778
下次再來	-10.8782
事情	-10.8782
istaqo	-10.8784
▁Toqao	-10.8786
▁sinsaiv	-10.8787
一切	-10.8787
海裡	-10.8788
▁sinihomis	-10.8789
請給我	-10.8789
背後	-10.879
▁inaliv	-10.8793
很容易	-10.8796
接著	-10.8797
▁monasto	-10.8799
他很喜歡	-10.8801
你的筆	-10.8804
▁ovazpingaz	-10.8805
tahis	-10.8808
aohaz	-10.8814
點鐘	-10.8815
▁qalom	-10.8816
ispasado	-10.882
我們的老師	-10.8821
那是地瓜	-10.8822
▁dalahcin	-10.883
▁Samo	-10.8831
▁Minaon	-10.8835
sidangkaz	-10.8878
dohtaz	-10.8879
個妹妹	-10.8882
▁Isima	-10.8895
▁noka	-10.89
tosok	-10.8933
會犯忌	-10.8968
心想	-10.9019
tangsi	-10.9046
▁haongo	-10.9057
七個	-10.9073
kadiip	-10.9106
inson	-10.9142
氏	-10.916
nanop	-10.9236
tomantok	-10.9238
他的手	-10.9359
dahvi	-10.9367
▁tastosaba	-10.9381
vahlas	-10.9413
稱呼	-10.9429
所謂	-10.9437
▁mincivi	-10.9503
幾歲	-10.9529
速	-10.953
巨	-10.9553
般	-10.9559
課	-10.9559
lotbo	-10.9561
朵	-10.9565
釣	-10.9566
己	-10.9566
婦	-10.9567
律	-10.9567
非	-10.9567
臺	-10.9567
仍	-10.9568
永	-10.9568
案	-10.9568
職	-10.9568
奶	-10.9568
爾	-10.9568
側	-10.9568
舅	-10.9568
腐	-10.9568
忍	-10.9568
忽	-10.9569
誠	-10.9569
屁	-10.9569
擋	-10.9569
大自然	-10.9569
陷	-10.9569
掌	-10.9569
卑南族	-10.9569
梳	-10.9569
劈	-10.9569
暈	-10.9569
穿山甲	-10.9569
▁Nga	-10.9569
▁qatibing	-10.9569
一個星期有	-10.9569
今天老師要教大家	-10.9569
拴	-10.9569
甚麼時候	-10.9569
蜘	-10.9569
Abus	-10.9569
bosziah	-10.9569
cipciah	-10.9569
sombang	-10.9569
▁Ngaingai	-10.9569
▁iniqomisan	-10.9569
▁kokotdaqon	-10.9569
▁lainihaiban	-10.9569
▁minpakaliva	-10.9569
▁namintalabal	-10.9569
▁pattilasan	-10.9569
▁sibotbot	-10.9569
吞	-10.9569
我來找你	-10.9569
灑	-10.9569
疏	-10.9569
禍	-10.9569
耆老們	-10.9569
融	-10.9569
Sinapalan	-10.9569
▁Tinpiaq	-10.9569
▁babango	-10.9569
▁latasban	-10.9569
▁maqaltom	-10.9569
▁qamican	-10.9569
呦	-10.9569
暖	-10.9569
桿	-10.9569
災	-10.9569
牢	-10.9569
違	-10.9569
錶	-10.9569
▁Malocbot	-10.9569
▁qamotic	-10.9569
崩	-10.9569
秧苗	-10.9569
鴨	-10.9569
▁tonlosqo	-10.9569
獨特的	-10.9569
耀	-10.9569
魯	-10.9569
▁matatapol	-10.9569
他是我的哥哥	-10.9569
局	-10.9569
Kulili	-10.9569
我還要買	-10.9569
簡	-10.9569
▁minpooh	-10.9569
仇	-10.9569
泉	-10.9569
boklas	-10.9569
▁namodanin	-10.9569
瞭	-10.9569
用左手	-10.9569
▁pacinganan	-10.9569
▁podanoman	-10.9569
蜂蜜	-10.9569
Kavida	-10.9569
幣	-10.9569
你放學	-10.9569
懷孕	-10.9569
菜餚	-10.9569
▁matingaan	-10.9569
▁tohnaz	-10.9569
bailolo	-10.9569
我有很多朋友	-10.9569
偷竊	-10.9569
找不到	-10.9569
舒服	-10.9569
▁Kilim	-10.9569
olozi	-10.9569
▁kakosong	-10.9569
操場	-10.9569
的腳印	-10.9569
▁Ieso	-10.9569
稱讚	-10.9569
Kimat	-10.9569
▁qapong	-10.9569
卓群	-10.9569
提升	-10.9569
談論	-10.9569
你那裡的天氣	-10.9569
▁niapang	-10.9569
綠頭蒼蠅	-10.9569
長褲	-10.9569
toqtoq	-10.9569
伯父	-10.9569
堆積	-10.9569
柚子	-10.9569
泥土	-10.9569
神聖	-10.9569
按照	-10.957
mapantala	-10.957
目標	-10.957
聚在一起	-10.957
圍牆	-10.957
lsisivit	-10.957
實現	-10.957
▁itqaal	-10.957
Avandi	-10.957
▁pinitsanavan	-10.957
騎腳踏車上學	-10.957
▁makilansan	-10.957
處罰	-10.957
kahaitas	-10.957
褲子	-10.957
lohloh	-10.957
專門	-10.9571
▁ancaqan	-10.9571
▁malilia	-10.9571
願望	-10.9571
▁makisaiv	-10.9571
▁Sipongol	-10.9571
▁minoqo	-10.9571
變化	-10.9571
▁maqlis	-10.9571
安排	-10.9572
▁salvi	-10.9572
古代的	-10.9572
放棄	-10.9572
聲響	-10.9572
▁tolmi	-10.9573
▁秋天時	-10.9573
角落	-10.9573
▁Issima	-10.9573
機器	-10.9573
bahbah	-10.9573
▁kaosian	-10.9574
溪邊	-10.9575
▁sisili	-10.9576
箱裡	-10.9576
mazmaz	-10.9577
▁boqol	-10.9577
▁我要離開	-10.9577
物品	-10.9578
梅子	-10.9578
機車	-10.9578
▁mapongadah	-10.9578
▁tastosidoq	-10.9579
▁bohol	-10.9579
方形	-10.9579
daqdaq	-10.9579
一本	-10.9581
AL	-10.9583
布農族的傳統	-10.9583
▁mahalav	-10.9583
帶領	-10.9584
dahdah	-10.959
▁Todip	-10.9591
▁sintataqo	-10.9591
▁tamadiqanin	-10.9591
▁sinbazbaz	-10.9592
住在一起	-10.9592
▁minqamisan	-10.9593
▁Tongan	-10.9594
圍著	-10.9595
那本書	-10.9597
▁paqosil	-10.9598
onqoqoma	-10.9599
牛肉	-10.9603
▁olomaqon	-10.961
▁Namasia	-10.961
▁kavava	-10.9615
▁minnadii	-10.9615
這位	-10.962
從此	-10.9621
pavaaz	-10.9624
我的名字叫	-10.9628
dohlas	-10.9634
nastocin	-10.9639
幫我拿	-10.9646
Tahail	-10.9662
hnot	-10.9686
每一個	-10.9687
macabaq	-10.9698
那不是	-10.9705
耕田	-10.9709
遷移到	-10.9763
nodanan	-10.9767
月桃	-10.9821
Ican	-10.9909
返回	-10.9984
pinaskal	-11.0088
取名	-11.0109
ingmot	-11.0112
瓶子裡	-11.0114
izoh	-11.02
▁cik	-11.0215
的部落在	-11.0279
黑色	-11.0355
paloh	-11.0381
辦	-11.0397
▁qood	-11.0404
裏	-11.0405
據	-11.0445
免	-11.0455
護	-11.0455
旅	-11.0456
疼	-11.0456
束	-11.0457
列	-11.0457
北	-11.0457
積	-11.0457
憂	-11.0457
畢	-11.0458
收割	-11.0458
臥	-11.0458
備	-11.0458
朝	-11.0458
陣	-11.0458
琴	-11.0458
希望能	-11.0458
濁	-11.0458
鳳	-11.0458
誕	-11.0458
怒	-11.0458
暫	-11.0458
宿	-11.0458
極	-11.0458
窮	-11.0458
脆	-11.0458
叮	-11.0458
弱	-11.0458
警	-11.0458
很想念祖母	-11.0458
我被蚊子咬	-11.0458
笨	-11.0458
索	-11.0458
辭	-11.0458
Langui	-11.0458
兵	-11.0458
嗚	-11.0458
堵	-11.0458
從那時起	-11.0458
悶	-11.0458
溝	-11.0458
露	-11.0458
bangsit	-11.0458
qemangsot	-11.0458
▁palihansiap	-11.0458
▁今天是好天氣	-11.0458
去澎湖	-11.0458
咬人貓	-11.0458
搓	-11.0458
那天會下雨	-11.0458
tavokol	-11.0458
▁ispasimol	-11.0458
▁kapimopa	-11.0458
▁mapasnanava	-11.0458
▁monghoma	-11.0458
▁palaskan	-11.0458
巧	-11.0458
筆記本	-11.0458
蒼	-11.0458
▁ishahaishais	-11.0458
▁isqaqanop	-11.0458
倫	-11.0458
副	-11.0458
家有多少人	-11.0458
百香果	-11.0458
運動會那天	-11.0458
塗	-11.0458
憤怒	-11.0458
打噴嚏	-11.0458
沖	-11.0458
▁Mindangkaza	-11.0458
曆	-11.0458
Atul	-11.0458
▁Paqpon	-11.0458
▁mapasimol	-11.0458
你們有賣	-11.0458
否則會	-11.0458
系	-11.0458
▁mantatala	-11.0458
嘟	-11.0458
欣賞	-11.0458
習俗	-11.0458
避	-11.0458
▁kahohozas	-11.0458
▁banananaz	-11.0458
▁takitodo	-11.0458
bosolkavi	-11.0458
▁pinasah	-11.0458
lahcip	-11.0458
域	-11.0458
一會兒	-11.0458
睡著了	-11.0458
節慶	-11.0458
臥室	-11.0458
▁hinanop	-11.0458
吃飽了	-11.0458
腐爛	-11.0458
乞	-11.0458
繪	-11.0458
我們全家都	-11.0458
▁atitikic	-11.0458
Sasaspa	-11.0458
tohtoh	-11.0458
觸摸	-11.0458
豐富	-11.0458
錄影	-11.0458
我正要	-11.0458
郡群	-11.0458
▁inihomisan	-11.0459
覆蓋	-11.0459
憂傷	-11.0459
孤兒	-11.0459
保護	-11.0459
木炭	-11.0459
▁mikoi	-11.0459
▁isdangazin	-11.0459
hasipa	-11.0459
麵粉	-11.0459
祭拜	-11.0459
會講布農語	-11.0459
▁mamita	-11.0459
kolkol	-11.046
嫁娶	-11.046
製造	-11.046
右邊	-11.046
愛護	-11.046
▁sinkahozas	-11.046
注意	-11.046
遇見	-11.046
haishais	-11.046
綠色	-11.046
法律	-11.046
傷害	-11.046
田鼠	-11.0461
ongqoqoma	-11.0461
戴帽子	-11.0461
palontan	-11.0461
河邊游泳	-11.0461
收割小米	-11.0461
▁hodasnanaz	-11.0461
反正	-11.0461
baoszang	-11.0462
▁pinonion	-11.0462
順便	-11.0462
▁palkadaan	-11.0462
▁makilavi	-11.0462
loklas	-11.0462
逃跑	-11.0462
▁halcis	-11.0463
隔天	-11.0463
九十	-11.0463
放置	-11.0463
▁vavao	-11.0463
▁saitaan	-11.0463
▁qaloa	-11.0463
卡車	-11.0464
舉行祭典	-11.0464
▁posot	-11.0464
▁naminhamisan	-11.0464
獲得	-11.0464
長輩們	-11.0464
裙子	-11.0464
獨唱	-11.0465
加熱	-11.0466
▁taldaingin	-11.0466
▁Moqna	-11.0466
魚網	-11.0466
三本書	-11.0467
dikot	-11.0467
很髒	-11.0467
tanavili	-11.0467
汗水	-11.0467
稻米	-11.0467
▁tozatoza	-11.0468
▁mahaipi	-11.0468
製成	-11.0469
▁hikoki	-11.047
▁temi	-11.047
痛風	-11.047
▁Kanahtong	-11.0471
書包	-11.0471
只能	-11.0471
腰帶	-11.0472
藏起來	-11.0472
Bahin	-11.0472
你喜歡什麼	-11.0472
方向	-11.0473
布農酒	-11.0473
站著	-11.0473
▁Monhaan	-11.0473
minataz	-11.0474
死者	-11.0474
相同	-11.0474
▁mamasqa	-11.0475
竹雞	-11.0475
▁Losqa	-11.0477
正在唱歌	-11.0477
pithos	-11.0478
▁Todiip	-11.048
maidodo	-11.0482
我的帽子	-11.0482
nqatba	-11.0483
小小的	-11.0487
▁Modaan	-11.0489
▁sokoi	-11.0492
isqaq	-11.0493
▁nakoisa	-11.0495
kakiv	-11.0496
快速	-11.05
mabananaz	-11.0501
▁tapaa	-11.0502
painsanan	-11.0505
laopako	-11.0509
▁cikopa	-11.0515
我的故鄉	-11.0526
▁dangal	-11.053
tastoboan	-11.0537
即將	-11.0539
patal	-11.054
dalavdavin	-11.0554
manac	-11.0554
弄斷	-11.0554
titin	-11.0559
isqolong	-11.058
▁她是你	-11.0629
picihal	-11.0642
pishaiap	-11.0696
istaba	-11.075
pakadahvi	-11.0862
pinsoma	-11.0885
linsio	-11.0953
sonos	-11.1005
lading	-11.1028
▁Anaqa	-11.121
▁nakodi	-11.1282
ncomin	-11.1328
髮	-11.1333
▁savil	-11.1354
需	-11.1418
李	-11.1422
杯	-11.1422
的頭髮很長	-11.1424
髒	-11.1424
比賽跑步	-11.1425
櫻花	-11.1429
▁pipit	-11.1431
旁	-11.1433
泥	-11.1433
勸	-11.1433
減	-11.1433
識	-11.1433
附	-11.1433
察	-11.1433
價	-11.1434
袖	-11.1434
討	-11.1434
無論是	-11.1434
略	-11.1434
啟	-11.1434
~	-11.1434
戶	-11.1434
披	-11.1434
繫	-11.1434
健	-11.1434
▁kolin	-11.1434
榮	-11.1434
Lukus	-11.1434
伐	-11.1434
周	-11.1434
哄	-11.1434
哭泣	-11.1434
尼	-11.1434
撐	-11.1434
囉	-11.1434
岩	-11.1434
漆	-11.1434
知道的不多	-11.1434
緩	-11.1434
薄	-11.1434
駛	-11.1434
▁lehleh	-11.1434
▁tangqapo	-11.1434
博	-11.1434
梯	-11.1434
湖	-11.1434
獨自一人	-11.1434
皇帝豆	-11.1434
臨	-11.1434
要去廁所	-11.1434
魔	-11.1434
Amolika	-11.1434
Balincinan	-11.1434
f	-11.1434
▁haonghaong	-11.1434
▁intangaosan	-11.1434
▁paliskadan	-11.1434
▁pasontamol	-11.1434
▁qaimangsot	-11.1434
凱	-11.1434
徑	-11.1434
我們要到田裡	-11.1434
搭高鐵去高雄	-11.1434
明年冬天會很冷	-11.1434
焦	-11.1434
營	-11.1434
知道嬸嬸明天要來	-11.1434
老師要帶我們去山上	-11.1434
胃	-11.1434
G	-11.1434
▁talbinao	-11.1434
一整天	-11.1434
垢	-11.1434
塔	-11.1434
壯碩	-11.1434
奉獻	-11.1434
封	-11.1434
庭院	-11.1434
打耳祭	-11.1434
抬	-11.1434
撈	-11.1434
筒	-11.1434
訂	-11.1434
teklas	-11.1434
乳	-11.1434
被風吹	-11.1434
科	-11.1434
謠	-11.1434
爐灶	-11.1434
研討	-11.1434
複	-11.1434
▁makadim	-11.1434
▁odongko	-11.1434
擁抱	-11.1434
素	-11.1434
▁kaidaqvasan	-11.1434
姆	-11.1434
洞穴	-11.1434
▁kailatan	-11.1434
杜	-11.1434
sahdil	-11.1434
踏	-11.1434
陡	-11.1434
▁Lomav	-11.1434
創	-11.1434
▁Tanivo	-11.1434
▁pisanglavan	-11.1434
▁piszangon	-11.1434
揚糠	-11.1434
餅乾	-11.1434
Umau	-11.1434
▁kokocon	-11.1434
▁pongadahon	-11.1434
們天天一起讀書	-11.1434
臀部	-11.1434
▁lovos	-11.1434
▁pataliva	-11.1434
Namolomaq	-11.1434
跡	-11.1434
▁我們經過了	-11.1434
姑	-11.1434
盼望	-11.1434
舉辦	-11.1434
碰觸	-11.1434
泥巴	-11.1435
▁odamoan	-11.1435
▁pilomahon	-11.1435
套頸	-11.1435
會製作套索陷阱	-11.1435
▁sapil	-11.1435
▁拿出你的	-11.1435
護士	-11.1435
鬼魂	-11.1435
讚美	-11.1435
竹筍	-11.1435
發抖	-11.1435
烏龜	-11.1435
hapzan	-11.1435
城市	-11.1435
幾乎	-11.1435
▁masosoaz	-11.1435
排列	-11.1435
▁kankan	-11.1435
增加	-11.1435
tamasaki	-11.1435
▁ansaso	-11.1435
▁koangbonon	-11.1435
織紋	-11.1435
我只是在	-11.1435
▁silazan	-11.1436
呼喊	-11.1436
▁saolaopako	-11.1436
▁今天是星期幾	-11.1436
市區	-11.1436
偶爾也會	-11.1436
我可以出去玩	-11.1436
分成兩	-11.1436
▁olalai	-11.1436
▁tombos	-11.1436
石板屋	-11.1436
旅行	-11.1436
搭船	-11.1436
聚落	-11.1436
擔心	-11.1436
農夫	-11.1436
正確	-11.1437
paqpaq	-11.1437
照片	-11.1437
快進來	-11.1437
老婆	-11.1437
給予	-11.1437
▁bainoPoot	-11.1437
停下來	-11.1437
▁momodan	-11.1437
▁qaivalval	-11.1438
▁kanaskalon	-11.1438
終點	-11.1438
綁緊	-11.1438
喝醉	-11.1438
演唱	-11.1439
▁kalkal	-11.1439
搭什麼去	-11.1439
山蘇	-11.1439
▁babazbaz	-11.1439
同學們	-11.1439
有兩個太陽	-11.1439
satamal	-11.1439
炒菜	-11.1439
書本	-11.144
打雷	-11.144
神話	-11.144
月份	-11.1441
mosmos	-11.1441
是什麼意思	-11.1441
在森林裡	-11.1442
這件事	-11.1442
kalkalan	-11.1442
處理	-11.1442
各個	-11.1443
打架	-11.1443
太貴	-11.1444
▁Malbonto	-11.1444
看不到	-11.1445
是布農族的小孩	-11.1446
Taloko	-11.1448
sasais	-11.145
popono	-11.145
zaipoh	-11.1451
這是我種的	-11.1458
inbohboh	-11.1467
Taopas	-11.1468
今天天氣如何	-11.1471
sbing	-11.1472
shit	-11.1475
女方家	-11.1476
Panai	-11.1497
scoav	-11.1505
們天天來這裡吃晚餐	-11.1515
kingkio	-11.1522
▁Tongk	-11.1538
Lian	-11.1545
macanav	-11.1552
itopi	-11.1593
pataqo	-11.1598
maqoaq	-11.1604
tokiso	-11.1629
qaningo	-11.1674
tainga	-11.1686
tolkok	-11.1706
heza	-11.1716
ingkio	-11.1742
▁cismaz	-11.1939
tanghai	-11.2108
ntang	-11.2143
▁Kosba	-11.2374
saozan	-11.2396
cabaq	-11.2414
來看你	-11.2475
敵	-11.2495
nongsiv	-11.25
梅	-11.2504
鞋	-11.2504
肚	-11.2504
板	-11.2508
蘇	-11.2511
kikingna	-11.2511
覺	-11.2512
享	-11.2513
雄	-11.2513
興	-11.2514
扔	-11.2514
探	-11.2514
校	-11.2514
那間房子	-11.2515
增	-11.2515
淨	-11.2515
每次都	-11.2515
弓	-11.2515
魂	-11.2515
幸	-11.2516
越來越	-11.2516
席	-11.2516
▁你搭什麼	-11.2516
蕨	-11.2516
紀錄	-11.2516
太魯閣族	-11.2516
拾	-11.2516
膀	-11.2516
擲	-11.2516
唯	-11.2516
▁你從哪裡來	-11.2516
亞	-11.2516
啄木鳥	-11.2516
\	-11.2516
一閃一閃	-11.2516
同名者	-11.2516
啃	-11.2516
在回家的路上	-11.2516
扮	-11.2516
睜	-11.2516
績	-11.2516
缸	-11.2516
莖	-11.2516
轟	-11.2516
indidingan	-11.2516
▁我可以借你的	-11.2516
▁我有一台	-11.2516
吠	-11.2516
噎	-11.2516
烏瑪斯	-11.2516
sisvahon	-11.2516
taohtaoh	-11.2516
▁Talabal	-11.2516
▁mamaitmait	-11.2516
▁misnanoal	-11.2516
▁paicilain	-11.2516
▁sinsinaipok	-11.2516
▁takiTodo	-11.2516
▁我爸爸的名字是	-11.2516
台電視	-11.2516
執	-11.2516
大聲一點	-11.2516
很溫暖	-11.2516
我沒有帶傘	-11.2516
樟	-11.2516
毛毛雨	-11.2516
澀澀的	-11.2516
稷	-11.2516
置物架	-11.2516
蘋果	-11.2516
鉤	-11.2516
饋	-11.2516
Taupas	-11.2516
qancep	-11.2516
tavasio	-11.2516
▁Lepon	-11.2516
▁amilika	-11.2516
▁bikni	-11.2516
▁bilva	-11.2516
▁mimisbo	-11.2516
▁pasampanah	-11.2516
▁vaqlac	-11.2516
垂	-11.2516
崙	-11.2516
我跟你一起	-11.2516
搭捷運	-11.2516
獵到的獵物	-11.2516
窄	-11.2516
賓	-11.2516
迫	-11.2516
sangliza	-11.2516
▁onhazavan	-11.2516
▁patilasan	-11.2516
塌	-11.2516
搞	-11.2516
的衣服是黑色的	-11.2516
coqeis	-11.2516
▁baqosaz	-11.2516
▁naobahnanaz	-11.2516
劃	-11.2516
空心菜	-11.2516
翻過土	-11.2516
聽得懂	-11.2516
貧窮	-11.2516
pantataip	-11.2516
▁mahondoh	-11.2516
涉	-11.2516
▁monhohoma	-11.2516
▁taodaniv	-11.2516
研究	-11.2516
稀	-11.2516
詛咒	-11.2516
趕不上	-11.2516
qacmav	-11.2516
▁Asipia	-11.2516
▁malacBonon	-11.2516
謹	-11.2516
onghovali	-11.2516
武	-11.2516
潭	-11.2516
Laniahu	-11.2516
游	-11.2516
不聽話	-11.2516
▁tangkoi	-11.2516
吵鬧	-11.2516
熟悉	-11.2516
鼓勵	-11.2516
tesqang	-11.2516
獄	-11.2516
▁bokosi	-11.2516
▁kantolon	-11.2516
▁tanodoh	-11.2516
▁minsihal	-11.2516
淫	-11.2516
海端鄉	-11.2516
腔	-11.2516
弓琴	-11.2516
▁pissanglavan	-11.2516
愈	-11.2516
付	-11.2516
遙遠	-11.2516
准	-11.2516
狀態	-11.2516
▁今天是星期	-11.2516
▁minkolaaz	-11.2516
嘗試	-11.2516
紅嘴黑鵯	-11.2516
▁siliba	-11.2516
▁laqoaq	-11.2516
環境	-11.2516
臺北	-11.2516
舅舅	-11.2516
Taliban	-11.2516
啟示	-11.2516
nanghat	-11.2516
▁poskonon	-11.2516
▁qacila	-11.2516
▁minkoangin	-11.2517
姐姐的名字是	-11.2517
發霉	-11.2517
植入	-11.2517
▁makoniv	-11.2517
領袖	-11.2517
傳授	-11.2517
誇功	-11.2517
脹氣	-11.2517
訪談	-11.2517
▁aizin	-11.2517
我和哥哥	-11.2517
蚊	-11.3717
擔	-11.3725
昨	-11.3726
習	-11.3727
汽	-11.3728
突	-11.3728
郡	-11.3728
忌	-11.3728
祝	-11.3728
腦	-11.3729
蝴	-11.3729
謝	-11.3729
卓	-11.3729
頸	-11.3729
哦	-11.3729
禁	-11.3729
廚	-11.3729
浮	-11.3729
純	-11.3729
邵	-11.3729
詩	-11.3729
勵	-11.3729
層	-11.3729
珠	-11.3729
啄	-11.3729
瞄	-11.3729
廠	-11.3729
郎	-11.3729
傾	-11.3729
坦	-11.3729
挺	-11.3729
省	-11.3729
禿	-11.3729
諾	-11.3729
郊	-11.3729
鬍	-11.3729
吊	-11.3729
抹	-11.3729
暢	-11.3729
梗	-11.3729
熄	-11.3729
狸	-11.3729
脂	-11.3729
蕃	-11.3729
虛	-11.3729
蛀	-11.3729
誨	-11.3729
跪	-11.3729
辨	-11.3729
鬥	-11.3729
鹹	-11.3729
卜	-11.3729
株	-11.3729
鵝	-11.3729
吟	-11.3729
滲	-11.3729
痕	-11.3729
拳	-11.3729
購	-11.3729
禽	-11.3729
納	-11.3729
誡	-11.3729
策	-11.3729
吉	-11.3729
盒	-11.3729
欺	-11.3729
監	-11.3729
柱	-11.5098
帽	-11.5098
予	-11.5106
紀	-11.5107
芒	-11.5107
拜	-11.5108
例	-11.5108
獸	-11.5108
題	-11.5109
讚	-11.5109
乎	-11.5109
寮	-11.5109
捆	-11.511
印	-11.511
蜜	-11.511
斗	-11.511
哼	-11.511
舒	-11.511
糠	-11.511
孕	-11.511
梁	-11.511
捨	-11.511
淺	-11.511
爪	-11.511
蒙	-11.511
輸	-11.511
佩	-11.511
柔	-11.511
塞	-11.511
污	-11.511
甕	-11.511
褔	-11.511
恨	-11.511
爆	-11.511
獻	-11.511
啼	-11.511
墓	-11.511
慌	-11.511
景	-11.511
爽	-11.511
賞	-11.511
躍	-11.511
限	-11.511
頌	-11.511
叉	-11.511
旺	-11.511
汪	-11.511
潤	-11.511
慮	-11.511
扶	-11.511
渦	-11.511
趁	-11.511
樸	-11.511
政	-11.511
磚	-11.511
騰	-11.511
咯	-11.511
稍	-11.511
陪	-11.511
疲	-11.511
霸	-11.511
泰	-11.511
初	-11.511
嫂	-11.511
曉	-11.511
財	-11.511
抗	-11.511
促	-11.511
倉	-11.5969
裙	-11.6701
震	-11.6707
姐	-11.6707
負	-11.671
炭	-11.6711
宜	-11.6712
尺	-11.6712
授	-11.6712
羞	-11.6712
占	-11.6712
烈	-11.6712
築	-11.6712
擴	-11.6712
須	-11.6712
裕	-11.6712
勞	-11.6712
懼	-11.6713
康	-11.6713
菲	-11.6713
克	-11.6713
閱	-11.6713
謙	-11.6713
川	-11.6713
恐	-11.6713
戒	-11.6713
腋	-11.6713
詠	-11.6713
私	-11.6713
喪	-11.6713
薑	-11.6713
責	-11.6713
壽	-11.6713
委	-11.6713
慈	-11.6713
皺	-11.6713
防	-11.6713
愚	-11.6713
痰	-11.6713
虧	-11.6713
鏟	-11.6713
隙	-11.6713
掘	-11.6713
枕	-11.6713
眉	-11.6713
蟬	-11.6713
蠟	-11.6713
刨	-11.6713
吶	-11.6713
墊	-11.6713
奔	-11.6713
寧	-11.6713
恥	-11.6713
拖	-11.6713
振	-11.6713
撫	-11.6713
歪	-11.6713
渣	-11.6713
灌	-11.6713
矛	-11.6713
矯	-11.6713
纍	-11.6713
舔	-11.6713
蕩	-11.6713
轎	-11.6713
逛	-11.6713
鈍	-11.6713
鈴	-11.6713
零	-11.6713
餔	-11.6713
峰	-11.6713
瑞	-11.6713
瞧	-11.6713
膽	-11.6713
默	-11.6713
肯	-11.6713
誼	-11.6713
揀	-11.6713
暴	-11.6713
佈	-11.6713
奪	-11.6713
志	-11.6713
撥	-11.6713
櫃	-11.6713
佑	-11.6713
慎	-11.6713
茸	-11.6713
階	-11.6713
誦	-11.6713
貌	-11.6713
毫	-11.6713
符	-11.6713
翔	-11.6713
橘	-11.861
帝	-11.8613
植	-11.8615
鋤	-11.8616
舂	-11.8618
陽	-11.8619
冬	-11.8619
秋	-11.8619
春	-11.8619
跌	-11.862
覆	-11.862
脹	-11.862
筍	-11.8621
豹	-11.8621
消	-11.8621
舖	-11.8621
歷	-11.8621
攻	-11.8621
蛙	-11.8622
療	-11.8622
緣	-11.8622
股	-11.8622
銀	-11.8622
軀	-11.8622
邪	-11.8622
預	-11.8622
没	-11.8622
翅	-11.8622
卑	-11.8622
敗	-11.8622
虐	-11.8622
鼓	-11.8622
逼	-11.8622
惟	-11.8622
炸	-11.8622
乖	-11.8622
亦	-11.8622
均	-11.8622
孔	-11.8622
寢	-11.8622
拒	-11.8622
供	-11.8622
喘	-11.8622
汙	-11.8622
廟	-11.8622
恤	-11.8622
悄	-11.8622
捧	-11.8622
查	-11.8622
栗	-11.8622
滙	-11.8622
漁	-11.8622
疔	-11.8622
痘	-11.8622
皆	-11.8622
縮	-11.8622
罷	-11.8622
聾	-11.8622
裹	-11.8622
鎚	-11.8622
*	-11.8622
丘	-11.8622
唇	-11.8622
嚥	-11.8622
塟	-11.8622
恆	-11.8622
掩	-11.8622
搔	-11.8622
既	-11.8622
曠	-11.8622
桐	-11.8622
款	-11.8622
焚	-11.8622
疹	-11.8622
肘	-11.8622
薯	-11.8622
衝	-11.8622
赴	-11.8622
銷	-11.8622
鍬	-11.8622
霜	-11.8622
餌	-11.8622
俗	-11.8622
蛆	-11.8622
j	-11.8622
x	-11.8622
剖	-11.8622
毆	-11.8622
駝	-11.8622
圯	-11.8622
擰	-11.8622
溜	-11.8622
邁	-11.8622
嚕	-11.8622
蔓	-11.8622
濫	-11.8622
蝕	-11.8622
砌	-11.8622
隱	-11.8622
嗨	-11.8622
燥	-11.8622
婿	-11.8622
佔	-11.8622
+	-12.0976
娘	-12.0979
賺	-12.098
始	-12.098
穩	-12.0981
抖	-12.0981
扎	-12.0981
怎	-12.0981
慶	-12.0982
灣	-12.0982
慰	-12.0982
決	-12.0982
激	-12.0982
態	-12.0982
嘗	-12.0983
齒	-12.0983
潮	-12.0983
鬧	-12.0983
畏	-12.0983
貝	-12.0983
叔	-12.0983
虔	-12.0983
説	-12.0983
阻	-12.0983
佛	-12.0983
坑	-12.0983
媒	-12.0983
登	-12.0983
宋	-12.0983
冠	-12.0983
匯	-12.0983
眠	-12.0983
茂	-12.0983
蹤	-12.0983
黎	-12.0983
豪	-12.0983
《	-12.0983
偏	-12.0983
勾	-12.0983
欸	-12.0983
浴	-12.0983
瓦	-12.0983
盈	-12.0983
砂	-12.0983
籍	-12.0983
蔭	-12.0983
雌	-12.0983
顯	-12.0983
挨	-12.0983
摺	-12.0983
欲	-12.0983
簿	-12.0983
縱	-12.0983
衍	-12.0983
鏈	-12.0983
》	-12.0983
亭	-12.0983
俄	-12.0983
咀	-12.0983
喻	-12.0983
噹	-12.0983
姪	-12.0983
婷	-12.0983
崇	-12.0983
拐	-12.0983
掐	-12.0983
摻	-12.0983
撬	-12.0983
杓	-12.0983
樑	-12.0983
歇	-12.0983
氓	-12.0983
泊	-12.0983
狂	-12.0983
盲	-12.0983
篇	-12.0983
粥	-12.0983
粽	-12.0983
腺	-12.0983
軸	-12.0983
迴	-12.0983
飄	-12.0983
鬚	-12.0983
斥	-12.0983
鮮	-12.0983
─	-12.0983
勿	-12.0983
托	-12.0983
淆	-12.0983
穇	-12.0983
芝	-12.0983
荒	-12.0983
誓	-12.0983
嘿	-12.0983
廢	-12.0983
弦	-12.0983
漲	-12.0983
礙	-12.0983
胞	-12.0983
館	-12.0983
吻	-12.0983
譯	-12.0983
敘	-12.0983
盟	-12.0983
華	-12.0983
藝	-12.0983
囊	-12.0983
擾	-12.0983
拭	-12.0983
閣	-12.0983
勝	-12.0983
柄	-12.0983
貫	-12.0983
訊	-12.0983
率	-12.0984
櫻	-12.0996
桌	-12.4058
椅	-12.4066
祖	-12.4072
儀	-12.4076
孤	-12.4076
霉	-12.4076
輔	-12.4076
煩	-12.4076
洋	-12.4077
盼	-12.4077
雖	-12.4077
屍	-12.4078
投	-12.4078
番	-12.4078
研	-12.4078
鄰	-12.4078
秧	-12.4078
怯	-12.4078
菇	-12.4078
梭	-12.4078
獎	-12.4078
媳	-12.4078
漸	-12.4078
趣	-12.4078
衰	-12.4078
貧	-12.4078
阱	-12.4078
庫	-12.4078
摩	-12.4078
尚	-12.4078
鑲	-12.4078
允	-12.4078
撕	-12.4078
威	-12.4078
槳	-12.4078
糧	-12.4078
拼	-12.4078
臂	-12.4078
伸	-12.4078
倍	-12.4078
凌	-12.4078
嗆	-12.4078
戀	-12.4078
斑	-12.4078
梧	-12.4078
毀	-12.4078
湧	-12.4078
漿	-12.4078
簧	-12.4078
闖	-12.4078
哉	-12.4078
疤	-12.4078
綑	-12.4078
脾	-12.4078
蠶	-12.4078
鑽	-12.4078
頓	-12.4078
麴	-12.4078
倆	-12.4078
偉	-12.4078
凸	-12.4078
划	-12.4078
勁	-12.4078
吼	-12.4078
屯	-12.4078
庚	-12.4078
弧	-12.4078
悠	-12.4078
惠	-12.4078
惱	-12.4078
慟	-12.4078
曼	-12.4078
槽	-12.4078
櫥	-12.4078
歳	-12.4078
溢	-12.4078
溺	-12.4078
滋	-12.4078
盆	-12.4078
碾	-12.4078
秘	-12.4078
綉	-12.4078
肪	-12.4078
芻	-12.4078
莽	-12.4078
菌	-12.4078
蛉	-12.4078
袓	-12.4078
諦	-12.4078
豎	-12.4078
辮	-12.4078
辱	-12.4078
遂	-12.4078
銹	-12.4078
騷	-12.4078
驍	-12.4078
驪	-12.4078
魄	-12.4078
框	-12.4078
涵	-12.4078
艱	-12.4078
井	-12.4078
卵	-12.4078
婉	-12.4078
捲	-12.4078
波	-12.4078
睏	-12.4078
佐	-12.4078
癬	-12.4078
繳	-12.4078
呈	-12.4078
娃	-12.4078
扣	-12.4078
炮	-12.4078
紛	-12.4078
蠱	-12.4078
衷	-12.4078
遞	-12.4078
宇	-12.4078
咸	-12.4078
旗	-12.4078
旦	-12.4078
儘	-12.4078
敦	-12.4078
普	-12.4078
肅	-12.4078
藉	-12.4078
譽	-12.4078
穆	-12.4078
添	-12.4078
妮	-12.4078
庇	-12.4078
啣	-12.4079
謀	-12.4079
悟	-12.4079
喀	-12.4079
褲	-12.8562
桃	-12.8564
措	-12.8572
操	-12.8573
駐	-12.8573
奉	-12.8574
冽	-12.8576
茅	-12.8576
竊	-12.8577
杉	-12.8577
夕	-12.8577
蝗	-12.8577
臀	-12.8577
麗	-12.8577
仰	-12.8577
芭	-12.8577
辛	-12.8577
餅	-12.8577
彼	-12.8578
悉	-12.8578
遙	-12.8578
嗣	-12.8578
妥	-12.8578
聘	-12.8578
銳	-12.8578
詛	-12.8578
境	-12.8578
燻	-12.8578
肱	-12.8578
貼	-12.8578
趟	-12.8578
厭	-12.8578
欣	-12.8578
灶	-12.8578
咭	-12.8578
呆	-12.8578
寓	-12.8578
炳	-12.8578
粘	-12.8578
蹄	-12.8578
核	-12.8578
鑿	-12.8578
@	-12.8578
厠	-12.8578
噴	-12.8578
姦	-12.8578
忡	-12.8578
戳	-12.8578
棕	-12.8578
歹	-12.8578
痔	-12.8578
罕	-12.8578
藻	-12.8578
剃	-12.8578
饅	-12.8578
鱉	-12.8578
#	-12.8578
ㄈ	-12.8578
云	-12.8578
佳	-12.8578
侮	-12.8578
倦	-12.8578
傻	-12.8578
兮	-12.8578
凹	-12.8578
勻	-12.8578
匠	-12.8578
匿	-12.8578
君	-12.8578
嚐	-12.8578
垮	-12.8578
填	-12.8578
塭	-12.8578
奠	-12.8578
嫌	-12.8578
屎	-12.8578
嶺	-12.8578
巡	-12.8578
惕	-12.8578
惘	-12.8578
捏	-12.8578
掏	-12.8578
揍	-12.8578
朽	-12.8578
柰	-12.8578
梢	-12.8578
楝	-12.8578
涓	-12.8578
湊	-12.8578
潑	-12.8578
瀧	-12.8578
煎	-12.8578
狼	-12.8578
玲	-12.8578
瘸	-12.8578
睬	-12.8578
矣	-12.8578
祕	-12.8578
窟	-12.8578
窿	-12.8578
竄	-12.8578
籽	-12.8578
粿	-12.8578
絡	-12.8578
翼	-12.8578
肺	-12.8578
腎	-12.8578
腴	-12.8578
膨	-12.8578
舀	-12.8578
萌	-12.8578
蒂	-12.8578
蓆	-12.8578
蛞	-12.8578
蝓	-12.8578
螈	-12.8578
蟯	-12.8578
蠑	-12.8578
街	-12.8578
評	-12.8578
貯	-12.8578
賀	-12.8578
趨	-12.8578
跤	-12.8578
躁	-12.8578
遽	-12.8578
郁	-12.8578
酬	-12.8578
陳	-12.8578
靶	-12.8578
駭	-12.8578
鶲	-12.8578
憤	-12.8578
砲	-12.8578
呱	-12.8578
杆	-12.8578
殖	-12.8578
濤	-12.8578
穢	-12.8578
蜇	-12.8578
譜	-12.8578
乃	-12.8578
募	-12.8578
篦	-12.8578
糰	-12.8578
赫	-12.8578
嗜	-12.8578
府	-12.8578
企	-12.8578
体	-12.8578
余	-12.8578
哺	-12.8578
簽	-12.8578
跋	-12.8578
霄	-12.8578
珊	-12.8579
勒	-12.8579
宅	-12.8579
役	-12.8579
ㄧ	-12.8579
唆	-12.858
庭	-12.8644
鷺	-13.6276
鷲	-13.6277
鷥	-13.6278
鯨	-13.6279
頗	-13.628
鍛	-13.6281
錘	-13.6282
鉗	-13.6283
采	-13.6284
鄙	-13.6285
遀	-13.6286
迦	-13.6287
迅	-13.6288
赦	-13.6289
贖	-13.629
賊	-13.6291
諮	-13.6292
襪	-13.6293
裔	-13.6294
蠻	-13.6295
螳	-13.6296
蚜	-13.6297
蘸	-13.6298
蘑	-13.6299
薦	-13.63
薏	-13.6301
蓼	-13.6302
蒲	-13.6303
蒐	-13.6304
菊	-13.6305
舨	-13.6306
舢	-13.6307
腸	-13.6308
肛	-13.6309
聳	-13.631
耘	-13.6311
翄	-13.6312
紮	-13.6313
紡	-13.6314
粱	-13.6315
筋	-13.6316
笠	-13.6317
礫	-13.6318
礎	-13.6319
睫	-13.632
盧	-13.6321
瘤	-13.6322
疱	-13.6323
疑	-13.6324
畝	-13.6325
甦	-13.6326
琅	-13.6327
犧	-13.6328
犂	-13.6329
灼	-13.633
灘	-13.6331
瀉	-13.6332
澳	-13.6333
漠	-13.6334
滌	-13.6335
溉	-13.6336
渲	-13.6337
淡	-13.6338
浦	-13.6339
洲	-13.634
洩	-13.6341
汆	-13.6342
歧	-13.6343
椰	-13.6344
棚	-13.6345
枇	-13.6346
杷	-13.6347
暨	-13.6348
晝	-13.6349
晌	-13.635
昂	-13.6351
擎	-13.6352
撲	-13.6353
損	-13.6354
掙	-13.6355
挿	-13.6356
抄	-13.6357
懇	-13.6358
憔	-13.6359
憎	-13.636
惶	-13.6361
惦	-13.6362
悴	-13.6363
忿	-13.6364
州	-13.6365
巄	-13.6366
屜	-13.6367
屑	-13.6368
宛	-13.6369
宙	-13.637
孵	-13.6371
孟	-13.6372
夭	-13.6373
嗝	-13.6374
剎	-13.6375
凍	-13.6376
償	-13.6377
儉	-13.6378
僱	-13.6379
傑	-13.638
傅	-13.6381
偕	-13.6382
倚	-13.6383
乏	-13.6384
ㄆ	-13.6385
ㄅ	-13.6386
X	-13.6387
W	-13.6388
麟	-13.6389
麒	-13.639
鯝	-13.6391
顫	-13.6392
頰	-13.6393
韭	-13.6394
革	-13.6395
閔	-13.6396
酩	-13.6397
酊	-13.6398
邇	-13.6399
遐	-13.64
逆	-13.6401
赤	-13.6402
賭	-13.6403
譏	-13.6404
謊	-13.6405
諭	-13.6406
覓	-13.6407
襟	-13.6408
衡	-13.6409
蟾	-13.641
蜱	-13.6411
蜢	-13.6412
蜍	-13.6413
蚱	-13.6414
荷	-13.6415
荊	-13.6416
茁	-13.6417
苳	-13.6418
艘	-13.6419
臍	-13.642
膠	-13.6421
耽	-13.6422
罩	-13.6423
締	-13.6424
稈	-13.6425
碧	-13.6426
碑	-13.6427
矩	-13.6428
瞪	-13.6429
盯	-13.643
盜	-13.6431
獰	-13.6432
猝	-13.6433
猙	-13.6434
狹	-13.6435
燉	-13.6436
焰	-13.6437
涸	-13.6438
沃	-13.6439
欖	-13.644
橄	-13.6441
棘	-13.6442
械	-13.6443
梄	-13.6444
旨	-13.6445
敞	-13.6446
擱	-13.6447
撼	-13.6448
搜	-13.6449
援	-13.645
截	-13.6451
憊	-13.6452
愁	-13.6453
帚	-13.6454
履	-13.6455
宮	-13.6456
契	-13.6457
奈	-13.6458
壤	-13.6459
塑	-13.646
堪	-13.6461
坎	-13.6462
嚎	-13.6463
啕	-13.6464
哨	-13.6465
劫	-13.6466
剁	-13.6467
兆	-13.6468
俯	-13.6469
Y	-13.647
鵑	-13.6471
飢	-13.6472
鞭	-13.6473
雛	-13.6474
釋	-13.6475
逢	-13.6476
謾	-13.6477
袱	-13.6478
蜿	-13.6479
蜒	-13.648
蛔	-13.6481
葜	-13.6482
菝	-13.6483
菖	-13.6484
莫	-13.6485
芥	-13.6486
芙	-13.6487
膾	-13.6488
腕	-13.6489
緒	-13.649
綜	-13.6491
筵	-13.6492
笆	-13.6493
章	-13.6494
碼	-13.6495
睦	-13.6496
眷	-13.6497
猜	-13.6498
爍	-13.6499
炙	-13.65
港	-13.6501
沸	-13.6502
氾	-13.6503
桑	-13.6504
栽	-13.6505
晰	-13.6506
懈	-13.6507
恭	-13.6508
怨	-13.6509
彚	-13.651
嶇	-13.6511
崎	-13.6512
寺	-13.6513
墳	-13.6514
囪	-13.6515
嘍	-13.6516
啪	-13.6517
售	-13.6518
咕	-13.6519
叩	-13.652
匆	-13.6521
侶	-13.6522
仗	-13.6523
齡	-13.6524
頑	-13.6525
鞠	-13.6526
陌	-13.6527
鐲	-13.6528
醇	-13.6529
躬	-13.653
跆	-13.6531
裳	-13.6532
藷	-13.6533
薩	-13.6534
蒺	-13.6535
葫	-13.6536
葦	-13.6537
萵	-13.6538
苣	-13.6539
罹	-13.654
纏	-13.6541
繡	-13.6542
簷	-13.6543
碴	-13.6544
眨	-13.6545
申	-13.6546
猪	-13.6547
燭	-13.6548
煞	-13.6549
渾	-13.655
檜	-13.6551
楓	-13.6552
柵	-13.6553
昆	-13.6554
憩	-13.6555
恢	-13.6556
廊	-13.6557
幽	-13.6558
垣	-13.6559
喂	-13.656
卸	-13.6561
函	-13.6562
F	-13.6563
鴿	-13.6564
鋁	-13.6565
詐	-13.6566
託	-13.6567
蜈	-13.6568
蚣	-13.6569
蚌	-13.657
薪	-13.6571
菱	-13.6572
莓	-13.6573
羽	-13.6574
絆	-13.6575
矢	-13.6576
瞌	-13.6577
潛	-13.6578
漬	-13.6579
漩	-13.658
滷	-13.6581
汲	-13.6582
殲	-13.6583
桂	-13.6584
柯	-13.6585
曝	-13.6586
晾	-13.6587
昭	-13.6588
攔	-13.6589
掀	-13.659
捻	-13.6591
拙	-13.6592
扯	-13.6593
懲	-13.6594
幅	-13.6595
帕	-13.6596
峽	-13.6597
孝	-13.6598
培	-13.6599
坍	-13.66
嘲	-13.6601
催	-13.6602
仙	-13.6603
擁	-13.6604
障	-13.6604
鋼	-13.6605
釁	-13.6606
趴	-13.6607
裁	-13.6608
袞	-13.6609
蚤	-13.661
蒜	-13.6611
竟	-13.6612
猶	-13.6613
狐	-13.6614
燕	-13.6615
澤	-13.6616
殘	-13.6617
槌	-13.6618
楤	-13.6619
擇	-13.662
憶	-13.6621
慷	-13.6622
慨	-13.6623
德	-13.6624
岔	-13.6625
屏	-13.6626
寞	-13.6627
寂	-13.6628
嫉	-13.6629
妒	-13.663
壺	-13.6631
噶	-13.6632
嘔	-13.6633
嗇	-13.6634
吝	-13.6635
偽	-13.6636
E	-13.6637
鴉	-13.6638
駕	-13.6639
距	-13.664
贅	-13.6641
螢	-13.6642
蜴	-13.6643
蜥	-13.6644
蕗	-13.6645
蕎	-13.6646
葵	-13.6647
肝	-13.6648
聆	-13.6649
羅	-13.665
紫	-13.6651
簸	-13.6652
箕	-13.6653
皂	-13.6654
璃	-13.6655
玻	-13.6656
烹	-13.6657
濱	-13.6658
鄒	-13.6659
澈	-13.6659
漱	-13.666
涯	-13.6661
涕	-13.6662
棍	-13.6663
柿	-13.6664
末	-13.6665
憫	-13.6666
愉	-13.6667
恙	-13.6668
循	-13.6669
干	-13.667
尤	-13.6671
埂	-13.6672
咐	-13.6673
吩	-13.6674
鵯	-13.6675
饒	-13.6676
蹲	-13.6677
訝	-13.6678
蟆	-13.6679
蝠	-13.668
蝙	-13.6681
萎	-13.6682
萍	-13.6683
萊	-13.6684
舌	-13.6685
籬	-13.6686
筌	-13.6687
秀	-13.6688
碌	-13.6689
癩	-13.669
痠	-13.6691
疾	-13.6692
殊	-13.6693
棟	-13.6694
拓	-13.6695
拇	-13.6696
恰	-13.6697
帳	-13.6698
峻	-13.6699
妙	-13.67
嚀	-13.6701
丐	-13.6702
颳	-13.6703
鑰	-13.6704
鈔	-13.6705
諒	-13.6706
褐	-13.6707
蚯	-13.6708
蚓	-13.6709
蘆	-13.671
藜	-13.6711
腥	-13.6712
競	-13.6713
牲	-13.6714
拯	-13.6715
忒	-13.6716
峭	-13.6717
雹	-13.6718
瘋	-13.6719
痊	-13.672
澡	-13.6721
嚏	-13.6722
際	-13.6723
酵	-13.6724
郵	-13.6725
蹈	-13.6726
蟋	-13.6727
蟀	-13.6728
蝸	-13.6729
筷	-13.673
斧	-13.6731
攀	-13.6732
抵	-13.6733
恕	-13.6734
嗽	-13.6735
鴞	-13.6736
額	-13.6737
韆	-13.6738
鞦	-13.6739
蝨	-13.674
莉	-13.6741
皇	-13.6742
技	-13.6743
啡	-13.6744
咱	-13.6745
咖	-13.6746
匹	-13.6747
雉	-13.6748
錦	-13.6749
諧	-13.675
蟑	-13.6751
綴	-13.6752
暑	-13.6753
斂	-13.6754
娛	-13.6755
塵	-13.6756
俊	-13.6757
鍊	-13.6758
輛	-13.6759
跛	-13.676
賴	-13.6761
衛	-13.6762
羨	-13.6763
椎	-13.6764
嚨	-13.6765
驕	-13.6766
頻	-13.6767
蠅	-13.6768
螂	-13.6769
蛛	-13.677
瀑	-13.6771
晨	-13.6772
奮	-13.6773
仿	-13.6774
葡	-13.6775
萄	-13.6776
膝	-13.6777
紹	-13.6778
糟	-13.6779
概	-13.678
嬤	-13.6781
塘	-13.6782
飼	-13.6783
閩	-13.6784
訓	-13.6785
脖	-13.6786
穌	-13.6787
琥	-13.6788
燃	-13.6789
戲	-13.679
懸	-13.6791
蜻	-13.6792
蜓	-13.6793
榴	-13.6794
嶼	-13.6795
垃	-13.6796
圾	-13.6797
蘿	-13.6798
蔔	-13.6799
莊	-13.68
悲	-13.6801
險	-13.6802
陀	-13.6803
擅	-13.6804
悅	-13.6805
鏡	-13.6806
脈	-13.6807
珍	-13.6808
濾	-13.6809
浸	-13.681
攜	-13.6811
捷	-13.6812
崖	-13.6813
妲	-13.6814
央	-13.6815
傍	-13.6816
聰	-13.6817
糬	-13.6818
犬	-13.6819
旱	-13.682
勉	-13.6821
兜	-13.6822
螞	-13.6823
檳	-13.6824
榔	-13.6825
敢	-13.6826
牧	-13.6827
攪	-13.6828
厲	-13.6829
兔	-13.683
Z	-13.6831
蔬	-13.6832
洪	-13.6833
旋	-13.6834
雀	-13.6835
椒	-13.6836
徙	-13.6837
廁	-13.6838
遲	-13.6839
畜	-13.684
膚	-13.6841
晴	-13.6842
惜	-13.6843
姨	-13.6844
匙	-13.6845
苧	-13.6846
儲	-13.6847
仔	-13.6848
遵	-13.6849
英	-13.685
遺	-13.6851
蔗	-13.6852
規	-13.6853
螺	-13.6854
戚	-13.6855
姻	-13.6856
闆	-13.6857
鐮	-13.6858
繩	-13.6859
墾	-13.686
漢	-13.6861
嬸	-13.6862
鉛	-13.6863
蟹	-13.6864
螃	-13.6865
祀	-13.6866
繼	-13.6867
糯	-13.6868
堅	-13.6869
耆	-13.687
係	-13.6871
梨	-13.6872
羌	-13.6873
惰	-13.6874
喚	-13.6875
蓮	-13.6876
埋	-13.6877
智	-13.6878
廳	-13.6879
輪	-13.688
希	-13.6881
努	-13.6882
播	-13.6883
冰	-13.6884
剩	-13.6885
縣	-13.6886
橡	-13.6887
簍	-13.6888
虹	-13.6889
狩	-13.689
蕉	-13.6891
猴	-13.6892
巫	-13.6893
泳	-13.6894
耍	-13.6895
祈	-13.6896
睛	-13.6897
彩	-13.6898
漂	-13.6899
柚	-13.69
芋	-13.69
訴	-13.6901
剽	-13.6902
悍	-13.6902
嬰	-13.6902
爺	-13.6903
謂	-13.6904
甚	-13.6904
朋	-13.6905
0	-13.6906
弟	-13.6907
D	-13.6908
餚	-13.6909
爸	-13.6909
螯	-13.691
詢	-13.691
什	-13.691
颱	-13.691
凳	-13.691
括	-13.691
炎	-13.691
楚	-13.6911
顏	-13.6911
判	-13.6911
恒	-13.6911
懹	-13.6911
搏	-13.6911
毅	-13.6911
闔	-13.6911
森	-13.6911
醬	-13.6911
泣	-13.6911
穴	-13.6911
丈	-13.6911
濟	-13.6911
H	-13.6911
噢	-13.6911
彗	-13.6911
捐	-13.6911
撇	-13.6911
瑟	-13.6911
畔	-13.6911
禦	-13.6911
肆	-13.6911
脅	-13.6911
貢	-13.6911
鎮	-13.6911
蘋	-13.6911
骸	-13.6911
慣	-13.6911
【	-13.6911
】	-13.6911
劇	-13.6911
寡	-13.6911
彪	-13.6911
歐	-13.6911
蛤	-13.6911
蜊	-13.6911
諸	-13.6911
鄭	-13.6911
碩	-13.6911
諱	-13.6911
丁	-13.6911
亢	-13.6911
僵	-13.6911
刁	-13.6911
咻	-13.6911
嗅	-13.6911
嚮	-13.6911
夥	-13.6911
奧	-13.6911
妨	-13.6911
娥	-13.6911
嬷	-13.6911
恬	-13.6911
摧	-13.6911
杈	-13.6911
檬	-13.6911
櫚	-13.6911
氛	-13.6911
沫	-13.6911
泄	-13.6911
淪	-13.6911
漫	-13.6911
澎	-13.6911
烙	-13.6911
熬	-13.6911
狠	-13.6911
猛	-13.6911
瘀	-13.6911
癱	-13.6911
睹	-13.6911
硃	-13.6911
碉	-13.6911
磺	-13.6911
縛	-13.6911
羔	-13.6911
肌	-13.6911
臊	-13.6911
虱	-13.6911
諜	-13.6911
販	-13.6911
鉅	-13.6911
鍚	-13.6911
韓	-13.6911
饞	-13.6911
駊	-13.6911
魁	-13.6911
史	-13.6911
檢	-13.6911
劣	-13.6911
徨	-13.6911
徬	-13.6911
櫸	-13.6911
湍	-13.6911
瘟	-13.6911
砰	-13.6911
綻	-13.6911
蚋	-13.6911
谁	-13.6911
豌	-13.6911
骼	-13.6911
鶉	-13.6911
%	-13.6912
&	-13.6912
{	-13.6912
|	-13.6912
}	-13.6912
̇	-13.6912
―	-13.6912
』	-13.6912
ㄇ	-13.6912
ㄜ	-13.6912
两	-13.6912
乒	-13.6912
乓	-13.6912
乩	-13.6912
亥	-13.6912
仟	-13.6912
伙	-13.6912
伺	-13.6912
佰	-13.6912
併	-13.6912
侍	-13.6912
俏	-13.6912
傚	-13.6912
傭	-13.6912
債	-13.6912
働	-13.6912
僧	-13.6912
儕	-13.6912
冤	-13.6912
凋	-13.6912
凶	-13.6912
劑	-13.6912
厄	-13.6912
叭	-13.6912
吔	-13.6912
吭	-13.6912
吮	-13.6912
呂	-13.6912
呻	-13.6912
哽	-13.6912
啤	-13.6912
喇	-13.6912
喙	-13.6912
喧	-13.6912
喫	-13.6912
喬	-13.6912
嘯	-13.6912
嘹	-13.6912
噁	-13.6912
噌	-13.6912
噓	-13.6912
圃	-13.6912
圳	-13.6912
坤	-13.6912
堡	-13.6912
墜	-13.6912
壘	-13.6912
壢	-13.6912
奛	-13.6912
妄	-13.6912
姿	-13.6912
婪	-13.6912
嬉	-13.6912
嬌	-13.6912
宏	-13.6912
宰	-13.6912
寵	-13.6912
尉	-13.6912
屈	-13.6912
岬	-13.6912
崗	-13.6912
巷	-13.6912
庿	-13.6912
廿	-13.6912
弘	-13.6912
弛	-13.6912
强	-13.6912
彷	-13.6912
彿	-13.6912
忐	-13.6912
忑	-13.6912
怖	-13.6912
怡	-13.6912
愧	-13.6912
慵	-13.6912
懺	-13.6912
戈	-13.6912
戕	-13.6912
扒	-13.6912
批	-13.6912
抑	-13.6912
挪	-13.6912
挽	-13.6912
捂	-13.6912
掠	-13.6912
控	-13.6912
掰	-13.6912
搧	-13.6912
搾	-13.6912
撂	-13.6912
撰	-13.6912
擬	-13.6912
攙	-13.6912
斬	-13.6912
旬	-13.6912
昇	-13.6912
朱	-13.6912
杖	-13.6912
析	-13.6912
柏	-13.6912
柑	-13.6912
柳	-13.6912
栖	-13.6912
棺	-13.6912
榻	-13.6912
槪	-13.6912
橙	-13.6912
檸	-13.6912
欒	-13.6912
欽	-13.6912
殯	-13.6912
毯	-13.6912
氤	-13.6912
氳	-13.6912
汔	-13.6912
汰	-13.6912
沈	-13.6912
洶	-13.6912
淘	-13.6912
渝	-13.6912
渡	-13.6912
湸	-13.6912
溼	-13.6912
滯	-13.6912
漾	-13.6912
潰	-13.6912
濘	-13.6912
濛	-13.6912
濺	-13.6912
瀆	-13.6912
炫	-13.6912
爲	-13.6912
犄	-13.6912
犢	-13.6912
猖	-13.6912
獠	-13.6912
瑣	-13.6912
瓏	-13.6912
疇	-13.6912
症	-13.6912
痣	-13.6912
瘉	-13.6912
癇	-13.6912
癮	-13.6912
癲	-13.6912
皿	-13.6912
盹	-13.6912
眩	-13.6912
眸	-13.6912
瞥	-13.6912
矗	-13.6912
硫	-13.6912
磁	-13.6912
祓	-13.6912
祟	-13.6912
祥	-13.6912
秒	-13.6912
秤	-13.6912
秩	-13.6912
稚	-13.6912
稠	-13.6912
穎	-13.6912
窪	-13.6912
窺	-13.6912
笈	-13.6912
簪	-13.6912
籐	-13.6912
籟	-13.6912
籤	-13.6912
糾	-13.6912
緋	-13.6912
繭	-13.6912
纜	-13.6912
罐	-13.6912
署	-13.6912
翠	-13.6912
肋	-13.6912
肖	-13.6912
肴	-13.6912
胗	-13.6912
胱	-13.6912
腆	-13.6912
膛	-13.6912
膩	-13.6912
芉	-13.6912
苞	-13.6912
苾	-13.6912
莧	-13.6912
葳	-13.6912
蔑	-13.6912
蔡	-13.6912
蔴	-13.6912
蔽	-13.6912
薰	-13.6912
藹	-13.6912
蛭	-13.6912
蜀	-13.6912
袾	-13.6912
褻	-13.6912
詳	-13.6912
誘	-13.6912
譁	-13.6912
譴	-13.6912
豚	-13.6912
貳	-13.6912
貿	-13.6912
賢	-13.6912
賦	-13.6912
趾	-13.6912
跕	-13.6912
跺	-13.6912
踐	-13.6912
蹂	-13.6912
蹟	-13.6912
蹦	-13.6912
躪	-13.6912
輝	-13.6912
辯	-13.6912
逝	-13.6912
逸	-13.6912
逹	-13.6912
遣	-13.6912
邉	-13.6912
酗	-13.6912
酥	-13.6912
酷	-13.6912
醜	-13.6912
鈀	-13.6912
鈞	-13.6912
銘	-13.6912
銜	-13.6912
錨	-13.6912
閘	-13.6912
闊	-13.6912
隧	-13.6912
雇	-13.6912
霆	-13.6912
霏	-13.6912
靦	-13.6912
頁	-13.6912
顎	-13.6912
顴	-13.6912
餃	-13.6912
饕	-13.6912
饗	-13.6912
駁	-13.6912
駱	-13.6912
髓	-13.6912
魅	-13.6912
鱗	-13.6912
鶕	-13.6912
鹵	-13.6912
黄	-13.6912
黍	-13.6912
黴	-13.6912
鼾	-13.6912
疽	-13.6912
亟	-13.6912
偵	-13.6912
壇	-13.6912
擄	-13.6912
晒	-13.6912
磐	-13.6912
ˇ	-13.6912
卅	-13.6912
墟	-13.6912
娜	-13.6912
捣	-13.6912
栓	-13.6912
瀝	-13.6912
熾	-13.6912
癟	-13.6912
砧	-13.6912
租	-13.6912
穰	-13.6912
荃	-13.6912
裘	-13.6912
辰	-13.6912
鈕	-13.6912
龐	-13.6912
咦	-13.6912
噣	-13.6912
淇	-13.6912
瘴	-13.6912
癘	-13.6912
瞬	-13.6912
簇	-13.6912
蠢	-13.6912
贊	-13.6912
迪	-13.6912
闢	-13.6912
霞	-13.6912
麓	-13.6912
黝	-13.6912
『	-13.6912
囚	-13.6912
壹	-13.6912
恪	-13.6912
挹	-13.6912
盎	-13.6912
礁	-13.6912
航	-13.6912
荽	-13.6912
豁	-13.6912
軌	-13.6912
迄	-13.6912
孩	-13.6912
兌	-13.6912
慘	-13.6912
湛	-13.6912
禳	-13.6912
N	-13.6913
藐	-13.6913
