<pad>	0
<unk>	0
<s>	0
</s>	0
<2szy>	0
<2zh>	0
▁	-1.71853
。	-3.47873
.	-3.48203
,	-3.59204
▁ko	-3.77478
▁to	-3.91729
▁a	-4.26658
'	-4.2735
▁no	-4.33533
的	-4.60367
▁i	-4.66897
?	-4.70742
▁sa	-4.74923
▁o	-4.906
ay	-4.94071
▁ci	-5.05486
!	-5.1785
an	-5.30493
▁ni	-5.38717
en	-5.4172
▁kako	-5.47777
了	-5.52435
▁ma	-5.72485
▁mi	-5.73925
是	-5.76364
在	-5.90211
我	-5.98571
▁caay	-6.02152
▁niza	-6.06014
▁ka	-6.09879
▁haw	-6.11999
▁ako	-6.19303
▁我	-6.20995
▁wawa	-6.2151
有	-6.22903
▁ciniza	-6.26288
▁han	-6.27079
a	-6.28554
▁pa	-6.28777
▁mako	-6.31902
to	-6.34823
、	-6.34939
o	-6.35014
嗎	-6.35496
要	-6.35781
▁kiso	-6.36501
說	-6.3759
i	-6.37972
▁ato	-6.41879
'.	-6.45903
▁"	-6.46599
▁si	-6.50838
你	-6.51256
▁Kacaw	-6.52071
▁loma	-6.52989
不	-6.53116
他	-6.53475
▁tademaw	-6.57803
▁niyazo	-6.63697
▁pi	-6.65086
▁Panay	-6.6618
很	-6.68533
▁iso	-6.69376
▁ayza	-6.7137
被	-6.71377
會	-6.7187
▁tayza	-6.74412
去	-6.75483
到	-6.75632
我們	-6.76372
人	-6.76639
▁kya	-6.76929
和	-6.76939
來	-6.76976
用	-6.79016
▁kiya	-6.79837
▁kita	-6.80527
▁ano	-6.81021
▁kapah	-6.81082
▁kawaw	-6.84703
▁henay	-6.88301
:「	-6.89053
▁na	-6.89885
就	-6.89983
k	-6.90962
▁saw	-6.9392
▁kamo	-6.95212
▁demiad	-6.95223
▁babalaki	-6.95823
▁你	-6.96065
;	-6.96383
好	-6.98216
一	-7.02636
▁koyni	-7.0388
上	-7.04629
子	-7.0478
▁kina	-7.05242
▁izaw	-7.06491
大	-7.07096
▁我們	-7.07835
▁amana	-7.08171
▁ina	-7.08362
▁yadah	-7.08634
也	-7.10331
吃	-7.11779
l	-7.1239
把	-7.14604
都	-7.15031
▁aca	-7.17295
▁tatayna	-7.17435
的人	-7.18763
c	-7.19052
▁matineng	-7.19206
▁nika	-7.19639
sa	-7.20814
著	-7.21587
▁Sakizaya	-7.22178
對	-7.2223
水	-7.22539
沒有	-7.24039
▁manamoh	-7.24259
h	-7.25088
ko	-7.25194
▁ta	-7.26288
他們	-7.27094
她	-7.28662
▁cacay	-7.29729
▁ama	-7.30452
▁kami	-7.30489
li	-7.30643
ng	-7.33577
可以	-7.33813
ma	-7.35161
▁他	-7.35395
▁sakamo	-7.35984
時	-7.36165
d	-7.36277
:	-7.36956
s	-7.37015
▁saka	-7.38177
▁sato	-7.39136
▁zikoc	-7.3916
部落	-7.39336
▁miso	-7.39342
▁tatama	-7.39898
▁niyam	-7.40724
▁mita	-7.41485
▁kiza	-7.42135
。」	-7.43198
▁mokan	-7.45987
中	-7.47485
ta	-7.48267
▁boyo	-7.48444
ka	-7.48766
aw	-7.49424
▁kilang	-7.49965
▁baki	-7.50302
地	-7.5046
."	-7.51337
▁koheni	-7.51358
ya	-7.51862
▁mala	-7.53072
魚	-7.53223
/	-7.53273
過	-7.53763
▁hini	-7.54035
這	-7.54506
得	-7.55555
▁amin	-7.55657
lo	-7.56647
▁taloma	-7.5672
na	-7.57005
家	-7.58256
▁codad	-7.59898
▁koyza	-7.5996
▁canan	-7.60644
y	-7.607
▁hang	-7.6211
下	-7.62689
與	-7.62978
ti	-7.63693
ki	-7.63829
菜	-7.64025
做	-7.6494
老師	-7.65819
▁waco	-7.65826
叫	-7.65828
▁ozip	-7.66155
那	-7.66387
工作	-7.66644
b	-7.66658
後	-7.66675
▁misa	-7.67579
還	-7.68692
請	-7.6923
▁la	-7.69444
n	-7.69826
da	-7.70102
wa	-7.70292
裡	-7.70538
打	-7.70805
樹	-7.71595
so	-7.71911
將	-7.7255
從	-7.72744
▁zazan	-7.73219
ba	-7.7323
▁katooday	-7.73311
看到	-7.736
開	-7.73638
為	-7.73731
而	-7.74792
現在	-7.74859
▁maydih	-7.75851
▁noheni	-7.75851
▁Benel	-7.76218
-	-7.76912
▁cowa	-7.76964
山	-7.77465
▁mahiza	-7.77532
天	-7.77632
長	-7.77679
呢	-7.77984
看	-7.78473
▁ngangan	-7.78544
年	-7.78943
t	-7.79146
mi	-7.79222
小孩	-7.79294
▁kalisiw	-7.7949
跟	-7.80359
p	-7.80423
ni	-7.80611
狗	-7.8122
▁baloco	-7.8127
bo	-7.81278
▁cacodadan	-7.8128
la	-7.81289
▁yo	-7.81566
小	-7.81829
我的	-7.82059
▁balaot	-7.82393
走	-7.83536
給	-7.84253
u	-7.84423
爸爸	-7.84499
▁nanom	-7.85185
頭	-7.85746
▁saydan	-7.85798
草	-7.85808
m	-7.85847
▁mihcaan	-7.85981
▁tayni	-7.86021
▁那	-7.86151
▁micodad	-7.8656
▁這是	-7.87214
caay	-7.87623
讓	-7.87648
心	-7.89225
▁boting	-7.89284
自己	-7.89393
pa	-7.89404
很多	-7.9066
pi	-7.91105
▁去	-7.91122
Panay	-7.91177
多	-7.9155
▁ita	-7.93172
▁binacadan	-7.93567
▁cima	-7.94194
▁katokoh	-7.94347
▁omah	-7.94349
青蛙	-7.94351
想	-7.94579
▁kyo	-7.9564
已經	-7.95775
co	-7.95888
▁katood	-7.95956
出	-7.96399
種	-7.9641
▁sapi	-7.96499
▁lami	-7.96519
▁azihen	-7.9695
"	-7.97406
aso	-7.97731
▁miazih	-7.98357
!」	-7.98573
不要	-7.98972
族人	-7.98991
▁tao	-7.99498
吧	-7.99573
g	-8.00093
▁kaka	-8.00267
「	-8.00479
▁Di	-8.00907
所以	-8.01811
▁hanto	-8.01911
▁lima	-8.01935
所	-8.01939
▁Maibol	-8.02272
di	-8.02555
▁cabay	-8.0288
hang	-8.03322
喜歡	-8.03341
牛	-8.03638
▁pina	-8.03778
ing	-8.04404
▁mahica	-8.04638
當	-8.06434
問	-8.06474
孩子	-8.0749
以	-8.07775
▁bayo	-8.07808
▁我的	-8.08737
▁mata	-8.08754
因為	-8.08877
的時候	-8.09039
▁Mayaw	-8.09393
們	-8.09403
帶	-8.09794
已	-8.10594
他的	-8.10767
快	-8.12355
向	-8.12376
高	-8.13208
id	-8.13305
▁lala	-8.1356
si	-8.13711
▁namo	-8.13845
大家	-8.13899
▁mo	-8.15184
米	-8.15402
及	-8.15446
yo	-8.15542
在哪裡	-8.15598
nga	-8.15836
mo	-8.15975
生	-8.16439
▁aci	-8.16453
的衣服	-8.16672
這個	-8.16905
▁katalalan	-8.17059
▁modadiw	-8.17068
no	-8.17137
衣服	-8.17184
火	-8.17504
▁tobah	-8.17533
不是	-8.17714
Kacaw	-8.18585
分	-8.18626
非常	-8.18727
▁tya	-8.18841
▁nayay	-8.18886
?」	-8.19339
▁tabaki	-8.19382
回家	-8.19875
▁nayi	-8.20457
手	-8.20527
起來	-8.2134
沒	-8.21508
錢	-8.21725
重	-8.21758
成	-8.21834
▁tini	-8.21992
▁maazih	-8.22123
買	-8.22699
ci	-8.23008
▁ca	-8.23106
▁maka	-8.23498
這樣	-8.23506
▁tiza	-8.23657
hamin	-8.23657
▁micakay	-8.23711
放	-8.24126
way	-8.2458
▁這	-8.25308
煮	-8.25337
風	-8.25355
一個	-8.26168
東西	-8.26228
一起	-8.26701
有很多	-8.26701
▁itini	-8.26795
作	-8.27012
▁Bonok	-8.27167
但是	-8.27251
▁tawya	-8.27954
撒奇萊雅族	-8.28225
之	-8.28444
再	-8.28635
▁somamad	-8.28887
▁kanen	-8.28959
▁tood	-8.29306
事	-8.29834
到了	-8.29887
發	-8.30552
住	-8.30581
2	-8.30677
▁adiwawa	-8.30697
▁bai	-8.30914
▁koko	-8.31014
▁binawlan	-8.31401
聽	-8.31456
al	-8.31758
的地方	-8.32032
▁kapahay	-8.32147
lay	-8.32337
▁adada	-8.32382
▁Taymo	-8.32548
最	-8.32676
色	-8.32725
▁tatenga	-8.32788
▁ayam	-8.3328
▁cilal	-8.34017
老人	-8.34072
▁他們	-8.34192
海	-8.34264
玩	-8.34384
▁Dongi	-8.34418
▁Tobah	-8.3442
▁ya	-8.34619
這裡	-8.35026
找	-8.35043
ca	-8.35077
學校	-8.35229
老人家	-8.353
ayaw	-8.35364
▁mabi	-8.35668
病	-8.35836
老	-8.35942
▁saba	-8.35975
地瓜	-8.36242
▁nya	-8.36352
能	-8.37961
▁不要	-8.37968
▁balo	-8.3804
kay	-8.3808
不會	-8.38112
就會	-8.38215
雞	-8.38262
愛	-8.38266
▁ba	-8.38309
花	-8.3949
動	-8.40184
力	-8.40243
▁saowac	-8.40274
▁bayi	-8.4028
▁heci	-8.40284
▁hananay	-8.40304
za	-8.40364
田	-8.41428
讀書	-8.42045
is	-8.42201
行	-8.42232
▁nikaozip	-8.42325
▁mitengil	-8.42443
kan	-8.42478
▁Bunuk	-8.43293
位	-8.43861
就是	-8.44237
in	-8.44364
啊	-8.44377
▁kiwmah	-8.44377
▁bataan	-8.44377
弟弟	-8.44379
▁potah	-8.44386
▁paboy	-8.44409
▁midang	-8.44419
才	-8.44424
一直	-8.44518
cacay	-8.45099
lang	-8.45319
唱歌	-8.45978
但	-8.46029
▁paka	-8.46235
先	-8.46281
▁mocolil	-8.46497
▁toyni	-8.46773
▁cay	-8.46827
朋友	-8.46837
▁imelang	-8.47064
▁kazizeng	-8.47321
成為	-8.47578
的話	-8.47867
baw	-8.47892
wan	-8.4851
眼	-8.48649
以後	-8.48675
▁mikilim	-8.4877
」	-8.49054
po	-8.49758
女	-8.49781
▁acawa	-8.50203
氣	-8.50457
隻	-8.50684
前	-8.50758
常	-8.50832
baloco	-8.51307
▁kala	-8.52505
起	-8.52598
飯	-8.52962
者	-8.53063
外	-8.53082
▁tisowan	-8.53125
開始	-8.53126
ala	-8.53144
走路	-8.53145
▁tada	-8.533
書	-8.53794
▁Taymu	-8.54226
ong	-8.54682
yan	-8.54731
▁mahini	-8.54758
又	-8.54932
族	-8.55146
教	-8.55304
洗	-8.55365
等	-8.55377
豬	-8.55378
酒	-8.55386
掉	-8.55425
▁mazih	-8.55443
這些	-8.55453
▁titi	-8.5546
▁cinizaan	-8.55688
▁mapalaway	-8.56002
on	-8.56105
▁hina	-8.56264
▁lako	-8.56384
太	-8.56623
生活	-8.56676
▁Kaniw	-8.56789
▁po	-8.56976
▁itiza	-8.57067
▁mamin	-8.57315
部落的	-8.57357
▁pasobana	-8.57607
神	-8.57646
人們	-8.57689
痛	-8.57753
▁dadiw	-8.57759
流	-8.57798
▁bolad	-8.58116
▁nina	-8.58917
▁tabakiay	-8.58917
穿	-8.58991
拿	-8.59016
▁adidi	-8.59586
▁misakamo	-8.59822
學	-8.59899
聲	-8.60175
明	-8.60185
祭	-8.60197
▁maliyoh	-8.60229
▁tangah	-8.60374
口	-8.60385
cos	-8.60658
家裡	-8.608
不能	-8.61039
很會	-8.61111
木	-8.61152
▁balaki	-8.61417
▁mahiniay	-8.61419
▁takowan	-8.62274
▁Tubah	-8.62507
使	-8.62601
1	-8.62687
阿	-8.62689
▁izao	-8.62736
say	-8.63008
都是	-8.63228
肉	-8.63379
▁matenes	-8.63686
▁da	-8.6377
睡覺	-8.6392
▁tolo	-8.63987
▁colil	-8.64121
是誰	-8.64298
▁taneng	-8.64336
?"	-8.64476
ang	-8.64495
還是	-8.6455
▁nipi	-8.64665
個	-8.64755
點	-8.64811
包	-8.64872
別人	-8.64947
三	-8.65156
鳥	-8.65183
Buting	-8.65261
▁Boting	-8.65261
▁kakanen	-8.65263
因此	-8.65269
石頭	-8.65285
▁anocila	-8.65297
▁maladay	-8.6534
▁minanam	-8.65393
▁lisin	-8.65775
▁「	-8.65959
▁malok	-8.66244
▁如果	-8.66513
日	-8.66719
w	-8.67098
哥哥	-8.6741
十	-8.67821
自	-8.67862
▁mosakamo	-8.67876
▁lotok	-8.67876
▁kiyo	-8.6789
▁kakana	-8.67931
▁alikakay	-8.68022
▁miadop	-8.68162
過去	-8.68238
像	-8.68696
▁tano	-8.68749
出來	-8.68753
▁zoma	-8.6911
▁tako	-8.69167
原住民	-8.6946
可	-8.69992
一樣	-8.70038
▁S	-8.70072
你們	-8.70392
進	-8.70404
雨	-8.7042
往	-8.7054
乾	-8.70547
死	-8.70553
▁demidemiad	-8.70561
船	-8.70561
奶奶	-8.70563
製作	-8.70566
▁nacila	-8.70599
lik	-8.70653
的小孩	-8.70707
太陽	-8.7137
dac	-8.71585
!"	-8.71748
▁kabi	-8.71754
▁taw	-8.71898
腳	-8.72362
▁epah	-8.7246
結	-8.72493
▁labi	-8.72702
▁takal	-8.72725
加	-8.73104
熱	-8.73188
記	-8.73253
麻	-8.73306
跑	-8.7331
▁labo	-8.73347
女人	-8.73408
我們的	-8.73569
並	-8.73692
▁我在	-8.73825
山豬	-8.7409
▁lomeni	-8.74442
今天	-8.7448
▁tacowa	-8.74697
▁mali	-8.74811
砍	-8.74866
我是	-8.74985
kong	-8.75003
▁sasa	-8.75377
部	-8.75498
或	-8.75805
邊	-8.75948
處	-8.76003
公	-8.76132
的工作	-8.76141
▁Pasang	-8.76156
▁Sayon	-8.76157
哭	-8.76157
準備	-8.76157
▁paza	-8.76428
▁ongay	-8.76662
幾	-8.76813
很大	-8.76854
很好	-8.77432
這是	-8.77448
▁把	-8.77611
tang	-8.78127
抓	-8.78253
路	-8.78381
祖先	-8.78493
hay	-8.78512
知道	-8.78577
may	-8.78679
名	-8.78962
跳	-8.79068
▁kakawsan	-8.79076
)	-8.79076
▁tolakok	-8.79078
▁papah	-8.79103
以前	-8.79107
▁sizi	-8.79168
alaw	-8.79209
▁oyni	-8.79224
▁那個人	-8.79253
ho	-8.79927
siw	-8.80214
▁mapalaw	-8.81361
好嗎	-8.81613
▁lalabo	-8.81628
▁masa	-8.8164
▁Imi	-8.81882
葉	-8.8197
身	-8.81976
刀	-8.82042
偷	-8.82042
情	-8.82043
意	-8.82045
鬼	-8.82063
養	-8.82082
咬	-8.82084
▁tina	-8.821
▁heni	-8.82103
晚上	-8.82131
▁kanamohan	-8.82151
sing	-8.8216
teng	-8.82219
▁tanay	-8.82221
▁taboyo	-8.82242
▁niya	-8.8292
真的	-8.83035
滿	-8.8315
那是	-8.8325
ling	-8.84073
▁hani	-8.84326
怎麼	-8.8451
經過	-8.846
飛	-8.85115
湯	-8.85185
織布	-8.85188
學習	-8.85188
跳舞	-8.85192
要去	-8.85214
土地	-8.85266
▁nama	-8.85609
patizeng	-8.85625
Dungi	-8.86242
▁sisa	-8.86374
想要	-8.86665
的生活	-8.86697
▁Padakaw	-8.87108
正	-8.8722
於	-8.87759
房子	-8.87812
▁kolit	-8.87911
少	-8.88199
白	-8.88285
晚	-8.88287
男人	-8.88293
物	-8.88319
野	-8.8833
傷	-8.88349
接	-8.88373
布	-8.88376
▁moeneng	-8.88385
血	-8.88385
▁sananay	-8.8839
身體	-8.88393
▁mikolit	-8.88403
▁madoba	-8.88571
▁misanga	-8.88708
天氣	-8.88891
▁nani	-8.89008
salami	-8.89123
nem	-8.89396
▁ayaw	-8.89421
▁cayay	-8.89509
▁odad	-8.89796
國	-8.89992
▁I	-8.90151
如果	-8.90154
▁milihiza	-8.90377
▁你的	-8.904
▁kao	-8.90596
背	-8.90628
醫生	-8.91153
月	-8.91252
不好	-8.91446
猴子	-8.91517
戴	-8.91599
便	-8.91637
翻	-8.91644
入	-8.91654
唱	-8.91678
▁aadopen	-8.91691
▁tahkal	-8.91691
快樂	-8.91706
之後	-8.9177
▁sabana	-8.91785
▁saydang	-8.91788
好了	-8.91996
▁那是	-8.92007
水田	-8.92076
▁paloma	-8.92081
▁toki	-8.9219
不知道	-8.92227
▁kokay	-8.92325
loma	-8.92551
azih	-8.92563
正在	-8.92634
▁那個	-8.9276
▁misaydan	-8.92961
▁nai	-8.93361
回	-8.93561
明天	-8.93607
▁hekal	-8.9378
真	-8.93966
▁tineng	-8.94102
還有	-8.94217
▁mapa	-8.94223
撒奇萊雅族的	-8.945
▁lamal	-8.94507
neng	-8.94574
halhal	-8.94774
工	-8.94834
哪裡	-8.94858
阿美族	-8.94893
do	-8.94915
刺	-8.95044
場	-8.95099
▁daecos	-8.9511
▁tapoko	-8.9511
▁tipos	-8.95113
▁hicaen	-8.95166
▁somanahay	-8.95281
▁nipalomaan	-8.95506
一點	-8.95599
一下	-8.95618
▁tomok	-8.95744
全部	-8.95858
baca	-8.95926
it	-8.96673
族群	-8.96781
▁katayza	-8.96883
文化	-8.97786
名字	-8.97789
▁tosa	-8.97823
lima	-8.98041
kawaw	-8.98115
美	-8.98303
ak	-8.98405
▁今天	-8.98469
受	-8.98509
方	-8.9851
打獵	-8.9855
性	-8.98621
信	-8.98637
傳統	-8.98642
喔	-8.9865
射	-8.9865
▁Pangcah	-8.9865
▁mapolong	-8.9865
▁misakakawaw	-8.9865
▁cacanan	-8.98659
▁aok	-8.9867
動物	-8.98675
▁maodad	-8.98712
▁malecad	-8.98795
花生	-8.98834
▁inayay	-8.98861
▁icelang	-8.99406
新	-8.99639
▁malokay	-8.99678
tay	-8.99759
▁pangcah	-9.00051
容易	-9.00162
如何	-9.00412
▁Sayun	-9.00773
關	-9.01125
▁itawya	-9.01612
▁tayda	-9.01672
▁maozip	-9.01746
車	-9.02044
送	-9.02047
採	-9.02052
好吃	-9.02077
借	-9.02137
指	-9.02179
遠	-9.02191
定	-9.0223
因	-9.02258
▁tiya	-9.02279
笑	-9.02316
您	-9.02318
▁edo	-9.0232
▁hemay	-9.0232
▁lalangawan	-9.0232
▁wayway	-9.02331
▁sakaozip	-9.02351
▁matalaw	-9.02444
▁panan	-9.02497
▁miedap	-9.02591
▁malo	-9.02712
▁oyza	-9.02903
別	-9.02977
▁topel	-9.0305
at	-9.031
kah	-9.03346
光	-9.03437
▁mizizaw	-9.03774
▁bali	-9.03811
的是	-9.03977
台灣	-9.04283
▁micodaday	-9.04685
▁kasi	-9.05033
豬肉	-9.05107
iza	-9.05197
▁momol	-9.05441
只有	-9.05809
園	-9.05898
▁dada	-9.06044
香蕉	-9.06083
picodad	-9.06094
歌	-9.06096
祭典	-9.06103
燒	-9.06104
法	-9.06108
蓋	-9.06115
球	-9.06124
為什麼	-9.0613
▁deko	-9.0613
melaw	-9.0613
老鼠	-9.06137
▁Taywan	-9.06143
▁mihca	-9.06257
▁Kawpil	-9.06308
出生	-9.0652
▁isaw	-9.06681
▁balonga	-9.06725
sawni	-9.06739
語言	-9.06955
▁sapa	-9.07203
▁miala	-9.07297
▁soni	-9.08341
▁balohay	-9.08483
sipo	-9.08635
那裡	-9.08637
ab	-9.08846
dong	-9.08904
坐	-9.09011
naw	-9.0906
啦	-9.09399
看起來	-9.09417
▁mapatay	-9.09511
▁他是	-9.09668
▁我們要	-9.09868
收	-9.09908
獵	-9.0991
食	-9.09957
此	-9.0997
各	-9.09976
▁di	-9.10029
曬	-9.10056
安	-9.10067
則	-9.10089
鹿	-9.10091
▁kizemo	-9.10091
▁mitenon	-9.10091
希望	-9.10091
發現	-9.10105
頭目	-9.10113
lalom	-9.1012
竹子	-9.10154
kilol	-9.10174
回來	-9.10208
▁katinengan	-9.10516
好的	-9.10728
▁pabaway	-9.10793
kasa	-9.10927
odo	-9.10962
caw	-9.1104
▁是的	-9.11146
kanamoh	-9.11353
▁hali	-9.11452
▁imelangay	-9.11478
五	-9.11511
dem	-9.1178
▁hiya	-9.11797
zateng	-9.11816
opo	-9.12036
更	-9.12165
sin	-9.12216
同	-9.12522
▁bili	-9.12776
yam	-9.13168
pisanga	-9.13555
▁爸爸	-9.13567
nan	-9.13666
其	-9.13718
喝	-9.13806
哪	-9.13807
kapahen	-9.13828
▁kai	-9.13845
▁pabaw	-9.13869
貓頭鷹	-9.14036
熟	-9.14045
筆	-9.14052
相	-9.14108
bel	-9.14116
語	-9.14154
輕	-9.14164
石	-9.14173
東	-9.14192
講	-9.14196
無	-9.14202
走了	-9.14206
清	-9.14211
寫	-9.14211
肚子	-9.14213
治	-9.14214
▁bihid	-9.14215
▁Umas	-9.14215
房間	-9.14218
去山上	-9.14288
▁laloma	-9.14317
女生	-9.1434
▁picodadan	-9.1434
▁makaazih	-9.14568
誰	-9.1497
裝	-9.15049
的家	-9.15603
上學	-9.16125
▁salongan	-9.16152
馬立雲部落	-9.16233
的東西	-9.1636
山上	-9.17049
出現	-9.17222
▁bangcal	-9.17319
kamo	-9.17329
兩	-9.17476
變	-9.17548
門	-9.1768
▁你們	-9.17852
裡面	-9.17908
吃了	-9.18246
傳	-9.18256
kowan	-9.18297
也是	-9.18385
常常	-9.18387
落	-9.18469
床	-9.18482
道	-9.18488
妳	-9.18489
觀	-9.18503
追	-9.18508
拉	-9.18516
殺	-9.18516
▁bokes	-9.18517
▁kakitizaan	-9.18517
▁kobkob	-9.18517
▁makatokoh	-9.18517
掛	-9.18517
休息	-9.18517
▁lalod	-9.18517
游	-9.18517
▁seybo	-9.18519
應該	-9.1852
▁kanca	-9.18526
變成	-9.18544
▁ladayen	-9.18548
很久	-9.18569
▁tengilen	-9.18589
一些	-9.18615
▁sawsawni	-9.18628
▁lipahak	-9.18725
完	-9.18996
很喜歡	-9.19171
▁nizateng	-9.19363
來的	-9.19624
話	-9.19706
許多	-9.19737
zikozan	-9.19775
laway	-9.1984
▁papina	-9.19852
漂亮	-9.20089
▁sananal	-9.20235
tip	-9.20276
pazeng	-9.2091
▁mapatayay	-9.21043
面	-9.21203
▁mili	-9.21216
kol	-9.21268
pili	-9.21578
taneng	-9.21757
doka	-9.21828
那個	-9.21844
用來	-9.21887
數	-9.21967
kapah	-9.22037
幫	-9.22182
蛋	-9.22227
kaazih	-9.22242
每天	-9.22347
▁你怎麼	-9.22404
條	-9.22485
san	-9.22552
生病	-9.22665
edap	-9.22679
幫忙	-9.22681
▁mami	-9.2272
capi	-9.2278
妹妹	-9.22874
第	-9.22961
羊	-9.22969
臉	-9.22976
客	-9.22976
內	-9.23004
必須	-9.23004
苦	-9.23004
甚麼	-9.23005
該	-9.23008
堆	-9.23009
Malala	-9.2301
洞	-9.23011
Kuli	-9.23011
▁Komod	-9.23011
▁baeto	-9.23011
角	-9.23011
毛	-9.23012
▁mangelo	-9.23012
懶惰	-9.23012
5	-9.23012
九	-9.23012
告訴	-9.23012
年齡階級	-9.23012
回答	-9.23013
照顧	-9.23014
整理	-9.23018
祭師	-9.23019
桌子	-9.23022
女性	-9.23038
▁我要	-9.2318
▁langaw	-9.23231
▁mihica	-9.23316
就這樣	-9.23377
於是	-9.23467
在那裡	-9.23521
▁awza	-9.23662
bek	-9.2393
的部落	-9.23997
han	-9.24151
下雨	-9.242
部落裡	-9.24231
(	-9.24514
wi	-9.24688
▁kama	-9.24703
▁lasobo	-9.24791
kalat	-9.24806
▁pabeli	-9.2484
tineng	-9.25307
▁kalitang	-9.2556
我會	-9.25611
▁Dungi	-9.26122
sanga	-9.26256
▁別	-9.26311
mal	-9.26391
mis	-9.26617
odad	-9.26876
nam	-9.2714
四	-9.27346
batad	-9.27377
來了	-9.27429
果	-9.27609
黑	-9.27693
比	-9.27707
較	-9.27708
換	-9.27709
倒	-9.27711
賣	-9.27713
元	-9.27717
累	-9.27717
8	-9.27718
它	-9.27718
餓	-9.27718
ikes	-9.27718
▁Koli	-9.27718
▁teban	-9.27718
烤	-9.27718
▁habay	-9.27719
殼	-9.27719
▁kanatal	-9.27721
今年	-9.27734
獵物	-9.27734
▁katalawan	-9.27778
▁patayza	-9.27847
▁kasoy	-9.28374
aca	-9.28542
在家	-9.28629
男孩	-9.28756
有人	-9.28936
pada	-9.28957
tengil	-9.2898
▁kalamkam	-9.29011
▁siwa	-9.29207
ngaay	-9.29571
全	-9.29632
的路	-9.29896
謝謝	-9.29897
yza	-9.30066
你好	-9.3061
zo	-9.30831
撒奇萊雅	-9.30961
▁ha	-9.31095
hen	-9.31386
tah	-9.31548
min	-9.31764
田裡	-9.31838
hica	-9.3194
ol	-9.32251
離開	-9.32278
baliyos	-9.32308
zi	-9.32415
難	-9.32456
冷	-9.32528
爬	-9.32565
長大	-9.3263
交	-9.32635
剛	-9.32639
政府	-9.32647
紅	-9.32649
圍	-9.32652
▁長輩	-9.32657
擦	-9.32657
跌倒	-9.32657
摘	-9.32657
牠	-9.32658
雖然	-9.32658
▁kiwkay	-9.32659
祖靈	-9.32659
決定	-9.32659
▁ngabol	-9.32662
▁tonoz	-9.32663
經常	-9.32663
▁talakaw	-9.32672
▁nababalaki	-9.32684
阿公	-9.32689
▁doot	-9.32708
▁makazih	-9.32774
跟著	-9.32999
出去	-9.33087
▁pabelien	-9.3318
▁這個小孩	-9.33201
▁kongko	-9.33229
說的	-9.33609
▁toway	-9.33729
的食物	-9.33883
大家都	-9.34139
▁alaw	-9.34292
我們一起	-9.34321
稱	-9.34657
▁小孩	-9.34885
liw	-9.35057
需要	-9.35111
katayza	-9.35123
▁mang	-9.35169
cabay	-9.354
lako	-9.3553
卻	-9.35576
▁mida	-9.35641
adidiay	-9.35693
一定	-9.35759
kaka	-9.35764
cong	-9.3584
▁katayni	-9.36444
tek	-9.36494
深	-9.36537
是用來	-9.37048
▁miladay	-9.37262
▁miheca	-9.37347
機	-9.37641
做什麼	-9.37675
本	-9.3769
感	-9.37716
sepat	-9.37721
的書	-9.37741
patahkal	-9.3777
ten	-9.37802
形	-9.37824
體	-9.37832
割	-9.3784
蛇	-9.37842
服	-9.37844
互相	-9.37848
取	-9.37848
曾	-9.3785
溫	-9.3785
皮	-9.37852
槍	-9.37852
▁bihkac	-9.37853
▁kasienawan	-9.37853
藥	-9.37853
▁bonac	-9.37853
9	-9.37853
鄰居	-9.37854
▁kayabes	-9.37854
父親	-9.37855
▁pala	-9.37856
▁taywan	-9.37859
那些	-9.37863
tatoni	-9.37871
▁從前	-9.37872
多少	-9.37886
▁padekoan	-9.3789
▁當時	-9.37895
▁misolit	-9.37898
elac	-9.37907
開車	-9.37916
iloc	-9.3793
balad	-9.37965
▁matomes	-9.37976
小米	-9.37986
去哪裡	-9.38003
使用	-9.38091
很好吃	-9.38188
▁koni	-9.3829
除了	-9.38292
▁有一天	-9.38381
▁pawan	-9.38494
一起去	-9.38569
下來	-9.38634
tiik	-9.38826
回家了	-9.39178
▁selal	-9.39588
apalo	-9.39911
▁katineng	-9.3999
我去	-9.40055
的事情	-9.40113
▁izang	-9.40429
▁Panayan	-9.40534
小孩子	-9.40965
事情	-9.41052
▁Pazik	-9.41162
在這裡	-9.4123
喜歡吃	-9.41457
Sa	-9.41556
▁iniw	-9.4189
二	-9.41916
食物	-9.42006
直	-9.42037
民	-9.42332
▁tatosa	-9.42674
類	-9.42732
有一個	-9.42741
去學校	-9.42874
見	-9.42926
壞	-9.42927
住在	-9.42979
ina	-9.43125
求	-9.43138
lisin	-9.43156
亂	-9.43171
竹	-9.43199
香	-9.43202
你喜歡	-9.4321
網	-9.43237
河	-9.43249
藤	-9.43286
理	-9.43286
hec	-9.43299
舞	-9.43306
北	-9.43316
照	-9.4332
文	-9.43322
件	-9.43329
sol	-9.43331
繼續	-9.43331
夢	-9.43333
祝福	-9.43333
▁Kolas	-9.43333
碗	-9.43333
▁Bineng	-9.43333
▁Potal	-9.43333
▁zayhan	-9.43333
▁hitay	-9.43333
摩托車	-9.43333
Sabak	-9.43334
▁mikacaw	-9.43334
約	-9.43334
姐姐	-9.43334
推	-9.43334
▁polong	-9.43335
姊姊	-9.43335
屋頂	-9.43336
▁itiya	-9.43336
小姐	-9.43339
Utay	-9.43341
▁Ikang	-9.43341
▁limolak	-9.43346
▁belaw	-9.43347
▁ngelo	-9.43347
▁kolol	-9.4335
早上	-9.43372
▁mibalakas	-9.43405
▁bakan	-9.43421
我可以	-9.43457
▁piazih	-9.43559
▁nano	-9.43633
pahanhan	-9.43682
▁nami	-9.43899
其他	-9.43978
tos	-9.44135
▁micaliway	-9.44147
髒	-9.44192
▁sazikocen	-9.44287
去田裡	-9.44301
之前	-9.44382
也會	-9.446
兩個	-9.44688
人的	-9.44899
losa	-9.44939
▁papi	-9.45532
日本	-9.45549
▁malingato	-9.45552
▁ho	-9.45894
pac	-9.46006
▁payso	-9.46154
的水	-9.46161
bol	-9.46321
了很多	-9.46555
路上	-9.46675
▁那時候	-9.46714
▁tapiingan	-9.46827
▁bakian	-9.4686
原來	-9.47028
很漂亮	-9.47036
▁bao	-9.47106
sen	-9.47141
還沒	-9.47425
果實	-9.47446
▁miki	-9.47525
讓我	-9.4761
雨傘	-9.47692
▁zikoz	-9.47701
衣	-9.47725
▁pangangan	-9.47792
▁patobeli	-9.48125
八	-9.48185
lacol	-9.4838
pacakay	-9.48501
次	-9.48562
zikoz	-9.48705
完成	-9.48737
doba	-9.48872
都會	-9.48881
掃	-9.48946
斷	-9.48979
kim	-9.48987
晚餐	-9.49029
男	-9.49038
▁Lali	-9.49062
金	-9.49083
業	-9.49091
花蓮	-9.49091
丟	-9.49109
黃	-9.49109
線	-9.4911
南	-9.4911
母	-9.4911
破	-9.49111
親	-9.49113
弟	-9.49116
泥	-9.49122
整	-9.49123
蟲	-9.49127
思	-9.49128
七	-9.49128
睡	-9.49131
Lohok	-9.49131
挖	-9.49131
piadop	-9.49132
▁Pelac	-9.49132
▁Taypak	-9.49132
▁calaped	-9.49132
▁dongec	-9.49132
▁limecedan	-9.49132
▁sapisolit	-9.49132
▁sobal	-9.49132
▁wangce	-9.49132
Kulas	-9.49132
源	-9.49132
例如	-9.49133
▁liwliw	-9.49133
▁mikokay	-9.49134
保護	-9.49135
mangalay	-9.49136
▁sienaw	-9.49137
▁palatatenga	-9.49138
認為	-9.49149
▁adingo	-9.49152
小心	-9.49153
▁pakayza	-9.49157
前面	-9.49158
▁sapakan	-9.49167
dadiw	-9.49214
水果	-9.49223
▁alaen	-9.4938
▁那小孩	-9.49384
一隻	-9.49398
帶著	-9.49441
▁batikal	-9.49443
一次	-9.49469
醫院	-9.49694
zaw	-9.49919
學生	-9.49998
▁takowanan	-9.5034
她的	-9.50512
▁mipa	-9.50525
sasa	-9.50634
▁pahezek	-9.50733
saicelang	-9.50813
tan	-9.50917
也有	-9.51079
在山上	-9.51347
kabi	-9.51446
▁misalisin	-9.51531
故事	-9.51595
▁nay	-9.52084
過來	-9.52138
是最	-9.52273
hiya	-9.52352
hini	-9.52433
主	-9.52536
▁baeket	-9.52842
時間	-9.53012
最後	-9.53257
▁若	-9.53503
tosa	-9.53548
長的	-9.53637
taw	-9.54437
近	-9.54678
解	-9.54693
pahabay	-9.54806
是我的	-9.54984
高興	-9.55003
間	-9.55025
▁ayzaay	-9.55041
▁nipaloma	-9.55043
kilim	-9.55069
土	-9.55111
達	-9.5516
念	-9.55201
騙	-9.55204
平	-9.5521
貓	-9.55229
越	-9.5523
離	-9.55242
產	-9.55249
院	-9.55251
運	-9.55252
表	-9.55261
世	-9.55265
集	-9.55266
里	-9.55268
保	-9.55275
突然	-9.55275
敬	-9.55277
編	-9.55281
鄉	-9.55283
利	-9.55284
試	-9.55285
區	-9.55286
螃蟹	-9.55286
村	-9.55287
扛	-9.55287
Kumud	-9.55287
兄弟姐妹	-9.55287
切	-9.55287
番石榴	-9.55287
足	-9.55287
panokas	-9.55287
zakep	-9.55287
▁balobaloan	-9.55287
▁dieto	-9.55287
▁hakiya	-9.55287
▁kilakilangan	-9.55287
▁mabolah	-9.55287
▁tiekok	-9.55287
▁hakya	-9.55287
辣	-9.55287
級	-9.55287
配	-9.55287
▁kapot	-9.55287
▁taomah	-9.55287
警	-9.55288
種植	-9.55289
祭司	-9.55289
曾經	-9.5529
▁talabo	-9.5529
代表	-9.55293
▁belac	-9.55297
剛剛	-9.55298
男性	-9.553
無法	-9.55303
▁motizeng	-9.55305
活動	-9.55306
兔子	-9.55313
kataloma	-9.55314
▁bohang	-9.55323
▁palaw	-9.5534
▁kaliyohan	-9.55343
▁pawalil	-9.55344
就是這樣	-9.55363
▁palekal	-9.55409
▁tawki	-9.55409
上面	-9.55411
Tali	-9.55433
▁sanglacay	-9.55462
▁kalecad	-9.55466
心想	-9.55475
花園	-9.55532
▁mahetik	-9.55636
▁tongosay	-9.55649
撒奇萊雅族人	-9.55733
▁mabatad	-9.5574
▁makasicay	-9.55742
bili	-9.55747
▁kakawaw	-9.55755
hiza	-9.5579
比較	-9.55801
balod	-9.55877
人類	-9.55927
▁makai	-9.55931
nanam	-9.55946
在路上	-9.56424
cilal	-9.56524
angic	-9.56629
▁ayawan	-9.56651
▁nikan	-9.56714
很長	-9.56786
▁Tay	-9.56803
▁pacakay	-9.56841
haymawen	-9.57045
▁wama	-9.5715
cosay	-9.57272
z	-9.57297
demiad	-9.57327
pangangan	-9.57424
▁pito	-9.57504
lic	-9.57531
cowa	-9.57667
才會	-9.5778
pana	-9.5785
感到	-9.58132
▁mila	-9.58236
ciw	-9.58407
matineng	-9.58611
▁nima	-9.58649
得很	-9.5873
▁naayaw	-9.58911
孩子們	-9.58987
ic	-9.59064
▁namoh	-9.59164
bah	-9.59186
taling	-9.59355
yay	-9.59677
▁mahizaay	-9.59752
tim	-9.59891
新的	-9.59949
小朋友	-9.60683
期	-9.60722
ngay	-9.60822
▁walo	-9.61192
sikaz	-9.61259
由	-9.61475
mola	-9.61596
溪	-9.61711
á	-9.61795
樂	-9.61803
品	-9.61809
合	-9.61816
散	-9.61825
西	-9.61828
排	-9.61834
搭	-9.61835
旁邊	-9.61836
幫助	-9.61838
視	-9.6184
吵	-9.61843
儀式	-9.61845
豐年祭	-9.61845
連	-9.61846
▁Pani	-9.61846
▁Putal	-9.61846
池	-9.61846
臺灣	-9.61846
Sincyang	-9.61846
ahebal	-9.61846
caledes	-9.61846
lecapo	-9.61846
▁Alikakay	-9.61846
▁caket	-9.61846
▁lotongay	-9.61846
▁mabahel	-9.61846
▁mikelid	-9.61846
▁ngipen	-9.61846
▁tataytay	-9.61846
▁tilivi	-9.61846
▁那是什麼	-9.61846
寬	-9.61846
苗	-9.61846
tapotah	-9.61846
▁Lala	-9.61846
▁malahok	-9.61846
▁tangila	-9.61846
▁zaysa	-9.61846
節	-9.61846
杯	-9.61846
林	-9.61847
割稻	-9.61847
度	-9.61847
▁padekowan	-9.61848
▁pataloma	-9.61848
▁Sakol	-9.61849
電腦	-9.61849
參加	-9.6185
▁bahal	-9.61851
冬天	-9.61851
洪水	-9.61851
木材	-9.61854
結婚	-9.6186
褲子	-9.61862
趕快	-9.61866
▁hakay	-9.61878
捕魚	-9.61878
▁pacici	-9.61892
進行	-9.61902
katawal	-9.61909
▁tatolo	-9.61918
好看	-9.61918
小山豬	-9.61944
▁聽說	-9.6196
lami	-9.61964
▁kaydihan	-9.61969
▁nasawni	-9.62042
去打獵	-9.62066
▁kayadah	-9.62078
▁kakama	-9.62179
▁anoayaw	-9.62219
yadah	-9.62255
▁matengil	-9.62322
上山	-9.62395
幾歲	-9.62459
▁nisanga	-9.6255
,"	-9.62838
acawa	-9.63036
▁miadopay	-9.63743
實	-9.63753
來到	-9.63918
▁kowang	-9.64004
每	-9.64115
▁malala	-9.64143
▁pacolil	-9.64368
todoh	-9.64467
▁sapaiyo	-9.64518
放在	-9.64622
oway	-9.64657
Sayun	-9.64714
Kaniw	-9.64778
▁icowa	-9.64786
dipot	-9.64856
很高	-9.65021
家人	-9.65159
▁papa	-9.65167
▁pay	-9.65268
dis	-9.65316
▁去把	-9.65352
laliw	-9.65404
▁pinaay	-9.65465
comod	-9.65628
本書	-9.65772
ih	-9.6587
起床	-9.65963
▁bi	-9.65984
ako	-9.6619
▁kalas	-9.6639
喝酒	-9.6653
外面	-9.66675
▁mihecaan	-9.66755
去看	-9.66909
撒奇萊雅語	-9.67289
給我	-9.67638
▁sakalahok	-9.67664
居	-9.6803
所有的	-9.68141
▁micaliw	-9.68142
是個	-9.68193
saw	-9.68249
▁miboting	-9.68372
wal	-9.68391
教會	-9.68408
▁likec	-9.68463
現	-9.68514
somad	-9.68568
kok	-9.68609
▁kakabi	-9.68641
兒	-9.68657
眾	-9.6866
看見	-9.6866
樣	-9.68682
原	-9.68718
失	-9.68739
了一	-9.6874
辛苦	-9.6874
何	-9.68749
早餐	-9.68784
抱	-9.68787
屋	-9.68795
六	-9.68796
存	-9.688
eyn	-9.6881
立	-9.68812
許	-9.68812
katalaw	-9.68817
兵	-9.68833
吹	-9.68837
禮	-9.68838
農	-9.68843
怕	-9.68843
盛	-9.68845
遊	-9.68854
特	-9.68854
示	-9.68855
搬	-9.68858
alem	-9.68858
告	-9.6886
雜	-9.68861
根	-9.68862
祖父	-9.68862
易	-9.68862
拔	-9.68865
沉	-9.68865
▁昨天	-9.68865
望	-9.68865
Pawang	-9.68866
ahemi	-9.68866
▁Ukelan	-9.68866
▁elon	-9.68866
▁miasik	-9.68866
▁tebos	-9.68866
梨	-9.68866
烏	-9.68866
什麼時候	-9.68866
呀	-9.68866
圓	-9.68866
甘蔗	-9.68866
練習	-9.68866
基	-9.68866
短	-9.68866
▁nalimaan	-9.68867
祭祀	-9.68867
▁hacica	-9.68868
老鷹	-9.68869
乾淨	-9.68869
kapawan	-9.68869
祭拜	-9.68871
婦女	-9.68873
▁makabatikal	-9.68877
▁ngiha	-9.68882
otobay	-9.68884
▁laylay	-9.68884
女兒	-9.68885
相信	-9.68888
todawa	-9.68888
▁noayawan	-9.68889
擁有	-9.68891
受傷	-9.68895
▁langdaway	-9.68903
▁silamalay	-9.68908
▁solo	-9.68928
小男孩	-9.68929
那樣	-9.6896
▁kasaselal	-9.68963
三個	-9.68975
▁mabecol	-9.68985
發生	-9.68988
▁milimek	-9.69057
成熟	-9.69061
lot	-9.69072
▁malabi	-9.69072
身上	-9.69078
▁milongoc	-9.69079
▁matawa	-9.69092
▁mabilil	-9.69109
▁miliyaw	-9.69156
很高興	-9.6916
lawlaw	-9.69269
▁Umaw	-9.69275
▁mizateng	-9.69458
▁mikilol	-9.69468
podac	-9.6947
▁kyami	-9.69647
▁angangan	-9.69771
▁mih	-9.69927
ngawa	-9.69997
的腳	-9.70055
il	-9.70232
不同	-9.703
atal	-9.70324
katineng	-9.7036
midipot	-9.7047
不可以	-9.70532
▁tali	-9.70839
結果	-9.70992
他說	-9.71095
▁kaw	-9.71192
paazih	-9.71382
說族語	-9.71624
幫我	-9.72029
icelang	-9.72039
」。	-9.72106
king	-9.72258
原住民族	-9.72308
的孩子	-9.72327
▁mana	-9.72363
天上	-9.72366
▁kalang	-9.72399
國家	-9.72546
limola	-9.72606
▁masaso	-9.72658
tayza	-9.72697
▁你有	-9.72908
cakay	-9.72951
ozip	-9.72969
▁mikoli	-9.73283
nanom	-9.73295
kalamkam	-9.7355
▁tayniay	-9.7362
就像	-9.73643
adidi	-9.73681
Benel	-9.73727
caliway	-9.73843
ga	-9.73873
可能	-9.74174
久	-9.74392
ilang	-9.74414
henay	-9.74913
母親	-9.75118
一年	-9.75197
他在	-9.752
▁nipa	-9.752
▁namin	-9.7527
▁solit	-9.75326
綁	-9.75385
tolo	-9.75617
的事	-9.75664
saba	-9.75847
海邊	-9.76014
▁我喜歡	-9.76021
lalid	-9.76107
祖母	-9.76131
撿	-9.7625
在部落	-9.76271
鍋	-9.76297
r	-9.763
瓜	-9.76307
作為	-9.76334
挑	-9.76334
夜	-9.7634
活	-9.76364
代	-9.76374
烏克蘭	-9.76377
如	-9.76382
通	-9.76383
料	-9.76385
待	-9.76388
量	-9.76389
婚	-9.76399
靠	-9.76403
引	-9.76405
吸	-9.76407
歷史	-9.76414
磨	-9.76414
絕	-9.76414
細	-9.76414
陷	-9.76415
的眼睛	-9.76415
雲	-9.76415
N	-9.76415
siket	-9.76415
汗	-9.76415
3	-9.76415
剪	-9.76415
反	-9.76415
堂	-9.76415
暗	-9.76415
f	-9.76416
sicedam	-9.76416
▁Amo	-9.76416
▁Dataw	-9.76416
▁Posong	-9.76416
▁canacanan	-9.76416
▁padingad	-9.76416
▁tatekoh	-9.76416
▁tatipelok	-9.76416
▁阿媽	-9.76416
硬	-9.76416
臭	-9.76416
耳	-9.76416
▁pacaliw	-9.76416
世界	-9.76416
dadingo	-9.76416
▁mibanaw	-9.76416
庫	-9.76416
sobok	-9.76416
健康	-9.76416
習慣	-9.76416
認識	-9.76416
午餐	-9.76416
tacacodadan	-9.76416
惡	-9.76417
戰爭	-9.76417
汽車	-9.76418
慢慢	-9.76418
比賽	-9.76419
祈求	-9.76419
洗澡	-9.76421
libong	-9.76424
月亮	-9.76425
稻子	-9.76428
舉行	-9.76431
paanin	-9.76434
▁tahekal	-9.76437
河邊	-9.76438
▁molekal	-9.76443
▁bacal	-9.76449
等一下	-9.76462
只	-9.76473
▁inayi	-9.76481
▁你有幾個	-9.76501
才能	-9.76504
才不會	-9.76513
生氣	-9.76518
paceba	-9.76563
awas	-9.76565
▁malepi	-9.76571
只要	-9.76594
有空	-9.76601
一定會	-9.76603
▁nazikozan	-9.76616
家庭	-9.76632
▁tokay	-9.76661
一邊	-9.76663
要做什麼	-9.76676
女子	-9.76693
▁kasikaz	-9.7675
cocok	-9.76811
▁現在是	-9.76846
傳說	-9.76856
的名字	-9.76907
的方式	-9.76963
生命	-9.76971
▁madoka	-9.77014
▁noyni	-9.77093
▁sayon	-9.77167
▁palang	-9.77242
nel	-9.77301
▁maala	-9.77314
▁pakan	-9.77349
▁ayda	-9.7742
古	-9.77467
▁tatosaay	-9.77526
有好多	-9.77851
還要	-9.77853
▁timo	-9.77895
▁我已經	-9.77957
▁saopo	-9.7814
▁maca	-9.78167
olic	-9.78173
的花	-9.78535
她是	-9.78659
waw	-9.78672
我們來	-9.78832
maylayay	-9.78893
的行為	-9.78924
後面	-9.79279
tosaay	-9.7954
kak	-9.79948
ini	-9.80359
個人	-9.80626
害怕	-9.80798
cila	-9.81134
的手	-9.81253
ama	-9.81526
。(	-9.81861
站	-9.81864
mic	-9.81927
▁haymaw	-9.82274
是用	-9.82314
的心	-9.82324
拜訪	-9.83209
balonga	-9.83422
不見了	-9.83444
tatenga	-9.83447
我來	-9.83481
bolad	-9.83494
到處	-9.83494
boyo	-9.83611
kasoy	-9.83626
awza	-9.83628
bangcalay	-9.83639
好多	-9.83675
▁eneng	-9.83898
▁tayzaay	-9.83965
lecad	-9.84002
是原住民	-9.84032
ngo	-9.84046
即	-9.84117
▁你去	-9.8426
lilid	-9.84265
空	-9.84328
的頭	-9.84451
醒	-9.84459
橘子	-9.84472
馬	-9.84474
豆	-9.84478
片	-9.8448
篩	-9.84491
舉	-9.84555
味	-9.84559
至	-9.84564
載	-9.84564
化	-9.84566
戰	-9.84567
屬	-9.84568
改	-9.8457
萬	-9.84571
牆	-9.84571
滑	-9.84572
替	-9.84575
選	-9.84576
壓	-9.84578
牙	-9.84579
勇	-9.84579
豐	-9.8458
藏	-9.8458
算	-9.8458
薪	-9.84581
Sapad	-9.84581
折	-9.84582
雨停了	-9.84582
英	-9.84582
蟻	-9.84582
Amu	-9.84582
弄	-9.84582
蘭	-9.84582
abibi	-9.84582
adipapang	-9.84582
emek	-9.84582
soped	-9.84582
▁Moli	-9.84582
▁Muli	-9.84582
▁Namoh	-9.84582
▁holam	-9.84582
▁keynli	-9.84582
▁landaway	-9.84582
▁matekes	-9.84582
▁mowangic	-9.84582
季	-9.84582
急	-9.84582
沙	-9.84582
▁Pala	-9.84582
很美麗	-9.84582
▁sizikoc	-9.84582
▁miliyas	-9.84583
▁tisoan	-9.84583
嚇	-9.84583
搶	-9.84583
▁malimad	-9.84583
▁lipay	-9.84583
禁忌	-9.84583
植物	-9.84583
▁miteka	-9.84583
階級	-9.84585
附近	-9.84585
感謝	-9.84586
法律	-9.84586
星星	-9.84587
▁lipon	-9.8459
青年	-9.8459
力量	-9.84607
▁syasin	-9.84612
運動	-9.84613
蚊子	-9.84618
然後	-9.84625
進入	-9.84625
天空	-9.84626
zipa	-9.84636
▁midangoy	-9.84691
帶領	-9.84699
▁sakakapah	-9.84702
木頭	-9.8471
到達	-9.84742
記得	-9.84761
那邊	-9.8478
車子	-9.84785
▁我的名字叫	-9.8479
日本人	-9.84854
▁masatezep	-9.84873
▁sabama	-9.84881
▁mipalita	-9.84891
tabaki	-9.84963
▁kakapah	-9.85032
tebing	-9.85079
▁sakalabi	-9.85147
▁micapi	-9.85224
▁saayaway	-9.85281
▁misoayaw	-9.85362
coco	-9.85402
▁mihalhal	-9.85409
掉了	-9.85417
hiw	-9.85495
▁sama	-9.85496
▁misalami	-9.85517
裡有	-9.85604
都有	-9.85621
▁mahicato	-9.85682
我沒有在	-9.85695
ngeli	-9.85716
有一	-9.85801
就可以	-9.85848
yaw	-9.85915
▁palamal	-9.85967
開門	-9.8609
▁colilen	-9.8614
kowang	-9.86261
在田裡	-9.86342
lalaba	-9.86356
liyaw	-9.86393
變得	-9.86418
帽子	-9.86458
lit	-9.86632
我想	-9.86943
我不	-9.87026
▁tanengay	-9.87349
▁yadahay	-9.87869
▁yaan	-9.87912
▁miawaw	-9.88115
todong	-9.88161
▁saki	-9.88234
在睡覺	-9.88712
馬立雲的	-9.88749
kih	-9.88882
katengil	-9.89392
awaw	-9.89841
▁sakamoen	-9.90198
ad	-9.90273
▁pawali	-9.9055
▁你們的	-9.90653
的帽子	-9.90743
pit	-9.90768
wad	-9.90798
bila	-9.91145
▁nisa	-9.9127
ngayaw	-9.91423
地方	-9.91685
心裡	-9.91892
ut	-9.92089
葉子	-9.9218
森林	-9.92287
天天	-9.9248
enengan	-9.92554
除	-9.92671
他就	-9.92877
胖	-9.93061
od	-9.93112
▁inaan	-9.93138
palita	-9.93148
早	-9.93317
然	-9.93322
矮	-9.93346
一天	-9.93347
底	-9.93357
務	-9.93358
U	-9.93376
鼻	-9.93382
共	-9.93425
青	-9.93432
造	-9.93441
轉	-9.93443
電	-9.93444
員	-9.93447
搖	-9.93449
靈	-9.9345
毒	-9.93451
撒	-9.93456
星	-9.93458
油	-9.93458
癢	-9.93459
labang	-9.93459
鹹	-9.93459
置	-9.9346
棒	-9.93463
慢	-9.93466
奶	-9.93466
夫	-9.93466
張	-9.93467
善	-9.93471
仍	-9.93471
巫師	-9.93472
美麗的	-9.93473
權	-9.93474
差	-9.93474
穀	-9.93475
4	-9.93475
ngizo	-9.93475
城	-9.93475
境	-9.93475
Kulele	-9.93475
退	-9.93475
兄弟姊妹	-9.93475
哇	-9.93475
慕	-9.93475
揮	-9.93475
虎頭蜂	-9.93475
局	-9.93475
1878	-9.93475
冰	-9.93475
知識	-9.93475
sepi	-9.93475
嫩	-9.93475
板	-9.93475
沾	-9.93475
lokiyaw	-9.93476
patodod	-9.93476
tapes	-9.93476
wawelwel	-9.93476
▁Adop	-9.93476
▁Kalingko	-9.93476
▁Kolele	-9.93476
▁ahemaw	-9.93476
▁banges	-9.93476
▁kasasizoma	-9.93476
▁kikilangan	-9.93476
▁padaicaw	-9.93476
▁patiyamay	-9.93476
▁piales	-9.93476
▁sademidemiad	-9.93476
▁tabayal	-9.93476
天黑了	-9.93476
酸	-9.93476
▁lalikid	-9.93476
7	-9.93476
唸	-9.93476
糯米飯	-9.93476
彩	-9.93476
貝	-9.93476
擺	-9.93476
項	-9.93476
攤	-9.93476
皮膚	-9.93477
螺	-9.93477
攜帶	-9.93478
管理	-9.93481
南瓜	-9.93485
kangelo	-9.93485
跑步	-9.93485
終於	-9.93485
adidem	-9.93488
▁tanonamoh	-9.93489
如此	-9.93489
問題	-9.9349
交換	-9.93492
平安	-9.93492
講話	-9.93498
通常	-9.93499
當然	-9.93508
民族	-9.93509
蓋房子	-9.9351
要好好	-9.9351
部落領袖	-9.93511
之間	-9.93513
likat	-9.93524
樹豆	-9.93525
每年	-9.93529
▁mapawan	-9.93534
撒固兒部落	-9.93538
火神祭	-9.93545
paysin	-9.93546
打掃	-9.93547
太太	-9.93552
山羊	-9.93563
▁palod	-9.93567
之外	-9.93578
從此	-9.93579
▁mikidemay	-9.93581
能力	-9.93584
動作	-9.93597
▁lecohan	-9.93607
幾天	-9.93612
▁nako	-9.93615
▁pisakakawawan	-9.93654
以及	-9.93663
▁siacawa	-9.93689
▁tinako	-9.93691
pacakat	-9.93693
▁maacak	-9.93694
▁alangahay	-9.9372
▁pitengil	-9.9374
獵人	-9.93758
很勤勞	-9.93784
malaacawa	-9.93818
▁satabakiay	-9.93874
吃飯	-9.93926
boting	-9.93979
▁keli	-9.93983
▁cilis	-9.93992
▁misaicelang	-9.9405
▁mitiik	-9.94057
最喜歡	-9.94097
lipida	-9.94098
看著	-9.94108
▁kakabian	-9.9413
一位	-9.9415
Tubah	-9.94246
Imi	-9.94248
adada	-9.94282
拿來	-9.94284
說話	-9.94308
pal	-9.94353
niyazo	-9.94366
吃過	-9.94387
第二	-9.94391
▁inaay	-9.94405
pasobana	-9.94414
居住	-9.94548
cang	-9.946
的工作是	-9.94618
ung	-9.9467
很有	-9.9472
跟你	-9.9475
分給	-9.94903
的葉子	-9.95063
niza	-9.95255
wantan	-9.95418
mang	-9.95509
let	-9.95521
▁palo	-9.9559
有許多	-9.95772
▁naca	-9.95993
▁win	-9.96018
tob	-9.96096
ading	-9.96145
▁我沒有	-9.96181
▁馬立雲部落的	-9.96236
yon	-9.9631
所有	-9.96464
micomod	-9.96536
頭髮	-9.96542
是因為	-9.96898
的女人	-9.96906
mas	-9.96945
pinanam	-9.97002
mazateng	-9.97091
一定要	-9.97236
的聲音	-9.97407
atol	-9.9763
在學校	-9.97648
到我	-9.98096
sal	-9.98439
買了	-9.98472
聽到	-9.98558
得到	-9.98686
謝謝你	-9.98753
這裡有	-9.99063
男生	-9.99418
T	-9.99426
tayni	-9.99499
kayakay	-10.0005
ot	-10.0032
去找	-10.0039
奇	-10.0046
boh	-10.0055
▁我家	-10.0056
▁Ta	-10.0107
言	-10.0109
的男人	-10.0112
留	-10.0164
nol	-10.0165
wang	-10.0178
打開	-10.02
放棄	-10.0213
白色	-10.0213
畫圖	-10.0223
受到	-10.0248
很多人	-10.0249
趕	-10.0249
▁makasic	-10.0251
doh	-10.0266
百	-10.0273
族語	-10.028
勤勞	-10.0282
隊	-10.0288
未	-10.0289
吃的	-10.0296
lekal	-10.0299
隨	-10.0306
錯	-10.0308
橡皮擦	-10.0309
聚	-10.0311
飽	-10.0315
腫	-10.0316
骨	-10.032
袋	-10.032
父	-10.0321
耕	-10.0321
畫	-10.0322
育	-10.0322
讀	-10.0322
建	-10.0322
害	-10.0322
年輕	-10.0322
棵	-10.0322
塊	-10.0323
遺	-10.0323
容	-10.0323
舊	-10.0323
遷	-10.0323
準	-10.0323
政	-10.0323
型	-10.0324
盡	-10.0324
擊	-10.0324
父母	-10.0324
Adup	-10.0324
鬧	-10.0324
Wusay	-10.0324
耙	-10.0324
Namuh	-10.0324
▁Takobowan	-10.0324
剝	-10.0324
吞	-10.0324
抬	-10.0324
熊	-10.0324
肺	-10.0324
設	-10.0324
針	-10.0324
鐵	-10.0324
aledah	-10.0324
cecay	-10.0324
det	-10.0324
padaeso	-10.0324
sem	-10.0324
▁Wosay	-10.0324
▁badahong	-10.0324
▁baydoko	-10.0324
▁hakhak	-10.0324
▁tamdaw	-10.0324
samsam	-10.0324
▁omaomahan	-10.0324
▁pinapina	-10.0324
▁basis	-10.0324
▁matawid	-10.0324
佔	-10.0324
ancomin	-10.0324
怎樣	-10.0324
lihalay	-10.0324
窮	-10.0324
▁sabolic	-10.0324
kotkot	-10.0324
simpi	-10.0324
鹽巴	-10.0324
alopal	-10.0324
kadabo	-10.0324
芒草	-10.0324
鋤頭	-10.0324
▁sioy	-10.0324
takid	-10.0324
教育	-10.0324
負責	-10.0324
cengel	-10.0324
▁bilanga	-10.0324
obi	-10.0324
星期	-10.0324
寫字	-10.0325
順便	-10.0325
表示	-10.0325
靠近	-10.0325
▁lilis	-10.0325
bahbah	-10.0325
集合	-10.0325
▁namakayza	-10.0325
▁kaysing	-10.0325
能夠	-10.0325
見面	-10.0326
calap	-10.0326
參與	-10.0326
▁keliw	-10.0326
春天	-10.0326
梯子	-10.0326
耕作	-10.0326
而且	-10.0327
howad	-10.0327
▁那個男人	-10.0329
▁toas	-10.0329
▁molaliw	-10.0329
▁siimelang	-10.0329
為何	-10.033
▁kalabian	-10.033
發燒	-10.033
生的	-10.0333
solol	-10.0334
▁piyang	-10.0334
鍋子	-10.0335
▁miidang	-10.0336
▁makaala	-10.0336
到底	-10.0337
天神	-10.0342
長者	-10.0343
份	-10.035
並沒有	-10.0351
▁malebot	-10.0351
▁malaheci	-10.0351
bilil	-10.0351
很遠	-10.0356
▁這小孩	-10.0358
▁mipatay	-10.0359
手指	-10.0362
▁nanay	-10.0363
很少	-10.0364
▁sitangahay	-10.0375
都在	-10.0379
satezep	-10.0383
wac	-10.039
▁為了	-10.0397
送給	-10.0399
▁macapi	-10.0405
我們的部落	-10.0411
▁okak	-10.0425
▁kalamkamen	-10.0431
patay	-10.0435
的名字叫	-10.0438
或是	-10.044
colilan	-10.0453
將要	-10.0453
病人	-10.0474
soso	-10.0489
的房子	-10.0509
kinacacay	-10.0517
不懂	-10.0531
lebod	-10.0544
tozo	-10.0559
人家	-10.0566
▁sakol	-10.0569
被別人	-10.0571
pel	-10.0577
一種	-10.058
pela	-10.0603
kang	-10.0604
很好的	-10.0611
若	-10.0619
▁tono	-10.0624
」,	-10.0631
epah	-10.0645
kiw	-10.0645
Sakizaya	-10.0648
pen	-10.066
會被	-10.0662
酒醉	-10.0669
cebo	-10.0677
的時間	-10.0713
群	-10.0774
▁tata	-10.0775
I	-10.0781
kalitang	-10.08
dihi	-10.0812
▁nida	-10.0822
▁pace	-10.0843
▁koyo	-10.0844
▁To	-10.0892
naayaway	-10.0894
▁maba	-10.0924
的故事	-10.095
▁我被	-10.097
在醫院	-10.103
▁maso	-10.103
awawen	-10.1044
喜歡讀書	-10.105
▁maylay	-10.1057
cep	-10.1063
▁cowaay	-10.108
▁tomay	-10.108
是很	-10.1122
yi	-10.1147
為主	-10.1158
在下雨	-10.1161
有個	-10.1165
每天都	-10.1213
很髒	-10.123
的陷阱	-10.1244
是學生	-10.1255
台北	-10.1262
遭	-10.1281
候	-10.1309
叫做	-10.1318
▁panay	-10.1324
picakay	-10.1324
的生命	-10.1327
討厭	-10.1356
半	-10.1362
停	-10.1362
▁kayi	-10.1372
longoc	-10.1372
是我們的	-10.1373
laday	-10.1379
領	-10.1381
就要	-10.1384
mok	-10.1386
論	-10.139
收成	-10.139
餵	-10.1392
tepal	-10.1392
甜	-10.1393
有幾個	-10.1394
強	-10.1396
餐	-10.1396
目	-10.1397
食用	-10.1398
捕	-10.1398
師	-10.1401
具	-10.1401
膽	-10.1401
celem	-10.1402
製	-10.1402
應	-10.1403
亮	-10.1403
混	-10.1404
sey	-10.1404
雙	-10.1404
寶	-10.1404
伴	-10.1404
依	-10.1404
卡	-10.1404
避	-10.1404
裏	-10.1405
困	-10.1405
怪	-10.1405
騎腳踏車	-10.1405
簍	-10.1405
妹	-10.1405
kizaya	-10.1405
據	-10.1405
涼	-10.1405
▁silaw	-10.1405
責	-10.1405
賜	-10.1405
鹽	-10.1405
胎	-10.1405
術	-10.1405
侵	-10.1405
器	-10.1405
染	-10.1405
縫	-10.1405
圈	-10.1405
談	-10.1405
Suwan	-10.1405
薄	-10.1405
復	-10.1406
職	-10.1406
堅	-10.1406
誤	-10.1406
異	-10.1406
削	-10.1406
粒	-10.1406
▁我覺得	-10.1406
宣	-10.1406
滾	-10.1406
顆	-10.1406
belesiw	-10.1406
ceka	-10.1406
celcel	-10.1406
cikcik	-10.1406
cilekay	-10.1406
tatelecan	-10.1406
tigami	-10.1406
▁Bonga	-10.1406
▁Edek	-10.1406
▁Lipen	-10.1406
▁Malataw	-10.1406
▁Satoko	-10.1406
▁Walis	-10.1406
▁akenek	-10.1406
▁hatini	-10.1406
▁kalahokan	-10.1406
▁maseneng	-10.1406
▁mazohem	-10.1406
▁molkal	-10.1406
▁nasandeb	-10.1406
▁pilipayan	-10.1406
▁sikawswa	-10.1406
▁tanektek	-10.1406
擠	-10.1406
詞	-10.1406
途	-10.1406
tes	-10.1406
▁locik	-10.1406
▁pitenon	-10.1406
乞	-10.1406
嫁	-10.1406
幹	-10.1406
懶	-10.1406
Bunga	-10.1406
屁股	-10.1406
▁Sowan	-10.1406
▁sitopel	-10.1406
廚房	-10.1406
麵包樹	-10.1406
埋	-10.1406
童	-10.1406
腿	-10.1406
kanahato	-10.1406
瑪	-10.1406
姑婆芋	-10.1406
madademec	-10.1406
啄木鳥	-10.1406
pacikah	-10.1406
德	-10.1406
▁nakamoan	-10.1406
親戚	-10.1406
▁tomonaw	-10.1406
護士	-10.1406
atekak	-10.1406
patelac	-10.1406
禮拜	-10.1406
▁pasayza	-10.1406
親友	-10.1406
靈魂	-10.1406
dimot	-10.1406
▁hicahan	-10.1406
緊張	-10.1406
稱呼	-10.1406
▁silawad	-10.1406
故鄉	-10.1406
▁我正在	-10.1406
柚子	-10.1406
▁telay	-10.1406
▁alahica	-10.1407
台東	-10.1407
▁ciyak	-10.1407
▁congal	-10.1407
釣魚	-10.1407
paising	-10.1407
平原	-10.1407
▁sazikozay	-10.1407
▁langat	-10.1407
泥土	-10.1407
▁lipen	-10.1407
味道	-10.1407
Maibul	-10.1407
桃子	-10.1407
▁Tahay	-10.1407
教導	-10.1407
中午	-10.1407
特別	-10.1407
dimel	-10.1408
pilihiza	-10.1408
聚會所	-10.1408
▁sayaway	-10.1408
▁podoh	-10.1408
病毒	-10.1408
▁pawti	-10.1408
▁Botod	-10.1408
▁Botong	-10.1409
holak	-10.1409
▁mocelem	-10.1409
biyalaw	-10.1409
漢人	-10.1409
火鍋	-10.141
▁masaopo	-10.141
骨頭	-10.141
曬乾	-10.141
boot	-10.1411
出去玩	-10.1411
正名	-10.1411
▁那個女人	-10.1412
▁maconos	-10.1413
▁matatengil	-10.1413
我們的祖先	-10.1413
遇到	-10.1413
不管	-10.1415
可愛	-10.1416
中間	-10.1416
海鳥	-10.1417
▁mapolet	-10.1417
關心	-10.1417
kini	-10.1418
▁ancila	-10.1419
年輕人	-10.1419
不停	-10.1421
小偷	-10.1421
小刀	-10.1421
太多	-10.1424
paengad	-10.1424
小鳥	-10.1424
▁mibetik	-10.1424
很辛苦	-10.1426
本來	-10.1431
▁masakapahay	-10.1432
▁liwan	-10.1432
▁sepatay	-10.1434
總是	-10.1434
▁mipadang	-10.1436
眾人	-10.1438
以為	-10.1441
▁mapoling	-10.1442
sinawal	-10.1443
未來	-10.1445
palamel	-10.1446
好像	-10.1446
ayaway	-10.1447
▁alobo	-10.1449
▁baso	-10.145
海水	-10.1451
進去	-10.1455
taini	-10.1459
兩人	-10.146
拿去	-10.1461
▁maodadto	-10.1462
▁nabaloco	-10.1464
▁macilal	-10.1467
eloh	-10.1488
▁mikalat	-10.1489
▁mangaay	-10.1489
▁mipazeng	-10.149
▁sapaloma	-10.1495
talod	-10.1499
loong	-10.15
要先	-10.1501
大家一起	-10.1509
完了	-10.1512
kalok	-10.1513
pida	-10.1515
▁paayaw	-10.1517
他是我的	-10.1524
回來了	-10.1526
有些	-10.1542
也可以	-10.1546
心地	-10.1548
面對	-10.1549
森林裡	-10.1554
soni	-10.1589
人民	-10.16
lano	-10.1608
simal	-10.1612
看起來很	-10.1628
沒有人	-10.1629
不同的	-10.163
一個人	-10.1635
▁maozipay	-10.1635
不一樣	-10.1641
不喜歡	-10.1646
軍人	-10.165
mikidem	-10.1654
namoh	-10.1669
▁takala	-10.1678
▁misakapah	-10.17
sapal	-10.1705
ngangan	-10.1713
adi	-10.1716
nih	-10.1737
▁sizoma	-10.1738
今天的	-10.1749
在馬立雲部落	-10.1752
我要去	-10.1764
▁itizaay	-10.1766
ozoma	-10.1777
kwan	-10.1779
抓到	-10.1785
就好	-10.1791
saliyok	-10.1802
的朋友	-10.1809
是你的	-10.1813
是男生	-10.1857
pipazeng	-10.1859
好喝	-10.1877
cilo	-10.1877
ngil	-10.1885
pabeli	-10.1907
▁我把	-10.1919
我的孩子	-10.1923
miti	-10.1932
labi	-10.1944
我就	-10.1951
paloma	-10.1973
十二	-10.1993
▁soka	-10.1996
wawa	-10.2005
payso	-10.2011
Taymu	-10.2019
Bunuk	-10.2021
是一個	-10.2021
pos	-10.2025
zazan	-10.2029
tacowa	-10.2031
balaki	-10.2033
lalacan	-10.2034
▁sano	-10.2079
pacolil	-10.2082
piala	-10.2107
自然	-10.2107
izang	-10.2117
跟他	-10.2139
回去	-10.2163
二十	-10.2184
lin	-10.2195
醉	-10.2199
的頭髮	-10.221
▁mico	-10.2229
行為	-10.2247
把菜	-10.2255
▁malahitay	-10.228
lis	-10.2324
▁amaan	-10.234
walian	-10.2342
我都	-10.2376
紅色的	-10.2376
不多	-10.2382
canan	-10.2403
並不	-10.2414
tizeng	-10.2433
要帶	-10.2435
我要買	-10.2436
▁baba	-10.2446
ngel	-10.2465
我的腳	-10.2468
把你的	-10.2472
守	-10.2479
limek	-10.2498
mahica	-10.2511
到家	-10.2513
▁kawanan	-10.2519
amay	-10.2521
mod	-10.2522
▁tongos	-10.2546
acaw	-10.2549
的名字是	-10.2564
歲	-10.257
▁mapolin	-10.2578
▁bala	-10.258
hedaw	-10.2584
laheci	-10.2585
總	-10.2586
pacing	-10.2593
padang	-10.2595
kacawan	-10.2597
夠	-10.2601
貴	-10.2606
今	-10.2609
籃	-10.2609
影	-10.2609
padeko	-10.2609
黑色	-10.261
桶	-10.2611
臨	-10.2612
鼠	-10.2613
醫	-10.2614
假	-10.2614
枝	-10.2614
電視	-10.2615
電話	-10.2616
義	-10.2616
島	-10.2616
綠	-10.2616
音	-10.2616
導	-10.2617
腰	-10.2617
騎	-10.2617
台	-10.2617
精	-10.2617
廣	-10.2617
隨便	-10.2618
程	-10.2618
灰	-10.2618
tela	-10.2618
提	-10.2618
消	-10.2618
圖	-10.2618
姊	-10.2618
頂	-10.2618
debo	-10.2618
apoyo	-10.2618
制	-10.2618
負	-10.2618
腦	-10.2618
腳踏車	-10.2618
歡	-10.2618
緊	-10.2618
備	-10.2618
躺	-10.2619
浸	-10.2619
茄苳樹	-10.2619
透	-10.2619
休	-10.2619
缺	-10.2619
蜂	-10.2619
陰	-10.2619
燈	-10.2619
達固湖灣	-10.2619
Seqalu	-10.2619
危險	-10.2619
就這麼	-10.2619
沖	-10.2619
尾	-10.2619
脫	-10.2619
Bahi	-10.2619
Tipus	-10.2619
千	-10.2619
瑞穗鄉	-10.2619
燙	-10.2619
舔	-10.2619
茶	-10.2619
[	-10.2619
~	-10.2619
▁Akiw	-10.2619
厚	-10.2619
斗	-10.2619
纍	-10.2619
踩	-10.2619
釘	-10.2619
Abang	-10.2619
]	-10.2619
edek	-10.2619
habelot	-10.2619
lakela	-10.2619
penec	-10.2619
pibihkac	-10.2619
piked	-10.2619
seking	-10.2619
tepad	-10.2619
▁Bolaw	-10.2619
▁Incomin	-10.2619
▁Lipon	-10.2619
▁Tipos	-10.2619
▁bihel	-10.2619
▁bilowa	-10.2619
▁kasizikoc	-10.2619
▁masamel	-10.2619
▁pakayingan	-10.2619
▁paseneng	-10.2619
▁salengacay	-10.2619
▁takelolo	-10.2619
▁tilibi	-10.2619
劈	-10.2619
吐	-10.2619
岩	-10.2619
幼	-10.2619
往生者	-10.2619
蝦	-10.2619
譯	-10.2619
踢	-10.2619
Nakaw	-10.2619
loyaloy	-10.2619
▁Lisin	-10.2619
▁katalakaw	-10.2619
▁kawswa	-10.2619
▁lopas	-10.2619
▁sasingalan	-10.2619
Ulaw	-10.2619
wey	-10.2619
▁mipacok	-10.2619
不聽話	-10.2619
宴	-10.2619
耶	-10.2619
胡	-10.2619
▁papelo	-10.2619
太陽出來了	-10.2619
組織	-10.2619
美崙山	-10.2619
大巨人	-10.2619
malalikid	-10.2619
▁malikid	-10.2619
番茄	-10.2619
tiyong	-10.2619
▁teynnaw	-10.2619
稻穀	-10.2619
dihko	-10.2619
dingki	-10.2619
務必	-10.2619
插秧	-10.2619
牙齒	-10.2619
討論	-10.2619
camol	-10.2619
便宜	-10.2619
▁patahekal	-10.2619
適合	-10.2619
▁nicakayan	-10.2619
麻煩	-10.2619
▁madipotay	-10.2619
豐富	-10.2619
▁bohat	-10.2619
工寮	-10.2619
增加	-10.2619
搭火車	-10.262
最重要的	-10.262
嬰兒	-10.262
▁Ibong	-10.262
輕鬆	-10.262
孫子	-10.262
外套	-10.262
▁mianin	-10.262
命名	-10.262
廣場	-10.262
▁wanglo	-10.262
表達	-10.262
產業	-10.262
黃金	-10.262
▁salil	-10.2621
精神	-10.2621
下午	-10.2621
日本政府	-10.2621
屋內	-10.2621
眼淚	-10.2621
其實	-10.2621
上帝	-10.2621
▁layak	-10.2621
目前	-10.2621
▁molangaw	-10.2622
物品	-10.2622
南邊	-10.2622
▁pakaini	-10.2622
▁talaw	-10.2623
besoc	-10.2623
全身	-10.2623
tabako	-10.2623
掉下來	-10.2624
除草	-10.2624
▁這是誰的	-10.2625
▁kikay	-10.2625
多少錢	-10.2626
五個人	-10.2627
少女	-10.2627
▁pihaymawi	-10.2627
前往	-10.2628
地瓜葉	-10.2629
tokos	-10.2629
▁kawili	-10.2631
鐘	-10.2632
badi	-10.2632
想念	-10.2633
▁daong	-10.2634
是黑色的	-10.2634
▁lingo	-10.2634
兒子	-10.2635
米酒	-10.2635
對著	-10.2635
▁lecohen	-10.2635
▁mizikec	-10.2635
▁mabalakas	-10.2636
▁ladem	-10.2636
此地	-10.2637
▁bawo	-10.2638
▁lait	-10.2639
▁下雨了	-10.2639
mayca	-10.264
失去	-10.264
boy	-10.2641
▁這個人	-10.2642
▁kakacawan	-10.2643
saongay	-10.2644
開花	-10.2648
▁miasip	-10.2649
改變了	-10.2649
爛掉	-10.2651
▁dawa	-10.2654
topin	-10.2654
▁kakanan	-10.2655
▁adiding	-10.2657
找到	-10.2659
也沒有	-10.2659
有一隻	-10.2662
幫你	-10.2662
▁palami	-10.2667
一半	-10.2668
balic	-10.267
找到了	-10.2678
的工具	-10.2683
▁mabosokay	-10.2684
看過	-10.2684
那個小孩	-10.2685
lebot	-10.2689
有關	-10.269
阿美族人	-10.27
這位	-10.27
種子	-10.2708
完成了	-10.2709
balangbangan	-10.271
生長	-10.2726
一群	-10.2734
▁mikawaw	-10.274
locek	-10.2762
可是	-10.2775
的背	-10.2784
kidis	-10.28
在一起	-10.2825
▁aenengan	-10.2829
lala	-10.2843
hina	-10.2854
背上	-10.2862
的嘴巴	-10.2865
祖先的	-10.287
lasol	-10.2879
朋友們	-10.2886
回到	-10.2903
liayaw	-10.2904
的文化	-10.2916
在讀書	-10.2918
看看	-10.2919
cakayen	-10.2921
▁paya	-10.293
會唱歌	-10.294
被關	-10.2946
但是他	-10.2977
tima	-10.299
kademec	-10.299
▁sasing	-10.3002
▁bon	-10.3008
懂得	-10.3019
綠色的	-10.3021
▁man	-10.3023
車站	-10.3027
▁我每天	-10.3042
他很	-10.306
▁makay	-10.3081
是紅色的	-10.3086
不用	-10.3109
▁sapisa	-10.3117
長了	-10.3125
takos	-10.3149
selal	-10.3155
▁mica	-10.3158
palomaan	-10.3163
yala	-10.3189
▁mipel	-10.3189
砍樹	-10.3199
堆積	-10.3249
在台灣	-10.3258
了許多	-10.3265
colo	-10.3276
最好	-10.3284
tala	-10.331
他的衣服	-10.3329
的先生	-10.3337
聲音	-10.3406
走過	-10.3416
全都	-10.3418
alob	-10.3431
稱為	-10.3436
她是我的	-10.3455
給他	-10.3463
pon	-10.3494
▁sapad	-10.3495
yna	-10.35
長得	-10.3505
的人會	-10.3513
怎麼了	-10.3523
會說族語	-10.3526
▁moko	-10.3541
火車	-10.3561
kahiza	-10.357
cin	-10.3573
很小	-10.3577
讓人	-10.3584
怎麼樣	-10.3599
tademaw	-10.3629
micodad	-10.3643
yang	-10.3675
軍	-10.3692
pahezek	-10.3697
aleb	-10.3707
koy	-10.3721
掉到	-10.3723
很熱	-10.3759
不但	-10.3796
engi	-10.3796
都不	-10.3799
古時	-10.38
▁katawa	-10.3836
likan	-10.3847
▁tin	-10.3848
▁makan	-10.3854
▁ales	-10.3879
我們都	-10.3895
方式	-10.3898
歲了	-10.3916
asip	-10.3922
▁somanah	-10.3927
▁sitangah	-10.394
▁calkaka	-10.3947
▁mabosok	-10.395
▁Bono	-10.3952
kalabi	-10.3952
kalih	-10.3962
debay	-10.3965
tomes	-10.3966
dadom	-10.3966
也很	-10.3966
房屋	-10.397
認	-10.3971
智慧	-10.3972
mahiza	-10.3976
嘴	-10.3981
來吧	-10.3986
議	-10.3987
房	-10.399
夾	-10.399
班	-10.3991
且	-10.3993
lemed	-10.3994
超	-10.3994
故	-10.3995
字	-10.3995
逃	-10.3995
擔	-10.3996
終	-10.3996
訪	-10.3996
祖	-10.3996
浪	-10.3997
穩	-10.3997
材	-10.3997
織	-10.3997
犁	-10.3998
鏡	-10.3998
飲	-10.3998
另	-10.3998
led	-10.3998
訓	-10.3998
淚	-10.3998
這件事	-10.3998
守護	-10.3998
亡	-10.3998
護	-10.3998
祈	-10.3998
習	-10.3998
迎	-10.3999
摔	-10.3999
福	-10.3999
潔	-10.3999
考	-10.3999
扁	-10.3999
肥	-10.3999
顧	-10.3999
嬰	-10.3999
彎	-10.3999
低	-10.3999
探	-10.3999
降	-10.3999
比特幣	-10.3999
喜	-10.3999
勞	-10.3999
麵包果	-10.4
社	-10.4
塑	-10.4
首	-10.4
狀	-10.4
系	-10.4
獨	-10.4
續	-10.4
插	-10.4
聯	-10.4
介	-10.4
規	-10.4
彈	-10.4
婆	-10.4
速	-10.4
謠	-10.4
店	-10.4
固	-10.4
態	-10.4
煙	-10.4
旺	-10.4
朝	-10.4
僅	-10.4
斜	-10.4
影響	-10.4
添	-10.4
不清楚	-10.4
啃	-10.4
揹	-10.4
暑	-10.4
模仿	-10.4
白鷺鷥	-10.4
絲	-10.4
繫	-10.4
罵	-10.4
saksak	-10.4
▁nilecoh	-10.4
去臺北	-10.4
舀	-10.4
藝	-10.4
Atung	-10.4
Cilakayan	-10.4
adead	-10.4
betil	-10.4
calenget	-10.4
daedac	-10.4
esos	-10.4
hoyahoy	-10.4
kelec	-10.4
pohpoh	-10.4
tem	-10.4
zahkez	-10.4
‧	-10.4
▁Bulaw	-10.4
▁Holam	-10.4
▁Kohkoh	-10.4
▁Kolang	-10.4
▁Yoma	-10.4
▁amohoan	-10.4
▁bahel	-10.4
▁kabidangan	-10.4
▁kadayom	-10.4
▁kalalais	-10.4
▁katenes	-10.4
▁laecos	-10.4
▁matepa	-10.4
▁mibihkac	-10.4
▁micozoh	-10.4
▁mingadoy	-10.4
▁misahemay	-10.4
▁ngisngis	-10.4
▁palawpes	-10.4
▁podahting	-10.4
▁sansandeb	-10.4
▁sebo	-10.4
▁takelal	-10.4
▁tatokian	-10.4
懷疑	-10.4
軟	-10.4
pasokas	-10.4
▁dadoy	-10.4
▁nakamowan	-10.4
▁sakalanam	-10.4
尿	-10.4
救	-10.4
這麼多	-10.4
麵	-10.4
▁masasizoma	-10.4
▁takoliyaway	-10.4
tamelac	-10.4
懷孕	-10.4
碎	-10.4
耀	-10.4
debongan	-10.4
口簧琴	-10.4
橋	-10.4
調	-10.4
pudahting	-10.4
密	-10.4
傲	-10.4
莖	-10.4
▁titaan	-10.4
tastas	-10.4
弱	-10.4
pacekil	-10.4
的過程	-10.4
窗戶	-10.4
技術	-10.4
招	-10.4
罰	-10.4
kolawit	-10.4
牧場	-10.4
▁mitabi	-10.4
這座山	-10.4
nasanal	-10.4
糯米糕	-10.4
成年禮	-10.4
▁paozipay	-10.4
遙遠	-10.4
▁likisi	-10.4
▁iciba	-10.4
永遠	-10.4
lowalo	-10.4
正式	-10.4
器具	-10.4
幾乎	-10.4
kelah	-10.4
midebong	-10.4
如今	-10.4001
勤快	-10.4001
傳承	-10.4001
▁mikowanay	-10.4001
▁Syawpo	-10.4001
子孫	-10.4001
建立	-10.4001
▁anoyaan	-10.4001
▁mangaleb	-10.4001
▁kowawi	-10.4001
leng	-10.4001
生薑	-10.4001
▁nohni	-10.4001
西瓜	-10.4001
sengel	-10.4001
地震	-10.4001
▁makawili	-10.4001
並且	-10.4002
散亂	-10.4002
共同	-10.4002
犁田	-10.4002
屬於	-10.4002
麻袋	-10.4002
秋天	-10.4003
訪問	-10.4003
▁不要隨便	-10.4003
等待	-10.4003
刺竹	-10.4003
可怕	-10.4003
安全	-10.4003
botol	-10.4003
▁alaci	-10.4003
搖動	-10.4003
擔心	-10.4004
祭品	-10.4004
起立	-10.4004
▁Botoc	-10.4004
很久以前	-10.4004
▁lalilocan	-10.4004
的日子	-10.4004
看電視	-10.4004
▁你明天要去	-10.4005
nihal	-10.4005
破掉	-10.4005
青年們	-10.4005
▁malalemed	-10.4005
關於	-10.4006
ciid	-10.4006
生存	-10.4006
▁tabayo	-10.4006
上課	-10.4006
面前	-10.4007
▁tadok	-10.4007
中餐	-10.4007
歲時	-10.4007
keng	-10.4008
▁moangic	-10.4008
傷口	-10.4008
太好了	-10.4009
那些孩子	-10.4009
小溪	-10.4009
▁padangen	-10.4009
▁asik	-10.401
家屋	-10.401
或者	-10.401
kazih	-10.401
拿出來	-10.4011
重新	-10.4011
飯包	-10.4012
▁pitepi	-10.4012
出門	-10.4012
▁kida	-10.4013
各種	-10.4013
海神	-10.4013
牛車	-10.4013
何時	-10.4013
▁amihcaan	-10.4013
▁bakah	-10.4013
挑水	-10.4014
12	-10.4015
溪水	-10.4016
放學	-10.4016
很甜	-10.4017
▁malakapah	-10.4018
事務	-10.4018
發動	-10.4019
▁mabolaw	-10.402
掃把	-10.402
男子	-10.4022
認真	-10.4023
想起	-10.4024
▁milisimet	-10.4024
三天	-10.4025
▁sapica	-10.4025
▁enenga	-10.4028
出發	-10.4029
叫聲	-10.4029
▁pobo	-10.4031
很難	-10.4032
▁midadom	-10.4034
▁madebay	-10.4035
撒奇萊雅人	-10.4035
很冷	-10.4038
▁mahedaw	-10.404
▁balolo	-10.404
家族	-10.4041
他的名字是	-10.4042
要小心	-10.4042
時常	-10.4043
hod	-10.4044
拿著	-10.4047
abes	-10.4047
▁kaozip	-10.4047
isi	-10.4049
▁malekakaay	-10.4053
穿上	-10.4055
撞到	-10.4057
yzaan	-10.4058
▁mililid	-10.4059
labong	-10.4064
▁minanom	-10.4066
胖了	-10.4066
▁malalid	-10.4066
▁enal	-10.4071
學會	-10.4076
▁masikaz	-10.4077
▁tayo	-10.4091
▁ocanan	-10.4095
放到	-10.4105
▁sapabeli	-10.4112
裝滿	-10.4113
nayat	-10.4119
baat	-10.4121
alesan	-10.4122
離開了	-10.4122
▁naba	-10.4126
不再	-10.4127
會洗衣服	-10.4128
生病了	-10.4135
地上	-10.4138
有一位	-10.4154
要多	-10.4158
▁waloay	-10.4165
直到	-10.4165
▁nasa	-10.4167
apen	-10.4184
▁tabi	-10.4186
個月	-10.4191
hato	-10.4194
ngato	-10.4204
▁miladayay	-10.421
的照片	-10.4224
時期	-10.4229
ngih	-10.4239
看不見	-10.424
pakoyocay	-10.4262
▁cikah	-10.4269
masazomaay	-10.4269
ocol	-10.4293
zomaay	-10.4297
都要	-10.4317
百年	-10.4337
大人	-10.434
人數	-10.4343
小的時候	-10.4362
cokat	-10.4364
去醫院	-10.4365
itakod	-10.4379
▁mabo	-10.4382
pang	-10.4414
mahiniay	-10.4423
nip	-10.4431
lalamel	-10.4441
可能是	-10.4451
不方便	-10.4467
部落的人	-10.4468
裡有很多	-10.4486
maw	-10.4493
所以我	-10.4545
lineng	-10.4572
sisi	-10.4592
的舞蹈	-10.4648
lak	-10.4686
很害怕	-10.4695
先生	-10.4732
tating	-10.4744
yni	-10.4747
在家裡	-10.4781
人才	-10.4875
滿了	-10.4875
nengay	-10.4884
▁pililoc	-10.4885
感到很	-10.4898
去上學	-10.4907
樹木	-10.4924
sait	-10.4954
pil	-10.4973
▁imahini	-10.4999
ming	-10.5023
▁col	-10.5054
apok	-10.5101
sakawaw	-10.5107
有一天	-10.5114
來裝	-10.5138
amo	-10.5147
sakapahay	-10.5166
moni	-10.5193
▁pacok	-10.5194
坐下	-10.522
▁mapeci	-10.5241
kidem	-10.5249
apol	-10.5274
tada	-10.5295
些	-10.5316
我們就	-10.5326
洗衣服	-10.5345
照片	-10.5347
▁mapel	-10.5354
tangah	-10.5357
來找	-10.5385
bolsak	-10.5391
已經被	-10.5395
ngol	-10.5418
我叫	-10.545
▁這是第	-10.545
▁lebo	-10.5455
人口	-10.5472
nanomen	-10.5473
確	-10.5496
iyang	-10.5504
Umaw	-10.5506
便當	-10.5507
batikal	-10.551
▁paanip	-10.552
lipahak	-10.552
Kawpil	-10.5523
inayay	-10.5532
taboyo	-10.5539
▁paaca	-10.5541
到現在	-10.5547
▁tamiyan	-10.555
▁calekaka	-10.555
▁sasolit	-10.5551
庭	-10.5554
懂	-10.5557
濕	-10.556
改變	-10.5563
的家園	-10.5567
lepi	-10.5568
belin	-10.5576
langaw	-10.5579
kolang	-10.558
知	-10.5584
需	-10.5585
客氣	-10.5585
管	-10.5587
tepi	-10.5588
聞	-10.5589
遇	-10.5589
這就是	-10.559
經	-10.5591
支	-10.5593
cacodad	-10.5593
領袖	-10.5596
步	-10.5596
是由	-10.5597
獲	-10.5597
架	-10.5597
桑	-10.5598
蘇	-10.5598
芽	-10.5598
隔	-10.5598
命	-10.5598
座	-10.5598
▁ahican	-10.5599
題	-10.5599
嚴	-10.5599
票	-10.5599
舍	-10.56
持	-10.56
婦	-10.56
順	-10.56
某	-10.5601
巴	-10.5601
舖	-10.5601
鬆	-10.5601
尊	-10.5601
拍	-10.5602
致	-10.5602
附	-10.5602
修	-10.5602
的習俗	-10.5602
紙	-10.5602
討	-10.5602
富	-10.5602
士	-10.5602
旱	-10.5602
哥	-10.5602
塞	-10.5602
魂	-10.5602
盤	-10.5602
怒	-10.5602
極	-10.5602
升	-10.5602
奉	-10.5602
化妝	-10.5602
扭	-10.5602
壯	-10.5602
印	-10.5602
傾	-10.5602
召	-10.5602
cidek	-10.5602
Losin	-10.5602
紙鈔	-10.5602
隆	-10.5602
恐	-10.5602
質	-10.5602
擾	-10.5602
老闆說	-10.5602
沒關係	-10.5602
笨	-10.5602
貨	-10.5602
番	-10.5602
啼	-10.5602
竊	-10.5602
侵略	-10.5602
池塘裡	-10.5602
免得被	-10.5602
孤	-10.5602
搭公車	-10.5602
▁你有幾隻	-10.5602
健	-10.5602
刮	-10.5602
太陽下山	-10.5602
獨角仙	-10.5602
疔	-10.5602
舅	-10.5602
阿美語	-10.5602
際	-10.5602
霧	-10.5602
Yona	-10.5602
塌	-10.5602
懼	-10.5602
我忘了帶	-10.5602
暈	-10.5602
柔	-10.5602
款	-10.5602
炒	-10.5602
的耳朵	-10.5602
腹瀉	-10.5602
贏	-10.5602
述	-10.5602
遍	-10.5602
Ngayaw	-10.5602
tahadaoc	-10.5602
▁Angah	-10.5602
▁Kalin	-10.5602
▁kingcal	-10.5602
倆	-10.5602
娘	-10.5602
欣賞	-10.5602
沒辦法	-10.5602
私	-10.5602
Kulang	-10.5602
Tiway	-10.5602
aniwiw	-10.5602
betas	-10.5602
coedet	-10.5602
damek	-10.5602
dohpic	-10.5602
helong	-10.5602
kalapiyat	-10.5602
katepa	-10.5602
kemet	-10.5602
madayom	-10.5602
malawpes	-10.5602
namalahok	-10.5602
pawpaw	-10.5602
piletek	-10.5602
piwnong	-10.5602
silsil	-10.5602
solahid	-10.5602
talawadaw	-10.5602
tamozong	-10.5602
ú	-10.5602
▁Kaloloan	-10.5602
▁Maniw	-10.5602
▁aadopan	-10.5602
▁aidangan	-10.5602
▁bokelal	-10.5602
▁cihek	-10.5602
▁daydam	-10.5602
▁enemay	-10.5602
▁hatiza	-10.5602
▁hikoki	-10.5602
▁kacaloway	-10.5602
▁kakitaan	-10.5602
▁liel	-10.5602
▁miletek	-10.5602
▁niadopan	-10.5602
▁pilecohan	-10.5602
▁saasik	-10.5602
▁saboroo	-10.5602
▁sanek	-10.5602
▁sonsoli	-10.5602
▁tebon	-10.5602
▁zinom	-10.5602
▁這就是我要	-10.5602
克	-10.5602
去蘭嶼	-10.5602
尖	-10.5602
敲	-10.5602
穿山甲	-10.5602
窩	-10.5602
蒸	-10.5602
要吃什麼	-10.5602
鵝	-10.5602
Kanasaw	-10.5602
cacebalen	-10.5602
▁liyoh	-10.5602
▁lomingay	-10.5602
▁mamidang	-10.5602
▁molecoh	-10.5602
▁ngangangah	-10.5602
▁老鷹去問	-10.5602
月亮出來了	-10.5602
kahmid	-10.5602
mahaymaw	-10.5602
▁kinabakah	-10.5602
▁sinaama	-10.5602
▁tongawen	-10.5602
愈	-10.5602
拾	-10.5602
爲	-10.5602
的意思	-10.5602
窄	-10.5602
kawlah	-10.5602
似	-10.5602
kamacal	-10.5602
▁mangazo	-10.5602
淋	-10.5602
蒼蠅	-10.5602
小女孩	-10.5602
砂	-10.5602
koskos	-10.5602
▁他看見了	-10.5602
貧	-10.5602
▁mitelac	-10.5602
益	-10.5602
滴	-10.5602
竟	-10.5602
ngitid	-10.5602
▁mililoc	-10.5602
寂	-10.5602
鋪	-10.5602
ahbal	-10.5602
▁maoning	-10.5602
涵	-10.5602
▁mainal	-10.5603
值	-10.5603
膝蓋	-10.5603
勤奮	-10.5603
武	-10.5603
很快就	-10.5603
優	-10.5603
舉辦	-10.5603
badidiw	-10.5603
遷移	-10.5603
稱之為	-10.5603
▁mocol	-10.5603
▁micidekay	-10.5603
▁tosoz	-10.5603
彼此	-10.5603
▁kalibongan	-10.5603
清晨	-10.5603
道歉	-10.5603
▁pahko	-10.5603
▁maotang	-10.5603
kasonon	-10.5603
呼吸	-10.5603
莫	-10.5603
▁adasay	-10.5603
▁malikatay	-10.5603
▁makodos	-10.5603
竹筍	-10.5603
紙張	-10.5603
至今	-10.5603
在海上	-10.5603
通知	-10.5603
你要買	-10.5603
單車	-10.5603
製造	-10.5603
搖籃	-10.5603
搭飛機	-10.5603
▁kawpil	-10.5603
課本	-10.5603
海洋	-10.5603
否則	-10.5603
atilad	-10.5603
專門	-10.5603
painging	-10.5603
賽跑	-10.5603
仍然	-10.5603
認同	-10.5603
注意	-10.5603
遺失	-10.5603
你是不是	-10.5604
lahad	-10.5604
稻草	-10.5604
ocya	-10.5604
現代	-10.5604
同伴	-10.5604
ozang	-10.5604
左手	-10.5604
圍牆	-10.5604
理解	-10.5604
死亡	-10.5604
▁pihibangan	-10.5604
帶著雨傘	-10.5605
不見	-10.5605
守護神	-10.5605
▁kohni	-10.5605
▁sangaw	-10.5605
聊天	-10.5605
捕鳥	-10.5605
▁colal	-10.5605
背袋	-10.5605
一般	-10.5605
▁kakawit	-10.5606
ilabo	-10.5606
夜晚	-10.5606
禮物	-10.5606
真實	-10.5606
ahicanaca	-10.5606
柱子	-10.5606
▁damod	-10.5606
abih	-10.5606
mokin	-10.5606
sapod	-10.5606
溪邊	-10.5607
飛機	-10.5607
同意	-10.5607
桌上	-10.5607
上午	-10.5607
園裡有	-10.5607
國民	-10.5607
▁kapolongan	-10.5607
直接	-10.5607
民國	-10.5607
bangbang	-10.5607
相傳	-10.5607
麻線	-10.5607
處理	-10.5607
相關	-10.5608
獲得	-10.5608
只能	-10.5608
河流	-10.5608
三次	-10.5608
▁hican	-10.5608
碰到	-10.5608
瓶子	-10.5608
peng	-10.5608
綁起來	-10.5609
道路	-10.5609
wawada	-10.5609
成立	-10.5609
▁naimelang	-10.5609
主事	-10.561
▁pakazizeng	-10.561
辭掉	-10.561
掉落	-10.561
敵人	-10.561
聽見	-10.561
生產	-10.561
肚子痛	-10.561
▁Toy	-10.5611
一支	-10.5612
形成	-10.5612
idih	-10.5612
lamadac	-10.5612
▁misebeng	-10.5613
▁miconos	-10.5613
上班	-10.5613
selep	-10.5614
影子	-10.5615
隨著	-10.5616
不知	-10.5617
會議	-10.5617
方向	-10.5617
爬山	-10.5617
過貓	-10.5618
▁hamay	-10.5618
之處	-10.5618
▁bina	-10.5618
▁sadingsingan	-10.5618
站著	-10.5618
▁kalabaw	-10.5619
▁miketon	-10.5619
▁matatongos	-10.5619
鼻子	-10.5619
▁我種的	-10.562
很貴	-10.562
部分	-10.562
▁namahiza	-10.562
Takaw	-10.562
▁misaydang	-10.562
聚會	-10.562
篩子	-10.5621
生日	-10.5622
▁大家好	-10.5622
點火	-10.5622
▁Laling	-10.5622
▁tepalay	-10.5623
不夠	-10.5623
香蕉樹	-10.5623
babalakas	-10.5624
iyot	-10.5625
▁malitemoh	-10.5625
不論	-10.5626
白天	-10.5626
去採	-10.5626
想像	-10.5627
很矮	-10.5627
▁bolo	-10.5628
▁patahkalen	-10.5629
再見了	-10.563
網子	-10.563
▁moala	-10.5631
▁sakapina	-10.5631
▁payni	-10.5633
kolod	-10.5634
▁midipotay	-10.5635
喝水	-10.5635
呼喊	-10.5635
和解	-10.5636
坐著	-10.5636
發出	-10.5637
這個孩子	-10.5638
▁mabelin	-10.5638
simaw	-10.5639
長老	-10.5639
帶回家	-10.5639
壞人	-10.5639
見到	-10.564
不斷	-10.5641
▁nisolitan	-10.5642
▁siwawa	-10.5642
對於	-10.5643
到田裡	-10.5644
macakat	-10.5644
停在	-10.5646
從事	-10.5646
你的朋友	-10.5652
▁calekakaan	-10.5655
▁sicabay	-10.5656
一名	-10.5657
▁pakatineng	-10.5658
族人們	-10.5659
大雨	-10.5659
▁mikayakay	-10.5662
吃地瓜	-10.5665
很瘦	-10.5666
家園	-10.5667
▁lalami	-10.5667
回到了	-10.5671
▁他的小孩	-10.5674
多久	-10.5677
▁那狗	-10.5678
也不會	-10.5682
nengan	-10.5686
▁masomad	-10.5687
樹下	-10.569
zomah	-10.569
即將	-10.5698
▁satabaki	-10.5699
採收	-10.57
原來是	-10.57
心中	-10.5701
hanhan	-10.5703
起床了	-10.5705
的確	-10.5708
nika	-10.5709
要加	-10.5715
了解	-10.5718
atayza	-10.572
▁mabaliyos	-10.5723
沒有看到	-10.5729
▁sasolitan	-10.573
去幫忙	-10.573
▁nasi	-10.5731
▁nipahabay	-10.5737
那老人	-10.5745
長大了	-10.5747
▁sapicakay	-10.5757
我的病	-10.5765
molo	-10.577
kahini	-10.5774
▁mibotingay	-10.5784
重要	-10.5789
▁kiyami	-10.5792
一條	-10.5803
去教會	-10.5805
▁nimaay	-10.5812
▁pacolilay	-10.5813
煮的菜	-10.5821
去台北	-10.5826
▁sademiad	-10.5831
picomod	-10.5837
▁cen	-10.5842
sikol	-10.5871
你哥哥	-10.5889
去拜訪	-10.5889
是醫生	-10.5891
的母親	-10.5897
好啦	-10.5906
現在要	-10.5922
老了	-10.598
▁又有	-10.5986
lidong	-10.6026
很深	-10.6044
各式各樣的	-10.6048
saselal	-10.6063
micakay	-10.6125
到外面	-10.6154
mahini	-10.6239
綠色	-10.6339
▁tatak	-10.6351
zengang	-10.6354
lilocan	-10.637
kolitan	-10.6401
明天要	-10.6406
馬立雲	-10.6426
S	-10.6463
躲在	-10.6466
過的地方	-10.6476
上有很多	-10.6507
躲	-10.6556
舞蹈	-10.6658
不容易	-10.6672
hoy	-10.6746
tanam	-10.6751
怎麼會	-10.6807
主要	-10.6809
還給	-10.6846
方便	-10.6892
去幫	-10.6925
ocil	-10.6928
bayo	-10.696
tawyaay	-10.6968
owak	-10.6993
▁kalah	-10.7072
完全	-10.7081
不能吃	-10.7095
▁bok	-10.7104
zy	-10.7105
嘴巴	-10.7123
很難過	-10.7134
▁pakoyoc	-10.7151
▁masazoma	-10.7163
十分	-10.7224
難過	-10.7277
tezep	-10.7319
那個孩子	-10.7329
比較好	-10.7334
所謂的	-10.7337
salama	-10.7407
▁makawa	-10.741
工具	-10.741
願意	-10.7414
codadan	-10.7418
非	-10.743
有下雨	-10.7433
瘦	-10.7435
▁malekaka	-10.7437
爛	-10.7459
如果有	-10.7464
wit	-10.7464
呼	-10.747
tabal	-10.7476
bosok	-10.7477
becol	-10.7477
lisimet	-10.7477
betik	-10.7478
的樣子	-10.7487
小時候	-10.7489
sapol	-10.7492
▁paw	-10.7496
那間	-10.75
課	-10.7502
蚊	-10.7503
兔	-10.7503
肚	-10.7503
喊	-10.7503
▁besi	-10.7504
那隻青蛙	-10.7505
▁sangla	-10.7505
官	-10.7505
患	-10.7507
秋	-10.7507
春	-10.7507
王	-10.7509
功	-10.7509
hibang	-10.7509
炭	-10.751
暖	-10.751
乘	-10.751
傘	-10.751
單	-10.751
冠	-10.751
爭	-10.751
承	-10.751
獻	-10.751
靜	-10.751
積	-10.751
臟	-10.751
點鐘	-10.751
周	-10.751
專	-10.751
糖	-10.751
縣	-10.751
戶	-10.7511
藉	-10.7511
pec	-10.7511
喪	-10.7511
止	-10.7511
響	-10.7511
妻	-10.7511
忌	-10.7511
突	-10.7511
費	-10.7511
的貨幣	-10.7511
粉	-10.7511
陪	-10.7511
曲	-10.7511
錄	-10.7511
加密貨幣	-10.7511
啟	-10.7511
某些	-10.7511
羞	-10.7511
快樂王子	-10.7511
揉	-10.7511
週	-10.7511
占	-10.7511
閉	-10.7511
付	-10.7511
喚	-10.7511
顯	-10.7511
枯	-10.7511
西方的	-10.7511
幸	-10.7511
檢	-10.7511
株	-10.7511
崇	-10.7511
賞	-10.7511
觸	-10.7511
隱	-10.7511
雉	-10.7511
的權利	-10.7511
索	-10.7511
胸	-10.7511
封	-10.7511
逐	-10.7511
執	-10.7511
財	-10.7511
砰	-10.7511
維	-10.7511
6	-10.7511
揚	-10.7511
莎	-10.7511
kaliyah	-10.7511
勢	-10.7511
太平洋	-10.7511
段	-10.7511
沉默	-10.7511
脈	-10.7511
蟹	-10.7511
跡	-10.7511
踏	-10.7511
旋	-10.7511
鬚	-10.7511
▁Kapa	-10.7511
▁那些女孩子喜歡	-10.7511
亦	-10.7511
匙	-10.7511
嗯	-10.7511
扇	-10.7511
打瞌睡	-10.7511
昏	-10.7511
牢	-10.7511
盪	-10.7511
眉	-10.7511
研究	-10.7511
碾	-10.7511
籐	-10.7511
蔥	-10.7511
閩南人	-10.7511
阻	-10.7511
alongdas	-10.7511
dadipasan	-10.7511
edep	-10.7511
hecek	-10.7511
hemhem	-10.7511
iwngiw	-10.7511
kadaecos	-10.7511
kalingesan	-10.7511
kemi	-10.7511
longidac	-10.7511
maedes	-10.7511
masolalis	-10.7511
milmil	-10.7511
saelaw	-10.7511
salipot	-10.7511
tapilalac	-10.7511
tebol	-10.7511
tedos	-10.7511
teked	-10.7511
tihemok	-10.7511
▁Ciwidian	-10.7511
▁Kila	-10.7511
▁Linahem	-10.7511
▁Pohay	-10.7511
▁Poseko	-10.7511
▁Sanpoy	-10.7511
▁Taroko	-10.7511
▁Towapon	-10.7511
▁Ziaoddin	-10.7511
▁ameylika	-10.7511
▁bangsis	-10.7511
▁beded	-10.7511
▁bodawen	-10.7511
▁cilemin	-10.7511
▁dedemiad	-10.7511
▁demiamiad	-10.7511
▁kaketi	-10.7511
▁kasilawadan	-10.7511
▁kibetol	-10.7511
▁lalidec	-10.7511
▁linges	-10.7511
▁malopisak	-10.7511
▁maseka	-10.7511
▁miales	-10.7511
▁mideko	-10.7511
▁miedaw	-10.7511
▁milakalak	-10.7511
▁milakec	-10.7511
▁miwatawat	-10.7511
▁mobahel	-10.7511
▁nalecohan	-10.7511
▁naynayi	-10.7511
▁pacobelis	-10.7511
▁sakatanektek	-10.7511
▁sangelacay	-10.7511
▁seqalo	-10.7511
▁somilaway	-10.7511
▁tenes	-10.7511
促	-10.7511
吊	-10.7511
國福里	-10.7511
我的妻子	-10.7511
戴著帽子	-10.7511
振	-10.7511
握	-10.7511
浮	-10.7511
漂流木	-10.7511
矩	-10.7511
箱	-10.7511
納	-10.7511
膀	-10.7511
come	-10.7511
onged	-10.7511
tootood	-10.7511
▁Taloko	-10.7511
▁ititaan	-10.7511
▁maanob	-10.7511
▁maibok	-10.7511
▁pongkang	-10.7511
▁sakalawpes	-10.7511
▁sinawama	-10.7511
▁tohenian	-10.7511
▁wacah	-10.7511
蠶	-10.7511
▁anosanal	-10.7511
▁kasaetim	-10.7511
▁patawsi	-10.7511
▁solalis	-10.7511
因為牠在	-10.7511
飛來飛去	-10.7511
驅邪	-10.7511
鼓	-10.7511
Tapad	-10.7511
siwatid	-10.7511
▁caloway	-10.7511
▁lilal	-10.7511
▁milabin	-10.7511
剩	-10.7511
Butuc	-10.7511
gingko	-10.7511
▁cimacima	-10.7511
下課了	-10.7511
俄國	-10.7511
在廣場上	-10.7511
平埔族	-10.7511
戀	-10.7511
殘	-10.7511
泊	-10.7511
cabiyas	-10.7512
▁yakoba	-10.7512
▁你今天從哪裡來	-10.7512
hacol	-10.7512
▁mikalic	-10.7512
對不起	-10.7512
bolibol	-10.7512
▁tanotowa	-10.7512
列	-10.7512
晉	-10.7512
灌	-10.7512
甚至	-10.7512
章	-10.7512
裂	-10.7512
鋸	-10.7512
商店	-10.7512
佳	-10.7512
分享給	-10.7512
又大又	-10.7512
澤	-10.7512
彈弓	-10.7512
禁止	-10.7512
腐爛	-10.7512
誠	-10.7512
kalibot	-10.7512
▁misaosi	-10.7512
旱稻	-10.7512
爐	-10.7512
piasik	-10.7512
▁misomimaseyn	-10.7512
Sanpuy	-10.7512
▁atimsi	-10.7512
整齊	-10.7512
有時候	-10.7512
竹竿	-10.7512
收穫	-10.7512
閃電	-10.7512
Tuku	-10.7512
Ziauddin	-10.7512
lihaday	-10.7512
找不到	-10.7512
襲	-10.7512
跌落	-10.7512
支持	-10.7512
報復	-10.7512
目標	-10.7512
盟	-10.7512
煮的飯	-10.7512
▁toycang	-10.7512
計畫	-10.7512
▁pipacakayan	-10.7512
抗	-10.7512
鄰近	-10.7512
▁kamolaw	-10.7512
解決	-10.7512
餅乾	-10.7512
saponis	-10.7512
▁maaedap	-10.7512
pabaliw	-10.7512
pacaiten	-10.7512
我只是在	-10.7512
疼痛	-10.7512
積極	-10.7512
ngiwit	-10.7512
看不到	-10.7512
乘涼	-10.7512
限制	-10.7512
陪伴	-10.7512
▁kabong	-10.7512
dimata	-10.7512
刷牙	-10.7512
我們今天要去	-10.7512
探訪	-10.7512
▁padakowang	-10.7512
放屁	-10.7512
害羞	-10.7512
hima	-10.7512
疫情	-10.7512
藍色	-10.7512
計算	-10.7512
在牆上	-10.7512
胎盤	-10.7512
▁talaayaw	-10.7512
是白色的	-10.7512
每戶	-10.7512
查看	-10.7512
焦點	-10.7512
藉由	-10.7512
爭取	-10.7512
吵架	-10.7512
統治	-10.7512
修理	-10.7512
年紀	-10.7512
依舊	-10.7512
▁doo	-10.7512
安靜	-10.7512
提醒	-10.7512
登記	-10.7512
材料	-10.7512
泥巴	-10.7512
相互	-10.7512
糖果	-10.7512
取暖	-10.7512
畫畫	-10.7512
mameno	-10.7513
操場	-10.7513
▁laop	-10.7513
消失	-10.7513
▁masasakamo	-10.7513
文字	-10.7513
▁manoneng	-10.7513
數字	-10.7513
odip	-10.7513
lolod	-10.7513
▁tanang	-10.7513
iyob	-10.7513
農夫	-10.7513
訓話	-10.7513
pawada	-10.7513
銀行	-10.7513
賣完了	-10.7513
石灰	-10.7513
木炭	-10.7513
撒網	-10.7513
我們家有	-10.7513
擋住	-10.7514
騎車	-10.7514
搬運	-10.7514
▁paseng	-10.7514
保存	-10.7514
原本	-10.7514
期間	-10.7514
回應	-10.7514
傷心地	-10.7514
雙方	-10.7514
成功	-10.7514
棒球	-10.7514
▁masasongaay	-10.7514
交通	-10.7514
▁yobing	-10.7514
▁ahicaen	-10.7514
苦瓜	-10.7514
ledong	-10.7514
另外	-10.7514
父母親	-10.7514
遊客	-10.7514
poyoh	-10.7514
kaynah	-10.7514
鞋子	-10.7515
嚴重	-10.7515
跨過	-10.7515
海浪	-10.7515
同學	-10.7515
講故事	-10.7515
▁sakakaay	-10.7515
田鼠	-10.7515
▁payawan	-10.7515
馬路	-10.7515
穩重	-10.7515
採集	-10.7516
相見	-10.7516
隨時	-10.7516
神靈	-10.7516
▁mapacilal	-10.7516
玩具	-10.7516
收割	-10.7516
請問你	-10.7516
Tuy	-10.7516
木瓜	-10.7517
小島	-10.7517
山蘇	-10.7517
隔天	-10.7517
zikocan	-10.7517
水田的水	-10.7517
桑樹	-10.7517
打架	-10.7517
▁tizenga	-10.7517
盛飯	-10.7517
bohci	-10.7517
▁kido	-10.7517
情感	-10.7518
造成	-10.7518
東方	-10.7518
不斷地	-10.7518
用右手	-10.7518
鳥類	-10.7518
站起來	-10.7518
丟掉	-10.7518
令人	-10.7518
有一隻狗	-10.7519
一組	-10.7519
▁不久	-10.7519
打電話	-10.7519
膽小	-10.7519
▁milihay	-10.7519
超過	-10.752
美國	-10.752
▁paymihcaan	-10.752
▁totoy	-10.752
enip	-10.752
更加	-10.752
住院	-10.752
曬太陽	-10.752
再次	-10.7521
▁kakohkoh	-10.7521
門口	-10.7521
作業	-10.7521
自然地	-10.7521
▁Sip	-10.7521
得很快	-10.7522
acak	-10.7522
一點點	-10.7523
頭飾	-10.7523
他們天天看電視	-10.7524
滿出來	-10.7524
回家的路	-10.7524
kasiacawa	-10.7525
▁wado	-10.7525
▁misawaco	-10.7525
一起去打獵	-10.7525
鬼神	-10.7525
▁Toko	-10.7525
長期	-10.7525
▁makazateng	-10.7526
▁namakay	-10.7526
▁lawad	-10.7526
藤心	-10.7526
位於	-10.7526
▁老人沒有	-10.7526
解開	-10.7527
下次	-10.7527
onoz	-10.7527
不是只有	-10.7528
強大	-10.7528
▁Tama	-10.7528
從花蓮	-10.7528
木神	-10.7528
▁他是你的	-10.7529
河裡	-10.753
山上有很多	-10.753
▁makayza	-10.753
爬樹	-10.7531
▁nanoy	-10.7531
抱著	-10.7534
一片	-10.7534
▁malobo	-10.7536
▁masasoazih	-10.7536
吃早餐	-10.7536
▁maimelang	-10.7537
煮飯	-10.7537
▁teki	-10.7537
wataw	-10.7538
那兒	-10.7539
totong	-10.7539
▁maliwasak	-10.754
▁mabanic	-10.754
一家人	-10.754
下車	-10.754
醒來	-10.7541
與文化	-10.7541
砍草	-10.7542
ditek	-10.7542
▁nipawalian	-10.7542
最大的	-10.7543
不錯	-10.7543
吃橘子	-10.7544
野菜	-10.7544
▁miwawah	-10.7545
各部落	-10.7546
這本書	-10.7547
頭痛	-10.7547
▁matabal	-10.7548
kanaw	-10.7548
▁pilit	-10.755
有智慧	-10.7551
濕了	-10.7551
otoc	-10.7552
抓魚	-10.7552
每個	-10.7553
放在哪裡	-10.7553
htik	-10.7553
去撿	-10.7556
不可	-10.7556
▁tado	-10.7557
▁我不喜歡	-10.756
很香	-10.756
不在家	-10.7562
▁我聽到	-10.7568
▁mipacing	-10.7568
▁malocek	-10.7569
戴上	-10.7569
kasenon	-10.7569
limoh	-10.757
到山上	-10.7571
▁你妹妹	-10.7571
▁malomanay	-10.7572
▁cami	-10.7574
的頭很	-10.7575
▁tamiyanan	-10.7575
▁misano	-10.7576
asipen	-10.7577
人們對	-10.7579
要求	-10.7579
隊長	-10.7582
工人	-10.7585
▁calkakaan	-10.7586
▁我看見	-10.7587
在海邊	-10.7589
得很好	-10.7589
種菜	-10.7594
借你	-10.7599
只是	-10.76
貓頭鷹說	-10.7601
最討厭	-10.7603
▁你今天	-10.7607
不願意	-10.761
睡覺時	-10.7613
ngangay	-10.7614
▁macakay	-10.7614
要如何	-10.7617
一份	-10.7617
就一直	-10.7618
吃起來	-10.7619
壞掉	-10.7619
都不會	-10.762
猴子說	-10.7624
由於	-10.7625
▁今天天氣	-10.7627
likeco	-10.7629
pibalakas	-10.763
我的名字是	-10.7633
地工作	-10.7639
wah	-10.7659
稻田	-10.7662
你們家	-10.7669
solitan	-10.7673
▁現在我們	-10.7674
tayi	-10.7681
colil	-10.7681
niyo	-10.7687
▁masasa	-10.7688
美好	-10.7703
我的錢	-10.7718
▁sakako	-10.7722
▁kanan	-10.773
溢出	-10.7741
▁mole	-10.7753
▁yada	-10.7781
綁好	-10.7785
inai	-10.7788
書包	-10.7816
aayaw	-10.782
留下	-10.7846
你太	-10.7849
nikaala	-10.7852
八個	-10.7852
sakalahok	-10.7867
patobeli	-10.7874
misakamo	-10.7891
lalabo	-10.7897
babalaki	-10.7897
katood	-10.7899
tatayna	-10.7902
itini	-10.7903
洗手	-10.7911
tayda	-10.7913
你是誰	-10.7924
momol	-10.7944
▁pakala	-10.7951
Tu	-10.7959
放陷阱	-10.7968
pecih	-10.7968
lat	-10.8009
aazih	-10.8019
yiza	-10.8033
wawah	-10.804
今天我們	-10.8041
lomaloma	-10.8071
malahitayay	-10.809
的腳被	-10.8136
lawa	-10.8191
帶走	-10.8196
原來這	-10.8199
去拿	-10.8215
vi	-10.8218
自然就	-10.84
pacodad	-10.8429
卻不	-10.8464
amisan	-10.8522
▁kasas	-10.8535
天氣如何	-10.8544
sit	-10.8568
更好	-10.8592
懂事	-10.8662
tingen	-10.8674
不需要	-10.8697
salonganay	-10.8727
tadem	-10.8738
▁makaba	-10.8777
五個	-10.8783
▁那個老人	-10.8835
saaam	-10.8844
他是我	-10.8864
每一	-10.8944
hicahica	-10.8973
iniw	-10.9009
dadan	-10.9093
陽光	-10.9104
ngangaw	-10.9114
demec	-10.9146
▁makaw	-10.9244
服飾	-10.9264
amana	-10.931
cacoy	-10.9332
colen	-10.9367
ceki	-10.9409
一百	-10.9417
▁kalimo	-10.9545
▁mabelec	-10.955
▁milido	-10.9594
katayni	-10.9595
balakas	-10.9623
kelo	-10.9673
陷阱抓	-10.969
長褲	-10.9712
likakay	-10.9727
ahol	-10.976
ngid	-10.9762
撞	-10.977
bes	-10.9778
▁maloman	-10.9797
▁sanglac	-10.981
gel	-10.9817
▁pisakakawaw	-10.9822
喊著	-10.9833
liwasak	-10.9837
▁abala	-10.9837
banic	-10.9837
litemoh	-10.9837
zikec	-10.9839
dangoy	-10.9839
再見	-10.9844
校	-10.9847
▁masina	-10.9848
nokay	-10.9848
▁Boto	-10.9851
▁pihaymaw	-10.9855
喜歡畫圖	-10.9857
天天看電視	-10.9858
潮	-10.9858
▁caliw	-10.986
pitabo	-10.9861
組	-10.9863
瓶	-10.9863
泡	-10.9864
參	-10.9866
興	-10.9866
刻	-10.9866
左	-10.9868
聊	-10.9868
釀	-10.9868
式	-10.9869
棄	-10.9869
▁yobin	-10.9869
旅	-10.9869
願	-10.9869
拜	-10.987
界	-10.987
捲	-10.987
技	-10.987
賽	-10.987
擋	-10.987
▁pazikoc	-10.987
岸	-10.987
決	-10.987
銀	-10.987
套	-10.987
互	-10.987
個人來幫忙	-10.987
己	-10.9871
澡	-10.9871
渴	-10.9871
友	-10.9871
杵	-10.9871
▁lekakawa	-10.9871
稀飯	-10.9871
墊	-10.9871
忍	-10.9871
注	-10.9871
投	-10.9871
否	-10.9871
微	-10.9871
謝	-10.9871
遵	-10.9871
忙	-10.9871
減	-10.9871
懷	-10.9871
刷	-10.9872
操	-10.9872
計	-10.9872
筍	-10.9872
迫	-10.9872
從小就	-10.9872
創	-10.9872
抽	-10.9872
損	-10.9872
妝	-10.9872
鈔	-10.9872
練	-10.9872
適	-10.9872
雖	-10.9872
賴	-10.9872
袖	-10.9872
限	-10.9872
息	-10.9872
供	-10.9872
去探望祖父	-10.9872
這塊土地	-10.9872
慶	-10.9872
秧	-10.9872
窗	-10.9872
2019	-10.9872
取名為	-10.9872
施	-10.9872
掃叭石柱	-10.9872
災	-10.9872
卜	-10.9872
景	-10.9872
澳	-10.9872
誦	-10.9872
F	-10.9872
欣	-10.9872
騰	-10.9872
在花蓮市	-10.9872
帝瓦伊	-10.9872
志	-10.9872
摩	-10.9872
航	-10.9872
在網路上	-10.9872
既	-10.9872
預	-10.9872
在回家的路上	-10.9872
棺	-10.9872
衝	-10.9872
2023	-10.9872
X	-10.9872
催	-10.9872
很厲害	-10.9872
甕	-10.9872
街	-10.9872
鎮	-10.9872
卦	-10.9872
謂	-10.9872
晒	-10.9873
梗	-10.9873
毛毛蟲	-10.9873
胃	-10.9873
初	-10.9873
叮	-10.9873
Temu	-10.9873
▁Salasalaw	-10.9873
佈	-10.9873
句	-10.9873
型式	-10.9873
惜	-10.9873
愉	-10.9873
爾	-10.9873
部落位於花蓮市	-10.9873
飄	-10.9873
▁Tenged	-10.9873
▁pahotin	-10.9873
籠	-10.9873
層	-10.9873
延續	-10.9873
打噴嚏	-10.9873
斤	-10.9873
瓦歷斯也穿上	-10.9873
瞪	-10.9873
這張桌子很重	-10.9873
那些孩子在玩耍	-10.9873
馬拉道神	-10.9873
Miciyang	-10.9873
Puhay	-10.9873
Siku	-10.9873
í	-10.9873
▁Koy	-10.9873
▁masenget	-10.9873
▁misakalanam	-10.9873
兮	-10.9873
在床底下	-10.9873
坡	-10.9873
拆	-10.9873
桂	-10.9873
汁	-10.9873
派	-10.9873
用斧頭	-10.9873
疤	-10.9873
的職業是	-10.9873
端	-10.9873
筋	-10.9873
農作物	-10.9873
那間房子很大	-10.9873
郵局提	-10.9873
雪	-10.9873
零	-10.9873
黏	-10.9873
Batu	-10.9873
Bicili	-10.9873
Putah	-10.9873
Unu	-10.9873
adiyoc	-10.9873
babaledaw	-10.9873
bidaol	-10.9873
cebed	-10.9873
cohcoh	-10.9873
cyeyn	-10.9873
dikec	-10.9873
eloc	-10.9873
etel	-10.9873
kaales	-10.9873
kabelec	-10.9873
kacomoli	-10.9873
kapet	-10.9873
katahkal	-10.9873
lebawa	-10.9873
lesing	-10.9873
letep	-10.9873
mabenget	-10.9873
miniwaniw	-10.9873
nes	-10.9873
ormosa	-10.9873
pacemet	-10.9873
paengeday	-10.9873
pakilac	-10.9873
patinako	-10.9873
pisahemay	-10.9873
sicalaped	-10.9873
sikeda	-10.9873
simsim	-10.9873
singalih	-10.9873
tihtih	-10.9873
tingting	-10.9873
▁Babah	-10.9873
▁Baeto	-10.9873
▁Baetu	-10.9873
▁Balay	-10.9873
▁Bato	-10.9873
▁Cipawkan	-10.9873
▁Kabit	-10.9873
▁Manay	-10.9873
▁Nabakowan	-10.9873
▁Potah	-10.9873
▁Sapat	-10.9873
▁Takoboan	-10.9873
▁Taypinyang	-10.9873
▁Temo	-10.9873
▁Yac	-10.9873
▁ahcid	-10.9873
▁apesak	-10.9873
▁bihekac	-10.9873
▁bitelak	-10.9873
▁cascas	-10.9873
▁celas	-10.9873
▁dinget	-10.9873
▁kainalan	-10.9873
▁kalawpes	-10.9873
▁kasasokazih	-10.9873
▁labades	-10.9873
▁laed	-10.9873
▁lakec	-10.9873
▁lameneng	-10.9873
▁lihanaw	-10.9873
▁makahikoki	-10.9873
▁makasilamalay	-10.9873
▁makelal	-10.9873
▁malabades	-10.9873
▁malamapalaway	-10.9873
▁malihmih	-10.9873
▁malobic	-10.9873
▁malolangat	-10.9873
▁mangaloh	-10.9873
▁mapohed	-10.9873
▁masanek	-10.9873
▁masingkiay	-10.9873
▁mey	-10.9873
▁mialolop	-10.9873
▁mitesek	-10.9873
▁mitokod	-10.9873
▁monday	-10.9873
▁mosakakawaw	-10.9873
▁nabi	-10.9873
▁nanotawya	-10.9873
▁nikasizikoc	-10.9873
▁nikelid	-10.9873
▁nipacaliw	-10.9873
▁okelan	-10.9873
▁paaadopan	-10.9873
▁pacemot	-10.9873
▁padahaw	-10.9873
▁pakatokoh	-10.9873
▁paliwalay	-10.9873
▁pinsiyang	-10.9873
▁sakasingangan	-10.9873
▁sibonac	-10.9873
▁simamidang	-10.9873
▁tamowanan	-10.9873
▁tasotasonan	-10.9873
▁tatimol	-10.9873
▁zakes	-10.9873
▁zohem	-10.9873
▁瓦歷斯走到	-10.9873
不好意思	-10.9873
伐	-10.9873
價格	-10.9873
協助	-10.9873
參與政治	-10.9873
嗆	-10.9873
嗨	-10.9873
地木耳	-10.9873
娶	-10.9873
巾	-10.9873
徵	-10.9873
愛慕虛榮	-10.9873
樑	-10.9873
畜	-10.9873
簡單的	-10.9873
粗	-10.9873
綠巨人	-10.9873
要記得把	-10.9873
這條路	-10.9873
鉤	-10.9873
阿里嘎概	-10.9873
copelak	-10.9873
nolpin	-10.9873
tatamos	-10.9873
tatlek	-10.9873
zek	-10.9873
▁Sekab	-10.9873
▁cacebalan	-10.9873
▁cengce	-10.9873
▁damsay	-10.9873
▁kakeleng	-10.9873
▁kakelidan	-10.9873
▁takenip	-10.9873
▁那個男孩子正在	-10.9873
塵	-10.9873
樓	-10.9873
瘟疫	-10.9873
省	-10.9873
障	-10.9873
魯	-10.9873
麻黃樹	-10.9873
Cikep	-10.9873
▁cacolilen	-10.9873
▁patelay	-10.9873
丶	-10.9873
你們有賣	-10.9873
帥	-10.9873
忘記去	-10.9873
戲弄	-10.9873
捉	-10.9873
灑	-10.9873
釣竿	-10.9873
闊	-10.9873
陸	-10.9873
pahengad	-10.9873
tihoway	-10.9873
▁kokominto	-10.9873
▁makakitin	-10.9873
夏天時	-10.9873
爆	-10.9873
紀念	-10.9873
patongos	-10.9873
▁banoh	-10.9873
▁kasenengan	-10.9873
▁paliyon	-10.9873
▁pibanaw	-10.9873
仔細	-10.9873
在土裡	-10.9873
手工藝	-10.9873
珍惜	-10.9873
編的蓆子	-10.9873
肯	-10.9873
讚	-10.9873
Sbalay	-10.9873
pabekbek	-10.9873
暴	-10.9873
颱風來了	-10.9873
hinom	-10.9873
▁Ilid	-10.9873
▁mabidang	-10.9873
▁pangiha	-10.9873
▁salining	-10.9873
▁ziday	-10.9873
】	-10.9873
晴朗	-10.9873
癒	-10.9873
百合花	-10.9873
矮黑人	-10.9873
要洗的衣服	-10.9873
鞘	-10.9873
館	-10.9873
zazatengen	-10.9873
史	-10.9873
很聰明	-10.9873
划	-10.9873
始祖	-10.9873
巴吉克	-10.9873
廢	-10.9873
我帶你去	-10.9873
搗	-10.9873
晃	-10.9873
瓦歷斯	-10.9873
腸	-10.9873
販	-10.9873
閒	-10.9873
▁kakanatal	-10.9873
▁pasakamo	-10.9873
kalahitay	-10.9873
▁mibakah	-10.9873
▁potot	-10.9873
olotokan	-10.9873
▁mapadaki	-10.9873
▁misolac	-10.9873
▁payobina	-10.9873
鬥	-10.9873
linabo	-10.9873
pusi	-10.9873
▁Siko	-10.9873
▁我很怕	-10.9873
建築	-10.9873
那頭牛	-10.9873
雅	-10.9873
鮮	-10.9873
hongti	-10.9873
makaamis	-10.9873
▁babacaen	-10.9873
▁miaamay	-10.9873
去買菜	-10.9873
准	-10.9873
旗	-10.9873
貼	-10.9873
dangah	-10.9873
占卜	-10.9873
攀爬	-10.9873
爸爸和媽媽	-10.9873
的旱地	-10.9873
lalimenah	-10.9873
tapabaw	-10.9873
▁mibaong	-10.9873
抹	-10.9873
敗	-10.9873
漏	-10.9873
濱	-10.9873
鎖	-10.9873
閱	-10.9873
▁kaciki	-10.9873
▁pangkiw	-10.9873
▁tason	-10.9873
pabayang	-10.9873
奮	-10.9873
sasakamoen	-10.9873
▁padongi	-10.9873
規範	-10.9873
polol	-10.9873
到我的槍口	-10.9873
戒指	-10.9873
Sapadien	-10.9873
在石頭上	-10.9873
▁maciki	-10.9873
蜜蜂	-10.9873
polita	-10.9873
園的草	-10.9873
▁pangizoan	-10.9873
hodoc	-10.9873
做了一個	-10.9873
▁kalokawaw	-10.9873
字典	-10.9873
▁amihica	-10.9873
losalos	-10.9873
▁paengil	-10.9873
善良	-10.9873
教室	-10.9873
的院子	-10.9873
幸福	-10.9873
無法忍受	-10.9873
強迫	-10.9873
hecian	-10.9873
依賴	-10.9873
papobo	-10.9873
lalikeloh	-10.9873
禱告	-10.9873
錄影	-10.9873
tatiko	-10.9873
▁kabang	-10.9873
我明天要去山上	-10.9873
抽空	-10.9873
桃園	-10.9873
臉上的	-10.9873
彎腰	-10.9873
感恩	-10.9873
磨損	-10.9873
堅持	-10.9873
公司	-10.9873
眼鏡蛇	-10.9873
體驗	-10.9873
▁nilangecan	-10.9873
的臉上	-10.9873
在樹上	-10.9873
▁idoc	-10.9873
蘇聯	-10.9873
▁sitanengay	-10.9873
遷怒	-10.9873
創造	-10.9873
▁kacawen	-10.9873
訓練	-10.9873
奉獻	-10.9873
賜福	-10.9873
丟棄	-10.9873
鼻塞	-10.9873
右邊	-10.9873
▁Using	-10.9873
▁sakatooday	-10.9873
▁paylomaloma	-10.9873
的腳印	-10.9873
演講	-10.9873
軍隊	-10.9873
kadihian	-10.9873
勇士	-10.9873
開心的	-10.9873
▁別浪費	-10.9873
山丘	-10.9874
有錢人	-10.9874
信仰	-10.9874
告知	-10.9874
mokmok	-10.9874
順利	-10.9874
肥料	-10.9874
總理	-10.9874
怎麼辦	-10.9874
用跑的	-10.9874
溫暖	-10.9874
思考	-10.9874
營養	-10.9874
迷路	-10.9874
縣政府	-10.9874
舞步	-10.9874
可憐	-10.9874
引領	-10.9874
投入	-10.9874
▁Uno	-10.9874
音樂	-10.9874
露水	-10.9874
意願	-10.9874
▁malahol	-10.9874
我來畫	-10.9874
▁miadad	-10.9874
很久很久以前	-10.9874
▁lekakawaw	-10.9874
挑選	-10.9874
木杵	-10.9874
口渴	-10.9875
▁makatal	-10.9875
對我說	-10.9875
吸引	-10.9875
酒釀	-10.9875
六個人	-10.9875
清潔	-10.9875
牽手	-10.9875
外界	-10.9875
▁tayling	-10.9875
▁salamal	-10.9875
院子裡	-10.9875
難怪	-10.9875
一座小	-10.9875
▁zikan	-10.9875
▁Tamik	-10.9875
▁cyawyo	-10.9875
困難	-10.9875
空間	-10.9875
避難	-10.9875
某物	-10.9875
祖父祖母	-10.9875
電線	-10.9875
bena	-10.9875
裏面	-10.9875
旅行	-10.9875
表現	-10.9875
期待	-10.9875
進步	-10.9875
播種	-10.9875
故意	-10.9875
▁sasabaay	-10.9875
sipasip	-10.9875
▁malem	-10.9875
黃瓜	-10.9875
▁komoh	-10.9875
▁icowacowa	-10.9875
病患	-10.9876
▁nanoadidi	-10.9876
卡車	-10.9876
越來越多	-10.9876
逃跑	-10.9876
我知道了	-10.9876
給予	-10.9876
飛鼠	-10.9876
miadih	-10.9876
水泡	-10.9876
寶物	-10.9876
海神祭	-10.9876
鹹豬肉	-10.9876
▁那個女孩子喜歡	-10.9876
▁mobesing	-10.9876
死掉的	-10.9876
髮菜	-10.9876
走路要小心	-10.9876
黃藤	-10.9876
▁masasokamo	-10.9876
sitabo	-10.9877
戰場	-10.9877
最終	-10.9877
▁misabalohay	-10.9877
買票	-10.9877
▁IU	-10.9877
長水泡	-10.9877
抓癢	-10.9877
原因	-10.9877
長老們	-10.9878
布料	-10.9878
追求	-10.9878
部落旅遊	-10.9878
記載	-10.9878
有一個妹妹	-10.9878
maapa	-10.9878
繞著	-10.9878
的穿著	-10.9878
長官	-10.9878
tadatadah	-10.9879
或許	-10.9879
▁mabohang	-10.9879
北方	-10.9879
很開心	-10.9879
機車	-10.9879
▁papiazih	-10.9879
六十	-10.9879
的地瓜在哪裡	-10.9879
▁waneng	-10.9879
明天早上	-10.9879
結實	-10.9879
意義	-10.9879
領錢	-10.9879
時刻	-10.9879
很遠的地方	-10.9879
長芽	-10.9879
▁其中	-10.9879
轉動	-10.9879
結合	-10.988
牛背上	-10.988
同床	-10.988
telong	-10.988
自由	-10.988
長大之後	-10.988
相同	-10.988
意見	-10.988
最早	-10.988
髒亂	-10.988
我不要去	-10.988
觀光	-10.988
▁wakong	-10.9881
阿里	-10.9881
日期	-10.9881
成員	-10.9881
▁pelo	-10.9881
▁Toing	-10.9881
真相	-10.9881
太魯閣族人	-10.9882
各國	-10.9882
cangal	-10.9882
▁sapipatay	-10.9882
樹枝	-10.9882
請假	-10.9882
▁Sol	-10.9882
▁milais	-10.9882
去山裡	-10.9883
我們的晚餐	-10.9883
風吹	-10.9883
存錢	-10.9883
竹雞	-10.9884
帶領族人	-10.9884
▁tanamen	-10.9884
wili	-10.9884
besing	-10.9885
祭歌	-10.9885
當兵	-10.9885
金錢	-10.9885
然而	-10.9886
演說	-10.9886
加入	-10.9886
▁kaotang	-10.9886
臨時	-10.9887
長豆	-10.9887
雞蛋	-10.9887
likab	-10.9887
▁picait	-10.9887
潮濕	-10.9887
撒奇萊雅族語	-10.9887
▁caykasa	-10.9887
原住民族群	-10.9888
azaway	-10.9888
三個小孩	-10.9888
teyn	-10.9888
▁tatademaw	-10.9888
Saway	-10.9888
水桶	-10.9889
比較多	-10.9889
六年	-10.9889
Uya	-10.9889
▁matatiik	-10.9889
他們昨天去	-10.9889
夾子	-10.9889
幫妳	-10.989
種了很多	-10.989
masasolol	-10.989
典	-10.989
▁mitapal	-10.989
▁kayko	-10.989
住在一起	-10.9891
請給我	-10.9891
聞到	-10.9892
▁cowacowa	-10.9892
籃子	-10.9892
Tamana	-10.9892
▁boyoboyo	-10.9892
過夜	-10.9892
pidang	-10.9892
我們昨天	-10.9892
▁misabili	-10.9893
▁你吃地瓜	-10.9893
án	-10.9893
水腫	-10.9893
借錢	-10.9893
相當	-10.9894
telo	-10.9894
勤勞的人	-10.9894
腳掌	-10.9894
walak	-10.9895
吃飽	-10.9895
▁penen	-10.9895
很驚訝	-10.9895
校長	-10.9896
等等	-10.9896
越過	-10.9896
▁tida	-10.9897
快一點	-10.9897
▁mikot	-10.9897
平地	-10.9897
白米	-10.9898
pakadoh	-10.9898
掃地	-10.9899
你怎麼知道	-10.9899
種花生	-10.99
你從哪裡來	-10.99
有些人	-10.99
▁小時候我	-10.9901
個小時	-10.9901
來餵	-10.9901
馬上	-10.9901
之神	-10.9902
▁hoso	-10.9902
語怎麼說	-10.9904
騙人的	-10.9904
▁dipoten	-10.9905
▁哥哥說	-10.9905
▁namahica	-10.9905
lowak	-10.9906
tapod	-10.9906
地面	-10.9907
▁cacos	-10.9908
cait	-10.9908
過熟	-10.9909
kwang	-10.9909
翻開	-10.991
我的橡皮擦	-10.991
zoko	-10.991
吃晚餐	-10.9911
不客氣	-10.9912
▁sayto	-10.9912
幾年	-10.9913
▁natayza	-10.9916
▁hako	-10.9916
刺魚	-10.9916
有很多錢	-10.9917
▁sakapatay	-10.9918
小學	-10.9919
飛魚	-10.9921
yangaw	-10.9926
▁siicelang	-10.9928
lamalay	-10.9928
這次	-10.9933
去海邊	-10.9934
▁walay	-10.9937
kabangcal	-10.9938
不要亂	-10.9938
▁matin	-10.9953
手機	-10.996
okot	-10.9962
可食用	-10.9966
colcol	-10.9969
copo	-10.997
atahekal	-10.997
▁poda	-10.9983
▁balat	-10.9989
ilamit	-10.9991
silod	-10.9999
kasika	-11.0016
帶便當	-11.0047
tolon	-11.0051
misasing	-11.0052
palimek	-11.0056
misalama	-11.0061
趕走	-11.0061
piketon	-11.0063
lakaw	-11.0066
kawananay	-11.0087
▁Tak	-11.0091
sabeleng	-11.0121
最近	-11.0128
sasokapah	-11.0135
tadah	-11.0143
孩子喜歡畫圖	-11.0155
看守	-11.0166
沒有放棄	-11.017
mabelecay	-11.0206
ataloma	-11.0221
cibol	-11.029
niyan	-11.0292
到處都	-11.0335
caken	-11.0342
有好吃的	-11.036
ham	-11.037
好久	-11.0411
天氣很熱	-11.0451
學校讀書	-11.0467
飾	-11.0505
你要吃	-11.0506
paneng	-11.0552
好奇	-11.0632
▁nicaliwa	-11.0712
是我的家	-11.0807
hekal	-11.0835
bangcal	-11.0883
imelang	-11.0916
▁miida	-11.0932
cici	-11.0952
mihecaan	-11.0964
Pazik	-11.0968
baeket	-11.0969
tapiingan	-11.0971
milihiza	-11.0984
Padakaw	-11.0984
pilacol	-11.099
是我的朋友	-11.0992
帶回	-11.1
alol	-11.1013
喜歡穿	-11.1015
▁nipaanip	-11.111
▁請坐	-11.1218
cepi	-11.1219
▁ngoh	-11.1228
balohay	-11.1274
那時候	-11.1286
堆積成	-11.1384
▁pakazengan	-11.156
paanipan	-11.1647
幾點鐘	-11.1736
manakasa	-11.1752
大家穿著	-11.1976
▁madih	-11.1993
cica	-11.21
matiik	-11.2101
▁每個人	-11.2186
▁sibalo	-11.2262
要煮的	-11.2531
keton	-11.268
從那時	-11.2706
▁balangbang	-11.2715
▁pihaceng	-11.2744
hezek	-11.2758
ikeli	-11.2765
我有兩	-11.2793
▁aam	-11.2797
▁mapoda	-11.2813
aloday	-11.2838
我很想念	-11.2838
▁lecoh	-11.2871
▁miapa	-11.2882
▁kaydih	-11.2917
在那時	-11.2924
tatongos	-11.2933
sasoazih	-11.2935
驚訝	-11.2937
elep	-11.2943
撒固兒	-11.2944
午	-11.2947
演	-11.2949
▁ciniz	-11.295
桌	-11.295
太魯閣族	-11.2953
褲	-11.2954
imel	-11.2955
langdaw	-11.2955
碰	-11.2955
漢	-11.2956
令	-11.2956
牽	-11.2957
▁pacoli	-11.2958
右手	-11.2958
髮	-11.2958
kapolong	-11.2959
柱	-11.2959
梯	-11.2959
橘	-11.2959
帽	-11.2959
繞	-11.296
▁beso	-11.2962
跨	-11.2962
旅遊	-11.2962
ngdaway	-11.2963
糕	-11.2963
播	-11.2963
姐	-11.2963
予	-11.2964
越來越	-11.2964
勤	-11.2964
衛	-11.2964
薑	-11.2965
這件衣服	-11.2965
辦	-11.2966
歉	-11.2966
答	-11.2966
登	-11.2966
憐	-11.2966
淨	-11.2966
乎	-11.2966
增	-11.2966
▁kakel	-11.2966
迷	-11.2966
營	-11.2966
寮	-11.2966
仰	-11.2966
禱	-11.2966
律	-11.2967
永	-11.2967
汽	-11.2967
驗	-11.2967
俐	-11.2967
辛	-11.2967
獎	-11.2967
恩	-11.2967
ilangecan	-11.2967
巫	-11.2967
浪費	-11.2967
披	-11.2967
域	-11.2967
必	-11.2967
例	-11.2967
識	-11.2967
齒	-11.2967
蛙	-11.2967
移	-11.2967
機器狗	-11.2967
交易所	-11.2967
復振運動	-11.2967
補	-11.2967
疲	-11.2967
蜜	-11.2967
標	-11.2967
犯	-11.2967
判	-11.2967
禁	-11.2967
膩	-11.2967
防	-11.2967
抵	-11.2967
商	-11.2967
範	-11.2967
競	-11.2967
報	-11.2968
延	-11.2968
腐	-11.2968
茄	-11.2968
外國人	-11.2968
厭	-11.2968
智	-11.2968
爸	-11.2968
中國政府	-11.2968
側	-11.2968
拿拉拉	-11.2968
擴	-11.2968
澳洲政府	-11.2968
神話傳說	-11.2968
經濟	-11.2968
額	-11.2968
菸	-11.2968
耐	-11.2968
仇	-11.2968
年的努力	-11.2968
憤怒	-11.2968
有愈來愈多	-11.2968
肅	-11.2968
遊訪團	-11.2968
七腳川	-11.2968
效	-11.2968
曉	-11.2968
模	-11.2968
殖	-11.2968
sakatin	-11.2968
格	-11.2968
趣	-11.2968
Palihu	-11.2968
凝血色	-11.2968
哈麥巴	-11.2968
噴	-11.2968
土金色	-11.2968
巢	-11.2968
干	-11.2968
晴	-11.2968
有的鬼叫	-11.2968
渡井三郎	-11.2968
籍	-11.2968
覆	-11.2968
銷	-11.2968
闖	-11.2968
非常驕傲	-11.2968
況	-11.2968
這群人	-11.2968
_	-11.2968
噶瑪蘭族	-11.2968
妖	-11.2968
真是太	-11.2968
肝	-11.2968
▁他們跟著青蛙來到了	-11.2968
孝	-11.2968
醜	-11.2968
Lubas	-11.2968
嗚	-11.2968
娜	-11.2968
彩虹出來了	-11.2968
徒	-11.2968
懸掛起來	-11.2968
我有一個姊姊	-11.2968
祝禱司	-11.2968
價	-11.2968
很傷心	-11.2968
桐	-11.2968
涉	-11.2968
症	-11.2968
紫	-11.2968
鑽	-11.2968
Kaymus	-11.2968
Pudaw	-11.2968
不要忘記	-11.2968
今天老師要教大家	-11.2968
剖	-11.2968
勿	-11.2968
吉拉卡樣部落	-11.2968
咬人貓	-11.2968
唉	-11.2968
在眾人前	-11.2968
夙	-11.2968
天空很藍	-11.2968
我最喜歡夏天	-11.2968
掛蚊帳	-11.2968
撣	-11.2968
收費員	-11.2968
放到無人島上	-11.2968
昔	-11.2968
曬的穀子	-11.2968
枕	-11.2968
梅雨季節	-11.2968
梳	-11.2968
泉	-11.2968
浦	-11.2968
燭	-11.2968
甩	-11.2968
畏	-11.2968
疊	-11.2968
痕	-11.2968
的恩澤	-11.2968
筒	-11.2968
繁	-11.2968
耽	-11.2968
胞	-11.2968
蒼	-11.2968
虛	-11.2968
衰	-11.2968
賺	-11.2968
鰻	-11.2968
kebing	-11.2968
kobecid	-11.2968
tepatepa	-11.2968
▁Libuk	-11.2968
▁你甚麼時候	-11.2968
▁對長輩	-11.2968
▁我已付	-11.2968
你什麼時候要還	-11.2968
吉拉卡漾	-11.2968
吻	-11.2968
她的頭髮很長	-11.2968
小田螺	-11.2968
巧	-11.2968
悔	-11.2968
我們全家都	-11.2968
擅	-11.2968
港	-11.2968
綁腿布	-11.2968
綑	-11.2968
腋	-11.2968
蛀	-11.2968
蠻	-11.2968
郊	-11.2968
銀合歡	-11.2968
鏟	-11.2968
Kadabowang	-11.2968
Mues	-11.2968
Qaro	-11.2968
aheteng	-11.2968
binkiw	-11.2968
bokelalan	-11.2968
caelay	-11.2968
cokcok	-11.2968
dadipis	-11.2968
dadisapan	-11.2968
daponoh	-11.2968
dawdaw	-11.2968
haemay	-11.2968
ibabokod	-11.2968
kales	-11.2968
kedokedo	-11.2968
lingahaw	-11.2968
losimet	-11.2968
masasibod	-11.2968
mihmihcaan	-11.2968
necnec	-11.2968
ngicngic	-11.2968
pabangsis	-11.2968
pecec	-11.2968
sapatakis	-11.2968
takec	-11.2968
zicem	-11.2968
▁Elose	-11.2968
▁Halong	-11.2968
▁Halung	-11.2968
▁Kabalan	-11.2968
▁Kaymos	-11.2968
▁Lobas	-11.2968
▁Moes	-11.2968
▁Ngayngay	-11.2968
▁Paliho	-11.2968
▁Pinpoco	-11.2968
▁Siwin	-11.2968
▁Yoancomin	-11.2968
▁badowac	-11.2968
▁bilbil	-11.2968
▁coked	-11.2968
▁dadayday	-11.2968
▁kaliponan	-11.2968
▁kalitobah	-11.2968
▁kanggoho	-11.2968
▁kapalawan	-11.2968
▁kapolos	-11.2968
▁kasadingsingan	-11.2968
▁kasikawswa	-11.2968
▁kayabos	-11.2968
▁kesem	-11.2968
▁kinmong	-11.2968
▁lalengac	-11.2968
▁lenget	-11.2968
▁lominiay	-11.2968
▁maales	-11.2968
▁macacabi	-11.2968
▁macongdas	-11.2968
▁madadiko	-11.2968
▁maedeb	-11.2968
▁makatimol	-11.2968
▁makesem	-11.2968
▁malalebo	-11.2968
▁malebek	-11.2968
▁mapapaliw	-11.2968
▁masabesibesi	-11.2968
▁mibadahong	-11.2968
▁mibasbas	-11.2968
▁mibolesiw	-11.2968
▁micokelay	-11.2968
▁midodoc	-11.2968
▁mihapoy	-11.2968
▁misakaliyoh	-11.2968
▁misanek	-11.2968
▁moengen	-11.2968
▁napakayza	-11.2968
▁nipikeysan	-11.2968
▁olaolangan	-11.2968
▁omeyyagey	-11.2968
▁pacekcek	-11.2968
▁pakaysingan	-11.2968
▁papokiay	-11.2968
▁pasalil	-11.2968
▁pibihon	-11.2968
▁picekolan	-11.2968
▁pidakelong	-11.2968
▁pilakalak	-11.2968
▁pipalamalan	-11.2968
▁pisolimet	-11.2968
▁poenel	-11.2968
▁saliabang	-11.2968
▁sapacemot	-11.2968
▁sapilangec	-11.2968
▁sapisolac	-11.2968
▁satelec	-11.2968
▁sibanoh	-11.2968
▁sibihkac	-11.2968
▁sibihon	-11.2968
▁sidinget	-11.2968
▁sobabad	-11.2968
▁tabokod	-11.2968
▁talamangaw	-11.2968
▁taniktik	-11.2968
▁tasaowac	-11.2968
▁tekes	-11.2968
▁tikolac	-11.2968
▁zitin	-11.2968
▁作任何事	-11.2968
▁大約要	-11.2968
▁怪不得	-11.2968
▁那些男孩子正在	-11.2968
上班地點	-11.2968
互相換工	-11.2968
井	-11.2968
力拿恆部落	-11.2968
去割檳榔	-11.2968
吉	-11.2968
吐口水	-11.2968
吟	-11.2968
含	-11.2968
嘛	-11.2968
嚇一跳	-11.2968
坦	-11.2968
娛	-11.2968
悶	-11.2968
情人袋	-11.2968
打哈欠	-11.2968
扯	-11.2968
捕獸夾	-11.2968
掀	-11.2968
掘	-11.2968
掩	-11.2968
搭火車去臺東	-11.2968
撒耘之	-11.2968
撥	-11.2968
撿田螺	-11.2968
斜格標記受	-11.2968
最珍貴的	-11.2968
有伴侶	-11.2968
格標記	-11.2968
棵大樹	-11.2968
沃	-11.2968
淡	-11.2968
渡	-11.2968
渣	-11.2968
漲	-11.2968
澀澀的	-11.2968
澎	-11.2968
烈	-11.2968
烘	-11.2968
獨自一人	-11.2968
生殖器	-11.2968
疏	-11.2968
疹	-11.2968
瘋	-11.2968
的後代長得跟	-11.2968
直流口水	-11.2968
睏	-11.2968
確診	-11.2968
禿	-11.2968
秀	-11.2968
糟	-11.2968
紮	-11.2968
老毛病	-11.2968
聽得懂	-11.2968
臥	-11.2968
葛鬱金	-11.2968
藍寶石	-11.2968
被折斷	-11.2968
被水沖走了	-11.2968
賽夏族	-11.2968
走路一跛一跛	-11.2968
這場戰爭	-11.2968
遞	-11.2968
遮	-11.2968
部落名稱	-11.2968
醋	-11.2968
銅	-11.2968
鋼	-11.2968
錶	-11.2968
雜草叢生	-11.2968
領導者	-11.2968
餌	-11.2968
餒	-11.2968
駝	-11.2968
騷	-11.2968
altipal	-11.2968
cebis	-11.2968
iwaiw	-11.2968
kolemi	-11.2968
laliyas	-11.2968
mapingko	-11.2968
milalopela	-11.2968
ngitngit	-11.2968
sitebo	-11.2968
▁Podaw	-11.2968
▁Taiwan	-11.2968
▁alababay	-11.2968
▁babayoh	-11.2968
▁bodawan	-11.2968
▁boles	-11.2968
▁bolobolo	-11.2968
▁kakasenengan	-11.2968
▁kakatokoh	-11.2968
▁lomowa	-11.2968
▁malikalik	-11.2968
▁mapilkih	-11.2968
▁matatengteng	-11.2968
▁militlit	-11.2968
▁nikapolin	-11.2968
▁nisahemay	-11.2968
▁padongos	-11.2968
▁palespes	-11.2968
▁patahtah	-11.2968
▁piliyas	-11.2968
▁sapitenon	-11.2968
▁tepatepadan	-11.2968
▁夏天到了	-11.2968
冰箱裡有	-11.2968
年齡階層	-11.2968
快進來	-11.2968
欠	-11.2968
翠	-11.2968
老師要帶我們去	-11.2968
那張椅子很	-11.2968
sasilaw	-11.2968
tabesiw	-11.2968
▁malikeloh	-11.2968
▁milikeloh	-11.2968
▁motaloma	-11.2968
▁pizizaw	-11.2968
▁今天是禮拜	-11.2968
▁giing	-11.2968
▁mabelih	-11.2968
▁patadas	-11.2968
乖	-11.2968
太貴了	-11.2968
完成你的工作	-11.2968
懇	-11.2968
我忘記帶錢了	-11.2968
拖	-11.2968
撫	-11.2968
敎	-11.2968
有其他的青蛙	-11.2968
盒	-11.2968
籤	-11.2968
腎	-11.2968
迄	-11.2968
邁	-11.2968
鄉公所	-11.2968
鳴	-11.2968
鷺	-11.2968
lidateng	-11.2968
omahan	-11.2968
▁solac	-11.2968
▁這個部落有	-11.2968
我有一個哥哥	-11.2968
星星出來了	-11.2968
有哪幾	-11.2968
有奶水	-11.2968
榮	-11.2968
污垢	-11.2968
狗舔了	-11.2968
良	-11.2968
貨車司機	-11.2968
都喜歡唱歌	-11.2968
▁bangah	-11.2968
▁bitoka	-11.2968
▁lalangwan	-11.2968
餘	-11.2968
satakalaw	-11.2968
▁kalalikatay	-11.2968
▁mitengteng	-11.2968
佩	-11.2968
卸	-11.2968
去抓青蛙	-11.2968
呵	-11.2968
外省人	-11.2968
恥	-11.2968
扣	-11.2968
掉下去	-11.2968
撐	-11.2968
斯	-11.2968
族群意識	-11.2968
樹洞裡	-11.2968
武漢	-11.2968
歸	-11.2968
激	-11.2968
用左手寫字	-11.2968
羅	-11.2968
翔	-11.2968
荖	-11.2968
蕎	-11.2968
黑黑的	-11.2968
▁cozoh	-11.2968
去園裡	-11.2968
摸摸	-11.2968
皆	-11.2968
雕刻	-11.2968
▁mahinac	-11.2968
▁maynah	-11.2968
驅	-11.2968
pibohat	-11.2968
tingas	-11.2968
▁mapidah	-11.2968
外來者	-11.2968
媳婦	-11.2968
臍	-11.2968
要考試	-11.2968
詐騙集團	-11.2968
這隻狗	-11.2968
soybay	-11.2968
toktok	-11.2968
▁makolahay	-11.2968
▁sicoong	-11.2968
剩餘的	-11.2968
的身材	-11.2968
聖經	-11.2968
▁kakaiyan	-11.2968
▁pipaayaw	-11.2968
▁以前的老人家	-11.2968
▁會議通知	-11.2968
慶祝	-11.2968
padakaw	-11.2968
▁honto	-11.2968
▁mapalid	-11.2968
▁takolaw	-11.2968
▁你們家有幾個	-11.2968
ㄧ	-11.2968
一八七八年	-11.2968
你要不要吃	-11.2968
刑	-11.2968
回娘家	-11.2968
我介紹	-11.2968
我來找你	-11.2968
掐	-11.2968
搓揉	-11.2968
脆	-11.2968
苦苦的	-11.2968
蒐	-11.2968
蔓	-11.2968
虔	-11.2968
融	-11.2968
辨	-11.2968
頓	-11.2968
鬼頭刀魚	-11.2968
▁pasaopo	-11.2968
kiwakiw	-11.2968
piidang	-11.2968
▁pikolit	-11.2968
cangzay	-11.2968
危	-11.2968
屍體	-11.2968
mabihon	-11.2968
▁婆婆	-11.2968
伸	-11.2968
複	-11.2968
觸摸	-11.2968
▁mabonal	-11.2968
▁mainah	-11.2968
▁masaenal	-11.2968
一頭牛	-11.2968
售	-11.2968
很快地	-11.2968
控	-11.2968
撒嬌	-11.2968
諸	-11.2968
謙	-11.2968
醬油	-11.2968
降低	-11.2968
▁pasasing	-11.2968
婚姻	-11.2968
▁我們去水田	-11.2968
俄羅斯	-11.2968
凝聚	-11.2968
吹奏	-11.2968
忍耐	-11.2968
抽菸	-11.2968
興趣	-11.2968
萵	-11.2968
hongya	-11.2968
▁miosiwgac	-11.2968
▁mitabokod	-11.2968
捨不得	-11.2968
村莊	-11.2968
防止	-11.2968
叼	-11.2968
喜歡用左手的人	-11.2968
塗	-11.2968
太小了	-11.2968
散播	-11.2968
瀕	-11.2968
程序	-11.2968
競爭	-11.2968
觸碰	-11.2968
銳利	-11.2968
bantek	-11.2968
慶典	-11.2968
▁mangocih	-11.2968
按照	-11.2968
歷程	-11.2968
鑿洞	-11.2968
▁電燈	-11.2968
我有很多朋友	-11.2968
涼爽	-11.2968
種了一些	-11.2968
kwo	-11.2968
慘	-11.2968
華	-11.2968
▁wadayan	-11.2968
經驗	-11.2968
kakasic	-11.2968
在都巿	-11.2968
早晨	-11.2968
沒想到	-11.2968
▁擾亂	-11.2968
伯父	-11.2968
▁dadawaay	-11.2968
唯一的	-11.2968
用塑膠	-11.2968
興建	-11.2968
onoc	-11.2968
化膿	-11.2968
尊敬	-11.2968
折返	-11.2968
▁sadim	-11.2968
▁他們那裡的	-11.2968
縫補	-11.2968
pokoh	-11.2968
聽不到	-11.2968
▁kenaw	-11.2968
測量	-11.2968
▁liyas	-11.2968
亞	-11.2968
答應	-11.2968
芒果	-11.2968
驚恐	-11.2968
鬼魅	-11.2968
▁kanos	-11.2968
▁lalimaay	-11.2968
旱災	-11.2968
silomang	-11.2968
己經	-11.2968
貞	-11.2968
▁kakalokan	-11.2968
〇	-11.2968
另一隻狗	-11.2968
戴上頭飾	-11.2968
證	-11.2968
領域	-11.2968
同時也	-11.2968
攻擊	-11.2968
施肥	-11.2968
meng	-11.2968
溪谷	-11.2968
廠	-11.2968
taamis	-11.2968
浸泡	-11.2968
▁Lalimenah	-11.2968
haycan	-11.2968
mihantay	-11.2968
▁patiko	-11.2968
受不了	-11.2968
提供	-11.2968
精神病患	-11.2968
山谷裡有	-11.2968
侵犯	-11.2968
司機	-11.2968
單獨	-11.2968
壽豐	-11.2968
奔跑	-11.2968
富有的	-11.2968
彎曲	-11.2968
把帽子給	-11.2968
抱歉	-11.2968
▁pakasoyay	-11.2968
刷鍋子	-11.2968
babolaw	-11.2968
▁gaciw	-11.2968
你就穿	-11.2968
去採麵包果	-11.2968
的機會	-11.2968
▁awstaliya	-11.2969
召喚	-11.2969
獎品	-11.2969
▁makademecay	-11.2969
停止	-11.2969
尊嚴	-11.2969
▁Uhan	-11.2969
▁我問他	-11.2969
咒語	-11.2969
抵達	-11.2969
燒焦	-11.2969
騎單車	-11.2969
kababalic	-11.2969
扁擔	-11.2969
hodhod	-11.2969
導致	-11.2969
祈福	-11.2969
躲藏	-11.2969
▁mitolik	-11.2969
otiih	-11.2969
▁mabalat	-11.2969
▁kabaliyosan	-11.2969
夫妻	-11.2969
提升	-11.2969
▁ociya	-11.2969
強壯	-11.2969
遭致	-11.2969
在工作上	-11.2969
月桃	-11.2969
ahmaw	-11.2969
▁tamoan	-11.2969
喪禮	-11.2969
懷念	-11.2969
入贅	-11.2969
▁misinga	-11.2969
▁pacabayay	-11.2969
忍受	-11.2969
我的爸爸是	-11.2969
記號	-11.2969
漸	-11.2969
珠	-11.6832
稻	-11.7055
歪	-11.7399
掌	-11.7421
充	-11.7441
敵	-11.7442
辭	-11.7443
擁	-11.7448
桃	-11.7456
般	-11.7459
鞋	-11.7459
帝	-11.7459
猴	-11.7459
診	-11.7461
震	-11.7462
蓮	-11.7462
釣	-11.7462
谷	-11.7463
右	-11.7463
司	-11.7464
征	-11.7464
冬	-11.7464
貌	-11.7464
攻	-11.7464
恰	-11.7464
洋	-11.7464
焦	-11.7465
陽	-11.7465
統	-11.7465
鷹	-11.7465
稀	-11.7466
祀	-11.7466
科	-11.7466
號	-11.7466
晨	-11.7466
煩	-11.7466
疫	-11.7466
贅	-11.7466
宜	-11.7466
鄰	-11.7466
咒	-11.7467
遙	-11.7467
助	-11.7467
膚	-11.7467
訴	-11.7467
戚	-11.7467
泛	-11.7467
緩	-11.7467
階	-11.7467
膿	-11.7467
返	-11.7467
歷	-11.7467
漂	-11.7467
伯	-11.7467
閃	-11.7467
測	-11.7467
仔	-11.7467
偏	-11.7467
祝	-11.7467
築	-11.7467
爽	-11.7467
灣	-11.7467
摸	-11.7467
弓	-11.7467
孕	-11.7467
崗	-11.7467
暮	-11.7467
沿	-11.7467
紹	-11.7467
麓	-11.7467
驚	-11.7467
序	-11.7468
康	-11.7468
詳	-11.7468
諧	-11.7468
劇	-11.7468
煤	-11.7468
雕	-11.7468
威	-11.7468
噢	-11.7468
戮	-11.7468
揍	-11.7468
潭	-11.7468
灶	-11.7468
葬	-11.7468
軌	-11.7468
轟	-11.7468
慣	-11.7468
險	-11.7468
協	-11.7468
塔	-11.7468
悠	-11.7468
紛	-11.7468
蠅	-11.7468
閹	-11.7468
串	-11.7468
咐	-11.7468
挪	-11.7468
朗	-11.7468
朽	-11.7468
涸	-11.7468
瓦	-11.7468
眠	-11.7468
趁	-11.7468
輯	-11.7468
厲	-11.7468
愚	-11.7468
汙	-11.7468
簡	-11.7468
囉	-11.7468
垢	-11.7468
堤	-11.7468
孔	-11.7468
廊	-11.7468
晾	-11.7468
梧	-11.7468
盆	-11.7468
瞎	-11.7468
翼	-11.7468
聾	-11.7468
薏	-11.7468
釋	-11.7468
頸	-11.7468
饅	-11.7468
鳩	-11.7468
麴	-11.7468
凳	-11.7468
嫌	-11.7468
憩	-11.7468
摺	-11.7468
榜	-11.7468
櫥	-11.7468
液	-11.7468
淇	-11.7468
濛	-11.7468
盲	-11.7468
裙	-11.7468
説	-11.7468
駛	-11.7468
侶	-11.7468
俯	-11.7468
偽	-11.7468
兇	-11.7468
凋	-11.7468
凹	-11.7468
剁	-11.7468
勁	-11.7468
呦	-11.7468
哎	-11.7468
填	-11.7468
契	-11.7468
姑	-11.7468
婻	-11.7468
嫂	-11.7468
宰	-11.7468
寒	-11.7468
岌	-11.7468
岳	-11.7468
川	-11.7468
忽	-11.7468
拌	-11.7468
拐	-11.7468
拓	-11.7468
捆	-11.7468
捻	-11.7468
描	-11.7468
摻	-11.7468
攪	-11.7468
杖	-11.7468
椎	-11.7468
楊	-11.7468
概	-11.7468
槽	-11.7468
殷	-11.7468
氛	-11.7468
沫	-11.7468
淹	-11.7468
淺	-11.7468
溜	-11.7468
爍	-11.7468
牌	-11.7468
猛	-11.7468
獸	-11.7468
盜	-11.7468
睜	-11.7468
碩	-11.7468
稍	-11.7468
穗	-11.7468
筏	-11.7468
籌	-11.7468
粥	-11.7468
糊	-11.7468
純	-11.7468
素	-11.7468
絡	-11.7468
罐	-11.7468
臀	-11.7468
茂	-11.7468
茸	-11.7468
莧	-11.7468
蕈	-11.7468
蚣	-11.7468
蛾	-11.7468
蜈	-11.7468
訂	-11.7468
贈	-11.7468
赤	-11.7468
躁	-11.7468
軋	-11.7468
逛	-11.7468
邵	-11.7468
鑲	-11.7468
頌	-11.7468
駕	-11.7468
昇	-11.7468
滷	-11.7468
罪	-11.7468
澀	-11.7468
姓	-11.7468
役	-11.7468
袓	-11.7468
陶	-11.7468
冒	-11.7468
吳	-11.7468
噶	-11.7468
楓	-11.7468
欄	-11.7468
痣	-11.7468
緣	-11.7468
蕨	-11.7468
誼	-11.7468
颳	-11.7468
麥	-11.7468
繳	-11.7468
蛆	-11.7468
捨	-11.7468
須	-11.7468
坳	-11.7468
宛	-11.7468
屈	-11.7468
徘	-11.7468
恭	-11.7468
荽	-11.7468
究	-11.7468
凱	-11.7468
惰	-11.7468
拋	-11.7468
跪	-11.7468
峻	-11.7468
茼	-11.7468
湳	-11.7468
蹟	-11.7469
v	-12.2294
溢	-12.4492
鵲	-12.5394
鰍	-12.5395
馨	-12.5396
饗	-12.5397
饑	-12.5398
顫	-12.5399
鞭	-12.54
陣	-12.5401
陌	-12.5402
鑰	-12.5403
鎔	-12.5404
迅	-12.5405
躍	-12.5406
赫	-12.5407
贊	-12.5408
賓	-12.5409
貿	-12.541
誨	-12.5411
誡	-12.5412
覬	-12.5413
覦	-12.5414
衍	-12.5415
蝕	-12.5416
虐	-12.5417
蘆	-12.5418
薩	-12.5419
蕗	-12.542
葦	-12.5421
菇	-12.5422
茵	-12.5423
苣	-12.5424
艾	-12.5425
臂	-12.5426
腺	-12.5427
腥	-12.5428
肘	-12.5429
肆	-12.543
翅	-12.5431
纏	-12.5432
繡	-12.5433
糙	-12.5434
箕	-12.5435
笙	-12.5436
穴	-12.5437
禍	-12.5438
祢	-12.5439
礑	-12.544
睫	-12.5441
督	-12.5442
皂	-12.5443
癬	-12.5444
瘡	-12.5445
痱	-12.5446
痘	-12.5447
痔	-12.5448
痊	-12.5449
疾	-12.545
畚	-12.5451
甑	-12.5452
瓠	-12.5453
率	-12.5454
燻	-12.5455
熨	-12.5456
熄	-12.5457
澱	-12.5458
漬	-12.5459
滌	-12.546
溉	-12.5461
殆	-12.5462
櫻	-12.5463
椰	-12.5464
械	-12.5465
桿	-12.5466
桔	-12.5467
栗	-12.5468
末	-12.5469
昭	-12.547
昆	-12.5471
昂	-12.5472
擱	-12.5473
撕	-12.5474
摒	-12.5475
授	-12.5476
拇	-12.5477
惑	-12.5478
恨	-12.5479
恢	-12.548
忠	-12.5481
彿	-12.5482
彷	-12.5483
彌	-12.5484
帕	-12.5485
巡	-12.5486
峭	-12.5487
峙	-12.5488
屏	-12.5489
寡	-12.549
嫰	-12.5491
婿	-12.5492
墨	-12.5493
培	-12.5494
囊	-12.5495
喻	-12.5496
呈	-12.5497
吼	-12.5498
吠	-12.5499
厄	-12.55
勝	-12.5501
勉	-12.5502
偉	-12.5503
侃	-12.5504
仗	-12.5505
乳	-12.5506
乏	-12.5507
乃	-12.5508
鴿	-12.5509
鯨	-12.551
鬱	-12.5511
骯	-12.5512
頰	-12.5513
隧	-12.5514
趴	-12.5515
趟	-12.5516
裕	-12.5517
蜘	-12.5518
蛛	-12.5519
蘿	-12.552
藷	-12.5521
蔬	-12.5522
蔔	-12.5523
蒂	-12.5524
茲	-12.5525
脾	-12.5526
署	-12.5527
缸	-12.5528
糍	-12.5529
粱	-12.553
笠	-12.5531
笆	-12.5532
稚	-12.5533
礎	-12.5534
眩	-12.5535
盼	-12.5536
畦	-12.5537
瓢	-12.5538
璃	-12.5539
玻	-12.554
獠	-12.5541
燼	-12.5542
炫	-12.5543
濁	-12.5544
澈	-12.5545
漾	-12.5546
泣	-12.5547
氏	-12.5548
暫	-12.5549
敞	-12.555
搔	-12.5551
拭	-12.5552
括	-12.5553
拒	-12.5554
悉	-12.5555
怖	-12.5556
循	-12.5557
審	-12.5558
寞	-12.5559
寄	-12.556
妒	-12.5561
壤	-12.5562
嚨	-12.5563
喘	-12.5564
喉	-12.5565
咸	-12.5566
叉	-12.5567
勵	-12.5568
凌	-12.5569
允	-12.557
俊	-12.5571
Q	-12.5572
鶴	-12.5573
飢	-12.5574
霉	-12.5575
錦	-12.5576
誌	-12.5577
蟬	-12.5578
蟑	-12.5579
螂	-12.558
蝗	-12.5581
蚯	-12.5582
蚤	-12.5583
蚓	-12.5584
蓁	-12.5585
葚	-12.5586
翁	-12.5587
羽	-12.5588
紗	-12.5589
穆	-12.559
眷	-12.5591
申	-12.5592
狩	-12.5593
灘	-12.5594
瀑	-12.5595
澆	-12.5596
潛	-12.5597
氓	-12.5598
殊	-12.5599
曠	-12.56
曝	-12.5601
昌	-12.5602
旦	-12.5603
搞	-12.5604
捷	-12.5605
抖	-12.5606
屎	-12.5607
媒	-12.5608
央	-12.5609
夥	-12.561
堪	-12.5611
嚏	-12.5612
嘰	-12.5613
嘍	-12.5614
喳	-12.5615
啪	-12.5616
啡	-12.5617
咖	-12.5618
叩	-12.5619
儲	-12.562
亭	-12.5621
丈	-12.5622
【	-12.5623
○	-12.5624
O	-12.5625
黨	-12.5626
鴉	-12.5627
鞠	-12.5628
閩	-12.5629
鍊	-12.563
躬	-12.5631
購	-12.5632
賊	-12.5633
誕	-12.5634
詢	-12.5635
詐	-12.5636
裔	-12.5637
蝸	-12.5638
蝠	-12.5639
蝙	-12.564
蜻	-12.5641
蜓	-12.5642
蕩	-12.5643
葵	-12.5644
荷	-12.5645
芥	-12.5646
艘	-12.5647
肩	-12.5648
糞	-12.5649
筷	-12.565
磯	-12.5651
瞌	-12.5652
瞄	-12.5653
漱	-12.5654
梅	-12.5655
柬	-12.5656
松	-12.5657
敏	-12.5658
憶	-12.5659
廁	-12.566
崎	-12.5661
寨	-12.5662
娌	-12.5663
娃	-12.5664
妲	-12.5665
妯	-12.5666
噎	-12.5667
嘗	-12.5668
唇	-12.5669
卑	-12.567
鴨	-12.5671
鱉	-12.5672
陀	-12.5673
鐮	-12.5674
蟋	-12.5675
蟀	-12.5676
蛭	-12.5677
葡	-12.5678
萄	-12.5679
菅	-12.568
莓	-12.5681
糠	-12.5682
砌	-12.5683
犧	-12.5684
燃	-12.5685
濘	-12.5686
涕	-12.5687
洲	-12.5688
泰	-12.5689
恆	-12.569
徙	-12.5691
帆	-12.5692
宗	-12.5693
嬸	-12.5694
嘎	-12.5695
哈	-12.5696
咱	-12.5697
叭	-12.5698
傻	-12.5699
仙	-12.57
丐	-12.5701
鷥	-12.5702
鬍	-12.5703
飼	-12.5704
鉛	-12.5705
芭	-12.5706
芎	-12.5707
舒	-12.5708
脖	-12.5709
簧	-12.571
潑	-12.5711
沼	-12.5712
扶	-12.5713
庇	-12.5714
崩	-12.5715
噁	-12.5716
嘲	-12.5717
醃	-12.5718
郎	-12.5719
蜢	-12.572
蚱	-12.5721
苳	-12.5722
苧	-12.5723
膠	-12.5724
策	-12.5725
畢	-12.5726
牲	-12.5727
橫	-12.5728
椒	-12.5729
棉	-12.573
斧	-12.5731
擇	-12.5732
悲	-12.5733
帳	-12.5734
崙	-12.5735
墾	-12.5736
叢	-12.5737
+	-12.5738
驕	-12.5739
雷	-12.574
雄	-12.5741
蘋	-12.5742
臼	-12.5743
耘	-12.5744
筌	-12.5745
滅	-12.5746
櫃	-12.5747
構	-12.5748
崖	-12.5749
龜	-12.575
魔	-12.5751
輪	-12.5752
蚌	-12.5753
茅	-12.5754
籬	-12.5755
療	-12.5756
李	-12.5757
埂	-12.5758
啄	-12.5759
餚	-12.576
閣	-12.5761
螞	-12.5762
虹	-12.5763
羨	-12.5764
璉	-12.5765
炎	-12.5766
溝	-12.5767
柿	-12.5768
敢	-12.5769
尤	-12.577
姨	-12.5771
傍	-12.5772
Z	-12.5773
邀	-12.5774
蝶	-12.5775
蝴	-12.5776
瞭	-12.5777
燕	-12.5778
廳	-12.5779
偶	-12.578
俗	-12.5781
係	-12.5782
佑	-12.5783
孫	-12.5783
龍	-12.5784
郵	-12.5785
遲	-12.5786
貪	-12.5787
甲	-12.5788
漁	-12.5789
楚	-12.579
慰	-12.5791
跛	-12.5792
柚	-12.5792
虎	-12.5793
露	-12.5794
羌	-12.5794
洪	-12.5794
瑞	-12.5795
鱔	-12.5795
橡	-12.5796
樟	-12.5796
紀	-12.5796
榕	-12.5796
伶	-12.5796
芒	-12.5796
棕	-12.5796
植	-12.5796
始	-12.5796
丘	-12.5797
束	-12.5797
查	-12.5797
鋤	-12.5797
嶼	-12.5798
攜	-12.5798
室	-12.5798
屁	-12.5798
俄	-12.5799
尋	-12.5799
藍	-12.5799
魅	-12.5799
芳	-12.5799
疼	-12.5799
奔	-12.5799
跌	-12.5799
餅	-12.5799
旁	-12.5799
欺	-12.58
緬	-12.58
陳	-12.58
牧	-12.58
戒	-12.58
捐	-12.58
氧	-12.58
浩	-12.58
漫	-12.58
瀚	-12.58
甸	-12.58
碳	-12.58
黄	-12.58
彼	-12.58
鑿	-12.58
森	-12.58
攀	-12.58
巿	-12.58
屍	-12.58
竿	-12.58
穫	-12.58
按	-12.58
膝	-12.58
·	-12.58
噤	-12.58
屑	-12.58
烽	-12.58
罩	-12.58
芬	-12.58
詼	-12.58
轎	-12.58
辰	-12.58
齊	-12.58
莊	-12.58
銳	-12.58
奏	-12.58
蹈	-12.58
默	-12.58
姻	-12.5801
醬	-12.5801
懸	-12.5801
殯	-12.5801
壽	-12.5801
甚	-12.5801
府	-12.5801
怎	-12.5801
略	-12.5801
倚	-12.5801
倡	-12.5801
刊	-12.5801
址	-12.5801
姿	-12.5801
宿	-12.5801
尼	-12.5801
屠	-12.5801
截	-12.5801
挽	-12.5801
措	-12.5801
撤	-12.5801
狼	-12.5801
狽	-12.5801
礦	-12.5801
竭	-12.5801
脅	-12.5801
膜	-12.5801
莢	-12.5801
赞	-12.5801
輔	-12.5801
輛	-12.5801
辜	-12.5801
銘	-12.5801
濟	-12.5801
廚	-12.5801
媳	-12.5801
憤	-12.5801
聖	-12.5801
凝	-12.5801
搓	-12.5801
仁	-12.5801
侷	-12.5801
吩	-12.5801
暢	-12.5801
欖	-12.5801
江	-12.5801
澗	-12.5801
符	-12.5801
紋	-12.5801
袍	-12.5801
誓	-12.5801
謀	-12.5801
逝	-12.5801
邏	-12.5801
朋	-12.5801
戲	-12.5801
慧	-12.5801
倍	-12.5801
匪	-12.5801
咳	-12.5801
唯	-12.5801
姦	-12.5801
嫻	-12.5801
愁	-12.5801
揀	-12.5801
朴	-12.5801
杆	-12.5801
杞	-12.5801
案	-12.5801
棲	-12.5801
槌	-12.5801
沐	-12.5801
浴	-12.5801
淑	-12.5801
淤	-12.5801
渥	-12.5801
湊	-12.5801
溶	-12.5801
滋	-12.5801
炊	-12.5801
狐	-12.5801
磐	-12.5801
禹	-12.5801
紉	-12.5801
縮	-12.5801
肛	-12.5801
苡	-12.5801
萎	-12.5801
薯	-12.5801
藿	-12.5801
蠟	-12.5801
詮	-12.5801
諱	-12.5801
軀	-12.5801
軸	-12.5801
酗	-12.5801
醡	-12.5801
鐫	-12.5801
隼	-12.5801
靶	-12.5801
鞦	-12.5801
餉	-12.5801
饋	-12.5801
污	-12.5801
瘟	-12.5801
研	-12.5801
喙	-12.5801
委	-12.5801
孵	-12.5801
幅	-12.5801
庝	-12.5801
惱	-12.5801
斑	-12.5801
柵	-12.5801
横	-12.5801
焚	-12.5801
胱	-12.5801
荳	-12.5801
蓖	-12.5801
蔭	-12.5801
蜥	-12.5801
蝪	-12.5801
蠢	-12.5801
衫	-12.5801
襠	-12.5801
蹤	-12.5801
鹬	-12.5801
仿	-12.5801
瀉	-12.5801
腹	-12.5801
#	-12.5801
G	-12.5801
\	-12.5801
j	-12.5801
x	-12.5801
{	-12.5801
|	-12.5801
}	-12.5801
ˋ	-12.5801
∕	-12.5801
〈	-12.5801
〉	-12.5801
《	-12.5801
》	-12.5801
丁	-12.5801
丸	-12.5801
京	-12.5801
仆	-12.5801
伊	-12.5801
伍	-12.5801
佷	-12.5801
侖	-12.5801
侮	-12.5801
俸	-12.5801
倦	-12.5801
傑	-12.5801
兆	-12.5801
兜	-12.5801
冇	-12.5801
凡	-12.5801
凶	-12.5801
刃	-12.5801
剠	-12.5801
劍	-12.5801
劑	-12.5801
勻	-12.5801
匯	-12.5801
匹	-12.5801
匿	-12.5801
卵	-12.5801
后	-12.5801
吝	-12.5801
吭	-12.5801
吮	-12.5801
吶	-12.5801
呆	-12.5801
呻	-12.5801
咀	-12.5801
咻	-12.5801
哀	-12.5801
哦	-12.5801
哨	-12.5801
哼	-12.5801
唷	-12.5801
嗇	-12.5801
嗽	-12.5801
嘆	-12.5801
嘉	-12.5801
嘔	-12.5801
噸	-12.5801
噹	-12.5801
嚀	-12.5801
嚐	-12.5801
嚥	-12.5801
嚼	-12.5801
囑	-12.5801
坊	-12.5801
坎	-12.5801
坑	-12.5801
坨	-12.5801
坷	-12.5801
垂	-12.5801
垠	-12.5801
壺	-12.5801
夕	-12.5801
夷	-12.5801
奈	-12.5801
奪	-12.5801
妙	-12.5801
妥	-12.5801
妨	-12.5801
姆	-12.5801
婕	-12.5801
嬷	-12.5801
孚	-12.5801
宇	-12.5801
宮	-12.5801
尚	-12.5801
峽	-12.5801
嶺	-12.5801
巒	-12.5801
席	-12.5801
幽	-12.5801
弧	-12.5801
彆	-12.5801
彙	-12.5801
徊	-12.5801
怨	-12.5801
悅	-12.5801
悍	-12.5801
悟	-12.5801
悸	-12.5801
惠	-12.5801
惹	-12.5801
愧	-12.5801
慄	-12.5801
憫	-12.5801
懈	-12.5801
懲	-12.5801
懺	-12.5801
扈	-12.5801
托	-12.5801
扮	-12.5801
抑	-12.5801
抒	-12.5801
抛	-12.5801
拳	-12.5801
挫	-12.5801
挾	-12.5801
捏	-12.5801
掏	-12.5801
援	-12.5801
撬	-12.5801
撼	-12.5801
擤	-12.5801
擬	-12.5801
敍	-12.5801
敷	-12.5801
映	-12.5801
普	-12.5801
杏	-12.5801
杷	-12.5801
枇	-12.5801
柑	-12.5801
栓	-12.5801
核	-12.5801
棍	-12.5801
榖	-12.5801
樸	-12.5801
橇	-12.5801
檔	-12.5801
檜	-12.5801
欸	-12.5801
毆	-12.5801
氾	-12.5801
汲	-12.5801
泄	-12.5801
洩	-12.5801
浹	-12.5801
涯	-12.5801
淵	-12.5801
渦	-12.5801
湧	-12.5801
溯	-12.5801
滄	-12.5801
潤	-12.5801
潦	-12.5801
濤	-12.5801
濫	-12.5801
濾	-12.5801
瀝	-12.5801
炸	-12.5801
烙	-12.5801
煞	-12.5801
煥	-12.5801
熬	-12.5801
燥	-12.5801
版	-12.5801
牓	-12.5801
犬	-12.5801
狠	-12.5801
狸	-12.5801
狹	-12.5801
獅	-12.5801
珊	-12.5801
琴	-12.5801
瑚	-12.5801
疙	-12.5801
痠	-12.5801
痢	-12.5801
痰	-12.5801
痳	-12.5801
瘩	-12.5801
瘸	-12.5801
癮	-12.5801
癱	-12.5801
皇	-12.5801
皙	-12.5801
盈	-12.5801
眨	-12.5801
睦	-12.5801
睪	-12.5801
矛	-12.5801
矢	-12.5801
砸	-12.5801
碴	-12.5801
祇	-12.5801
祐	-12.5801
禦	-12.5801
稿	-12.5801
穢	-12.5801
窪	-12.5801
窺	-12.5801
竽	-12.5801
箏	-12.5801
簽	-12.5801
絞	-12.5801
緍	-12.5801
緒	-12.5801
縈	-12.5801
縐	-12.5801
繭	-12.5801
繹	-12.5801
罷	-12.5801
肋	-12.5801
肌	-12.5801
脂	-12.5801
脛	-12.5801
脹	-12.5801
腔	-12.5801
膊	-12.5801
臘	-12.5801
舌	-12.5801
艱	-12.5801
芙	-12.5801
芝	-12.5801
芹	-12.5801
苔	-12.5801
苙	-12.5801
荔	-12.5801
莉	-12.5801
菁	-12.5801
菝	-12.5801
萌	-12.5801
萱	-12.5801
蒙	-12.5801
蒜	-12.5801
蔗	-12.5801
蔞	-12.5801
蕃	-12.5801
薊	-12.5801
薦	-12.5801
藜	-12.5801
藻	-12.5801
虧	-12.5801
蛔	-12.5801
蝌	-12.5801
蝨	-12.5801
螟	-12.5801
衆	-12.5801
裁	-12.5801
裸	-12.5801
襟	-12.5801
襪	-12.5801
觥	-12.5801
託	-12.5801
詛	-12.5801
詠	-12.5801
詩	-12.5801
誇	-12.5801
諭	-12.5801
諷	-12.5801
諺	-12.5801
謊	-12.5801
謾	-12.5801
譏	-12.5801
譬	-12.5801
豈	-12.5801
豎	-12.5801
豚	-12.5801
豢	-12.5801
豪	-12.5801
豹	-12.5801
賀	-12.5801
賚	-12.5801
賦	-12.5801
趜	-12.5801
跋	-12.5801
距	-12.5801
蹂	-12.5801
蹬	-12.5801
蹲	-12.5801
躪	-12.5801
軛	-12.5801
輸	-12.5801
轍	-12.5801
辱	-12.5801
迦	-12.5801
逗	-12.5801
逢	-12.5801
逼	-12.5801
遣	-12.5801
郭	-12.5801
鄒	-12.5801
鄭	-12.5801
酵	-12.5801
醞	-12.5801
鈍	-12.5801
錨	-12.5801
鍬	-12.5801
鎚	-12.5801
鑄	-12.5801
隙	-12.5801
雀	-12.5801
雌	-12.5801
霜	-12.5801
霸	-12.5801
韆	-12.5801
頒	-12.5801
頗	-12.5801
顉	-12.5801
馘	-12.5801
馳	-12.5801
駐	-12.5801
駡	-12.5801
騁	-12.5801
驪	-12.5801
髓	-12.5801
鯉	-12.5801
鰥	-12.5801
鱗	-12.5801
鴝	-12.5801
鵑	-12.5801
鶖	-12.5801
鶯	-12.5801
鼩	-12.5801
龐	-12.5801
訝	-12.5801
憂	-12.5801
溼	-12.5801
珍	-12.5801
疑	-12.5801
債	-12.5801
啤	-12.5801
囚	-12.5801
堵	-12.5801
杓	-12.5801
么	-12.5801
佚	-12.5801
君	-12.5801
摏	-12.5801
烹	-12.5801
煎	-12.5801
穌	-12.5801
脊	-12.5801
苞	-12.5801
蓉	-12.5801
藺	-12.5801
輾	-12.5801
逾	-12.5801
鑚	-12.5801
閘	-12.5801
雇	-12.5801
韻	-12.5801
亟	-12.5801
伺	-12.5801
劃	-12.5801
嗣	-12.5801
埃	-12.5801
嬉	-12.5801
慎	-12.5801
憲	-12.5801
撰	-12.5801
桎	-12.5801
梆	-12.5801
梏	-12.5801
槳	-12.5801
欲	-12.5801
漩	-12.5801
濃	-12.5801
熔	-12.5801
燉	-12.5801
癩	-12.5801
瞧	-12.5801
碌	-12.5801
祂	-12.5801
租	-12.5801
筵	-12.5801
篤	-12.5801
簿	-12.5801
縱	-12.5801
聆	-12.5801
聳	-12.5801
舟	-12.5801
蚪	-12.5801
蛤	-12.5801
蟆	-12.5801
裳	-12.5801
覽	-12.5801
諒	-12.5801
譴	-12.5801
赴	-12.5801
迴	-12.5801
隸	-12.5801
韭	-12.5801
邪	-12.5801
嬌	-12.5801
股	-12.5801
兼	-12.5802
副	-12.5802
均	-12.5802
墜	-12.5802
岬	-12.5802
愕	-12.5802
撇	-12.5802
棋	-12.5802
歐	-12.5802
波	-12.5802
狂	-12.5802
繪	-12.5802
葛	-12.5802
貢	-12.5802
闡	-12.5802
革	-12.5802
驟	-12.5802
鷸	-12.5802
黝	-12.5802
倉	-12.5802
爪	-12.5802
茁	-12.5802
賢	-12.5802
吱	-12.5802
婉	-12.5802
惕	-12.5802
棧	-12.5802
漿	-12.5802
績	-12.5802
蒿	-12.5802
聰	-12.5803
耆	-12.5804
繩	-12.5805
湖	-12.5806
鳳	-12.5807
闆	-12.5808
蓆	-12.5809
環	-12.581
榴	-12.5811
椅	-12.5812
展	-12.5813
嬤	-12.5814
螃	-12.5815
甘	-12.5816
壁	-12.5817
埔	-12.5818
顏	-12.5819
資	-12.582
泳	-12.5821
察	-12.5822
糬	-12.5823
芋	-12.5824
柴	-12.5825
耍	-12.5826
繼	-12.5827
努	-12.5828
享	-12.5829
幣	-12.583
垃	-12.5831
圾	-12.5832
團	-12.5833
q	-12.5834
象	-12.5835
箭	-12.5836
塘	-12.5837
齡	-12.5838
糯	-12.5839
希	-12.584
儀	-12.5841
阱	-12.5842
夏	-12.5843
朵	-12.5844
颱	-12.5845
巨	-12.5846
玉	-12.5847
任	-12.5848
H	-12.5849
蕉	-12.585
臺	-12.5851
麗	-12.5852
Y	-12.5853
睛	-12.5854
W	-12.5855
兄	-12.5856
昨	-12.5857
E	-12.5858
免	-12.5859
檳	-12.586
榔	-12.5861
輩	-12.5862
C	-12.5863
忘	-12.5864
市	-12.5865
叔	-12.5866
0	-12.5867
爺	-12.5868
覺	-12.5869
L	-12.587
萊	-12.5871
A	-12.5872
什	-12.5873
D	-12.5874
M	-12.5875
媽	-12.5876
麼	-12.5877
孩	-12.5878
B	-12.5879
P	-12.588
K	-12.5881
e	-12.5882
