<pad>	0
<unk>	0
<s>	0
</s>	0
<2xnb>	0
<2zh>	0
▁	-1.80175
,	-3.16318
'	-3.27836
.	-3.42974
。	-3.61244
▁'	-3.99072
?	-4.0631
!	-4.89863
▁co	-4.90838
ʉ	-4.93411
的	-4.95534
▁ko	-4.99358
▁ia	-5.00406
▁tia	-5.04638
a	-5.15955
▁soa	-5.16567
▁na	-5.28862
了	-5.33586
i	-5.45493
▁ka	-5.47783
o	-5.55845
ona	-5.59134
▁kara	-5.60054
;	-5.6072
▁pa	-5.61294
▁moso	-5.63235
esi	-5.65826
▁mako	-5.66533
▁tamna	-5.67278
▁cao	-5.71203
▁kaso	-5.79805
嗎	-5.80519
▁te	-5.82604
我	-5.85174
你	-6.02972
▁noo	-6.06244
有	-6.06289
▁isi	-6.08644
▁ngoain	-6.13083
anʉ	-6.13798
要	-6.1434
n	-6.15876
在	-6.1705
in	-6.1901
inia	-6.19582
說	-6.20934
是	-6.29678
他	-6.31544
ʉn	-6.35216
▁"	-6.38247
我們	-6.4172
aan	-6.43187
▁kita	-6.44317
▁你	-6.46359
、	-6.49311
ʉra	-6.49665
▁mataa	-6.50061
▁Pani	-6.5173
an	-6.52868
▁我	-6.53394
▁mano	-6.53498
▁isa	-6.56532
akia	-6.59542
▁tanasa	-6.62269
▁ni	-6.64405
去	-6.6548
▁kasoa	-6.67186
不	-6.69068
子	-6.70768
▁makasi	-6.71804
▁tavarʉ	-6.73439
e	-6.74287
▁kim	-6.78173
會	-6.80117
▁ngoani	-6.80191
▁soni	-6.80194
看看	-6.8075
▁nakai	-6.81741
▁koo	-6.8278
▁kangvang	-6.82935
▁neni	-6.84925
▁cocoro	-6.85077
和	-6.85548
oro	-6.85883
▁kari	-6.87335
▁coma	-6.87876
▁kavangvang	-6.88331
▁mita	-6.88359
▁cina	-6.88449
來	-6.88683
▁comacʉ	-6.90677
▁ma	-6.90972
▁ta	-6.91686
就	-6.9221
人	-6.93909
ikoa	-6.93946
:	-6.94253
到	-6.94564
▁to	-6.94876
▁tavara	-6.94949
他們	-6.95525
▁neen	-6.97504
▁Kanakanavo	-6.99341
▁manmaan	-7.01239
▁nanakʉ	-7.01252
:「	-7.03805
沒有	-7.06224
很	-7.06829
▁po	-7.07502
▁taniara	-7.07647
▁miana	-7.07682
都	-7.11101
看	-7.12045
u	-7.12584
▁kee	-7.12665
▁karo	-7.13266
▁他	-7.13576
▁cani	-7.13745
「	-7.13978
▁ocani	-7.14563
▁mokosa	-7.15525
▁makai	-7.1567
好	-7.17493
▁tamo	-7.18406
她	-7.19202
▁sinatʉ	-7.20459
一	-7.20602
上	-7.21731
也	-7.22715
."	-7.22963
-	-7.23003
ka	-7.23661
▁si	-7.2484
▁mamanʉng	-7.25736
但是	-7.27481
請	-7.27763
▁vanai	-7.28517
oa	-7.2899
▁paira	-7.29184
▁mookosa	-7.29431
▁kan	-7.29633
吃	-7.29976
▁我們	-7.30362
吧	-7.30674
▁saronai	-7.30959
oma	-7.31941
▁sii	-7.33298
▁mo	-7.35663
用	-7.37283
的時候	-7.37436
▁masini	-7.37987
已經	-7.39212
▁canomo	-7.39336
水	-7.40129
icʉpʉ	-7.41207
你們	-7.41966
把	-7.42118
apa	-7.42385
ʉna	-7.43705
▁cenana	-7.43882
▁poi	-7.44246
Pani	-7.44591
▁nesi	-7.45174
▁mia	-7.4546
ng	-7.45569
帶	-7.46323
在哪裡	-7.47112
▁misee	-7.47162
on	-7.474
著	-7.47791
▁kamo	-7.48478
給	-7.50032
▁tikoro	-7.50249
▁manasʉ	-7.50311
▁cʉ	-7.51276
▁mamarang	-7.51642
▁komakʉnʉ	-7.5168
過	-7.5175
aa	-7.52608
▁masiin	-7.53244
omo	-7.53842
▁nganai	-7.54077
oo	-7.57578
▁kani	-7.57581
可以	-7.58113
▁Pi	-7.58407
還	-7.58638
)	-7.58801
現在	-7.59384
▁mari	-7.59391
▁iko	-7.59435
▁tacao	-7.59546
▁marisinatʉ	-7.59616
。」	-7.59678
▁tatia	-7.59718
所	-7.60444
▁mamano	-7.61654
▁tarasangai	-7.61814
ra	-7.61858
ni	-7.61877
▁ti	-7.62011
m	-7.62069
叫	-7.6245
如果	-7.64032
讓	-7.64763
▁kacaoa	-7.65714
對	-7.65873
▁tanasʉn	-7.66521
akoni	-7.66545
大	-7.6699
na	-7.67248
什麼	-7.67641
因為	-7.68039
▁naan	-7.6907
iin	-7.69188
魚	-7.69451
"	-7.69726
▁kia	-7.69976
天	-7.70457
呢	-7.71146
▁nipo	-7.71568
▁nano	-7.72279
ta	-7.7251
ʉnai	-7.73901
▁cʉpʉngʉ	-7.74048
Avia	-7.74867
▁tarisinata	-7.74867
▁takitotoroa	-7.74881
k	-7.7548
啊	-7.75784
被	-7.76067
的人	-7.76186
▁你們	-7.76496
▁mara	-7.76867
小孩	-7.77018
▁kaisisi	-7.77517
ao	-7.78703
」	-7.80032
喜歡	-7.80341
工作	-7.81139
▁aka	-7.81338
▁macangcangarʉ	-7.81684
再	-7.81917
▁taniarʉ	-7.82103
vo	-7.82442
itoomoro	-7.83035
ro	-7.83375
做	-7.84303
與	-7.84942
▁我要	-7.85413
isi	-7.86009
不要	-7.8659
地	-7.86733
年	-7.87787
▁Pa	-7.87829
▁makanano	-7.87904
itomoro	-7.8791
想	-7.8802
走	-7.88175
▁ara	-7.88683
ai	-7.88869
或	-7.89103
不會	-7.89133
▁Na	-7.89258
▁masii	-7.89856
下	-7.90024
▁paracani	-7.90591
▁makasoa	-7.90921
我要	-7.91235
▁Pori	-7.9137
▁miaa	-7.91847
Uva	-7.91941
ʉvʉ	-7.92573
經常	-7.92854
▁iikaso	-7.93331
誰	-7.93363
跟	-7.93547
▁tammi	-7.95079
akoon	-7.95088
那	-7.95441
這	-7.95527
▁nimo	-7.95612
ici	-7.95834
為	-7.95941
▁kana	-7.96052
▁arapipining	-7.96609
拿	-7.96859
▁vaantoko	-7.97236
ri	-7.97472
▁ci	-7.97894
▁mati	-7.98043
▁kʉna	-7.98328
自己	-7.98715
t	-7.98762
聽	-7.99095
/	-7.9944
Angai	-7.9944
▁iisoa	-7.99474
看到	-7.99652
從	-7.99696
oon	-7.99877
▁maraa	-8.00047
▁kesoni	-8.00086
▁votookoro	-8.0056
▁iaavato	-8.01693
▁somasima	-8.01694
▁nora	-8.01715
很多	-8.02353
小	-8.0239
問	-8.02685
頭	-8.02729
這些	-8.02824
▁nonoman	-8.02839
不是	-8.03178
▁vo	-8.03615
▁arakokono	-8.03982
多	-8.03995
▁ʉʉ	-8.04634
sʉ	-8.04676
▁opeen	-8.05199
當	-8.05471
so	-8.05513
分	-8.06334
▁Mo	-8.06426
▁rovana	-8.0756
之後	-8.07562
▁nokai	-8.07565
我的	-8.08164
ana	-8.08209
ma	-8.08743
▁aranai	-8.08776
▁vato	-8.0878
▁orocin	-8.08783
起來	-8.09201
裡	-8.09343
va	-8.09391
種	-8.09734
等	-8.09984
▁takananga	-8.10007
▁tʉni	-8.1001
的地方	-8.10408
oropaca	-8.1159
▁sia	-8.11691
放	-8.1183
的話	-8.12057
(	-8.12345
讓他	-8.12499
▁iikita	-8.12515
▁tomatimana	-8.12515
一起	-8.12705
ko	-8.13042
▁niaranai	-8.13209
一個	-8.13369
p	-8.13399
▁cocomeni	-8.13819
怎麼	-8.13825
Una	-8.13877
▁m	-8.14019
ʉrʉʉn	-8.14355
狗	-8.14677
時	-8.1469
今天	-8.14748
▁maka	-8.15443
大家	-8.15561
長	-8.15801
oco	-8.15813
▁kamoa	-8.16218
▁coro	-8.16391
又	-8.16398
錢	-8.16824
rʉ	-8.1683
▁kamanʉngʉ	-8.17154
▁potokikio	-8.1735
▁tapinange	-8.17929
▁vavoro	-8.18193
po	-8.18236
若	-8.18554
他的	-8.18566
家	-8.19246
▁niara	-8.19408
中	-8.20333
▁kisʉʉn	-8.2044
▁totoroo	-8.20495
▁cacanʉ	-8.20567
▁pacʉpʉngʉ	-8.20676
找	-8.20793
apo	-8.21323
▁maan	-8.21388
地瓜	-8.21468
▁請	-8.2148
比較	-8.21502
▁mavici	-8.21867
▁makaa	-8.22207
使用	-8.22493
而	-8.23216
▁takarora	-8.23242
apaco	-8.23279
ʉnʉ	-8.23289
▁kimia	-8.23331
!」	-8.23502
iarʉ	-8.2393
▁moca	-8.24177
pa	-8.24255
回來	-8.24299
有人	-8.24522
▁pininga	-8.24652
個	-8.24979
先	-8.25399
ca	-8.25422
▁cimʉrʉ	-8.25441
oroa	-8.26001
to	-8.26231
向	-8.27557
知道	-8.27883
ʉʉn	-8.27984
r	-8.28071
ingi	-8.28325
人們	-8.28722
們	-8.28794
onaa	-8.29247
▁nia	-8.29364
▁Paicʉ	-8.30082
東西	-8.30273
▁mocaca	-8.30456
樹	-8.30585
▁maica	-8.30592
山	-8.31804
曾經	-8.31911
soa	-8.31969
?」	-8.32113
肉	-8.32225
住	-8.32741
出	-8.32749
老師	-8.33021
到了	-8.33088
玩	-8.33816
那個	-8.34605
▁mastaan	-8.35227
▁如果	-8.35699
出來	-8.36279
太	-8.36554
像	-8.36643
~	-8.36833
用來	-8.37097
使	-8.37347
▁我已經	-8.37464
那裡	-8.37626
▁今天	-8.37834
▁tina	-8.37892
得	-8.37942
牠	-8.3844
▁kitana	-8.38792
說話	-8.39062
回家	-8.39116
▁sa	-8.39155
sa	-8.39632
acoo	-8.3981
打	-8.39898
▁me	-8.4006
▁nongnong	-8.40125
▁tikirimi	-8.40178
▁kamanʉnga	-8.4031
ari	-8.40879
這個	-8.41037
可能	-8.41377
青蛙	-8.41647
▁maningcao	-8.41663
草	-8.41798
▁mataarava	-8.41813
▁matipa	-8.41856
co	-8.41891
mia	-8.42165
▁vina	-8.42677
非常	-8.42723
s	-8.42808
ani	-8.43089
還有	-8.43106
我會	-8.43137
只有	-8.43459
三	-8.43466
▁openi	-8.4354
▁isoa	-8.43605
就會	-8.43679
讀書	-8.43852
▁kanaa	-8.44074
買	-8.44137
唱歌	-8.44172
▁moro	-8.44275
要去	-8.44336
裡面	-8.4453
喝	-8.44897
將	-8.44952
有很多	-8.45144
c	-8.45207
你的	-8.45213
aravang	-8.45285
▁iikamo	-8.45891
十	-8.46032
ara	-8.46109
沒	-8.46157
▁can	-8.46357
ocipi	-8.4652
angai	-8.46574
生	-8.46752
▁mon	-8.46785
給我	-8.46899
▁macici	-8.46969
妳	-8.47028
▁arapana	-8.47079
▁kosai	-8.47122
▁karavong	-8.47169
?"	-8.47216
▁moranʉ	-8.47222
高	-8.47823
是誰	-8.48013
si	-8.48426
▁takacicini	-8.4856
快	-8.48712
▁cakʉran	-8.48865
▁rovʉvʉ	-8.48865
▁tomatotoro	-8.48868
▁tassa	-8.48869
▁cʉnʉ	-8.48874
ava	-8.48925
▁siaropaca	-8.49892
開	-8.5062
這裡	-8.5067
菜	-8.50677
Akori	-8.50708
▁nipa	-8.51459
▁moon	-8.51747
部落	-8.51952
▁arakokon	-8.52169
▁ra	-8.52308
唱	-8.52573
▁misoni	-8.52586
▁kanaroa	-8.52595
▁marivici	-8.52605
▁aracakanʉ	-8.52693
我們的	-8.53618
mo	-8.54054
雞	-8.54477
▁Koatʉ	-8.545
▁ngoai	-8.54776
no	-8.54805
很好	-8.55357
火	-8.55618
aporo	-8.55936
在這裡	-8.56097
衣服	-8.56205
相	-8.56395
▁tantaniara	-8.56451
en	-8.5648
一直	-8.56485
一下	-8.56532
山豬	-8.56586
▁poso	-8.56601
▁ramoco	-8.56859
能	-8.57035
怕	-8.57887
▁這是	-8.58043
kosa	-8.58111
一點	-8.58295
動	-8.58405
跑	-8.58437
痛	-8.58441
▁Vovorong	-8.58441
▁makanaan	-8.58442
ʉcaan	-8.58443
▁meesoa	-8.58445
ʉʉ	-8.58565
▁mamia	-8.58609
ia	-8.58692
煮	-8.58757
ti	-8.58768
在那裡	-8.58994
手	-8.59185
借	-8.59496
▁macasʉ	-8.59553
牛	-8.60472
▁kakangca	-8.60472
▁pokariikari	-8.60472
▁tomatootoro	-8.60472
▁miaranao	-8.60472
▁vantoko	-8.60472
小米	-8.60706
真的	-8.60794
oso	-8.61129
cʉ	-8.62004
酒	-8.62354
後	-8.62468
▁totoi	-8.62545
omoo	-8.62576
cara	-8.62647
▁maa	-8.62669
Mu	-8.62671
▁vongavong	-8.63276
▁mata	-8.63519
▁kipapa	-8.63644
真	-8.6385
ʉsʉ	-8.64331
▁nan	-8.64417
教	-8.64443
nga	-8.64484
太陽	-8.64581
ne	-8.64606
準備	-8.64661
▁nanmaroa	-8.64661
▁tapaicaa	-8.64661
▁komakʉʉn	-8.64665
▁takotavar	-8.64745
▁totasiarʉ	-8.64751
▁miʉra	-8.64763
aramʉ	-8.64775
睡覺	-8.64791
▁karanana	-8.64911
的家	-8.65216
族人	-8.65423
都是	-8.65465
為什麼	-8.65569
老人家	-8.65835
遠	-8.66149
起	-8.66321
▁tangria	-8.66823
每天	-8.66842
▁iisi	-8.66982
anmana	-8.67582
讓我	-8.67881
v	-8.67966
Pori	-8.68016
▁如果你	-8.68051
▁arapipiningi	-8.68092
▁這個	-8.68155
▁那是	-8.68178
的衣服	-8.68296
下雨	-8.68323
▁arami	-8.68626
ang	-8.68785
休息	-8.69013
及	-8.69021
▁pangka	-8.69035
▁mosokʉmʉ	-8.6905
▁kamʉcʉ	-8.69106
▁以前	-8.6919
isoa	-8.69212
以前	-8.69451
▁miseni	-8.6971
▁potokikioa	-8.7002
就是	-8.70209
明天	-8.7034
ci	-8.70515
roimi	-8.70549
▁masi	-8.70572
那樣	-8.70697
經過	-8.7121
▁nokanmana	-8.71293
▁tarisi	-8.71295
▁seto	-8.71426
▁不要	-8.72511
▁sosomanpe	-8.72549
好像	-8.7268
▁我的	-8.72748
書	-8.72891
全部	-8.72988
▁mima	-8.72989
完成	-8.7312
!"	-8.73388
洗	-8.7355
鳥	-8.73552
▁(	-8.73558
笑	-8.73598
的是	-8.73599
▁kanaaroa	-8.7362
▁makacang	-8.73624
家裡	-8.73798
我們要	-8.74788
ora	-8.75345
apacʉ	-8.75854
一樣	-8.75858
四	-8.75874
元	-8.75972
ㄧ	-8.75972
開始	-8.75973
iseeng	-8.7599
ʉrʉn	-8.76194
een	-8.76355
▁makacʉkʉna	-8.76705
oneen	-8.76777
發	-8.76867
▁manʉng	-8.76875
出現	-8.77287
▁maritapasʉ	-8.77401
▁ca	-8.77711
可	-8.78012
於	-8.7807
話	-8.78273
不能	-8.78344
▁tapi	-8.78352
搬	-8.78382
抓	-8.78386
oroopaca	-8.78401
以後	-8.78409
▁takoisi	-8.78412
apaica	-8.78428
▁oh	-8.78432
▁kʉkʉnang	-8.78436
不知道	-8.78459
食物	-8.78718
oroo	-8.78723
▁camai	-8.78732
這是	-8.78963
▁masinang	-8.79233
的工作	-8.79588
▁nima	-8.79723
▁tee	-8.79805
成	-8.79837
ʉcanʉ	-8.79891
日	-8.80709
石頭	-8.8086
▁cocomeen	-8.80881
▁marʉkorapʉ	-8.80881
▁tamtito	-8.80881
▁maatʉa	-8.80883
▁maraini	-8.80884
▁noari	-8.80886
五	-8.81223
▁ki	-8.81446
」。	-8.82008
ee	-8.82294
vora	-8.82425
ʉrʉ	-8.82592
還是	-8.82796
▁maco	-8.82871
U	-8.82989
卡那卡那富	-8.83138
丟	-8.83225
▁toko	-8.83279
▁你的	-8.83311
雖然	-8.83355
如何	-8.83373
光	-8.83418
風	-8.83428
▁moraan	-8.8343
照顧	-8.8343
▁sasaronai	-8.83432
離開	-8.83438
▁er	-8.83464
▁otoro	-8.83488
它	-8.83632
別人	-8.83832
cani	-8.83857
omi	-8.83932
坐	-8.83991
朋友	-8.85329
▁tomata	-8.8549
▁toporo	-8.85586
吃飯	-8.85897
出去	-8.85898
穿	-8.85966
畫	-8.86012
呼叫	-8.86017
學習	-8.86023
努力	-8.86043
▁Namaasia	-8.86043
▁seho	-8.86051
豬	-8.86055
onain	-8.86131
avara	-8.86685
▁miseen	-8.87045
在一起	-8.87128
▁kariin	-8.87306
晚上	-8.87354
還在	-8.87406
只	-8.88287
▁makasia	-8.88329
▁mopacai	-8.8857
處	-8.88582
最	-8.88639
此	-8.88666
參加	-8.8872
倒	-8.88723
▁Kioa	-8.88728
▁ikim	-8.88728
▁marʉngʉcai	-8.88728
▁iavato	-8.88729
▁tanoko	-8.88733
apanapa	-8.88736
▁mesoa	-8.88768
ongo	-8.88827
小朋友	-8.8923
名字	-8.89431
ha	-8.90271
進	-8.90635
老	-8.90952
▁takacicin	-8.91038
族	-8.91271
名	-8.9134
氣	-8.91411
換	-8.91425
米	-8.91449
包	-8.91452
外	-8.91462
月	-8.9147
▁tarocong	-8.91487
哭	-8.91487
▁toiisoa	-8.91487
原本	-8.91489
▁mintasʉ	-8.91498
ʉrʉm	-8.91533
寫	-8.91599
去學校	-8.92577
學	-8.93079
iara	-8.93722
這樣	-8.93794
peen	-8.94008
前	-8.94197
之	-8.94244
變	-8.94258
刀	-8.94271
拉	-8.94314
究竟	-8.94324
祭祀	-8.94324
練習	-8.94324
▁ngʉkao	-8.94324
▁porako	-8.94324
喔	-8.94324
▁toropang	-8.94324
▁navongo	-8.94325
▁riang	-8.94332
動物	-8.94336
▁naannakʉ	-8.94367
▁poisoa	-8.94548
你要	-8.94633
給他	-8.94939
▁paka	-8.95026
事	-8.95159
Paicʉ	-8.95228
▁voanʉ	-8.95462
國	-8.95522
tia	-8.95663
送	-8.9618
但	-8.96664
想要	-8.96723
▁capai	-8.97062
toro	-8.97084
往	-8.97159
沒關係	-8.97243
鹿	-8.97244
阿姨	-8.97244
走路	-8.97277
ing	-8.97316
▁tan	-8.97393
▁tacini	-8.97433
iing	-8.97505
▁iimoa	-8.97516
▁tati	-8.97519
▁se	-8.97577
Na	-8.97713
幫	-8.98032
kʉʉn	-8.98366
花	-8.98614
apara	-8.98618
Kuatʉ	-8.9862
才	-8.98744
其	-8.99098
地方	-8.99256
▁tara	-8.99421
▁kʉcʉ	-8.99487
走了	-8.99757
ong	-8.99814
飯	-8.99825
很多人	-9.00119
稱	-9.00201
殺	-9.00216
比	-9.00245
▁ioovoto	-9.00251
▁tangriia	-9.00251
球	-9.00252
身體	-9.00254
▁conoko	-9.00254
▁nimavici	-9.00258
來的	-9.00271
▁pipiningi	-9.00291
一次	-9.00311
釣魚	-9.01532
不好	-9.01573
醫生	-9.01751
ʉng	-9.01845
的名字	-9.02194
我可以	-9.02744
nakʉ	-9.0276
路	-9.03231
白	-9.033
沒有人	-9.03324
那些	-9.03329
▁siacʉvʉrʉ	-9.03352
溪流	-9.03356
多少	-9.03359
▁makaasia	-9.03368
▁marivivini	-9.03382
還沒	-9.03401
女人	-9.03402
A	-9.03463
▁poto	-9.03538
那是	-9.03548
生活	-9.03753
幫我	-9.04003
arʉ	-9.04182
兩	-9.04377
▁mi	-9.04547
學會	-9.04613
所以	-9.04931
▁Kini	-9.0503
▁cinimʉ	-9.05098
pana	-9.051
▁nen	-9.0524
生氣	-9.05252
回	-9.05282
過去	-9.05724
ropaca	-9.06138
▁tarako	-9.06167
快樂	-9.06221
祭典	-9.06227
以	-9.06312
▁pati	-9.06367
曬	-9.06407
1	-9.06528
阿	-9.06541
由	-9.06542
指	-9.06544
布	-9.06552
刺	-9.06552
▁carapong	-9.06553
▁rangrang	-9.06553
突然	-9.06553
▁tarasangara	-9.06553
▁tantanniara	-9.06567
人類	-9.06629
他會	-9.06959
▁ivata	-9.07038
▁poka	-9.07082
sin	-9.07127
▁pai	-9.07172
▁pokari	-9.07577
▁makanangoro	-9.07694
正在	-9.08393
▁araceni	-9.08404
原住民	-9.08575
來了	-9.08703
女	-9.08827
熱	-9.08941
相處	-9.09142
araam	-9.09254
▁potokio	-9.09278
aposo	-9.09354
apakʉnʉ	-9.09539
mar	-9.0968
▁pacʉpʉcʉpʉngʉ	-9.09746
作	-9.09806
幾次	-9.09822
愛	-9.09852
皮	-9.09858
▁votokoro	-9.09859
毛	-9.09859
inmamia	-9.09859
Kiua	-9.09859
▁kisaa	-9.09859
▁macangini	-9.09863
▁movoa	-9.09905
▁niivato	-9.09905
avangʉ	-9.09907
我在	-9.10359
田	-9.10531
aania	-9.1069
▁pira	-9.11111
re	-9.11131
我是	-9.1127
幾	-9.11366
許多	-9.11423
▁para	-9.11621
心	-9.11749
小心	-9.1196
妹妹	-9.12144
是什麼	-9.12375
高興	-9.12376
的小孩	-9.12635
吃了	-9.12664
▁你有	-9.12716
▁ivataa	-9.12763
自	-9.1307
nʉmʉ	-9.13117
湯	-9.13204
聲	-9.13223
已	-9.13245
世	-9.13267
錄	-9.13271
游泳	-9.13278
注意	-9.13278
▁tapasavoana	-9.1328
Apio	-9.13282
獵物	-9.13285
試著	-9.13293
▁momʉkʉ	-9.13295
小狗	-9.13321
▁mamane	-9.13326
▁mosotampʉ	-9.13329
pe	-9.13456
真是	-9.13581
nano	-9.13612
▁vooo	-9.13721
▁natia	-9.13908
邊	-9.13971
射	-9.14005
▁toporoa	-9.14053
patʉ	-9.14148
▁pokarikari	-9.14383
▁vʉra	-9.14458
很高興	-9.14473
▁potococoro	-9.145
aca	-9.14909
收	-9.14965
好嗎	-9.15214
▁是的	-9.15279
告訴	-9.15451
如果有	-9.15453
吃的	-9.1546
▁若	-9.15533
你的小孩	-9.15561
▁arakoracʉ	-9.15656
原來	-9.15697
tʉ	-9.16069
ingai	-9.161
ngʉ	-9.1611
apasʉ	-9.16135
滿	-9.16315
vangvang	-9.16384
我就	-9.16605
回答	-9.16612
新	-9.16711
公	-9.16795
全	-9.16801
接近	-9.16815
揹	-9.16816
貓頭鷹	-9.16818
▁misoon	-9.16818
▁mosikarʉ	-9.16818
▁nosoon	-9.16818
跳舞	-9.16818
▁matiropangʉ	-9.16818
▁viaro	-9.16818
Atai	-9.16818
▁ngiao	-9.16818
▁kanakanavo	-9.16822
▁nakoi	-9.16824
女性	-9.16826
cang	-9.16946
卡那卡那富族人	-9.16996
icioro	-9.17457
聽說	-9.17481
次	-9.17497
卡那卡那富族的	-9.176
▁那個	-9.17604
外面	-9.18888
是我	-9.18901
好了	-9.18956
▁kiatotoro	-9.18995
▁你如果	-9.19206
哪裡	-9.19282
學校	-9.19436
重	-9.19449
▁我沒有	-9.19519
面	-9.19733
還要	-9.19796
幫忙	-9.19801
果	-9.20086
arangʉ	-9.20357
講	-9.20452
狩獵	-9.20486
▁Taiwan	-9.20488
▁mamarorang	-9.20488
▁mingane	-9.20488
aningo	-9.20489
▁marivari	-9.205
▁aracan	-9.20502
▁Te	-9.20506
那位	-9.20535
我已經	-9.20577
▁mapitʉ	-9.2058
▁poiisoa	-9.20585
竹子	-9.20606
看起來	-9.20608
▁matisa	-9.2061
拿去	-9.20649
▁pi	-9.20807
ʉcʉ	-9.20903
▁所以	-9.20927
▁mapo	-9.21386
那瑪夏	-9.21456
帶著	-9.21585
kʉrʉ	-9.21633
▁pari	-9.21681
▁現在	-9.21753
過來	-9.21789
語	-9.21866
完	-9.21985
▁sian	-9.22201
ania	-9.22574
▁我喜歡	-9.22694
karʉ	-9.2284
noo	-9.22855
兩個	-9.22916
早上	-9.23252
為了	-9.23359
▁我們今天	-9.23529
▁vʉ	-9.23536
▁s	-9.23692
就要	-9.24006
竹	-9.24143
他們的	-9.2419
背	-9.24232
常	-9.24266
飛	-9.24283
期	-9.24286
政府	-9.24293
養	-9.24295
希望	-9.24298
▁pakiitoro	-9.24298
▁tarokoka	-9.24298
百	-9.24298
木瓜	-9.24299
織布	-9.24299
▁vonai	-9.24299
通常	-9.24303
或許	-9.24306
打掃	-9.24308
出門	-9.2431
▁masiiraro	-9.24313
一位	-9.24361
▁onʉmʉ	-9.24371
▁tarakoka	-9.24384
通過	-9.24386
▁tomatang	-9.24394
▁masipʉcʉ	-9.24474
▁mosʉ	-9.24521
我來	-9.24567
別的	-9.2458
學生	-9.24749
語言	-9.24753
告訴我	-9.24963
跟著	-9.24989
叫他	-9.25022
要帶	-9.25329
▁tapasʉ	-9.25474
所有的	-9.2595
▁我有	-9.26275
做的	-9.26326
nomani	-9.26598
te	-9.27061
間	-9.27104
的食物	-9.27738
乾	-9.2775
的東西	-9.27934
別	-9.27987
▁使	-9.28019
行	-9.28034
幫助	-9.28056
女生	-9.28098
者	-9.28191
車	-9.28208
物	-9.28213
2	-9.2823
麻	-9.28242
深	-9.28255
挖	-9.28258
▁campe	-9.28258
▁cʉpʉʉng	-9.28258
▁niorina	-9.28258
▁nosoni	-9.28258
▁posiam	-9.28258
▁maakari	-9.28259
▁takʉkʉa	-9.28259
▁ikaso	-9.28259
▁tatarʉ	-9.28259
結婚	-9.28259
田園	-9.2826
inmaamia	-9.28261
▁ciciri	-9.28261
ocangʉ	-9.28262
oropacʉʉn	-9.28262
▁maposan	-9.28262
月亮	-9.28265
▁matapari	-9.28309
▁pana	-9.28384
▁pakavora	-9.28394
喝酒	-9.28479
▁mʉna	-9.28513
做什麼	-9.28641
inʉva	-9.28649
▁Ka	-9.2866
▁叫	-9.28763
▁niaraka	-9.28979
▁makaan	-9.2946
▁aratatia	-9.29682
▁nimookosa	-9.29683
下來	-9.29788
」,	-9.2985
也有	-9.29924
最後	-9.30101
T	-9.30228
過了	-9.30577
▁aro	-9.30608
點	-9.3063
▁我們要	-9.31076
掉	-9.31194
也會	-9.31304
山上	-9.31497
好的	-9.31506
poro	-9.31833
aniin	-9.31862
▁matikoro	-9.3198
▁iriri	-9.32167
同	-9.32182
pacʉpʉcʉpʉng	-9.32217
待會兒	-9.32242
每	-9.32292
晚	-9.32297
ʉcai	-9.32298
男孩	-9.3235
蓋	-9.32378
眼	-9.3238
聚會所	-9.32382
台灣	-9.32382
▁makenano	-9.32383
▁pipiniing	-9.32383
越	-9.32383
▁ʉncoo	-9.32383
▁taciin	-9.32383
aropacʉ	-9.32388
▁nivato	-9.32397
時間	-9.32401
▁arapiningi	-9.32403
分開	-9.32455
▁"'	-9.3252
洗衣服	-9.33065
manʉng	-9.3317
▁namo	-9.3353
大家都	-9.33671
▁koka	-9.33681
▁rapʉ	-9.33908
請他	-9.34223
位	-9.3443
▁tarakanangʉ	-9.345
力	-9.34501
的水	-9.34516
▁cinaa	-9.34634
接	-9.34667
ʉa	-9.34739
一隻	-9.3484
釣	-9.34844
放在	-9.35027
男人	-9.35564
orong	-9.36079
▁Mu	-9.36179
我們卡那卡那富	-9.36252
無法	-9.36264
卡那卡那富語	-9.36323
牽著	-9.36482
如此	-9.36498
一些	-9.36503
八	-9.36527
獵	-9.36536
早	-9.36582
直	-9.36588
抱	-9.36626
▁你要	-9.36639
近	-9.36655
長輩	-9.36656
▁voan	-9.36663
部	-9.36665
流	-9.3667
剪	-9.3667
5	-9.36679
起床	-9.3668
無	-9.3668
Mayaw	-9.36684
∅	-9.36684
▁kiatootoro	-9.36684
▁kincaocaoa	-9.36684
▁kinvavara	-9.36684
▁mariitarʉ	-9.36684
▁rʉmʉra	-9.36684
▁vʉkʉsʉ	-9.36684
不好意思	-9.36684
▁nivanga	-9.36685
的樣子	-9.36686
稱呼	-9.36686
▁mangoro	-9.36687
▁tinimana	-9.36689
▁opito	-9.36709
avia	-9.36713
▁orima	-9.36736
等一下	-9.36753
▁mokʉrʉ	-9.36763
▁monoon	-9.36769
▁comacʉvʉrʉ	-9.36784
新的	-9.36794
▁miacara	-9.36813
要去哪裡	-9.36823
▁aratʉkʉnʉ	-9.36838
謝謝	-9.36943
▁parʉʉ	-9.36953
api	-9.37046
他們在	-9.37091
只是	-9.37188
▁papeen	-9.37259
某	-9.37435
我還要	-9.37501
h	-9.37566
上學	-9.37642
正	-9.37722
▁mamacai	-9.38236
那隻	-9.38419
▁那	-9.38536
▁老師	-9.38677
▁mosokʉʉm	-9.38742
vʉrʉ	-9.39098
▁mama	-9.39244
還沒有	-9.39464
了什麼	-9.39466
▁這	-9.39478
▁kipaatʉsʉ	-9.39522
二	-9.39697
更	-9.39745
是誰的	-9.39885
陷阱	-9.40483
給你	-9.40496
acipi	-9.41096
六	-9.41145
祭	-9.41154
性	-9.41162
場	-9.41164
根	-9.41165
洞	-9.41165
結束	-9.41179
▁matarava	-9.41179
▁pakitoro	-9.41179
▁ritoka	-9.41179
▁tamtasai	-9.41179
▁voravorao	-9.41179
arating	-9.41179
咬	-9.41179
▁koratomoro	-9.41179
客	-9.41179
老鷹	-9.4118
▁ísoa	-9.41181
▁tensʉ	-9.41182
那裏	-9.41182
尋找	-9.41183
▁makongo	-9.41199
▁marisiki	-9.41202
▁poisia	-9.41232
▁somasʉpʉrʉ	-9.41268
▁tatoro	-9.41347
她們	-9.41417
tong	-9.41493
成為	-9.41579
totoro	-9.41658
▁為什麼	-9.42056
▁你現在	-9.42307
我們就	-9.42526
她的	-9.42649
剛才	-9.42826
怎樣	-9.42857
原住民族	-9.43072
Kini	-9.43373
打獵	-9.43415
就不會	-9.43421
什麼原因	-9.43515
vina	-9.43544
我不	-9.43583
帽子	-9.43734
koco	-9.43745
請告訴我	-9.43847
▁我要去	-9.44244
不同	-9.44592
▁nimaka	-9.44646
▁mooravo	-9.44685
的書	-9.44913
的生活	-9.45237
製作	-9.45255
ak	-9.45565
▁有一天	-9.45572
類	-9.45732
溪	-9.45767
明	-9.45818
▁你今天	-9.45845
病	-9.45856
燒	-9.45865
親	-9.45865
繩子	-9.45882
苦	-9.45885
貓	-9.45885
摸	-9.45885
兄弟姊妹	-9.45885
嬰兒	-9.45886
▁marisosona	-9.45886
姊姊	-9.45886
夫	-9.45886
發現	-9.45899
▁omoni	-9.45981
▁votono	-9.46019
香蕉	-9.46099
你看	-9.46138
icono	-9.46186
can	-9.46286
▁potokioa	-9.46728
請你	-9.4682
▁oranoo	-9.46821
孩子們	-9.47127
ooroa	-9.47244
幾個	-9.47502
回到	-9.47904
▁cii	-9.47975
g	-9.48104
才會	-9.48157
▁imoa	-9.48253
ʉpʉ	-9.48275
oarʉ	-9.48689
我現在	-9.48944
水果	-9.48989
▁tʉkʉ	-9.49387
的孩子	-9.49392
ya	-9.4996
聊天	-9.50067
ap	-9.50067
少	-9.50181
有一個	-9.5021
剛剛	-9.50274
▁我今天	-9.50578
便	-9.50729
定	-9.50732
patisa	-9.50751
因	-9.5077
整	-9.5079
害	-9.50803
改	-9.50806
清	-9.50809
惜	-9.50809
亂	-9.50813
套	-9.50824
跳	-9.50824
▁macʉrang	-9.50825
▁sooraro	-9.50825
▁tantanao	-9.50825
▁tingami	-9.50825
▁tisikara	-9.50825
▁taponia	-9.50825
至	-9.50825
賣	-9.50825
Usu	-9.50825
▁kʉnʉn	-9.50825
母親	-9.50825
▁kokoca	-9.50825
願意	-9.50826
▁somasingsing	-9.50826
今年	-9.50828
▁cacaan	-9.50837
▁macovongo	-9.5084
ʉcʉpʉ	-9.5084
▁pariapara	-9.50842
otori	-9.5085
▁siarisinatʉ	-9.50862
不論	-9.50862
杯子	-9.50867
▁tanpo	-9.50872
都要	-9.50893
▁tongingi	-9.50912
上面	-9.50926
▁miaasoa	-9.50948
昨天晚上	-9.50999
土地	-9.51041
▁sikai	-9.51058
的確	-9.511
▁cokoi	-9.51194
▁kipatʉsʉ	-9.51264
要吃	-9.51285
腳	-9.51971
▁pasa	-9.52076
miiri	-9.52313
出來了	-9.52379
實	-9.52396
ngana	-9.52478
▁roimi	-9.52544
S	-9.5255
▁Piori	-9.52608
▁kʉnʉa	-9.52609
▁toma	-9.53354
應該	-9.53522
▁Kuatʉ	-9.53592
mana	-9.53656
iri	-9.53713
的歌	-9.53772
▁nim	-9.53802
tanam	-9.53935
inanoin	-9.54316
ain	-9.54443
要給	-9.5451
真好	-9.54626
manʉngʉ	-9.54772
arovo	-9.54916
▁paso	-9.55074
很久	-9.55089
ho	-9.55408
偷	-9.55423
餓	-9.55524
忘了	-9.55532
羊	-9.55728
傳	-9.55802
方	-9.55848
條	-9.55891
站起來	-9.55934
理	-9.55963
記	-9.55981
ocipa	-9.56
工	-9.56006
表	-9.56012
告	-9.56016
冷	-9.5602
吹	-9.5602
apitarʉ	-9.5602
▁Ripon	-9.5602
▁ngisaa	-9.5602
▁pinaaropo	-9.5602
▁soromo	-9.5602
牙	-9.5602
otopai	-9.5602
▁osʉʉpatʉ	-9.5602
刮	-9.56021
▁tamotamoa	-9.56021
顏色	-9.56021
文化	-9.56022
▁serisinatʉ	-9.56024
▁mamisa	-9.56025
照明	-9.56028
老鼠	-9.56028
▁motanasa	-9.56042
變成	-9.56049
▁monasʉ	-9.56051
跟隨	-9.56054
Ari	-9.56078
不必	-9.56085
Apu	-9.5609
▁sipara	-9.56113
▁ivici	-9.56118
omaang	-9.56191
▁papeni	-9.56196
關於	-9.56209
▁mova	-9.56323
▁Kai	-9.56323
很勤勞	-9.5633
他在	-9.56346
kisia	-9.56355
很大	-9.56421
▁sini	-9.56493
聽過	-9.56732
。(	-9.56846
讓我們	-9.56944
看著	-9.56947
rima	-9.56978
自己的	-9.56991
▁nimi	-9.57242
買了	-9.5752
可能會	-9.57549
inasʉ	-9.57642
▁voo	-9.5787
若有	-9.5819
vang	-9.58395
好吃	-9.5846
改變	-9.58724
▁marisoosona	-9.59004
去了	-9.59403
cioro	-9.59413
rʉrʉ	-9.59511
▁poiri	-9.59959
tanaam	-9.59966
取	-9.60012
sia	-9.60361
▁w	-9.60481
祖先	-9.60732
▁Namasia	-9.61238
存	-9.61251
▁別	-9.6127
見	-9.61345
受	-9.61384
美麗	-9.61392
船	-9.61416
七	-9.61422
玉米	-9.61425
信	-9.61452
平	-9.61457
ica	-9.61468
機	-9.61471
色	-9.61476
照	-9.61476
▁imo	-9.61485
卻	-9.61491
舂搗	-9.61494
討論	-9.61497
l	-9.61498
器	-9.61499
強	-9.615
f	-9.61501
穿山甲	-9.61501
▁kakaamarʉ	-9.61501
▁kenri	-9.61501
▁múkosa	-9.61501
▁pakʉnnano	-9.61501
▁nipaicaa	-9.61501
▁saiho	-9.61501
森林	-9.61501
祝福	-9.61501
8	-9.61501
▁matarai	-9.61502
▁cangkan	-9.61502
朵花	-9.61502
▁sokʉmʉa	-9.61504
▁pasiin	-9.61504
男性	-9.61508
青年	-9.61516
因此	-9.61517
▁macakoarʉ	-9.61517
▁aracapici	-9.61522
▁matacovocovongo	-9.61525
▁matangiria	-9.61538
所有	-9.61553
Upa	-9.61559
▁ranʉngʉ	-9.61574
▁mopana	-9.61624
inacʉ	-9.6166
▁nimova	-9.61662
ociri	-9.61714
iintasʉ	-9.61765
天天	-9.61796
▁osʉ	-9.61804
avo	-9.61821
好好的	-9.61974
我去	-9.62024
我也	-9.62095
▁nisʉ	-9.62198
是真的	-9.62201
有沒有	-9.62389
海	-9.62485
▁tasʉ	-9.62503
kaka	-9.62541
幫你	-9.6269
我沒	-9.62834
數	-9.62861
pan	-9.62941
▁tana	-9.63001
▁剛才	-9.63321
▁araa	-9.63356
▁porosʉvʉ	-9.63389
▁誰要	-9.63555
父親	-9.63708
的想法	-9.63995
▁kamanʉngʉa	-9.64014
▁當時	-9.64122
很重	-9.6424
cʉng	-9.64299
就可以	-9.64459
▁mai	-9.6449
回去	-9.64585
▁pepe	-9.64666
醫院	-9.64811
口	-9.64892
各	-9.64995
睡	-9.65556
聽到	-9.65582
不喜歡	-9.65701
我要買	-9.65742
▁Savoo	-9.65837
一條	-9.65865
筆	-9.65915
capa	-9.66127
山羌	-9.66145
美	-9.66164
並	-9.6638
vong	-9.66505
▁tomat	-9.66775
都會	-9.66863
▁marang	-9.6695
隻	-9.67058
足	-9.6706
相同	-9.67095
我今天	-9.67168
▁sikara	-9.67171
原	-9.67185
mʉ	-9.67192
熟	-9.67212
立	-9.67257
唸	-9.67278
離	-9.67278
的工具	-9.67281
可憐	-9.67283
線	-9.67288
停	-9.6729
米糕	-9.67292
該	-9.67295
錯	-9.67296
節	-9.67298
篩	-9.67299
Amirika	-9.67299
▁sapoarʉ	-9.67299
▁tiipari	-9.67299
tinaravai	-9.67299
▁natʉngʉ	-9.67299
▁takopin	-9.67299
短	-9.67299
▁makasoin	-9.67299
▁niarisinata	-9.673
7	-9.673
紀錄	-9.67301
喜愛	-9.67302
傳統	-9.67302
電腦	-9.67304
透過	-9.67305
▁ikita	-9.67313
山羊	-9.67326
桌子	-9.67327
之前	-9.67328
▁ce	-9.67338
心想	-9.67366
一定	-9.67389
▁omara	-9.67396
▁miaacara	-9.67404
vʉng	-9.67421
木頭	-9.67423
▁nivoa	-9.67441
pasiʉn	-9.67454
▁moarʉ	-9.67475
▁你怎麼	-9.67503
▁mosa	-9.67576
將來	-9.67652
就像	-9.6767
poon	-9.6772
只要	-9.67779
天上	-9.67827
▁taro	-9.67981
ivi	-9.68187
看書	-9.68208
那是什麼	-9.68216
他是	-9.68294
那個人	-9.68374
▁karapa	-9.68869
▁mak	-9.68984
在家	-9.69005
▁takacicinia	-9.69278
他說	-9.69299
會不會	-9.69319
▁tako	-9.69336
送給	-9.69474
我不知道	-9.69592
生火	-9.69829
▁taka	-9.70009
是在	-9.70045
van	-9.70242
oici	-9.70363
▁coko	-9.70401
來這裡	-9.70527
田裡	-9.70787
▁karʉ	-9.70886
am	-9.71217
給小孩	-9.71376
你好	-9.71401
it	-9.71582
rana	-9.71819
▁aratakara	-9.71849
voa	-9.71872
當時	-9.71949
▁akanangʉ	-9.72059
坐著	-9.72069
cʉpʉng	-9.72218
▁你明天	-9.72427
cʉp	-9.7266
它的	-9.72738
▁iimo	-9.72875
答應	-9.7292
兩位	-9.72987
▁niko	-9.73083
失	-9.73126
現	-9.73199
關	-9.73201
裝	-9.7321
雨	-9.73319
aposikarʉ	-9.73322
隨	-9.73402
輩	-9.73426
加	-9.73434
床	-9.73436
拜	-9.73445
播種	-9.73445
合	-9.73449
體	-9.7345
3	-9.7345
砍	-9.73451
台	-9.73453
辣	-9.73454
▁Rangoi	-9.73454
▁Tahai	-9.73454
▁kinvaia	-9.73454
▁miaroovana	-9.73454
▁tanʉkʉ	-9.73454
腿	-9.73454
年輕人	-9.73455
槍	-9.73455
續	-9.73455
不見了	-9.73455
觸	-9.73455
斷	-9.73456
推	-9.73456
▁masiaka	-9.73462
桌上	-9.73463
等待	-9.73468
洗臉	-9.73469
▁koroma	-9.73473
▁Mikongo	-9.73478
▁pania	-9.73487
▁rarima	-9.73487
以及	-9.73487
天氣	-9.73511
▁korai	-9.73515
▁nanara	-9.73525
apasorovai	-9.73533
▁nanto	-9.73533
牠們	-9.73555
▁pomanʉngʉ	-9.73584
▁ah	-9.7359
喝水	-9.73597
用餐	-9.73627
▁niaracakana	-9.73632
▁namasʉ	-9.73725
▁makisavangʉ	-9.73725
▁matʉa	-9.73732
▁ngiri	-9.73776
請給我	-9.73927
ke	-9.74072
髒	-9.7419
我們一起	-9.74236
anna	-9.74337
餐	-9.7434
voko	-9.74361
▁masakʉn	-9.74372
kiri	-9.74501
,"	-9.74849
is	-9.74903
kʉmʉnʉ	-9.74958
opa	-9.75036
二十	-9.75067
卡那卡那富族	-9.75094
的聲音	-9.75248
回家了	-9.75345
河	-9.75556
借給	-9.75605
其他	-9.75668
▁maciropo	-9.75718
的魚	-9.75727
ima	-9.75807
給我們	-9.75825
蛋	-9.75899
▁saa	-9.76243
apati	-9.76316
▁tiain	-9.76383
是學生	-9.76498
收藏	-9.7654
住在	-9.76544
cancan	-9.76569
kan	-9.76634
難過	-9.76667
oʉn	-9.76715
opo	-9.76954
很高	-9.76997
▁aracʉvʉrʉ	-9.77024
▁tini	-9.77098
男生	-9.77111
拿了	-9.77141
在家裡	-9.77161
tanamʉ	-9.77237
要做什麼	-9.77611
im	-9.77844
的錢	-9.77848
畫圖	-9.78265
▁makacarapong	-9.78359
oan	-9.78528
告訴他	-9.7866
io	-9.78886
個人	-9.78932
vici	-9.78956
說的話	-9.79197
逃走	-9.79349
豬肉	-9.79372
▁mana	-9.79507
見面	-9.79523
他很	-9.79525
ien	-9.7957
▁niarapipining	-9.79578
Ap	-9.79608
▁tacin	-9.79688
久	-9.79707
▁Malala	-9.79731
剛	-9.79935
詞	-9.79938
烤	-9.79973
音	-9.79984
臉	-9.79998
食	-9.8
提	-9.80001
附	-9.80005
電	-9.80007
4	-9.80009
神	-9.80011
搭	-9.80012
Sʉkaro	-9.80013
惡	-9.80013
藥	-9.80013
碗	-9.80013
Pasikarai	-9.80014
arasakai	-9.80014
▁Cakʉrʉ	-9.80014
▁Ukʉran	-9.80014
▁varanvana	-9.80014
尌	-9.80014
禁忌	-9.80014
Akoan	-9.80014
呀	-9.80014
兄弟姐妹	-9.80014
連	-9.80014
胖	-9.80014
▁maocʉng	-9.80014
影	-9.80014
▁mangtʉ	-9.80014
nopasʉ	-9.80014
室內	-9.80015
但願	-9.80016
餐具	-9.80016
mapʉnʉ	-9.80017
▁koacapa	-9.80019
同樣	-9.80021
ʉcana	-9.80022
▁nesa	-9.80026
中文	-9.80026
白色	-9.80028
▁rino	-9.80033
▁patimanʉngʉ	-9.8004
煮飯	-9.80056
▁omavica	-9.80057
葉子	-9.80062
小男孩	-9.80068
或者	-9.80078
▁avicin	-9.80088
araang	-9.80091
Uso	-9.80096
N	-9.80114
▁那個小孩	-9.80124
▁aromoanʉ	-9.80126
▁makaasoa	-9.80136
▁tavoo	-9.80239
▁tarakanangʉn	-9.80365
▁vʉʉn	-9.80366
▁sipo	-9.80422
拿出來	-9.80447
▁niarapipiningi	-9.80451
長大了	-9.80473
pori	-9.80526
於是	-9.80533
吃完	-9.80535
有時候	-9.80582
幾歲	-9.80583
▁sovongo	-9.80634
▁sinangʉ	-9.8067
部落的	-9.807
▁vʉrʉnga	-9.80795
很少	-9.8082
來到	-9.80935
▁aravari	-9.81556
的狗	-9.81574
的心	-9.81882
去看	-9.8201
不過	-9.82025
一起去	-9.8206
的學校	-9.82084
ʉraa	-9.82128
rapʉ	-9.82319
rapici	-9.82322
了很多	-9.82335
icʉpʉn	-9.82367
回來了	-9.8239
▁makari	-9.82487
兩個人	-9.82603
看過	-9.82674
結果	-9.82746
歌	-9.82942
的部落	-9.83345
K	-9.83354
cono	-9.83461
se	-9.83533
最好	-9.83848
後面	-9.83881
國家	-9.83915
也是	-9.83924
一個人	-9.83983
的日子	-9.84079
osa	-9.84437
Piori	-9.84527
cenana	-9.84735
tar	-9.84766
什麼時候	-9.84836
要用來	-9.84844
▁maramʉ	-9.84872
當時的	-9.84921
▁kʉkʉ	-9.85189
▁masin	-9.85479
cin	-9.85563
▁manoin	-9.85567
煮的	-9.85721
打開	-9.85789
你喜歡	-9.85888
你了	-9.86003
死	-9.86533
勤勞	-9.86567
有幾	-9.86584
我們都	-9.86697
待在	-9.86758
區	-9.86766
長大	-9.86772
通	-9.86785
祖母	-9.86811
apacʉvʉrʉ	-9.86853
替換	-9.86905
aromoan	-9.86909
背簍	-9.86946
cioman	-9.86955
害怕	-9.8697
0	-9.86983
藏	-9.86989
拔	-9.87001
獲得	-9.87012
張	-9.87013
長輩們	-9.87024
野	-9.87025
蛇	-9.87025
星星	-9.87027
河流	-9.87027
談	-9.87031
烏	-9.87032
句	-9.87033
捏	-9.87033
arasoromo	-9.87033
kamanʉʉng	-9.87033
ketootoro	-9.87033
▁Somokon	-9.87033
▁kacaraini	-9.87033
▁makenaan	-9.87033
▁nikamanʉnga	-9.87033
▁nikianara	-9.87033
▁seritong	-9.87033
▁sikaisisi	-9.87033
▁tennao	-9.87033
切	-9.87033
員	-9.87033
爬	-9.87033
追	-9.87033
6	-9.87034
蟲	-9.87034
Rangui	-9.87034
Sʉrʉp	-9.87034
ecoon	-9.87034
弄	-9.87034
Mikoong	-9.87034
▁mongka	-9.87034
欺騙	-9.87034
Akuan	-9.87034
▁manman	-9.87034
▁mariivari	-9.87034
▁ngoaci	-9.87035
▁mataatʉa	-9.87035
尤其	-9.87035
文字	-9.87036
戰爭	-9.87036
首領	-9.87036
親友	-9.87037
▁kesaco	-9.87038
20	-9.87038
保護	-9.87038
aceco	-9.87039
▁manʉkʉpai	-9.87039
日本	-9.8704
onting	-9.87042
放屁	-9.87044
arakacaoa	-9.87045
ʉrʉvʉ	-9.87045
▁maacaca	-9.87047
Uku	-9.87047
放置	-9.8705
▁nimaica	-9.87053
ototo	-9.87056
哪一個	-9.87059
▁totoroʉn	-9.8708
▁roco	-9.87085
▁misa	-9.87088
▁komakoro	-9.87109
▁maamia	-9.87113
再次	-9.87115
Uko	-9.87117
moovoa	-9.87156
omangʉ	-9.8717
anopo	-9.87204
位置	-9.87267
tanamaan	-9.87287
maripipining	-9.87299
▁nomanʉ	-9.87399
我們家	-9.87413
cocoa	-9.875
的事情	-9.87535
拿著	-9.87597
patara	-9.87601
▁capain	-9.87613
很熱	-9.87689
makangʉcʉ	-9.87761
atioma	-9.87819
coro	-9.87903
告訴你	-9.87929
▁我曾經	-9.87971
男	-9.87978
▁tam	-9.88124
還不	-9.8815
我的小孩	-9.88168
oto	-9.88257
開門	-9.88329
eh	-9.88335
coco	-9.88471
matikiri	-9.8877
rivi	-9.88939
▁maro	-9.89025
我們是	-9.89072
喜歡吃	-9.89222
的方式	-9.89375
▁matʉnʉsʉ	-9.89637
很喜歡	-9.89712
點鐘	-9.89962
arakicacʉ	-9.9001
我們會	-9.90122
ipi	-9.90185
▁tavaraʉ	-9.90211
▁cosa	-9.90368
▁maca	-9.90568
iko	-9.90884
▁maris	-9.91066
▁comaa	-9.91108
▁mocan	-9.9157
toko	-9.91909
真正的	-9.9194
射擊	-9.92114
怎麼說	-9.92123
故事	-9.92147
認識	-9.92297
▁matav	-9.92368
歲	-9.92523
不可以	-9.92526
夠了	-9.92603
acʉ	-9.92619
領	-9.92627
▁makariikari	-9.92688
av	-9.9271
ku	-9.92783
去哪裡	-9.92817
maan	-9.92936
▁kamanʉng	-9.9297
但是我	-9.93055
九	-9.93076
門	-9.93095
長的	-9.93098
ʉroon	-9.93125
要什麼時候	-9.93381
有帶	-9.93701
的朋友	-9.93818
▁vʉcʉk	-9.93844
小孩子	-9.93916
▁cim	-9.93933
▁moran	-9.93935
一天	-9.93991
累	-9.94015
▁cacan	-9.94158
吃什麼	-9.94174
▁okoso	-9.94283
驚	-9.94289
apakar	-9.94364
落	-9.94466
Si	-9.94493
掃	-9.9452
量	-9.94522
站	-9.94532
約	-9.94535
開心	-9.94544
意	-9.94549
骨	-9.94549
父	-9.94563
讀	-9.94567
箭	-9.94569
聞	-9.94572
布農族	-9.94577
油	-9.94577
餵	-9.94577
apasavoana	-9.94579
涼	-9.94581
母	-9.94582
阿里山	-9.94582
村	-9.94583
晃	-9.94583
圍	-9.94583
ariivatʉ	-9.94583
otomʉkʉnʉ	-9.94583
▁Kaosiong	-9.94583
▁Riao	-9.94583
▁horeco	-9.94583
▁maangasʉ	-9.94583
▁manaatʉrʉ	-9.94583
▁ropacʉ	-9.94583
▁tikiriim	-9.94583
攪拌	-9.94583
▁siasing	-9.94583
抵達	-9.94583
atipi	-9.94583
▁coongkoco	-9.94583
▁tangnga	-9.94583
啦	-9.94583
夥伴	-9.94583
懶惰	-9.94583
掛	-9.94583
閩南人	-9.94583
Riau	-9.94584
修理	-9.94584
戶	-9.94584
烏克蘭	-9.94584
法律	-9.94584
西瓜	-9.94585
覺得	-9.94585
旁邊	-9.94585
Nacʉnga	-9.94585
▁tapining	-9.94585
▁tokosaa	-9.94586
另外	-9.94586
▁nakʉvʉ	-9.94587
▁Taioan	-9.94588
決定	-9.94588
說說看	-9.94589
夏天	-9.94589
最近	-9.94608
前往	-9.94618
平地	-9.94637
▁matoon	-9.94638
anivi	-9.9465
▁koca	-9.94663
家屋	-9.94688
雨停了	-9.94689
▁macaca	-9.947
▁anani	-9.94754
家人	-9.94772
▁somasorovai	-9.94788
▁anisi	-9.94797
足夠	-9.94827
y	-9.94881
傳說	-9.94884
▁你剛才	-9.94919
了解	-9.95036
▁cʉmʉ	-9.9508
原來是	-9.95442
是我們	-9.95557
▁你知道	-9.95671
借我	-9.95708
▁marangʉ	-9.95738
▁maningcaao	-9.95794
▁meroovana	-9.95794
▁tav	-9.95828
角	-9.95943
▁nimara	-9.95957
有時	-9.96017
還不要	-9.96105
需要	-9.96138
在睡覺	-9.96205
▁你所	-9.96664
打了	-9.96938
我吃了	-9.9698
不同的	-9.97116
進去	-9.97459
夢	-9.97543
▁vanain	-9.97765
mosotopoko	-9.9777
我們的部落	-9.97822
para	-9.98228
很快	-9.98352
sima	-9.98391
我的朋友	-9.98544
要怎樣	-9.98728
的頭髮	-9.98764
從哪裡來	-9.98802
cancani	-9.98904
一半	-9.98942
現在有	-9.9895
看到了	-9.99193
你父親	-9.99225
我也要	-9.99268
所說的	-9.99346
要請你	-9.99516
坐在	-9.99831
的事	-9.99872
要讓	-9.9993
累了	-9.99955
singsing	-10.0012
對岸	-10.0051
▁Taipe	-10.0058
你會	-10.0064
很大的	-10.0096
出去玩	-10.0098
▁matas	-10.0116
我所	-10.0139
要來	-10.0144
piningi	-10.0175
atai	-10.0197
mat	-10.0212
解	-10.0215
未	-10.0247
經	-10.0253
的是什麼	-10.0256
醒	-10.0259
石	-10.0263
道	-10.0264
身	-10.0266
橡皮擦	-10.0266
▁kasakʉn	-10.0267
黑	-10.0269
然	-10.0269
暗	-10.027
忘記	-10.027
如	-10.027
亮	-10.0271
製	-10.0272
度	-10.0272
聚	-10.0273
tono	-10.0273
護	-10.0273
翻	-10.0274
ú	-10.0274
善	-10.0274
農	-10.0274
保	-10.0275
歷	-10.0275
準	-10.0275
瘦	-10.0275
Kanakanavu	-10.0275
撞	-10.0275
繩索	-10.0275
抬	-10.0275
那張椅子	-10.0275
amisan	-10.0275
▁mataangira	-10.0275
▁mirʉʉngʉcʉ	-10.0275
▁morovoarʉ	-10.0275
▁namanamarʉ	-10.0275
▁pookari	-10.0275
▁sovoong	-10.0275
▁tarakanaang	-10.0275
▁tavʉnʉvʉnʉ	-10.0275
擦	-10.0275
查	-10.0275
Lohok	-10.0275
破	-10.0275
Kurʉrʉ	-10.0275
安靜	-10.0275
忍	-10.0275
壓	-10.0275
這句話	-10.0275
稻米	-10.0275
不停的	-10.0275
▁naropo	-10.0275
表示	-10.0275
▁kʉkʉnʉa	-10.0275
犯錯	-10.0275
源自	-10.0276
單車	-10.0276
▁konco	-10.0276
▁ringai	-10.0276
看不到	-10.0276
▁tiniporo	-10.0276
進入	-10.0276
▁mamomoarʉ	-10.0277
▁tomatacoco	-10.0277
少女	-10.0277
然後	-10.0277
掉下來	-10.0277
Korʉrʉ	-10.0277
▁mangaringari	-10.0278
▁那個男人	-10.0278
擁有	-10.0278
▁posakiri	-10.0279
快點	-10.0279
畫畫	-10.028
▁moopara	-10.028
到達	-10.0281
住哪裡	-10.0281
▁matimanʉngʉ	-10.0281
不管	-10.0281
▁vara	-10.0282
收起來	-10.0282
身上	-10.0282
▁soka	-10.0284
▁marisinat	-10.0285
白天	-10.0287
ʉva	-10.029
asʉ	-10.0292
nannakʉ	-10.0294
小時	-10.0297
▁這是什麼	-10.0301
不行	-10.0302
koo	-10.0304
▁mitʉvʉngʉ	-10.0305
女子	-10.0307
手上	-10.0308
▁romarapʉ	-10.0309
Malala	-10.0311
認真	-10.032
還很	-10.032
Kai	-10.0322
叫做	-10.0323
▁cini	-10.0325
跟你	-10.0325
▁nipinaropo	-10.0328
tapari	-10.0337
riva	-10.0344
▁nikoro	-10.0355
你是	-10.0358
心裡	-10.0373
很快樂	-10.0378
的陷阱	-10.0404
有一天	-10.0407
eni	-10.0416
並沒有	-10.0418
ʉnʉvʉ	-10.0426
抓到	-10.0437
名稱	-10.0447
完成了	-10.0457
▁arivor	-10.0481
他們會	-10.0488
在外面	-10.0505
Nau	-10.0509
所謂	-10.0512
大的	-10.0519
▁poe	-10.052
▁pinaropo	-10.0523
代	-10.0529
oko	-10.0529
擊	-10.055
的故事	-10.0555
ocipia	-10.0559
在學校	-10.0574
acono	-10.0578
在那邊	-10.058
不在	-10.0608
耳朵	-10.0618
▁paracania	-10.0629
我想	-10.0636
是男生	-10.0654
▁iiko	-10.0695
inco	-10.0706
paca	-10.0716
tisa	-10.0723
了許多	-10.0745
apoca	-10.0754
vʉ	-10.0761
你若	-10.0791
這裡有	-10.0809
ono	-10.0818
有些	-10.0826
會唱歌	-10.0829
我們去	-10.0834
在下雨	-10.0844
一顆	-10.0859
ʉtʉa	-10.0874
tamo	-10.0942
清洗	-10.0948
路上	-10.0949
M	-10.0968
他的名字	-10.0982
儀式	-10.0991
會很高興	-10.1016
樣	-10.1023
tasa	-10.103
▁kipatʉsaa	-10.1032
嚇	-10.1033
寫的	-10.1043
▁masa	-10.105
雨傘	-10.1062
▁toki	-10.1065
▁nip	-10.1083
不用	-10.1091
事情	-10.1102
壞	-10.1114
果子	-10.1115
▁nikʉmʉ	-10.1115
intasʉ	-10.1117
生病	-10.1119
難	-10.1129
▁ocan	-10.1134
▁arisoson	-10.1138
法	-10.1145
常常	-10.1146
▁sika	-10.1147
拿出	-10.1147
趕	-10.1153
感	-10.1154
甜	-10.1156
入	-10.1158
cici	-10.116
運	-10.1161
警察	-10.1161
鼠	-10.1162
滾	-10.1162
洗澡	-10.1163
滑	-10.1163
袋	-10.1163
內	-10.1163
紅	-10.1164
集	-10.1164
硬	-10.1164
金	-10.1164
算	-10.1164
觀	-10.1164
您	-10.1164
料	-10.1164
香	-10.1164
官	-10.1164
牢	-10.1164
訓	-10.1164
耶	-10.1164
爾	-10.1164
矮	-10.1164
▁kooravi	-10.1164
Amis	-10.1164
Paromaci	-10.1164
amaacara	-10.1164
aviki	-10.1164
cikiiringa	-10.1164
́	-10.1164
▁Vanao	-10.1164
▁aracaini	-10.1164
▁kacangcangara	-10.1164
▁kinparaa	-10.1164
▁koravi	-10.1164
▁maciasʉ	-10.1164
▁matiananai	-10.1164
▁naraavarʉ	-10.1164
▁tanavikarʉ	-10.1164
▁tapoonia	-10.1164
▁timanʉʉn	-10.1164
▁tinakacicin	-10.1164
▁tʉvʉsʉ	-10.1164
座	-10.1164
熊	-10.1164
▁neesoa	-10.1164
吹鼻笛	-10.1164
滅	-10.1164
綁	-10.1164
Vanau	-10.1164
▁ikamo	-10.1164
itaroo	-10.1164
殼	-10.1164
任何	-10.1164
nimaroka	-10.1164
▁nimʉkʉa	-10.1164
池	-10.1164
復	-10.1164
▁savai	-10.1164
永遠	-10.1165
▁popoi	-10.1165
▁matanganai	-10.1165
miapacai	-10.1165
工寮	-10.1165
▁ringee	-10.1165
▁aratakarʉ	-10.1165
▁masiKanakanavo	-10.1165
犁田	-10.1165
加油	-10.1165
30	-10.1165
收割小米	-10.1165
李子	-10.1165
聚在一起	-10.1165
能夠	-10.1165
隨便	-10.1165
卡族人	-10.1165
比如	-10.1166
主動	-10.1166
mararoai	-10.1166
▁mocʉmcʉm	-10.1166
soroto	-10.1166
會被別人	-10.1166
趕快	-10.1166
▁你有幾個	-10.1167
小時候	-10.1167
▁nimomʉkʉ	-10.1167
取笑	-10.1167
可惜	-10.1167
由我來	-10.1167
天空	-10.1168
的說法	-10.1168
▁vava	-10.1169
▁maracocoa	-10.117
大約	-10.117
▁marisingsing	-10.117
▁mociri	-10.1171
都市	-10.1171
長者	-10.1171
對方	-10.1173
▁nimokʉrʉ	-10.1173
▁matakici	-10.1174
ponarʉ	-10.1174
apociri	-10.1174
稱為	-10.1175
出生	-10.1177
幾天	-10.1178
總是	-10.118
獵人	-10.1184
穿著	-10.1185
我們卡那卡那富人	-10.1186
▁這個小孩	-10.1187
我們的祖先	-10.1196
就這樣	-10.1197
到處	-10.1198
▁civo	-10.1202
是女生	-10.1207
那時	-10.1207
有空	-10.1222
maanava	-10.1222
都有	-10.1222
很漂亮	-10.1231
pacʉpʉnga	-10.1231
人家	-10.1232
cina	-10.1235
高興的	-10.125
的祖先	-10.1263
讓她	-10.1267
apari	-10.1287
▁avicio	-10.1288
▁mato	-10.1291
natanasa	-10.1292
我家	-10.1294
你已經	-10.1295
UU	-10.131
papa	-10.1315
avoa	-10.1319
▁nikos	-10.1341
你妹妹	-10.1375
kʉʉna	-10.1383
買的	-10.1392
Savoo	-10.1396
atʉnʉ	-10.1397
▁ano	-10.1437
▁tas	-10.1444
很遠	-10.1449
maco	-10.1452
coma	-10.1481
過的	-10.1485
不夠	-10.1492
我們今天	-10.1525
你的衣服	-10.1579
很長	-10.1586
日子	-10.1604
▁tak	-10.1609
很難過	-10.1653
▁nipoi	-10.1656
我要帶	-10.1656
Pii	-10.1671
真正	-10.1684
voʉn	-10.1695
▁我和	-10.1697
在讀書	-10.1702
本	-10.1738
raro	-10.1742
ʉnʉʉ	-10.1748
▁ravi	-10.1773
聲音	-10.1859
你的孩子	-10.186
▁pak	-10.1861
caca	-10.1889
去過	-10.1902
要做	-10.1906
你的朋友	-10.1915
▁ariviciʉ	-10.1943
因為我	-10.1945
我們卡那卡那富族	-10.1947
感謝	-10.1951
kʉpʉ	-10.1984
掉了	-10.1996
▁marʉ	-10.2006
逃	-10.2018
▁romara	-10.2045
都沒有	-10.2054
ingee	-10.2056
oroon	-10.206
▁takosʉr	-10.2066
濕	-10.2067
▁nik	-10.2067
ikacara	-10.2068
你去	-10.2082
除	-10.2088
kisapatʉ	-10.2102
請問	-10.2102
曾	-10.2104
í	-10.2112
樂	-10.2121
哪	-10.2121
要怎麼	-10.2124
aco	-10.2127
紅色	-10.2127
ivato	-10.2128
必	-10.2128
祖	-10.2131
▁kʉkʉna	-10.2131
vico	-10.2132
電視	-10.2133
兒	-10.2133
戴	-10.2134
望	-10.2134
同伴	-10.2136
活	-10.2136
首	-10.2137
肥	-10.2138
枝	-10.2138
林	-10.2138
夜	-10.2138
屬	-10.2139
轉	-10.2139
戰	-10.2139
片	-10.2139
不曉得	-10.214
耳	-10.214
舊	-10.214
責	-10.214
仔細	-10.214
細	-10.214
似	-10.214
個房間	-10.214
叫什麼名字	-10.214
政策	-10.214
梳	-10.214
甘	-10.214
賞	-10.214
鬼	-10.214
kangkoho	-10.2141
▁Tapocarake	-10.2141
▁Yencomin	-10.2141
▁kacangcangarʉn	-10.2141
▁kaniaromi	-10.2141
▁kocisinse	-10.2141
▁kongangaan	-10.2141
▁makarikari	-10.2141
▁masarʉnpʉ	-10.2141
▁mosotatoon	-10.2141
▁pacʉpʉcʉpʉʉng	-10.2141
▁pitʉpi	-10.2141
▁somasanai	-10.2141
▁somasorove	-10.2141
▁takacoocoa	-10.2141
▁tamcoronga	-10.2141
▁tavaacoko	-10.2141
▁vankavoka	-10.2141
▁vántoko	-10.2141
比賽跑步	-10.2141
▁kiokai	-10.2141
▁tacanomoa	-10.2141
雲	-10.2141
▁ararira	-10.2141
Sincyang	-10.2141
呼吸	-10.2141
孫	-10.2141
局	-10.2141
摸索	-10.2141
思念	-10.2141
協	-10.2141
太多了	-10.2141
穀倉	-10.2141
禮物	-10.2141
緊張	-10.2141
廣場	-10.2141
而且	-10.2141
味道	-10.2141
終於	-10.2141
▁nimosikarʉ	-10.2141
獸類	-10.2141
大概	-10.2141
農作	-10.2141
東	-10.2141
蓋章	-10.2141
標記	-10.2141
串起來	-10.2141
受傷	-10.2141
寫字	-10.2142
找尋	-10.2142
▁iisa	-10.2142
sinaang	-10.2142
10	-10.2142
射箭	-10.2142
樹葉	-10.2142
日本政府	-10.2142
機車	-10.2142
後代	-10.2143
何時	-10.2143
發音	-10.2143
長老們	-10.2143
完全	-10.2143
▁aramamanʉng	-10.2143
naomani	-10.2144
這本書	-10.2144
阿公	-10.2144
之間	-10.2144
令人	-10.2144
有關	-10.2145
▁ramangʉ	-10.2145
三位	-10.2146
▁seropaca	-10.2147
喝湯	-10.2147
▁cakʉrʉ	-10.2147
果樹	-10.2147
沒事	-10.2148
穿衣服	-10.2148
坐一下	-10.2148
長老	-10.2149
變得	-10.2149
生日	-10.2149
▁arʉʉn	-10.215
▁avico	-10.215
taira	-10.2151
作為	-10.2152
很開心	-10.2152
▁mopara	-10.2153
抱著	-10.2154
之地	-10.2155
▁mocimʉrʉ	-10.2156
▁sato	-10.2157
▁aratʉmʉ	-10.2162
▁kanaira	-10.2162
太陽出來了	-10.2163
siking	-10.2164
▁rarʉ	-10.2164
takici	-10.2171
那瑪夏區	-10.2173
未來	-10.2174
留下來	-10.2177
想想	-10.2179
教會	-10.2181
▁nikʉrʉ	-10.2181
▁man	-10.2183
會說	-10.2187
來自	-10.2196
pici	-10.2197
要使用的	-10.2198
有點	-10.22
的原因	-10.2203
▁aki	-10.2204
慢慢的	-10.2206
uva	-10.2207
ravoko	-10.222
▁maraang	-10.2221
pitʉ	-10.2224
好像在	-10.2236
▁vʉcʉkʉ	-10.2239
apakʉn	-10.2241
青蛙在	-10.2241
在路上	-10.2259
的玩具	-10.2263
Uma	-10.2266
第一	-10.2269
▁Ni	-10.2276
▁Ti	-10.2287
跟他	-10.2293
漂亮	-10.2319
美好	-10.2336
你家	-10.2356
▁comai	-10.2356
留在	-10.2364
的行為	-10.2381
什麼是	-10.2383
的家鄉	-10.2409
全部都	-10.2413
apoi	-10.2415
是因為	-10.242
poco	-10.2425
aramo	-10.2442
五個人	-10.2464
顆	-10.2482
akon	-10.2496
也可以	-10.2511
mane	-10.253
你們要	-10.2535
apana	-10.2539
讓你們	-10.2565
非常的	-10.2578
道路	-10.2594
所做的	-10.2595
看到你	-10.2595
anongo	-10.2601
那邊	-10.2601
老人家說	-10.2607
pepe	-10.2613
坐下	-10.2614
neni	-10.2614
▁tacocoo	-10.2633
去山上	-10.2642
san	-10.2647
anoka	-10.2652
▁aroo	-10.2674
我以前	-10.2708
isʉ	-10.2712
▁cʉpʉnga	-10.2713
▁nganain	-10.2735
niin	-10.2739
▁mocana	-10.2761
papin	-10.2761
不多	-10.2765
發生	-10.2777
結	-10.2778
capici	-10.2787
刷洗	-10.2791
我跟	-10.2802
apira	-10.2807
同學	-10.2834
告訴我們	-10.2845
opara	-10.2881
想到	-10.2883
話說	-10.2932
鋤頭	-10.2979
大多	-10.3018
▁comacap	-10.302
一起玩	-10.3087
sie	-10.3099
anci	-10.3114
我還沒	-10.3115
avono	-10.3127
apaca	-10.3148
慢慢	-10.315
晚餐	-10.3175
▁arao	-10.3176
前面	-10.3178
▁mit	-10.3182
的位置	-10.3187
▁nimos	-10.3187
情	-10.3188
ova	-10.319
求	-10.3192
木	-10.3195
總	-10.3202
主	-10.3203
父母	-10.3205
知	-10.3207
並不	-10.3209
民	-10.3209
市	-10.3214
躺	-10.3216
▁parakicacʉ	-10.3216
剩	-10.3219
安	-10.322
份	-10.3221
境	-10.3221
共	-10.3221
堅	-10.3221
品	-10.3221
舉	-10.3221
遺	-10.3221
即	-10.3222
迷	-10.3222
紙	-10.3222
esaco	-10.3222
繞	-10.3222
摘	-10.3222
治	-10.3222
騎	-10.3222
反	-10.3222
懷	-10.3222
pito	-10.3222
容	-10.3222
閒	-10.3222
習俗	-10.3222
插	-10.3222
低	-10.3222
葬	-10.3222
隱	-10.3222
堂	-10.3222
燙	-10.3222
基	-10.3222
沖	-10.3222
[	-10.3222
▁曾經或已經	-10.3222
倦	-10.3222
型	-10.3222
▁Ripoon	-10.3222
▁arivovoar	-10.3222
▁cikiringa	-10.3222
▁comacakʉpʉ	-10.3222
▁hetai	-10.3222
▁marivovoar	-10.3222
▁marʉkorakorapʉ	-10.3222
▁morongisaa	-10.3222
▁rorovana	-10.3222
▁siasʉpʉrʉ	-10.3222
▁vakatʉ	-10.3222
▁vovorong	-10.3222
並且	-10.3222
堆	-10.3222
恰	-10.3222
棒	-10.3222
盪鞦韆	-10.3222
]	-10.3222
▁nakʉʉnakʉ	-10.3222
▁savoana	-10.3222
撿拾	-10.3222
鐵	-10.3222
▁pʉrʉkʉ	-10.3222
搭火車	-10.3222
跌倒了	-10.3222
Puratu	-10.3222
▁nimangoro	-10.3222
▁nipira	-10.3222
制	-10.3222
生殖器	-10.3222
虎頭蜂	-10.3222
困擾	-10.3222
差	-10.3222
異	-10.3222
觀察	-10.3222
哇	-10.3222
▁kanaamara	-10.3222
啄木鳥	-10.3222
稻穀	-10.3222
▁kisoo	-10.3222
格	-10.3222
▁mariingona	-10.3222
小矮人	-10.3222
弓箭	-10.3222
撈網	-10.3222
消失	-10.3222
游	-10.3222
引	-10.3222
kensa	-10.3222
這麼多	-10.3222
藍色	-10.3222
道歉	-10.3223
▁niparia	-10.3223
屋頂	-10.3223
尊重	-10.3223
平坦	-10.3223
樣貌	-10.3223
信件	-10.3223
困苦	-10.3223
季節	-10.3223
後悔	-10.3223
▁tomataini	-10.3223
病毒	-10.3223
提醒	-10.3223
問題	-10.3223
傷害	-10.3223
流血	-10.3223
▁imʉʉn	-10.3223
▁potocao	-10.3223
戴帽子	-10.3223
現代	-10.3223
▁mareen	-10.3223
代表	-10.3223
40	-10.3223
屬於	-10.3224
抓癢	-10.3224
冬天	-10.3224
▁vakʉrʉ	-10.3224
整理	-10.3224
▁niarisinatʉ	-10.3224
書本	-10.3224
▁nimatapari	-10.3224
▁niarakaranana	-10.3225
▁omavici	-10.3225
▁那個女人	-10.3225
▁okosao	-10.3225
分配	-10.3225
底下	-10.3225
海鳥	-10.3226
進行	-10.3226
▁wang	-10.3226
馬上	-10.3227
以往	-10.3227
上鎖	-10.3227
那隻狗	-10.3228
ʉnʉvoo	-10.3228
漢人	-10.3228
你是不是	-10.3228
▁cʉpʉngin	-10.3228
mó	-10.3229
到底	-10.3229
坐坐	-10.3229
ararakao	-10.3229
▁nikʉna	-10.323
三個	-10.323
小便	-10.323
下方	-10.3231
▁就那樣	-10.3231
Umau	-10.3231
▁maritanamʉ	-10.3232
趕上	-10.3232
心情	-10.3233
大便	-10.3233
▁maroka	-10.3234
本來	-10.3235
感到	-10.3235
canicani	-10.3235
包起來	-10.3235
成長	-10.3236
apʉ	-10.3236
從前	-10.3236
你的背簍	-10.3236
醒來	-10.3237
才不會	-10.3237
大聲	-10.3238
這位	-10.3238
▁nikara	-10.3238
小鳥	-10.3239
妳們	-10.3239
超過	-10.324
peni	-10.3242
方便	-10.3243
地名	-10.3243
受到	-10.3244
跟上	-10.3245
▁我常常	-10.3247
一個一個	-10.3249
掉到	-10.3249
kaca	-10.3251
hang	-10.3251
Panayi	-10.3251
我要請他	-10.3255
記得	-10.3259
因為他	-10.3263
amo	-10.3268
Nanʉmʉ	-10.3269
▁cokanang	-10.3272
▁我的狗	-10.3277
▁mamaan	-10.3277
▁tani	-10.3277
▁我還沒有	-10.3278
家園	-10.3279
▁voro	-10.328
生病了	-10.3284
找到了	-10.3287
回答說	-10.3288
稻田	-10.3293
馬路	-10.3293
我要用來	-10.3297
▁pakisia	-10.3302
▁tanasamo	-10.3303
命名	-10.3308
kio	-10.3319
會答應	-10.3319
▁現在是	-10.3328
iporo	-10.3329
餓了	-10.3329
▁Tai	-10.3333
滿了	-10.3337
▁mava	-10.3338
帶雨傘	-10.3349
幾位	-10.3363
▁我們如果	-10.3364
▁noca	-10.337
soi	-10.338
▁parai	-10.3384
pao	-10.3387
icʉpa	-10.3394
▁pacʉpʉngʉn	-10.3407
▁kesoniʉn	-10.341
ikia	-10.3418
今天晚上	-10.3422
部落裡	-10.3424
事件	-10.3429
感謝你	-10.3438
吃飯了	-10.3438
的儀式	-10.3439
的照片	-10.3444
躲	-10.3447
cia	-10.3456
你要去哪裡	-10.3465
去你家	-10.3471
▁nimon	-10.3473
吃地瓜	-10.3474
是什麼東西	-10.3499
我的書	-10.3511
要讓你	-10.3525
▁niari	-10.3532
去跟	-10.3553
▁我們在	-10.3565
可以用	-10.3566
這就是	-10.3589
懂	-10.3615
還給	-10.3623
▁nenen	-10.3643
ikarʉ	-10.3656
apacangcangarʉ	-10.3659
各種	-10.3669
arivari	-10.3695
▁niposo	-10.371
原因	-10.3711
魚蝦	-10.3742
nmana	-10.3752
先走	-10.3779
頭髮	-10.3784
用力	-10.3809
▁nimor	-10.381
沒來	-10.3818
kanomani	-10.3821
itʉ	-10.3831
ripi	-10.3834
藏起來	-10.3843
工作了	-10.3849
捕魚	-10.3889
如果我們	-10.3916
Un	-10.394
空	-10.3944
知識	-10.3944
族語	-10.3947
▁comac	-10.3979
是老師	-10.3991
tavarʉ	-10.3991
ngoai	-10.3997
是原住民	-10.4001
masinang	-10.4011
▁niarivo	-10.4011
現在的	-10.4018
去幫忙	-10.4025
avicia	-10.4028
名為	-10.403
kʉnʉa	-10.4052
▁tacoco	-10.4061
cio	-10.4095
的眼睛	-10.4106
的腳	-10.4129
那條	-10.4132
走吧	-10.4139
masʉ	-10.4166
▁parʉ	-10.4173
的名稱	-10.418
想起	-10.4192
uru	-10.4201
的角	-10.4203
吃晚餐	-10.4213
▁nipati	-10.4215
傘	-10.4244
數數	-10.4246
vʉra	-10.4246
給別人	-10.4248
這樣的	-10.4301
▁koro	-10.4317
asʉngʉ	-10.4317
你在哪裡	-10.4331
網	-10.4336
現在就	-10.4343
tapasʉ	-10.435
▁這是第	-10.4359
認	-10.4364
iarakokon	-10.4367
▁aracakan	-10.4367
好啊	-10.4375
盤	-10.4375
atii	-10.4379
的意思	-10.4386
留下	-10.4394
是卡那卡那富族	-10.44
這是我	-10.4404
試	-10.4422
有兩個	-10.4424
罵	-10.4425
何	-10.4427
飽	-10.4428
ó	-10.4429
▁maritarʉ	-10.443
瓜	-10.4431
置	-10.4432
koracʉ	-10.4432
撿	-10.4432
miseni	-10.4432
頂	-10.4433
▁porangrang	-10.4433
交	-10.4433
傷	-10.4433
視	-10.4434
癢	-10.4434
統	-10.4434
麵	-10.4434
星	-10.4434
血	-10.4435
妹	-10.4435
識	-10.4435
考	-10.4435
設	-10.4435
慢	-10.4435
胸	-10.4435
犯	-10.4435
造	-10.4435
圈	-10.4435
服	-10.4435
敬	-10.4435
擔心	-10.4435
院	-10.4435
倉	-10.4435
承	-10.4435
持	-10.4436
守	-10.4436
牆	-10.4436
擔任	-10.4436
飛來飛去	-10.4436
摩托車	-10.4436
畫眉鳥	-10.4436
初	-10.4436
敢	-10.4436
大巨人	-10.4436
=	-10.4436
apatoporo	-10.4436
apiniipini	-10.4436
aporangrang	-10.4436
kamanoomano	-10.4436
mangariingari	-10.4436
morovakʉ	-10.4436
sapaaniri	-10.4436
soroosoro	-10.4436
tangtang	-10.4436
▁Tapcarake	-10.4436
▁kamanomano	-10.4436
▁makʉkʉang	-10.4436
▁matárava	-10.4436
▁ranʉʉng	-10.4436
▁ravatovatoa	-10.4436
▁taihio	-10.4436
▁tanatʉnga	-10.4436
▁tarasinʉva	-10.4436
▁tenki	-10.4436
一個麻糬	-10.4436
借自日語	-10.4436
混	-10.4436
渴	-10.4436
講髒話	-10.4436
▁aririan	-10.4436
▁capoko	-10.4436
▁paamoci	-10.4436
▁tʉtan	-10.4436
們昨天去	-10.4436
冰	-10.4436
危險	-10.4436
呼喊	-10.4436
急	-10.4436
攤	-10.4436
暫	-10.4436
震	-10.4436
Cimseeng	-10.4436
▁makinai	-10.4436
▁rinko	-10.4436
千	-10.4436
臭	-10.4436
▁marisinao	-10.4436
▁nikamanʉngʉ	-10.4436
塊	-10.4436
太重了	-10.4436
看得出來	-10.4436
聽不懂	-10.4436
蒼	-10.4436
項	-10.4436
劈柴	-10.4436
木柴	-10.4436
狀	-10.4436
遊戲	-10.4436
▁maporai	-10.4436
精	-10.4436
鹹	-10.4436
▁navatʉ	-10.4436
瑪雅里	-10.4436
胡	-10.4436
▁taraparasʉ	-10.4436
立刻	-10.4436
Uangʉ	-10.4436
▁ravai	-10.4436
嘗試	-10.4436
▁tonco	-10.4436
騎腳踏車	-10.4436
▁matianai	-10.4436
▁citai	-10.4436
▁moonanga	-10.4436
▁kompa	-10.4436
停止	-10.4436
教育	-10.4436
ocaang	-10.4436
的上方	-10.4436
▁mosovakʉrʉ	-10.4436
零錢	-10.4436
▁matacovongo	-10.4436
▁vanara	-10.4436
100	-10.4436
▁namnam	-10.4436
▁nimikia	-10.4436
加入	-10.4436
爭取	-10.4437
翻面	-10.4437
物品	-10.4437
埔	-10.4437
▁tasinʉva	-10.4437
▁matoporo	-10.4437
達成	-10.4437
飛鼠	-10.4437
想念	-10.4437
▁ngʉco	-10.4437
同意	-10.4437
附近	-10.4437
在石頭上	-10.4437
接受	-10.4438
apacovongo	-10.4438
趕鳥	-10.4438
發亮	-10.4438
▁matatʉricang	-10.4438
mepacai	-10.4438
▁nanamo	-10.4438
▁tinitoro	-10.4438
這隻狗	-10.4439
▁kicancan	-10.4439
▁pasicʉp	-10.4439
那個時候	-10.4439
▁tomi	-10.4439
那本書	-10.4439
認為	-10.4439
▁tasiarʉ	-10.4439
拔草	-10.444
ʉrʉcan	-10.444
▁kasakʉnʉʉn	-10.444
相信	-10.444
mariposiam	-10.444
剩下	-10.444
桃子	-10.444
鳥類	-10.444
稻子	-10.444
▁mapari	-10.4441
骨頭	-10.4441
sʉpatʉ	-10.4441
吃吃看	-10.4441
簍子	-10.4442
躺著	-10.4442
是紅色的	-10.4443
▁caroro	-10.4444
小溪	-10.4445
花園	-10.4445
同一個	-10.4445
看電視	-10.4445
▁miacicini	-10.4446
我們的長輩們	-10.4446
▁這是誰的	-10.4446
想想看	-10.4446
▁後來	-10.4446
這隻	-10.4446
放哪裡	-10.4446
nparo	-10.4447
睏了	-10.4447
一家人	-10.4447
人民	-10.4447
▁kʉʉnʉn	-10.4448
發出	-10.4449
以為	-10.445
▁osia	-10.4451
▁ococo	-10.4453
▁topara	-10.4453
這些話	-10.4453
很美麗	-10.4455
▁kiatoro	-10.4456
家族	-10.4458
男子	-10.4458
名叫	-10.4459
我要喝	-10.446
喜歡的是	-10.4462
▁vanga	-10.4462
告訴你們	-10.4463
族人們	-10.4463
▁karananana	-10.4465
跟他說	-10.4466
待	-10.4469
吃了什麼	-10.4474
第	-10.4477
▁king	-10.4477
▁macoro	-10.4478
找到	-10.4479
進來	-10.4485
走走	-10.4486
不好看	-10.4491
請教	-10.4491
▁ʉrʉna	-10.4492
回來的時候	-10.4494
會說族語	-10.4496
koocici	-10.4497
除了	-10.4499
失去	-10.4501
▁mivo	-10.4506
kora	-10.4508
要不要	-10.4527
▁pocanomo	-10.4529
▁pacʉpʉcʉpʉngʉn	-10.453
▁takosʉrʉ	-10.453
對著	-10.453
▁mota	-10.4536
丟掉	-10.4538
▁masiʉn	-10.4539
imi	-10.4546
書寫	-10.4549
maningcaoana	-10.4551
cipi	-10.4555
跟我說	-10.4564
種子	-10.4567
來吃	-10.4573
沒有人會	-10.4573
可怕	-10.4579
我忘了	-10.4585
▁tarʉ	-10.459
看起來很	-10.4594
▁tino	-10.4596
將要	-10.4599
是一個	-10.4612
sʉng	-10.4612
老了	-10.4621
mʉcʉ	-10.4627
▁Ma	-10.4628
rʉmʉcʉ	-10.465
apatiman	-10.4651
ʉnʉʉn	-10.4675
怎麼會	-10.4684
▁vi	-10.4693
比較大	-10.4698
kara	-10.4703
好多	-10.4712
kirikiri	-10.4712
的原住民	-10.472
的相處	-10.472
ngoa	-10.473
是那樣	-10.4733
是我的老師	-10.4735
▁nec	-10.4742
ʉraon	-10.475
我要把	-10.4763
▁去給	-10.479
的嘴巴	-10.4816
他的話	-10.4836
我的孩子	-10.4839
▁soma	-10.4843
是這樣	-10.4863
▁matʉ	-10.4876
▁tikirima	-10.4881
patiropang	-10.489
好像很	-10.4912
▁paici	-10.4914
要小心	-10.4951
tomoro	-10.4952
atʉ	-10.4963
所以我們	-10.4966
我們可以	-10.4986
▁romar	-10.5007
ping	-10.5009
cʉʉn	-10.5035
的花	-10.5052
▁komak	-10.5057
mʉkʉ	-10.5064
好看	-10.5093
要如何	-10.5109
apoiri	-10.5117
是醫生	-10.5121
天氣如何	-10.5126
去打獵	-10.5131
你拿	-10.5164
▁manas	-10.5181
字	-10.5217
很快就	-10.5223
的耳朵	-10.5246
會被	-10.5252
▁nimariv	-10.5262
河裡	-10.5278
▁mosocara	-10.5284
或是	-10.5327
抓了	-10.5346
vu	-10.5351
是從	-10.5378
時代	-10.5384
apasorov	-10.5389
只能	-10.54
輕	-10.5408
aree	-10.541
▁mee	-10.5429
▁我知道	-10.5455
paraposo	-10.5455
也沒有	-10.5467
說出	-10.5483
我叫	-10.5484
我沒有在	-10.5487
留	-10.5498
她是我的	-10.5511
力氣	-10.553
照片	-10.5537
▁orano	-10.5538
件	-10.5541
▁potovʉrʉkʉ	-10.5556
很久沒	-10.5557
不在家	-10.5575
potokikio	-10.5583
cʉkʉ	-10.5591
就把	-10.5593
那你	-10.5594
karanana	-10.5606
時候	-10.5616
mamanʉng	-10.5618
manmaan	-10.5621
camai	-10.5628
ramoco	-10.5636
放進	-10.5667
熱了	-10.5673
在樹上	-10.5678
aram	-10.5684
▁noman	-10.5691
小山豬	-10.5699
河邊	-10.5705
謝謝你	-10.573
人數	-10.5736
的香蕉	-10.5741
▁sinat	-10.5746
給你的	-10.5746
iva	-10.5771
說族語	-10.5773
▁nimiarana	-10.5776
都可以	-10.5777
是你的	-10.5782
知道你	-10.5785
印	-10.5792
蒸	-10.5799
多久	-10.5801
支	-10.5803
aropa	-10.5804
杯	-10.5804
達	-10.5804
水裡	-10.5806
課	-10.5808
pepacai	-10.5809
懷念	-10.5809
那棵樹	-10.581
靠	-10.5811
具	-10.5812
騙	-10.5812
青	-10.5813
文	-10.5813
割	-10.5813
配	-10.5813
醫	-10.5814
matangiri	-10.5814
卡	-10.5814
這首歌	-10.5814
式	-10.5815
僅	-10.5815
黃	-10.5815
替	-10.5815
用右手	-10.5815
寶	-10.5815
單	-10.5815
標	-10.5816
怪	-10.5816
童	-10.5816
義	-10.5816
在玩耍	-10.5816
藤	-10.5816
遷	-10.5816
南	-10.5816
左	-10.5816
採	-10.5816
溫	-10.5816
編	-10.5816
練	-10.5816
習慣	-10.5816
Rapinia	-10.5816
吵	-10.5816
寬	-10.5816
負	-10.5817
扛	-10.5817
排灣族	-10.5817
枯	-10.5817
吃午餐	-10.5817
▁你昨天	-10.5817
炒	-10.5817
說錯話	-10.5817
斜	-10.5817
鹽	-10.5817
富	-10.5817
盪	-10.5817
Namásia	-10.5817
Racʉnga	-10.5817
angiirisi	-10.5817
anmanʉn	-10.5817
kisiikisi	-10.5817
▁Cienpocai	-10.5817
▁araciasʉ	-10.5817
▁cingcing	-10.5817
▁iávato	-10.5817
▁kangangaan	-10.5817
▁kincaoa	-10.5817
▁kinvara	-10.5817
▁makásoa	-10.5817
▁mamiriki	-10.5817
▁mamʉmʉkʉ	-10.5817
▁mingangane	-10.5817
▁mocoongkoco	-10.5817
▁mʉʉrʉpʉ	-10.5817
▁niimʉka	-10.5817
▁nikamanoa	-10.5817
▁nikamanomano	-10.5817
▁nimatikoro	-10.5817
▁pakʉnnaan	-10.5817
▁paritaangsoa	-10.5817
▁rakicacʉ	-10.5817
▁ringking	-10.5817
▁seevoa	-10.5817
▁somasopina	-10.5817
▁timanʉn	-10.5817
▁vʉrʉʉngana	-10.5817
去台北	-10.5817
板	-10.5817
蓋棉被	-10.5817
註	-10.5817
豐富	-10.5817
Arisaan	-10.5817
Nakasaiana	-10.5817
▁kovocʉrʉkʉ	-10.5817
▁totanpo	-10.5817
▁taangsoa	-10.5817
9	-10.5817
族群	-10.5817
浪費	-10.5817
蜜蜂	-10.5817
▁momʉnʉ	-10.5817
▁porato	-10.5817
吊	-10.5817
折	-10.5817
極	-10.5817
聽得懂	-10.5817
moseen	-10.5817
ʉmʉca	-10.5817
的圍裙	-10.5817
▁sʉpʉroo	-10.5817
灶	-10.5817
Wusay	-10.5817
牲	-10.5817
睡著了	-10.5817
則	-10.5817
▁iovoto	-10.5817
姑婆芋	-10.5817
英文	-10.5817
tacau	-10.5817
▁pasavoana	-10.5817
打噴嚏	-10.5817
致謝	-10.5817
拖拉	-10.5817
默	-10.5817
▁koosiao	-10.5817
排隊	-10.5817
貴	-10.5817
木材	-10.5817
皮革	-10.5817
kisikisi	-10.5817
思考	-10.5817
找找看	-10.5817
野獸	-10.5817
▁sarai	-10.5817
糖果	-10.5817
收割稻米	-10.5817
南瓜	-10.5817
試試	-10.5817
iivari	-10.5817
▁tasini	-10.5817
▁sinirovai	-10.5817
總共	-10.5817
周邊	-10.5817
▁cʉngnan	-10.5817
表達	-10.5817
▁atʉnʉngʉ	-10.5817
未曾	-10.5817
▁maritakarʉ	-10.5817
在海上	-10.5817
業	-10.5817
avoran	-10.5817
立即	-10.5817
靠近	-10.5817
平安	-10.5817
酒醉	-10.5818
女兒	-10.5818
▁maringona	-10.5818
早安	-10.5818
▁porai	-10.5818
夜晚	-10.5818
▁天亮	-10.5818
這件	-10.5818
aparomoan	-10.5818
50	-10.5818
河祭	-10.5818
交換	-10.5819
愛護	-10.5819
放在桌上	-10.5819
每個人	-10.5819
下次	-10.5819
說真話	-10.5819
▁masiraro	-10.5819
▁riong	-10.5819
第一次	-10.5819
▁comin	-10.582
兩隻	-10.582
參與	-10.582
直接	-10.582
黑色的衣服	-10.582
要用什麼	-10.582
籃子	-10.582
為何	-10.5821
灑水	-10.5821
小鋤頭	-10.5821
拉直	-10.5821
長度	-10.5822
apocanom	-10.5822
▁kanaasia	-10.5823
▁請告訴我們	-10.5823
立起來	-10.5824
整個	-10.5825
▁socok	-10.5825
▁soto	-10.5825
我們的語言	-10.5825
地區	-10.5825
望著	-10.5825
還需要	-10.5826
▁arisinatʉn	-10.5827
再見	-10.5827
▁tomʉkʉ	-10.5828
▁kakana	-10.5828
七天	-10.5829
休息一下	-10.583
每年	-10.583
求婚	-10.583
很甜	-10.5831
▁mataangiri	-10.5831
重做	-10.5833
有些人	-10.5833
▁kangani	-10.5834
▁nipoiri	-10.5835
▁mavangʉ	-10.5836
▁romarʉn	-10.5836
那樣的話	-10.5837
▁kʉno	-10.5837
看見	-10.5838
就是那樣	-10.5839
比較高	-10.584
成年	-10.584
mʉkʉn	-10.5841
做成	-10.5841
你要買	-10.5841
去教會	-10.5841
生長	-10.5841
歲了	-10.5844
對話	-10.5846
▁parakicacʉn	-10.585
很好聽	-10.5851
▁mororo	-10.5851
樹下	-10.5854
說故事	-10.5857
天黑了	-10.5859
他的手	-10.5864
多年	-10.5867
▁我父親	-10.5869
▁sikarain	-10.5869
也就是	-10.587
地上	-10.587
人間	-10.5872
頭上	-10.5873
那種	-10.5878
可以用來	-10.5879
刷	-10.5885
▁ocaniava	-10.5885
很好吃	-10.5894
▁omaan	-10.5895
▁如果你們	-10.5898
▁pokariʉn	-10.5899
得到	-10.5907
去睡覺	-10.5909
喜歡讀書	-10.591
▁mamanʉngana	-10.591
沒看到	-10.5913
的道路	-10.5917
死了	-10.5919
▁老師說	-10.5919
ehoa	-10.592
pocoa	-10.5932
我們還要	-10.5934
mano	-10.5935
可是	-10.5935
▁我明天	-10.5936
乾了	-10.5937
rʉngc	-10.5949
不要讓他	-10.5949
▁你喝	-10.5953
▁matikoroa	-10.5959
kʉnʉʉn	-10.596
aaka	-10.5961
男的	-10.5965
▁Kao	-10.5967
oia	-10.5981
經常會	-10.5981
現在已經	-10.5987
跟你一起	-10.5991
我剛剛	-10.5993
我知道你	-10.5993
▁我們已經	-10.5997
一把	-10.5999
我們明天	-10.6007
roiri	-10.6009
十歲	-10.6013
▁如果他	-10.6018
說出來	-10.6021
請她	-10.6031
我不喜歡	-10.604
aroa	-10.6046
▁vʉrʉk	-10.6053
不怕	-10.6059
akoa	-10.6062
到外面	-10.6068
▁kamanʉngʉn	-10.6103
走過	-10.6107
自己做	-10.6108
跟他們	-10.611
▁tavo	-10.6119
nanoin	-10.6139
原來這	-10.6141
女的	-10.6146
過去的	-10.6156
不認識	-10.6166
不再	-10.6172
帶領	-10.6196
的手	-10.6208
▁romari	-10.6245
apasorovoo	-10.6259
吃掉	-10.6282
幫我們	-10.6283
草叢	-10.6285
下去	-10.6287
▁matican	-10.6296
▁我把	-10.6297
第二	-10.6308
▁arakorac	-10.6314
給她	-10.6314
▁tanas	-10.6341
▁niat	-10.6348
arivici	-10.6355
大家一起	-10.6361
▁ravis	-10.6361
的知識	-10.6413
patikiri	-10.647
arU	-10.647
帶走	-10.6487
沒有人要	-10.6499
我的帽子	-10.6499
半	-10.651
去接	-10.6515
▁niavici	-10.6557
moto	-10.6579
家鄉的	-10.6592
來幫忙	-10.66
說完	-10.6616
▁komako	-10.6619
ngiri	-10.6627
ʉroo	-10.6637
吃早餐	-10.6667
noka	-10.6697
mosokʉm	-10.6718
pono	-10.6747
懂的	-10.6758
kanano	-10.677
ʉcaniin	-10.6798
對你	-10.6828
來找	-10.683
▁So	-10.6866
▁aris	-10.6869
帶到	-10.6899
▁kʉ	-10.6905
漂亮的	-10.6918
在那瑪夏	-10.6924
▁macangcangara	-10.6927
部落的人	-10.6977
▁tapo	-10.6981
aparisina	-10.6984
會下雨	-10.6991
射的	-10.7031
mac	-10.7044
不要忘記	-10.706
另一	-10.7069
sanivari	-10.7079
一支	-10.7079
躲在	-10.7085
apariv	-10.7088
若不	-10.7108
那就	-10.7125
再給我	-10.7126
某事	-10.7128
朋友們	-10.7136
▁若要	-10.7148
會洗衣服	-10.7156
sinatʉ	-10.717
▁matipori	-10.7177
夠	-10.7191
怎麼樣	-10.7207
我就不	-10.7218
tanasa	-10.7236
▁sinang	-10.7255
滿意	-10.7258
的生命	-10.7262
是個	-10.7269
跟我們	-10.7272
pʉngʉ	-10.7282
居	-10.7304
遇	-10.7324
土	-10.7345
▁maritapas	-10.7346
▁totasiar	-10.7346
▁makisavang	-10.7349
會做	-10.7349
忘	-10.7369
會很快	-10.7369
最喜歡	-10.737
▁komakʉn	-10.7372
Panay	-10.7375
天黑	-10.7379
▁voton	-10.7382
angici	-10.7389
超	-10.7392
哪些	-10.7395
屋	-10.7395
本書	-10.7402
葉	-10.7404
底	-10.7405
論	-10.7406
管	-10.7406
故鄉	-10.741
衣	-10.7411
鎖	-10.7411
許	-10.7411
Mikong	-10.7413
蝦子	-10.7413
飾	-10.7414
候	-10.7415
苗	-10.7416
源	-10.7416
較	-10.7416
吐	-10.7417
優	-10.7417
豆	-10.7417
獲	-10.7417
應	-10.7417
比特幣	-10.7417
米貢	-10.7417
是黑色的	-10.7417
拍	-10.7417
釀	-10.7417
化	-10.7417
哪個	-10.7417
一群	-10.7418
圖	-10.7418
犁	-10.7418
爭	-10.7418
典	-10.7418
淚	-10.7418
建	-10.7418
福	-10.7418
群	-10.7418
搗	-10.7418
西	-10.7418
雙	-10.7418
祈	-10.7419
弓	-10.7419
攪	-10.7419
室	-10.7419
黑色	-10.7419
專	-10.7419
我們兩人	-10.7419
一直在	-10.7419
越來越	-10.7419
規	-10.7419
平埔族	-10.7419
的權利	-10.7419
怒	-10.7419
利	-10.7419
巴	-10.7419
號	-10.7419
慶祝	-10.7419
課本	-10.7419
▁2022	-10.7419
巢	-10.7419
彎	-10.7419
權	-10.7419
的關係	-10.7419
散	-10.7419
百步蛇	-10.7419
減	-10.7419
茄	-10.7419
糠	-10.7419
閃	-10.7419
稍	-10.7419
一頭牛	-10.7419
煩	-10.7419
健	-10.7419
喉	-10.7419
巾	-10.7419
擺	-10.7419
染	-10.7419
羞	-10.7419
針	-10.7419
阿美族	-10.7419
鼓掌	-10.7419
用左手	-10.7419
臟	-10.7419
誠	-10.7419
aparanʉpʉ	-10.7419
aparapining	-10.7419
misama	-10.7419
pareekava	-10.7419
ʉtʉmʉkʉnʉ	-10.7419
▁Kasanpo	-10.7419
▁Nakasayana	-10.7419
▁Siaopo	-10.7419
▁Wosay	-10.7419
▁hikoki	-10.7419
▁kaptaan	-10.7419
▁karaakasoa	-10.7419
▁makacapʉʉcapʉ	-10.7419
▁mamíriki	-10.7419
▁manatʉrʉ	-10.7419
▁marivivici	-10.7419
▁nangira	-10.7419
▁nikipatʉsʉ	-10.7419
▁nimararopang	-10.7419
▁nipaamoci	-10.7419
▁pangtan	-10.7419
▁parivotookoro	-10.7419
▁poraropo	-10.7419
▁ratakʉ	-10.7419
▁romaravisi	-10.7419
▁secʉvʉrʉ	-10.7419
▁seritoong	-10.7419
▁taningninga	-10.7419
▁tapikoopiko	-10.7419
▁tikami	-10.7419
▁votúkoro	-10.7419
▁ímoa	-10.7419
厚	-10.7419
圓	-10.7419
幼	-10.7419
是你爸爸	-10.7419
有話要說	-10.7419
杵	-10.7419
淺	-10.7419
煙	-10.7419
要珍惜	-10.7419
載	-10.7419
這張桌子很重	-10.7419
酸	-10.7419
kireng	-10.7419
▁maimʉʉn	-10.7419
▁sipatotoro	-10.7419
▁takoacapa	-10.7419
招	-10.7419
給醫生看	-10.7419
▁katatanasa	-10.7419
▁marisoacʉ	-10.7419
▁nipatangana	-10.7419
▁piacapa	-10.7419
▁老鷹去問	-10.7419
分享給	-10.7419
獨角仙	-10.7419
畢業	-10.7419
緩	-10.7419
聽聽看	-10.7419
隆	-10.7419
▁takʉrʉma	-10.7419
菜的種籽	-10.7419
▁topooroa	-10.7419
所有的人都	-10.7419
在前頭	-10.7419
誤	-10.7419
商店	-10.7419
apivatoo	-10.7419
▁tangsoa	-10.7419
▁taraakosa	-10.7419
愈來愈	-10.7419
的貓是黑色的	-10.7419
▁kovangvangʉʉn	-10.7419
tancani	-10.7419
▁pacacʉʉn	-10.7419
撒	-10.7419
沉	-10.7419
▁konamʉ	-10.7419
的場所	-10.7419
▁taocʉng	-10.7419
太長了	-10.7419
的叫聲	-10.7419
規勸	-10.7419
尊敬	-10.7419
ramisi	-10.7419
烏龜	-10.7419
選	-10.7419
otini	-10.7419
增加	-10.7419
仍然	-10.7419
▁takopiriipiri	-10.7419
很晚了	-10.7419
Losin	-10.7419
tarimo	-10.7419
禁止	-10.7419
禮拜	-10.7419
▁vavoni	-10.7419
▁porasi	-10.7419
泰雅族	-10.7419
適合	-10.7419
反抗	-10.7419
開墾	-10.742
採摘	-10.742
米粒	-10.742
絲線	-10.742
絕對不	-10.742
考試	-10.742
翻攪	-10.742
ngʉtʉn	-10.742
綠色	-10.742
搭公車	-10.742
▁Umas	-10.742
柴火	-10.742
計算	-10.742
黃金	-10.742
擾亂	-10.742
▁koaping	-10.742
壞掉了	-10.742
強壯	-10.742
所了解的	-10.742
少許	-10.742
贈送	-10.742
教導	-10.742
傷口	-10.742
▁atiomʉʉn	-10.742
遺失	-10.742
天天看電視	-10.742
▁sipangariingari	-10.742
▁masarapʉ	-10.742
▁omangʉrʉ	-10.742
集合	-10.742
牽手	-10.742
▁tinoporo	-10.742
▁Taitong	-10.742
餵食	-10.742
200	-10.742
重視	-10.7421
▁tomateni	-10.7421
站立	-10.7421
形成	-10.7421
▁nimarisinatʉ	-10.7421
舉行	-10.7421
躺下來	-10.7421
小小的	-10.7421
內部	-10.7421
▁caocao	-10.7421
梅子	-10.7421
▁pakamamanʉng	-10.7421
菜園	-10.7421
怎麼辦	-10.7421
拍手	-10.7421
有幾隻狗	-10.7421
▁poaka	-10.7421
公車	-10.7421
膽小	-10.7421
小島	-10.7421
各類	-10.7422
▁omarivi	-10.7422
滑倒	-10.7422
▁omaavic	-10.7422
ʉriin	-10.7422
父母親	-10.7422
arangoo	-10.7422
tento	-10.7422
根香蕉	-10.7422
瓶子	-10.7422
海邊	-10.7422
活動	-10.7422
▁niaramamanʉng	-10.7423
分半	-10.7423
運動	-10.7423
▁arisikio	-10.7423
樹木	-10.7423
▁timanoon	-10.7423
指定	-10.7423
樹枝	-10.7423
麻竹	-10.7423
樹林	-10.7423
自行	-10.7424
所經過的	-10.7424
21	-10.7424
播種小米	-10.7424
12	-10.7424
過量	-10.7424
▁titior	-10.7425
masikʉcʉ	-10.7425
pʉngcʉ	-10.7425
aropara	-10.7425
手機	-10.7425
工具	-10.7425
褲子	-10.7425
相見	-10.7425
▁mavaro	-10.7425
三隻	-10.7426
日間	-10.7426
▁nikamanoʉn	-10.7426
講話	-10.7427
大鋤頭	-10.7427
▁mʉtʉa	-10.7427
早上六點鐘起床	-10.7427
▁以前還沒有	-10.7427
▁mariapʉ	-10.7427
會變好	-10.7428
哪一	-10.7428
▁neneen	-10.7428
那棵樹上	-10.7428
apota	-10.7428
▁ciasʉ	-10.7428
一件	-10.7429
天暗	-10.7429
▁ikara	-10.7429
叫醒	-10.7429
▁oranʉn	-10.743
▁pangi	-10.743
才能	-10.7431
殺雞	-10.7431
我帶了	-10.7431
aaroa	-10.7431
一本	-10.7431
▁opoco	-10.7431
▁osʉpatʉ	-10.7432
好好的做	-10.7432
本族人	-10.7432
對他說	-10.7434
通用	-10.7435
▁pakasiʉn	-10.7435
小米酒	-10.7435
經過這裡	-10.7435
▁manava	-10.7436
其中	-10.7436
▁maroon	-10.7436
▁大家好	-10.7437
角落	-10.7437
下面	-10.7437
煮菜	-10.7437
不知	-10.7438
海水	-10.7439
▁請你的小孩	-10.744
從此	-10.744
從事	-10.744
aparoo	-10.744
他的小狗	-10.7441
和解	-10.7442
九十	-10.7442
▁moiri	-10.7442
喝醉了	-10.7443
有哪些	-10.7443
做事	-10.7444
太太	-10.7445
背著	-10.7446
比較快	-10.7446
他們兩位	-10.7447
把所有的	-10.7449
imiin	-10.7449
enco	-10.745
才可以	-10.745
apu	-10.7451
▁pongana	-10.7451
▁kʉnamo	-10.7451
成熟了	-10.7452
讓別人	-10.7454
apate	-10.7454
對於	-10.7454
有原因	-10.7454
▁kasakʉnʉn	-10.7457
什麼酒	-10.746
▁那裡有	-10.7462
▁mairi	-10.7466
▁nimiaranao	-10.7467
▁nipoca	-10.7472
▁我看過	-10.7473
apoto	-10.7475
aangici	-10.748
我老了	-10.7481
我知道了	-10.7482
▁那些孩子喜歡	-10.7484
裝滿	-10.7486
okosoon	-10.7487
在河裡	-10.7492
▁pokarikarian	-10.7496
幫助他	-10.75
水中	-10.75
還不知道	-10.7503
Namasia	-10.7504
我最喜歡	-10.7512
不一樣	-10.7513
壞了	-10.7514
遇到	-10.7514
matacovocovong	-10.7516
▁kipatʉs	-10.7518
kanang	-10.7518
小的時候	-10.7519
▁patanamʉ	-10.7523
mosocʉkʉna	-10.7524
▁pariko	-10.7525
我們兩位	-10.7525
macici	-10.7532
ay	-10.7532
去哪裡了	-10.7533
oong	-10.7535
yen	-10.7536
mopacai	-10.7539
▁siava	-10.754
▁nipacʉvʉra	-10.7541
還可以	-10.7545
濕的	-10.7545
網路	-10.7547
見面了	-10.7549
▁arasingsinga	-10.7557
▁makasiava	-10.7562
masima	-10.7578
poirio	-10.758
生命	-10.758
不要再	-10.7588
imaa	-10.7597
我妹妹	-10.7601
miri	-10.7604
apim	-10.7606
我們以前	-10.7607
▁tikirimoo	-10.7648
inacoo	-10.7648
▁tota	-10.766
mʉrʉ	-10.7668
來過	-10.7686
在田裡	-10.7708
請問你	-10.7721
帶回去	-10.7726
▁ser	-10.7734
你要做什麼	-10.7739
itee	-10.7746
帶我去	-10.775
macara	-10.7756
pat	-10.7759
toco	-10.7767
有力氣	-10.7772
我就會	-10.778
想法	-10.7807
cakʉ	-10.7812
apatipoo	-10.7822
vonii	-10.785
的蛋	-10.7854
好聽	-10.7882
喜歡畫圖	-10.7884
你的手	-10.7889
剛才我	-10.7897
說成	-10.7902
Tan	-10.7903
我們自己	-10.7914
我晚上	-10.7919
不熱	-10.792
risinatʉ	-10.793
沒睡	-10.7945
古時	-10.7959
雜	-10.7967
更好	-10.7971
▁kʉmʉn	-10.7997
▁niatomor	-10.8
▁romarap	-10.8007
▁kocici	-10.8037
你的想法	-10.8043
的同學	-10.8047
▁meec	-10.8052
本族	-10.8082
▁maat	-10.8096
arikʉpʉ	-10.8117
aparis	-10.8126
cʉkʉna	-10.8126
kariin	-10.8133
鉤	-10.8147
十二	-10.8151
會生氣	-10.8159
捕	-10.8204
▁你從哪裡	-10.8279
應該是	-10.828
▁tikirim	-10.8332
人來了	-10.8413
tapʉsʉ	-10.8448
坐下來	-10.8458
魚鉤	-10.8512
pang	-10.8606
軍	-10.8609
tiropang	-10.8626
兩種	-10.8632
car	-10.8662
方式	-10.8681
果實	-10.87
雜草	-10.8703
▁avici	-10.8719
帶來	-10.8723
▁當我	-10.8727
嘴巴	-10.8737
十五	-10.8753
sapʉʉsapʉ	-10.8801
有信心	-10.8807
三次	-10.8832
karo	-10.886
到山上	-10.8879
▁cak	-10.8898
不需要	-10.8921
其他人	-10.8923
去上學	-10.8935
五個	-10.8988
很難	-10.9008
聊	-10.9017
玩具	-10.9027
▁sovong	-10.9066
把你的	-10.9084
ʉpʉn	-10.9119
▁paracan	-10.9125
▁pakasi	-10.9131
不可	-10.9169
▁niki	-10.917
▁ramoc	-10.9178
馬	-10.9192
園	-10.9204
很難看	-10.9213
▁patanganai	-10.9219
但他	-10.9225
卡那卡那富族語	-10.9233
▁masipʉc	-10.9239
▁nipat	-10.9247
▁nimati	-10.9248
▁mitʉvʉng	-10.9254
▁我昨天	-10.9255
▁aratʉkʉn	-10.9255
我很想念	-10.9263
▁niaracakan	-10.927
▁misen	-10.9285
▁cocomen	-10.9285
鬆	-10.9288
不方便	-10.9293
▁每一個人	-10.9301
興	-10.9304
隊	-10.9307
今	-10.9314
沙	-10.9315
鍋	-10.9315
議	-10.9316
漢	-10.9318
致	-10.932
naira	-10.9322
灑	-10.9322
kocicia	-10.9322
米貢祭	-10.9322
程	-10.9322
最高	-10.9323
參	-10.9323
一個星期	-10.9324
早餐	-10.9324
播	-10.9325
屁	-10.9325
辦	-10.9325
茶	-10.9326
決	-10.9326
喜	-10.9326
形	-10.9327
收割	-10.9327
賺錢	-10.9327
章	-10.9327
依	-10.9327
究	-10.9327
伴	-10.9327
寮	-10.9327
靈	-10.9327
謝	-10.9327
沿	-10.9327
毒	-10.9327
黃色	-10.9327
腦	-10.9327
擾	-10.9327
友	-10.9327
顧	-10.9328
壯	-10.9328
計	-10.9328
價	-10.9328
陰	-10.9328
思	-10.9328
絕	-10.9328
快樂王子	-10.9328
腳踏車	-10.9328
楠梓仙溪	-10.9328
泥	-10.9328
組	-10.9328
奇	-10.9328
端	-10.9328
城	-10.9328
報	-10.9328
意義	-10.9328
賽夏族	-10.9328
店	-10.9328
甲仙	-10.9328
排	-10.9328
滴	-10.9328
的女孩	-10.9328
輪	-10.9328
砰	-10.9328
吸	-10.9328
所種植的	-10.9328
兇	-10.9328
把火熄滅	-10.9328
靜靜的	-10.9328
息	-10.9328
摔	-10.9328
搭飛機	-10.9328
Atung	-10.9328
傷心地	-10.9328
兵	-10.9328
咬人貓	-10.9328
奮	-10.9328
尚	-10.9328
技術	-10.9328
耀	-10.9328
虛	-10.9328
令人同情	-10.9328
疼	-10.9328
apatakosʉr	-10.9328
家拜訪	-10.9328
很辛苦	-10.9328
從以前開始	-10.9328
拜訪祖父	-10.9328
捉	-10.9328
斗	-10.9328
施	-10.9328
暈	-10.9328
沒辦法	-10.9328
爐	-10.9328
盡	-10.9328
籠	-10.9328
糊	-10.9328
肚子餓	-10.9328
裂	-10.9328
說隱喻的話	-10.9328
避免	-10.9328
閉	-10.9328
H	-10.9328
Kakangca	-10.9328
Orosʉ	-10.9328
arávar	-10.9328
itúmoro	-10.9328
mirʉngʉcʉ	-10.9328
mámia	-10.9328
posiparʉ	-10.9328
sakasakao	-10.9328
ʉmpʉrʉkʉ	-10.9328
▁Iami	-10.9328
▁Pakiisia	-10.9328
▁Posinga	-10.9328
▁Saboroo	-10.9328
▁karianome	-10.9328
▁kintoranga	-10.9328
▁kisapataa	-10.9328
▁makacʉmʉrʉ	-10.9328
▁makaríkari	-10.9328
▁mangocono	-10.9328
▁masikanakanavo	-10.9328
▁mavocʉrʉkʉ	-10.9328
▁mosocikiciki	-10.9328
▁mosovʉrʉsai	-10.9328
▁motʉkʉtʉkʉ	-10.9328
▁mákari	-10.9328
▁okosʉʉn	-10.9328
▁pakaringangatʉ	-10.9328
▁pomanʉʉng	-10.9328
▁ponaannakʉ	-10.9328
▁porotangnga	-10.9328
▁racʉcʉna	-10.9328
▁racʉcʉnʉa	-10.9328
▁ritopora	-10.9328
▁sariingoso	-10.9328
▁sasaovo	-10.9328
▁siatikirimi	-10.9328
▁tavaaronga	-10.9328
▁tingting	-10.9328
▁toropaang	-10.9328
值得高興	-10.9328
喜歡用左手的人	-10.9328
嚇了一跳	-10.9328
媳婦	-10.9328
救	-10.9328
斯	-10.9328
棟	-10.9328
灰	-10.9328
的配偶	-10.9328
的重疊詞	-10.9328
的鉛筆	-10.9328
移	-10.9328
紛	-10.9328
舅舅	-10.9328
評	-10.9328
跑得快	-10.9328
輕輕的	-10.9328
退	-10.9328
鬍	-10.9328
鴨	-10.9328
apacarovo	-10.9328
mapinipini	-10.9328
▁komakarai	-10.9328
▁masitatia	-10.9328
▁mosotanpʉ	-10.9328
▁nipapociria	-10.9328
▁nosoko	-10.9328
▁siaritongo	-10.9328
▁tʉkin	-10.9328
▁tʉmʉra	-10.9328
▁你早上幾點	-10.9328
不客氣	-10.9328
的甘蔗	-10.9328
arivatʉ	-10.9328
▁KAN	-10.9328
▁araavari	-10.9328
▁aritakar	-10.9328
▁pacʉpʉngcʉpʉng	-10.9328
▁poponga	-10.9328
▁poraropa	-10.9328
不聽話	-10.9328
勉勵	-10.9328
夾	-10.9328
▁tingasʉ	-10.9328
▁稍待	-10.9328
廚	-10.9328
惑	-10.9328
Pusinga	-10.9328
▁apʉnʉn	-10.9328
▁ovʉngʉn	-10.9328
偷偷的	-10.9328
在高雄	-10.9328
小女孩	-10.9328
很厲害	-10.9328
班	-10.9328
的語氣	-10.9328
瞭望台	-10.9328
蓋房子	-10.9328
藤包山	-10.9328
Tangan	-10.9328
▁ropi	-10.9328
壁	-10.9328
藍腹鷴	-10.9328
雅美族	-10.9328
證	-10.9328
圍圈圈吟唱	-10.9328
徒	-10.9328
智慧	-10.9328
的程度	-10.9328
的衝突	-10.9328
象	-10.9328
返	-10.9328
魂	-10.9328
UrU	-10.9328
▁tarisinatʉa	-10.9328
▁torako	-10.9328
等我一下	-10.9328
karavung	-10.9328
扣	-10.9328
株	-10.9328
▁matavʉcʉk	-10.9328
因為牠在	-10.9328
▁maracooc	-10.9328
▁nipotokikioa	-10.9328
▁請問您	-10.9328
孤兒	-10.9328
肯	-10.9328
又大又	-10.9328
困難	-10.9328
所命名的	-10.9328
編織	-10.9328
肺	-10.9328
oringi	-10.9328
悲傷	-10.9328
腰部	-10.9328
▁ihi	-10.9328
▁makahi	-10.9328
pasikʉcʉ	-10.9328
指甲	-10.9328
旋轉	-10.9328
▁movʉngʉ	-10.9328
豐收	-10.9328
西方的	-10.9328
溫暖	-10.9328
pasovongo	-10.9328
泥土	-10.9328
飲	-10.9328
侵略	-10.9328
所稱的	-10.9328
有水的地方	-10.9328
▁saovo	-10.9328
故意	-10.9328
依靠	-10.9328
測量	-10.9328
▁pakaraceni	-10.9329
apinaropo	-10.9329
頂端	-10.9329
▁komomoana	-10.9329
例如	-10.9329
責備	-10.9329
▁mosorovo	-10.9329
我的名字叫	-10.9329
▁tavacoko	-10.9329
婦女	-10.9329
裏面	-10.9329
ponnaan	-10.9329
來我這裡	-10.9329
生薑	-10.9329
平均	-10.9329
▁taraceni	-10.9329
▁tomatini	-10.9329
▁力量	-10.9329
理髮	-10.9329
我非常喜歡	-10.9329
apatikoro	-10.9329
▁tomʉra	-10.9329
▁taatia	-10.9329
▁iaavoto	-10.9329
楠梓仙溪的故事	-10.9329
risiki	-10.9329
▁atʉnʉnga	-10.9329
胸袋	-10.9329
懼怕	-10.9329
opopang	-10.9329
速	-10.9329
獨自	-10.9329
雙方	-10.9329
▁cineen	-10.9329
台南	-10.9329
器具	-10.9329
腰帶	-10.9329
念書	-10.9329
▁Niono	-10.9329
▁第二天	-10.9329
▁siakamanʉng	-10.9329
▁naraoa	-10.9329
▁tongiing	-10.9329
▁kivikivio	-10.9329
迷失	-10.9329
的頭髮很長	-10.9329
▁mosotacono	-10.9329
▁pasatomoro	-10.9329
▁kapani	-10.9329
▁avʉʉn	-10.933
打雷	-10.933
寶物	-10.933
製造	-10.933
cuma	-10.933
動物園	-10.933
車站	-10.933
那顆石頭	-10.933
期待	-10.933
隨意	-10.933
米貢祭典	-10.933
▁romaringai	-10.933
▁taroasʉ	-10.933
長褲	-10.933
apatipori	-10.933
腫起來	-10.933
被迫	-10.933
門口	-10.933
▁comaacapa	-10.933
釀酒	-10.9331
今年幾歲	-10.9331
民國	-10.9331
提親	-10.9331
民族	-10.9331
原住民族群	-10.9331
三本書	-10.9331
隔天	-10.9331
跟你相處	-10.9331
樹豆	-10.9331
的衣服是紅色的	-10.9331
不想跟	-10.9331
開車	-10.9332
▁mavaang	-10.9332
麻線	-10.9332
七點	-10.9332
真漂亮	-10.9332
男女	-10.9332
搬運	-10.9332
靠向	-10.9332
山頂	-10.9332
下大雨	-10.9332
逃跑	-10.9332
照射	-10.9332
▁pʉrʉ	-10.9332
▁一個星期有	-10.9333
▁mosorai	-10.9333
▁porangrangʉʉn	-10.9333
▁makatomoro	-10.9333
美國	-10.9333
▁patiropangʉn	-10.9333
記錄	-10.9333
溪邊	-10.9333
早期	-10.9333
parekavoo	-10.9333
飛行	-10.9333
撿起來	-10.9333
接收	-10.9334
apapora	-10.9334
處理	-10.9334
去了哪裡	-10.9334
▁tomateen	-10.9334
世間	-10.9334
唸書	-10.9334
多少時間	-10.9334
▁arakaranana	-10.9334
住在那瑪夏	-10.9335
rocin	-10.9335
八月	-10.9335
這支	-10.9335
學習卡那卡那富語	-10.9335
一起去打獵	-10.9335
兩次	-10.9335
▁ní	-10.9336
對待	-10.9336
▁araceen	-10.9336
幫助別人	-10.9336
sakiri	-10.9336
我忘了帶	-10.9337
我烤的	-10.9338
各個	-10.9338
可能會下雨	-10.9338
那顆	-10.9338
▁cepo	-10.9338
六十	-10.9338
被稱為	-10.9338
羊肉	-10.9338
外國	-10.9338
行動	-10.9338
殺豬	-10.9339
▁oranʉʉn	-10.9339
掃地	-10.9339
做夢	-10.9339
此處	-10.934
kongangan	-10.934
香蕉樹	-10.934
試吃	-10.934
▁macaro	-10.934
會議	-10.934
▁mosopopoarʉ	-10.934
心理	-10.9341
大雨	-10.9341
鍋子	-10.9341
請求	-10.9342
回部落	-10.9342
aricang	-10.9342
▁mopoco	-10.9342
他的帽子	-10.9343
▁mangiri	-10.9343
apacap	-10.9343
▁tapisi	-10.9344
▁mocanomo	-10.9344
這個地方	-10.9344
罵人	-10.9345
我看不懂	-10.9346
▁siki	-10.9347
我明天要去	-10.9347
看法	-10.9347
aparitapas	-10.9348
nooman	-10.9348
▁poron	-10.9349
出發	-10.935
要求	-10.935
▁icici	-10.935
w	-10.9352
▁雖然我們	-10.9352
幾年	-10.9353
蒸煮	-10.9353
▁tapiko	-10.9355
▁oaro	-10.9355
雖然不是	-10.9356
溪水	-10.9356
面對	-10.9356
上船	-10.9357
那是玉米	-10.9357
▁siavoa	-10.9358
要多久	-10.936
▁tiingai	-10.9361
你現在有空	-10.9361
▁我要換	-10.9364
▁nimokosa	-10.9367
不要難過	-10.9367
去替換	-10.9367
▁roe	-10.9368
大石頭	-10.9369
請站起來	-10.9371
帶往	-10.9371
用以	-10.9371
種樹	-10.9372
imara	-10.9374
▁hoa	-10.9374
▁他們現在	-10.9374
曾經住在	-10.9375
幾個人	-10.9375
▁sipotokikioa	-10.9376
▁tatoparaa	-10.9376
抓著	-10.9379
把它	-10.938
Kau	-10.9381
parekava	-10.9383
到學校	-10.9386
好久	-10.9386
待會兒會	-10.9387
我要使用	-10.9388
這種	-10.9389
就好了	-10.939
▁tikoromo	-10.9391
▁macancan	-10.9394
▁tacano	-10.9397
還是很	-10.9404
▁sovongon	-10.9404
驚嚇	-10.9407
來看你	-10.9408
到晚上	-10.9408
▁pakisapatʉ	-10.9409
存在	-10.941
你前面	-10.9412
是如此	-10.9421
▁nipakari	-10.9421
▁porosʉvʉn	-10.9424
洗餐盤	-10.9427
▁coroon	-10.9431
這裡沒有	-10.9431
跟上來	-10.9438
patanganain	-10.9439
naParumaci	-10.9445
▁karimo	-10.9447
cu	-10.9453
▁明天是	-10.9453
我認識	-10.9462
Muu	-10.9463
▁marisaovo	-10.9466
居住	-10.947
沒看過	-10.9475
▁macaraini	-10.9475
atʉpʉ	-10.9478
到河邊	-10.9493
的家人	-10.9511
makʉrʉʉkʉrʉ	-10.9515
打電話給	-10.9515
oropacoo	-10.9524
▁cakʉp	-10.9524
以前的人	-10.953
▁小山豬的	-10.9534
偷吃	-10.9536
ʉngʉrʉ	-10.9537
祭典或	-10.9541
我們原住民	-10.9547
太大	-10.9553
▁nimoringe	-10.9555
來抓	-10.9561
是怎樣	-10.958
▁mocacana	-10.9609
▁你要吃	-10.9616
是做什麼	-10.9621
voto	-10.9633
聊聊	-10.9645
帶傘	-10.9647
▁cʉpʉngoo	-10.9662
apapoiri	-10.9668
▁potovʉrʉk	-10.9673
▁Kor	-10.9704
使回	-10.9715
apakos	-10.9719
學校讀書	-10.9737
所有的小孩	-10.9748
支筆	-10.9767
mataa	-10.9817
多數	-10.9818
ricakʉ	-10.9824
makariikari	-10.9855
makacarapong	-10.986
沒得	-10.9865
mooravo	-10.9876
miseen	-10.988
saronai	-10.9886
Taipei	-10.9888
kesoni	-10.9888
masini	-10.9889
kʉcʉ	-10.9892
取名	-10.9895
kʉkʉ	-10.9916
vanai	-10.992
我知道他	-10.9956
▁今天天氣	-10.9979
沒空	-10.9981
singsingoo	-10.9984
他的名字是	-11.0005
有好多	-11.0029
arakokono	-11.0032
去刷洗	-11.007
二位	-11.0076
d	-11.0104
已經很久沒	-11.0105
tʉkʉ	-11.0107
kipaatʉsʉ	-11.0123
買蛋	-11.0148
人口	-11.0221
rapi	-11.0231
數字	-11.0242
去醫院	-11.0245
▁nipapi	-11.025
吃水果	-11.027
來吃早餐	-11.0327
▁kʉmʉnaa	-11.0428
會改變	-11.0445
都很喜歡	-11.0454
裡有好多	-11.052
還有其他	-11.0544
蝦	-11.056
iripiʉn	-11.0583
Ut	-11.0615
第三	-11.0621
rovai	-11.0663
nasʉ	-11.0665
▁那是我的	-11.0671
sotopoko	-11.0677
▁pasipʉca	-11.0687
ed	-11.0786
就不能	-11.0865
其他的人	-11.0865
三個人	-11.0882
apavic	-11.0921
akori	-11.0972
▁nipasorov	-11.0984
數數看	-11.1007
家鄉	-11.1057
行為	-11.1113
我要給你	-11.1118
重要的	-11.113
的邊邊	-11.1146
apatiki	-11.1173
patangiri	-11.1187
海裡	-11.1194
▁somasʉpʉra	-11.1353
言	-11.1368
▁comacar	-11.1373
masia	-11.1427
打電話	-11.1457
命	-11.1489
▁arasingsing	-11.1495
雨下	-11.1498
鐘	-11.1506
ocaan	-11.1508
確	-11.1545
mima	-11.1561
▁maripi	-11.1613
▁somasorova	-11.162
apatang	-11.1627
▁tatopara	-11.1629
▁mami	-11.1631
這個話	-11.1632
種不同的	-11.1634
▁sipotokikio	-11.1644
成熟	-11.1646
▁aracen	-11.1646
▁tonging	-11.1647
▁moov	-11.1655
做的事	-11.1661
煮的飯	-11.1663
婚	-11.1663
ngki	-11.1667
撕	-11.1668
呼	-11.1669
桌	-11.1669
簍	-11.167
太陽出來	-11.167
幸	-11.1676
瓶	-11.1677
鐘起床	-11.1678
令	-11.1679
ramang	-11.1679
raceen	-11.1679
太陽下山	-11.1681
萬	-11.1681
patacoco	-11.1682
牽	-11.1682
尋	-11.1684
棵	-11.1684
醉	-11.1685
王	-11.1686
島	-11.1686
眾	-11.1686
膽	-11.1686
年紀	-11.1686
產	-11.1687
▁parangan	-11.1687
故	-11.1687
特	-11.1687
答	-11.1688
縫	-11.1688
擲	-11.1688
憐	-11.1688
獨	-11.1688
務	-11.1688
獸	-11.1688
▁sokʉm	-11.1688
贈	-11.1688
非	-11.1688
備	-11.1689
孩子喜歡畫圖	-11.1689
止	-11.1689
絲	-11.1689
商	-11.1689
姊	-11.1689
勸	-11.1689
季	-11.1689
arasangara	-11.1689
注	-11.1689
薪資	-11.1689
材	-11.1689
袖	-11.1689
貌	-11.1689
番	-11.1689
探	-11.1689
這塊土地	-11.1689
回娘家	-11.1689
穀	-11.1689
嘴	-11.1689
有幾隻	-11.1689
▁tiki	-11.1689
限制	-11.1689
嘗	-11.1689
右	-11.1689
北	-11.1689
暖	-11.1689
升	-11.1689
宣	-11.1689
律	-11.1689
獻	-11.1689
益	-11.1689
遵	-11.1689
拉阿魯哇族	-11.1689
參與政治	-11.1689
模	-11.1689
老闆說	-11.1689
那棵	-11.1689
▁2013	-11.1689
小米種籽	-11.1689
從那時開始	-11.1689
繫	-11.1689
降	-11.1689
驗	-11.1689
術	-11.1689
今天老師要教大家	-11.1689
南沙魯里	-11.1689
喝喝看	-11.1689
歡	-11.1689
級	-11.1689
要舉行米貢祭	-11.1689
週	-11.1689
膀	-11.1689
2019	-11.1689
不容易	-11.1689
不清楚	-11.1689
劈	-11.1689
我肚子痛	-11.1689
晴	-11.1689
潔	-11.1689
達卡努瓦	-11.1689
陪伴	-11.1689
▁你晚上幾點	-11.1689
去叢林	-11.1689
歪	-11.1689
一封信	-11.1689
一會兒	-11.1689
今天所走的路	-11.1689
來來回回	-11.1689
喜愛吃生薑	-11.1689
已經賣掉了	-11.1689
從那時候	-11.1689
恨	-11.1689
慎	-11.1689
慶賀	-11.1689
我很驚訝	-11.1689
我要跟你學習	-11.1689
是我吃地瓜的地方	-11.1689
有颱風要來	-11.1689
的伴侶	-11.1689
粗	-11.1689
脫	-11.1689
要比賽	-11.1689
贏	-11.1689
踩	-11.1689
Sbalay	-11.1689
x	-11.1689
▁今天是好天氣	-11.1689
予	-11.1689
互相認識	-11.1689
外省人	-11.1689
娶	-11.1689
致意看看	-11.1689
蘭	-11.1689
Balay	-11.1689
angírisi	-11.1689
apakovangvang	-11.1689
aparacakano	-11.1689
apatakorikorio	-11.1689
apatanamoon	-11.1689
apatarakanaang	-11.1689
apatokocoo	-11.1689
aposikaroo	-11.1689
aposiparoo	-11.1689
arasorosoro	-11.1689
mariropangʉ	-11.1689
Ʉrosʉ	-11.1689
▁Ali	-11.1689
▁Caang	-11.1689
▁Saopo	-11.1689
▁Saupu	-11.1689
▁Varangsʉ	-11.1689
▁ciaohoe	-11.1689
▁kamamari	-11.1689
▁kanavonavo	-11.1689
▁kanganganʉ	-11.1689
▁kanopanopasʉ	-11.1689
▁kaotie	-11.1689
▁karinome	-11.1689
▁ketotoroa	-11.1689
▁kisapatoo	-11.1689
▁korisivatʉ	-11.1689
▁mamiiriki	-11.1689
▁mamomʉkʉ	-11.1689
▁maripariapara	-11.1689
▁marisinangʉ	-11.1689
▁masiropangʉ	-11.1689
▁masoomacʉ	-11.1689
▁matakorikori	-11.1689
▁matiropaang	-11.1689
▁matʉnʉtʉnʉsʉ	-11.1689
▁mincao	-11.1689
▁miraavoko	-11.1689
▁mosikara	-11.1689
▁mosoraovo	-11.1689
▁mosorarai	-11.1689
▁ngisiingisi	-11.1689
▁nikamanmanoa	-11.1689
▁nipokonco	-11.1689
▁oʉnhoa	-11.1689
▁paritangsoa	-11.1689
▁pingangaan	-11.1689
▁risakʉ	-11.1689
▁romaravisa	-11.1689
▁romingee	-11.1689
▁sanapisapi	-11.1689
▁siatootoro	-11.1689
▁sikacangcangara	-11.1689
▁sovin	-11.1689
▁tamincaoa	-11.1689
▁tavongavongaa	-11.1689
▁tikirikirimi	-11.1689
▁tisikareen	-11.1689
▁tohikoki	-11.1689
▁tomatakʉtakʉ	-11.1689
▁tomatapini	-11.1689
▁tomatútoro	-11.1689
▁tonganganʉn	-11.1689
▁tʉnʉkai	-11.1689
▁vakaatʉ	-11.1689
▁vʉkʉsin	-11.1689
乖	-11.1689
借的鐮刀	-11.1689
偶爾來我家坐坐	-11.1689
吃稀飯	-11.1689
尿	-11.1689
恐	-11.1689
憫	-11.1689
手電筒	-11.1689
拭	-11.1689
樓	-11.1689
民生國小	-11.1689
池塘裡	-11.1689
獨自一人	-11.1689
番石榴	-11.1689
的衣服是白色的	-11.1689
素	-11.1689
給菜園灑水	-11.1689
臼	-11.1689
蔥	-11.1689
螺	-11.1689
錶	-11.1689
額	-11.1689
餌	-11.1689
amoroco	-11.1689
apakomomoano	-11.1689
▁aratʉkʉʉn	-11.1689
▁kakamarʉ	-11.1689
▁makacapʉcap	-11.1689
▁matimanʉngiin	-11.1689
▁moracen	-11.1689
▁mʉrʉpʉ	-11.1689
▁niparacani	-11.1689
▁nipatiporia	-11.1689
▁nipociria	-11.1689
▁niporaropo	-11.1689
▁poakici	-11.1689
▁rikisi	-11.1689
▁sikorapʉ	-11.1689
▁tivokarʉ	-11.1689
▁tomatʉkʉcʉ	-11.1689
▁你們家有幾個	-11.1689
不用客氣	-11.1689
不確定	-11.1689
卡那卡那富協會	-11.1689
卡那卡那富的文字	-11.1689
喚	-11.1689
太貴了	-11.1689
距	-11.1689
那瑪夏這個名稱	-11.1689
Pawang	-11.1689
X	-11.1689
angirisi	-11.1689
aponʉvʉr	-11.1689
lal	-11.1689
▁arisinao	-11.1689
▁comacanco	-11.1689
▁miaceen	-11.1689
▁siokai	-11.1689
▁tomatokoco	-11.1689
▁語助詞	-11.1689
好像有人在	-11.1689
尾	-11.1689
我有一隻狗	-11.1689
據說以前	-11.1689
紅隼鳥	-11.1689
腐	-11.1689
藍寶石	-11.1689
財	-11.1689
賣完了	-11.1689
這棵樹	-11.1689
▁minkoo	-11.1689
▁今天是星期	-11.1689
下課了	-11.1689
易	-11.1689
粉	-11.1689
1984	-11.1689
amirina	-11.1689
▁Vasʉ	-11.1689
▁masʉpatʉʉn	-11.1689
▁narangiri	-11.1689
俄羅斯	-11.1689
借自中文	-11.1689
區域	-11.1689
嗨	-11.1689
天上的雲	-11.1689
患	-11.1689
文獻	-11.1689
腰裙	-11.1689
製造噪音	-11.1689
踢	-11.1689
軟	-11.1689
鳴	-11.1689
▁katʉtʉa	-11.1689
▁makasoiin	-11.1689
糟糕	-11.1689
▁katatamo	-11.1689
乳	-11.1689
晨	-11.1689
▁masangai	-11.1689
▁niarivivin	-11.1689
免	-11.1689
勉	-11.1689
吐痰	-11.1689
吵架	-11.1689
腸	-11.1689
1915	-11.1689
▁karokaroa	-11.1689
▁他有紅色	-11.1689
不斷地	-11.1689
仇	-11.1689
佔	-11.1689
做做看	-11.1689
柔	-11.1689
激	-11.1689
聽別人說	-11.1689
誰在呼叫	-11.1689
調	-11.1689
黏	-11.1689
renta	-11.1689
▁mangʉrʉ	-11.1689
▁taparo	-11.1689
致歉	-11.1689
▁mosotavʉrʉ	-11.1689
▁他看見了	-11.1689
感覺	-11.1689
館	-11.1689
korongo	-11.1689
usu	-11.1689
▁kisao	-11.1689
已經或曾經	-11.1689
▁kamsia	-11.1689
你們有賣	-11.1689
到台北	-11.1689
她繼續	-11.1689
宴	-11.1689
愈	-11.1689
最終	-11.1689
沒有辦法	-11.1689
現在沒事做	-11.1689
的意思是說	-11.1689
相反詞	-11.1689
秤	-11.1689
鼓勵	-11.1689
敬禮	-11.1689
▁cangini	-11.1689
▁我們是一群	-11.1689
她的名字是	-11.1689
張校長	-11.1689
由他來	-11.1689
祭儀	-11.1689
▁patʉtʉa	-11.1689
Watan	-11.1689
」、「	-11.1689
權益	-11.1689
洲	-11.1689
簡	-11.1689
蛋糕	-11.1689
apaicʉʉn	-11.169
侵	-11.169
一下子就	-11.169
抱歉	-11.169
偷竊	-11.169
操場	-11.169
密	-11.169
建築	-11.169
死亡	-11.169
滴答	-11.169
用來做床	-11.169
膚	-11.169
城市	-11.169
番茄	-11.169
▁tomatioro	-11.169
古代	-11.169
養育	-11.169
▁caraini	-11.169
寮屋	-11.169
長高了	-11.169
▁kanamara	-11.169
報紙	-11.169
疫情	-11.169
誕生	-11.169
插秧	-11.169
公斤	-11.169
aparatakar	-11.169
木炭	-11.169
▁我只是在	-11.169
的機會	-11.169
奇怪	-11.169
Kanapaniana	-11.169
vooca	-11.169
▁nimʉka	-11.169
▁oronai	-11.169
siaocang	-11.169
溪谷	-11.169
▁tavini	-11.169
勤快	-11.169
探望	-11.169
在網路上	-11.169
遭	-11.169
龍眼	-11.169
Dah	-11.169
祭師	-11.169
家在山上	-11.169
文章	-11.169
他們家有	-11.169
siira	-11.169
古拉	-11.169
商量	-11.169
▁makiv	-11.169
延續	-11.169
我的名字是	-11.169
pataporoo	-11.169
▁niparis	-11.169
▁把你的錢	-11.169
▁patiporio	-11.169
apangaringario	-11.169
古老	-11.169
遺忘	-11.169
半夜	-11.169
資源	-11.169
▁note	-11.169
▁tarʉkʉpʉ	-11.169
難怪	-11.169
▁posoaka	-11.169
▁那個女孩子喜歡	-11.169
▁nikicancan	-11.169
已經很多了	-11.169
這封信	-11.169
asinanga	-11.169
專門	-11.169
木耳	-11.169
搗蛋	-11.169
▁topi	-11.169
木片	-11.169
的樹上	-11.169
大陸	-11.169
性命	-11.169
福音	-11.169
兒童	-11.169
有多少人	-11.169
打架	-11.169
是你自己	-11.169
congkoco	-11.169
acangini	-11.1691
今晚	-11.1691
paliko	-11.1691
躲藏	-11.1691
10000	-11.1691
講究	-11.1691
陪著	-11.1691
通知	-11.1691
紙張	-11.1691
挑水	-11.1691
▁nomaan	-11.1691
事務	-11.1691
夢境	-11.1691
昨天釣了	-11.1691
砍除	-11.1691
▁manipi	-11.1691
飾物	-11.1691
丟擲	-11.1691
亞	-11.1691
一斤	-11.1691
特別	-11.1691
蓋印	-11.1691
▁mapitoon	-11.1691
▁kosoro	-11.1691
聚落	-11.1691
▁nikʉraa	-11.1691
▁mikacaraa	-11.1691
回應	-11.1691
堅定	-11.1691
ocanga	-11.1691
ʉvin	-11.1691
總理	-11.1691
▁arisik	-11.1691
▁nimarisiki	-11.1691
apacʉpʉngoo	-11.1691
▁paranganmo	-11.1691
▁siningsinga	-11.1691
對我說	-11.1691
所看的	-11.1691
天氣很熱	-11.1692
apiivato	-11.1692
撈魚	-11.1692
幹什麼	-11.1692
處較	-11.1692
careen	-11.1692
從此以後	-11.1692
▁arivio	-11.1692
的兒子	-11.1692
農作物	-11.1692
▁tapisimo	-11.1692
深夜	-11.1692
僅只	-11.1692
安全	-11.1692
會說卡那卡那富語	-11.1692
orove	-11.1692
星星出來了	-11.1692
▁pananapa	-11.1692
▁那時候	-11.1692
▁pitoka	-11.1692
帶著雨傘	-11.1692
蛇類	-11.1692
▁marisanivaria	-11.1692
交朋友	-11.1692
掉落	-11.1693
王子的	-11.1693
月份	-11.1693
pangarʉ	-11.1693
年紀小	-11.1693
很久很久以	-11.1693
看起來很美麗	-11.1693
一遍	-11.1693
吐出來	-11.1693
更加	-11.1693
orú	-11.1693
唱這首歌	-11.1693
哪一位	-11.1693
apivoo	-11.1694
▁cʉmʉre	-11.1694
優先	-11.1694
▁Uh	-11.1694
割草	-11.1694
圍繞在樹上	-11.1694
流傳	-11.1694
魚簍	-11.1694
經過我家	-11.1694
製成	-11.1694
個比特幣	-11.1695
各自	-11.1695
獵場	-11.1695
頭飾	-11.1695
跟你一樣	-11.1695
▁timano	-11.1695
方面	-11.1695
▁nesoa	-11.1695
▁那張	-11.1695
打那隻狗	-11.1695
滾動	-11.1695
一般	-11.1695
▁matoaporo	-11.1695
▁為了讓	-11.1695
是怎樣的人	-11.1695
果類	-11.1695
▁niarakoracʉ	-11.1695
除草	-11.1695
aakasʉ	-11.1695
apaciropoo	-11.1695
kingti	-11.1696
poroporo	-11.1696
湯匙	-11.1696
的書籍	-11.1696
▁roem	-11.1696
四個人	-11.1696
寫信	-11.1696
肥肉	-11.1696
▁arivariʉn	-11.1696
原來是這樣	-11.1696
首先	-11.1697
家前面有	-11.1697
過程	-11.1697
▁siapeni	-11.1697
▁nimatisa	-11.1697
這個瓶子	-11.1697
地面上	-11.1697
重新	-11.1697
樹洞裡	-11.1697
萬一	-11.1697
原來是那樣	-11.1698
apocapici	-11.1698
被騙	-11.1698
真可憐	-11.1698
更換	-11.1698
剪刀	-11.1698
獵刀	-11.1698
米貢祭的時候	-11.1698
▁太陽下山了	-11.1698
光明	-11.1698
▁atʉnʉs	-11.1698
遠方	-11.1698
真美麗	-11.1698
▁somipʉkʉr	-11.1698
社會	-11.1698
放入	-11.1698
掉進	-11.1699
很遠的地方	-11.1699
ʉmpʉ	-11.1699
apangoro	-11.1699
▁tangʉca	-11.1699
當警察	-11.1699
▁maritaraa	-11.1699
跟他說話	-11.1699
一致	-11.1699
apakamanʉng	-11.1699
ocipamo	-11.17
七十	-11.17
母狗	-11.17
這個國家	-11.17
魚網	-11.17
aparisosonoon	-11.17
當然	-11.17
momoan	-11.17
搬的東西	-11.17
吃過量	-11.17
我們的長輩	-11.17
▁rias	-11.1701
火燒	-11.1701
是因為被	-11.1701
上衣	-11.1701
射日	-11.1701
tarʉtarʉ	-11.1701
長大之後	-11.1701
學習卡那卡那富族語	-11.1701
的地瓜在哪裡	-11.1702
魚兒	-11.1702
你的同伴	-11.1702
一點點	-11.1702
待在那裡	-11.1703
不幸	-11.1703
orokʉkʉ	-11.1703
▁sasia	-11.1703
我的故鄉	-11.1703
上課	-11.1704
竹雞	-11.1704
一本書	-11.1704
待會兒我會	-11.1704
醫院裡	-11.1704
▁imova	-11.1704
存放	-11.1704
apepacaio	-11.1704
吃飽	-11.1705
讓你的朋友	-11.1705
戴著	-11.1705
沙子	-11.1706
勤勞的人	-11.1707
我們一起吃	-11.1707
上主	-11.1708
ravisoon	-11.1708
atikeni	-11.1708
▁sinpon	-11.1708
▁siatotoro	-11.1709
你喜歡什麼	-11.1709
不會很久	-11.171
所知道的	-11.1711
撕掉	-11.1711
地面	-11.1711
怎麼還沒	-11.1711
而已	-11.1711
射中	-11.1711
▁aramanʉngʉ	-11.1712
那些東西	-11.1712
你的筆	-11.1712
洗手	-11.1712
被偷	-11.1712
如果你有空	-11.1713
主人	-11.1714
四十	-11.1714
一起生活	-11.1714
真相	-11.1715
我們的老人家	-11.1715
水道	-11.1715
隊長	-11.1716
當心	-11.1716
用詞	-11.1716
地點	-11.1716
請開門	-11.1716
國中	-11.1716
▁narangʉ	-11.1716
aparapici	-11.1717
aniora	-11.1717
坐在這裡	-11.1717
它們	-11.1717
快一點	-11.1718
經過你家	-11.1718
我的橡皮擦	-11.1718
▁omonini	-11.1718
▁kamosia	-11.1719
▁很多人說	-11.172
幫我拿	-11.172
▁rong	-11.1721
▁這時	-11.1721
小刀	-11.1722
這個湯	-11.1722
用隱喻的話	-11.1723
很害怕	-11.1723
▁pini	-11.1724
apocanʉ	-11.1724
▁你現在在哪裡	-11.1725
生出來	-11.1727
motaro	-11.1729
mecocoa	-11.173
這個東西	-11.1731
ocaro	-11.1731
腳印	-11.1731
前天	-11.1734
女人們	-11.1734
年輕的	-11.1735
potovʉrʉke	-11.1736
這次	-11.1737
sʉpʉrʉn	-11.1738
▁nimosocar	-11.1739
輕鬆	-11.1741
事情要做	-11.1742
▁mocacaca	-11.1742
我的筆	-11.1743
angiana	-11.1743
一個太陽	-11.1747
taropo	-11.175
▁panana	-11.175
pamoci	-11.1752
apacakʉp	-11.1753
matakoriikori	-11.1756
八十	-11.1776
這個地瓜	-11.1787
今天早上	-11.1788
apasipʉc	-11.1792
kamanʉngoo	-11.1797
曬乾	-11.1809
你有看到	-11.1813
非常漂亮	-11.1825
▁sikamanʉng	-11.1839
rasang	-11.1856
花生	-11.1857
apatikirim	-11.1858
▁cinaakʉp	-11.1862
▁mikon	-11.1866
▁patisapʉsapoo	-11.187
不滿意	-11.1945
ace	-11.1949
嚇到	-11.1974
▁你說的	-11.199
▁arisinat	-11.1996
apatapʉsoo	-11.201
▁tanar	-11.2043
aporasinoo	-11.2101
owa	-11.2145
九個	-11.2182
六個人	-11.2194
天氣怎麼樣	-11.2204
▁arikʉroo	-11.2227
帶鋤頭	-11.2262
▁patiman	-11.2284
▁masimanʉng	-11.2286
可以出去玩	-11.2291
▁the	-11.2292
akanangʉn	-11.2297
▁mocon	-11.2309
了一段時間	-11.2324
apasʉpʉroo	-11.2326
oriing	-11.236
很輕	-11.2364
aparapos	-11.2377
要去對岸	-11.2388
信心	-11.2397
的眼睛很	-11.2407
各式各樣的	-11.2457
potanaam	-11.2459
pakavor	-11.253
apavicoo	-11.2557
pake	-11.2611
tavar	-11.2653
pakario	-11.2659
軍人	-11.2681
navu	-11.2709
miravoko	-11.2721
matinano	-11.2723
▁tekirim	-11.2765
些什麼	-11.281
▁pasipʉc	-11.2811
很累	-11.2814
在石頭縫	-11.2819
很多學生	-11.2873
apopan	-11.2881
部落裡有一	-11.2895
aposocar	-11.2895
matav	-11.2959
aracʉvʉrʉ	-11.296
marisoosona	-11.2962
tarakanangʉ	-11.2968
araceni	-11.2971
cinimʉ	-11.2973
cimʉrʉ	-11.2976
maritapasʉ	-11.2976
sosomanpe	-11.2977
kita	-11.2979
macasʉ	-11.2979
niaranai	-11.2982
macangcangarʉ	-11.2984
Kanakanavo	-11.2984
nakai	-11.2988
什麼時候可以	-11.306
teco	-11.3075
paira	-11.3152
▁mir	-11.3213
katoon	-11.3231
arikʉra	-11.3234
makiri	-11.3249
sokʉʉm	-11.3266
石頭縫	-11.3428
kipapa	-11.3454
apacangcangar	-11.3565
鐘睡覺	-11.3661
▁canom	-11.3693
叢	-11.3723
跟她說	-11.3788
ʉngʉc	-11.3809
▁amisen	-11.3821
是所謂的	-11.3835
ngʉca	-11.3903
apasʉpʉr	-11.3984
oropac	-11.3992
▁nipakʉn	-11.4105
sinata	-11.4203
▁tacoc	-11.4227
很髒	-11.4368
▁makangʉc	-11.4429
卡族的	-11.4439
稻	-11.4551
Parumaci	-11.4586
▁那些孩子	-11.4649
講故事	-11.465
▁arakok	-11.4686
▁porosʉv	-11.4693
▁topor	-11.4696
▁aratʉm	-11.4711
pacangcangarʉ	-11.4725
▁takitotoro	-11.4727
喝醉	-11.4737
用隱喻的	-11.4739
雨停	-11.4739
okia	-11.474
▁pipining	-11.4741
▁oranʉ	-11.4745
▁makanan	-11.4747
mosokʉʉm	-11.475
需	-11.4763
covocovongo	-11.4763
朵	-11.4768
褲	-11.4769
covongo	-11.477
kamanoʉn	-11.4771
桃	-11.4772
社	-11.4773
ngaringari	-11.4773
一首歌	-11.4775
paciropo	-11.4776
般	-11.4777
cakoarʉ	-11.4777
cʉmcʉm	-11.4778
sotampʉ	-11.4778
mavica	-11.4778
念	-11.4778
繩子圍繞在	-11.4778
冬	-11.478
隔	-11.478
髮	-11.478
▁kanakana	-11.4781
腫	-11.4781
雷	-11.4782
似乎沒有	-11.4782
始	-11.4783
願	-11.4783
導	-11.4783
揹簍	-11.4783
玉	-11.4783
困	-11.4783
封	-11.4783
味	-11.4783
人比較多	-11.4783
周	-11.4783
示	-11.4784
緊	-11.4784
束	-11.4784
均	-11.4784
訴	-11.4784
姊妹	-11.4784
avacoko	-11.4784
綠	-11.4784
測	-11.4784
秧	-11.4784
旺	-11.4784
例	-11.4784
炭	-11.4784
Ziauddin	-11.4784
克	-11.4784
英	-11.4784
憤	-11.4784
葫蘆瓜	-11.4784
築	-11.4784
擴	-11.4784
職	-11.4784
覆	-11.4784
舂	-11.4784
挑選	-11.4784
費	-11.4784
但她沒有	-11.4784
坡	-11.4784
娘	-11.4784
聯	-11.4784
訂	-11.4784
召	-11.4784
蜂	-11.4784
複	-11.4784
D	-11.4784
效	-11.4784
世世代代	-11.4784
互相幫助	-11.4784
人們的生活變得	-11.4784
划	-11.4784
向政府爭取	-11.4784
安慰	-11.4784
感到非常驕傲	-11.4784
新冠病毒	-11.4784
有力量	-11.4784
柱	-11.4784
渡井三郎	-11.4784
澳洲政府	-11.4784
這個詞彙	-11.4784
蜜	-11.4784
策	-11.4784
▁快樂王子拜託燕子	-11.4784
唉	-11.4784
在山林裡	-11.4784
譯	-11.4784
不聽我的話	-11.4784
Miciku	-11.4785
Niunu	-11.4785
▁去競爭	-11.4785
▁從那時起	-11.4785
▁這支筆是	-11.4785
佩	-11.4785
冰箱裡	-11.4785
勤奮	-11.4785
嗚	-11.4785
噴	-11.4785
奈	-11.4785
宇	-11.4785
成年禮	-11.4785
我們趕快切	-11.4785
扇	-11.4785
暴	-11.4785
登	-11.4785
的情況	-11.4785
碎	-11.4785
吃得飽	-11.4785
在那裡站著	-11.4785
小孩在床舖	-11.4785
的對象	-11.4785
窩	-11.4785
Miciko	-11.4785
Samusong	-11.4785
一個接一個	-11.4785
他的同伴們	-11.4785
仿	-11.4785
倆	-11.4785
倒在馬路	-11.4785
像鳥一樣	-11.4785
兩個太陽輪流出現	-11.4785
危	-11.4785
外來者	-11.4785
太陽要下山了	-11.4785
我有一個姊姊	-11.4785
戲	-11.4785
捆	-11.4785
捏他的耳朵	-11.4785
搞	-11.4785
沒有人喜歡與	-11.4785
沙阿魯哇	-11.4785
消防員	-11.4785
濃	-11.4785
為最重要的人	-11.4785
燃	-11.4785
用火把照明	-11.4785
老師問大家	-11.4785
舒	-11.4785
茅	-11.4785
誌	-11.4785
開窗戶	-11.4785
拉拉看	-11.4785
況	-11.4785
繞著那棵樹走	-11.4785
UmUU	-11.4785
z	-11.4785
▁maráp	-11.4785
▁pongpong	-11.4785
▁tantanna	-11.4785
你可以再給我兩個	-11.4785
在叢林裡	-11.4785
多吃一點	-11.4785
已經歸還了	-11.4785
我要買兩瓶	-11.4785
搭捷運	-11.4785
沒有人會喜歡與你	-11.4785
澆	-11.4785
為我們祈福	-11.4785
罵髒話	-11.4785
身體狀況	-11.4785
這兩本書	-11.4785
防	-11.4785
Karianasa	-11.4785
amoseni	-11.4785
apatakicoo	-11.4785
aponanangʉ	-11.4785
aposovʉrʉsoo	-11.4785
arikoriki	-11.4785
makanangonangoro	-11.4785
mamanUng	-11.4785
ontokai	-11.4785
pongariingari	-11.4785
tavʉnvʉʉn	-11.4785
─	-11.4785
▁Afohan	-11.4785
▁Hʉngco	-11.4785
▁Kananaka	-11.4785
▁Mangacon	-11.4785
▁Nangisarʉ	-11.4785
▁Porato	-11.4785
▁Rokai	-11.4785
▁Siehoi	-11.4785
▁Takao	-11.4785
▁Tangaanoa	-11.4785
▁Ziaoddin	-11.4785
▁arasʉrʉcʉ	-11.4785
▁aritapasa	-11.4785
▁arivivicin	-11.4785
▁atikirio	-11.4785
▁cieyin	-11.4785
▁cirikami	-11.4785
▁iihoa	-11.4785
▁iiovato	-11.4785
▁kakico	-11.4785
▁kanároa	-11.4785
▁kʉmʉʉn	-11.4785
▁maitangrao	-11.4785
▁makásia	-11.4785
▁masarʉmpʉ	-11.4785
▁masicocoro	-11.4785
▁masʉpatʉnʉ	-11.4785
▁matimanʉʉng	-11.4785
▁mavovoarʉ	-11.4785
▁meetosa	-11.4785
▁morakʉrakʉ	-11.4785
▁mosiparʉ	-11.4785
▁mosocikiiciki	-11.4785
▁mátʉa	-11.4785
▁ngʉngʉʉcara	-11.4785
▁niarisinao	-11.4785
▁niarisoacʉ	-11.4785
▁niaritapasa	-11.4785
▁nimaatipa	-11.4785
▁nimosiparʉ	-11.4785
▁ningning	-11.4785
▁nipiivora	-11.4785
▁nirivovoar	-11.4785
▁noaceni	-11.4785
▁pakacʉpʉcʉpʉngʉ	-11.4785
▁parivotokoro	-11.4785
▁pasikʉco	-11.4785
▁piapacaiʉn	-11.4785
▁pingsiang	-11.4785
▁pokaríkari	-11.4785
▁rancoronga	-11.4785
▁sasanang	-11.4785
▁sikoorapʉ	-11.4785
▁sinikinga	-11.4785
▁sinipʉrʉ	-11.4785
▁sinivongoa	-11.4785
▁sinʉʉpʉr	-11.4785
▁sipitokoco	-11.4785
▁sisʉpʉrʉ	-11.4785
▁somasʉrʉcʉ	-11.4785
▁tacamara	-11.4785
▁takitotora	-11.4785
▁takovʉcʉnʉ	-11.4785
▁tangʉrʉngʉrʉ	-11.4785
▁tavononga	-11.4785
▁tomatotora	-11.4785
▁tovakʉ	-11.4785
▁vakore	-11.4785
▁vʉcʉranga	-11.4785
▁他們跟著青蛙來到了	-11.4785
▁你手上的繩子	-11.4785
▁太陽到中間的時候	-11.4785
▁有一位好心的長	-11.4785
▁秋天時	-11.4785
▁風吹了	-11.4785
一場夢	-11.4785
一碗飯	-11.4785
互相友愛	-11.4785
他是我的哥哥	-11.4785
他的職業	-11.4785
他的表情	-11.4785
伯	-11.4785
們全家人都	-11.4785
刺殺豬隻	-11.4785
剖	-11.4785
去澎湖	-11.4785
吃兩顆	-11.4785
吠	-11.4785
和同學一起	-11.4785
唷	-11.4785
啃	-11.4785
問她從何方來	-11.4785
嘛	-11.4785
囉	-11.4785
如果有重大	-11.4785
孔	-11.4785
宿	-11.4785
已經在外面等候了	-11.4785
庇	-11.4785
座山的背面	-11.4785
弱	-11.4785
彎彎曲曲	-11.4785
往前直走	-11.4785
從哪來的	-11.4785
快走開	-11.4785
恩	-11.4785
惱羞成怒	-11.4785
感嘆詞	-11.4785
戀	-11.4785
我介紹	-11.4785
我在這邊	-11.4785
我還不會唸	-11.4785
打哈欠	-11.4785
打瞌睡	-11.4785
搭火車去臺東	-11.4785
搭高鐵去高雄	-11.4785
敲	-11.4785
有幾個孩子	-11.4785
桌上有芋頭	-11.4785
段	-11.4785
洗過臉了	-11.4785
溪流抓螃蟹	-11.4785
漏	-11.4785
澀	-11.4785
災	-11.4785
猜	-11.4785
現在的小朋友可能	-11.4785
瓦	-11.4785
男士們	-11.4785
當護士	-11.4785
的動靜	-11.4785
相距遙遠	-11.4785
絕對不要忘記	-11.4785
給狗狗便便	-11.4785
聖	-11.4785
舒暢	-11.4785
衍	-11.4785
衛生紙	-11.4785
補	-11.4785
詐騙集團	-11.4785
諧	-11.4785
貼	-11.4785
辨	-11.4785
還是跑得慢	-11.4785
那位男士	-11.4785
陷	-11.4785
際	-11.4785
鬧	-11.4785
麥當勞	-11.4785
aparavisi	-11.4785
potovorok	-11.4785
▁aapongo	-11.4785
▁arorimo	-11.4785
▁iovato	-11.4785
▁masí	-11.4785
▁matavʉnʉrʉ	-11.4785
▁mikoong	-11.4785
▁niaratakarʉ	-11.4785
▁rinsio	-11.4785
▁sasanga	-11.4785
▁tavooroko	-11.4785
▁tomatonco	-11.4785
▁但是我們買的	-11.4785
▁我讀了他寫的	-11.4785
▁爸爸去深山	-11.4785
▁路上汽車很多	-11.4785
▁那些女孩子喜歡	-11.4785
▁那個老人	-11.4785
下午我可以出去	-11.4785
不停地	-11.4785
中午要吃	-11.4785
又黑又	-11.4785
叉	-11.4785
扶	-11.4785
把書給誰	-11.4785
把樹倒在馬路	-11.4785
浪濤	-11.4785
為他取名為	-11.4785
罪	-11.4785
腎	-11.4785
請公開	-11.4785
遷移到	-11.4785
▁maticosa	-11.4785
▁necʉre	-11.4785
▁你要什麼時候休息	-11.4785
▁那個男孩子正在	-11.4785
kosookoso	-11.4785
míri	-11.4785
▁Karani	-11.4785
▁nimaacaca	-11.4785
▁reki	-11.4785
▁sasovo	-11.4785
▁今天星期	-11.4785
▁我手痛	-11.4785
▁颱風來了	-11.4785
也會被人	-11.4785
也穿上	-11.4785
們天天來這裡吃晚餐	-11.4785
們快抵達了	-11.4785
們要接的是	-11.4785
呵	-11.4785
我有一個哥哥	-11.4785
指現今	-11.4785
松	-11.4785
泛	-11.4785
看不見	-11.4785
紋	-11.4785
纏	-11.4785
要播撒在	-11.4785
謠	-11.4785
貍	-11.4785
驅	-11.4785
apararoai	-11.4785
ongkako	-11.4785
▁potairi	-11.4785
▁ripon	-11.4785
▁tomʉpʉ	-11.4785
▁給我書的	-11.4785
兩條魚	-11.4785
每一家	-11.4785
變直了	-11.4785
這是我種的	-11.4785
那間房子很大	-11.4785
順	-11.4785
▁ciropo	-11.4785
▁nipocanoma	-11.4785
▁tomatʉkʉrʉ	-11.4785
蓋被子	-11.4785
apacacoo	-11.4785
iaroon	-11.4785
ototaan	-11.4785
tamu	-11.4785
▁kisaʉn	-11.4785
▁卡蒂烏莎的照片	-11.4785
▁心想那女子會不會	-11.4785
一棵樹	-11.4785
不公平	-11.4785
今天很冷	-11.4785
傾	-11.4785
到月亮上	-11.4785
所以這裡的水流較緩慢	-11.4785
扁	-11.4785
搶	-11.4785
最珍貴的	-11.4785
演	-11.4785
疊	-11.4785
看什麼書	-11.4785
石壓式陷阱	-11.4785
缺	-11.4785
肩膀	-11.4785
賜	-11.4785
趾	-11.4785
這些說法	-11.4785
逢	-11.4785
遊	-11.4785
遮	-11.4785
顯	-11.4785
飯團包	-11.4785
aparatʉkʉn	-11.4785
嬉戲	-11.4785
打打看	-11.4785
磨利	-11.4785
這條魚	-11.4785
aniacanga	-11.4785
▁canoom	-11.4785
▁omangoro	-11.4785
▁komakisikisi	-11.4785
▁matavacoko	-11.4785
▁paracaan	-11.4785
▁tomeen	-11.4785
▁topaso	-11.4785
你要不要吃	-11.4785
囊	-11.4785
我們的傳統習俗	-11.4785
拐	-11.4785
損	-11.4785
的結果如何	-11.4785
請告訴她	-11.4785
走去家裡	-11.4785
都喜歡唱歌	-11.4785
aparisikoo	-11.4785
siensi	-11.4785
抗	-11.4785
捨	-11.4785
apopacai	-11.4785
▁arivin	-11.4785
卑南族	-11.4785
卡車司機	-11.4785
奉	-11.4785
嫁	-11.4785
從家裡來的	-11.4785
捲	-11.4785
是山豬肉	-11.4785
桑	-11.4785
浮	-11.4785
炸	-11.4785
用左手丟球	-11.4785
百合花	-11.4785
的觀念	-11.4785
的身材	-11.4785
看得懂	-11.4785
確診	-11.4785
要趕早	-11.4785
誇	-11.4785
達那伊谷	-11.4785
避難	-11.4785
鍊	-11.4785
▁Tainan	-11.4785
▁aritaroo	-11.4785
在台北	-11.4785
少量的	-11.4785
產卵	-11.4785
▁ravani	-11.4785
傲	-11.4785
可以跟你借	-11.4785
想一想	-11.4785
為他準備	-11.4785
荷蘭人	-11.4785
達卡努瓦里	-11.4785
▁makahoa	-11.4785
apaicoo	-11.4785
▁Nancʉ	-11.4785
不允許	-11.4785
勝利	-11.4785
奪	-11.4785
寬廣	-11.4785
尋求幫助	-11.4785
彎曲	-11.4785
快下雨了	-11.4785
我要讓我的小孩	-11.4785
撥	-11.4785
用滾的	-11.4785
米糕是用	-11.4785
給小狗小便	-11.4785
豐盛的	-11.4785
這群人	-11.4785
郎	-11.4785
鎮	-11.4785
▁morari	-11.4785
makaposan	-11.4785
▁nipatikoro	-11.4785
以前我們老人家	-11.4785
要同情	-11.4785
勸勸	-11.4785
左右	-11.4785
每次都	-11.4785
海龜	-11.4785
矮黑人	-11.4785
▁masaakʉn	-11.4785
▁pasakao	-11.4785
▁tacanginia	-11.4785
卡那卡那富的老人家	-11.4785
餅乾	-11.4785
在吃玉米	-11.4785
的外套	-11.4785
▁manʉmʉn	-11.4785
angena	-11.4785
▁這是山豬的	-11.4785
要特別注意	-11.4785
▁navoong	-11.4785
高高的	-11.4785
Piuri	-11.4785
在床底下摸索	-11.4785
我很可憐	-11.4785
飛翔	-11.4785
▁sinorove	-11.4785
吃辣的	-11.4785
標示	-11.4785
▁ororoo	-11.4785
的年代	-11.4785
的後代長得跟	-11.4785
相關的	-11.4785
▁móvoa	-11.4785
手舉起來	-11.4785
單獨	-11.4785
增進	-11.4785
憤怒	-11.4785
我帶你去	-11.4785
把家裡打掃看	-11.4785
那顆大石頭	-11.4785
▁macangca	-11.4785
▁tasioro	-11.4785
到如今	-11.4785
米糕是用什麼做的	-11.4785
信任	-11.4785
修改	-11.4785
瘡疤	-11.4785
趕緊	-11.4785
masitʉa	-11.4785
▁toapapa	-11.4785
▁Nep	-11.4785
▁sisini	-11.4785
平埔族群	-11.4785
我在家裡有	-11.4785
組織	-11.4785
老虎	-11.4785
聽不到	-11.4785
▁moocara	-11.4785
▁taporoo	-11.4785
到哪裡了	-11.4785
祈福	-11.4785
甲仙埔	-11.4785
青蛙叫了	-11.4785
領袖	-11.4785
▁makʉrʉkʉr	-11.4785
▁somacʉkʉna	-11.4785
鎖具	-11.4785
祈求	-11.4785
致敬	-11.4785
乾柴	-11.4785
以前的老人家	-11.4785
懶得	-11.4785
有我很多的	-11.4785
你就穿	-11.4785
所需要的	-11.4785
黃藤	-11.4785
行政	-11.4785
cʉkʉcʉkʉ	-11.4785
美味	-11.4785
aríng	-11.4785
▁tarikʉra	-11.4785
有什麼用	-11.4785
apasanvario	-11.4785
iwan	-11.4785
山蘇	-11.4785
祖靈	-11.4785
kisʉn	-11.4785
好多好多	-11.4785
臨時	-11.4785
銀行	-11.4785
▁neevic	-11.4785
的動作	-11.4785
▁tariri	-11.4785
支持	-11.4785
相信他的話	-11.4785
總統	-11.4785
火柴	-11.4785
驚喜	-11.4785
nimacai	-11.4785
依舊	-11.4786
倒臥	-11.4786
去田裡工作	-11.4786
科學	-11.4786
orocangʉ	-11.4786
陰涼	-11.4786
增多	-11.4786
解決	-11.4786
神靈	-11.4786
依然	-11.4786
微風	-11.4786
遇難	-11.4786
▁niaritapasʉ	-11.4786
▁romaringee	-11.4786
繞圈	-11.4786
▁我們兩人一起	-11.4786
icopo	-11.4786
地勢	-11.4786
墾地	-11.4786
我忘了帶筆	-11.4786
sisiin	-11.4786
會有今天	-11.4786
兩姊妹	-11.4786
小米收割完	-11.4786
不用擔心	-11.4786
會有什麼	-11.4786
談論	-11.4786
▁koocong	-11.4786
你呼叫看看	-11.4786
堅硬	-11.4786
ʉcie	-11.4786
該怎麼辦	-11.4786
建立	-11.4786
還不要翻面	-11.4786
▁電話	-11.4786
種說法	-11.4786
意義不同	-11.4786
棵大樹	-11.4786
買米酒	-11.4786
歌星	-11.4786
診所	-11.4786
▁voravong	-11.4786
的生活方式	-11.4786
你若有空	-11.4786
另	-11.5555
鄉	-11.6674
題	-11.8889
睏	-11.9235
疲	-11.925
擁	-11.9261
籃	-11.9272
繩	-11.9272
帽	-11.9272
遍	-11.9276
透	-11.9279
柴	-11.9279
撈	-11.9279
裏	-11.9279
幹	-11.928
謂	-11.928
夏	-11.928
迫	-11.928
鋤	-11.9281
微	-11.9281
串	-11.9281
零	-11.9282
禮	-11.9282
架	-11.9282
師	-11.9283
悔	-11.9283
科	-11.9283
尊	-11.9283
懼	-11.9283
織	-11.9283
政	-11.9283
臥	-11.9283
尤	-11.9283
粒	-11.9283
修	-11.9283
婦	-11.9283
鷹	-11.9283
旁	-11.9283
谷	-11.9283
糖	-11.9283
廣	-11.9284
龍	-11.9284
任	-11.9284
坦	-11.9284
銀	-11.9284
志	-11.9284
獎	-11.9284
緬	-11.9284
藉	-11.9284
技	-11.9284
漂	-11.9284
略	-11.9284
里	-11.9284
延	-11.9284
消	-11.9284
疫	-11.9284
適	-11.9284
孤	-11.9284
蕉	-11.9284
熬	-11.9284
旋	-11.9284
靜	-11.9284
援	-11.9284
波	-11.9284
省	-11.9284
窮	-11.9284
簽	-11.9284
賓	-11.9284
悲	-11.9284
刻	-11.9284
資	-11.9284
勞	-11.9284
啟	-11.9284
票	-11.9284
曲	-11.9284
痰	-11.9284
逝	-11.9284
亡	-11.9284
仍	-11.9284
智	-11.9284
勝	-11.9284
休	-11.9284
付	-11.9284
掐	-11.9284
漲	-11.9284
盟	-11.9284
府	-11.9284
維	-11.9284
喊	-11.9284
舅	-11.9284
妥	-11.9284
蛙	-11.9284
薪	-11.9284
V	-11.9284
浪	-11.9284
契	-11.9284
慌	-11.9284
槳	-11.9284
淡	-11.9284
溼	-11.9284
瑪	-11.9284
罐	-11.9284
茸	-11.9284
貧	-11.9284
醃	-11.9284
飄	-11.9284
裙	-11.9284
慶	-11.9285
旗	-11.9285
q	-11.9285
乏	-11.9285
供	-11.9285
匱	-11.9285
塗	-11.9285
填	-11.9285
泉	-11.9285
爆	-11.9285
虞	-11.9285
蠻	-11.9285
慣	-11.9285
糟	-11.9285
鋪	-11.9285
→	-11.9285
咳	-11.9285
振	-11.9285
杓	-11.9285
礎	-11.9285
佑	-11.9285
俊	-11.9285
側	-11.9285
判	-11.9285
剁	-11.9285
劃	-11.9285
匯	-11.9285
咕	-11.9285
喪	-11.9285
嗯	-11.9285
嚴	-11.9285
址	-11.9285
培	-11.9285
墊	-11.9285
姻	-11.9285
嫂	-11.9285
屎	-11.9285
層	-11.9285
抹	-11.9285
拆	-11.9285
擋	-11.9285
攀	-11.9285
攻	-11.9285
敞	-11.9285
晾	-11.9285
朗	-11.9285
案	-11.9285
桿	-11.9285
梯	-11.9285
棍	-11.9285
榖	-11.9285
欄	-11.9285
欠	-11.9285
歎	-11.9285
毀	-11.9285
汁	-11.9285
泊	-11.9285
湖	-11.9285
濁	-11.9285
焦	-11.9285
瞎	-11.9285
矛	-11.9285
秒	-11.9285
穩	-11.9285
系	-11.9285
紐	-11.9285
純	-11.9285
縱	-11.9285
肝	-11.9285
脂	-11.9285
脆	-11.9285
腋	-11.9285
腹	-11.9285
膿	-11.9285
航	-11.9285
艱	-11.9285
藷	-11.9285
螂	-11.9285
蟑	-11.9285
蟬	-11.9285
衝	-11.9285
訝	-11.9285
趟	-11.9285
踏	-11.9285
躁	-11.9285
轟	-11.9285
辭	-11.9285
逛	-11.9285
邁	-11.9285
雅	-11.9285
雌	-11.9285
霜	-11.9285
頸	-11.9285
繁	-11.9285
婆	-11.9285
佳	-11.9285
懲	-11.9285
核	-11.9285
鈕	-11.9285
漁	-11.9285
兮	-11.9285
序	-11.9285
悅	-11.9285
惱	-11.9285
牧	-11.9285
睜	-11.9285
督	-11.9285
祂	-11.9285
綴	-11.9285
罰	-11.9285
羅	-11.9285
蛀	-11.9285
赤	-11.9285
迎	-11.9285
雕	-11.9285
警	-11.9285
介	-11.9285
剔	-11.9285
巡	-11.9285
措	-11.9285
敗	-11.9285
景	-11.9285
朝	-11.9285
欸	-11.9285
殘	-11.9285
癒	-11.9285
虧	-11.9285
襲	-11.9285
威	-11.9285
欺	-11.9285
畏	-11.9285
逐	-11.9285
既	-11.9285
漸	-11.9285
蕨	-11.9285
諾	-11.9285
質	-11.9285
些	-11.9286
羌	-12.0453
古	-12.4311
栓	-12.5182
伸	-12.6797
鴿	-12.7456
鱗	-12.7457
鯨	-12.7458
魄	-12.7459
騰	-12.746
顫	-12.7461
鞭	-12.7462
鞘	-12.7463
雪	-12.7464
雉	-12.7465
陳	-12.7466
陌	-12.7467
閣	-12.7468
鑣	-12.7469
鉗	-12.747
釋	-12.7471
醜	-12.7472
邵	-12.7473
邦	-12.7474
輛	-12.7475
蹤	-12.7476
蹉	-12.7477
跎	-12.7478
販	-12.7479
貝	-12.748
豹	-12.7481
誦	-12.7482
詛	-12.7483
覓	-12.7484
螫	-12.7485
蜥	-12.7486
薩	-12.7487
蕃	-12.7488
華	-12.7489
艘	-12.749
臘	-12.7491
臍	-12.7492
膛	-12.7493
腕	-12.7494
胞	-12.7495
耘	-12.7496
繡	-12.7497
簸	-12.7498
簙	-12.7499
笠	-12.75
祐	-12.7501
碌	-12.7502
眩	-12.7503
疾	-12.7504
畚	-12.7505
甕	-12.7506
燥	-12.7507
濟	-12.7508
濘	-12.7509
漩	-12.751
渦	-12.7511
淆	-12.7512
涕	-12.7513
洄	-12.7514
殊	-12.7515
構	-12.7516
楣	-12.7517
柏	-12.7518
枕	-12.7519
曠	-12.752
暑	-12.7521
昂	-12.7522
斧	-12.7523
擇	-12.7524
撇	-12.7525
揚	-12.7526
掩	-12.7527
控	-12.7528
戒	-12.7529
懇	-12.753
憂	-12.7531
悶	-12.7532
悉	-12.7533
怠	-12.7534
忱	-12.7535
德	-12.7536
循	-12.7537
彈	-12.7538
廢	-12.7539
巫	-12.754
履	-12.7541
屏	-12.7542
寒	-12.7543
奧	-12.7544
央	-12.7545
塵	-12.7546
嚀	-12.7547
嘉	-12.7548
啡	-12.7549
唯	-12.755
咖	-12.7551
咒	-12.7552
呻	-12.7553
吼	-12.7554
叮	-12.7555
匕	-12.7556
劍	-12.7557
副	-12.7558
凡	-12.7559
儘	-12.756
傻	-12.7561
偏	-12.7562
倚	-12.7563
促	-12.7564
伏	-12.7565
丘	-12.7566
+	-12.7567
頑	-12.7568
雀	-12.7569
陀	-12.757
銅	-12.7571
郭	-12.7572
賭	-12.7573
謊	-12.7574
託	-12.7575
訊	-12.7576
裹	-12.7577
裕	-12.7578
薄	-12.7579
葫	-12.758
萎	-12.7581
菇	-12.7582
荷	-12.7583
舌	-12.7584
脾	-12.7585
聰	-12.7586
翅	-12.7587
籍	-12.7587
匙	-12.7588
繪	-12.7588
紮	-12.7589
糞	-12.759
籬	-12.7591
簿	-12.7592
穌	-12.7593
瞌	-12.7594
眺	-12.7595
疑	-12.7596
畜	-12.7597
狸	-12.7598
烈	-12.7599
炫	-12.76
灘	-12.7601
潮	-12.7602
溜	-12.7603
液	-12.7604
汲	-12.7605
梅	-12.7605
李	-12.7606
殿	-12.7606
晝	-12.7607
昔	-12.7608
掘	-12.7609
斤	-12.7609
慮	-12.761
愧	-12.7611
腰	-12.7611
挑	-12.7611
墾	-12.7612
陪	-12.7612
恆	-12.7612
診	-12.7612
增	-12.7613
紀	-12.7613
概	-12.7613
岸	-12.7613
廠	-12.7613
陸	-12.7613
干	-12.7614
且	-12.7614
勢	-12.7615
臨	-12.7615
終	-12.7615
賺	-12.7615
覺	-12.7615
帝	-12.7615
育	-12.7615
蘇	-12.7615
懶	-12.7615
誕	-12.7616
薑	-12.7616
勤	-12.7616
甲	-12.7616
糕	-12.7616
嫌	-12.7616
é	-12.7616
習	-12.7616
尼	-12.7616
擔	-12.7616
永	-12.7616
虎	-12.7616
豐	-12.7616
貢	-12.7617
拖	-12.7617
龜	-12.7617
姨	-12.7617
森	-12.7617
歉	-12.7617
儀	-12.7617
餅	-12.7617
己	-12.7617
翔	-12.7617
避	-12.7617
奏	-12.7617
革	-12.7617
索	-12.7617
操	-12.7617
域	-12.7617
嘟	-12.7617
甸	-12.7617
碳	-12.7617
礦	-12.7617
羹	-12.7617
轎	-12.7617
鬥	-12.7617
竊	-12.7617
麗	-12.7617
娃	-12.7617
險	-12.7617
察	-12.7617
藍	-12.7617
突	-12.7617
怎	-12.7617
仲	-12.7618
僞	-12.7618
卑	-12.7618
喧	-12.7618
嘩	-12.7618
岬	-12.7618
捐	-12.7618
普	-12.7618
樟	-12.7618
欒	-12.7618
氧	-12.7618
派	-12.7618
煤	-12.7618
矩	-12.7618
糧	-12.7618
蘆	-12.7618
裁	-12.7618
謀	-12.7618
貿	-12.7618
輸	-12.7618
仔	-12.7618
嬰	-12.7618
慰	-12.7618
雖	-12.7618
拾	-12.7618
畢	-12.7618
鼓	-12.7618
磨	-12.7618
鮮	-12.7618
拌	-12.7618
列	-12.7618
塞	-12.7618
惟	-12.7618
憎	-12.7618
曝	-12.7618
没	-12.7618
淹	-12.7618
澗	-12.7618
瀕	-12.7618
甫	-12.7618
絆	-12.7618
缚	-12.7618
葦	-12.7618
誓	-12.7618
誘	-12.7618
赴	-12.7618
輝	-12.7618
鍵	-12.7618
階	-12.7618
頒	-12.7618
饗	-12.7618
祝	-12.7618
勵	-12.7618
夥	-12.7618
竟	-12.7618
慧	-12.7618
傑	-12.7618
卵	-12.7618
肩	-12.7618
限	-12.7618
暢	-12.7618
>	-12.7618
L	-12.7618
冀	-12.7618
姓	-12.7618
岀	-12.7618
岔	-12.7618
徹	-12.7618
杖	-12.7618
榕	-12.7618
洽	-12.7618
淋	-12.7618
穗	-12.7618
维	-12.7618
脹	-12.7618
芎	-12.7618
薯	-12.7618
逼	-12.7618
逾	-12.7618
媳	-12.7618
賀	-12.7618
壺	-12.7618
托	-12.7618
掙	-12.7618
槌	-12.7618
潛	-12.7618
眉	-12.7618
籤	-12.7618
緒	-12.7618
莊	-12.7618
蔡	-12.7618
蝪	-12.7618
螢	-12.7618
趴	-12.7618
仙	-12.7618
疤	-12.7618
瘡	-12.7618
俗	-12.7618
掌	-12.7618
隙	-12.7618
<	-12.7618
\	-12.7618
丐	-12.7618
乞	-12.7618
什	-12.7618
伺	-12.7618
佬	-12.7618
倍	-12.7618
偉	-12.7618
債	-12.7618
兆	-12.7618
兜	-12.7618
决	-12.7618
凶	-12.7618
凹	-12.7618
刊	-12.7618
刴	-12.7618
剃	-12.7618
劇	-12.7618
勘	-12.7618
勻	-12.7618
匹	-12.7618
占	-12.7618
呆	-12.7618
呈	-12.7618
呦	-12.7618
呸	-12.7618
咻	-12.7618
咽	-12.7618
哀	-12.7618
哦	-12.7618
哨	-12.7618
哩	-12.7618
啞	-12.7618
喂	-12.7618
喵	-12.7618
嗝	-12.7618
嗽	-12.7618
噢	-12.7618
嚎	-12.7618
嚥	-12.7618
垂	-12.7618
垢	-12.7618
墜	-12.7618
夷	-12.7618
妒	-12.7618
妝	-12.7618
委	-12.7618
娩	-12.7618
婉	-12.7618
嫩	-12.7618
寂	-12.7618
寄	-12.7618
寞	-12.7618
寧	-12.7618
寰	-12.7618
屍	-12.7618
岩	-12.7618
峨	-12.7618
峯	-12.7618
峻	-12.7618
峽	-12.7618
崇	-12.7618
崩	-12.7618
嶺	-12.7618
巍	-12.7618
州	-12.7618
帄	-12.7618
幽	-12.7618
役	-12.7618
惘	-12.7618
愉	-12.7618
扎	-12.7618
扭	-12.7618
扮	-12.7618
扯	-12.7618
投	-12.7618
抽	-12.7618
拇	-12.7618
拒	-12.7618
括	-12.7618
拯	-12.7618
拳	-12.7618
拴	-12.7618
拼	-12.7618
捻	-12.7618
揉	-12.7618
揍	-12.7618
搓	-12.7618
搔	-12.7618
摀	-12.7618
摏	-12.7618
摩	-12.7618
摺	-12.7618
撐	-12.7618
撤	-12.7618
撫	-12.7618
撬	-12.7618
撼	-12.7618
擠	-12.7618
擬	-12.7618
敏	-12.7618
斑	-12.7618
旦	-12.7618
旱	-12.7618
杈	-12.7618
柿	-12.7618
桐	-12.7618
桶	-12.7618
梗	-12.7618
械	-12.7618
椎	-12.7618
楓	-12.7618
楠	-12.7618
槽	-12.7618
檜	-12.7618
櫃	-12.7618
櫻	-12.7618
殖	-12.7618
氓	-12.7618
污	-12.7618
沃	-12.7618
沾	-12.7618
涸	-12.7618
渡	-12.7618
渣	-12.7618
渾	-12.7618
湊	-12.7618
溺	-12.7618
滲	-12.7618
滷	-12.7618
漫	-12.7618
漬	-12.7618
漱	-12.7618
潑	-12.7618
澈	-12.7618
澎	-12.7618
澤	-12.7618
濾	-12.7618
灌	-12.7618
炊	-12.7618
煞	-12.7618
燈	-12.7618
爽	-12.7618
犬	-12.7618
狹	-12.7618
猛	-12.7618
獠	-12.7618
珠	-12.7618
琴	-12.7618
瑩	-12.7618
症	-12.7618
痊	-12.7618
痠	-12.7618
癡	-12.7618
盈	-12.7618
盒	-12.7618
盛	-12.7618
監	-12.7618
睫	-12.7618
瞧	-12.7618
碩	-12.7618
碴	-12.7618
碾	-12.7618
磅	-12.7618
礙	-12.7618
秘	-12.7618
稚	-12.7618
窄	-12.7618
窪	-12.7618
竄	-12.7618
笆	-12.7618
筌	-12.7618
範	-12.7618
簧	-12.7618
粑	-12.7618
糾	-12.7618
紗	-12.7618
紫	-12.7618
絡	-12.7618
綉	-12.7618
綑	-12.7618
縣	-12.7618
繳	-12.7618
罩	-12.7618
罷	-12.7618
耙	-12.7618
耽	-12.7618
聾	-12.7618
肘	-12.7618
肢	-12.7618
肪	-12.7618
胃	-12.7618
胎	-12.7618
胰	-12.7618
胱	-12.7618
脈	-12.7618
脊	-12.7618
脖	-12.7618
腔	-12.7618
膊	-12.7618
臀	-12.7618
臂	-12.7618
舔	-12.7618
舟	-12.7618
苳	-12.7618
茁	-12.7618
荔	-12.7618
莎	-12.7618
莓	-12.7618
莫	-12.7618
菸	-12.7618
萊	-12.7618
葚	-12.7618
葛	-12.7618
葵	-12.7618
蒐	-12.7618
蓆	-12.7618
蔭	-12.7618
蕎	-12.7618
蕗	-12.7618
蕩	-12.7618
藻	-12.7618
虔	-12.7618
蚤	-12.7618
蚱	-12.7618
蛤	-12.7618
蜢	-12.7618
蜴	-12.7618
蠣	-12.7618
襠	-12.7618
詳	-12.7618
説	-12.7618
誼	-12.7618
謙	-12.7618
謾	-12.7618
豎	-12.7618
賦	-12.7618
賴	-12.7618
蹲	-12.7618
軌	-12.7618
辰	-12.7618
迴	-12.7618
遐	-12.7618
郊	-12.7618
鄭	-12.7618
酵	-12.7618
醬	-12.7618
釘	-12.7618
鈍	-12.7618
銜	-12.7618
鍬	-12.7618
鎚	-12.7618
鏟	-12.7618
鏡	-12.7618
鑰	-12.7618
鑲	-12.7618
鑽	-12.7618
闊	-12.7618
闖	-12.7618
阻	-12.7618
障	-12.7618
霄	-12.7618
霧	-12.7618
鞣	-12.7618
韌	-12.7618
頁	-12.7618
頃	-12.7618
頻	-12.7618
颳	-12.7618
饋	-12.7618
饞	-12.7618
駛	-12.7618
魔	-12.7618
魞	-12.7618
鯕	-12.7618
鵝	-12.7618
鵯	-12.7618
麴	-12.7618
朋	-12.7618
傴	-12.7618
堵	-12.7618
禁	-12.7618
閱	-12.7618
闢	-12.7618
駕	-12.7618
嬉	-12.7618
偽	-12.7618
眠	-12.7618
祢	-12.7618
肛	-12.7618
蔓	-12.7618
裸	-12.7618
襯	-12.7618
釦	-12.7618
頓	-12.7618
濤	-12.7618
乃	-12.7618
募	-12.7618
哺	-12.7618
噶	-12.7618
囚	-12.7618
徵	-12.7618
憊	-12.7618
拋	-12.7618
揀	-12.7618
敷	-12.7618
昭	-12.7618
棚	-12.7618
榮	-12.7618
歐	-12.7618
熔	-12.7618
珊	-12.7618
瑚	-12.7618
疏	-12.7618
綿	-12.7618
耗	-12.7618
薦	-12.7618
藝	-12.7618
蝸	-12.7618
袍	-12.7618
裳	-12.7618
諸	-12.7618
譴	-12.7618
韓	-12.7618
鯝	-12.7618
倡	-12.7618
准	-12.7618
剰	-12.7618
吱	-12.7618
堪	-12.7618
屠	-12.7618
憲	-12.7618
撰	-12.7618
晶	-12.7618
爪	-12.7618
私	-12.7618
篇	-12.7618
脅	-12.7618
融	-12.7618
街	-12.7618
辜	-12.7618
遞	-12.7618
邏	-12.7618
隼	-12.7618
鱉	-12.7618
抵	-12.7618
嗣	-12.7618
儲	-12.7619
媒	-12.7619
慘	-12.7619
昆	-12.7619
淫	-12.7619
肆	-12.7619
良	-12.7619
荽	-12.7619
虐	-12.7619
違	-12.7619
騷	-12.7619
哈	-12.7619
旅	-12.7619
績	-12.7619
吳	-12.762
吞	-12.7621
迅	-12.7622
匿	-12.7622
凝	-12.7623
凌	-12.7624
冒	-12.7625
催	-12.7626
伊	-12.7627
麥	-12.7628
鷺	-12.7629
鷥	-12.763
餘	-12.7631
飢	-12.7632
鋸	-12.7633
鄰	-12.7634
遲	-12.7635
跡	-12.7636
趣	-12.7637
澡	-12.7638
購	-12.7638
謹	-12.7639
詐	-12.764
衛	-12.7641
蝠	-12.7642
蝙	-12.7643
虱	-12.7644
芭	-12.7645
羽	-12.7646
缸	-12.7647
紹	-12.7648
粽	-12.7649
穴	-12.765
研	-12.7651
瞪	-12.7652
睦	-12.7653
盼	-12.7654
皂	-12.7655
瑞	-12.7656
犧	-12.7657
爮	-12.7658
湍	-12.7659
榴	-12.766
棕	-12.7661
昌	-12.7662
授	-12.7663
挺	-12.7664
批	-12.7665
慷	-12.7666
慨	-12.7667
徙	-12.7668
帳	-12.7669
展	-12.767
宙	-12.7671
執	-12.7672
嚼	-12.7673
噪	-12.7674
嘍	-12.7675
嗅	-12.7676
哎	-12.7677
咀	-12.7678
含	-12.7679
叩	-12.768
削	-12.7681
凳	-12.7682
允	-12.7683
伐	-12.7684
仰	-12.7685
Ʉ	-12.7686
j	-12.7687
齡	-12.7688
齒	-12.7689
鷴	-12.769
鱸	-12.7691
鬚	-12.7692
驕	-12.7693
餚	-12.7694
飼	-12.7695
述	-12.7696
蹈	-12.7697
貣	-12.7698
豢	-12.7699
蠅	-12.77
蝨	-12.7701
蘿	-12.7702
蔔	-12.7703
蒂	-12.7704
苧	-12.7705
芽	-12.7706
股	-12.7707
競	-12.7708
秀	-12.7709
矢	-12.771
狐	-12.7711
營	-12.7712
烹	-12.7713
澳	-12.7714
溢	-12.7715
欣	-12.7716
樑	-12.7717
斥	-12.7718
敵	-12.7719
捷	-12.772
披	-12.7721
態	-12.7722
悠	-12.7723
彼	-12.7724
康	-12.7725
帥	-12.7726
奔	-12.7727
嘆	-12.7728
嗇	-12.7729
吝	-12.773
凱	-12.7731
傍	-12.7732
井	-12.7733
蚌	-12.7734
莖	-12.7735
聆	-12.7736
耐	-12.7737
箕	-12.7738
積	-12.7739
爛	-12.774
浸	-12.7741
泡	-12.7742
汽	-12.7743
氏	-12.7744
梨	-12.7745
桂	-12.7746
揮	-12.7747
憶	-12.7748
恢	-12.7749
廳	-12.775
庫	-12.7751
宜	-12.7752
孕	-12.7753
塌	-12.7754
嚨	-12.7755
啼	-12.7756
史	-12.7757
創	-12.7758
充	-12.7759
侶	-12.776
丈	-12.7761
Z	-12.7762
響	-12.7763
鈔	-12.7764
躍	-12.7765
跨	-12.7766
誡	-12.7767
蟻	-12.7768
螞	-12.7769
蜘	-12.777
蛛	-12.7771
瞄	-12.7772
炎	-12.7773
瀑	-12.7774
洋	-12.7775
柬	-12.7776
柚	-12.7777
掀	-12.7778
戚	-12.7779
憾	-12.778
征	-12.7781
嶼	-12.7782
寨	-12.7783
嚏	-12.7784
吟	-12.7785
B	-12.7786
%	-12.7787
須	-12.7788
鉛	-12.7789
遙	-12.779
途	-12.7791
蜻	-12.7792
蜓	-12.7793
蚊	-12.7794
苔	-12.7795
舖	-12.7796
膠	-12.7797
耆	-12.7798
稀	-12.7799
療	-12.78
燕	-12.7801
潭	-12.7802
彙	-12.7803
嬸	-12.7804
塑	-12.7805
嘲	-12.7806
剝	-12.7807
冠	-12.7808
乘	-12.7809
齊	-12.781
鳳	-12.7811
鄒	-12.7812
蚯	-12.7813
蚓	-12.7814
蘋	-12.7815
膝	-12.7816
筍	-12.7817
泰	-12.7818
沸	-12.7819
廁	-12.782
巧	-12.7821
嬤	-12.7822
勇	-12.7823
俄	-12.7824
跛	-12.7825
箱	-12.7826
瓢	-12.7827
泣	-12.7828
汗	-12.7829
武	-12.783
檢	-12.7831
梓	-12.7832
妻	-12.7833
啄	-12.7834
郵	-12.7835
讚	-12.7836
諱	-12.7837
蝶	-12.7838
蝴	-12.7839
蔬	-12.784
蔗	-12.7841
肋	-12.7842
筒	-12.7843
禱	-12.7844
瞭	-12.7845
環	-12.7846
檳	-12.7847
榔	-12.7848
按	-12.7849
宰	-12.785
宗	-12.7851
姑	-12.7852
團	-12.7853
咱	-12.7854
鰻	-12.7855
韆	-12.7856
鞦	-12.7857
邀	-12.7858
穫	-12.7859
熄	-12.786
棉	-12.7861
川	-12.7862
埋	-12.7863
Y	-12.7864
耕	-12.7865
淨	-12.7866
惰	-12.7867
b	-12.7868
鴉	-12.7869
闆	-12.787
詢	-12.7871
羨	-12.7872
竿	-12.7873
秋	-12.7874
洪	-12.7875
椒	-12.7876
春	-12.7877
抖	-12.7878
慕	-12.7879
崖	-12.788
尖	-12.7881
O	-12.7882
溝	-12.7883
涉	-12.7884
楚	-12.7885
曉	-12.7886
否	-12.7887
司	-12.7888
厲	-12.7889
閩	-12.789
貨	-12.7891
籽	-12.7892
橡	-12.7893
固	-12.7894
值	-12.7895
魯	-12.7896
鞋	-12.7897
辛	-12.7898
虹	-12.7899
糯	-12.79
窗	-12.7901
攜	-12.7902
懸	-12.7903
塘	-12.7904
I	-12.7905
筷	-12.7906
功	-12.7907
享	-12.7908
顏	-12.7909
螃	-12.791
笛	-12.7911
彩	-12.7912
巨	-12.7913
W	-12.7914
繼	-12.7915
碰	-12.7916
橘	-12.7917
垃	-12.7918
圾	-12.7919
乎	-12.792
蟹	-12.7921
肚	-12.7922
握	-12.7923
喻	-12.7924
偶	-12.7925
跌	-12.7926
歸	-12.7927
幣	-12.7928
糬	-12.7929
鐮	-12.793
臺	-12.7931
目	-12.7932
庭	-12.7933
兔	-12.7934
厭	-12.7935
鼻	-12.7936
颱	-12.7937
橋	-12.7938
雄	-12.7939
芋	-12.794
界	-12.7941
芒	-12.7942
睛	-12.7943
忌	-12.7944
希	-12.7945
討	-12.7946
狩	-12.7947
泳	-12.7948
棄	-12.7949
假	-12.795
珍	-12.7951
搖	-12.7952
士	-12.7953
互	-12.7954
椅	-12.7955
祀	-12.7956
甚	-12.7957
猴	-12.7958
舞	-12.7959
訪	-12.796
賽	-12.7961
植	-12.7962
耍	-12.7963
阱	-12.7964
係	-12.7965
據	-12.7966
灣	-12.7967
努	-12.7968
忙	-12.7969
步	-12.797
午	-12.7971
房	-12.7972
姐	-12.7973
兄	-12.7974
助	-12.7975
奶	-12.7976
昨	-12.7977
爺	-12.7978
叔	-12.7979
陽	-12.798
á	-12.7981
C	-12.7982
校	-12.7983
R	-12.7984
哥	-12.7985
弟	-12.7986
爸	-12.7987
孩	-12.7988
媽	-12.7989
麼	-12.799
P	-12.7991
