<pad>	0
<unk>	0
<s>	0
</s>	0
<2pyu>	0
<2zh>	0
▁	-1.66702
,	-3.42547
.	-3.57158
。	-3.87749
▁na	-4.00123
▁i	-4.0705
?	-4.2315
'	-4.49496
!	-4.57137
▁dra	-4.5801
的	-4.67205
an	-4.73245
▁ko	-4.74621
▁to	-4.79729
▁mo	-4.97704
▁a	-5.07864
▁kana	-5.13259
▁lra	-5.25411
a	-5.25558
▁ta	-5.3555
o	-5.50633
了	-5.51356
i	-5.55908
▁no	-5.607
aw	-5.612
to	-5.69729
▁za	-5.77853
▁mi	-5.78707
嗎	-5.81258
是	-5.821
在	-5.90115
我	-5.99026
▁'	-6.01718
;	-6.01841
▁pa	-6.03994
▁kema	-6.08695
▁ma	-6.10071
ay	-6.10548
有	-6.15295
▁kan	-6.20091
、	-6.24273
▁adri	-6.31675
▁aw	-6.34849
▁driya	-6.38023
去	-6.39871
不	-6.43493
▁yo	-6.43535
你	-6.43738
要	-6.4486
▁trao	-6.4573
▁da	-6.4739
我們	-6.48871
▁"	-6.49789
▁你	-6.50265
▁zi	-6.53585
▁olra	-6.57424
時	-6.5885
子	-6.61397
▁我	-6.66229
▁ka	-6.67663
一	-6.68633
上	-6.6973
人	-6.70357
他	-6.72377
到	-6.72812
很	-6.73292
好	-6.74149
會	-6.7475
▁salaw	-6.75667
/	-6.78654
說	-6.79353
▁o	-6.79998
ng	-6.81881
azi	-6.83268
▁moka	-6.83951
來	-6.84502
ma	-6.86493
和	-6.87239
▁owa	-6.8734
就	-7.0051
e	-7.01315
用	-7.02339
把	-7.02746
▁maw	-7.03405
owa	-7.03618
ka	-7.03758
anay	-7.04712
k	-7.04837
▁mokowa	-7.05975
ko	-7.06432
著	-7.06515
▁ziya	-7.06935
li	-7.10341
▁sa	-7.12596
p	-7.12727
對	-7.12805
ami	-7.1293
b	-7.13391
pa	-7.13852
yan	-7.1495
▁ini	-7.1585
▁di	-7.16217
▁wari	-7.16382
r	-7.17291
wa	-7.18251
呢	-7.19276
re	-7.19641
▁harem	-7.19866
g	-7.21293
▁intaw	-7.21724
▁sinsi	-7.22019
▁kani	-7.22042
▁manay	-7.22164
▁babayan	-7.22736
:	-7.22963
▁mainayan	-7.2376
大	-7.23843
tra	-7.23853
▁po	-7.24042
"	-7.24232
▁idri	-7.24315
sa	-7.24567
t	-7.24821
她	-7.2507
「	-7.25687
▁olraya	-7.26774
小	-7.27145
▁eman	-7.27935
n	-7.28654
:「	-7.28952
▁他	-7.32213
水	-7.3361
▁idro	-7.3428
被	-7.34724
吃	-7.3612
為	-7.37231
▁diya	-7.38477
si	-7.3894
w	-7.38983
ra	-7.4009
▁lralrak	-7.40632
-	-7.40983
m	-7.41256
也	-7.41959
▁karowa	-7.42452
都	-7.4259
▁ni	-7.42741
na	-7.43474
▁kemay	-7.44066
▁ai	-7.44324
ya	-7.44578
他們	-7.44695
▁ki	-7.46639
ta	-7.47986
no	-7.48308
看	-7.4995
部落	-7.50253
地	-7.50282
沒有	-7.50851
▁saya	-7.5086
所	-7.5108
dr	-7.51203
as	-7.51214
ba	-7.51249
可以	-7.51315
我的	-7.5171
▁vavayan	-7.5357
ro	-7.53921
ai	-7.53952
s	-7.54901
la	-7.56203
裡	-7.5665
▁我們	-7.58182
d	-7.58745
lr	-7.58927
請	-7.59527
do	-7.60348
▁iyan	-7.60797
▁paka	-7.6159
mo	-7.61998
y	-7.62787
lo	-7.62962
吧	-7.63745
po	-7.64166
ki	-7.64387
iya	-7.6444
下	-7.6449
ke	-7.64566
後	-7.65698
."	-7.66173
oma	-7.67141
出	-7.67223
在哪裡	-7.67326
▁garem	-7.6755
▁walrak	-7.67966
意	-7.69286
老師	-7.69379
▁kadri	-7.7069
這	-7.70701
頭	-7.72043
se	-7.72697
▁inaba	-7.73197
▁mekan	-7.73197
山	-7.73522
年	-7.74132
▁mao	-7.75035
心	-7.75077
那	-7.75733
▁izo	-7.76441
▁maranger	-7.767
▁mena	-7.76908
非常	-7.77197
▁kano	-7.77349
做	-7.77477
。」	-7.77789
lre	-7.78029
家	-7.78202
叫	-7.78202
中	-7.78206
▁kina	-7.78372
媽媽	-7.78719
帶	-7.79382
tr	-7.79598
in	-7.79825
z	-7.80034
他的	-7.80188
yo	-7.80202
▁sagar	-7.80419
▁這是	-7.80872
▁去	-7.81499
▁sahar	-7.81574
▁menao	-7.81993
面	-7.82256
天	-7.82285
過	-7.8236
u	-7.82427
多	-7.82463
odalr	-7.82777
名	-7.82933
▁drekalr	-7.83016
還	-7.83996
草	-7.84094
▁moroma	-7.84643
▁kawi	-7.84732
bo	-7.84732
開	-7.85693
給	-7.8588
lra	-7.86376
▁mare	-7.86618
長	-7.86982
inay	-7.87096
工作	-7.87632
l	-7.87946
打	-7.87964
魚	-7.88002
得	-7.88133
wan	-7.88362
再	-7.88422
種	-7.88936
你的	-7.88996
elr	-7.89098
▁marengay	-7.89857
▁sadro	-7.9009
ri	-7.90153
▁piya	-7.9019
inayan	-7.90661
▁adi	-7.90869
當	-7.90903
tri	-7.90934
os	-7.9144
inava	-7.91519
▁paiso	-7.91532
▁oniyan	-7.91644
走	-7.92012
▁wadi	-7.92563
成	-7.92697
ang	-7.92819
▁sowan	-7.93101
起來	-7.93692
樹	-7.93909
跟	-7.94024
va	-7.94261
ali	-7.94461
▁kakowayanan	-7.94538
▁nanto	-7.94581
▁kadro	-7.9524
讓	-7.95357
enan	-7.95576
nga	-7.95637
喜歡	-7.95691
牛	-7.96361
▁kara	-7.96476
iyan	-7.97463
so	-7.97463
個	-7.97606
又	-7.97639
▁isowa	-7.97656
買	-7.97932
▁kiya	-7.98055
▁mara	-7.98224
▁marowa	-7.98328
爸爸	-7.9863
ema	-7.99001
一起	-7.99333
ti	-7.99411
▁peniya	-7.99558
en	-8.0006
on	-8.00088
▁daw	-8.00276
從	-8.00736
啊	-8.0076
▁pina	-8.00781
▁temakakesi	-8.0084
▁pi	-8.01213
er	-8.01335
發	-8.01409
▁ngadan	-8.01536
將	-8.02142
的人	-8.024
S	-8.0244
em	-8.02738
el	-8.02762
」	-8.03028
想	-8.03161
is	-8.04054
▁molri	-8.04783
花	-8.05205
ca	-8.05324
手	-8.0545
族人	-8.06113
放	-8.06311
不要	-8.06513
所以	-8.06621
而	-8.06861
快	-8.07531
▁temowamowan	-8.07565
▁zekalr	-8.07585
▁nadro	-8.08011
朋友	-8.08071
▁kanko	-8.08167
拿	-8.08548
最	-8.08894
▁dar	-8.0893
▁alrak	-8.09155
ara	-8.09309
vo	-8.09382
▁temakesi	-8.09674
住	-8.09819
向	-8.10003
▁nazo	-8.10139
▁Pinoyomayan	-8.10387
or	-8.10752
及	-8.11081
▁aoka	-8.11525
▁kazo	-8.12499
v	-8.13298
▁semenay	-8.133
al	-8.13885
們	-8.13974
pe	-8.1417
tre	-8.14302
lri	-8.14571
▁你的	-8.14947
▁takesian	-8.15526
atr	-8.1566
▁kandri	-8.15954
alra	-8.16616
▁powa	-8.17031
▁bolay	-8.17064
你們	-8.18577
▁把	-8.19318
pi	-8.19346
▁taytaw	-8.19373
的時候	-8.19791
狗	-8.19874
abay	-8.19973
▁kemoda	-8.20144
▁temo	-8.20411
)	-8.21741
yaw	-8.21908
▁那是	-8.22063
字	-8.22149
▁kamawan	-8.22547
族	-8.23305
c	-8.23875
聽	-8.24979
lro	-8.24981
喔	-8.25
▁marayas	-8.25038
iyo	-8.2506
穿	-8.25194
▁pare	-8.25346
女	-8.25538
▁ido	-8.26289
▁enay	-8.26785
dra	-8.27576
▁那	-8.27825
生	-8.27863
▁sayho	-8.28042
kan	-8.28127
!"	-8.28754
▁amao	-8.28798
▁me	-8.28887
le	-8.29144
▁miya	-8.29493
ni	-8.29699
先	-8.29776
老	-8.29866
olr	-8.29897
洗	-8.30064
分	-8.30071
一個	-8.30265
重	-8.30802
▁aiwa	-8.31482
▁toki	-8.31787
玩	-8.31848
已經	-8.32047
掉	-8.32172
▁nana	-8.32174
ong	-8.32365
地瓜	-8.32634
大家	-8.32742
▁naniyam	-8.32748
▁alra	-8.32946
kaw	-8.33251
事	-8.33576
ap	-8.33619
雞	-8.33644
跳舞	-8.33652
但是	-8.33773
的地方	-8.34047
!」	-8.34163
衣服	-8.34289
以	-8.34295
卑南族	-8.34327
學校	-8.34394
ayam	-8.34506
▁ina	-8.34592
ar	-8.34802
▁kiyakaronan	-8.35033
為什麼	-8.35613
錢	-8.35615
▁valray	-8.36172
菜	-8.3638
看到	-8.36701
口	-8.37288
daw	-8.37683
動	-8.38178
因為	-8.38288
▁pidaya	-8.38422
amiyan	-8.38498
米	-8.39138
▁nanta	-8.39163
這樣	-8.39258
沒	-8.39378
at	-8.39994
學	-8.40002
▁asowa	-8.40213
ci	-8.40315
高	-8.40316
ing	-8.40336
apotr	-8.4052
回家	-8.40853
喝	-8.41121
▁matrina	-8.41255
▁mareka	-8.41367
▁kadaw	-8.41375
h	-8.4145
是誰	-8.41573
唱	-8.41789
很多	-8.42006
煮	-8.42104
▁volay	-8.4213
▁nanalri	-8.42161
adri	-8.42391
pana	-8.42987
我們的	-8.43011
日	-8.43068
與	-8.43106
▁kay	-8.43458
abak	-8.43523
▁nani	-8.43863
▁temama	-8.44087
▁A	-8.44129
我是	-8.44332
ce	-8.44469
不是	-8.44567
mi	-8.44827
▁我把	-8.44829
▁lima	-8.45192
dro	-8.45389
aremeng	-8.454
▁lla	-8.46365
裝	-8.46867
路	-8.47031
▁ti	-8.47064
▁drowa	-8.4745
起	-8.47764
zo	-8.48128
傳統	-8.48196
香	-8.48198
奶奶	-8.482
itr	-8.48263
之	-8.49172
酒	-8.49211
eng	-8.49452
▁kasa	-8.49639
別	-8.50067
可	-8.50269
▁kavang	-8.50291
ngan	-8.50483
教	-8.50496
kay	-8.50869
▁maka	-8.51133
ll	-8.51189
▁namalri	-8.51385
▁dalan	-8.51495
▁saigo	-8.51649
一下	-8.51664
的衣服	-8.5197
▁nano	-8.52133
我們要	-8.52142
alri	-8.52336
力	-8.52436
▁mowa	-8.5246
▁Poyoma	-8.52466
▁palakowan	-8.52466
▁zowa	-8.52568
▁kemazo	-8.5269
aya	-8.52703
▁ngai	-8.52741
▁今天	-8.52997
▁這	-8.53259
身	-8.53429
問	-8.53507
加	-8.53538
es	-8.53603
vi	-8.53714
弟弟	-8.53785
▁是的	-8.54004
熱	-8.54241
關	-8.54658
包	-8.54665
邊	-8.55439
emanan	-8.55543
ed	-8.55558
▁ino	-8.55626
▁sema	-8.55628
火	-8.55747
稱	-8.5579
找	-8.55935
▁所	-8.56238
才	-8.56562
元	-8.56923
▁kongkowan	-8.56924
▁amawna	-8.56938
▁semangal	-8.57287
睡覺	-8.57464
或	-8.58069
adi	-8.58121
ama	-8.58178
ak	-8.58908
刀	-8.59213
ayaw	-8.59217
▁drenan	-8.59249
這裡	-8.59808
明天	-8.59912
▁sasa	-8.60018
▁alrope	-8.60249
owan	-8.60353
▁我的	-8.60371
▁Taiwan	-8.60402
這是	-8.60499
maw	-8.609
me	-8.61156
到了	-8.61229
流	-8.61579
小米	-8.61603
▁tilin	-8.61604
▁sazo	-8.6169
原住民	-8.61803
並	-8.61826
知道	-8.62362
▁mar	-8.62367
ot	-8.62787
望	-8.62788
▁meredek	-8.62796
▁你們	-8.62966
nan	-8.62989
部落的	-8.63085
物	-8.63506
▁driyama	-8.63772
那個	-8.64082
回	-8.64166
回來	-8.64391
lrang	-8.64398
自己	-8.65113
痛	-8.65117
然	-8.65167
▁baelri	-8.65242
▁mopatraran	-8.65405
▁kanino	-8.65468
alr	-8.65661
正在	-8.66164
▁nanko	-8.66254
三	-8.6643
抓	-8.66444
主	-8.66482
inavayan	-8.66652
▁dawa	-8.66659
ad	-8.66855
點	-8.67036
位	-8.67078
太	-8.67271
不會	-8.67353
外	-8.67591
相	-8.67712
色	-8.67717
▁gong	-8.67764
▁pini	-8.67827
太陽	-8.67972
▁vi	-8.68189
▁maidrang	-8.68218
ha	-8.68681
?"	-8.68839
ari	-8.68904
兒	-8.6896
▁ngalad	-8.69022
▁kirowan	-8.69023
▁tratrima	-8.69034
▁kaniyam	-8.69157
taw	-8.69202
am	-8.69215
▁m	-8.69215
書	-8.69277
那些	-8.69804
kal	-8.70036
這個	-8.70162
otr	-8.70246
▁kare	-8.7027
美	-8.70308
風	-8.70308
開始	-8.70322
幫我	-8.70509
▁kantaw	-8.70585
姊姊	-8.70628
場	-8.70945
新	-8.71256
今天	-8.71411
鳥	-8.71551
進	-8.71599
跳	-8.71618
▁senay	-8.7164
▁wariwari	-8.71652
▁saroma	-8.71679
了嗎	-8.71697
▁koraw	-8.71713
▁palro	-8.71944
前	-8.72719
腳	-8.72751
行	-8.72835
木	-8.72895
平	-8.7294
處	-8.72942
比	-8.72953
比較	-8.72962
▁malri	-8.73438
氣	-8.73568
▁T	-8.73573
▁kemadri	-8.73692
sok	-8.73836
kor	-8.73876
▁kikaron	-8.73968
借	-8.73997
飯	-8.74013
等	-8.74246
兩	-8.74258
海	-8.74284
▁她	-8.74296
▁takesiyan	-8.74304
皮	-8.74305
▁niromaenan	-8.74313
▁niyam	-8.74349
孩子們	-8.74625
▁moto	-8.74835
ring	-8.75033
enon	-8.75116
▁tremima	-8.75162
名字	-8.75221
」。	-8.75338
還有	-8.75605
alrop	-8.75641
▁tema	-8.75664
黑	-8.75668
▁dinaway	-8.75669
rang	-8.75865
ir	-8.75939
?」	-8.75962
收	-8.76892
savak	-8.76939
東西	-8.76975
者	-8.77014
愛	-8.77048
數	-8.77053
▁trangoro	-8.77058
生活	-8.77066
anger	-8.77066
(	-8.77281
▁老師	-8.77668
送	-8.77851
sing	-8.7804
使	-8.78235
▁kananto	-8.78507
哥哥	-8.78632
siyaw	-8.78996
唱歌	-8.7925
lang	-8.7932
能	-8.79417
▁mali	-8.79425
作	-8.79759
聲	-8.79804
妳	-8.7988
更	-8.79881
▁bonga	-8.79934
▁palidring	-8.79963
獵	-8.80073
學習	-8.80106
roma	-8.80201
▁kanta	-8.8059
▁ben	-8.80625
樣	-8.81063
肉	-8.81303
牠	-8.81324
拉	-8.81325
▁amelri	-8.81544
好了	-8.819
▁sem	-8.82053
誰	-8.82128
▁matra	-8.82327
dan	-8.82753
割	-8.82774
由	-8.82788
則	-8.82789
戴	-8.8279
這些	-8.82862
▁mako	-8.83003
車	-8.83086
olra	-8.83194
ayan	-8.83216
病	-8.83425
別人	-8.83443
你好	-8.83636
ima	-8.83754
取	-8.83975
方	-8.84176
有很多	-8.84212
▁kararowa	-8.84218
月	-8.84265
眼睛	-8.84272
細	-8.84277
▁dekalr	-8.84279
▁awa	-8.84279
常常	-8.84291
正	-8.84308
請問	-8.84329
▁penaowa	-8.84595
不能	-8.84696
▁他把	-8.84826
▁不要	-8.85035
已	-8.85037
lod	-8.85412
ran	-8.85538
常	-8.85738
理	-8.85744
▁nado	-8.85785
bay	-8.86123
▁ising	-8.86129
▁kali	-8.86384
▁sin	-8.86399
▁so	-8.86695
pang	-8.86861
lan	-8.8707
原	-8.87212
背	-8.87223
▁barasa	-8.87317
▁baboy	-8.87319
認識	-8.87319
準備	-8.8732
兄弟姊妹	-8.8732
▁adaman	-8.87322
橘子	-8.87327
▁oninan	-8.87395
▁akanan	-8.87453
▁kanini	-8.87548
▁kandro	-8.87606
往	-8.87638
drek	-8.87897
izang	-8.88026
etr	-8.88099
▁wa	-8.88138
它	-8.88787
接	-8.88841
巫師	-8.88842
上學	-8.88843
寫	-8.88848
▁monoma	-8.8888
▁moketrep	-8.88928
▁iziyo	-8.88935
▁pino	-8.89348
ep	-8.89423
pad	-8.89544
用的	-8.90038
像	-8.90101
▁ra	-8.90282
門	-8.90311
就會	-8.9035
工	-8.90434
▁basikaw	-8.90456
檳榔	-8.90456
青蛙	-8.90457
▁payas	-8.90466
▁makiteng	-8.90503
▁soko	-8.90705
妹妹	-8.91192
▁tino	-8.91264
rengay	-8.91415
▁kemado	-8.91477
的工作	-8.91608
▁anger	-8.91697
▁nay	-8.91748
出來	-8.91844
量	-8.92041
筆	-8.92055
刺	-8.92063
▁valri	-8.92094
▁paowayan	-8.92215
▁amanan	-8.92255
dare	-8.92267
eman	-8.92369
▁這個	-8.92517
draya	-8.92537
▁mokasa	-8.92549
看看	-8.92763
lran	-8.93361
指	-8.93654
布	-8.93657
▁piningaiyan	-8.93695
坐	-8.93761
有人	-8.9388
▁imaran	-8.93916
▁cao	-8.94204
▁kolang	-8.9442
▁kiyakaron	-8.94478
▁temoo	-8.94543
▁kiping	-8.9464
那是	-8.94651
vong	-8.94838
emo	-8.94881
▁oma	-8.95016
我要	-8.95295
祭	-8.95302
親友	-8.95329
五	-8.95343
蓋	-8.95355
▁kolabaw	-8.95355
切	-8.95355
▁kemakawang	-8.95355
▁demaway	-8.95356
▁petrir	-8.95359
▁sabak	-8.95373
ho	-8.95505
男人	-8.95526
▁semangalan	-8.95533
▁malradram	-8.95534
ranak	-8.95543
▁malrazam	-8.95842
一直	-8.95924
自	-8.96747
trima	-8.96814
祖母	-8.96961
白	-8.96969
本	-8.96996
都是	-8.97017
球	-8.97026
四	-8.97031
圍	-8.97034
互相	-8.97042
農	-8.97042
倒	-8.97043
▁malalop	-8.97043
▁dapalr	-8.97044
活動	-8.97056
親	-8.97109
▁korenang	-8.97326
pong	-8.9733
kes	-8.97524
▁pena	-8.978
▁apotr	-8.97832
▁dare	-8.98147
一樣	-8.98277
下來	-8.98301
的名字	-8.98415
母	-8.98428
▁em	-8.98519
竹	-8.98618
石頭	-8.98637
入	-8.98724
▁maya	-8.98743
▁temararamaw	-8.9876
笑	-8.9876
話	-8.9877
...	-8.9886
一點	-8.9891
▁yawa	-8.98967
▁bao	-8.99112
▁papida	-8.99201
幾	-8.99952
kas	-9.00219
同	-9.00285
學生	-9.00297
ina	-9.00312
葉	-9.00345
晚	-9.00365
ala	-9.00377
忙	-9.00497
蛋	-9.00506
繡	-9.00507
挖	-9.00507
ev	-9.01063
要去	-9.01272
製作	-9.01342
nay	-9.01501
讀書	-9.01542
全	-9.01591
很好	-9.01694
直	-9.02025
十	-9.022
機	-9.0226
線	-9.02267
強	-9.02281
▁lomay	-9.02285
▁tralon	-9.02302
▁poran	-9.02386
▁taina	-9.02421
lreb	-9.02825
我們一起	-9.02888
▁讓	-9.02963
▁我要	-9.02989
alak	-9.03385
真	-9.03841
果	-9.03941
定	-9.03957
排	-9.0408
表	-9.04091
▁如果	-9.04092
死	-9.04095
桌子	-9.04108
▁wanger	-9.04124
之後	-9.04176
▁alamo	-9.04287
▁esan	-9.0439
哪裡	-9.04398
eto	-9.04517
lralrang	-9.0454
▁kemani	-9.04647
漂亮	-9.04845
vowa	-9.04845
水田	-9.04941
如何	-9.04971
manay	-9.05119
1	-9.05391
lon	-9.05397
除	-9.054
於	-9.05523
lay	-9.05621
▁男	-9.05659
▁nangko	-9.05718
les	-9.05744
遠	-9.05815
▁kem	-9.05855
雨	-9.05885
食	-9.05919
合	-9.05931
▁vorasi	-9.05938
牆	-9.05938
結婚	-9.05941
▁lrayowan	-9.05942
織布	-9.05943
颱風	-9.05971
隻	-9.06042
hi	-9.06209
▁be	-9.0636
出去	-9.066
ē	-9.07315
▁melri	-9.07365
▁kemodakoda	-9.07594
間	-9.07622
少	-9.07625
早	-9.0768
co	-9.07726
如	-9.07794
冷	-9.07812
特別	-9.07824
等一下	-9.07844
▁kaninko	-9.07877
▁pata	-9.0789
▁kananta	-9.07927
▁mapiya	-9.07947
▁makoda	-9.07957
光	-9.08166
tala	-9.0825
▁不是	-9.0853
pot	-9.08531
▁ori	-9.08664
ok	-9.08856
▁kado	-9.08959
lraw	-9.09367
。(	-9.09415
de	-9.09459
▁vo	-9.09464
aman	-9.09529
若	-9.09546
aiwa	-9.09563
法	-9.09683
呀	-9.09729
彩	-9.0973
越來越	-9.0973
▁bolabolayan	-9.09748
▁likodran	-9.0978
▁walro	-9.09797
▁wadilri	-9.09824
ira	-9.09927
ekan	-9.10334
▁kini	-9.10402
ip	-9.10413
公	-9.10417
▁zenan	-9.10552
國	-9.1071
▁dradrek	-9.10954
情	-9.11283
想要	-9.11637
假	-9.11647
傳	-9.11668
眼	-9.11679
A	-9.11679
洞	-9.11681
哭	-9.11681
祭司	-9.11682
參加	-9.11684
▁pakalradram	-9.1176
▁bolan	-9.11842
ez	-9.11897
跟著	-9.11959
一些	-9.11969
山上	-9.11971
▁kemadro	-9.1208
我可以	-9.12237
▁wariyan	-9.1231
如果	-9.12383
▁bias	-9.12565
asalr	-9.12591
天氣	-9.12687
▁aowa	-9.12733
▁kanno	-9.1278
▁trem	-9.12929
家人	-9.13503
▁好的	-9.13597
離	-9.13632
歌	-9.13642
畫	-9.13643
舞	-9.13655
阿	-9.13658
神	-9.13667
區	-9.13671
臉	-9.13671
擦	-9.13671
游泳	-9.13671
長輩	-9.13693
走路	-9.13742
▁moarak	-9.13754
就是	-9.1417
kar	-9.14322
ada	-9.1447
lray	-9.14623
yay	-9.14686
iyam	-9.1485
awan	-9.14852
給我	-9.14853
各	-9.15055
代	-9.15559
受	-9.15677
跑	-9.1569
▁misasa	-9.15698
推	-9.15701
藥	-9.15702
台灣	-9.15702
婦女	-9.15712
頭目	-9.15717
▁volraw	-9.15721
要說	-9.15723
▁maolid	-9.15822
做的	-9.1601
bol	-9.16119
ve	-9.16466
以後	-9.16733
些	-9.16751
▁kanadro	-9.1678
的孩子	-9.16903
sang	-9.17101
garemay	-9.17223
但	-9.17312
歲	-9.17359
田	-9.17443
kang	-9.1754
山豬	-9.17569
便	-9.17572
過去	-9.17602
完	-9.1766
輕	-9.17709
近	-9.17718
湯	-9.17726
燒	-9.1774
搭	-9.17765
祖靈	-9.17765
▁kilrengaw	-9.17774
▁maaidrangan	-9.17774
轉	-9.17774
▁seme	-9.17805
▁patraka	-9.17819
▁par	-9.17847
成為	-9.17995
▁arebo	-9.18096
語	-9.1811
於是	-9.18114
▁emo	-9.18336
祖先	-9.18355
獵物	-9.18541
kakowa	-9.1866
了很多	-9.18879
akan	-9.19269
其	-9.19556
你要	-9.19587
sagar	-9.19637
▁mer	-9.19718
道	-9.19874
屋	-9.19876
味	-9.1988
換	-9.19881
3	-9.19882
編	-9.19886
7	-9.1989
▁Valangaw	-9.19891
▁ponaponan	-9.19891
碗	-9.19891
dinsiya	-9.19891
▁moisatr	-9.19891
文化	-9.19893
舉行	-9.19898
kin	-9.1999
ngko	-9.20174
▁korelrang	-9.20176
有一	-9.2035
lin	-9.20709
ora	-9.20793
izangan	-9.21116
▁temara	-9.21291
我會	-9.2146
壞	-9.2148
男	-9.21513
paw	-9.21835
青年	-9.21903
傷	-9.21998
▁wawadiyan	-9.22053
穀	-9.22053
▁alialian	-9.22053
塊	-9.22053
今年	-9.22076
離開	-9.22096
▁U	-9.22118
車子	-9.22252
看起來	-9.22253
saw	-9.22618
idri	-9.22697
▁iniyan	-9.22731
way	-9.22913
et	-9.23227
件	-9.23421
nana	-9.23674
留	-9.23717
2	-9.23718
見	-9.24123
落	-9.24127
土	-9.24207
此	-9.24208
un	-9.24219
明	-9.24221
通	-9.24245
無	-9.24252
野	-9.24252
片	-9.24253
乾	-9.24257
▁tabilraelra	-9.24263
砍	-9.24263
Samilikan	-9.24263
休息	-9.24263
▁payso	-9.24263
▁venavina	-9.24265
▁semalem	-9.24266
▁daman	-9.24282
▁ho	-9.24311
的手	-9.24356
rowa	-9.24383
▁kayta	-9.24411
▁paladam	-9.24426
asiro	-9.24454
六	-9.2477
▁aro	-9.2482
交	-9.2513
▁patraran	-9.25538
▁vena	-9.25734
醫生	-9.2592
滿	-9.26093
pok	-9.26143
tiyan	-9.26167
ob	-9.26443
難	-9.26482
」,	-9.26489
他人	-9.26493
您	-9.2652
摘	-9.26523
鐵	-9.26523
網	-9.26523
▁otobay	-9.26524
▁misama	-9.26525
▁semavalr	-9.26526
▁tinataw	-9.26531
竹子	-9.2658
▁sina	-9.26708
先生	-9.26791
say	-9.27238
要去哪裡	-9.27298
lraman	-9.27344
▁kemaso	-9.27359
▁mowai	-9.2741
siw	-9.27456
olep	-9.27498
padang	-9.27504
一隻	-9.27535
採	-9.27916
深	-9.28445
實	-9.28446
解	-9.28517
知本	-9.28662
久	-9.28673
感	-9.28713
形	-9.28798
立	-9.28805
麻	-9.2881
鈴	-9.28835
耶	-9.28835
▁zinekalranan	-9.28835
弄	-9.28835
▁ngiyaw	-9.28835
▁lotong	-9.28835
自己的	-9.28957
▁kadrowan	-9.2898
晚上	-9.29
▁mitrepa	-9.29068
幫	-9.29086
sek	-9.29313
iva	-9.295
nko	-9.29622
rahan	-9.29758
▁Kasavakan	-9.30033
kiw	-9.30204
oy	-9.30636
來了	-9.30948
dek	-9.30977
▁sinaleman	-9.31037
san	-9.31145
照	-9.31186
餐	-9.31187
養	-9.31195
業	-9.31196
▁hikoki	-9.31202
▁papadraran	-9.31202
▁tilibi	-9.31202
爬	-9.31202
卻	-9.31202
▁moitras	-9.31205
veras	-9.31218
身體	-9.31219
▁lipad	-9.31226
老人家	-9.31248
外面	-9.31275
▁masalr	-9.31325
▁tatilo	-9.31427
▁trema	-9.3158
▁hong	-9.3172
▁Patakiw	-9.31948
tral	-9.31961
▁ama	-9.3198
食物	-9.32111
▁kane	-9.32419
在這裡	-9.32527
idang	-9.32692
▁kipo	-9.32805
▁haremay	-9.33079
放在	-9.33088
▁mela	-9.3313
pas	-9.33446
▁他是	-9.3352
過來	-9.33562
根	-9.3359
traotrao	-9.33602
曬	-9.33609
張	-9.3362
該	-9.33621
內	-9.33624
緊	-9.33626
▁wawariwari	-9.33626
啦	-9.33626
堆	-9.33627
陷	-9.33627
儀式	-9.33627
kedrang	-9.33628
▁beray	-9.33629
味道	-9.33638
進入	-9.33649
年祭	-9.3369
sering	-9.33708
▁elra	-9.33743
▁kadrini	-9.33805
▁papiya	-9.33812
帶著	-9.33891
▁nadri	-9.33946
一起去	-9.34051
▁kowa	-9.34222
▁sare	-9.34435
enay	-9.34447
bang	-9.34753
我去	-9.34789
▁vali	-9.35135
▁mopana	-9.35406
那裡	-9.35452
斷	-9.35532
丟	-9.35534
折	-9.35598
▁salrangan	-9.35684
vang	-9.35713
橡皮擦	-9.35983
因	-9.36038
部	-9.36044
喪家	-9.36055
本書	-9.36063
ori	-9.36066
品	-9.36077
趕	-9.3608
聚	-9.36083
古	-9.36084
飛	-9.36097
角	-9.36097
5	-9.36102
賣	-9.36106
黃	-9.36107
市	-9.36107
睡	-9.36111
▁menadanadam	-9.36119
幫忙	-9.36124
▁kakoda	-9.3614
繩子	-9.36178
Asaw	-9.36208
她的	-9.3621
▁eraw	-9.36374
lremes	-9.36446
koret	-9.36451
拿去	-9.37174
好吃	-9.37205
oway	-9.37572
原住民族	-9.37675
很高	-9.37865
ac	-9.37893
也是	-9.37914
▁謝謝	-9.37964
的小孩	-9.37982
的水	-9.38276
▁rawa	-9.38391
melri	-9.3841
哪	-9.38415
短	-9.38537
羊	-9.38614
甜	-9.38619
禮	-9.38634
磨	-9.38642
巴	-9.38646
度	-9.38659
V	-9.38659
▁meladaladam	-9.38659
▁pinitraowan	-9.38659
那個孩子	-9.38659
▁ollaya	-9.38659
▁miinada	-9.38659
影	-9.38659
▁paetreng	-9.3866
老鼠	-9.38665
▁bali	-9.38744
我們家	-9.38844
身上	-9.3895
vak	-9.39123
rami	-9.3928
tratr	-9.39406
很大	-9.39681
還是	-9.40046
▁mada	-9.40157
▁pat	-9.40283
▁drata	-9.40295
oc	-9.40545
讓我	-9.40546
▁bas	-9.40585
lrangan	-9.4072
結果	-9.40868
園	-9.41026
▁你爸爸	-9.411
求	-9.41109
0	-9.41214
安	-9.41217
忘記	-9.41231
分享	-9.41239
信	-9.41255
揹	-9.41263
耳	-9.4127
綁	-9.41272
alozon	-9.41273
壓	-9.41273
夾	-9.41273
▁abalo	-9.41276
適合	-9.41279
▁para	-9.41293
▁sawariyan	-9.413
兩個	-9.41329
▁deron	-9.41404
▁katengadrawan	-9.41411
▁minatray	-9.41437
時間	-9.41468
▁dem	-9.41482
人們	-9.41563
▁idriyo	-9.41623
好像	-9.41663
avay	-9.41879
說話	-9.41986
▁tem	-9.42264
▁polo	-9.4255
打獵	-9.43029
我媽媽	-9.4314
很會	-9.43212
talopong	-9.43646
▁kawikawi	-9.43877
偷	-9.43885
支	-9.4389
石	-9.43909
體	-9.43938
約	-9.43944
吸	-9.4395
節	-9.43953
毛	-9.43956
守	-9.43956
觀	-9.43957
厚	-9.43958
嘛	-9.43958
插	-9.43958
risarisan	-9.43958
▁Katratripolr	-9.43958
▁alodron	-9.43958
▁matemoy	-9.43958
▁palalisiyan	-9.43958
烤	-9.43958
▁asepan	-9.43958
▁miyadrowa	-9.43958
兄弟	-9.43958
存	-9.43958
▁paseket	-9.43958
午餐	-9.4396
zanom	-9.43974
水溝	-9.43989
吹	-9.43992
izo	-9.44022
▁droma	-9.44083
▁dowa	-9.44085
▁ika	-9.4421
改變	-9.44292
▁owaroma	-9.44314
是要	-9.44344
吃飯	-9.4447
七	-9.44523
dang	-9.44586
atelr	-9.44684
lak	-9.44765
oli	-9.44891
▁rahan	-9.45117
會唱歌	-9.45288
去學校	-9.45305
你去	-9.45326
▁kore	-9.45405
owayan	-9.45496
變	-9.45642
▁那個人	-9.4597
rem	-9.45974
我已經	-9.46135
▁dradro	-9.46183
次	-9.46323
lram	-9.46508
owi	-9.46575
siya	-9.46582
pala	-9.46595
araw	-9.46608
▁iman	-9.46652
任	-9.46666
清	-9.46697
夜	-9.46704
引	-9.46709
鹿	-9.46709
器	-9.4671
翻	-9.46715
padrangal	-9.46716
Ulivelivek	-9.46717
▁manoden	-9.46717
百	-9.46717
▁komoda	-9.46717
格	-9.46717
堂	-9.46717
低	-9.46717
▁temat	-9.46717
顏色	-9.46718
▁tratrori	-9.46718
▁你有幾個	-9.46719
祭典	-9.46719
方便	-9.46736
▁menaniwan	-9.4675
▁leman	-9.46753
▁temamataw	-9.46764
▁lrem	-9.46891
從前	-9.47
給你	-9.47015
女人	-9.47023
結	-9.47132
▁adalrep	-9.47273
得很	-9.47421
男子	-9.47429
▁去把	-9.47557
你喜歡	-9.47763
kiyo	-9.47945
▁man	-9.48044
od	-9.48225
路上	-9.48314
▁kanano	-9.48413
▁terekok	-9.48533
幫你	-9.48581
居住	-9.48874
valis	-9.48967
▁poka	-9.49151
豬	-9.49494
領	-9.49506
袋	-9.49519
溪	-9.49534
紅	-9.49537
護	-9.49545
嘴	-9.49545
團	-9.49546
濕	-9.49552
造	-9.49553
耙	-9.49553
集會所	-9.49553
那是什麼	-9.49554
taranapaw	-9.49554
▁andaman	-9.49554
▁benabati	-9.49554
蟲	-9.49554
破	-9.49554
你會	-9.49565
打掃	-9.4957
▁malinay	-9.49587
▁kinger	-9.4961
▁amalri	-9.49618
▁kadopo	-9.49623
認真	-9.49635
▁kiyomalra	-9.49699
ao	-9.49878
回去	-9.49916
▁pen	-9.49989
▁imo	-9.50102
min	-9.50127
▁arowa	-9.50632
我想	-9.50912
要帶	-9.50938
的話	-9.51108
drem	-9.51177
T	-9.51473
▁saninin	-9.51558
tras	-9.51938
類	-9.52114
的事	-9.52132
alrayan	-9.5214
▁inia	-9.52145
it	-9.52217
帽子	-9.52304
貓頭鷹	-9.52343
活	-9.52425
豆	-9.52434
▁kaadro	-9.52437
鬆	-9.52441
服	-9.52466
夫	-9.52471
炒	-9.52473
刮	-9.52473
odreodrem	-9.52474
▁mazalram	-9.52474
▁nirangeran	-9.52474
▁takolris	-9.52474
▁tinalrek	-9.52474
散	-9.52474
▁Amis	-9.52474
急	-9.52474
▁kikadro	-9.52474
▁kiomalra	-9.52482
▁apoy	-9.52482
因此	-9.52485
晚餐	-9.52489
madalram	-9.52509
▁makeser	-9.52593
▁maresan	-9.5263
▁你有	-9.5268
▁yi	-9.5295
下雨	-9.5303
ini	-9.53171
只	-9.53358
家的	-9.53399
▁nanno	-9.53424
謝謝	-9.53505
ban	-9.53582
▁kima	-9.53655
卑南族的	-9.53696
的東西	-9.53858
▁mosavak	-9.53977
他是	-9.54118
我爸爸	-9.54317
▁azo	-9.54513
▁sinalem	-9.54601
tiya	-9.54659
▁kayo	-9.54682
rebe	-9.54742
ling	-9.54824
習	-9.55004
▁amana	-9.55233
只有	-9.55251
失	-9.5531
▁kiyomalr	-9.55327
tik	-9.55332
性	-9.55367
忘了	-9.5541
期	-9.55459
iraw	-9.5546
亮	-9.55466
4	-9.55467
八	-9.55469
臺	-9.55471
停	-9.55475
越	-9.55478
sizung	-9.55479
配	-9.5548
船	-9.55481
少年會所	-9.55481
糯米飯	-9.55481
Masaw	-9.55481
▁bakabak	-9.55481
▁belakas	-9.55481
▁marekamenimeni	-9.55481
▁demikes	-9.55481
唸	-9.55481
抬	-9.55481
捉	-9.55481
員	-9.55481
▁emaoaw	-9.55483
告訴	-9.55483
▁lritek	-9.55484
回答	-9.55491
▁tiyam	-9.55512
每天	-9.55516
完成	-9.55534
長老	-9.55616
▁walri	-9.55635
早上	-9.55682
水果	-9.55684
▁zazowa	-9.55701
我要去	-9.55719
使用	-9.55962
▁inabayan	-9.55997
▁我沒有	-9.5601
mao	-9.56043
aliya	-9.56118
▁yawan	-9.56326
不再	-9.56342
語言	-9.56492
時候	-9.56642
bat	-9.56826
taten	-9.56836
meng	-9.56897
▁dado	-9.57201
的頭髮	-9.57218
inaba	-9.57315
族語	-9.57459
▁teme	-9.57508
下去	-9.5762
玉米	-9.57829
▁drowaya	-9.57893
balr	-9.57957
捕	-9.58091
▁semo	-9.58135
初鹿	-9.58282
畫圖	-9.58385
衣	-9.5845
年輕	-9.58524
且	-9.58533
即	-9.58549
油	-9.58562
共	-9.58569
害	-9.58578
苦	-9.58581
訓	-9.58582
katrakatr	-9.58582
拔	-9.58582
8	-9.58582
▁kowatis	-9.58582
座	-9.58582
廚房	-9.58583
沙	-9.58583
星期	-9.58584
▁pakireb	-9.58585
父親	-9.58592
▁powatremel	-9.58599
▁sawka	-9.58605
▁bira	-9.58611
趕快	-9.58622
動物	-9.58634
tay	-9.5866
土地	-9.58661
▁saromaenan	-9.58668
很美麗	-9.58697
我要買	-9.58836
一次	-9.5888
都會	-9.58935
yē	-9.58953
掉了	-9.58963
長大	-9.58985
aladr	-9.59126
父母	-9.59145
trepa	-9.59173
iza	-9.59297
▁awatr	-9.59365
bowang	-9.59368
去找	-9.59648
I	-9.60086
libon	-9.60132
alaw	-9.60684
ēn	-9.60755
條	-9.60779
在一起	-9.60809
▁kalra	-9.60854
住在	-9.61037
nadam	-9.61076
meli	-9.61128
我的朋友	-9.61212
剛	-9.61328
改	-9.61387
秋天	-9.61528
rasa	-9.6162
鍋	-9.61635
onin	-9.61661
▁telo	-9.61708
veray	-9.61734
記	-9.61741
盛	-9.6176
九	-9.6177
餓	-9.61776
箭	-9.61776
未	-9.61778
貓	-9.61782
連	-9.61782
搓	-9.61782
農作物	-9.61782
列	-9.61782
嚼	-9.61782
罵	-9.61782
酸	-9.61782
號	-9.61783
▁madero	-9.61783
阿美族	-9.61786
▁那個男人	-9.61789
如此	-9.61799
紅色	-9.61801
▁raemetr	-9.61804
▁kaazo	-9.61805
日本	-9.61811
樹豆	-9.61822
▁kadomo	-9.61866
開車	-9.61868
▁semas	-9.61939
椅子	-9.61963
最後	-9.62003
她是我的	-9.6208
▁ine	-9.62126
he	-9.62498
▁kikarona	-9.62594
trok	-9.62668
新的	-9.62705
▁yoyo	-9.62769
kire	-9.63022
田鼠的	-9.63167
pit	-9.6318
kiping	-9.63268
az	-9.6337
sadro	-9.63396
ov	-9.63521
很漂亮	-9.63723
台東	-9.63865
koda	-9.63948
▁trin	-9.6415
dradrowa	-9.64174
的書	-9.64386
aselr	-9.64391
aliyan	-9.64533
還沒	-9.64641
全部	-9.64965
經	-9.64982
bini	-9.64991
具	-9.65042
骨	-9.65043
世	-9.65046
伴	-9.65073
利	-9.65084
提	-9.65087
醒	-9.65088
▁temarapoyoma	-9.65088
▁vativatiyan	-9.65088
▁zinanoman	-9.65088
▁昨天	-9.65088
懶	-9.65088
祭儀	-9.65088
藏	-9.65089
▁impic	-9.65089
追	-9.65089
祭祀	-9.65089
▁dawdawan	-9.6509
▁pongalad	-9.6509
▁semongal	-9.65091
負責	-9.65092
▁sadeko	-9.65094
▁semasenay	-9.65097
木材	-9.65097
麻袋	-9.65099
而且	-9.65122
varasa	-9.65125
便當	-9.65148
過了	-9.65226
kake	-9.65251
▁aidan	-9.65262
▁mawan	-9.65281
▁iropan	-9.6529
▁wadiyo	-9.65312
那位	-9.6544
▁aekan	-9.65527
我來	-9.65592
▁moicas	-9.6561
soang	-9.65629
重要	-9.657
老人	-9.65709
的花	-9.65712
▁morong	-9.65735
留下	-9.65915
etra	-9.66111
▁menaowa	-9.6613
▁kanmo	-9.66668
▁cac	-9.66731
piya	-9.66764
種的	-9.66852
▁我們在	-9.67405
dawilr	-9.67454
trina	-9.67512
alriyan	-9.67693
的腳	-9.67914
▁pin	-9.67922
ona	-9.67934
咬	-9.68382
馬	-9.68383
第	-9.68413
鄉	-9.68465
彎	-9.68489
隊	-9.68494
圖	-9.68497
紙	-9.68497
擊	-9.68504
溫	-9.68505
政	-9.68507
至	-9.68507
燙	-9.68507
騙	-9.68507
寬	-9.68507
雲	-9.68507
▁babalo	-9.68507
▁trakoban	-9.68507
什麼時候	-9.68507
掌	-9.68507
辣	-9.68507
6	-9.68508
滴	-9.68508
圓	-9.68508
▁mangayaw	-9.68509
▁kakipa	-9.68509
芋頭	-9.68509
問題	-9.68511
棉被	-9.68511
▁Sonay	-9.68513
▁powapowa	-9.68517
19	-9.68518
biyaw	-9.6852
同學	-9.68523
▁有一天	-9.6854
▁nanmo	-9.68543
▁tremakaw	-9.68546
▁volan	-9.68549
多少	-9.68558
▁karaob	-9.68569
牛車	-9.68583
▁mekana	-9.68653
ladam	-9.68673
arem	-9.68681
▁bangesaran	-9.68747
▁patrepa	-9.68789
後面	-9.68815
剛剛	-9.68859
穿著	-9.6887
其他	-9.68967
真的	-9.69107
在學校	-9.69188
大家都	-9.69307
▁tavo	-9.69529
ung	-9.69578
rare	-9.69918
不可以	-9.6993
你哥哥	-9.70015
不好	-9.70039
▁那些孩子	-9.70078
▁adriya	-9.70271
imo	-9.70326
▁paalropa	-9.70567
地方	-9.7059
Patakiw	-9.70935
你為什麼	-9.71016
trang	-9.7121
樂	-9.71288
▁polrang	-9.71722
雨傘	-9.71724
謝謝你	-9.71774
每	-9.71922
今	-9.71964
林	-9.72003
輩	-9.72009
熟	-9.7201
民	-9.7202
簍	-9.72031
告	-9.72035
終	-9.72035
寶	-9.7204
射	-9.72041
腳踏車	-9.72043
負	-9.72044
剪	-9.72047
響	-9.72047
▁kalalinayan	-9.72048
藤	-9.72048
▁lriyong	-9.72048
他是我的老師	-9.72048
移	-9.72048
臭	-9.72048
腰	-9.72048
醫院	-9.72048
▁dingwa	-9.72049
▁samaya	-9.72049
▁mosabak	-9.72049
容易	-9.72049
照顧	-9.72051
▁kanatal	-9.72052
旁邊	-9.72053
糖果	-9.72056
祖靈屋	-9.72066
天空	-9.72083
▁volavolayan	-9.721
經過	-9.72106
▁kivangavanga	-9.72114
▁demero	-9.72138
trongolr	-9.72151
很久	-9.72173
▁lrowatra	-9.72193
好多	-9.72213
▁kaningko	-9.72215
niwan	-9.72217
把它	-9.72251
▁miwari	-9.72304
小心	-9.72336
媽媽說	-9.72829
坐下	-9.72903
waw	-9.72948
家族	-9.72995
atrebong	-9.73005
ket	-9.73014
才會	-9.73029
iwa	-9.73038
不知道	-9.73102
是學生	-9.73116
▁mayaa	-9.73147
trekel	-9.73248
去打獵	-9.7332
eba	-9.7347
tim	-9.73496
alrope	-9.73679
頭髮	-9.73716
nger	-9.73901
人家	-9.74395
kim	-9.74557
▁dika	-9.74597
你弟弟	-9.74805
dalrep	-9.74986
的錢	-9.7503
odong	-9.75134
▁drako	-9.75313
變成	-9.7532
ceng	-9.75386
南王	-9.75509
褲	-9.75679
敬	-9.7568
kis	-9.75693
搖	-9.75694
站	-9.75698
9	-9.75698
辦	-9.75699
電	-9.75699
附	-9.75707
卑南族人	-9.75709
蛇	-9.7571
義	-9.75716
Y	-9.75717
蟹	-9.75717
Sunay	-9.75717
▁marowadiyadi	-9.75717
Puyuma	-9.75718
▁Balangaw	-9.75718
撒	-9.75718
癢	-9.75718
粗	-9.75718
Tamalrakaw	-9.75718
▁saygo	-9.75718
埋	-9.75718
▁miyasama	-9.75718
亂	-9.75718
順	-9.75718
結束	-9.75719
乾淨	-9.75721
攜帶	-9.7573
木板	-9.7573
▁你們的	-9.75731
30	-9.75732
▁Tiwa	-9.75738
▁adro	-9.75741
多少錢	-9.75743
lrawlraw	-9.75759
肚子	-9.75786
bong	-9.75788
庭院	-9.75809
lelep	-9.75851
▁mokasakasa	-9.75917
出發	-9.75986
親人	-9.75988
▁panadam	-9.7601
diya	-9.76118
rong	-9.76181
只要	-9.76238
菜園	-9.76417
除了	-9.76542
temowan	-9.76704
▁siyak	-9.76829
▁pinaka	-9.76896
原來	-9.76926
送給	-9.77013
我們是	-9.77183
過的	-9.77244
▁onan	-9.77274
▁kad	-9.77324
找到	-9.77455
有空	-9.77509
tiv	-9.77698
在部落	-9.77725
▁may	-9.77879
ilremes	-9.77918
kazowa	-9.77933
aip	-9.77934
在田裡	-9.78095
soro	-9.78363
valray	-9.78663
kilr	-9.78733
美麗	-9.78891
▁我讓	-9.79076
建	-9.79412
sede	-9.79437
▁inta	-9.79491
房間	-9.79495
首	-9.79502
電話	-9.79502
待	-9.79504
製	-9.79504
小姐	-9.79518
保	-9.79519
搬	-9.79524
靈	-9.79525
套	-9.79527
H	-9.79527
瘦	-9.79527
Elisa	-9.79527
▁pakonamon	-9.79527
苗	-9.79527
retigir	-9.79527
▁現在是	-9.79527
擠	-9.79527
針	-9.79527
▁midrarang	-9.79528
吐	-9.79528
掛	-9.79528
毒	-9.79528
烏	-9.79528
卑南語	-9.79528
Malala	-9.79528
Senayan	-9.79528
▁lrengaw	-9.79528
lriketri	-9.79529
菜餚	-9.7953
▁kiyokay	-9.79533
▁tremekel	-9.79533
▁temalaolep	-9.79533
▁tolowa	-9.79539
▁pawti	-9.79539
▁langitr	-9.79542
鋤頭	-9.79543
重視	-9.79543
▁trinima	-9.79546
受傷	-9.79546
溪邊	-9.79554
漢人	-9.7957
▁temobang	-9.79571
ted	-9.79577
▁walay	-9.79592
▁liyosan	-9.79649
▁trarob	-9.79652
行為	-9.79712
▁kanintaw	-9.79727
▁diyamaw	-9.79732
喜歡畫圖	-9.79783
eber	-9.79848
在下雨	-9.79869
牙齒	-9.79973
▁menana	-9.8004
許多	-9.80083
▁maaya	-9.80119
oled	-9.80156
etri	-9.80354
▁adawilr	-9.80361
opidr	-9.80365
▁saema	-9.80455
▁我喜歡	-9.80539
▁atras	-9.80565
emetr	-9.80744
▁你媽媽	-9.8089
一位	-9.80928
▁saleman	-9.8102
sayho	-9.81081
的部落	-9.81114
alom	-9.81189
azin	-9.8124
回到	-9.81429
▁amanay	-9.81812
otran	-9.81911
salem	-9.81924
有幾	-9.82127
▁inko	-9.82743
父	-9.82751
拜訪	-9.83004
半	-9.83025
當面稱呼	-9.83239
玩耍	-9.83317
夏天	-9.83365
南	-9.83461
依	-9.83466
屬	-9.83476
應	-9.83479
兄	-9.8348
縫	-9.83483
爭	-9.83484
踏	-9.83485
搶	-9.83487
哇	-9.83488
怎麼那麼	-9.83488
雨停了	-9.83488
蘭	-9.83488
驚	-9.83488
]	-9.83488
▁Dripong	-9.83488
▁impis	-9.83488
▁katagowin	-9.83488
▁temililr	-9.83488
▁tinnaw	-9.83488
兄弟姐妹	-9.83488
脫	-9.83488
金	-9.83488
[	-9.83488
▁kamelamo	-9.83488
牽	-9.83488
Uratr	-9.83489
暗	-9.83489
繫	-9.83489
libeng	-9.83489
▁malolo	-9.83489
難怪	-9.83489
邀約	-9.8349
祭拜	-9.8349
尾巴	-9.8349
▁kemiyanger	-9.83492
以免	-9.83492
▁早期	-9.83492
河邊	-9.83494
▁penalisi	-9.83496
準青年	-9.83496
10	-9.83496
聊天	-9.83503
▁kadika	-9.83503
liyang	-9.83505
marekamelrimelri	-9.8351
▁temenon	-9.83513
我叫	-9.83519
可能	-9.83545
擁有	-9.83556
親友們	-9.83559
說族語	-9.83594
到達	-9.83601
▁mokasaya	-9.83639
▁rino	-9.83645
aoka	-9.8367
▁okak	-9.83686
kaysing	-9.83719
▁kazowan	-9.8373
我當面稱呼	-9.83738
▁saima	-9.83758
遇到	-9.83762
ris	-9.83763
uy	-9.83791
獵人	-9.83837
▁vao	-9.84124
是原住民	-9.84315
群	-9.84601
zowa	-9.84621
▁mova	-9.84731
▁maoka	-9.84843
adrok	-9.85243
▁ziyan	-9.85296
kip	-9.85317
空	-9.85592
田裡	-9.8567
族群	-9.85738
天天	-9.85881
ul	-9.85949
故事	-9.86017
讓我們	-9.86025
▁kayaw	-9.86065
eta	-9.86074
▁marama	-9.86275
▁maidrangan	-9.86304
idrang	-9.86314
▁你把	-9.86512
potremel	-9.8664
ninta	-9.86916
▁我和	-9.8702
建和	-9.87189
達	-9.87496
olid	-9.87513
瓜	-9.87533
▁bowa	-9.87536
nekon	-9.87582
祖父	-9.87583
床	-9.87591
喜	-9.87593
步	-9.87594
文	-9.87601
婚	-9.87605
台	-9.87605
持	-9.87608
速	-9.87611
揉	-9.87612
蝦	-9.87612
鹹	-9.87612
▁Bonon	-9.87612
▁Papolo	-9.87612
▁pakazalram	-9.87612
▁pavekas	-9.87612
縣	-9.87612
卡	-9.87613
滾	-9.87613
讚	-9.87613
pinivalrayan	-9.87613
討論	-9.87613
▁traker	-9.87613
▁ketrebe	-9.87614
世界	-9.87615
竹筒	-9.87615
enop	-9.87615
sizong	-9.87619
方式	-9.87621
屋頂	-9.87622
▁edad	-9.87625
ninto	-9.8763
月亮	-9.87632
▁meretra	-9.87635
想念	-9.87636
接受	-9.87642
▁henan	-9.87647
▁kawang	-9.87649
▁kalipang	-9.87654
▁retraan	-9.87655
▁asatr	-9.87677
生病	-9.87685
▁dowaya	-9.87705
小時候	-9.87707
▁kabekas	-9.87707
女生	-9.87741
▁pilrang	-9.87747
是否	-9.87748
arekedr	-9.87772
去山上	-9.87783
▁pabolas	-9.87794
長的	-9.87821
很勤勞	-9.87841
▁poroma	-9.87858
kadowan	-9.87893
tran	-9.87899
▁pida	-9.87917
▁aokayan	-9.88099
avang	-9.88113
ngoro	-9.88211
kak	-9.88318
事情	-9.88375
種子	-9.88379
的路	-9.88603
東	-9.8869
vor	-9.88814
▁1.	-9.88828
ida	-9.88939
讓孩子	-9.88998
都不	-9.89098
▁mari	-9.89182
momo	-9.89194
▁idrini	-9.89237
好好	-9.89326
在那裡	-9.89401
獵場	-9.89824
arevo	-9.89992
oze	-9.9
semangalan	-9.9028
▁panaan	-9.90416
的祖先	-9.90436
獵到	-9.90652
waroma	-9.90689
坐在	-9.90707
來吃	-9.90839
avo	-9.90845
吃了	-9.90939
去哪裡	-9.91031
intaw	-9.91042
喜歡吃	-9.91095
卑南族語	-9.9145
遇	-9.91616
在睡覺	-9.91677
隨	-9.91735
tabo	-9.91769
織	-9.91891
特	-9.91893
另	-9.91896
修	-9.91899
桃	-9.91899
思	-9.91901
煩	-9.91905
季	-9.91905
客	-9.9191
單	-9.91913
招	-9.91914
傲	-9.91914
嚇	-9.91914
胖	-9.91914
▁Dipong	-9.91914
▁kivolas	-9.91914
尿	-9.91914
汗	-9.91914
紋	-9.91914
小女娃	-9.91914
躺	-9.91914
Kapi	-9.91914
▁matrangis	-9.91914
殺	-9.91914
Raranges	-9.91914
▁madranga	-9.91914
▁pakakawang	-9.91914
▁kinasagaran	-9.91915
▁saliyosan	-9.91915
浪費	-9.91915
▁maradawan	-9.91915
青少年組	-9.91918
騎腳踏車	-9.91919
▁mowarak	-9.91919
第二	-9.91921
隨便	-9.91925
二十	-9.91926
一定	-9.91929
經常	-9.91933
Ising	-9.91935
lrevek	-9.91935
tililr	-9.91948
ozem	-9.91973
才能	-9.91973
太太	-9.91974
動作	-9.91985
幾天	-9.92016
▁大家好	-9.92025
▁mabangabang	-9.92031
lavat	-9.92131
▁zowaya	-9.9217
las	-9.92286
去看	-9.92293
很痛	-9.92332
女子	-9.92629
sasing	-9.92746
用來	-9.92875
也會	-9.92892
的聲音	-9.92977
▁ikor	-9.93323
yon	-9.93603
aleng	-9.93698
▁inani	-9.93718
lala	-9.93896
會洗衣服	-9.93901
wari	-9.93931
很快	-9.9421
mek	-9.94312
二	-9.94359
讓他	-9.94435
高興	-9.94892
dir	-9.95236
langan	-9.95416
idangan	-9.9547
▁他在	-9.95551
你呢	-9.95589
borek	-9.95607
辛苦	-9.95721
icas	-9.95732
夠	-9.95734
的語言	-9.9611
課	-9.96263
▁kivangavang	-9.96327
飾	-9.96341
就在	-9.96361
台北	-9.96362
lralra	-9.96366
命	-9.96382
程	-9.96387
血	-9.96391
講	-9.96396
止	-9.96397
奶	-9.964
懷	-9.96405
豐	-9.96406
島	-9.96406
夢	-9.96408
擋	-9.96408
報	-9.96408
犁	-9.96409
碎	-9.96409
Pinaseki	-9.96409
salikesik	-9.96409
tihasar	-9.96409
▁Kol	-9.96409
▁kowadakoda	-9.96409
▁vartenok	-9.96409
▁zemenga	-9.96409
延續	-9.96409
Alripay	-9.96409
▁igiw	-9.96409
▁pangasip	-9.96409
▁tatelraw	-9.96409
▁temaranapaw	-9.96409
功	-9.96409
那些孩子在玩耍	-9.96409
善	-9.96409
陸	-9.96409
狀	-9.96409
臟	-9.96409
太陽出來了	-9.96409
池	-9.96409
▁kowatreng	-9.9641
巫術	-9.9641
慢慢	-9.96411
教育	-9.96411
▁這是誰的	-9.96411
▁zanta	-9.96412
電腦	-9.96415
傳承	-9.96417
20	-9.96417
季節	-9.96417
▁kowarenang	-9.96418
▁pinakalrangan	-9.96419
▁hē	-9.9642
邀請	-9.9642
▁semalowan	-9.96423
▁tiyalr	-9.96423
中午	-9.9643
起床	-9.9643
▁tremori	-9.96431
畫畫	-9.96434
機車	-9.96443
▁pakalrazam	-9.96443
起立	-9.9645
家鄉	-9.96465
▁pinarahan	-9.96472
生氣	-9.96497
前面	-9.96548
▁koware	-9.96558
▁zoma	-9.96564
▁好啊	-9.96568
然後	-9.96587
遲到	-9.96614
感到	-9.96647
sime	-9.96649
edang	-9.9665
小鳥	-9.96654
▁pakamelri	-9.96692
▁bekalan	-9.96727
▁ngaiyan	-9.96793
▁kayko	-9.96867
就可以	-9.96953
▁把你	-9.96983
▁boaw	-9.96986
▁maekan	-9.97019
▁kanemo	-9.97062
gal	-9.97201
▁salrangana	-9.97363
快樂	-9.9738
torak	-9.97494
▁aekanan	-9.97633
tin	-9.97686
eras	-9.98007
patraran	-9.98076
的習俗	-9.98325
leotr	-9.98435
vel	-9.98451
▁maodalr	-9.98517
去田裡	-9.98581
▁semalra	-9.98696
▁rema	-9.98854
▁kalre	-9.99525
▁amaw	-9.99582
我很	-9.99638
言	-9.9985
歲了	-10.0006
直到	-10.0015
howa	-10.0041
我的爸爸	-10.0052
他不	-10.0055
olraya	-10.0083
有一個	-10.0088
家裡	-10.0094
斷了	-10.0095
故	-10.0105
念	-10.0107
裂	-10.0108
婦	-10.0109
頂	-10.011
婆	-10.011
籬	-10.011
逃	-10.011
灰	-10.0111
串	-10.0111
村	-10.0111
調	-10.0111
軍	-10.0111
Maywan	-10.0112
源	-10.0112
腿	-10.0112
鼓	-10.0112
▁dadalan	-10.0112
▁dinkalranan	-10.0112
▁likozan	-10.0112
▁maidraidrangan	-10.0112
▁makatelon	-10.0112
▁trakobakoban	-10.0112
▁vavoy	-10.0112
▁bariwan	-10.0112
棒	-10.0112
腫	-10.0112
▁malikasaw	-10.0112
啃	-10.0112
經驗	-10.0112
姑	-10.0112
蔥	-10.0112
▁kaziyo	-10.0112
▁polodos	-10.0112
▁kissiya	-10.0112
戰爭	-10.0112
kezang	-10.0112
揹籃	-10.0112
我的名字是	-10.0112
▁dalreo	-10.0112
教室	-10.0112
圍裙	-10.0112
verok	-10.0113
應該	-10.0113
▁ikakoda	-10.0113
▁banin	-10.0113
▁beras	-10.0113
▁bolenan	-10.0113
radis	-10.0113
▁emaeman	-10.0113
▁kawkaw	-10.0114
kemoret	-10.0114
▁adayaw	-10.0114
▁lrayoan	-10.0116
火車	-10.0116
白色	-10.0116
▁kibolas	-10.0117
每年	-10.0117
進行	-10.0117
▁verayay	-10.0118
▁irayan	-10.0119
▁popatraran	-10.0119
長者	-10.0125
馬上	-10.0129
▁marepana	-10.013
那樣	-10.0134
▁danaw	-10.0136
▁mowaarak	-10.0136
一家人	-10.0142
lrepos	-10.0142
dikes	-10.0147
▁這個小孩	-10.0148
▁tina	-10.0151
送到	-10.0153
▁aymo	-10.0157
所有的	-10.0159
▁maolep	-10.0163
她們	-10.0168
kowang	-10.0179
▁aloso	-10.0179
amelri	-10.0181
你的朋友	-10.0187
果實	-10.019
我的媽媽	-10.0193
▁ayawan	-10.0197
祖父母	-10.0199
借我	-10.0199
花生	-10.0203
▁indan	-10.0203
有些	-10.0216
男生	-10.022
aliw	-10.024
洗衣服	-10.0242
很高興	-10.027
imar	-10.0278
roko	-10.031
kong	-10.0332
rekes	-10.0342
我用	-10.0359
rebo	-10.036
▁dalilr	-10.0379
imi	-10.0381
一年	-10.0386
▁他讓	-10.0409
搭公車	-10.0421
▁ado	-10.0428
走了	-10.0445
ku	-10.0494
第一	-10.0494
三個	-10.0497
▁drakor	-10.0499
▁tokay	-10.0518
他說	-10.0566
繩	-10.0592
議	-10.0593
產	-10.0599
北	-10.0601
錯	-10.0601
弟	-10.0604
板	-10.0604
糖	-10.0604
擔	-10.0605
禁	-10.0605
組	-10.0605
青少年	-10.0605
滅	-10.0605
扁	-10.0605
設	-10.0605
制	-10.0605
總	-10.0605
染	-10.0605
斜	-10.0605
蒼	-10.0605
Semalaw	-10.0605
▁aliyotr	-10.0605
▁likolraw	-10.0605
▁mikirowan	-10.0605
▁pakasemangal	-10.0605
滑	-10.0605
要吃什麼	-10.0605
Ansedan	-10.0605
要做什麼	-10.0605
鋪	-10.0605
雙	-10.0605
剝	-10.0605
項	-10.0605
▁temoetaw	-10.0605
坡	-10.0605
Acin	-10.0605
▁latro	-10.0606
舒服	-10.0606
▁sabelaw	-10.0606
▁kianon	-10.0606
▁vekal	-10.0606
集合	-10.0606
參與	-10.0606
麻煩	-10.0607
▁mosama	-10.0607
放置	-10.0607
運動	-10.0607
▁kinasahar	-10.0608
女性	-10.061
相同	-10.061
會被	-10.0611
▁kirepa	-10.0613
pacaran	-10.0617
看見	-10.0618
太多	-10.0622
以及	-10.0623
▁kabong	-10.0625
上衣	-10.0626
▁omaoma	-10.063
讓人	-10.0631
▁sasaya	-10.0631
那邊	-10.0634
要小心	-10.0635
米糕	-10.0636
ezeng	-10.0638
ngowayan	-10.0644
▁kidra	-10.0644
▁semasaharan	-10.065
lritra	-10.0653
裡有	-10.0654
▁mitalopong	-10.0664
Sak	-10.0669
我們的部落	-10.0681
▁lreo	-10.0681
▁kisiya	-10.0683
也有	-10.0702
dip	-10.0745
很喜歡	-10.0747
natray	-10.0754
爸爸說	-10.0761
olas	-10.0768
karatr	-10.0793
▁tremimaa	-10.0799
trab	-10.08
我哥哥	-10.0834
ib	-10.0836
真好	-10.0837
▁pakaron	-10.0855
trong	-10.086
asan	-10.0864
angad	-10.0867
人口	-10.0882
saor	-10.0902
▁koaleng	-10.0905
▁pokasa	-10.0918
tilo	-10.0918
lrisaw	-10.0923
koalengan	-10.0925
olo	-10.0996
renang	-10.1003
▁我正在	-10.1044
▁kasede	-10.1056
loso	-10.1085
他很	-10.1095
liyos	-10.111
底	-10.1113
舉	-10.1123
答	-10.1123
較	-10.1123
靠	-10.1123
準	-10.1124
精	-10.1124
適	-10.1124
騎	-10.1124
談	-10.1124
考	-10.1124
哥	-10.1124
pazangal	-10.1124
珍貴	-10.1125
價	-10.1125
展	-10.1125
貼	-10.1125
貴	-10.1125
千	-10.1125
鎖	-10.1125
絲	-10.1125
陰	-10.1125
眾	-10.1125
章	-10.1125
不好意思	-10.1125
健康	-10.1125
槍	-10.1125
gomolr	-10.1125
▁Matreli	-10.1125
▁bangangesaran	-10.1125
▁batibatiyan	-10.1125
▁dinokel	-10.1125
▁garamgaman	-10.1125
▁kalramalraman	-10.1125
▁kinalradraman	-10.1125
▁kinikaronan	-10.1125
▁malowadi	-10.1125
▁mavangavang	-10.1125
▁pinoyomayan	-10.1125
▁variw	-10.1125
握	-10.1125
羽毛	-10.1125
防	-10.1125
▁tigami	-10.1125
累	-10.1125
馬智禮先生	-10.1125
圈	-10.1125
古謠	-10.1125
攤	-10.1125
窗戶	-10.1125
▁那個女人	-10.1125
▁kikado	-10.1125
興趣	-10.1125
▁那張椅子很重	-10.1125
雕刻	-10.1125
相互	-10.1126
布農族	-10.1126
聚集	-10.1126
▁ngangowayan	-10.1126
▁kirekamelri	-10.1126
▁modaway	-10.1126
▁koyko	-10.1126
200	-10.1126
注意	-10.1126
▁kotrem	-10.1126
跑步	-10.1126
輪流	-10.1126
▁marisan	-10.1127
▁akanen	-10.1127
外婆	-10.1127
▁kalreayan	-10.1127
另外	-10.1127
sepelr	-10.1127
▁raredek	-10.1127
lrasedr	-10.1128
搖動	-10.1128
孫子	-10.1128
玩具	-10.1129
▁lataw	-10.1129
▁tawki	-10.1129
真正	-10.1129
長褲	-10.1131
記得	-10.1131
捕魚	-10.1131
▁paseki	-10.1133
mika	-10.1133
才不會	-10.1134
熱鬧	-10.1134
不論	-10.1135
女兒	-10.1136
▁聽說	-10.1139
waisatr	-10.114
▁masa	-10.1143
對於	-10.1149
▁marenang	-10.1151
▁下雨了	-10.1158
▁aitrol	-10.1163
▁dadare	-10.1173
apoc	-10.1175
▁marahan	-10.1179
我很喜歡	-10.1181
walrak	-10.1182
了解	-10.1189
▁你明天	-10.1214
給他	-10.1215
曾	-10.1218
eres	-10.1222
▁2.	-10.1254
▁venava	-10.1256
明天要	-10.1256
▁molremes	-10.1269
我們都	-10.1273
部落裡	-10.1276
要做	-10.1288
cong	-10.1289
的故事	-10.1334
喜歡讀書	-10.1338
ven	-10.1355
十二	-10.1366
▁aeman	-10.1368
kowan	-10.137
有好多	-10.1412
製作的	-10.1413
在讀書	-10.1413
rayas	-10.1427
田鼠	-10.1438
tremel	-10.1446
在這	-10.1448
▁pito	-10.1458
▁pakalrang	-10.1507
rina	-10.1529
原來是	-10.1532
▁karoma	-10.1561
kotr	-10.1571
saigo	-10.1639
撞	-10.166
目	-10.1667
拍	-10.1668
涼	-10.167
化	-10.167
視	-10.167
鹽	-10.1672
戰	-10.1673
蒸	-10.1673
店	-10.1673
選	-10.1673
階	-10.1673
算	-10.1673
飽	-10.1673
是黑色的	-10.1673
N	-10.1673
浪	-10.1673
吵	-10.1673
喊	-10.1673
塗	-10.1673
洋	-10.1673
抱	-10.1673
異	-10.1673
樓	-10.1673
潑	-10.1673
瘡	-10.1673
Likavong	-10.1673
▁Pairang	-10.1673
▁Yoancomin	-10.1673
▁bineraberas	-10.1673
▁kasangalan	-10.1673
▁kiyaedrengan	-10.1673
▁melrangoy	-10.1673
▁sorimet	-10.1673
寄	-10.1673
差	-10.1673
梯	-10.1673
▁lalowanan	-10.1673
淋	-10.1673
載	-10.1673
pentrira	-10.1673
棵	-10.1673
餵	-10.1673
巴拉冠	-10.1673
發祥地	-10.1673
裏	-10.1673
▁pakabolay	-10.1673
撕	-10.1673
沉	-10.1673
虎	-10.1673
覆蓋	-10.1673
花蓮	-10.1673
溫暖	-10.1673
他的名字是	-10.1673
消失	-10.1673
標記	-10.1673
祈求	-10.1673
否則	-10.1674
▁tatililran	-10.1674
的意思	-10.1674
▁siyataw	-10.1674
尋找	-10.1674
▁maylralra	-10.1674
突然	-10.1674
▁kodrama	-10.1674
臺東	-10.1674
訪問	-10.1674
不見了	-10.1674
專門	-10.1674
湯鍋	-10.1675
春天	-10.1675
工具	-10.1675
▁ekis	-10.1676
▁iniyam	-10.1676
樹枝	-10.1676
看電視	-10.1677
▁baet	-10.1677
▁meniwan	-10.1678
▁kivelas	-10.1678
前往	-10.1679
▁datar	-10.168
海邊	-10.1681
杯子	-10.1681
最近	-10.1682
很甜	-10.1682
之前	-10.1682
▁mazayazayar	-10.1682
山羊	-10.1683
以前	-10.1683
見面	-10.1683
令人	-10.1683
▁mararengay	-10.1685
喝酒	-10.1685
▁elak	-10.1686
一定會	-10.1688
timol	-10.1689
▁pakadalram	-10.169
▁voyo	-10.1691
▁daramiyan	-10.1692
▁pavelas	-10.1693
發生	-10.1695
▁niroma	-10.1696
der	-10.171
▁我幫	-10.1717
▁我吃了	-10.172
alropan	-10.1726
▁marowaya	-10.1726
會不會	-10.1729
▁pamelri	-10.1731
▁nien	-10.1732
▁pareb	-10.1738
的葉子	-10.1742
不太	-10.1746
lawas	-10.1746
▁wadiyan	-10.1749
▁marka	-10.1751
▁你今天	-10.1752
▁他們的	-10.1755
不同的	-10.1758
oniyan	-10.1766
▁patra	-10.1775
laodr	-10.1776
▁mawmo	-10.179
watranan	-10.1794
很熱	-10.1798
bek	-10.1817
lapos	-10.1826
你們有	-10.1838
rok	-10.1868
變得	-10.1883
一件	-10.1888
剩下	-10.1913
lralre	-10.1924
我今天	-10.1952
onon	-10.1962
likap	-10.197
你爸爸	-10.1985
adika	-10.199
ping	-10.1992
我請	-10.1994
▁kiyaami	-10.2002
我都	-10.2042
有力量	-10.2054
rakaz	-10.2061
▁mitoro	-10.2064
▁mirawa	-10.2065
drini	-10.2103
▁pakan	-10.2168
大家一起	-10.2182
kep	-10.219
認	-10.2229
鼻	-10.2239
硬	-10.2241
導	-10.2249
運	-10.225
嚴	-10.225
料	-10.2251
妹	-10.2251
bolas	-10.2252
份	-10.2252
初	-10.2252
遊	-10.2252
怕	-10.2252
▁awlra	-10.2252
段	-10.2253
幸	-10.2253
雕	-10.2253
致	-10.2253
濃	-10.2253
遭	-10.2253
456	-10.2253
q	-10.2253
各式各樣	-10.2253
扛	-10.2253
▁你怎麼了	-10.2253
遺	-10.2253
▁Yoēn	-10.2253
燈	-10.2253
▁Inanowayan	-10.2253
▁Trowangalan	-10.2253
▁babolayan	-10.2253
▁kinoretan	-10.2253
▁kinsas	-10.2253
▁laliyaban	-10.2253
▁miotobay	-10.2253
▁ngidiran	-10.2253
▁remames	-10.2253
▁sidromayan	-10.2253
▁wadadiyan	-10.2253
不客氣	-10.2253
喚	-10.2253
捏	-10.2253
捲	-10.2253
積	-10.2253
Arasis	-10.2253
▁kemirami	-10.2253
弓	-10.2253
混	-10.2253
職	-10.2253
舊	-10.2253
週	-10.2253
遷	-10.2253
醉	-10.2253
▁bolrawan	-10.2253
膝蓋	-10.2253
勢	-10.2253
▁manoeman	-10.2253
pecir	-10.2253
慶祝	-10.2253
便宜	-10.2253
祝福	-10.2253
熊	-10.2253
▁motani	-10.2253
▁benase	-10.2254
南瓜	-10.2254
害怕	-10.2254
通知	-10.2254
▁demaolr	-10.2254
決定	-10.2254
▁kemiyaanger	-10.2254
精神	-10.2254
青菜	-10.2254
紙張	-10.2254
▁ponon	-10.2255
▁你有幾隻	-10.2255
▁miyabetan	-10.2255
雜草	-10.2256
並且	-10.2256
kaod	-10.2256
▁cimi	-10.2257
四十	-10.2257
掃地	-10.2258
sowasowa	-10.2258
即將	-10.2259
從此	-10.2262
▁kowi	-10.2262
calon	-10.2263
除草	-10.2266
心情	-10.2266
鼻子	-10.2267
▁siri	-10.2267
▁ninko	-10.227
layas	-10.2272
▁soso	-10.2273
小山豬	-10.2273
▁rapi	-10.2273
▁penana	-10.2276
年輕人	-10.2276
▁pitaw	-10.2284
▁pakadaw	-10.2284
▁kipa	-10.2291
成熟了	-10.2292
很遠	-10.2292
▁nantaw	-10.2294
美麗的	-10.233
laos	-10.2333
adras	-10.2342
balis	-10.2346
▁karomaan	-10.2349
從小	-10.2353
▁mianger	-10.2377
polo	-10.239
上面	-10.2392
我的腳	-10.2403
aziya	-10.2411
朋友們	-10.2429
atedr	-10.245
歌謠	-10.2456
kamelri	-10.2456
有個	-10.2459
nno	-10.247
▁moasalr	-10.2473
跟你	-10.2483
evang	-10.2484
他叫	-10.2489
ivi	-10.249
▁sanga	-10.2493
有一隻狗	-10.2506
詞	-10.2542
adiyo	-10.2542
keser	-10.2545
在唱歌	-10.2564
有下雨	-10.2593
▁gem	-10.2614
etrir	-10.2685
你妹妹	-10.2697
那隻	-10.2705
母親	-10.2762
聞	-10.2768
還要	-10.279
leng	-10.2824
不同	-10.2831
成熟	-10.2834
kalradram	-10.2845
懂	-10.2848
likodr	-10.285
veliyas	-10.2862
慢	-10.2864
材	-10.2864
隔	-10.2864
架	-10.2865
枝	-10.2865
反	-10.2865
姊	-10.2867
式	-10.2867
非	-10.2867
專	-10.2867
壯	-10.2867
承	-10.2867
踩	-10.2867
助	-10.2867
摔	-10.2867
雄	-10.2868
責	-10.2868
籐	-10.2868
計	-10.2868
試	-10.2868
從哪裡來	-10.2868
幫助	-10.2868
抽	-10.2868
lralritek	-10.2868
奇	-10.2868
▁maroni	-10.2868
大獵祭	-10.2868
擺	-10.2868
斤	-10.2868
按	-10.2868
沖	-10.2868
遮	-10.2868
尖	-10.2868
粒	-10.2868
逢	-10.2868
Giwat	-10.2868
Malray	-10.2868
▁kabalawasan	-10.2868
▁kasahasahar	-10.2868
▁masopeng	-10.2868
▁tinililr	-10.2868
旅	-10.2868
番石榴	-10.2868
賣完了	-10.2868
kirongetr	-10.2868
▁likodan	-10.2868
▁semeneng	-10.2868
層	-10.2868
巡	-10.2868
扮	-10.2868
股	-10.2868
胸	-10.2868
蜂	-10.2868
Amsing	-10.2868
▁kadenonan	-10.2868
▁piniwalrakan	-10.2868
▁tatelo	-10.2868
僅	-10.2868
利嘉	-10.2868
岸	-10.2868
彈	-10.2868
閉	-10.2868
Pasaraadr	-10.2868
惡	-10.2868
返	-10.2868
對不起	-10.2868
小男孩	-10.2868
▁panini	-10.2869
習慣	-10.2869
的貓是黑色的	-10.2869
▁kitolod	-10.2869
的意義	-10.2869
esongan	-10.2869
▁apoapotr	-10.2869
▁songal	-10.2869
乘涼	-10.2869
扁籃	-10.2869
西瓜	-10.2869
排灣族	-10.2869
尊重	-10.2869
▁driyaranga	-10.2869
兄姊	-10.2869
▁wayway	-10.2869
的日子	-10.2869
位置	-10.2869
石灰	-10.287
增加	-10.287
帶著雨傘	-10.287
betan	-10.287
目前	-10.287
▁parebeliyas	-10.2871
早安	-10.2871
▁venavalray	-10.2871
lenak	-10.2871
下午	-10.2872
飛機	-10.2872
▁semabalr	-10.2873
通常	-10.2873
桌上	-10.2873
▁daleken	-10.2874
▁makave	-10.2876
骨頭	-10.2877
▁sinanga	-10.2877
能力	-10.2877
▁inaekan	-10.2878
放假	-10.2879
▁maomao	-10.288
▁kowayo	-10.288
我們今天要去	-10.288
▁他是你的	-10.288
▁sasenayan	-10.2882
▁他是老師	-10.2883
不知	-10.2883
▁samek	-10.2883
借你	-10.2884
depo	-10.2885
到田裡	-10.2885
▁matengadraw	-10.2887
▁marelrang	-10.2889
▁aziyo	-10.2893
一定要	-10.2893
我忘了帶	-10.2894
大聲	-10.29
親家	-10.2902
用竹子	-10.2902
▁maca	-10.2904
▁temoro	-10.2909
lowan	-10.2911
我沒	-10.2911
leponan	-10.2912
alrev	-10.292
▁kadriyo	-10.292
帶雨傘	-10.2925
▁mobii	-10.2927
▁你若	-10.2929
人類	-10.2941
讓他們	-10.2947
▁palraw	-10.2955
不夠	-10.296
小孩子	-10.2965
lingaw	-10.2972
你叫	-10.2988
base	-10.2992
出生的	-10.3007
是用來	-10.3009
makakoda	-10.3011
很好吃	-10.3018
mē	-10.3034
很快就	-10.3046
有一個妹妹	-10.3049
ode	-10.3055
▁maowan	-10.3058
kema	-10.3059
saninin	-10.3068
來到	-10.3075
我沒有在	-10.308
bekas	-10.3082
helr	-10.3084
iring	-10.309
讓學生	-10.3116
▁data	-10.3117
▁kemawan	-10.3132
▁temala	-10.3181
elrep	-10.3204
lregi	-10.3216
▁aotr	-10.3242
我們可以	-10.3255
的食物	-10.3278
要穿	-10.3278
ilring	-10.3331
lop	-10.3339
lrowan	-10.3339
隻狗	-10.3341
redek	-10.3345
會很	-10.3346
▁mate	-10.336
▁cin	-10.3367
去教會	-10.34
aylra	-10.3407
lrazam	-10.3407
▁gin	-10.3412
madolo	-10.3438
▁iyab	-10.3475
irop	-10.3489
akotr	-10.3503
知	-10.3504
掃	-10.3505
超	-10.3507
院	-10.3508
肚	-10.3511
令	-10.3512
音	-10.3522
輪	-10.3522
創	-10.3523
醃	-10.3523
冰	-10.3523
決	-10.3523
師	-10.3523
竊	-10.3524
eleel	-10.3524
肥	-10.3524
挑	-10.3524
牙	-10.3524
稍	-10.3524
易	-10.3524
E	-10.3524
仰	-10.3524
升	-10.3524
據	-10.3524
型	-10.3524
幼	-10.3524
我的鉛筆	-10.3524
謂	-10.3524
谷	-10.3524
lriyabes	-10.3524
tingting	-10.3524
▁Tayhok	-10.3524
▁kaabalo	-10.3524
▁kakowalengan	-10.3524
▁kirowarowan	-10.3524
▁kiwmalra	-10.3524
▁lralrivowan	-10.3524
▁malalinay	-10.3524
▁miedreng	-10.3524
▁salikidr	-10.3524
▁temarawiri	-10.3524
▁zazek	-10.3524
▁zemiyar	-10.3524
佳	-10.3524
含	-10.3524
渴	-10.3524
疊	-10.3524
絕	-10.3524
編花環	-10.3524
軟	-10.3524
Pilray	-10.3524
▁balenan	-10.3524
▁drekall	-10.3524
捕獸夾	-10.3524
摩托車	-10.3524
桶	-10.3524
粉	-10.3524
退	-10.3524
kedreng	-10.3524
▁那個女孩子喜歡	-10.3524
▁maymay	-10.3524
aliwanes	-10.3524
ineine	-10.3524
▁pakorenang	-10.3524
膽	-10.3524
Sanasan	-10.3524
▁mingadan	-10.3524
梅花鹿	-10.3524
疼	-10.3524
▁piniangeran	-10.3524
星星	-10.3524
繞	-10.3524
Egan	-10.3524
▁Yēncomin	-10.3524
▁malemo	-10.3524
▁semelrap	-10.3524
▁bolretrenganan	-10.3524
▁kenaw	-10.3524
lobok	-10.3525
他們家有	-10.3525
建築	-10.3525
▁misaharan	-10.3525
Siyang	-10.3525
driketran	-10.3525
olane	-10.3525
▁babati	-10.3525
▁kodomo	-10.3525
▁請問您	-10.3525
▁trangar	-10.3525
永遠	-10.3525
今年幾歲	-10.3525
▁penetrir	-10.3525
縫製	-10.3525
在都市	-10.3525
▁benaaw	-10.3525
▁kowaleng	-10.3526
Ingkay	-10.3526
▁lregiyan	-10.3526
創作	-10.3526
彎折	-10.3526
團結	-10.3526
▁matengetengedr	-10.3527
arelret	-10.3527
▁penadang	-10.3528
無法	-10.3528
▁tinotraotrao	-10.3528
天氣如何	-10.3528
作品	-10.3528
▁patavang	-10.3529
子孫	-10.3529
接近	-10.3529
拍打	-10.3529
民族	-10.3529
正在下雨	-10.3531
latak	-10.3531
▁karaov	-10.3532
▁makadare	-10.3532
多久	-10.3536
借錢	-10.3536
方向	-10.3538
odem	-10.3538
中間	-10.354
小偷	-10.3542
▁korenanga	-10.3542
出門	-10.3544
跌倒了	-10.3546
Umaw	-10.3548
▁palamo	-10.3551
只好	-10.3552
revowa	-10.3552
作為	-10.3555
▁ongay	-10.3558
我的橡皮擦	-10.3559
失去	-10.3561
ktok	-10.3562
時代	-10.3571
知本部落	-10.3576
▁是啊	-10.3584
▁trinapa	-10.3587
初鹿部落	-10.359
會下雨	-10.3606
tib	-10.3621
▁niya	-10.3622
也可以	-10.3629
吞下	-10.3634
ongaw	-10.3637
▁kasedean	-10.3639
kasahar	-10.3642
betra	-10.3643
一群	-10.3644
ēncomin	-10.3653
▁Tay	-10.3656
我的頭	-10.3658
pene	-10.3686
mere	-10.3698
alretro	-10.37
是醫生	-10.3706
mokowa	-10.3709
在路上	-10.3722
一條	-10.3734
了許多	-10.3743
回家了	-10.3813
sinsi	-10.3836
cang	-10.3844
的學生	-10.3845
國家	-10.3865
門口	-10.3868
級	-10.3873
一天	-10.3888
大門	-10.3912
tu	-10.3917
etan	-10.3971
▁ane	-10.3979
回來了	-10.4088
powar	-10.4116
▁boi	-10.4119
我從	-10.413
orong	-10.4153
igowan	-10.4159
播	-10.4185
的椅子	-10.4187
管	-10.4199
▁walowa	-10.4204
velas	-10.4205
kadrowadrowan	-10.4209
瓶	-10.4213
風吹	-10.4217
集	-10.422
嫁	-10.4222
▁tayta	-10.4223
綠	-10.4223
beliyas	-10.4224
麵	-10.4224
景	-10.4225
示	-10.4225
士	-10.4225
肩	-10.4226
權	-10.4226
足	-10.4226
勞	-10.4226
賞	-10.4226
務	-10.4226
烏克蘭	-10.4226
怒	-10.4226
爛	-10.4226
述	-10.4226
虛	-10.4226
浸泡	-10.4226
Panaway	-10.4226
凱旋門	-10.4226
確	-10.4226
紛	-10.4226
drenadrenan	-10.4226
salriabong	-10.4226
tawlriyolr	-10.4226
▁Unping	-10.4226
▁biyoing	-10.4226
▁dinanoman	-10.4226
▁kamangolr	-10.4226
▁mozangiya	-10.4226
▁palalidringan	-10.4226
▁renarenadran	-10.4226
▁saliwsan	-10.4226
▁tenok	-10.4226
▁vangavangan	-10.4226
▁velrvelr	-10.4226
側	-10.4226
嫩	-10.4226
煙	-10.4226
砌	-10.4226
警	-10.4226
▁Danadanaw	-10.4226
▁iyasaos	-10.4226
▁pinikirowan	-10.4226
盤	-10.4226
索	-10.4226
薄	-10.4226
▁homolr	-10.4226
▁linggo	-10.4226
▁pakirev	-10.4226
在做什麼	-10.4226
我有一個哥哥	-10.4226
端	-10.4226
芽	-10.4226
茶	-10.4226
誠	-10.4226
這張桌子很重	-10.4226
▁yoancomin	-10.4226
局	-10.4226
抖	-10.4226
月亮出來了	-10.4226
珍惜	-10.4226
Imay	-10.4226
trangila	-10.4226
▁aicor	-10.4226
▁malees	-10.4226
施	-10.4226
證	-10.4226
▁lipotr	-10.4226
廣	-10.4226
橋	-10.4226
emalropa	-10.4226
▁atrevong	-10.4226
▁kakitengan	-10.4226
▁mikabong	-10.4227
▁aivas	-10.4227
們常常去探望祖父	-10.4227
可憐	-10.4227
▁miyop	-10.4227
▁patakesi	-10.4227
▁tremepa	-10.4227
▁katawa	-10.4227
▁tratroli	-10.4227
▁talaolep	-10.4227
▁kangkang	-10.4227
retrevong	-10.4227
摔角	-10.4227
▁maranakan	-10.4227
你們有賣	-10.4227
有時會	-10.4227
那位小姐	-10.4228
包巾	-10.4228
你是不是	-10.4228
▁kodayaw	-10.4228
靠近	-10.4228
器具	-10.4228
很會說族語	-10.4228
50	-10.4228
傳統習俗	-10.4228
附近	-10.4228
嘴巴	-10.4228
美化	-10.4228
Isaw	-10.4229
獲得	-10.4229
▁inlrangan	-10.4229
木瓜	-10.4229
▁makaloso	-10.4229
田園	-10.4229
▁pakomao	-10.4229
的傳說	-10.4229
年紀	-10.4229
▁kirepanaowa	-10.423
兔子	-10.423
產生	-10.423
padrekan	-10.423
也許	-10.4231
相聚	-10.4231
▁konin	-10.4231
▁nanema	-10.4232
▁popanay	-10.4232
trekip	-10.4233
▁totos	-10.4233
▁meleotr	-10.4233
打電話	-10.4233
▁pakangowayan	-10.4234
古老	-10.4234
▁isatr	-10.4235
▁waarakan	-10.4235
▁patalro	-10.4236
lawang	-10.4236
▁kaado	-10.4237
煮飯	-10.4238
寫字	-10.4239
▁merengay	-10.424
In	-10.424
各種	-10.424
的妹妹	-10.424
▁inmo	-10.4241
▁不行	-10.4243
ulr	-10.4244
有些人	-10.4245
上課	-10.4246
那本書	-10.4247
他們昨天去	-10.4248
▁aydan	-10.4248
▁kakodayan	-10.425
▁pakavolay	-10.425
▁kasemangalan	-10.4251
外出	-10.4254
個小孩有幾	-10.4256
這位	-10.427
祖先們	-10.4274
▁我們正在	-10.4275
以為	-10.4278
▁dawadawa	-10.4278
dadikes	-10.4289
小狗	-10.4292
tenges	-10.4295
▁parahan	-10.4303
▁malak	-10.4308
limi	-10.4309
▁takilr	-10.4322
▁panana	-10.4324
▁那裡有	-10.4328
不熱	-10.4334
tev	-10.434
▁moborek	-10.434
▁polranga	-10.4342
真是	-10.4348
滿了	-10.4356
懂得	-10.4357
說的話	-10.4358
omayan	-10.4358
sowan	-10.4359
曲	-10.4361
poso	-10.4366
aapat	-10.4382
我先	-10.4403
我很好	-10.4412
裝在	-10.4424
maresa	-10.4437
去採	-10.444
不過	-10.4447
U	-10.4452
真的很	-10.4456
不一樣	-10.4496
ingkok	-10.4534
幾歲	-10.4534
名叫	-10.4576
lamo	-10.4579
idong	-10.458
sahar	-10.4588
Kasavakan	-10.459
看病	-10.4637
llall	-10.4641
很長	-10.4659
roway	-10.4673
rawang	-10.4677
▁如果你	-10.4712
emes	-10.4717
bii	-10.4746
▁mele	-10.4758
並不	-10.4786
▁val	-10.4801
▁你妹妹在	-10.4807
resan	-10.4859
祖父祖母	-10.489
bias	-10.4897
idap	-10.4901
一起唱歌	-10.4928
剛好	-10.4933
葉子	-10.4946
▁korena	-10.4947
kavolay	-10.4957
還給	-10.4962
sasenay	-10.4965
rabotr	-10.4974
電視	-10.4976
雜	-10.4977
撿	-10.4979
環	-10.4979
耕	-10.498
zenan	-10.498
裙	-10.498
房	-10.498
匙	-10.498
福	-10.4981
陪	-10.4981
乘	-10.4981
富	-10.4981
祈雨	-10.4981
商	-10.4981
備	-10.4981
箱	-10.4981
左	-10.4981
碰	-10.4981
糰	-10.4981
淺	-10.4981
大巨人	-10.4981
皆	-10.4981
Kulele	-10.4981
腐	-10.4981
亡	-10.4981
撫	-10.4981
敏捷	-10.4981
樑	-10.4981
派	-10.4981
系	-10.4981
翹	-10.4981
巧	-10.4981
撐	-10.4981
規	-10.4981
還需要	-10.4981
Pungya	-10.4981
sirosiropan	-10.4981
▁Wagong	-10.4981
▁kaseveran	-10.4981
▁kinadamanan	-10.4981
▁madiyadi	-10.4981
▁makalrowatr	-10.4981
▁modingan	-10.4981
▁parekodakoda	-10.4981
▁riwanes	-10.4981
▁takakesian	-10.4981
▁trorabak	-10.4981
哦	-10.4981
晾	-10.4981
獎	-10.4981
蓆	-10.4981
踢	-10.4981
▁kapalisiyan	-10.4981
▁ronev	-10.4981
▁tromay	-10.4981
▁那個男孩子正在	-10.4981
比賽跑步	-10.4981
番	-10.4981
罰	-10.4981
剖	-10.4981
閩南人	-10.4981
頸	-10.4981
powadrangi	-10.4981
上山打獵	-10.4981
嘗試	-10.4981
基	-10.4981
密	-10.4981
星星出來了	-10.4981
羞	-10.4981
▁kakakoda	-10.4981
▁kikolang	-10.4981
這麼多	-10.4981
遍	-10.4981
姆姆	-10.4981
▁mipaowayan	-10.4981
賽德克族	-10.4981
kakiyas	-10.4981
簡單	-10.4981
歡迎	-10.4981
Wagung	-10.4981
Uyang	-10.4981
▁kemakadaw	-10.4981
臺灣原住民族	-10.4981
鄰居	-10.4981
Apeng	-10.4981
▁mames	-10.4981
有哪些	-10.4981
▁marowadi	-10.4982
▁Toko	-10.4982
▁melibat	-10.4982
配偶	-10.4982
▁mikavang	-10.4982
不停的	-10.4982
肥料	-10.4982
豐富	-10.4982
迎接	-10.4982
天黑了	-10.4982
搥打	-10.4982
弟妹	-10.4982
howo	-10.4982
安靜	-10.4982
陪伴	-10.4982
▁minada	-10.4982
搬運	-10.4982
damok	-10.4982
懷念	-10.4982
的花環	-10.4982
▁mingalad	-10.4982
法律	-10.4982
拍照	-10.4983
搭火車	-10.4983
某物	-10.4983
耕作	-10.4983
探望	-10.4983
保護	-10.4983
敬禮	-10.4983
kozolr	-10.4983
水缸	-10.4983
▁matro	-10.4983
▁kaita	-10.4983
月桃	-10.4984
終於	-10.4984
下次再	-10.4984
教導	-10.4984
alrepat	-10.4985
▁pareveliyas	-10.4985
palisi	-10.4985
我們全家	-10.4985
布袋	-10.4985
▁tadraw	-10.4985
麻線	-10.4985
往東	-10.4986
完全	-10.4986
哪兒	-10.4986
小姐們	-10.4987
▁kelon	-10.4988
▁temaramaw	-10.4988
上班	-10.4988
▁emaip	-10.4988
▁itroli	-10.4988
是哪一	-10.4989
認為	-10.499
singsing	-10.499
掉落	-10.499
等等	-10.4991
▁kaadrowan	-10.4991
▁kobaw	-10.4992
地瓜葉	-10.4992
Utay	-10.4993
幾個人	-10.4994
想法	-10.4995
daom	-10.4995
拿出來	-10.4997
其中	-10.4997
撞到	-10.4998
katengadraw	-10.5
會議	-10.5
▁melak	-10.5
▁kemiya	-10.5
超過	-10.5
▁palrope	-10.5002
▁mawmao	-10.5007
木頭	-10.5008
夏天時	-10.5009
鍋子	-10.5014
▁maira	-10.5014
外地	-10.5016
saadr	-10.5019
▁好吧	-10.5021
▁makaiwa	-10.5021
▁walo	-10.5022
背著	-10.5026
青年人	-10.5026
▁motowa	-10.503
▁doma	-10.5032
不斷	-10.5033
uwan	-10.5034
用石頭	-10.5039
▁padawilr	-10.504
過年	-10.5045
ariari	-10.5048
▁pakangaway	-10.5061
▁pinialrakan	-10.5064
一半	-10.5072
我的狗	-10.5072
為什麼會	-10.5083
▁kemor	-10.5086
waitras	-10.5086
raroma	-10.5097
ekel	-10.51
拿來	-10.5102
來自	-10.5105
很深	-10.5106
▁madrek	-10.5114
我的孩子	-10.5138
lraod	-10.5185
幾個	-10.5212
▁long	-10.5258
力量	-10.526
lale	-10.5271
▁So	-10.5286
老師說	-10.5289
▁drema	-10.5316
點鐘	-10.5317
走過	-10.5323
enin	-10.5341
我已	-10.5371
alis	-10.5398
rabi	-10.5413
種下	-10.5447
▁我有一隻	-10.5449
▁temowa	-10.5466
▁semanga	-10.5502
likaw	-10.5536
隨著	-10.556
你姊姊	-10.5598
vina	-10.5598
陽光	-10.5642
出生	-10.5661
不懂	-10.5674
kiteng	-10.5693
malrazam	-10.5694
▁pinialrak	-10.5709
tengadraw	-10.571
ngawayan	-10.5713
▁那個小孩	-10.5732
印	-10.5735
▁paroni	-10.5742
kadalram	-10.5773
zekalr	-10.5774
刻	-10.5781
論	-10.5782
▁porikana	-10.5788
興	-10.5794
校	-10.5796
友	-10.5797
替	-10.5797
搭飛機	-10.5797
訴	-10.5797
腦	-10.5797
菸	-10.5798
勤	-10.5798
姊妹	-10.5798
復	-10.5798
奮	-10.5798
聚會所	-10.5798
颳	-10.5798
模	-10.5798
訂	-10.5798
戴著帽子	-10.5798
飛來飛去	-10.5798
削	-10.5798
宿	-10.5798
必	-10.5798
梳	-10.5798
極	-10.5798
溢	-10.5798
兇	-10.5798
泡	-10.5798
的衣服是紅色的	-10.5798
補	-10.5798
一個星期有	-10.5798
我這麼介紹	-10.5798
摺	-10.5798
森林裡	-10.5798
澀	-10.5798
髒	-10.5798
dinapalran	-10.5798
kowarabakan	-10.5798
lralrowatr	-10.5798
makapetelr	-10.5798
tikeriz	-10.5798
▁Lotiya	-10.5798
▁Pongya	-10.5798
▁Tahai	-10.5798
▁kitobangesar	-10.5798
▁maziyazi	-10.5798
▁mikatagowin	-10.5798
▁mipinadangan	-10.5798
▁movalivalis	-10.5798
▁paliyoliyos	-10.5798
▁sēho	-10.5798
▁valalisen	-10.5798
▁vetreliyan	-10.5798
塞	-10.5798
姑婆芋	-10.5798
要多喝	-10.5798
▁namalli	-10.5798
▁rimekan	-10.5798
▁這孩子	-10.5798
官	-10.5798
揚	-10.5798
甩	-10.5798
筋	-10.5798
衝	-10.5798
Kolele	-10.5798
▁Pasali	-10.5798
▁kinazowan	-10.5798
▁tremangiya	-10.5798
下課了	-10.5798
大狩獵祭	-10.5798
憂	-10.5798
遵	-10.5798
inavanava	-10.5798
▁tongtong	-10.5798
撥	-10.5798
敲	-10.5798
普悠瑪部落	-10.5798
鏡	-10.5798
Agam	-10.5798
emanamanan	-10.5798
▁alielri	-10.5798
般	-10.5798
露	-10.5798
Truwangalan	-10.5798
▁garang	-10.5798
洞穴	-10.5798
oringetr	-10.5798
▁marepaowa	-10.5798
papetrir	-10.5798
▁kemangkang	-10.5798
labeni	-10.5798
▁Alaw	-10.5798
▁dinon	-10.5798
太魯閣族	-10.5798
tingeran	-10.5798
▁nirengayan	-10.5798
dradrayar	-10.5798
▁katring	-10.5798
▁palaladam	-10.5798
▁tabokolr	-10.5798
tamoni	-10.5798
材料	-10.5798
Takaw	-10.5799
綠島	-10.5799
賽夏族	-10.5799
▁hitay	-10.5799
思考	-10.5799
內容	-10.5799
盡量	-10.5799
apeap	-10.5799
偷竊	-10.5799
的鞋子	-10.5799
▁maramaidrang	-10.5799
雄鹿	-10.5799
▁tamina	-10.5799
免得	-10.5799
藍色	-10.5799
▁lingatr	-10.58
▁maaodalr	-10.58
料理	-10.58
動物園	-10.58
40	-10.58
裝滿了	-10.58
emec	-10.5801
能夠	-10.5801
dalos	-10.5801
ngidra	-10.5801
▁ivalri	-10.5801
期間	-10.5801
地震	-10.5801
角落	-10.5801
八十	-10.5801
▁他們兩個	-10.5802
▁tayna	-10.5802
▁melrivak	-10.5802
鳥類	-10.5803
他們天天看電視	-10.5803
來看你	-10.5803
直接	-10.5805
社會	-10.5805
很矮	-10.5805
做錯	-10.5805
每個	-10.5806
▁maratrang	-10.5806
三十	-10.5806
▁marekamelri	-10.5806
加入	-10.5808
過世	-10.5808
▁pasekadr	-10.5808
一起去打獵	-10.5809
▁pobetan	-10.5809
少女	-10.581
帶領	-10.581
冬天時	-10.5811
家園	-10.5812
▁vangsaran	-10.5812
dosiya	-10.5813
一瓶	-10.5814
▁tronga	-10.5814
▁potabo	-10.5815
kinasowan	-10.5816
▁Akay	-10.5817
到底	-10.5817
▁telowa	-10.5817
▁sasede	-10.5819
▁viyaw	-10.5821
▁poloso	-10.5824
吃完	-10.5824
epetr	-10.5826
咬人	-10.5829
走動	-10.5831
▁powaroma	-10.5833
▁當時	-10.5836
除喪	-10.5839
南王部落	-10.5846
到山上	-10.5851
▁kalraman	-10.5853
pela	-10.5856
▁pakanay	-10.5857
打開	-10.5857
aretim	-10.5864
dreketr	-10.5865
不但	-10.5865
這種	-10.5865
帶傘	-10.587
▁paallopa	-10.587
▁temamako	-10.587
apiyar	-10.5878
gela	-10.5879
denan	-10.588
採收	-10.5887
▁maakan	-10.5901
▁lema	-10.5903
那是地瓜	-10.5904
建和部落	-10.5905
▁tinara	-10.5913
▁Siw	-10.5918
dodo	-10.5933
▁marom	-10.5956
的玉米	-10.6004
第三	-10.6011
tapes	-10.6028
salaw	-10.6058
跟隨	-10.6066
var	-10.6074
napan	-10.6155
西邊	-10.6186
iris	-10.6219
Ing	-10.622
▁melale	-10.623
要如何	-10.6247
向他	-10.6248
etil	-10.6268
有許多	-10.627
習俗	-10.6309
tros	-10.6362
ngitr	-10.6383
kuy	-10.6386
romaroma	-10.6391
▁cema	-10.6402
六十	-10.6479
saob	-10.6484
tovang	-10.6486
是男生	-10.6501
去菜園	-10.6523
曾祖父	-10.6525
吞	-10.6539
幾年	-10.6548
iziyo	-10.6656
palidring	-10.666
bangabang	-10.6663
顧	-10.6665
wariyan	-10.6667
杯	-10.6674
冬天	-10.6675
午	-10.6677
讀	-10.6681
祖	-10.6682
夏	-10.6683
bik	-10.6684
棄	-10.6684
nadanadam	-10.6684
ilras	-10.6685
某	-10.6686
臼	-10.6686
執	-10.6686
探	-10.6686
舅	-10.6686
獻	-10.6686
籃	-10.6686
永	-10.6686
龍	-10.6686
標	-10.6686
旱	-10.6686
媽	-10.6687
飲	-10.6687
W	-10.6687
微	-10.6687
治	-10.6687
周	-10.6687
侵	-10.6687
救	-10.6687
里	-10.6687
蘇	-10.6687
宣	-10.6687
Sincyang	-10.6687
~	-10.6687
又大又	-10.6687
嚐	-10.6687
英	-10.6687
釘	-10.6687
娶	-10.6687
腸	-10.6687
付	-10.6687
繁	-10.6687
ㄧ	-10.6687
吼	-10.6687
囉	-10.6687
摩	-10.6687
良	-10.6687
siyakasik	-10.6687
他是我的哥哥	-10.6687
從事什麼	-10.6687
扯	-10.6687
杵	-10.6687
臥	-10.6687
鬼	-10.6687
Kulas	-10.6687
daladalan	-10.6687
madayadayar	-10.6687
masikasik	-10.6687
pakotrekotr	-10.6687
trengtreng	-10.6687
volavolas	-10.6687
▁Demaway	-10.6687
▁Togi	-10.6687
▁batolrayaw	-10.6687
▁dangdarang	-10.6687
▁ikatratrao	-10.6687
▁inodawayan	-10.6687
▁kanatanatal	-10.6687
▁kemedreng	-10.6687
▁korepanana	-10.6687
▁mapolrapolrang	-10.6687
▁marekakadrowan	-10.6687
▁mobilin	-10.6687
▁nirebowaan	-10.6687
▁palribak	-10.6687
▁pikirowan	-10.6687
▁pokatelo	-10.6687
▁talraviyaw	-10.6687
▁tilitilin	-10.6687
▁volretri	-10.6687
▁zangzarang	-10.6687
悶	-10.6687
牢	-10.6687
盪	-10.6687
▁kilrivak	-10.6687
成人會所	-10.6687
▁Hako	-10.6687
▁kakayanan	-10.6687
▁konamon	-10.6687
▁那些男孩子正在	-10.6687
技	-10.6687
胃	-10.6687
陶	-10.6687
館	-10.6687
Tuku	-10.6687
▁bayabayan	-10.6687
▁palrivak	-10.6687
▁powatraiyan	-10.6687
五個人	-10.6687
騎摩托車去	-10.6687
dalredalrep	-10.6687
▁merarowa	-10.6687
▁poliho	-10.6687
▁rine	-10.6687
▁semizong	-10.6687
淚	-10.6687
齡	-10.6687
▁padingwa	-10.6687
2022	-10.6687
apelrilr	-10.6687
▁posabak	-10.6687
▁savelaw	-10.6687
占	-10.6687
tabu	-10.6687
▁pilralrangaw	-10.6687
kezet	-10.6687
挖掘	-10.6687
智慧	-10.6687
▁nileotran	-10.6687
一個小時	-10.6687
的外套	-10.6687
祈禱	-10.6687
▁kiyaomalr	-10.6687
▁niretra	-10.6687
環境	-10.6687
祈福	-10.6687
勇士	-10.6687
繼續	-10.6687
▁malrado	-10.6687
drikol	-10.6687
協助	-10.6687
捆綁	-10.6687
欣賞	-10.6688
知識	-10.6688
冰箱	-10.6688
音樂	-10.6688
困難	-10.6688
禱告	-10.6688
洗澡	-10.6688
歡喜	-10.6688
▁102	-10.6688
個小孩	-10.6688
用左手	-10.6688
紀念	-10.6688
經歷	-10.6688
小米粥	-10.6688
paetang	-10.6688
▁ngidralri	-10.6688
毛巾	-10.6688
我們去買	-10.6688
權利	-10.6688
告知	-10.6688
騎機車	-10.6688
toreanan	-10.6688
鮮美	-10.6688
澆水	-10.6688
曾經	-10.6688
領導	-10.6688
代替	-10.6688
獻祭	-10.6689
打雷	-10.6689
堵住	-10.6689
擔任	-10.6689
樹幹	-10.6689
交談	-10.6689
天氣很熱	-10.6689
▁vavina	-10.6689
▁magerareger	-10.6689
atrepelr	-10.6689
▁marenem	-10.6689
100	-10.6689
醃肉	-10.6689
綠色	-10.6689
▁ciē	-10.6689
編織	-10.6689
建立	-10.669
ribas	-10.669
吸引	-10.669
▁rokop	-10.669
放棄	-10.669
▁ngarayo	-10.6691
喜愛	-10.6691
同伴	-10.6691
流血	-10.6691
▁kainabay	-10.6691
▁nanzo	-10.6691
嚴重	-10.6691
▁inedang	-10.6691
telre	-10.6691
敵人	-10.6692
交換	-10.6692
alriwang	-10.6692
▁lapot	-10.6692
▁tawar	-10.6692
▁pakolimaya	-10.6692
▁koazo	-10.6692
▁lopas	-10.6692
涼快	-10.6693
打架	-10.6693
加油	-10.6693
跟他說	-10.6694
▁sodang	-10.6695
鋸子	-10.6695
▁那個人是誰	-10.6695
▁raman	-10.6695
balad	-10.6696
故意	-10.6696
▁peri	-10.6696
躲在	-10.6697
關於	-10.6697
收割	-10.6697
之間	-10.6698
▁padolo	-10.6699
獵刀	-10.67
分享給	-10.6701
▁pakababolay	-10.6701
ngesalr	-10.6701
分布	-10.6702
▁semeer	-10.6702
發燒	-10.6702
難得	-10.6703
▁porebo	-10.6704
lrepit	-10.6704
▁selo	-10.6705
▁venase	-10.6707
我的帽子	-10.6709
生火	-10.6709
pokoy	-10.6709
白天	-10.671
Ameng	-10.671
我明天要去	-10.671
engadr	-10.6712
田地	-10.6712
▁waditaw	-10.6714
▁kawikawiyan	-10.6715
gag	-10.6716
抓魚	-10.6716
▁maidap	-10.6717
要吃的	-10.6721
▁請把	-10.6724
kiyanger	-10.6724
課本	-10.6725
▁我們今天	-10.6727
並沒有	-10.6731
enem	-10.6731
obel	-10.6734
▁我不知道	-10.6734
▁kararowayan	-10.6738
你會被	-10.674
花園	-10.6741
要求	-10.6744
有時候	-10.6752
很像	-10.6759
▁palrowan	-10.6761
bilr	-10.6767
▁maatelr	-10.6772
▁deme	-10.6773
刷	-10.6794
kitral	-10.6846
selr	-10.6847
取名	-10.6877
▁我不喜歡	-10.6887
往北	-10.6898
▁bael	-10.7013
▁pere	-10.7048
全都	-10.7075
▁kabab	-10.7086
labat	-10.7097
atalram	-10.7111
itek	-10.7147
學校讀書	-10.7154
歌詞	-10.7186
都很喜歡	-10.7195
鐘睡覺	-10.7243
Uka	-10.7253
交給	-10.7269
dik	-10.7327
reve	-10.7337
一個妹妹	-10.7396
rosay	-10.7432
歌曲	-10.7477
▁poisatr	-10.7496
▁semasahar	-10.7577
▁vavay	-10.7578
勤勞	-10.7608
們昨天去	-10.7633
▁kakara	-10.7634
候	-10.7649
許	-10.7652
象	-10.7655
姐	-10.7656
鐘	-10.7657
天天看電視	-10.7658
紀	-10.7659
鼠	-10.7659
西	-10.7659
始	-10.766
釀	-10.7661
訪	-10.7661
趣	-10.7661
仍	-10.7662
藍	-10.7662
驅	-10.7662
容	-10.7662
消	-10.7662
淨	-10.7662
續	-10.7663
靜	-10.7663
袖	-10.7663
迷	-10.7663
妻	-10.7663
暖	-10.7663
戲	-10.7663
晉	-10.7663
繼	-10.7663
少年組	-10.7663
朗	-10.7663
避	-10.7663
攪	-10.7663
小米鹹粥	-10.7663
掩	-10.7663
砰	-10.7663
老闆說	-10.7663
患	-10.7663
橫	-10.7663
例	-10.7663
我來找你玩	-10.7663
災	-10.7663
穫	-10.7663
聖	-10.7663
聯	-10.7663
Drarungaw	-10.7663
你要買多少	-10.7663
搭捷運	-10.7663
演	-10.7663
箕	-10.7663
舖	-10.7663
Risem	-10.7663
少年年祭	-10.7663
打棒球	-10.7663
是做什麼	-10.7663
的屁股	-10.7663
Pariwan	-10.7663
arengatrip	-10.7663
betriil	-10.7663
emelresap	-10.7663
kiomaomalr	-10.7663
kirowaday	-10.7663
riyadraridr	-10.7663
veriyas	-10.7663
▁Moymoy	-10.7663
▁Pasiyalr	-10.7663
▁Sangpoy	-10.7663
▁angetrol	-10.7663
▁dalikedik	-10.7663
▁kagolowan	-10.7663
▁kiniyakaron	-10.7663
▁kiyatrebong	-10.7663
▁koretapelra	-10.7663
▁linongon	-10.7663
▁madradranga	-10.7663
▁marepaokaoka	-10.7663
▁minacay	-10.7663
▁modadangiya	-10.7663
▁molaesi	-10.7663
▁molaliyaban	-10.7663
▁morairaip	-10.7663
▁pasiesi	-10.7663
▁pasirep	-10.7663
▁pavilong	-10.7663
▁velrevelr	-10.7663
▁那些女孩子喜歡	-10.7663
挨	-10.7663
溪水很	-10.7663
穢	-10.7663
穿山甲	-10.7663
這麼說	-10.7663
黏	-10.7663
basibas	-10.7663
▁benabetra	-10.7663
▁dadawanan	-10.7663
▁lrobot	-10.7663
▁ngangalaw	-10.7663
▁powaterekokan	-10.7663
▁tinosasiyaw	-10.7663
佩	-10.7663
口簧琴	-10.7663
封	-10.7663
打瞌睡	-10.7663
摸	-10.7663
淹	-10.7663
營	-10.7663
票	-10.7663
齊	-10.7663
drimotr	-10.7663
▁onaonan	-10.7663
▁tilivi	-10.7663
乳	-10.7663
孔	-10.7663
把鐮刀	-10.7663
Ungdru	-10.7664
binariyaw	-10.7664
▁kenama	-10.7664
佑	-10.7664
們天天一起讀書	-10.7664
殼	-10.7664
獵場營區	-10.7664
研	-10.7664
x	-10.7664
▁tratrekelan	-10.7664
朝	-10.7664
石壓式陷阱	-10.7664
▁papilrang	-10.7664
▁pokapito	-10.7664
披	-10.7664
禮儀	-10.7664
豐盛的	-10.7664
taodrong	-10.7664
▁mangayangayaw	-10.7664
▁temariya	-10.7664
財	-10.7664
贈	-10.7664
培	-10.7664
Tugi	-10.7664
pacalan	-10.7664
萬	-10.7664
▁pinaladaman	-10.7664
童	-10.7664
▁polralrangay	-10.7664
▁manamanay	-10.7664
▁vanin	-10.7664
既	-10.7664
降	-10.7664
▁mabel	-10.7664
talraping	-10.7664
▁mokowatis	-10.7664
撒奇萊雅族	-10.7664
▁adrikaadri	-10.7664
▁kinaolepan	-10.7664
ateri	-10.7664
palakuwan	-10.7664
找不到	-10.7664
▁kapoloan	-10.7664
抱歉	-10.7664
販賣	-10.7664
▁kayakay	-10.7664
▁paragan	-10.7664
材質	-10.7664
成年禮	-10.7664
▁minedang	-10.7664
▁morepot	-10.7664
▁mialrak	-10.7664
商店	-10.7664
抽菸	-10.7664
▁moelak	-10.7664
飲料	-10.7664
持續	-10.7664
公司	-10.7664
▁maremay	-10.7664
inanowayan	-10.7664
感謝	-10.7664
清晨	-10.7664
開墾	-10.7664
領袖	-10.7664
▁saesa	-10.7664
▁lekep	-10.7664
▁temowantaw	-10.7664
Awi	-10.7665
▁motorik	-10.7665
課程	-10.7665
500	-10.7665
▁pinakapazangal	-10.7665
雞舍	-10.7665
龍眼	-10.7665
舉辦	-10.7665
未曾	-10.7665
小米收穫祭	-10.7665
湯匙	-10.7665
鹽巴	-10.7665
表示	-10.7665
停止	-10.7665
▁kiyanon	-10.7665
▁talrami	-10.7665
仍然	-10.7665
很有趣	-10.7665
▁koredikes	-10.7665
dapor	-10.7665
強壯	-10.7666
▁makapito	-10.7666
▁vaveray	-10.7666
管理	-10.7666
互相幫助	-10.7666
我忘了帶筆	-10.7666
分鐘	-10.7666
▁korenaowan	-10.7666
圍籬	-10.7666
給予	-10.7666
▁towami	-10.7666
講話	-10.7666
聚在一起	-10.7666
揹袋	-10.7666
▁pangodralr	-10.7667
▁matoka	-10.7667
▁sanon	-10.7667
▁pitepi	-10.7667
vangvang	-10.7667
排隊	-10.7667
九十	-10.7667
▁midap	-10.7668
▁keraviya	-10.7668
照片	-10.7668
Suwan	-10.7668
依然	-10.7668
aabel	-10.7668
安排	-10.7668
裝飾	-10.7668
河水	-10.7669
生產	-10.7669
▁tratraotrao	-10.7669
敬酒	-10.7669
我們要去打獵	-10.7669
慢走	-10.767
事宜	-10.767
那張椅子很	-10.767
五十	-10.7671
balrok	-10.7671
最好的	-10.7671
對象	-10.7672
▁piwari	-10.7673
非常高興	-10.7673
一點點	-10.7674
igelayan	-10.7674
隨意	-10.7674
▁apelr	-10.7675
處理	-10.7675
山豬肉	-10.7675
Iwan	-10.7676
山林	-10.7676
掃把	-10.7677
▁imolri	-10.7677
青年們	-10.7677
忘記帶	-10.768
很久沒有	-10.768
時刻	-10.7681
任意	-10.7681
再見	-10.7681
▁makalrang	-10.7681
巫師們	-10.7683
▁我們去看	-10.7683
▁pitowa	-10.7683
很硬	-10.7684
一個弟弟	-10.7687
▁kadrowadrowanan	-10.7687
手指	-10.7687
▁sasalem	-10.7689
這支	-10.7689
快點	-10.7689
▁owaborek	-10.7691
▁patari	-10.7693
穿衣服	-10.7694
kiyagelayan	-10.7695
▁pasalaw	-10.7695
小便	-10.7698
▁temoabay	-10.7699
大便	-10.77
不管	-10.7701
sioy	-10.7702
mitoros	-10.7705
▁maonan	-10.7705
▁mabak	-10.7706
renarenang	-10.7708
很短	-10.7712
是我自己	-10.7712
▁alako	-10.772
播種	-10.7722
▁arelr	-10.7725
▁paoka	-10.7727
很少	-10.7729
▁ngara	-10.773
vangsar	-10.7731
這是山豬	-10.7738
▁saotr	-10.7741
拜訪祖父	-10.7788
▁patawar	-10.78
inasi	-10.7802
捕獵	-10.7813
很辛苦	-10.7819
爸爸很高	-10.7826
聞到	-10.7828
們天天來這裡吃晚餐	-10.7831
kemay	-10.7847
kikay	-10.7888
itrol	-10.7893
各部落	-10.7967
▁line	-10.7984
▁balri	-10.8015
▁panaow	-10.8056
esep	-10.8108
媽媽買	-10.8133
dalilran	-10.8139
papowa	-10.814
我最喜歡	-10.8143
saigoigo	-10.8145
kepel	-10.8248
吃東西	-10.829
odar	-10.8475
北邊	-10.85
Ad	-10.8527
刷牙	-10.8616
ngol	-10.8685
lidring	-10.8714
鬧	-10.8726
volavolay	-10.8729
漢	-10.8733
的頭髮很長	-10.8734
▁saero	-10.8738
青	-10.8738
▁pakolima	-10.8739
哪個	-10.874
置	-10.874
鋤	-10.8741
春	-10.8741
聊	-10.8741
獲	-10.8741
巾	-10.8743
祈	-10.8743
增	-10.8743
歡	-10.8743
旁	-10.8743
炭	-10.8744
星	-10.8744
律	-10.8744
晨	-10.8745
歷	-10.8745
伯	-10.8745
王	-10.8745
質	-10.8745
巫	-10.8745
振	-10.8745
藝	-10.8745
鄰	-10.8745
斯	-10.8745
螺	-10.8745
賜	-10.8745
競	-10.8745
要買什麼	-10.8745
我有一個姊姊	-10.8745
右	-10.8745
席	-10.8745
恩	-10.8745
險	-10.8745
糯米粿	-10.8745
魂	-10.8745
Muymuy	-10.8745
▁那是香蕉	-10.8745
杓	-10.8745
汽	-10.8745
gororos	-10.8745
剁	-10.8745
太貴了	-10.8745
岩	-10.8745
灌	-10.8745
鳴	-10.8745
Muwakay	-10.8745
aremeremeng	-10.8745
marasagasagar	-10.8745
raripaan	-10.8745
trongotrongolran	-10.8745
voliyas	-10.8745
wagamot	-10.8745
▁Botrolr	-10.8745
▁Drarongaw	-10.8745
▁Katadepan	-10.8745
▁Katripolr	-10.8745
▁Poni	-10.8745
▁Sakizaya	-10.8745
▁Taihok	-10.8745
▁Yoēncomin	-10.8745
▁kadrekalran	-10.8745
▁karaoraob	-10.8745
▁kinamakitengan	-10.8745
▁kipatakesi	-10.8745
▁kiyanedangan	-10.8745
▁kodakodayaw	-10.8745
▁ladaladam	-10.8745
▁makanemen	-10.8745
▁malobis	-10.8745
▁malowadiyadi	-10.8745
▁melratodr	-10.8745
▁mengadir	-10.8745
▁ngidrangidrayan	-10.8745
▁palizing	-10.8745
▁palreteng	-10.8745
▁penatedrelr	-10.8745
▁pongalangalad	-10.8745
▁sinadaday	-10.8745
▁taramonag	-10.8745
六個人	-10.8745
劈	-10.8745
吃早餐	-10.8745
吠	-10.8745
旋	-10.8745
是警察	-10.8745
浮	-10.8745
測	-10.8745
湖	-10.8745
的衣服是白色的	-10.8745
絡	-10.8745
肯	-10.8745
貌	-10.8745
Balraybay	-10.8745
Papulu	-10.8745
▁Ungdro	-10.8745
▁bariyaw	-10.8745
▁daderowan	-10.8745
▁kinadalram	-10.8745
▁liwlran	-10.8745
▁pinamelriyan	-10.8745
▁sasodang	-10.8745
▁seeranay	-10.8745
▁takongkong	-10.8745
▁temedrer	-10.8745
▁tremepok	-10.8745
▁vasikaw	-10.8745
▁他們全家有	-10.8745
城	-10.8745
宗	-10.8745
末	-10.8745
沾	-10.8745
甲	-10.8745
lrongpaw	-10.8745
molaoz	-10.8745
siadeng	-10.8745
▁dinero	-10.8745
▁inopanayan	-10.8745
▁malealaw	-10.8745
▁nenema	-10.8745
▁padreli	-10.8745
▁sinasaleman	-10.8745
手提袋	-10.8745
是什麼東西	-10.8745
睜	-10.8745
籠	-10.8745
▁niniyam	-10.8745
似	-10.8745
我只是在	-10.8745
賴	-10.8745
Dumali	-10.8745
temateha	-10.8745
▁garemaremay	-10.8745
▁pikavang	-10.8745
▁今天天氣好	-10.8745
歸	-10.8745
烈	-10.8745
究	-10.8745
跳傳統舞	-10.8745
▁penitaw	-10.8745
▁wangce	-10.8745
窩	-10.8745
臨	-10.8745
藝術	-10.8745
《	-10.8745
戒	-10.8745
灑	-10.8745
耐	-10.8745
逐	-10.8745
郎	-10.8745
aperedr	-10.8745
Nuan	-10.8745
pakaetim	-10.8745
啄木鳥	-10.8745
垂	-10.8745
空心菜	-10.8745
貪	-10.8745
▁milanang	-10.8745
乎	-10.8745
》	-10.8745
考驗	-10.8745
▁mararisan	-10.8745
搜	-10.8745
誤	-10.8745
召集	-10.8745
▁kaniniyam	-10.8745
▁tinoayawan	-10.8745
ilregilr	-10.8746
隊伍	-10.8746
必須	-10.8746
長高了	-10.8746
kerevat	-10.8746
▁patrev	-10.8746
奇怪	-10.8746
▁我可以借你的	-10.8746
▁makawang	-10.8746
▁niwas	-10.8746
▁micepa	-10.8746
噶瑪蘭族	-10.8746
蒸斗	-10.8746
avotar	-10.8746
lralrimaw	-10.8746
▁palralritekan	-10.8746
▁makiwalray	-10.8746
臀部	-10.8746
遊戲	-10.8746
明顯	-10.8746
提供	-10.8746
payrang	-10.8746
挑選	-10.8746
▁morabak	-10.8746
▁tokenon	-10.8746
獨自	-10.8746
mailralra	-10.8746
▁merebay	-10.8746
迷失	-10.8746
夫妻	-10.8746
▁moymo	-10.8746
界線	-10.8746
禁止	-10.8746
少許	-10.8746
綠豆	-10.8747
超越	-10.8747
solrod	-10.8747
▁kerabi	-10.8747
深刻	-10.8747
撞擊	-10.8747
▁kipanadam	-10.8747
清掃	-10.8747
tintin	-10.8747
車站	-10.8747
黃色的	-10.8747
豬肉	-10.8747
taramaw	-10.8747
木炭	-10.8747
▁lratar	-10.8747
經文	-10.8747
祈雨祭	-10.8747
期待	-10.8748
大聲一點	-10.8748
每次	-10.8748
▁minkok	-10.8748
小小的	-10.8748
▁kemezeng	-10.8748
麵包	-10.8749
▁cemakaw	-10.8749
屬於	-10.8749
▁korlrang	-10.8749
▁pavolasay	-10.8749
▁wawai	-10.8749
uru	-10.8749
行程	-10.8749
▁raretra	-10.875
李子	-10.875
日本話	-10.875
▁pokapida	-10.875
共同	-10.875
深深	-10.875
▁miyalikodr	-10.875
公園	-10.875
約定	-10.875
其實	-10.8751
夜晚	-10.8751
南邊	-10.8751
▁naniwanan	-10.8751
▁trori	-10.8751
▁semasalem	-10.8751
清理	-10.8751
嫁給	-10.8752
生命	-10.8752
家庭	-10.8752
集中	-10.8752
平安	-10.8753
▁sasongalan	-10.8753
相信	-10.8753
▁parasan	-10.8753
隔天	-10.8753
avorok	-10.8753
▁menekon	-10.8753
曬太陽	-10.8753
▁temalram	-10.8754
物品	-10.8754
dradrolon	-10.8754
kolitr	-10.8754
裂開	-10.8755
同學們	-10.8755
lleo	-10.8756
要回去了	-10.8756
氣球	-10.8756
頭飾	-10.8757
部分	-10.8757
放鬆	-10.8758
▁tremaolr	-10.8758
她的頭髮很長	-10.8758
個性	-10.8759
yoēn	-10.8759
再一次	-10.876
再次	-10.8761
kowaceng	-10.8761
下次	-10.8762
樹根	-10.8762
▁adrono	-10.8763
▁trakaw	-10.8763
形成	-10.8764
才知道	-10.8764
解開	-10.8765
男性	-10.8765
魚湯	-10.8767
牛隻	-10.8767
傷心	-10.8768
kerotr	-10.877
▁你們的部落	-10.8771
▁senan	-10.8773
生日	-10.8775
avokolr	-10.8782
▁poenay	-10.8783
▁mavol	-10.8797
Alang	-10.8807
▁Taiya	-10.8808
喜歡秋天	-10.8837
tepi	-10.8844
ringitr	-10.8879
▁patoros	-10.8884
ainabanaba	-10.8956
riwak	-10.896
折斷	-10.8976
saeran	-10.8976
丟掉	-10.9012
壞掉	-10.905
podro	-10.9112
那個人的	-10.9159
iyabore	-10.9272
avalr	-10.9279
pic	-10.9282
年級	-10.9326
往西	-10.9401
▁iyop	-10.9472
▁demep	-10.9581
聲音	-10.9656
有別的	-10.9681
七十	-10.9695
rov	-10.9724
allop	-10.9747
我很想念	-10.9749
asilr	-10.9857
▁bangesar	-10.987
▁bekal	-10.9883
▁lrowatr	-10.9907
帶課本	-10.991
跌倒	-10.9918
▁kiyagela	-10.9925
居	-10.9927
髮	-10.9927
拆	-10.9934
botrel	-10.9936
擁	-10.9937
搭火車去臺東	-10.9948
河	-10.9948
▁你們家有幾個	-10.9949
參	-10.9954
pavolas	-10.9954
穩	-10.9956
享	-10.9956
謝	-10.9957
優	-10.9957
突	-10.9957
鞋	-10.9957
盡	-10.9957
範	-10.9957
供	-10.9958
▁kivanga	-10.9958
kolokolo	-10.9958
祝	-10.9958
斗	-10.9958
慶	-10.9958
晴	-10.9958
犯	-10.9958
敢	-10.9958
盒	-10.9958
愈	-10.9958
牲	-10.9958
息	-10.9958
陳	-10.9958
窗	-10.9959
造物者	-10.9959
恐	-10.9959
額	-10.9959
餘	-10.9959
▁你晚上幾點	-10.9959
悲	-10.9959
晒	-10.9959
縮	-10.9959
Bungu	-10.9959
▁Capang	-10.9959
外省人	-10.9959
燉	-10.9959
診	-10.9959
Giyagi	-10.9959
▁天氣有點	-10.9959
不要客氣	-10.9959
吃得飽	-10.9959
啟	-10.9959
惜	-10.9959
揹嬰帶	-10.9959
污垢	-10.9959
烹	-10.9959
焦	-10.9959
痕	-10.9959
萬壽菊	-10.9959
Angtedr	-10.9959
Arasip	-10.9959
Atēk	-10.9959
Bangalran	-10.9959
Lregan	-10.9959
Maydatar	-10.9959
Sahar	-10.9959
Senten	-10.9959
Yamamoto	-10.9959
gingaging	-10.9959
gingging	-10.9959
kadrekiyaw	-10.9959
kalladram	-10.9959
tengteng	-10.9959
zidēnsiya	-10.9959
▁Bongo	-10.9959
▁Kasabakan	-10.9959
▁Minoro	-10.9959
▁Molibelibek	-10.9959
▁Mowakay	-10.9959
▁Payrang	-10.9959
▁Taloko	-10.9959
▁Tokobis	-10.9959
▁demiros	-10.9959
▁dindin	-10.9959
▁emdaamaw	-10.9959
▁inosabakan	-10.9959
▁katatelo	-10.9959
▁kinaraasa	-10.9959
▁kitoloz	-10.9959
▁makalrowac	-10.9959
▁malladram	-10.9959
▁mikakowayanan	-10.9959
▁mikinisaharan	-10.9959
▁mikiyakaronan	-10.9959
▁mipalizing	-10.9959
▁miyatelo	-10.9959
▁moibaibat	-10.9959
▁mokedet	-10.9959
▁olringolr	-10.9959
▁paaisingan	-10.9959
▁parekadrowa	-10.9959
▁patrotro	-10.9959
▁salrangalrangan	-10.9959
▁trematrowalr	-10.9959
▁vetrinon	-10.9959
們知道祖母明天要來	-10.9959
句	-10.9959
和爸爸媽媽一起住	-10.9959
嗚	-10.9959
她的揹簍在	-10.9959
式繩索陷阱	-10.9959
彩虹出來了	-10.9959
捷運站	-10.9959
搗	-10.9959
痰	-10.9959
盈	-10.9959
真是太棒了	-10.9959
納	-10.9959
美麗的稻穗	-10.9959
蔭	-10.9959
襲	-10.9959
計程車	-10.9959
那天會下雨	-10.9959
都蘭山	-10.9959
麥	-10.9959
_	-10.9959
tarawiri	-10.9959
▁Tatiyam	-10.9959
▁amelli	-10.9959
▁kinasayhowan	-10.9959
▁makawalon	-10.9959
▁mowatralon	-10.9959
▁powalodos	-10.9959
▁siwsiwan	-10.9959
▁terokok	-10.9959
▁他有幾張	-10.9959
▁大約要	-10.9959
在運動場	-10.9959
慮	-10.9959
慶賀	-10.9959
溪水也很	-10.9959
漸漸	-10.9959
蚊	-10.9959
裁	-10.9959
請開門	-10.9959
趴	-10.9959
鑽	-10.9959
Patakiyu	-10.9959
sawail	-10.9959
▁dremimotr	-10.9959
▁kalalop	-10.9959
▁lrowaca	-10.9959
▁向北邊走會到	-10.9959
她常常戴帽子	-10.9959
扶	-10.9959
損	-10.9959
瞧	-10.9959
糞	-10.9959
複	-10.9959
飄	-10.9959
Urasang	-10.9959
drelretr	-10.9959
▁emoioy	-10.9959
▁naanadaman	-10.9959
▁今天是星期	-10.9959
▁天氣很冷	-10.9959
下賓朗	-10.9959
打噴嚏	-10.9959
擲	-10.9959
素	-10.9959
葬	-10.9959
▁kakasowan	-10.9959
▁kalralrope	-10.9959
▁papalrowan	-10.9959
▁往南邊走會到	-10.9959
嚥	-10.9959
小石子	-10.9959
弱	-10.9959
緩	-10.9959
陣	-10.9959
lobitr	-10.9959
pairairaw	-10.9959
▁pakelrep	-10.9959
Minuru	-10.9959
Salrevaw	-10.9959
▁melibona	-10.9959
▁pitaon	-10.9959
揍	-10.9959
稱之為	-10.9959
薩	-10.9959
託	-10.9959
karisis	-10.9959
保障	-10.9959
柄	-10.9959
治療	-10.9959
trerag	-10.9959
▁rengas	-10.9959
有意義	-10.9959
tenger	-10.9959
老師教我們	-10.9959
▁kiyakoraw	-10.9959
久沒來	-10.9959
催	-10.9959
Salreb	-10.9959
柴	-10.9959
▁我問他	-10.9959
我有二	-10.9959
供奉	-10.9959
▁Noan	-10.9959
▁Kacacipolr	-10.9959
▁pasasek	-10.9959
▁trebelr	-10.9959
搶奪	-10.9959
她的名字是	-10.9959
歡慶	-10.9959
尊敬	-10.9959
禮拜	-10.9959
ngaladan	-10.9959
▁matolas	-10.9959
▁pamili	-10.9959
▁sanadaman	-10.9959
▁sasangaan	-10.9959
▁mozaya	-10.9959
比特幣	-10.9959
致謝	-10.9959
▁kaninmo	-10.9959
▁modaya	-10.9959
婦女除草完工慶	-10.9959
餅乾	-10.9959
標準	-10.9959
rekameni	-10.9959
▁kalomayan	-10.9959
在吃芋頭	-10.9959
們全家人都	-10.9959
跟我說	-10.9959
幸福	-10.9959
要去翻土	-10.9959
你要買幾	-10.9959
鐘起床	-10.9959
▁mokolokolong	-10.9959
歡樂	-10.9959
▁papata	-10.9959
Sag	-10.9959
▁你今天從哪裡來	-10.9959
trekab	-10.9959
足夠	-10.9959
▁wakasayan	-10.9959
koravak	-10.996
lovok	-10.996
稀飯	-10.996
守候	-10.996
▁kakawangan	-10.996
年沒有回	-10.996
飛鼠	-10.996
▁naziyo	-10.996
對我說	-10.996
公車站	-10.996
思念	-10.996
肩袋	-10.996
耳環	-10.996
護士	-10.996
▁garam	-10.996
要請假	-10.996
立刻	-10.996
inokayan	-10.996
oninaninan	-10.996
▁颱風來了	-10.996
▁pananadam	-10.996
優美	-10.996
變化	-10.996
▁kaaodalr	-10.996
幾點鐘	-10.9961
執行	-10.9961
肚子餓	-10.9961
▁哪一個	-10.9961
跨過	-10.9961
蛇類	-10.9961
釀酒	-10.9961
年糕	-10.9961
▁malaok	-10.9961
▁aamiami	-10.9962
指導	-10.9962
amenin	-10.9962
▁dadaway	-10.9962
inokasayan	-10.9962
▁meriwak	-10.9962
折彎	-10.9962
▁atedranay	-10.9962
▁towap	-10.9963
教材	-10.9963
▁raromaroma	-10.9963
修理	-10.9963
我們要到田裡	-10.9963
▁mapiyapiya	-10.9963
▁inowayan	-10.9963
竹簍	-10.9963
薪水	-10.9964
線條	-10.9964
辦理	-10.9964
▁porema	-10.9964
等待	-10.9964
我可以跟你	-10.9964
▁mozazangiya	-10.9964
滿滿	-10.9964
讀過	-10.9964
▁barasarasa	-10.9964
▁Atrong	-10.9965
安全	-10.9965
輕輕	-10.9965
反而	-10.9965
emevang	-10.9965
▁barat	-10.9966
▁pokasayaw	-10.9966
trapelr	-10.9966
阿公	-10.9966
▁maradrok	-10.9966
背部	-10.9966
ebes	-10.9967
▁mareveliyas	-10.9967
各自	-10.9967
磨平	-10.9967
首先	-10.9967
盛裝	-10.9967
atringal	-10.9967
▁koretanay	-10.9967
禮物	-10.9968
兩隻	-10.997
▁tapesi	-10.997
白飯	-10.9971
自然	-10.9972
▁Sowan	-10.9972
congolr	-10.9975
eving	-10.9976
▁dremek	-10.998
kaadawilr	-10.9981
拆掉	-10.9983
是一個很	-10.9985
alretong	-10.9988
看顧	-10.9989
Angki	-10.999
trgotr	-10.9992
他的帽子在	-11.0004
們正要去學校玩耍	-11.0014
sapene	-11.0014
這是貓頭鷹	-11.0015
itril	-11.0019
lepon	-11.0028
ronironi	-11.0046
找尋	-11.0053
腳印	-11.0055
▁kasaerow	-11.0084
ningko	-11.0086
isaos	-11.014
yayar	-11.0152
trereb	-11.0171
▁meleel	-11.0208
kasakasa	-11.0435
trowalri	-11.045
elipas	-11.0459
renab	-11.0606
acar	-11.0684
最喜歡的	-11.0701
waarak	-11.079
asall	-11.0805
loom	-11.0841
▁molaod	-11.1088
唱的歌	-11.1117
▁mibowa	-11.1133
傘	-11.1215
▁trowalr	-11.1232
▁tariya	-11.1292
喪	-11.1303
areetr	-11.1309
zayazayar	-11.1315
溝	-11.1323
班	-11.1327
矮	-11.1327
社	-11.1328
▁你在哪	-11.1328
▁kirepanao	-11.1332
▁keravi	-11.1333
▁matengetenge	-11.1334
震	-11.1334
互	-11.1335
予	-11.1336
率	-11.1336
agerareger	-11.1337
司	-11.1337
室	-11.1338
收穫祭	-11.1338
界	-11.1338
petris	-11.1338
典	-11.1338
禱	-11.1339
尾	-11.1339
識	-11.1339
武	-11.1339
討	-11.1339
欣	-11.1339
觸	-11.1339
境	-11.1339
帳	-11.1339
包葉糕	-11.1339
藉	-11.1339
忍	-11.1339
冒	-11.1339
棍	-11.1339
輾	-11.1339
們打獵的武器	-11.1339
鋼琴	-11.1339
▁Kusiyang	-11.134
什麼時候要還	-11.134
坑	-11.134
夏天會很熱	-11.134
宴	-11.134
甕	-11.134
跟同學借	-11.134
銳	-11.134
Tukubis	-11.134
▁多吃點	-11.134
一間學校讀書	-11.134
平埔族	-11.134
循	-11.134
我也沒有帶	-11.134
智	-11.134
欠	-11.134
砂	-11.134
胞	-11.134
舂黏糕	-11.134
龍過脈	-11.134
katikezir	-11.134
parazok	-11.134
tatengedr	-11.134
tatengez	-11.134
▁korebabalri	-11.134
什麼樣子的	-11.134
省	-11.134
Ararasis	-11.134
Kelalraw	-11.134
Kulung	-11.134
arihirihi	-11.134
berber	-11.134
betreker	-11.134
emarapinoyomayan	-11.134
katikedir	-11.134
motrongotrongolr	-11.134
mowazangiya	-11.134
paaetreng	-11.134
poitrasaw	-11.134
salopiyang	-11.134
tarawalran	-11.134
timoremor	-11.134
valrovalror	-11.134
varivariw	-11.134
▁Kosiyang	-11.134
▁Votrolr	-11.134
▁Ziaodin	-11.134
▁baberay	-11.134
▁bodebodek	-11.134
▁daygak	-11.134
▁haramhaman	-11.134
▁kamamawan	-11.134
▁karasenasenay	-11.134
▁kasayasayayaw	-11.134
▁kasongalan	-11.134
▁kemirongetr	-11.134
▁kinasowaanan	-11.134
▁kinatalrimayan	-11.134
▁kiyomall	-11.134
▁madakedak	-11.134
▁maebot	-11.134
▁malabi	-11.134
▁maraarei	-11.134
▁marekatagowin	-11.134
▁marepakowakowa	-11.134
▁maresiyok	-11.134
▁matratrangis	-11.134
▁mobalibalis	-11.134
▁modadamok	-11.134
▁modradrangi	-11.134
▁molitrolitrong	-11.134
▁moramawan	-11.134
▁motenep	-11.134
▁motralatralaw	-11.134
▁nilimayan	-11.134
▁nirames	-11.134
▁pakopanaan	-11.134
▁paretelon	-11.134
▁piedreng	-11.134
▁repidan	-11.134
▁sizomayan	-11.134
▁taramonah	-11.134
▁temarakasavakan	-11.134
▁temarawalran	-11.134
▁tinakesian	-11.134
▁velelrowan	-11.134
咩	-11.134
天氣怎麼樣	-11.134
姿	-11.134
崩	-11.134
忘了戴帽子	-11.134
恨	-11.134
我早上六點	-11.134
所走的路	-11.134
明年冬天會很冷	-11.134
暈	-11.134
毛毛雨	-11.134
的陷阱在哪裡	-11.134
皺	-11.134
請給我一件藍色的衣服	-11.134
運動會那天	-11.134
還有空位	-11.134
鉤	-11.134
除小米草	-11.134
頌	-11.134
Pidur	-11.134
garotr	-11.134
sidrung	-11.134
▁halrem	-11.134
▁kemesis	-11.134
▁meresis	-11.134
▁towaabayan	-11.134
▁縫隙	-11.134
希望能	-11.134
是星期日	-11.134
殯	-11.134
汁	-11.134
爐灶	-11.134
篩	-11.134
糠	-11.134
舔	-11.134
認教父	-11.134
請給我一	-11.134
謙	-11.134
贏	-11.134
迷路了	-11.134
aresem	-11.134
▁Akonay	-11.134
▁apetro	-11.134
▁liveng	-11.134
▁pamatang	-11.134
▁semever	-11.134
▁vavalrayan	-11.134
伐	-11.134
劃	-11.134
授	-11.134
操	-11.134
爾	-11.134
的態度	-11.134
老師要帶我們去	-11.134
跑得快	-11.134
Atrung	-11.134
lingidan	-11.134
parabaitr	-11.134
rekakadaw	-11.134
▁kivolraw	-11.134
▁lavon	-11.134
▁nirodan	-11.134
▁vawtaw	-11.134
▁他們的簍子裝滿了	-11.134
▁海水是	-11.134
墊	-11.134
我在這邊	-11.134
我好想念你	-11.134
所吟唱的	-11.134
濾	-11.134
煎	-11.134
閹	-11.134
▁kirepakowa	-11.134
▁siwgo	-11.134
噴	-11.134
攪拌	-11.134
用右手	-11.134
還沒還我	-11.134
▁ragiyan	-11.134
在甘蔗園	-11.134
天亮了	-11.134
婿	-11.134
於民國	-11.134
▁kemakezeng	-11.134
▁melribak	-11.134
▁parepowan	-11.134
剩餘	-11.134
這些是學校	-11.134
Sangpuy	-11.134
咐	-11.134
沒辦法	-11.134
緣	-11.134
隱	-11.134
凡	-11.134
肥皂	-11.134
▁冰箱裡有	-11.134
偷偷的	-11.134
潮濕	-11.134
煞	-11.134
愈來愈	-11.134
蕃	-11.134
▁kairayan	-11.134
價值	-11.134
這是我種的	-11.134
▁maresaresan	-11.134
Umau	-11.134
pillang	-11.134
▁makasatr	-11.134
村莊	-11.134
▁semiyaw	-11.134
瓦	-11.134
rekez	-11.134
▁wakalr	-11.134
袍	-11.134
▁molitrong	-11.134
▁pinadangan	-11.134
勇敢	-11.134
娃	-11.134
細細的	-11.134
lingedr	-11.134
makabetraan	-11.134
翻譯	-11.134
aodall	-11.134
圖案	-11.134
幣	-11.134
Uking	-11.134
晴朗	-11.134
炎熱	-11.134
goho	-11.134
▁moravak	-11.134
cemel	-11.134
觸碰	-11.134
▁pacepa	-11.134
復振	-11.134
kameling	-11.134
pazekan	-11.134
tabololr	-11.134
▁marengai	-11.134
sababa	-11.134
saselrap	-11.134
稍微	-11.134
▁benare	-11.134
▁總共	-11.134
會說卑南語	-11.134
omodalr	-11.134
消滅	-11.134
的說法	-11.134
伯父	-11.134
▁kiyaanon	-11.134
▁vinavati	-11.134
勒住	-11.134
▁korekasa	-11.134
棉花	-11.134
▁pitpit	-11.134
參觀	-11.134
▁tikoy	-11.134
考試	-11.134
▁molaposa	-11.1341
計算	-11.1341
階段	-11.1341
的由來	-11.1341
▁miasma	-11.1341
▁互為	-11.1341
痠痛	-11.1341
踩踏	-11.1341
retrebong	-11.1341
的樣子	-11.1341
美好的	-11.1341
koliling	-11.1341
籐簍	-11.1341
範圍	-11.1341
▁maragan	-11.1341
▁那個女人有幾	-11.1341
我頭好痛	-11.1341
▁那個老人	-11.1341
依靠	-11.1341
▁siyasing	-11.1341
▁外面會很	-11.1341
你還好	-11.1341
爸爸和媽媽	-11.1341
▁kipaladam	-11.1341
乾旱	-11.1341
驅除	-11.1341
舅公	-11.1341
kapadangal	-11.1341
▁talrima	-11.1341
▁tremowak	-11.1342
▁ciyē	-11.1342
河流	-11.1342
臺北	-11.1342
部份	-11.1342
ngayangay	-11.1342
頂帽子	-11.1342
▁tero	-11.1342
敬告	-11.1342
冰冷	-11.1342
木臼	-11.1342
產業	-11.1342
射箭	-11.1342
的腳步	-11.1342
49	-11.1342
▁padok	-11.1342
穩重	-11.1342
逃跑	-11.1343
大大的	-11.1343
景點	-11.1343
▁motosinsi	-11.1343
建和語	-11.1343
借我筆	-11.1344
火車站	-11.1344
amanamanay	-11.1344
田野	-11.1347
▁nanni	-11.1347
sonong	-11.1348
▁ceme	-11.1348
▁paisingan	-11.1348
kaimaran	-11.1349
▁cemi	-11.1349
手錶	-11.135
wabaawan	-11.1355
從台北搭	-11.1356
llaod	-11.1358
在石頭上	-11.1361
izir	-11.1363
kiyaanger	-11.1366
我沒有弟弟	-11.137
的兒子	-11.1372
▁pasos	-11.1373
inkok	-11.138
rebotrelr	-11.1384
lrimos	-11.1385
tariyama	-11.139
lrigaw	-11.1393
▁patoro	-11.1405
▁tokodr	-11.1411
omoy	-11.1428
▁seket	-11.1513
tabi	-11.1563
posar	-11.1624
他有孩子	-11.1776
idraidr	-11.181
padradr	-11.191
是為了	-11.1934
masalra	-11.2191
pidaya	-11.2262
只剩	-11.2269
aanem	-11.2435
aemaeman	-11.2436
tratrowalr	-11.2441
angeot	-11.2519
atek	-11.2598
mobotr	-11.2648
korelrang	-11.2739
areked	-11.2743
malradram	-11.2758
尋	-11.2815
卑南	-11.2849
否	-11.2885
erop	-11.2888
rega	-11.2889
桌	-11.2916
kababolay	-11.2916
bolabolay	-11.2926
leken	-11.2927
鋸	-11.2928
那張椅子	-11.293
薪	-11.2935
▁mozazangi	-11.2936
冬	-11.2938
往東邊會到達	-11.2938
醫	-11.2939
題	-11.294
鮮	-11.294
統	-11.2941
透	-11.2941
束	-11.2941
偶	-11.2941
常去探望祖父	-11.2942
戶	-11.2942
協	-11.2942
值	-11.2942
抗	-11.2942
日本政府	-11.2942
廚	-11.2942
限	-11.2942
朋	-11.2942
奉	-11.2942
粿	-11.2942
休	-11.2942
肺	-11.2942
爆	-11.2942
閒	-11.2942
戈	-11.2942
Nawinaw	-11.2942
旦	-11.2942
悔	-11.2942
益	-11.2942
蟬	-11.2942
阿里擺	-11.2942
Daduway	-11.2942
准	-11.2942
我喝茶	-11.2942
波	-11.2942
減	-11.2942
Akunay	-11.2942
佈	-11.2942
我晚上十點	-11.2942
Hagi	-11.2942
拋	-11.2942
援	-11.2942
瀉	-11.2942
瞭解自己族群的文化	-11.2942
筆記本	-11.2942
腺	-11.2942
傻	-11.2942
叉	-11.2942
塔	-11.2942
我會怕蛇	-11.2942
沿著山	-11.2942
漆	-11.2942
虎頭蜂	-11.2942
besbes	-11.2942
dreedre	-11.2942
trevotrevong	-11.2942
▁你是怎麼學	-11.2942
尺	-11.2942
移到旁邊	-11.2942
1909	-11.2942
Bariyariyaw	-11.2942
Sawagu	-11.2942
Sekalo	-11.2942
Taata	-11.2942
Taniw	-11.2942
atrengalran	-11.2942
dēngwa	-11.2942
gelgel	-11.2942
gelragelr	-11.2942
inanavayan	-11.2942
kazowazowan	-11.2942
kinilrengawan	-11.2942
ngangese	-11.2942
ngisngis	-11.2942
sareedran	-11.2942
vangesar	-11.2942
▁Dadoway	-11.2942
▁Sawago	-11.2942
▁balratong	-11.2942
▁bineray	-11.2942
▁cemekel	-11.2942
▁dadokelan	-11.2942
▁demadaway	-11.2942
▁hemilrehilr	-11.2942
▁kamoraw	-11.2942
▁karamisasayan	-11.2942
▁keraravi	-11.2942
▁kiberay	-11.2942
▁kimatengedr	-11.2942
▁kimazayar	-11.2942
▁kinakowakowa	-11.2942
▁kingkinger	-11.2942
▁kinitralonan	-11.2942
▁kolraves	-11.2942
▁korepadrek	-11.2942
▁lrangdres	-11.2942
▁maagelr	-11.2942
▁mabinga	-11.2942
▁magonggong	-11.2942
▁marasahasahar	-11.2942
▁markamelrimelri	-11.2942
▁mokisatran	-11.2942
▁ngawngaway	-11.2942
▁nilipotr	-11.2942
▁pakalralradram	-11.2942
▁paparetran	-11.2942
▁patrongtrong	-11.2942
▁pongadangadan	-11.2942
▁powarikanan	-11.2942
▁sadrekalran	-11.2942
▁takomolr	-11.2942
▁tapongolran	-11.2942
▁tilitililran	-11.2942
▁trangkangkar	-11.2942
▁trematrakaw	-11.2942
▁tēgami	-11.2942
▁vencaceli	-11.2942
▁ventratreli	-11.2942
▁vetriliyan	-11.2942
▁voceliyan	-11.2942
▁waazokan	-11.2942
▁zemazenga	-11.2942
▁好久不見	-11.2942
▁我爸爸的名字是	-11.2942
下過雨	-11.2942
互相扶持	-11.2942
佔	-11.2942
兩隻老虎	-11.2942
去寄信	-11.2942
叢	-11.2942
噁	-11.2942
太遠的地方	-11.2942
奔	-11.2942
她也是卑南族人	-11.2942
寸	-11.2942
小紅陶珠	-11.2942
少年會的成員	-11.2942
扇	-11.2942
扣	-11.2942
昏	-11.2942
濁	-11.2942
爽	-11.2942
知道的不多	-11.2942
祝賀	-11.2942
試試看	-11.2942
跡	-11.2942
進行法事	-11.2942
鈍	-11.2942
雪	-11.2942
預	-11.2942
Langutr	-11.2942
bakebak	-11.2942
likedran	-11.2942
paresaresan	-11.2942
▁Saysiya	-11.2942
▁Sising	-11.2942
▁Viyaw	-11.2942
▁dadikos	-11.2942
▁ikaasatr	-11.2942
▁inovaawan	-11.2942
▁lemavat	-11.2942
▁marekamatrina	-11.2942
▁marekorabak	-11.2942
▁mokaitrasan	-11.2942
▁semaseker	-11.2942
▁temelriw	-11.2942
▁tinowaemo	-11.2942
岔	-11.2942
幫我們開門	-11.2942
旺	-11.2942
灼	-11.2942
甜甜的	-11.2942
疫	-11.2942
菇	-11.2942
那棵樹	-11.2942
boriawan	-11.2942
▁baretok	-11.2942
▁demadikes	-11.2942
▁kiseker	-11.2942
▁kēng	-11.2942
▁pabilong	-11.2942
▁pakesop	-11.2942
▁pananini	-11.2942
▁parekipiya	-11.2942
▁talrevaw	-11.2942
▁walowalowa	-11.2942
▁你早上幾點	-11.2942
▁向西邊走會到龍過脈	-11.2942
剷	-11.2942
宰	-11.2942
的項鍊	-11.2942
罐	-11.2942
英俊	-11.2942
貧	-11.2942
蹤	-11.2942
這件衣服	-11.2942
▁alietaw	-11.2942
▁kemerang	-11.2942
▁penapitaw	-11.2942
▁tawinaan	-11.2942
天上的雲	-11.2942
▁penowar	-11.2942
▁你什麼時候要還我	-11.2942
獸	-11.2942
的過程中	-11.2942
贅	-11.2942
Uteng	-11.2942
▁basolan	-11.2942
▁benilin	-11.2942
▁emasatr	-11.2942
▁kasadowan	-11.2942
▁kiyarais	-11.2942
▁pinotililran	-11.2942
▁trapolr	-11.2942
仿	-11.2942
吃晚飯	-11.2942
拐	-11.2942
榮	-11.2942
瘋	-11.2942
▁kinadrowan	-11.2942
▁ninaowan	-11.2942
▁temoiropan	-11.2942
▁vilinaw	-11.2942
我沒有帶傘	-11.2942
▁marokezang	-11.2942
▁sesaya	-11.2942
耀	-11.2942
謹慎	-11.2942
▁kinatengadrawan	-11.2942
▁marewadi	-11.2942
伸	-11.2942
勾	-11.2942
應該要用	-11.2942
獵到的獵物	-11.2942
略	-11.2942
遙	-11.2942
dremolon	-11.2942
▁dradrarok	-11.2942
獨角仙	-11.2942
dinikes	-11.2942
▁movorok	-11.2942
▁paatayan	-11.2942
健	-11.2942
boebo	-11.2942
semver	-11.2942
▁他看見了	-11.2942
快樂王子	-11.2942
技術	-11.2942
缺	-11.2942
體驗	-11.2942
▁kiniangeran	-11.2942
▁pilitr	-11.2942
▁binaaw	-11.2942
▁tinoeraw	-11.2942
iyagilid	-11.2942
▁Towaya	-11.2942
窄	-11.2942
▁iyatoro	-11.2942
Akawyan	-11.2942
▁kakesero	-11.2942
▁kimadrayar	-11.2942
▁pateka	-11.2942
sidrong	-11.2942
會洗臉	-11.2942
Tingkuy	-11.2942
▁iyavaaw	-11.2942
▁mokezeng	-11.2942
alreco	-11.2942
awacanan	-11.2942
▁kinapadrangalan	-11.2942
▁yobing	-11.2942
我有很多朋友	-11.2942
▁aramawa	-11.2942
▁nanalli	-11.2942
印象	-11.2942
目的地	-11.2942
醫治	-11.2942
▁mikiar	-11.2942
▁korotong	-11.2942
▁patemoy	-11.2942
敬拜	-11.2942
Angis	-11.2942
姐姐	-11.2942
▁matripo	-11.2942
▁kirpa	-11.2942
▁motoyawan	-11.2942
▁我餓了	-11.2942
聽不到	-11.2942
talrabiyaw	-11.2943
▁kikoraw	-11.2943
會製作套索陷阱	-11.2943
很早就	-11.2943
舅舅	-11.2943
lretrap	-11.2943
晉級	-11.2943
taktak	-11.2943
▁powazok	-11.2943
caron	-11.2943
▁talramay	-11.2943
dinki	-11.2943
設置	-11.2943
abelaw	-11.2943
salrsalr	-11.2943
▁gemaretim	-11.2943
▁pongaway	-11.2943
濕透	-11.2943
tratreelr	-11.2943
▁kappa	-11.2943
音樂課	-11.2943
▁kanowad	-11.2943
▁dokel	-11.2943
▁abaal	-11.2943
▁variyo	-11.2943
▁iyanabayan	-11.2943
Ungaw	-11.2943
我頭好	-11.2943
▁masangal	-11.2943
legetr	-11.2943
用跑的	-11.2943
遊客	-11.2944
我教你	-11.2944
媽媽叫我	-11.2944
Abi	-11.2944
▁poabo	-11.2944
Sayt	-11.2945
你先去	-11.2945
lingaling	-11.2945
所想的	-11.2945
miyanem	-11.2945
在牛車上	-11.2945
ekol	-11.2946
到達寶桑	-11.2946
▁trowak	-11.2946
撿到一	-11.2946
我正要	-11.2947
asaasalr	-11.2947
有養一隻	-11.2947
▁他們的朋友很	-11.2947
▁sopay	-11.2948
▁我的眼睛很	-11.2948
▁kakalrang	-11.2949
trinekel	-11.2949
買米酒	-11.2953
kinibolas	-11.2957
avatav	-11.2957
inelrangan	-11.2958
skos	-11.2958
Ugi	-11.2978
▁他沒有洗	-11.2979
ikaira	-11.2983
ilros	-11.3041
▁maretoro	-11.3077
trokol	-11.3146
akasayan	-11.3196
poisatraw	-11.3233
marek	-11.3469
我正在洗	-11.3476
aptap	-11.3486
rakad	-11.406
▁Tol	-11.4095
ilong	-11.4246
在台灣的東	-11.4316
leele	-11.4477
abet	-11.4625
pakainaba	-11.4643
saerowan	-11.4669
糕	-11.472
zenga	-11.4759
opid	-11.4782
ketrep	-11.4785
忘	-11.481
孫	-11.4824
sekadr	-11.4826
錶	-11.4836
lrawalrawa	-11.4837
kapida	-11.4843
邀	-11.4845
注	-11.4847
秋	-11.4847
跨	-11.4847
幹	-11.4848
堵	-11.4848
舍	-11.4849
痠	-11.4849
稀	-11.485
迎	-11.485
怪	-11.485
獨	-11.485
筒	-11.485
顯	-11.485
困	-11.485
臀	-11.485
辛	-11.4851
川	-11.4851
Sekalu	-11.4851
召	-11.4851
擇	-11.4851
延	-11.4851
珠	-11.4851
vaavaaw	-11.4851
▁老鷹去問	-11.4851
原住民身分	-11.4851
嶺	-11.4851
維	-11.4851
邪	-11.4851
徵	-11.4851
栽	-11.4851
登	-11.4851
1984	-11.4851
▁我們每天都	-11.4851
兵	-11.4851
唷	-11.4851
喜歡用左手的人	-11.4851
威	-11.4851
崇	-11.4851
我們帶回部落	-11.4851
搞錯了	-11.4851
猛	-11.4851
辦公室	-11.4851
霧	-11.4851
厭	-11.4851
在操場	-11.4851
慎	-11.4851
▁等我一下	-11.4851
地上打滾	-11.4851
徑	-11.4851
德	-11.4851
撬	-11.4851
腹	-11.4851
▁抵達	-11.4851
櫥	-11.4851
的營養午餐	-11.4851
Vituen	-11.4851
kolriyaves	-11.4851
raresiyok	-11.4851
▁這句話	-11.4851
▁鉛筆一枝	-11.4851
倆	-11.4851
備用鑰匙	-11.4851
家家戶戶	-11.4851
帥	-11.4851
年陸森寶先生	-11.4851
悠	-11.4851
慌	-11.4851
我們有很多獵物收	-11.4851
搭高鐵去高雄	-11.4851
曝	-11.4851
松	-11.4851
漿	-11.4851
相距不遠	-11.4851
眨	-11.4851
瞞	-11.4851
碾	-11.4851
舉行海祭	-11.4851
這份工作	-11.4851
長竹矛	-11.4851
Tuwaya	-11.4851
angesisan	-11.4851
balakenitr	-11.4851
hinghing	-11.4851
katopaydiyan	-11.4851
kipetedr	-11.4851
ledrledr	-11.4851
patakakesian	-11.4851
raperap	-11.4851
relrarelrang	-11.4851
sangedralr	-11.4851
sasoleva	-11.4851
trangitrangis	-11.4851
trektrek	-11.4851
vatokon	-11.4851
venasivas	-11.4851
▁Atayal	-11.4851
▁Kalēngko	-11.4851
▁Katadrepan	-11.4851
▁Molivelivek	-11.4851
▁Ngayngay	-11.4851
▁Pasetaay	-11.4851
▁Taipei	-11.4851
▁Tingkoy	-11.4851
▁Ulibelibek	-11.4851
▁adallep	-11.4851
▁alabalabat	-11.4851
▁angeliw	-11.4851
▁asepasepan	-11.4851
▁balretrebetr	-11.4851
▁batriyolr	-11.4851
▁benakbak	-11.4851
▁betratrekeran	-11.4851
▁betrelan	-11.4851
▁binasean	-11.4851
▁dariwaewaan	-11.4851
▁derderan	-11.4851
▁dinadaway	-11.4851
▁gerger	-11.4851
▁inowavaawan	-11.4851
▁ipaated	-11.4851
▁isaisatr	-11.4851
▁kaegongan	-11.4851
▁kaidaidan	-11.4851
▁kalalaokan	-11.4851
▁kalralradraman	-11.4851
▁kamenaowan	-11.4851
▁kararetid	-11.4851
▁kemedeng	-11.4851
▁kimadayar	-11.4851
▁kinazalram	-11.4851
▁kinorenangan	-11.4851
▁kinowarelrangan	-11.4851
▁kipakasagar	-11.4851
▁kiyaberay	-11.4851
▁kiyakarokaron	-11.4851
▁kiyalrengaw	-11.4851
▁kolisepa	-11.4851
▁lippoiing	-11.4851
▁mabengbeng	-11.4851
▁maidraodr	-11.4851
▁malikakasaw	-11.4851
▁marekatelo	-11.4851
▁marekigelagela	-11.4851
▁marotorotong	-11.4851
▁matokotokodr	-11.4851
▁mengangara	-11.4851
▁miaalrak	-11.4851
▁mitinalraman	-11.4851
▁moisaisatr	-11.4851
▁molapias	-11.4851
▁moliyoliyos	-11.4851
▁ngalangalad	-11.4851
▁pakitovangsar	-11.4851
▁palretrolretrok	-11.4851
▁pangangasip	-11.4851
▁pariyasalr	-11.4851
▁patezelr	-11.4851
▁patreetre	-11.4851
▁pavavekas	-11.4851
▁pinidradrekan	-11.4851
▁pinikatringan	-11.4851
▁pinisapsapan	-11.4851
▁pinitrangaran	-11.4851
▁podrangiyan	-11.4851
▁polalodos	-11.4851
▁ponosar	-11.4851
▁rarenadran	-11.4851
▁rivasaw	-11.4851
▁semenasenay	-11.4851
▁solrasolray	-11.4851
▁sonciyo	-11.4851
▁sowaksok	-11.4851
咳	-11.4851
哄	-11.4851
唇	-11.4851
志	-11.4851
怨	-11.4851
恰	-11.4851
摳	-11.4851
溼	-11.4851
疤	-11.4851
疹	-11.4851
秤	-11.4851
糧	-11.4851
聘	-11.4851
胎	-11.4851
蹲	-11.4851
鋼	-11.4851
鍬	-11.4851
鎮	-11.4851
é	-11.4851
寂	-11.4851
拗	-11.4851
眉	-11.4851
襯	-11.4851
Z	-11.4851
毀	-11.4851
薯	-11.4851
誦	-11.4851
銷	-11.4851
沿	-11.4851
昌	-11.4851
桿	-11.4851
茄	-11.4851
崖	-11.4851
歪	-11.4851
鍊	-11.4851
恥	-11.4851
劇	-11.4851
巢	-11.4851
敗	-11.4851
盼	-11.4851
脊	-11.4851
裕	-11.4851
暢	-11.4851
漲	-11.4851
雀	-11.4851
緻	-11.4851
款	-11.4851
效	-11.4851
痣	-11.4851
蕨	-11.4851
揮	-11.4851
墓	-11.4852
齒	-11.6912
躲	-11.7184
兔	-11.7199
橘	-11.7199
敵	-11.72
免	-11.7206
雷	-11.7209
陽	-11.7209
餅	-11.7211
漂	-11.7212
舒	-11.7212
歉	-11.7212
簡	-11.7212
費	-11.7212
態	-11.7212
啥	-11.7212
鈔	-11.7212
銀	-11.7212
拌	-11.7212
駕	-11.7212
偏	-11.7212
投	-11.7212
克	-11.7212
史	-11.7212
游	-11.7212
租	-11.7212
覽	-11.7212
謹	-11.7212
滋	-11.7212
漱	-11.7212
繳	-11.7212
扒	-11.7212
霉	-11.7212
徒	-11.7212
穗	-11.7212
窮	-11.7212
纖	-11.7212
莖	-11.7212
蔽	-11.7212
逼	-11.7212
均	-11.7212
屑	-11.7212
跪	-11.7212
潛	-11.7212
繃	-11.7212
丘	-11.7212
哀	-11.7212
壽	-11.7212
寒	-11.7212
拳	-11.7212
掐	-11.7212
摑	-11.7212
柑	-11.7212
梗	-11.7212
泛	-11.7212
湊	-11.7212
澤	-11.7212
燻	-11.7212
犬	-11.7212
畦	-11.7212
矛	-11.7212
膿	-11.7212
莓	-11.7212
莧	-11.7212
虧	-11.7212
蚱	-11.7212
蜢	-11.7212
蝨	-11.7212
詩	-11.7212
誇	-11.7212
誼	-11.7212
貢	-11.7212
閱	-11.7212
魄	-11.7212
乖	-11.7212
櫃	-11.7212
鬍	-11.7212
懲	-11.7212
摻	-11.7212
歧	-11.7212
竟	-11.7212
際	-11.7212
篷	-11.7212
乏	-11.7212
怠	-11.7212
稗	-11.7212
霜	-11.7212
榕	-11.7212
盆	-11.7212
狂	-11.7212
粘	-11.7212
脾	-11.7212
趁	-11.7212
懸	-11.7212
昔	-11.7212
私	-11.7212
吊	-11.7212
涵	-11.7212
〇	-11.7212
勸	-11.7212
喘	-11.7212
鏽	-11.7212
勘	-11.7213
剩	-12.0235
颱	-12.0238
李	-12.0294
芋	-12.0303
尊	-12.0304
拜	-12.0305
育	-12.0305
餚	-12.0306
粥	-12.0306
麗	-12.0306
覆	-12.0306
捆	-12.0307
販	-12.0307
築	-12.0307
慣	-12.0307
術	-12.0307
奪	-12.0307
判	-12.0307
勇	-12.0307
爸	-12.0307
亞	-12.0307
囑	-12.0307
漸	-12.0307
儲	-12.0307
嗨	-12.0307
浸	-12.0307
糾	-12.0307
魔	-12.0307
樸	-12.0307
氛	-12.0307
淒	-12.0307
舟	-12.0307
蠻	-12.0307
違	-12.0307
華	-12.0307
俯	-12.0307
嘻	-12.0307
姓	-12.0307
檳	-12.0307
灶	-12.0307
爐	-12.0307
純	-12.0307
脆	-12.0307
荒	-12.0307
鐡	-12.0307
樟	-12.0308
井	-12.0308
凸	-12.0308
孵	-12.0308
尚	-12.0308
翔	-12.0308
街	-12.0308
鬥	-12.0308
仗	-12.0308
侶	-12.0308
倦	-12.0308
勁	-12.0308
呵	-12.0308
咀	-12.0308
囊	-12.0308
塌	-12.0308
峻	-12.0308
巒	-12.0308
庇	-12.0308
役	-12.0308
戀	-12.0308
戮	-12.0308
挺	-12.0308
捨	-12.0308
掏	-12.0308
搧	-12.0308
敷	-12.0308
旨	-12.0308
暫	-12.0308
梔	-12.0308
械	-12.0308
椎	-12.0308
汲	-12.0308
添	-12.0308
渣	-12.0308
湃	-12.0308
潤	-12.0308
激	-12.0308
燥	-12.0308
瑣	-12.0308
畜	-12.0308
畝	-12.0308
碴	-12.0308
禍	-12.0308
糊	-12.0308
綿	-12.0308
聾	-12.0308
腔	-12.0308
艱	-12.0308
菊	-12.0308
謾	-12.0308
豹	-12.0308
賢	-12.0308
購	-12.0308
贛	-12.0308
赤	-12.0308
踹	-12.0308
迴	-12.0308
郊	-12.0308
銅	-12.0308
雌	-12.0308
餌	-12.0308
鬚	-12.0308
鰓	-12.0308
鵝	-12.0308
哈	-12.0308
矇	-12.0308
腋	-12.0308
莿	-12.0308
辨	-12.0308
俱	-12.0308
划	-12.0308
壺	-12.0308
拂	-12.0308
株	-12.0308
澎	-12.0308
疑	-12.0308
覓	-12.0308
誕	-12.0308
酬	-12.0308
潔	-12.0308
焚	-12.0308
訝	-12.0308
遐	-12.0308
癒	-12.0308
咒	-12.0308
擬	-12.0308
擴	-12.0308
秀	-12.0308
蝕	-12.0308
貨	-12.0308
悟	-12.0308
遲	-12.4558
宜	-12.4772
缸	-12.4794
帽	-12.4794
棉	-12.4798
澆	-12.4801
墾	-12.4804
搥	-12.4804
勒	-12.4804
澡	-12.4805
憐	-12.4805
顏	-12.4806
己	-12.4806
勝	-12.4806
譯	-12.4807
抵	-12.4807
案	-12.4807
珍	-12.4807
卑	-12.4807
伍	-12.4807
兆	-12.4807
恆	-12.4807
慘	-12.4807
莊	-12.4807
皂	-12.4807
蛙	-12.4807
侍	-12.4807
儘	-12.4807
妥	-12.4807
控	-12.4807
摯	-12.4807
撰	-12.4807
擅	-12.4807
欸	-12.4807
罕	-12.4807
脚	-12.4807
儡	-12.4807
姦	-12.4807
炫	-12.4807
痢	-12.4807
荊	-12.4807
須	-12.4807
咦	-12.4808
弔	-12.4808
撲	-12.4808
焙	-12.4808
煉	-12.4808
畎	-12.4808
芳	-12.4808
蒜	-12.4808
跤	-12.4808
鞘	-12.4808
斟	-12.4808
浴	-12.4808
轎	-12.4808
巨	-12.4808
f	-12.4808
仇	-12.4808
倍	-12.4808
倪	-12.4808
傀	-12.4808
刑	-12.4808
勻	-12.4808
勿	-12.4808
匹	-12.4808
吁	-12.4808
吉	-12.4808
唉	-12.4808
嘗	-12.4808
堤	-12.4808
嫌	-12.4808
幽	-12.4808
廟	-12.4808
恭	-12.4808
慈	-12.4808
慟	-12.4808
晶	-12.4808
暱	-12.4808
曉	-12.4808
柵	-12.4808
梁	-12.4808
棟	-12.4808
榻	-12.4808
液	-12.4808
湧	-12.4808
滔	-12.4808
瘜	-12.4808
礙	-12.4808
簿	-12.4808
糟	-12.4808
縱	-12.4808
菁	-12.4808
蕊	-12.4808
衷	-12.4808
褢	-12.4808
訊	-12.4808
詛	-12.4808
誌	-12.4808
誘	-12.4808
賊	-12.4808
軌	-12.4808
迢	-12.4808
遞	-12.4808
邈	-12.4808
陡	-12.4808
零	-12.4808
頁	-12.4808
飪	-12.4808
鰭	-12.4808
鷄	-12.4808
坦	-12.4808
潰	-12.4808
濛	-12.4808
祂	-12.4808
垢	-12.4808
拖	-12.4808
楓	-12.4808
淡	-12.4808
溜	-12.4808
犛	-12.4808
仟	-12.4808
凌	-12.4808
憎	-12.4808
杉	-12.4808
欲	-12.4808
濫	-12.4808
疏	-12.4808
胛	-12.4808
艾	-12.4808
閨	-12.4808
鳩	-12.4808
龐	-12.4808
聳	-12.4808
炸	-12.4808
逾	-12.4808
嬉	-12.4808
忽	-12.4808
暴	-12.4808
皎	-12.4808
眷	-12.4808
秩	-12.4808
航	-12.4808
芙	-12.4808
茫	-12.4808
誡	-12.4808
蹺	-12.4808
緬	-12.4808
療	-12.4808
挪	-12.4808
宵	-12.4808
〈	-12.4808
〉	-12.4808
謠	-12.9514
鼾	-13.2526
默	-13.2527
麓	-13.2528
鰥	-13.2529
髓	-13.253
驪	-13.2531
飆	-13.2532
頗	-13.2533
隆	-13.2534
闡	-13.2535
鑿	-13.2536
鐲	-13.2537
鍵	-13.2538
鈕	-13.2539
醜	-13.254
酥	-13.2541
邁	-13.2542
輔	-13.2543
踐	-13.2544
貿	-13.2545
貝	-13.2546
豉	-13.2547
誣	-13.2548
衰	-13.2549
融	-13.255
蜇	-13.2551
蛔	-13.2552
虱	-13.2553
蓬	-13.2554
蓄	-13.2555
蒂	-13.2556
葫	-13.2557
葚	-13.2558
萎	-13.2559
荷	-13.256
苞	-13.2561
苖	-13.2562
膊	-13.2563
胱	-13.2564
肢	-13.2565
肛	-13.2566
羸	-13.2567
緝	-13.2568
粽	-13.2569
簾	-13.257
篦	-13.2571
篤	-13.2572
笛	-13.2573
穌	-13.2574
禿	-13.2575
磚	-13.2576
睫	-13.2577
睏	-13.2578
着	-13.2579
監	-13.258
癮	-13.2581
瘩	-13.2582
痘	-13.2583
疙	-13.2584
甦	-13.2585
猶	-13.2586
狐	-13.2587
爪	-13.2588
燦	-13.2589
燕	-13.259
澱	-13.2591
渦	-13.2592
淘	-13.2593
涸	-13.2594
涎	-13.2595
沫	-13.2596
沛	-13.2597
沃	-13.2598
殷	-13.2599
殃	-13.26
曦	-13.2601
暇	-13.2602
晦	-13.2603
昭	-13.2604
旗	-13.2605
斂	-13.2606
撼	-13.2607
挽	-13.2608
懈	-13.2609
憋	-13.261
惱	-13.2611
忠	-13.2612
徘	-13.2613
徊	-13.2614
屏	-13.2615
屍	-13.2616
媾	-13.2617
媒	-13.2618
壤	-13.2619
壇	-13.262
埂	-13.2621
坍	-13.2622
囚	-13.2623
嗯	-13.2624
嗝	-13.2625
嗇	-13.2626
啼	-13.2627
唬	-13.2628
咸	-13.2629
咏	-13.263
呂	-13.2631
吝	-13.2632
匯	-13.2633
匆	-13.2634
刃	-13.2635
函	-13.2636
値	-13.2637
促	-13.2638
麴	-13.2639
鶖	-13.264
鴿	-13.2641
鱗	-13.2642
驟	-13.2643
餞	-13.2644
霖	-13.2645
闢	-13.2646
鍾	-13.2647
酪	-13.2648
遛	-13.2649
輯	-13.265
踮	-13.2651
趨	-13.2652
蝗	-13.2653
蝌	-13.2654
蛭	-13.2655
蚪	-13.2656
藷	-13.2657
蕭	-13.2658
葦	-13.2659
肘	-13.266
肋	-13.2661
綽	-13.2662
糙	-13.2663
笠	-13.2664
稚	-13.2665
礎	-13.2666
瞳	-13.2667
痱	-13.2668
瑟	-13.2669
犧	-13.267
熬	-13.2671
瀰	-13.2672
漾	-13.2673
淇	-13.2674
泊	-13.2675
沸	-13.2676
汙	-13.2677
欖	-13.2678
梭	-13.2679
拒	-13.268
懼	-13.2681
惶	-13.2682
恢	-13.2683
弧	-13.2684
屈	-13.2685
尼	-13.2686
妄	-13.2687
奈	-13.2688
嗽	-13.2689
喂	-13.269
唾	-13.2691
哨	-13.2692
卵	-13.2693
冀	-13.2694
儕	-13.2695
偽	-13.2696
倫	-13.2697
併	-13.2698
仁	-13.2699
鴉	-13.27
醬	-13.2701
逞	-13.2702
逛	-13.2703
逗	-13.2704
迅	-13.2705
贊	-13.2706
褔	-13.2707
蔬	-13.2708
葵	-13.2709
莉	-13.271
茂	-13.2711
腎	-13.2712
聆	-13.2713
翌	-13.2714
緯	-13.2715
紮	-13.2716
窪	-13.2717
矢	-13.2718
瞪	-13.2719
疲	-13.272
狠	-13.2721
澈	-13.2722
漏	-13.2723
溉	-13.2724
湛	-13.2725
涕	-13.2726
檜	-13.2727
框	-13.2728
杖	-13.2729
朽	-13.273
曆	-13.2731
暸	-13.2732
敘	-13.2733
搔	-13.2734
括	-13.2735
懇	-13.2736
憾	-13.2737
愧	-13.2738
怡	-13.2739
怖	-13.274
彆	-13.2741
干	-13.2742
峽	-13.2743
寞	-13.2744
宋	-13.2745
妒	-13.2746
塵	-13.2747
嘍	-13.2748
喻	-13.2749
啪	-13.275
啡	-13.2751
唔	-13.2752
哺	-13.2753
咻	-13.2754
咖	-13.2755
叩	-13.2756
庭	-13.2757
卜	-13.2757
仲	-13.2758
鷺	-13.2759
鷥	-13.276
餡	-13.2761
閂	-13.2762
酗	-13.2763
賠	-13.2764
謊	-13.2765
蜈	-13.2766
蚯	-13.2767
蚣	-13.2768
蚓	-13.2769
蚌	-13.277
蕗	-13.2771
蕎	-13.2772
芎	-13.2773
脂	-13.2774
翅	-13.2775
繪	-13.2776
綑	-13.2777
篇	-13.2778
策	-13.2779
碩	-13.278
瞎	-13.2781
猜	-13.2782
炮	-13.2783
漫	-13.2784
渾	-13.2785
殊	-13.2786
櫻	-13.2787
楊	-13.2788
椰	-13.2789
桐	-13.279
斧	-13.2791
掀	-13.2792
捻	-13.2793
帝	-13.2794
孝	-13.2795
售	-13.2796
兼	-13.2797
償	-13.2798
饋	-13.2799
顆	-13.28
鏟	-13.2801
邏	-13.2802
迫	-13.2803
軛	-13.2804
詢	-13.2805
詐	-13.2806
襪	-13.2807
蜘	-13.2808
蛛	-13.2809
蚤	-13.281
蘆	-13.2811
舀	-13.2812
膏	-13.2813
腥	-13.2814
羨	-13.2815
科	-13.2816
碑	-13.2817
瞄	-13.2818
皇	-13.2819
畏	-13.282
璃	-13.2821
琉	-13.2822
滷	-13.2823
泣	-13.2824
柚	-13.2825
擰	-13.2826
悅	-13.2827
孕	-13.2828
坪	-13.2829
啞	-13.283
唯	-13.2831
咕	-13.2832
吩	-13.2833
危	-13.2834
凳	-13.2835
j	-13.2836
O	-13.2837
飢	-13.2838
鎚	-13.2839
諸	-13.284
裹	-13.2841
葡	-13.2842
萄	-13.2843
肝	-13.2844
罪	-13.2845
紫	-13.2846
箏	-13.2847
磬	-13.2848
眺	-13.2849
瓢	-13.285
濟	-13.2851
漬	-13.2852
拭	-13.2853
拇	-13.2854
憶	-13.2855
徙	-13.2856
廠	-13.2857
廊	-13.2858
妝	-13.2859
嘔	-13.286
哎	-13.2861
雉	-13.2862
輛	-13.2863
諱	-13.2864
衍	-13.2865
蝠	-13.2866
蝙	-13.2867
薦	-13.2868
蔓	-13.2869
芭	-13.287
膛	-13.2871
肅	-13.2872
符	-13.2873
睪	-13.2874
疾	-13.2875
牌	-13.2876
瀑	-13.2877
概	-13.2878
柬	-13.2879
枕	-13.288
寨	-13.2881
嚨	-13.2882
嚏	-13.2883
喉	-13.2884
俄	-13.2885
伏	-13.2886
\	-13.2887
頑	-13.2888
鞠	-13.2889
鄒	-13.289
躬	-13.2891
豎	-13.2892
蟑	-13.2893
蟋	-13.2894
蟀	-13.2895
螂	-13.2896
舌	-13.2897
聰	-13.2898
羅	-13.2899
籍	-13.29
簷	-13.2901
筷	-13.2902
碼	-13.2903
碌	-13.2904
燃	-13.2905
灘	-13.2906
柔	-13.2907
擾	-13.2908
愉	-13.2909
序	-13.291
尤	-13.2911
奏	-13.2912
央	-13.2913
垃	-13.2914
圾	-13.2915
噶	-13.2916
噎	-13.2917
呈	-13.2918
駛	-13.2919
釦	-13.292
躍	-13.2921
蠅	-13.2922
蛀	-13.2923
臂	-13.2924
膠	-13.2925
糬	-13.2926
簧	-13.2927
瞌	-13.2928
盾	-13.2929
攻	-13.293
夥	-13.2931
邵	-13.2932
蘿	-13.2933
蔔	-13.2934
烘	-13.2935
涉	-13.2936
楚	-13.2937
柿	-13.2938
攝	-13.2939
攀	-13.294
拾	-13.2941
域	-13.2942
嚀	-13.2943
嘲	-13.2944
叮	-13.2945
卸	-13.2946
丸	-13.2947
騰	-13.2948
閣	-13.2949
蝸	-13.295
筌	-13.2951
盜	-13.2952
畚	-13.2953
熄	-13.2954
漁	-13.2955
泉	-13.2956
況	-13.2957
檢	-13.2958
桑	-13.2959
暑	-13.296
慕	-13.2961
廳	-13.2962
委	-13.2963
咱	-13.2964
馨	-13.2965
鞭	-13.2966
脈	-13.2967
犄	-13.2968
構	-13.2969
枯	-13.297
塑	-13.2971
啄	-13.2972
凝	-13.2973
阻	-13.2974
蹈	-13.2975
蘋	-13.2976
萊	-13.2977
纍	-13.2978
氏	-13.2979
抹	-13.298
戚	-13.2981
彼	-13.2982
嫂	-13.2983
塘	-13.2984
伙	-13.2985
飼	-13.2986
鑰	-13.2987
郵	-13.2988
跛	-13.2989
賺	-13.299
賓	-13.2991
畢	-13.2992
嬤	-13.2993
勵	-13.2994
膀	-13.2995
脖	-13.2996
屎	-13.2997
媳	-13.2998
姻	-13.2999
埔	-13.3
勉	-13.3001
充	-13.3002
鴨	-13.3003
韆	-13.3004
鞦	-13.3005
螞	-13.3006
膚	-13.3007
梅	-13.3008
兜	-13.3009
丈	-13.301
瞭	-13.3011
榴	-13.3012
驕	-13.3013
閃	-13.3014
蟻	-13.3015
薑	-13.3016
筍	-13.3017
普	-13.3018
扭	-13.3019
厲	-13.302
傍	-13.3021
蜻	-13.3022
蜜	-13.3023
蜓	-13.3024
茅	-13.3025
苧	-13.3026
笆	-13.3027
竿	-13.3028
欺	-13.3029
閩	-13.303
蝶	-13.3031
蝴	-13.3032
耆	-13.3033
羌	-13.3034
殖	-13.3035
途	-13.3036
胡	-13.3037
洪	-13.3038
慰	-13.3039
嬸	-13.304
堅	-13.3041
螃	-13.3042
敞	-13.3043
惰	-13.3044
距	-13.3045
資	-13.3046
衛	-13.3047
瑪	-13.3048
梨	-13.3049
娘	-13.305
係	-13.3051
椒	-13.3052
嶼	-13.3053
努	-13.3054
龜	-13.3055
鳳	-13.3056
荖	-13.3057
芒	-13.3058
仔	-13.3059
魯	-13.306
秧	-13.3061
柱	-13.3062
姨	-13.3063
固	-13.3064
鐺	-13.3065
托	-13.3066
忌	-13.3067
寮	-13.3068
+	-13.3069
廁	-13.307
闆	-13.3071
釣	-13.3072
查	-13.3073
晃	-13.3074
鐮	-13.3075
牧	-13.3076
庫	-13.3077
釋	-13.3078
迦	-13.3079
錄	-13.308
舂	-13.3081
府	-13.3082
屁	-13.3083
壁	-13.3084
凱	-13.3085
鉛	-13.3086
泥	-13.3087
察	-13.3088
願	-13.3089
雖	-13.309
雅	-13.3091
冠	-13.3092
泰	-13.3093
倉	-13.3094
吟	-13.3095
森	-13.3096
嬰	-13.3097
需	-13.3098
攜	-13.3099
虹	-13.3099
泳	-13.31
朵	-13.3101
G	-13.3102
希	-13.3103
C	-13.3104
植	-13.3105
練	-13.3106
狩	-13.3107
蕉	-13.3108
橡	-13.3109
鷹	-13.311
蔗	-13.3111
榔	-13.3112
猴	-13.3113
阱	-13.3114
睛	-13.3115
R	-13.3116
紹	-13.3117
介	-13.3118
賽	-13.3119
糯	-13.312
甚	-13.3121
甘	-13.3122
昨	-13.3123
叔	-13.3124
稻	-13.3125
灣	-13.3126
整	-13.3127
椅	-13.3128
爺	-13.3128
呼	-13.3129
何	-13.313
L	-13.3131
D	-13.3132
覺	-13.3133
B	-13.3134
怎	-13.3135
M	-13.3136
現	-13.3137
蓮	-13.3138
炎	-13.3138
儀	-13.3138
耍	-13.3138
K	-13.3138
玉	-13.3139
驗	-13.3139
什	-13.3139
膝	-13.314
跌	-13.314
祀	-13.314
掘	-13.314
艘	-13.314
穴	-13.314
羽	-13.314
契	-13.314
廢	-13.314
拚	-13.314
諾	-13.314
闖	-13.314
潮	-13.314
俗	-13.314
嘉	-13.314
障	-13.314
孩	-13.314
乃	-13.314
凍	-13.314
刊	-13.314
夷	-13.314
嬌	-13.314
屠	-13.314
睹	-13.314
緒	-13.314
脅	-13.314
莎	-13.314
譴	-13.314
踝	-13.314
轄	-13.314
賀	-13.3141
俊	-13.3141
污	-13.3141
劑	-13.3141
募	-13.3141
壑	-13.3141
昇	-13.3141
檻	-13.3141
瞰	-13.3141
矯	-13.3141
礁	-13.3141
績	-13.3141
翼	-13.3141
耽	-13.3141
蕩	-13.3141
誓	-13.3141
鄭	-13.3141
頰	-13.3141
饗	-13.3141
慧	-13.3141
康	-13.3141
亦	-13.3141
佇	-13.3141
傭	-13.3141
冇	-13.3141
啣	-13.3141
嗜	-13.3141
屹	-13.3141
惕	-13.3141
攔	-13.3141
敦	-13.3141
浹	-13.3141
炳	-13.3141
琴	-13.3141
瘟	-13.3141
盲	-13.3141
眠	-13.3141
睦	-13.3141
礱	-13.3141
禦	-13.3141
笨	-13.3141
粱	-13.3141
絆	-13.3141
胯	-13.3141
苔	-13.3141
茵	-13.3141
葛	-13.3141
蒲	-13.3141
蒿	-13.3141
藻	-13.3141
蛤	-13.3141
螢	-13.3141
蟆	-13.3141
詠	-13.3141
説	-13.3141
佛	-13.3141
吳	-13.3141
拎	-13.3141
掠	-13.3141
汆	-13.3141
盧	-13.3141
脛	-13.3141
賒	-13.3141
逝	-13.3141
黎	-13.3141
姆	-13.3141
捷	-13.3141
敏	-13.3141
%	-13.3141
{	-13.3141
}	-13.3141
─	-13.3141
京	-13.3141
企	-13.3141
伊	-13.3141
估	-13.3141
佐	-13.3141
佣	-13.3141
俏	-13.3141
倡	-13.3141
債	-13.3141
傾	-13.3141
冊	-13.3141
刈	-13.3141
劍	-13.3141
勃	-13.3141
卉	-13.3141
厥	-13.3141
叭	-13.3141
吻	-13.3141
呦	-13.3141
唁	-13.3141
啤	-13.3141
喇	-13.3141
嗣	-13.3141
嘟	-13.3141
噘	-13.3141
噩	-13.3141
圳	-13.3141
址	-13.3141
埃	-13.3141
堀	-13.3141
填	-13.3141
墨	-13.3141
墳	-13.3141
妙	-13.3141
妯	-13.3141
姣	-13.3141
娌	-13.3141
孤	-13.3141
寓	-13.3141
寢	-13.3141
寥	-13.3141
寧	-13.3141
寵	-13.3141
峭	-13.3141
巳	-13.3141
帚	-13.3141
幌	-13.3141
弛	-13.3141
彙	-13.3141
征	-13.3141
徹	-13.3141
忿	-13.3141
悍	-13.3141
惠	-13.3141
憫	-13.3141
拘	-13.3141
拯	-13.3141
拼	-13.3141
挷	-13.3141
捐	-13.3141
措	-13.3141
搞	-13.3141
摀	-13.3141
摹	-13.3141
撩	-13.3141
擸	-13.3141
斑	-13.3141
斬	-13.3141
映	-13.3141
晝	-13.3141
枉	-13.3141
栗	-13.3141
梢	-13.3141
棕	-13.3141
棘	-13.3141
棚	-13.3141
棲	-13.3141
棺	-13.3141
椽	-13.3141
槌	-13.3141
檔	-13.3141
櫸	-13.3141
歇	-13.3141
氓	-13.3141
沐	-13.3141
泌	-13.3141
洛	-13.3141
津	-13.3141
洩	-13.3141
洶	-13.3141
洼	-13.3141
渠	-13.3141
渡	-13.3141
溺	-13.3141
滲	-13.3141
濘	-13.3141
濤	-13.3141
瀝	-13.3141
炙	-13.3141
煥	-13.3141
煽	-13.3141
熨	-13.3141
燿	-13.3141
狼	-13.3141
獄	-13.3141
珊	-13.3141
瑚	-13.3141
瑞	-13.3141
瑰	-13.3141
甄	-13.3141
畸	-13.3141
疔	-13.3141
症	-13.3141
痲	-13.3141
癩	-13.3141
癬	-13.3141
盟	-13.3141
眶	-13.3141
矚	-13.3141
矩	-13.3141
砸	-13.3141
磅	-13.3141
祐	-13.3141
祥	-13.3141
禽	-13.3141
窒	-13.3141
竂	-13.3141
竄	-13.3141
箂	-13.3141
箴	-13.3141
籌	-13.3141
籤	-13.3141
紉	-13.3141
絮	-13.3141
綴	-13.3141
繭	-13.3141
纏	-13.3141
翠	-13.3141
肌	-13.3141
肴	-13.3141
腮	-13.3141
艷	-13.3141
苣	-13.3141
菌	-13.3141
萵	-13.3141
蒐	-13.3141
蒞	-13.3141
蓪	-13.3141
蕈	-13.3141
藜	-13.3141
蘄	-13.3141
蛻	-13.3141
蜥	-13.3141
蜴	-13.3141
衡	-13.3141
袪	-13.3141
裸	-13.3141
褪	-13.3141
襟	-13.3141
覦	-13.3141
覬	-13.3141
詳	-13.3141
諧	-13.3141
謎	-13.3141
豁	-13.3141
豊	-13.3141
豋	-13.3141
貸	-13.3141
賈	-13.3141
賦	-13.3141
趟	-13.3141
踵	-13.3141
蹂	-13.3141
蹋	-13.3141
蹟	-13.3141
蹭	-13.3141
躪	-13.3141
軒	-13.3141
輸	-13.3141
辜	-13.3141
辱	-13.3141
迸	-13.3141
郁	-13.3141
酌	-13.3141
酷	-13.3141
采	-13.3141
鏈	-13.3141
鑑	-13.3141
鑣	-13.3141
鑲	-13.3141
陀	-13.3141
陵	-13.3141
隸	-13.3141
霄	-13.3141
霎	-13.3141
韌	-13.3141
頓	-13.3141
頻	-13.3141
顎	-13.3141
顱	-13.3141
餿	-13.3141
馱	-13.3141
駐	-13.3141
駡	-13.3141
驃	-13.3141
骼	-13.3141
鯨	-13.3141
鰻	-13.3141
鱉	-13.3141
齋	-13.3141
F	-13.3141
亙	-13.3141
佷	-13.3141
垮	-13.3141
墮	-13.3141
怔	-13.3141
欄	-13.3141
歹	-13.3141
殿	-13.3141
猿	-13.3141
矗	-13.3141
祠	-13.3141
膩	-13.3141
X	-13.3141
→	-13.3141
仙	-13.3141
俸	-13.3141
匱	-13.3141
吮	-13.3141
噢	-13.3141
娣	-13.3141
寡	-13.3141
屆	-13.3141
帕	-13.3141
廨	-13.3141
憤	-13.3141
揀	-13.3141
昂	-13.3141
核	-13.3141
槳	-13.3141
湍	-13.3141
磳	-13.3141
膳	-13.3141
薰	-13.3141
虞	-13.3141
辭	-13.3141
邃	-13.3141
陌	-13.3141
頒	-13.3141
餾	-13.3141
隙	-13.3141
撇	-13.3141
昆	-13.3141
氧	-13.3141
洲	-13.3141
澗	-13.3141
澳	-13.3141
甸	-13.3141
睽	-13.3141
碳	-13.3141
秒	-13.3141
窺	-13.3141
莢	-13.3141
錘	-13.3141
革	-13.3141
饅	-13.3141
P	-13.3141
鎌	-13.3141
傑	-13.3142
肆	-13.3142
虐	-13.3142
奧	-13.3142
兌	-13.3142
麼	-13.3142
