<pad>	0
<unk>	0
<s>	0
</s>	0
<2tay>	0
<2en>	0
▁	-1.99391
'	-2.9815
.	-3.05953
,	-3.51946
?	-4.06498
▁the	-4.46066
▁I	-4.49069
▁to	-4.51844
s	-4.57338
▁so	-4.61036
▁ga	-4.74372
▁la	-4.83178
▁you	-4.85491
▁and	-5.01457
▁a	-5.03455
▁na	-5.12146
▁is	-5.1472
▁mo	-5.15353
▁co	-5.18322
y	-5.25686
n	-5.31734
▁ka	-5.32543
▁ko	-5.38343
t	-5.41266
▁mosa	-5.4781
!	-5.5195
▁ta	-5.54942
▁ro	-5.6016
▁in	-5.60368
▁i	-5.62616
▁it	-5.69244
▁ci	-5.73893
ing	-5.78852
▁of	-5.81661
an	-5.84341
▁my	-5.84808
▁go	-5.85796
on	-5.85911
▁we	-5.9057
▁are	-5.90914
▁ini	-5.92545
▁have	-5.95796
i	-6.03748
▁nya	-6.04014
▁m	-6.1519
ed	-6.17003
▁for	-6.20779
▁hiya	-6.22765
e	-6.26369
▁will	-6.27108
▁your	-6.29941
▁ni	-6.34314
▁p	-6.35652
▁How	-6.36022
▁be	-6.36806
▁ma	-6.37436
m	-6.37961
▁The	-6.38779
▁ki	-6.40124
▁qo	-6.42105
▁me	-6.43347
▁nano	-6.44808
▁that	-6.45118
▁with	-6.45819
d	-6.49797
▁biro	-6.51368
▁he	-6.54619
▁going	-6.56913
▁No	-6.59124
▁We	-6.61733
▁maha	-6.62143
ll	-6.63566
▁do	-6.65245
▁Yes	-6.663
▁qani	-6.66734
▁It	-6.66961
▁kong	-6.67098
▁take	-6.6721
▁aw	-6.67385
re	-6.70787
▁sako	-6.71094
/	-6.712
▁maki	-6.71518
▁school	-6.75329
▁hani	-6.76247
▁kwara	-6.76287
▁pa	-6.77203
▁sa	-6.78613
▁M	-6.80082
▁What	-6.81023
▁want	-6.81803
▁balay	-6.82309
▁at	-6.83676
▁was	-6.84908
▁(	-6.8535
)	-6.8535
▁out	-6.87008
▁mako	-6.87095
▁cami	-6.87481
▁sami	-6.88063
▁our	-6.90071
w	-6.90254
▁myan	-6.90516
▁up	-6.90639
▁buy	-6.91888
▁home	-6.9248
▁naha	-6.9307
▁lalo	-6.93254
▁pila	-6.93436
▁today	-6.95494
▁qotox	-6.95602
▁can	-6.96612
▁yaba	-6.9718
▁si	-6.97546
▁Whe	-6.99021
▁name	-6.99785
▁back	-7.00099
▁otox	-7.00227
▁this	-7.00738
▁like	-7.01885
▁Do	-7.03544
▁min	-7.0391
▁niya	-7.0524
g	-7.06359
▁s	-7.06715
▁don	-7.06902
▁very	-7.0706
▁not	-7.07388
▁am	-7.07587
▁would	-7.07699
▁see	-7.08699
▁He	-7.08923
▁miso	-7.08941
▁lga	-7.09417
▁old	-7.09711
▁here	-7.11285
▁There	-7.14065
ay	-7.1469
▁brother	-7.14922
l	-7.15098
▁k	-7.16019
▁day	-7.16917
▁there	-7.16985
▁bring	-7.17488
a	-7.17834
▁ba	-7.1785
▁time	-7.18477
▁by	-7.19807
▁iso	-7.20915
▁did	-7.21843
▁ino	-7.22335
▁from	-7.23178
▁together	-7.25699
▁sali	-7.26999
▁us	-7.27438
▁kiya	-7.28095
▁Is	-7.28944
▁kya	-7.2936
▁tribe	-7.30371
▁ima	-7.30682
▁Let	-7.31444
▁come	-7.31499
▁yaya	-7.31998
▁one	-7.32055
▁went	-7.32231
▁many	-7.33227
▁"	-7.33473
ext	-7.33706
▁some	-7.33854
▁ana	-7.34107
▁Are	-7.34848
▁babaw	-7.35051
▁mamo	-7.35144
er	-7.36154
▁ho	-7.36211
▁on	-7.36857
ve	-7.3706
▁ryax	-7.37557
o	-7.38133
▁ke	-7.38865
ng	-7.3963
▁said	-7.40131
▁rice	-7.40364
al	-7.41571
▁qa	-7.41909
-	-7.41939
▁borrow	-7.42872
▁P	-7.43068
▁nanak	-7.43257
▁kowing	-7.43864
▁You	-7.4419
▁his	-7.442
▁much	-7.4477
▁know	-7.45856
▁kayan	-7.46782
▁lot	-7.47196
▁ha	-7.48377
▁no	-7.48692
▁get	-7.48702
▁mwah	-7.48993
▁but	-7.49204
▁c	-7.49608
▁teacher	-7.49704
▁father	-7.49714
▁sister	-7.50665
▁mama	-7.51189
▁need	-7.51704
▁just	-7.52701
▁whe	-7.52707
▁family	-7.52717
▁about	-7.53746
▁fish	-7.54491
▁gi	-7.54816
▁they	-7.5618
▁iyat	-7.56506
▁She	-7.58025
▁nyox	-7.58115
▁maras	-7.58355
▁Who	-7.5861
▁everyone	-7.59118
▁people	-7.59202
is	-7.60326
▁cikay	-7.61416
▁catch	-7.61487
▁kawas	-7.61661
▁mi	-7.63028
▁return	-7.63619
▁sun	-7.63631
▁pisa	-7.63652
▁him	-7.63717
▁now	-7.63842
▁more	-7.63888
▁n	-7.64312
iy	-7.65038
▁them	-7.65277
▁Tayal	-7.65597
▁Hello	-7.6595
▁Okay	-7.65952
nger	-7.66135
▁all	-7.665
▁q	-7.66568
aw	-7.6667
▁wa	-7.66688
▁piyox	-7.67605
▁kisa	-7.6838
r	-7.68635
lease	-7.69376
▁tomorrow	-7.708
▁b	-7.71191
▁water	-7.72036
▁hunting	-7.7215
▁she	-7.72811
▁too	-7.72884
▁calay	-7.73306
▁long	-7.73785
▁yaki	-7.74095
▁money	-7.74617
▁lo	-7.75168
▁pin	-7.7551
se	-7.76716
h	-7.77271
▁were	-7.77952
▁payox	-7.78466
▁does	-7.78629
▁mha	-7.78855
▁took	-7.78913
▁pen	-7.79271
▁has	-7.79482
ather	-7.7975
▁uncle	-7.79852
▁ralo	-7.79862
▁alang	-7.80352
osa	-7.80749
le	-7.80916
▁forgot	-7.81223
▁sinsi	-7.81226
▁oya	-7.81246
▁soni	-7.816
ring	-7.82272
▁three	-7.82602
▁cako	-7.82619
▁simo	-7.82709
▁Can	-7.82714
▁eat	-7.83691
▁what	-7.84005
▁lend	-7.84008
▁play	-7.85553
▁cyox	-7.85656
▁wagi	-7.8609
▁ongat	-7.86879
▁nha	-7.87026
▁cobalay	-7.87045
▁indigenous	-7.87112
ose	-7.87216
▁years	-7.87243
▁trap	-7.87328
▁A	-7.87452
▁magan	-7.87585
▁cyo	-7.88068
▁t	-7.88186
▁pi	-7.88705
▁Th	-7.89804
▁wal	-7.89809
▁live	-7.9028
es	-7.90315
▁cimo	-7.90349
▁Then	-7.90507
aras	-7.91286
▁down	-7.91341
▁been	-7.91576
▁sawni	-7.92205
▁tikay	-7.92871
▁make	-7.93321
nga	-7.93533
▁sqo	-7.93828
▁owal	-7.94334
▁sweet	-7.94446
▁prey	-7.94492
glow	-7.94689
▁moyax	-7.95135
gan	-7.95441
▁osa	-7.95837
▁because	-7.9601
▁kmayan	-7.96023
▁how	-7.96047
▁mita	-7.96126
▁haca	-7.96202
▁mountains	-7.96325
▁Atayal	-7.96459
p	-7.97019
▁tonox	-7.97163
▁an	-7.97524
▁beh	-7.97832
▁ti	-7.98226
▁hala	-7.98524
▁look	-7.99254
▁also	-7.99255
▁good	-7.99269
▁yani	-8.0015
▁lokah	-8.00793
▁clothes	-8.0091
▁mother	-8.00999
▁any	-8.01094
q	-8.01324
▁lokos	-8.01711
ur	-8.02445
was	-8.0314
▁eraser	-8.03288
▁mowah	-8.03402
in	-8.035
▁kin	-8.03757
▁bus	-8.04469
▁speak	-8.06055
▁hata	-8.06095
▁tanox	-8.06752
▁two	-8.06842
▁cyan	-8.0736
▁moṟow	-8.08356
▁kaal	-8.08898
▁owah	-8.08943
▁qow	-8.08958
▁psba	-8.09307
lawkah	-8.09608
▁Thank	-8.09643
▁mqwas	-8.09651
▁qalang	-8.09655
▁their	-8.09691
▁blaq	-8.10116
▁te	-8.109
il	-8.11172
▁heya	-8.11557
▁let	-8.11576
▁sp	-8.11649
▁baq	-8.11792
to	-8.12014
▁tehok	-8.12215
as	-8.12426
en	-8.12631
▁cold	-8.1324
▁O	-8.1325
▁as	-8.13282
▁lunch	-8.13365
had	-8.13464
."	-8.14404
ly	-8.14412
▁pira	-8.14758
▁aki	-8.15257
▁mlikoy	-8.15278
▁visit	-8.15292
man	-8.15936
k	-8.1595
▁hi	-8.15997
▁o	-8.16099
▁sko	-8.16512
▁baqon	-8.16659
▁after	-8.1729
▁ngasal	-8.17474
▁please	-8.17538
▁give	-8.17591
▁magal	-8.17915
▁th	-8.17954
▁away	-8.18105
▁waya	-8.18229
▁ca	-8.189
▁teach	-8.19189
▁Teacher	-8.19219
▁really	-8.19224
▁big	-8.19282
▁nko	-8.19325
▁later	-8.19399
▁mani	-8.1946
▁vegetables	-8.19563
x	-8.20433
▁work	-8.20434
▁oyi	-8.21001
▁cel	-8.21173
▁ra	-8.21439
▁ya	-8.21592
▁walk	-8.21608
b	-8.21717
▁yotas	-8.21813
▁In	-8.22008
▁fruit	-8.22155
ch	-8.22246
▁read	-8.23028
▁ask	-8.23267
▁should	-8.23325
▁Did	-8.23331
▁clean	-8.23375
ba	-8.23573
▁fishing	-8.23936
▁kay	-8.24352
eth	-8.25042
▁l	-8.25217
▁over	-8.25444
▁call	-8.25749
▁kira	-8.25812
▁house	-8.26284
nic	-8.27424
▁caṟong	-8.27601
▁interview	-8.27601
▁again	-8.27604
▁outside	-8.27642
▁mow	-8.27847
oli	-8.29647
th	-8.3005
▁yo	-8.3073
▁W	-8.31009
▁language	-8.31055
▁doing	-8.31697
'/	-8.31707
▁nyo	-8.32025
▁food	-8.32081
▁msqon	-8.32095
▁Com	-8.32512
▁Wil	-8.32526
▁hot	-8.32612
mlow	-8.32662
▁okas	-8.34206
▁Watan	-8.34383
▁swimming	-8.34383
▁Take	-8.34389
▁foot	-8.34408
▁yourself	-8.34471
▁maniq	-8.34526
▁raining	-8.3465
law	-8.35114
▁brothers	-8.35378
▁kayal	-8.35417
ro	-8.36564
▁afternoon	-8.3675
▁umbrella	-8.3675
▁qabax	-8.36758
▁class	-8.36768
▁cikah	-8.36774
▁came	-8.37052
▁oziy	-8.37068
ong	-8.37407
▁tell	-8.37557
▁gaga	-8.37782
▁rason	-8.38454
▁grow	-8.38666
▁mt	-8.38843
▁bicycle	-8.39174
▁help	-8.39174
▁little	-8.39175
▁owi	-8.39282
▁f	-8.39376
▁roni	-8.39678
▁S	-8.41507
agal	-8.41651
▁motorcycle	-8.41659
▁child	-8.41659
wan	-8.41706
▁bayi	-8.41707
▁compet	-8.41711
▁sell	-8.41917
ko	-8.4193
▁while	-8.42001
▁hang	-8.43055
▁saw	-8.43235
▁traps	-8.43411
st	-8.43821
▁say	-8.43939
▁loyi	-8.44224
▁imowag	-8.44226
▁pqwasan	-8.4423
▁rgyax	-8.44553
co	-8.44838
▁grandmother	-8.44935
▁h	-8.45103
▁sazing	-8.45322
▁if	-8.4553
▁g	-8.45856
▁kolo	-8.46382
▁talk	-8.46533
▁bi	-8.46726
▁sisters	-8.46812
▁Taitung	-8.46821
▁delicious	-8.46821
▁dollars	-8.46821
▁ngahi	-8.46824
▁station	-8.46824
▁train	-8.46827
▁thank	-8.46832
▁Sure	-8.46839
▁aṟat	-8.46846
▁off	-8.46933
▁fields	-8.47058
way	-8.47252
▁nanowan	-8.47308
▁kyan	-8.47455
▁br	-8.4749
aya	-8.47693
▁cut	-8.47891
▁halan	-8.48027
▁chicken	-8.48481
▁rain	-8.48514
▁iya	-8.48645
▁young	-8.48671
_	-8.49506
▁basket	-8.49506
▁learn	-8.49506
▁still	-8.49506
▁After	-8.49511
▁great	-8.49518
▁every	-8.4954
▁kinang	-8.49547
▁things	-8.49861
payox	-8.49995
low	-8.50031
▁tiko	-8.5057
▁kora	-8.50641
nyan	-8.50689
u	-8.51002
▁han	-8.51047
▁pack	-8.51255
▁Pu	-8.5129
at	-8.51678
▁wine	-8.52269
▁grass	-8.5227
▁who	-8.52279
▁niqon	-8.5232
▁yaw	-8.52336
▁sky	-8.52371
▁kisya	-8.52374
▁miro	-8.52409
read	-8.52658
▁wash	-8.52685
ot	-8.52815
one	-8.53282
▁hya	-8.53585
▁cooked	-8.53612
▁elder	-8.54057
motox	-8.54238
▁drink	-8.54767
▁share	-8.55079
▁kahabaag	-8.55103
▁sswe	-8.55103
▁running	-8.55104
▁otobay	-8.55105
▁dry	-8.55114
▁kozing	-8.55135
▁could	-8.55136
▁That	-8.55146
▁miyan	-8.55185
▁baso	-8.55213
aring	-8.55647
Tayal	-8.55969
▁hali	-8.56167
tox	-8.56722
▁asi	-8.56875
ah	-8.5722
▁olaqi	-8.57294
▁pro	-8.57322
▁oṟi	-8.57374
▁laxi	-8.57594
▁far	-8.57859
pasba	-8.57888
;	-8.58022
▁first	-8.58026
▁stand	-8.58031
▁women	-8.58033
▁Pasang	-8.58038
▁Du	-8.58056
▁only	-8.58186
▁asked	-8.58315
yo	-8.58777
▁niyam	-8.58791
▁ye	-8.59002
ka	-8.59538
"	-8.59732
de	-8.59805
▁sha	-8.60003
ce	-8.60377
▁tall	-8.60713
▁Yukan	-8.61029
▁kneril	-8.61029
▁Yawi	-8.6103
▁living	-8.6103
▁bottle	-8.6103
▁nel	-8.61049
▁dad	-8.61061
▁Itaal	-8.61078
▁fly	-8.61086
▁kingan	-8.61269
▁care	-8.61334
▁classmates	-8.61616
▁languages	-8.62404
▁mom	-8.6289
▁tradition	-8.62969
▁sit	-8.63314
▁kani	-8.63588
put	-8.6397
▁church	-8.6413
▁textbook	-8.6413
▁why	-8.6413
▁Yokan	-8.64131
▁before	-8.64141
▁1	-8.64177
ld	-8.64305
▁okay	-8.64417
▁dri	-8.6446
▁wait	-8.64469
▁sesiy	-8.64535
▁yet	-8.64622
▁On	-8.65184
▁wah	-8.65832
▁late	-8.66267
▁Genzyominzok	-8.66545
▁past	-8.66764
▁hunt	-8.66819
▁Gaga	-8.6733
▁cloud	-8.6733
▁dinner	-8.67331
▁group	-8.67332
▁pasaba	-8.6734
▁five	-8.67342
▁potatoes	-8.67344
▁kyalon	-8.67351
▁hngawan	-8.67387
▁qasa	-8.6739
▁siblings	-8.67522
▁whi	-8.67709
▁saying	-8.67764
▁wayal	-8.67977
▁love	-8.68002
▁birds	-8.68123
▁cko	-8.68989
▁wayan	-8.68996
ra	-8.69572
yan	-8.69929
go	-8.70042
▁rami	-8.70095
▁full	-8.70192
▁rest	-8.70282
▁tea	-8.70363
▁peoples	-8.7039
▁understand	-8.70636
▁twenty	-8.70637
▁open	-8.7064
▁qaca	-8.70642
▁carry	-8.70662
▁ramas	-8.70712
▁wear	-8.70764
▁patas	-8.70779
ri	-8.70818
▁end	-8.70977
▁ramat	-8.71088
▁kelan	-8.7127
ought	-8.71468
▁either	-8.71945
galow	-8.72438
▁moto	-8.7245
▁pas	-8.72504
!"	-8.72604
▁well	-8.72834
▁bit	-8.72887
▁then	-8.73226
▁these	-8.73636
▁ball	-8.73666
▁nak	-8.7371
▁Wait	-8.74055
▁future	-8.74055
▁bamboo	-8.74056
▁short	-8.74057
▁find	-8.74058
▁Today	-8.74061
▁Pawan	-8.74061
▁amol	-8.74075
▁hayi	-8.74178
▁mhway	-8.74207
▁C	-8.74381
▁snakes	-8.74403
▁kayi	-8.74676
▁haṟi	-8.75021
▁government	-8.75039
▁kia	-8.75106
▁chat	-8.75113
pe	-8.75279
icowa	-8.75877
▁boar	-8.76494
▁culture	-8.76555
ow	-8.77414
▁du	-8.7756
▁knerin	-8.77596
▁right	-8.776
▁corn	-8.77604
▁dishes	-8.77604
▁tamalong	-8.7761
▁kmal	-8.7763
▁kaca	-8.77642
▁bought	-8.77659
day	-8.77864
▁kryax	-8.77989
▁Ha	-8.78762
een	-8.78828
▁tama	-8.79321
ling	-8.79454
▁Go	-8.79723
▁ms	-8.79777
▁both	-8.79868
ngi	-8.79993
▁friend	-8.80242
▁kiyan	-8.80478
▁ate	-8.80839
▁leave	-8.81029
▁mak	-8.81112
▁wind	-8.81249
▁smoya	-8.81288
▁turn	-8.81325
▁mahoway	-8.81375
▁kahani	-8.81391
joy	-8.81503
▁kind	-8.81616
ang	-8.81664
▁Wh	-8.82103
▁coxan	-8.82211
der	-8.8225
▁balayq	-8.82953
▁nia	-8.83085
▁ozi	-8.84066
▁kaṟal	-8.84193
▁Alright	-8.85075
▁record	-8.85075
▁summer	-8.85076
▁smell	-8.85076
▁four	-8.85077
▁Grandma	-8.85081
▁happy	-8.85089
▁near	-8.851
▁sqani	-8.85108
▁door	-8.85127
▁way	-8.85131
▁evening	-8.85134
▁mari	-8.8527
▁inlongan	-8.85517
▁qolih	-8.85564
▁maso	-8.85722
▁dog	-8.85824
ent	-8.85904
baziy	-8.85947
▁mong	-8.86064
▁waw	-8.86081
grown	-8.86152
▁syaw	-8.86642
▁other	-8.87392
ti	-8.88161
▁niyan	-8.88236
▁night	-8.88492
▁lawwi	-8.88517
▁shoot	-8.88707
▁line	-8.88714
▁study	-8.88829
▁where	-8.88881
ught	-8.88952
▁asoṟan	-8.89036
▁malikoṟ	-8.89036
▁typhoon	-8.89036
▁komaṟal	-8.89036
▁else	-8.89041
▁komaal	-8.89041
▁And	-8.89041
▁papsibaq	-8.89044
▁talagay	-8.89058
ten	-8.89081
ck	-8.89218
▁hon	-8.8924
▁yasa	-8.8933
▁won	-8.89348
▁Da	-8.89442
▁kanayril	-8.89525
▁toroy	-8.8959
▁sm	-8.89797
▁laga	-8.90096
▁glgan	-8.90102
▁or	-8.90322
▁side	-8.90616
▁soyan	-8.90857
▁itaal	-8.90906
▁kosa	-8.90947
c	-8.90985
oy	-8.91025
▁year	-8.91116
zyowaw	-8.91247
gi	-8.91354
able	-8.9177
▁rod	-8.91783
▁al	-8.9227
▁hom	-8.93125
▁mamaliko	-8.9316
▁plane	-8.93162
▁Sexo	-8.93162
▁close	-8.93162
▁left	-8.93162
▁kbhol	-8.93168
▁hard	-8.9317
ga	-8.93173
▁feel	-8.93176
▁morning	-8.93179
▁cqa	-8.93187
▁kabhol	-8.93199
▁abaw	-8.93255
▁hopa	-8.9326
▁stop	-8.93265
▁malahang	-8.93316
▁matox	-8.9343
lmos	-8.93478
▁kn	-8.93645
▁pgan	-8.93676
▁sasan	-8.94224
▁paka	-8.94323
so	-8.94458
▁pk	-8.94554
▁T	-8.94691
sya	-8.94763
wah	-8.95146
▁soil	-8.95358
▁box	-8.95868
▁piece	-8.96033
▁bird	-8.96077
▁togan	-8.96175
▁book	-8.96438
▁place	-8.96677
▁harvest	-8.96907
▁bos	-8.97347
▁trib	-8.97355
▁gomlo	-8.97358
▁slowly	-8.97462
▁Itaṟal	-8.97466
▁gbyan	-8.97467
▁inpit	-8.97483
▁green	-8.97499
▁city	-8.97678
▁net	-8.9788
▁male	-8.98004
▁coni	-8.98006
▁tagi	-8.98206
▁rainy	-8.983
▁head	-8.98308
not	-8.98355
▁talan	-8.99877
▁names	-9.0041
xan	-9.00441
▁her	-9.00667
▁sing	-9.00726
nano	-9.00731
▁papatas	-9.01668
each	-9.01721
pa	-9.01809
▁hospital	-9.01957
▁introduce	-9.01957
▁grandpa	-9.01957
▁sleep	-9.01958
▁taboo	-9.01958
▁Every	-9.01958
▁pound	-9.0196
▁pwasan	-9.01971
▁roof	-9.02037
▁warm	-9.02052
▁spring	-9.0206
▁coming	-9.02089
imperatives	-9.02141
▁qbsoyan	-9.02167
▁kanel	-9.02512
▁keno	-9.02536
▁children	-9.02585
▁tayal	-9.02598
otox	-9.02957
▁into	-9.03026
▁tana	-9.03095
▁man	-9.03125
am	-9.03194
▁rid	-9.03292
▁bas	-9.03498
nox	-9.03589
oya	-9.03765
rry	-9.03803
gay	-9.03891
▁tin	-9.04023
▁sir	-9.0447
▁boro	-9.04571
ho	-9.05078
balay	-9.05104
si	-9.05119
and	-9.05314
tel	-9.05462
▁tree	-9.05567
son	-9.05593
est	-9.05958
▁tayhok	-9.06266
zyan	-9.06297
▁weight	-9.06463
▁burn	-9.06593
▁competition	-9.06663
▁ingkaṟalan	-9.06663
▁pineapple	-9.06663
▁krryax	-9.06664
▁mnwah	-9.06673
▁cqani	-9.06686
▁sqoliq	-9.06687
▁iqaat	-9.0677
▁mpox	-9.06795
▁ocya	-9.07218
▁front	-9.07258
▁May	-9.07263
▁hands	-9.07329
▁riax	-9.07366
▁ksyoga	-9.07559
▁tayan	-9.08075
ke	-9.08131
▁togal	-9.08328
om	-9.0854
oqo	-9.08635
ox	-9.0866
▁laqi	-9.08897
▁taste	-9.09233
▁hazi	-9.09695
mawsa	-9.09709
▁ita	-9.09772
▁mas	-9.10193
▁ps	-9.10247
ya	-9.10333
rough	-9.10438
mo	-9.10645
▁miss	-9.1082
▁mountain	-9.11209
▁thin	-9.11521
:	-9.11582
▁doctor	-9.11602
▁usually	-9.11602
▁toilet	-9.11603
▁tikiy	-9.11603
▁something	-9.11603
▁tinqalangan	-9.11603
▁yesterday	-9.11605
▁ragiyax	-9.11606
▁Bu	-9.11608
▁lozi	-9.11609
▁chop	-9.11615
▁Maray	-9.1163
▁bsya	-9.11633
▁mamaha	-9.11636
ṟa	-9.11645
▁pull	-9.11691
▁nani	-9.11692
▁road	-9.11729
ness	-9.11871
hi	-9.11887
▁mitaal	-9.1193
▁son	-9.11963
▁ayat	-9.12081
va	-9.12193
▁mica	-9.12232
▁kon	-9.12318
▁eggs	-9.1232
▁glow	-9.12524
▁helaw	-9.12529
▁nut	-9.12535
▁qsya	-9.12863
long	-9.13163
▁bow	-9.13231
▁sold	-9.13233
▁pick	-9.13716
ax	-9.13769
▁pak	-9.14151
nxan	-9.1452
▁mato	-9.15157
ion	-9.15435
cpong	-9.15548
▁classmate	-9.15781
▁micow	-9.15926
ze	-9.16297
▁aṟ	-9.16652
owah	-9.16684
▁cook	-9.16704
ould	-9.16722
▁MRT	-9.16798
▁autumn	-9.16798
▁immediately	-9.16798
▁papatiqan	-9.16798
▁remember	-9.16798
▁hmswa	-9.16798
▁butterflies	-9.16799
▁Taiwan	-9.168
▁pakbalayq	-9.168
lent	-9.168
▁stall	-9.16805
▁lunchbox	-9.16806
▁zoo	-9.16812
▁stories	-9.16813
▁somewhere	-9.1682
▁miray	-9.16834
▁sinang	-9.16837
▁paper	-9.16856
▁maposal	-9.1686
▁sick	-9.17002
▁vay	-9.17008
▁mami	-9.17207
▁mata	-9.1728
▁unt	-9.17652
cal	-9.18572
orts	-9.18623
▁po	-9.18915
0	-9.18985
▁days	-9.19183
▁st	-9.19558
ting	-9.1966
▁gre	-9.1982
▁fell	-9.19881
▁laha	-9.20299
stick	-9.20346
▁car	-9.20535
hya	-9.20586
▁agan	-9.20758
▁Ye	-9.21537
ki	-9.21685
▁ṟomo	-9.21901
cisal	-9.2214
▁swa	-9.22232
▁Penghu	-9.22279
▁ancestors	-9.22279
▁dirty	-9.22279
▁warehouse	-9.22279
▁wife	-9.22279
▁forward	-9.22279
▁swim	-9.22279
▁Japanese	-9.22279
▁kbhon	-9.22279
▁Yumin	-9.22279
▁market	-9.22281
▁yoyot	-9.22282
▁riverside	-9.22284
▁cqoliq	-9.22284
▁bbrwan	-9.22287
▁cahay	-9.22287
▁mateq	-9.2229
▁bunch	-9.22296
▁member	-9.22297
▁elderly	-9.22339
▁never	-9.22342
▁weaving	-9.22374
▁myself	-9.22403
▁mcisal	-9.22526
▁harvested	-9.22547
▁samiy	-9.22717
▁hm	-9.22741
▁hasa	-9.22793
▁tool	-9.22874
▁knwan	-9.22948
▁maglo	-9.23002
nahi	-9.23065
bing	-9.2316
▁Here	-9.23298
▁baha	-9.23482
▁coat	-9.23633
ud	-9.23646
▁set	-9.23687
▁kanayrin	-9.23854
▁try	-9.24109
lay	-9.24229
▁elders	-9.24313
▁imo	-9.24369
▁red	-9.24391
▁kai	-9.24598
maw	-9.24683
▁bway	-9.24758
▁matas	-9.24791
▁hold	-9.24907
▁En	-9.25034
▁ear	-9.2518
▁piya	-9.2519
side	-9.25235
▁rangi	-9.25331
for	-9.25614
cyox	-9.25688
baq	-9.25705
rate	-9.2572
ic	-9.26026
▁oka	-9.26445
▁R	-9.26545
▁vegetable	-9.27064
▁smi	-9.27251
▁wan	-9.27539
▁ang	-9.27632
▁men	-9.27968
▁Yomin	-9.27984
▁own	-9.28034
▁babow	-9.28051
▁Kaohsiung	-9.28077
▁invite	-9.28077
▁lomangoy	-9.28077
▁malapṟow	-9.28077
▁quickly	-9.28077
▁zitensya	-9.28077
▁tomovox	-9.28077
▁black	-9.28077
▁forget	-9.28078
▁raramat	-9.28079
▁millet	-9.2808
▁floor	-9.2808
▁Hayung	-9.28081
▁komiyom	-9.28084
▁ngta	-9.28086
▁asiki	-9.2809
▁mhngi	-9.2809
▁goodbye	-9.28097
▁new	-9.28108
▁total	-9.28111
▁basoyan	-9.2812
▁sweeping	-9.28128
▁mmosa	-9.28149
▁kbalay	-9.28193
lower	-9.28277
hway	-9.28452
▁lif	-9.28477
▁ar	-9.28634
yow	-9.28741
▁sowing	-9.28857
▁laxiy	-9.29133
f	-9.29243
▁awah	-9.29279
▁miniy	-9.29413
▁soko	-9.2957
▁bato	-9.2967
▁friends	-9.29733
▁magalpo	-9.2999
▁glox	-9.30036
▁trang	-9.30448
ined	-9.30494
ato	-9.30564
hok	-9.30633
yong	-9.3087
▁bali	-9.3096
▁naki	-9.3097
▁moh	-9.31577
yaw	-9.31587
▁says	-9.31607
▁erasers	-9.31684
▁mpo	-9.31763
▁land	-9.31775
▁pap	-9.32239
▁oraw	-9.32506
sa	-9.32558
▁val	-9.33028
na	-9.33078
5	-9.33172
eep	-9.33194
wi	-9.33265
hapoy	-9.33331
▁san	-9.33332
biro	-9.33408
wahan	-9.33566
▁\	-9.33729
howay	-9.3383
▁steam	-9.33884
▁follow	-9.33896
▁boy	-9.34103
00	-9.34117
▁cheap	-9.34168
round	-9.34171
▁tkba	-9.34218
▁identi	-9.34225
▁hundred	-9.34232
▁enough	-9.34232
▁dragonflies	-9.34233
hkangi	-9.34234
▁riyax	-9.34234
▁mloyak	-9.34235
▁cookies	-9.34235
▁qqaya	-9.34236
▁kyokay	-9.34236
▁Tayan	-9.34239
▁Piho	-9.34239
zyox	-9.3424
▁finish	-9.34241
▁Hayong	-9.34253
▁police	-9.34255
▁ksino	-9.34257
▁casan	-9.34263
▁swahi	-9.3428
▁rex	-9.34286
▁Wow	-9.34287
▁Taytong	-9.34292
▁office	-9.34299
▁Sha	-9.3432
▁matter	-9.34321
▁Gre	-9.34351
▁thirty	-9.34388
▁mlahang	-9.34429
▁myasa	-9.34449
▁mpow	-9.34454
lo	-9.34481
▁nway	-9.34534
▁masoq	-9.34568
▁skin	-9.34695
▁latan	-9.3486
tle	-9.35121
▁tqbaq	-9.35545
▁cat	-9.35768
▁mian	-9.35882
▁yolong	-9.36078
▁roko	-9.36277
▁meat	-9.36472
▁So	-9.36727
▁libo	-9.36796
▁baqi	-9.36981
ma	-9.3751
▁bag	-9.37637
▁stre	-9.38032
anay	-9.38212
▁kakay	-9.38274
▁arriv	-9.38281
▁ski	-9.38467
ta	-9.38653
early	-9.38856
▁mara	-9.38906
be	-9.3908
wayi	-9.39189
ni	-9.39426
gon	-9.39454
eck	-9.39539
▁mico	-9.39709
ngan	-9.39757
wa	-9.39809
▁kba	-9.39811
room	-9.39952
▁ssom	-9.40212
bagan	-9.40218
ry	-9.40317
mowa	-9.40348
1	-9.40638
▁meet	-9.40645
▁Tayto	-9.40729
bawx	-9.40785
▁Chinese	-9.40791
▁female	-9.40791
▁stomach	-9.40791
▁kmagaw	-9.40791
▁expensive	-9.40792
▁holiday	-9.40792
▁number	-9.40792
▁possible	-9.40792
▁anything	-9.40792
▁tmatok	-9.40792
▁Temo	-9.40795
▁likoy	-9.40796
▁iyik	-9.40799
▁cingay	-9.40812
▁kroma	-9.40814
▁block	-9.40819
▁eye	-9.40836
▁mkilox	-9.40836
▁mqwalax	-9.40847
▁qui	-9.40864
▁same	-9.40943
▁clothing	-9.41019
▁Iwal	-9.41102
ble	-9.41185
▁rangay	-9.41294
▁around	-9.41501
▁qomisowan	-9.41633
▁baaq	-9.41635
▁gmlo	-9.41739
▁seed	-9.41753
▁arrow	-9.4177
▁papak	-9.41776
▁working	-9.41848
▁gm	-9.41935
▁bih	-9.41983
galan	-9.41999
▁cka	-9.421
▁nqo	-9.42294
▁soxan	-9.42362
▁rowas	-9.42409
la	-9.42439
ason	-9.42856
agan	-9.43225
▁chickens	-9.43392
▁kaki	-9.43606
▁enter	-9.44191
qan	-9.44277
os	-9.44411
▁wil	-9.44421
ity	-9.44621
▁mlo	-9.44628
ok	-9.44833
▁behoy	-9.45109
ani	-9.45341
kahol	-9.45835
▁Fo	-9.45923
▁saway	-9.46024
▁plant	-9.46639
ava	-9.46691
▁egg	-9.4679
it	-9.46996
▁nbo	-9.47254
▁r	-9.47286
▁oba	-9.47354
▁Grand	-9.47801
▁Kaynu	-9.47811
▁knife	-9.47811
▁problem	-9.47811
▁straight	-9.47811
▁winter	-9.47811
lthough	-9.47811
▁mtswe	-9.47811
▁Temi	-9.47812
▁Temu	-9.47812
▁woode	-9.47812
ridge	-9.47812
▁lonpow	-9.47813
▁patapanga	-9.47813
▁kmayal	-9.47814
▁hmcwa	-9.47816
▁step	-9.47817
terday	-9.47818
▁mwani	-9.47821
▁high	-9.47839
▁watch	-9.47845
▁parents	-9.4785
▁Tali	-9.47853
▁homakay	-9.47856
▁yobing	-9.47857
▁izyat	-9.47872
▁tmocing	-9.47873
▁thoyay	-9.47885
lan	-9.47893
▁salt	-9.47918
▁siya	-9.47919
yah	-9.47967
▁ph	-9.48044
▁maneq	-9.48068
▁para	-9.48077
▁mabaynay	-9.48082
ar	-9.48212
▁kho	-9.48244
▁wahiy	-9.48263
▁stars	-9.48322
▁pass	-9.48382
ny	-9.48393
▁B	-9.48395
▁light	-9.48431
▁minutes	-9.4847
The	-9.48762
▁room	-9.48919
...	-9.48976
night	-9.49082
aneq	-9.49129
iq	-9.49265
yang	-9.49282
▁itch	-9.4929
▁sani	-9.49423
▁cla	-9.49494
aqih	-9.49611
▁use	-9.49776
▁mongi	-9.49811
▁hand	-9.49818
▁naniqon	-9.49845
▁zik	-9.49932
▁fre	-9.50069
posan	-9.50229
▁10	-9.50288
▁bwax	-9.50327
▁ranch	-9.50497
▁$20	-9.50705
ge	-9.50876
inkahol	-9.51109
ag	-9.51353
▁siki	-9.51405
▁H	-9.51493
▁bsyaq	-9.51568
me	-9.51632
""	-9.51993
▁payat	-9.52166
▁$	-9.52186
aid	-9.52467
▁naga	-9.52594
▁pu	-9.52615
▁move	-9.52747
▁mki	-9.52803
▁seem	-9.52943
▁hat	-9.53084
ake	-9.53341
▁plants	-9.53391
▁wet	-9.53479
rason	-9.53863
▁pbe	-9.53935
▁bay	-9.54415
biniy	-9.54448
▁biqi	-9.54831
bit	-9.55006
rt	-9.55087
▁gro	-9.55129
▁kk	-9.55172
▁mlngya	-9.55328
cation	-9.55342
▁Orchid	-9.55361
▁Taipei	-9.55361
▁breakfast	-9.55361
▁oranges	-9.55361
▁papoṟot	-9.55361
▁throat	-9.55361
▁welcome	-9.55361
▁Sayun	-9.55361
▁hometown	-9.55361
▁listen	-9.55361
▁ikowing	-9.55361
▁found	-9.55361
▁video	-9.55361
▁ṟamagal	-9.55361
▁bahbah	-9.55362
▁grandma	-9.55362
collective	-9.55362
▁further	-9.55363
▁Atayan	-9.55364
▁ccong	-9.55364
▁grain	-9.55364
▁Ciwas	-9.5537
▁pork	-9.55374
▁Losing	-9.55374
▁matawwaw	-9.55376
▁peaches	-9.55379
▁cup	-9.55401
▁true	-9.55405
▁imagal	-9.55427
▁sickle	-9.55439
▁Sayon	-9.55451
kayan	-9.55475
▁teeth	-9.55477
▁taller	-9.55537
▁spat	-9.55585
▁scra	-9.5559
▁lawziy	-9.55595
▁tbayi	-9.5561
▁hour	-9.55676
au	-9.55711
▁taro	-9.55831
▁papatasan	-9.55864
▁thing	-9.55935
li	-9.56049
▁taxan	-9.5607
▁longer	-9.56071
▁rock	-9.56117
oth	-9.56149
ery	-9.56321
▁ship	-9.56343
▁pyox	-9.56346
▁mrkyas	-9.56415
▁bawi	-9.56426
▁part	-9.56429
iya	-9.56442
▁mes	-9.56553
yox	-9.56699
▁kinsyo	-9.56752
waw	-9.56754
▁than	-9.56806
▁soki	-9.57139
▁ṟa	-9.57293
▁ava	-9.57311
tong	-9.57339
ice	-9.57368
▁pang	-9.57547
oraw	-9.57734
naw	-9.57819
▁mh	-9.57979
▁dis	-9.58073
▁anak	-9.58127
ball	-9.58306
▁bo	-9.58357
▁ktan	-9.58474
▁hear	-9.58476
yon	-9.58826
lahang	-9.5894
▁G	-9.5919
ole	-9.5921
half	-9.59272
▁war	-9.59414
lingay	-9.6002
▁rawin	-9.60074
mon	-9.60286
▁Se	-9.60659
▁siy	-9.60836
iro	-9.60914
▁mana	-9.61083
limo	-9.61606
apong	-9.61643
▁pabazi	-9.62114
▁books	-9.62166
▁qbso	-9.6221
yal	-9.62311
▁ble	-9.62553
rox	-9.62558
▁mn	-9.62614
igh	-9.62632
boriginal	-9.62858
fi	-9.6289
navakis	-9.62913
▁window	-9.62946
▁nni	-9.63004
▁soon	-9.63061
hoy	-9.63277
hkani	-9.63338
▁mk	-9.63455
lax	-9.63467
we	-9.63513
▁Hakka	-9.63528
▁Salute	-9.63528
▁apologize	-9.63528
▁correct	-9.63528
▁nanabakis	-9.63528
▁pepper	-9.63528
▁pinmohi	-9.63528
▁scythe	-9.63528
▁separate	-9.63528
▁tminon	-9.63528
▁bzir	-9.63528
▁divide	-9.63528
▁everything	-9.63528
▁manbahaag	-9.63528
▁mouth	-9.63528
▁Kayno	-9.63529
▁papasibaq	-9.63529
▁knryax	-9.63529
▁cards	-9.6353
▁peel	-9.63531
▁purp	-9.63531
▁straw	-9.63532
▁nniqon	-9.63532
▁stopped	-9.63533
▁20	-9.63534
▁matanah	-9.63535
▁witox	-9.63536
▁qmayah	-9.63538
▁hurt	-9.63538
▁bloom	-9.63538
▁kinqiyanox	-9.63544
▁another	-9.63544
▁fire	-9.63545
▁cyogal	-9.63554
▁enpit	-9.63557
▁maqaw	-9.6356
▁twist	-9.63562
▁mxal	-9.63564
▁carefully	-9.63565
▁Island	-9.63567
▁maskakaro	-9.63573
▁eki	-9.63579
▁ocyox	-9.63581
▁mlaka	-9.63598
▁feed	-9.63604
▁longan	-9.63604
▁kagaw	-9.63616
▁watan	-9.63632
▁gilong	-9.63634
pair	-9.63641
▁mcisan	-9.63641
▁mwalax	-9.6367
▁mhngaw	-9.63679
▁blay	-9.63688
▁moment	-9.637
▁tominon	-9.63723
▁qba	-9.63725
▁bleed	-9.63777
▁cool	-9.63784
▁claq	-9.63831
▁think	-9.63838
▁sma	-9.6384
prin	-9.63848
▁animals	-9.63947
yard	-9.63984
ted	-9.63985
▁pig	-9.64013
▁ripen	-9.64071
▁ksiyo	-9.64078
zz	-9.64094
▁pain	-9.64145
▁dig	-9.64153
▁lie	-9.64154
▁pati	-9.64173
mayan	-9.64195
▁maga	-9.64418
▁yona	-9.64431
▁aqeh	-9.64585
han	-9.64656
▁maziy	-9.64677
▁raho	-9.64772
▁seeds	-9.64835
▁blow	-9.64842
us	-9.65002
▁includ	-9.6503
▁binah	-9.65063
▁shake	-9.65074
ary	-9.65232
▁qbs	-9.6536
rant	-9.65385
▁ṟaṟolo	-9.65518
niq	-9.65558
▁pieces	-9.65661
iyaw	-9.66058
▁makilox	-9.66106
▁ato	-9.66411
▁qowaw	-9.66504
▁kilox	-9.66689
cer	-9.66853
▁mah	-9.66967
▁ska	-9.67183
50	-9.67253
▁seng	-9.67868
head	-9.67925
king	-9.67935
▁dro	-9.6801
sion	-9.68045
▁vaq	-9.68276
killed	-9.68359
▁di	-9.68565
ead	-9.68574
asa	-9.68608
owa	-9.68703
▁E	-9.69019
▁pat	-9.69453
▁hay	-9.69636
osen	-9.69647
▁bur	-9.70026
▁mat	-9.70058
iyato	-9.70301
▁aray	-9.70363
▁kahon	-9.70399
▁tala	-9.70444
teen	-9.70579
ahok	-9.70612
▁misa	-9.70701
bow	-9.70792
ha	-9.71074
▁pana	-9.7117
▁song	-9.71205
▁crop	-9.71282
▁blo	-9.71366
▁seven	-9.7142
ers	-9.71581
ndigenous	-9.71762
▁tired	-9.71832
abi	-9.71918
▁pagalo	-9.71965
▁cloth	-9.7207
ts	-9.72092
▁kinryax	-9.72116
▁yam	-9.7212
omorrow	-9.7232
et	-9.72322
▁qm	-9.72342
▁potato	-9.72388
8	-9.72418
▁Sunday	-9.72421
▁Taichung	-9.72421
▁beautiful	-9.72421
▁blessing	-9.72421
▁elephant	-9.72421
▁husband	-9.72421
▁jump	-9.72421
▁onrokay	-9.72421
▁refrigerator	-9.72421
▁soccer	-9.72421
▁sugar	-9.72421
▁thunder	-9.72421
▁weapons	-9.72421
▁Taywan	-9.72421
▁mahngow	-9.72422
▁prepare	-9.72422
▁supp	-9.72422
▁blue	-9.72423
▁omongi	-9.72423
▁miyok	-9.72424
▁complete	-9.72425
▁vacation	-9.72426
▁mqbaq	-9.72427
▁fifteen	-9.72429
▁fresh	-9.7243
▁toward	-9.7243
▁steal	-9.72432
▁under	-9.72438
▁ccom	-9.72442
▁itaṟal	-9.72445
▁qasino	-9.72447
▁tatak	-9.72447
▁louder	-9.7245
▁classroom	-9.72454
▁mtiyaw	-9.72456
▁slaq	-9.72462
▁earth	-9.72465
▁mkora	-9.72474
▁hogal	-9.72485
▁asinow	-9.72489
▁pakani	-9.72491
▁organi	-9.72494
▁gawng	-9.72525
eath	-9.72529
▁kinko	-9.72562
▁His	-9.72563
▁garden	-9.72568
▁honey	-9.72592
▁mhto	-9.72641
urse	-9.7265
olong	-9.72681
▁mahanano	-9.727
rget	-9.72723
owaw	-9.72811
▁sobeh	-9.72822
iwan	-9.72833
▁meeting	-9.72853
alax	-9.72869
▁heart	-9.72937
▁origin	-9.72986
▁lose	-9.73001
qosiya	-9.73074
▁may	-9.73087
▁soqon	-9.7309
▁plow	-9.73096
▁students	-9.73269
▁rope	-9.73403
ci	-9.73424
▁kids	-9.73448
wing	-9.73517
▁tyaba	-9.7356
▁kanowan	-9.73564
▁Genzyomin	-9.73581
▁tmalong	-9.73583
yay	-9.73633
arowa	-9.73643
▁texan	-9.73665
▁run	-9.73737
yowaw	-9.7374
row	-9.7401
▁paqas	-9.74069
▁Lawa	-9.74143
▁acce	-9.74159
▁tr	-9.74253
▁haw	-9.74438
▁bad	-9.74557
laqi	-9.75026
▁[	-9.75099
▁fr	-9.75139
▁mago	-9.75239
itaal	-9.75242
▁gua	-9.75285
▁As	-9.75491
▁stick	-9.75728
angaya	-9.7573
▁At	-9.7574
▁change	-9.75754
▁pbazi	-9.76107
▁ramo	-9.76282
▁galon	-9.76418
rayon	-9.76523
▁K	-9.76867
▁papaw	-9.77026
ance	-9.77108
▁mac	-9.77205
sure	-9.77539
alo	-9.77625
ced	-9.77739
lt	-9.77964
sh	-9.77989
▁caka	-9.78049
cket	-9.78113
house	-9.78263
either	-9.78298
tehok	-9.78327
▁kom	-9.78454
say	-9.78537
eq	-9.78555
piyox	-9.78589
▁kid	-9.7863
▁leg	-9.78942
moy	-9.79042
▁table	-9.7907
ine	-9.79114
▁de	-9.79521
ast	-9.79606
glox	-9.79694
▁spi	-9.80142
▁posa	-9.8048
▁hill	-9.80496
kayal	-9.80561
lass	-9.80764
llow	-9.80819
▁gipo	-9.80926
▁continu	-9.80939
▁color	-9.81138
▁snake	-9.81174
▁alan	-9.81254
fr	-9.81571
▁eight	-9.81674
yat	-9.81708
▁se	-9.81721
urd	-9.81734
ture	-9.81992
oba	-9.82052
tate	-9.82086
ouch	-9.82113
bsoyan	-9.82151
▁careful	-9.82154
▁river	-9.82178
▁dark	-9.82183
▁Gipon	-9.82183
▁THSR	-9.82183
▁bump	-9.82183
▁jacket	-9.82183
▁laholaho	-9.82183
▁marriage	-9.82183
▁mosquitoe	-9.82183
▁observe	-9.82183
▁overflow	-9.82183
▁pumpkin	-9.82183
▁village	-9.82183
▁Kagaw	-9.82183
▁coqaang	-9.82183
▁differen	-9.82183
▁kitchen	-9.82183
▁nabakis	-9.82183
▁maloṟak	-9.82183
▁weekend	-9.82183
▁wound	-9.82183
▁2022	-9.82183
▁few	-9.82184
▁Piling	-9.82184
▁kiyokay	-9.82184
▁Nawi	-9.82186
▁various	-9.82186
▁Habaw	-9.82186
▁barn	-9.82186
▁subway	-9.82187
▁fall	-9.82187
▁cabbage	-9.82187
▁urinat	-9.82188
▁handsome	-9.82189
▁Silan	-9.82191
mmer	-9.82196
▁spear	-9.82196
salahaw	-9.82197
▁pyato	-9.82202
▁white	-9.82203
▁flip	-9.82206
▁gominlo	-9.82207
▁split	-9.82209
▁llyong	-9.82213
▁flo	-9.82221
▁throw	-9.82221
▁flower	-9.82227
▁wilong	-9.8223
▁pluck	-9.82253
▁broom	-9.82266
▁gamalo	-9.8227
▁babinar	-9.8227
▁hook	-9.8228
▁cheaper	-9.8229
▁mlngyaq	-9.82294
▁Ku	-9.82302
▁mohngeq	-9.82305
▁snail	-9.82317
▁chili	-9.82324
▁To	-9.82336
▁taxi	-9.82343
▁patos	-9.82345
phone	-9.8235
▁lost	-9.82404
▁seto	-9.82408
▁seat	-9.82409
ress	-9.82426
▁fle	-9.82435
▁N	-9.8244
▁fer	-9.82607
▁mopow	-9.82621
▁stay	-9.82628
hroom	-9.82663
▁tna	-9.8279
▁horses	-9.82798
▁nor	-9.828
▁sore	-9.82807
are	-9.82852
▁burning	-9.8286
▁Ko	-9.8286
▁witchc	-9.82878
▁tyogan	-9.82897
▁sharp	-9.82901
▁rained	-9.83033
▁beans	-9.83229
ied	-9.83236
▁boli	-9.83357
▁qaqasino	-9.83464
▁tabihi	-9.83465
▁fol	-9.83493
▁skinot	-9.83515
▁gabagan	-9.83557
missed	-9.83565
ive	-9.83701
▁appl	-9.83714
sso	-9.83815
▁misow	-9.83819
tch	-9.83935
ug	-9.84017
▁meal	-9.8413
lling	-9.84175
▁ktayox	-9.84237
▁ango	-9.84431
▁rake	-9.84459
yi	-9.84585
ric	-9.84814
▁sitowing	-9.85142
▁nanaq	-9.8519
ier	-9.85305
▁tari	-9.85433
▁pray	-9.85465
▁toqi	-9.85514
blaq	-9.85574
▁magalo	-9.85706
kong	-9.86001
▁mema	-9.86266
lit	-9.86285
ali	-9.86351
ṟi	-9.86464
▁per	-9.86482
▁pqota	-9.86508
▁lip	-9.86513
▁yaho	-9.86603
▁coop	-9.87014
ray	-9.87048
▁sli	-9.87708
nawo	-9.87864
enah	-9.8819
anan	-9.88246
▁sn	-9.88338
▁rahowal	-9.88415
500	-9.88508
omowa	-9.88519
▁olo	-9.8856
▁piray	-9.88574
▁kisli	-9.8871
▁bang	-9.88835
▁owaw	-9.88848
▁qaniq	-9.89077
I	-9.89143
ih	-9.8936
▁angr	-9.89369
▁mqas	-9.89394
▁lives	-9.89422
ust	-9.89477
ilis	-9.89516
koy	-9.89541
▁hop	-9.89541
▁syan	-9.89858
top	-9.89977
noya	-9.90046
▁gong	-9.90224
▁Lo	-9.90241
30	-9.90248
ssed	-9.90276
ever	-9.90414
▁tm	-9.90473
ap	-9.90474
red	-9.90808
abaynay	-9.90853
▁ani	-9.90869
ft	-9.90943
nuts	-9.91115
▁gako	-9.91123
lim	-9.91323
aso	-9.91342
ach	-9.91461
▁kato	-9.91776
ade	-9.9178
▁spo	-9.91878
▁twi	-9.91882
rwa	-9.91899
▁lay	-9.91908
▁minute	-9.91974
▁maka	-9.91979
▁student	-9.91979
anox	-9.91982
▁field	-9.91986
▁bean	-9.9208
ure	-9.9225
pox	-9.92266
▁minsa	-9.92275
sawbih	-9.92515
▁mus	-9.92857
oyok	-9.92955
gra	-9.92962
▁Buyung	-9.93001
▁backpack	-9.93001
▁croquet	-9.93001
▁discount	-9.93001
▁gagaṟox	-9.93001
▁kinamlapgan	-9.93001
▁occasion	-9.93001
▁photograph	-9.93001
▁Bnka	-9.93002
▁mtalah	-9.93002
▁playground	-9.93002
▁cross	-9.93002
▁dancing	-9.93002
▁hung	-9.93002
▁mswat	-9.93002
▁girl	-9.93002
▁kgabi	-9.93002
▁knew	-9.93002
▁Lesa	-9.93003
▁paqoca	-9.93004
▁present	-9.93004
▁piyit	-9.93004
▁kwani	-9.93004
▁middle	-9.93004
▁spouse	-9.93005
▁Boyong	-9.93005
▁hlawax	-9.93005
▁osayng	-9.93009
▁Yabung	-9.93009
▁cherry	-9.9301
▁sleeve	-9.9301
▁Yabong	-9.9301
▁binong	-9.93011
▁paroxaw	-9.93012
▁qqsinow	-9.93015
ulation	-9.93016
▁mahikang	-9.93017
▁bright	-9.93018
▁mabatoan	-9.93023
▁qoleh	-9.93025
▁rainbow	-9.93028
▁frog	-9.93035
▁khoniq	-9.93037
▁boat	-9.93041
▁mistaken	-9.93044
▁squa	-9.9305
▁week	-9.93051
▁price	-9.93052
▁filt	-9.9306
▁mspong	-9.93067
▁syam	-9.93067
▁stone	-9.93076
▁cmi	-9.93076
▁qwaw	-9.93078
▁atayan	-9.93079
▁kinblaq	-9.93081
▁ktwa	-9.93087
▁customs	-9.93092
▁sbiq	-9.93098
▁plum	-9.93106
▁fat	-9.93117
▁mtisan	-9.93119
▁mawalax	-9.93136
▁bend	-9.9314
▁pour	-9.93143
▁kamaso	-9.93157
▁mposal	-9.93167
▁knsyo	-9.93188
ache	-9.93191
▁agree	-9.93232
▁latanox	-9.93246
▁jo	-9.93257
▁Yoma	-9.93266
intana	-9.93337
▁cikoy	-9.93363
▁ice	-9.93367
▁cabo	-9.93377
inox	-9.93393
▁cn	-9.93456
ool	-9.93471
▁tele	-9.93528
▁forest	-9.93535
▁kki	-9.93564
▁six	-9.93573
arrow	-9.9364
▁aunt	-9.93645
wheat	-9.93681
▁missing	-9.9372
now	-9.93723
▁cika	-9.93797
▁mkan	-9.93801
▁nanavakis	-9.93835
▁sometimes	-9.9389
▁trakis	-9.94051
ally	-9.94053
▁gen	-9.94067
hiy	-9.94151
▁un	-9.94336
tter	-9.94373
▁pata	-9.94402
▁rhzyal	-9.94431
▁pcyowagon	-9.94461
▁lawwiy	-9.94492
▁bowax	-9.94495
▁salon	-9.94572
▁onion	-9.94657
baynay	-9.94777
▁li	-9.94819
lyan	-9.95046
▁qaniy	-9.9509
▁ago	-9.95532
ktayox	-9.95595
▁See	-9.95611
icy	-9.95904
elev	-9.96108
▁gaben	-9.96267
cyo	-9.96312
▁qbhniq	-9.96325
▁gleng	-9.9633
▁lpyong	-9.96341
ick	-9.96352
▁rosa	-9.96689
▁masa	-9.96726
▁able	-9.9687
mayi	-9.96871
ter	-9.97081
▁ninet	-9.97223
ji	-9.97275
▁packs	-9.97447
siya	-9.97518
oṟit	-9.97579
▁$5	-9.97808
▁vo	-9.97834
▁ksyogi	-9.97864
kan	-9.98049
▁qthoy	-9.98252
▁grandfather	-9.98265
▁yanga	-9.98378
sbing	-9.98534
eyon	-9.98691
▁bee	-9.98726
▁pant	-9.98728
qua	-9.98749
or	-9.98763
▁ksiyox	-9.98882
ty	-9.98977
bay	-9.9914
xo	-9.99213
▁pre	-9.99248
ras	-9.99264
oto	-9.99386
▁pl	-9.99561
▁50	-9.99698
▁tiya	-9.99728
▁Payan	-9.99747
sk	-9.99931
ant	-9.99998
▁pla	-10.0017
bil	-10.002
▁sour	-10.0037
ning	-10.0037
▁maqas	-10.0052
ther	-10.0056
te	-10.0066
▁30	-10.0083
▁somi	-10.0083
isin	-10.0094
yako	-10.0109
▁bat	-10.0111
▁bes	-10.0119
▁papa	-10.0131
zinah	-10.014
▁hair	-10.0151
valay	-10.0165
▁Tr	-10.0206
▁stor	-10.0214
niqan	-10.0237
hing	-10.024
ami	-10.0256
▁bet	-10.0267
▁pala	-10.0273
▁pq	-10.0281
▁age	-10.0283
the	-10.0284
abo	-10.029
▁mit	-10.0291
▁kgi	-10.0312
▁Ri	-10.0333
imo	-10.0335
pon	-10.0335
maga	-10.0341
▁km	-10.0341
▁Si	-10.0351
2	-10.0358
▁show	-10.0378
▁qbsoya	-10.0403
dle	-10.0404
▁squirrel	-10.0406
tayal	-10.0406
light	-10.0414
Let	-10.042
▁gun	-10.0426
age	-10.0439
▁bran	-10.0447
▁kasiyok	-10.0452
▁yata	-10.0472
hlan	-10.0485
▁aboriginal	-10.051
▁mb	-10.0511
▁Skikon	-10.0513
▁Takun	-10.0513
▁across	-10.0513
▁announce	-10.0513
▁certain	-10.0513
▁community	-10.0513
▁direct	-10.0513
▁karirex	-10.0513
▁malahngan	-10.0513
▁mamaspat	-10.0513
▁momaṟah	-10.0513
▁pheasant	-10.0513
▁reconciliation	-10.0513
▁shrimp	-10.0513
▁happen	-10.0513
▁kehma	-10.0513
▁nabkis	-10.0513
▁qsahoy	-10.0513
▁Binay	-10.0513
▁Pihaw	-10.0513
▁Yencomin	-10.0513
▁Tapas	-10.0513
▁Walis	-10.0513
▁carrot	-10.0513
▁tamayray	-10.0513
▁qaraqarax	-10.0513
▁Lawpan	-10.0513
▁kmiyak	-10.0513
▁Baay	-10.0514
▁hminas	-10.0514
▁vomit	-10.0514
▁koncik	-10.0514
▁flood	-10.0514
▁Kagi	-10.0514
▁yapit	-10.0514
▁wipe	-10.0514
▁woman	-10.0514
▁qhoniq	-10.0514
▁yaca	-10.0514
▁Apiy	-10.0514
▁country	-10.0514
▁kincik	-10.0514
▁akya	-10.0515
▁tehoq	-10.0515
▁taqaro	-10.0515
▁sheep	-10.0515
▁yolah	-10.0515
▁binro	-10.0516
▁somko	-10.0516
▁belly	-10.0516
▁fine	-10.0517
▁horn	-10.0517
▁waylong	-10.0518
▁loṟi	-10.0519
▁mrosa	-10.052
▁since	-10.052
▁matisal	-10.0521
▁pqwalax	-10.0521
▁knee	-10.0522
▁Toli	-10.0524
▁ptnaq	-10.0525
▁Wilang	-10.0525
▁bbiro	-10.0526
▁store	-10.0527
▁weave	-10.0527
▁sbehoy	-10.0528
▁sobih	-10.0529
father	-10.0529
▁compan	-10.053
▁matayox	-10.0531
scree	-10.0532
▁helax	-10.0534
▁suck	-10.0535
▁ptyawon	-10.0538
▁oil	-10.0538
▁ene	-10.0539
iyo	-10.0541
▁bread	-10.0541
clock	-10.0544
▁nwahan	-10.0546
oway	-10.0547
lahoy	-10.0549
avat	-10.0551
▁imi	-10.0552
▁mposan	-10.0559
ahahiya	-10.0563
▁biqan	-10.0563
▁Takon	-10.0564
klokah	-10.0565
▁touch	-10.0568
▁mabaziy	-10.057
poto	-10.0571
▁Ingaw	-10.0579
ngho	-10.0585
▁welong	-10.0586
▁cooking	-10.059
▁Maya	-10.0597
izya	-10.061
▁Min	-10.061
▁siyon	-10.0611
▁mnaga	-10.0613
▁kmot	-10.0616
▁matol	-10.062
▁omolax	-10.0636
▁mbaziy	-10.0636
▁mspat	-10.0645
▁lived	-10.0649
▁writ	-10.0652
bison	-10.0658
▁mtama	-10.066
▁V	-10.0669
wax	-10.0669
▁continue	-10.0672
▁sting	-10.0675
▁alon	-10.0675
▁search	-10.0676
▁spzyang	-10.0676
fully	-10.0684
▁pasibaq	-10.0685
▁tay	-10.0695
▁hav	-10.07
▁pinka	-10.0701
wagiq	-10.0706
lang	-10.0717
bo	-10.0723
▁pra	-10.0724
▁vi	-10.0743
melo	-10.0785
ored	-10.0786
▁grandchild	-10.0788
▁smo	-10.0795
▁fac	-10.0814
bra	-10.0824
▁Nan	-10.084
self	-10.0857
▁iyal	-10.0873
mocing	-10.0873
▁cultures	-10.0895
▁babawi	-10.0897
pin	-10.0908
▁hari	-10.0909
▁sipa	-10.0913
▁mahato	-10.0918
▁noon	-10.0924
nabo	-10.0938
▁sala	-10.0945
▁mine	-10.0959
hriq	-10.0966
noxan	-10.0983
▁wahi	-10.0988
▁arrive	-10.1009
eh	-10.1015
▁glo	-10.1015
▁mso	-10.1022
acka	-10.1031
ash	-10.1044
ef	-10.105
▁pkita	-10.1073
nalo	-10.1116
▁qwalax	-10.1125
▁ri	-10.1162
▁tara	-10.1169
ard	-10.1177
ino	-10.1203
wag	-10.1204
mbo	-10.1227
▁qoro	-10.1266
▁sino	-10.127
zya	-10.1279
▁non	-10.1288
vak	-10.1294
▁oma	-10.1312
▁yawa	-10.1324
rab	-10.1339
baga	-10.134
▁ara	-10.1363
lok	-10.1369
ssion	-10.1372
lgan	-10.138
▁squ	-10.1386
amol	-10.1389
tayox	-10.1389
▁nine	-10.1409
▁Mo	-10.1414
alk	-10.1432
▁hoe	-10.1434
bong	-10.1434
▁sin	-10.1436
▁arm	-10.1444
kay	-10.1461
hngaw	-10.1468
▁sokan	-10.1507
rge	-10.1518
▁tb	-10.1524
▁ongi	-10.1561
▁break	-10.1567
oq	-10.16
▁mahi	-10.162
▁com	-10.1645
▁babinas	-10.1648
lnga	-10.1652
▁app	-10.166
qo	-10.1676
ver	-10.1691
hom	-10.1703
▁paq	-10.1712
▁ami	-10.1718
▁lata	-10.1734
▁star	-10.1747
▁swe	-10.1747
▁sw	-10.1782
produc	-10.1796
▁sometime	-10.1797
hong	-10.18
▁cho	-10.181
▁guy	-10.1811
sgagay	-10.1868
ight	-10.1869
▁maqo	-10.1871
▁ten	-10.1873
▁pacac	-10.1885
▁valay	-10.1885
,"	-10.1886
▁Pasan	-10.1888
owal	-10.1888
▁U	-10.1889
ecause	-10.1889
tional	-10.189
unt	-10.1892
▁begin	-10.1894
▁select	-10.1894
uddenly	-10.1894
▁Mabatuan	-10.1894
▁aborigine	-10.1894
▁centimeters	-10.1894
▁charcoal	-10.1894
▁heavily	-10.1894
▁heavy	-10.1894
▁married	-10.1894
▁mortar	-10.1894
▁pencil	-10.1894
▁pqalop	-10.1894
▁qmalop	-10.1894
▁respond	-10.1894
▁sraral	-10.1894
▁zmongi	-10.1894
▁Rail	-10.1894
▁bnheci	-10.1894
▁breast	-10.1894
▁qeqaya	-10.1894
▁Pisoy	-10.1894
▁stirr	-10.1894
▁adv	-10.1894
▁hawsowa	-10.1894
▁pnep	-10.1894
stair	-10.1894
▁Before	-10.1894
▁nerin	-10.1894
▁question	-10.1894
▁hanoan	-10.1894
▁organs	-10.1894
▁tabakoy	-10.1894
▁tmoting	-10.1894
▁blind	-10.1895
▁body	-10.1895
▁kolaboy	-10.1895
▁biyok	-10.1895
▁knita	-10.1895
▁qomalowaap	-10.1895
▁pinatas	-10.1895
▁Thai	-10.1895
▁Pingp	-10.1895
▁komloh	-10.1895
▁giqas	-10.1895
▁Koras	-10.1895
▁Taycong	-10.1895
▁tmahok	-10.1895
▁sixty	-10.1895
▁kariariax	-10.1895
▁konṟak	-10.1895
▁repeat	-10.1896
▁capang	-10.1896
▁rehay	-10.1896
▁glad	-10.1896
▁Utox	-10.1896
▁biyak	-10.1896
▁psaniq	-10.1897
▁mhngan	-10.1897
▁Takaw	-10.1897
▁term	-10.1898
▁mngongo	-10.1898
▁pspong	-10.1898
▁mahnok	-10.1899
▁join	-10.1899
▁blihon	-10.1899
▁deep	-10.19
lung	-10.19
▁owl	-10.19
▁rema	-10.19
▁torn	-10.1901
nlamo	-10.1901
▁bloko	-10.1902
▁qlyan	-10.1902
▁rmaw	-10.1902
▁kawte	-10.1903
▁Ali	-10.1903
▁cmong	-10.1904
▁reach	-10.1904
▁cucumber	-10.1904
▁push	-10.1904
▁draw	-10.1905
▁ihi	-10.1905
▁patayhok	-10.1906
▁beasts	-10.1906
▁post	-10.1907
turn	-10.1912
▁lqo	-10.1913
▁moxal	-10.1913
▁hide	-10.1913
▁waste	-10.1914
elieve	-10.1914
▁spill	-10.1915
▁wok	-10.1916
▁rin	-10.1918
▁thoy	-10.1918
▁mpito	-10.1919
▁mlawa	-10.1922
▁thought	-10.1923
oiled	-10.1924
▁polit	-10.1924
▁lid	-10.1924
▁kabang	-10.1926
gener	-10.1927
▁alone	-10.1929
leave	-10.193
▁pptzyo	-10.193
▁kopo	-10.1931
▁kinsat	-10.1936
▁saniq	-10.1937
▁pile	-10.1937
otoan	-10.1943
▁maqot	-10.1947
▁gone	-10.195
▁lotox	-10.1951
▁mcwa	-10.1963
shine	-10.1968
lokah	-10.197
▁count	-10.1971
▁hogan	-10.1975
band	-10.1977
tance	-10.198
Hu	-10.1981
▁sound	-10.1983
tment	-10.199
▁hunted	-10.1992
ient	-10.1993
▁siyaw	-10.1997
▁rasa	-10.2
time	-10.2
▁guys	-10.2
window	-10.2004
ripe	-10.2007
tayhok	-10.2012
\	-10.2013
tired	-10.2015
weight	-10.2016
piece	-10.2016
bird	-10.2017
▁bra	-10.2017
like	-10.202
kisi	-10.2026
M	-10.2027
bonga	-10.2044
▁kokoy	-10.2047
▁colors	-10.2047
▁sawkan	-10.2049
wo	-10.205
zy	-10.2052
▁kabalay	-10.2055
▁kating	-10.2057
▁sevent	-10.2074
▁kabahneq	-10.2077
▁sbil	-10.2078
▁pawalax	-10.2082
labo	-10.2086
It	-10.2086
ssom	-10.2088
rest	-10.2102
▁rinse	-10.2106
▁zyoaw	-10.2107
▁mq	-10.2115
▁ingasog	-10.2115
where	-10.2116
▁tu	-10.212
pot	-10.2122
▁gomlow	-10.2128
pt	-10.2142
▁lake	-10.2147
bee	-10.2153
iso	-10.2157
▁qaba	-10.2158
bos	-10.216
▁atta	-10.2161
xili	-10.218
rown	-10.2185
txan	-10.2187
nest	-10.2202
▁qme	-10.2212
iliq	-10.2214
vaqon	-10.2231
▁bl	-10.2232
▁sang	-10.2241
walax	-10.2241
▁ex	-10.2247
▁abax	-10.226
kbaga	-10.2263
len	-10.2264
▁lama	-10.2273
▁Sa	-10.2276
rary	-10.2292
▁bhol	-10.2303
lon	-10.2322
rror	-10.2326
▁skoyo	-10.2328
▁skoy	-10.233
pito	-10.2338
].	-10.2338
▁soya	-10.2351
mangay	-10.2365
oci	-10.2382
▁matisa	-10.2385
▁pay	-10.2389
▁lmo	-10.2395
hut	-10.2398
▁sqon	-10.24
loh	-10.241
akakilox	-10.241
▁cyoxan	-10.2412
▁lalaw	-10.242
saw	-10.2423
asi	-10.2431
ngiy	-10.245
ngyan	-10.2455
▁F	-10.2459
▁tapanga	-10.246
▁sow	-10.248
que	-10.2482
▁sorow	-10.2496
▁z	-10.2496
ik	-10.2503
▁mag	-10.2515
uck	-10.2523
ison	-10.2534
xa	-10.2545
tive	-10.2546
ahol	-10.2558
▁nohi	-10.2564
pyang	-10.2566
▁swal	-10.2575
gal	-10.2597
aving	-10.2597
▁kaxa	-10.2604
▁da	-10.2611
D	-10.2619
▁laro	-10.2621
talk	-10.2633
ee	-10.2639
bon	-10.2647
▁paga	-10.2651
press	-10.2668
rawl	-10.2704
lawa	-10.274
ount	-10.2741
eces	-10.2753
▁pisc	-10.28
▁3	-10.2801
yaqo	-10.2808
▁naka	-10.2808
▁mp	-10.2815
▁pintzyo	-10.2825
▁ben	-10.2836
▁$2	-10.2838
ation	-10.2845
tay	-10.2848
rit	-10.2859
by	-10.2886
▁pasi	-10.2898
raho	-10.2909
▁sto	-10.2925
▁mayma	-10.2954
hani	-10.296
▁pakacik	-10.2976
along	-10.2979
ibing	-10.2985
ous	-10.2987
pow	-10.2992
binar	-10.2998
]	-10.3
cad	-10.3001
▁kami	-10.3011
sasoway	-10.3013
▁cy	-10.3029
▁aba	-10.3034
ily	-10.3057
▁che	-10.3058
▁hiyan	-10.3062
lwan	-10.3064
oboy	-10.3064
▁inclu	-10.3065
▁kahol	-10.3066
▁yes	-10.3097
san	-10.3123
ping	-10.3126
cing	-10.3132
▁byo	-10.3137
panga	-10.316
cwa	-10.3164
ngo	-10.3167
ṟak	-10.3175
▁ssaw	-10.3186
▁earl	-10.319
und	-10.3198
▁Law	-10.3212
▁pr	-10.3213
▁koya	-10.3214
od	-10.3218
▁bab	-10.3224
▁waha	-10.3243
▁mohi	-10.328
▁tlam	-10.3288
▁tbes	-10.3292
set	-10.3297
▁pasibaqa	-10.3308
▁pniq	-10.3309
▁hako	-10.3311
▁kaka	-10.3316
▁masi	-10.3329
iri	-10.3338
▁lon	-10.3339
▁maci	-10.3347
▁toba	-10.3349
sed	-10.338
▁horse	-10.3394
▁sibling	-10.3396
ney	-10.3397
▁lawa	-10.3408
▁uni	-10.3415
▁gali	-10.3416
▁dra	-10.3436
▁raw	-10.3442
▁mbazi	-10.3445
▁lawzi	-10.3445
▁howa	-10.3448
▁stud	-10.3448
ible	-10.345
▁ragi	-10.3459
inlan	-10.3462
▁ptbes	-10.3467
itor	-10.3468
▁cave	-10.3471
St	-10.3473
weet	-10.3474
▁pleas	-10.3478
eoples	-10.3479
arra	-10.3482
ppy	-10.3492
lpy	-10.3495
9	-10.3496
▁butterfl	-10.3497
▁dragonfl	-10.3497
▁Bunun	-10.3497
▁fabric	-10.3497
▁leaf	-10.3497
▁lmngyaq	-10.3497
▁maskakiy	-10.3497
▁mktlyong	-10.3497
▁pinateq	-10.3497
▁princip	-10.3497
▁xowil	-10.3497
▁Pokaw	-10.3497
▁byacing	-10.3497
▁mxayan	-10.3497
▁qsliq	-10.3497
▁Piyu	-10.3497
▁Yuma	-10.3497
▁bawwak	-10.3497
▁entire	-10.3497
▁hamkani	-10.3497
▁qmayat	-10.3497
▁bark	-10.3497
▁knives	-10.3497
▁thresh	-10.3497
worm	-10.3497
▁pestle	-10.3497
▁haponeq	-10.3497
▁taṟasi	-10.3497
▁pincapng	-10.3497
▁Hori	-10.3497
▁paqowalax	-10.3497
ncle	-10.3497
▁flu	-10.3497
▁tongue	-10.3497
▁Troko	-10.3497
▁hikoki	-10.3497
▁cyeyon	-10.3497
▁kabahn	-10.3497
▁rramat	-10.3498
98	-10.3498
▁Pukaw	-10.3498
▁abora	-10.3498
▁wakil	-10.3498
▁blood	-10.3498
▁Pisuy	-10.3498
▁kahaba	-10.3498
▁asikinaga	-10.3498
▁Uma	-10.3498
▁photo	-10.3498
▁Yaway	-10.3498
▁indica	-10.3498
▁finger	-10.3498
▁bzyok	-10.3499
itali	-10.3499
▁qmoyit	-10.3499
fini	-10.3499
▁Bagan	-10.3499
▁above	-10.3499
▁maṟoy	-10.3499
▁bkis	-10.35
▁minxal	-10.35
▁pinnah	-10.35
▁Kacaw	-10.35
▁qaliyan	-10.35
▁mhcwa	-10.35
▁mgnaw	-10.35
▁pakaka	-10.35
▁kinramasan	-10.3501
▁smoke	-10.3501
▁wawwaw	-10.3501
stain	-10.3501
▁meaning	-10.3502
▁Lanyo	-10.3502
rious	-10.3502
▁yayowaw	-10.3502
▁zmagal	-10.3503
irst	-10.3503
▁buck	-10.3503
▁order	-10.3504
unch	-10.3504
▁comapoh	-10.3504
▁dish	-10.3505
▁aim	-10.3506
▁Piyo	-10.3506
▁apology	-10.3506
▁maymal	-10.3506
▁malokos	-10.3507
▁maqowas	-10.3508
▁kbaqi	-10.3508
▁started	-10.3508
▁ktalan	-10.3509
▁masina	-10.3509
endar	-10.3509
posal	-10.351
▁maho	-10.351
▁qbaqon	-10.351
▁pcbaq	-10.351
▁regi	-10.3511
▁gaghap	-10.3511
▁mlokos	-10.3511
▁fift	-10.3511
▁Bonon	-10.3512
gak	-10.3512
▁num	-10.3512
▁maqiyanox	-10.3512
▁naqaron	-10.3512
ories	-10.3513
▁potot	-10.3515
▁tl	-10.3515
▁yaqih	-10.3515
▁cbing	-10.3516
▁kipo	-10.3516
▁pakaba	-10.3517
bye	-10.3517
▁Was	-10.3518
▁mrhow	-10.3518
▁loling	-10.3519
▁cbalay	-10.3519
▁Fr	-10.3519
▁better	-10.3522
▁tayox	-10.3525
dance	-10.3527
tumble	-10.3527
mahon	-10.3528
▁pahapoy	-10.3528
▁knxan	-10.3531
▁patgi	-10.3532
▁mhen	-10.3535
▁cyonga	-10.3538
▁poting	-10.3539
▁swali	-10.3539
▁histor	-10.3542
▁Ulay	-10.3542
hawni	-10.3543
▁Be	-10.3543
bowiy	-10.3544
▁mix	-10.3545
▁owner	-10.3547
▁tatama	-10.3549
▁tbaziy	-10.3549
ical	-10.3551
arch	-10.3562
▁chase	-10.3562
▁peach	-10.3564
▁thway	-10.3567
nous	-10.3567
req	-10.3567
▁pic	-10.3567
▁ciyal	-10.3567
▁pot	-10.3572
▁pari	-10.3573
▁qowis	-10.3573
▁bayho	-10.3573
▁loki	-10.3574
▁God	-10.3574
rank	-10.3575
▁kanon	-10.3576
▁tlnga	-10.3582
▁threads	-10.3585
oin	-10.3586
luti	-10.359
▁kr	-10.3591
▁nanan	-10.3595
mxo	-10.3598
▁pagay	-10.3598
▁farm	-10.3599
▁bear	-10.36
▁soup	-10.36
cond	-10.3602
vern	-10.3602
emb	-10.3603
▁tahk	-10.3603
vice	-10.3606
▁miq	-10.361
▁tur	-10.361
ieve	-10.3615
▁L	-10.3617
▁below	-10.3618
▁tire	-10.3626
▁beat	-10.3628
▁baying	-10.363
▁stro	-10.3633
▁wala	-10.3634
▁guns	-10.364
▁aboriginals	-10.3641
qaso	-10.3646
▁cre	-10.3648
▁inten	-10.3649
rease	-10.365
▁sth	-10.3657
▁motong	-10.3661
▁rat	-10.3665
▁ciri	-10.367
boq	-10.3675
tures	-10.3677
▁haniy	-10.3681
tely	-10.3682
▁mava	-10.3697
lant	-10.37
▁syasing	-10.3702
▁mill	-10.3706
▁pakahto	-10.3711
▁thoway	-10.3711
▁behoṟ	-10.3713
▁llamo	-10.3716
ist	-10.3717
▁moxaal	-10.3717
▁yotak	-10.3718
▁Sinsiy	-10.3719
▁maṟok	-10.3721
hko	-10.3721
▁imoag	-10.3729
toli	-10.3739
▁mid	-10.3751
yak	-10.3757
▁sur	-10.376
bgan	-10.377
▁kowi	-10.3789
▁qwas	-10.3797
qaat	-10.3798
up	-10.3804
use	-10.3805
▁royox	-10.3807
▁torakis	-10.3809
kaṟal	-10.3811
▁sawn	-10.3817
sakinot	-10.3825
syang	-10.3828
▁inst	-10.3828
dow	-10.3838
▁sba	-10.3839
▁conven	-10.385
▁obo	-10.3856
hzyaq	-10.3865
aho	-10.3867
ating	-10.3873
lata	-10.3877
▁mho	-10.388
▁pan	-10.3893
▁patawa	-10.3894
break	-10.3895
longon	-10.3896
10	-10.3906
ula	-10.3907
ini	-10.391
eed	-10.3919
▁cell	-10.3926
▁bah	-10.3927
Genzyominzok	-10.3927
land	-10.3928
from	-10.3928
▁tw	-10.3929
work	-10.3931
▁rip	-10.3934
stag	-10.3941
baqan	-10.3944
omah	-10.3945
okas	-10.3945
cold	-10.3947
▁tmang	-10.3959
hill	-10.3963
ongra	-10.3965
year	-10.3966
▁hmo	-10.3996
vaq	-10.3997
some	-10.4002
▁papas	-10.4024
▁nisan	-10.4025
▁sbo	-10.4032
▁toliq	-10.4053
owax	-10.406
▁pakaciki	-10.406
cisan	-10.4067
depend	-10.4081
T	-10.4111
▁cop	-10.4142
▁topanga	-10.4144
▁roq	-10.4144
ilk	-10.4159
▁sina	-10.417
hair	-10.4175
leg	-10.4177
▁sk	-10.4178
▁toke	-10.4179
▁mamat	-10.4184
has	-10.4206
pet	-10.4217
elve	-10.4222
▁wayay	-10.4245
ringan	-10.4247
mpit	-10.4257
wak	-10.4277
hmoq	-10.4286
▁100	-10.4294
▁pito	-10.4297
haw	-10.4313
▁tmasoq	-10.4321
▁dre	-10.4325
thil	-10.4349
nbaba	-10.4367
▁gabiyan	-10.437
▁ksyox	-10.4376
nsat	-10.439
vaynay	-10.4408
longan	-10.4417
ilang	-10.4418
▁qom	-10.4424
ju	-10.4431
▁ksyog	-10.4434
ran	-10.4441
▁bala	-10.4442
non	-10.4449
yams	-10.4449
lox	-10.446
▁qn	-10.447
qa	-10.4477
▁sho	-10.4488
qon	-10.4497
▁psbaq	-10.4498
▁ksyoxa	-10.4515
hose	-10.4518
▁hma	-10.4526
ton	-10.4529
▁por	-10.4544
kari	-10.4567
▁awsa	-10.4579
nail	-10.4596
ocati	-10.46
▁cap	-10.4604
▁banan	-10.4605
▁babing	-10.4615
▁manu	-10.4617
▁caci	-10.4627
▁som	-10.463
▁soro	-10.4631
▁pksyog	-10.4632
▁qaq	-10.4632
kes	-10.4639
eb	-10.4644
▁smwa	-10.4648
ṟ	-10.4667
olaqi	-10.4689
▁msli	-10.4703
▁cmo	-10.4704
xe	-10.4717
▁lin	-10.4727
bol	-10.4736
▁soak	-10.4742
▁tapang	-10.4748
▁depend	-10.4756
▁zng	-10.4757
mash	-10.4777
▁rul	-10.4783
towa	-10.4796
kba	-10.4825
▁komo	-10.4828
sted	-10.4839
naniq	-10.4851
▁kacik	-10.4875
nur	-10.4878
mpor	-10.4893
▁tnaq	-10.4894
▁tato	-10.4907
cyan	-10.4907
sli	-10.491
▁mwa	-10.4917
oti	-10.4938
pak	-10.4947
▁maṟa	-10.4977
wanan	-10.4989
▁matasa	-10.4989
▁habi	-10.499
omok	-10.499
▁spa	-10.5007
nglong	-10.5013
hay	-10.5014
how	-10.5025
▁tai	-10.5035
▁even	-10.5035
▁mapo	-10.5044
▁lela	-10.5046
tan	-10.5086
iyong	-10.5115
rhow	-10.5155
▁expe	-10.5156
ence	-10.5156
▁mngi	-10.5178
▁cu	-10.5178
siyan	-10.5181
▁plu	-10.5183
▁Ta	-10.5195
▁sci	-10.5206
box	-10.5231
Hi	-10.5241
▁tanah	-10.525
sins	-10.5259
▁masiya	-10.528
▁kto	-10.53
▁animal	-10.5303
moko	-10.5317
▁thread	-10.5325
▁va	-10.5332
▁syoga	-10.5335
▁hngaw	-10.5341
▁Sh	-10.5345
▁mingi	-10.5345
▁walax	-10.5351
▁Ula	-10.5355
▁thirt	-10.5359
▁tomino	-10.5359
hnyan	-10.536
▁top	-10.536
ssor	-10.5365
▁mima	-10.5375
ohngeq	-10.5381
mperatives	-10.5381
ocks	-10.5383
baba	-10.5384
pah	-10.5389
▁fee	-10.5389
tac	-10.5392
▁exam	-10.5393
rib	-10.5395
rents	-10.5398
easi	-10.5401
▁panca	-10.5403
umb	-10.5404
▁knowledge	-10.5405
▁Hokkien	-10.5406
▁Sapu	-10.5406
▁Tabilas	-10.5406
▁Tuyaw	-10.5406
▁bundle	-10.5406
▁ibabaweq	-10.5406
▁katohoṟ	-10.5406
▁kinhayow	-10.5406
▁kperay	-10.5406
▁loliyong	-10.5406
▁phgop	-10.5406
▁romakaap	-10.5406
▁sprout	-10.5406
▁sufficient	-10.5406
▁imowaag	-10.5406
▁kozih	-10.5406
▁pahngow	-10.5406
▁tpihon	-10.5406
▁attract	-10.5406
▁measure	-10.5406
▁mzimal	-10.5406
▁nbkis	-10.5406
▁Yupas	-10.5406
▁maqilaap	-10.5406
▁thiyaq	-10.5406
▁sasiliyat	-10.5406
▁customers	-10.5406
▁kthoy	-10.5406
▁insect	-10.5406
▁tomalang	-10.5406
ficient	-10.5406
▁qomowalax	-10.5406
treatment	-10.5406
▁hoṟil	-10.5406
▁lawpan	-10.5406
▁matatalang	-10.5406
eneng	-10.5406
▁somvo	-10.5406
▁Tahos	-10.5406
▁Sapo	-10.5406
▁tomahok	-10.5406
▁Tasaw	-10.5406
▁kitho	-10.5406
▁bengah	-10.5407
▁decide	-10.5407
▁smyok	-10.5407
▁mapgan	-10.5407
alowaap	-10.5407
▁hawngo	-10.5407
▁tomoting	-10.5407
▁tintin	-10.5407
▁beginning	-10.5407
▁gmola	-10.5407
▁qominowa	-10.5407
▁sikaal	-10.5407
▁ṟik	-10.5407
▁sapaat	-10.5407
▁bucket	-10.5407
▁reduce	-10.5407
▁knowledgeable	-10.5407
▁pocing	-10.5407
▁rapal	-10.5407
▁represent	-10.5407
▁kololaka	-10.5408
▁chesa	-10.5408
▁lmpow	-10.5408
▁gmalo	-10.5408
▁kmzyap	-10.5408
▁paṟat	-10.5408
▁Pyahaw	-10.5408
▁hzing	-10.5408
▁date	-10.5408
▁sinbwan	-10.5408
▁Toyaw	-10.5408
▁hoyin	-10.5409
▁hmakay	-10.5409
▁bbway	-10.5409
▁Amo	-10.541
▁kinbsyaq	-10.541
inqiyan	-10.541
▁maktaliyom	-10.541
▁hozil	-10.5411
▁baṟing	-10.5411
▁mbinah	-10.5411
▁ver	-10.5411
▁mhekang	-10.5412
▁broko	-10.5412
▁bir	-10.5412
opang	-10.5412
▁sosok	-10.5412
emble	-10.5412
▁fast	-10.5413
▁saca	-10.5413
▁mtna	-10.5413
▁kmyot	-10.5413
atula	-10.5414
epeat	-10.5414
▁Kumu	-10.5415
cco	-10.5415
▁Amuy	-10.5415
▁rme	-10.5416
▁loud	-10.5416
▁pnelo	-10.5417
▁carrie	-10.5417
agle	-10.5418
▁mhtox	-10.5418
▁sarali	-10.5418
▁kb	-10.5418
stock	-10.5418
▁plokos	-10.5418
▁ptyaw	-10.5419
cious	-10.5419
▁smato	-10.5419
▁macacpong	-10.5419
▁ground	-10.5419
kasyok	-10.5419
▁yoyok	-10.542
▁mzwi	-10.5421
▁justice	-10.5422
▁kinbalay	-10.5423
▁sonbale	-10.5425
▁hongo	-10.5425
▁thozy	-10.5426
▁decided	-10.5426
▁agow	-10.5427
▁mkhani	-10.5427
▁msina	-10.5428
▁cokaw	-10.5429
uce	-10.5429
sogagay	-10.543
▁mapanga	-10.5431
▁meloh	-10.5433
▁weigh	-10.5434
▁syax	-10.5434
▁kita	-10.5436
▁kahavag	-10.5436
▁inowahan	-10.5437
building	-10.5437
lngaw	-10.5437
▁fur	-10.5437
ncin	-10.5438
▁mhtow	-10.544
▁heci	-10.5446
tring	-10.5451
▁mbes	-10.5452
▁Komo	-10.5453
▁swalan	-10.5456
▁ptbesan	-10.5457
▁shoe	-10.5458
ester	-10.5458
lhon	-10.5459
▁nki	-10.5464
bale	-10.5464
pea	-10.5465
kalox	-10.5465
fter	-10.5468
▁mhkani	-10.547
alf	-10.5473
▁kacing	-10.5473
zed	-10.5476
ikon	-10.5477
igi	-10.5477
▁lowan	-10.5479
rien	-10.548
▁cin	-10.5481
▁skayan	-10.5483
▁sgalan	-10.5484
▁maqi	-10.5486
fty	-10.5487
▁araw	-10.5497
qyanox	-10.5509
▁sb	-10.5512
▁hanga	-10.5514
▁eighty	-10.5516
▁kapa	-10.5518
rali	-10.5522
coqi	-10.5523
lative	-10.5526
npong	-10.5526
▁banga	-10.5532
▁sqasa	-10.5543
ue	-10.5548
lock	-10.5558
▁laws	-10.5566
lki	-10.5572
iday	-10.5572
▁kinga	-10.5583
chin	-10.5585
▁tobong	-10.5586
▁knaya	-10.5591
▁mamato	-10.5598
▁fore	-10.5598
▁tra	-10.5607
▁hmkan	-10.5615
▁Buy	-10.5617
▁myox	-10.5618
▁homi	-10.562
rang	-10.5624
eso	-10.5626
tokon	-10.5628
llaqi	-10.5629
▁repres	-10.5629
ising	-10.5631
ozyan	-10.5633
misan	-10.5634
yax	-10.5634
▁leav	-10.5635
▁abagan	-10.5646
▁kahi	-10.5652
▁siyoy	-10.5666
po	-10.5668
ants	-10.567
noba	-10.5673
▁pomahon	-10.5676
▁habok	-10.5677
▁yopon	-10.5678
▁nqwaq	-10.5678
▁nabowibowi	-10.5678
▁raxal	-10.5678
▁bicyo	-10.5682
hisa	-10.5686
apiya	-10.5693
▁bling	-10.5695
▁miyi	-10.5699
▁pawsa	-10.571
▁ingaso	-10.5715
▁slo	-10.5718
nbaq	-10.5727
pngan	-10.573
event	-10.5733
▁cyogan	-10.5743
osan	-10.5746
patowaw	-10.5763
rkyas	-10.5772
▁owe	-10.5783
ccess	-10.5785
▁cou	-10.5786
nee	-10.5787
ped	-10.579
erc	-10.579
strati	-10.5792
rakis	-10.5797
▁bleq	-10.58
binason	-10.5805
▁pn	-10.5814
hot	-10.5814
hoe	-10.5833
▁kaw	-10.5836
▁rwa	-10.5847
▁noo	-10.5856
ahag	-10.586
▁bnas	-10.586
xon	-10.5865
▁mati	-10.5875
▁kli	-10.5878
oh	-10.5889
ving	-10.5903
ibonsyo	-10.5926
▁mtzyo	-10.5928
▁tila	-10.5936
▁thou	-10.5937
noka	-10.5942
▁kana	-10.5968
▁extr	-10.5972
▁mino	-10.5985
▁pilaw	-10.5989
once	-10.5991
late	-10.5994
▁sip	-10.5998
▁tiri	-10.6
▁ind	-10.6
▁kalan	-10.6001
▁hyoci	-10.6029
▁cmapoh	-10.6044
▁cayox	-10.6051
loq	-10.6078
ms	-10.6081
kakaṟal	-10.6084
▁bayhoy	-10.61
▁inah	-10.6103
▁snyo	-10.6107
▁pasba	-10.6113
ilong	-10.6123
▁kilo	-10.6127
▁cr	-10.6136
ayang	-10.6154
cac	-10.6161
car	-10.6166
dne	-10.6173
asca	-10.6174
▁Li	-10.6181
▁sasa	-10.6192
▁mamoh	-10.6193
qbaqan	-10.6194
ear	-10.621
hangan	-10.6216
of	-10.6217
rrang	-10.6224
sino	-10.6232
▁lil	-10.6246
▁mna	-10.6246
▁tobon	-10.6253
kisli	-10.6269
angan	-10.6275
What	-10.6276
plants	-10.6277
books	-10.6279
hazi	-10.6282
loko	-10.6287
babaw	-10.6293
ellow	-10.6295
▁Ki	-10.6298
osay	-10.6301
▁mkb	-10.6309
▁inow	-10.6322
mosa	-10.6328
▁times	-10.6335
inblaq	-10.6341
▁sasiya	-10.6347
rahowal	-10.636
▁lbing	-10.6375
sapong	-10.6377
eop	-10.6391
sow	-10.6393
boro	-10.6393
▁mayb	-10.6394
yaki	-10.6397
▁tras	-10.6399
▁sbaqa	-10.6402
▁pqa	-10.6406
▁fis	-10.6413
▁butt	-10.6425
hiya	-10.643
rawin	-10.6433
bahon	-10.6438
yogan	-10.6446
▁qer	-10.6457
▁inter	-10.6458
▁tatay	-10.646
▁shak	-10.6468
sea	-10.6468
▁theya	-10.6476
dding	-10.648
table	-10.6492
kori	-10.6517
▁kyala	-10.652
kalon	-10.6521
behoy	-10.6544
ilok	-10.6556
romol	-10.6587
mi	-10.6592
shopp	-10.6608
▁loko	-10.6611
▁roll	-10.6614
▁lh	-10.6624
▁hme	-10.663
heat	-10.6633
asing	-10.6662
▁noka	-10.6677
hol	-10.6686
▁pt	-10.6695
▁Mon	-10.6699
▁manovo	-10.6711
traho	-10.6721
▁cha	-10.6723
▁kinna	-10.6724
sina	-10.6731
oweq	-10.6733
▁gah	-10.6739
mox	-10.6786
xi	-10.6801
sali	-10.6812
um	-10.6819
fo	-10.6836
▁holoy	-10.6853
payat	-10.6856
▁sr	-10.6868
▁chang	-10.688
oca	-10.6915
nant	-10.6917
▁kinsa	-10.6923
qaniq	-10.6923
weat	-10.6946
yaho	-10.6953
▁tiyo	-10.6959
▁bed	-10.698
'"	-10.699
▁paca	-10.6995
sling	-10.7009
▁mowa	-10.703
ora	-10.7034
gah	-10.7038
awsa	-10.7058
boy	-10.7061
▁ju	-10.7078
poli	-10.7092
qi	-10.7094
▁tigi	-10.7112
tnaq	-10.7117
▁qaso	-10.7119
giy	-10.712
ngayan	-10.7123
▁comb	-10.7128
▁mga	-10.7143
▁qaya	-10.7147
▁kona	-10.7149
erv	-10.7149
▁got	-10.7153
▁rele	-10.7158
baqon	-10.7179
tisan	-10.718
▁kaho	-10.7183
▁tmango	-10.7188
nyow	-10.7189
▁mkal	-10.7223
▁hzyaq	-10.723
ays	-10.7239
nbo	-10.7256
ne	-10.7272
azing	-10.7274
▁ru	-10.7289
tahok	-10.7291
ngaw	-10.7312
llar	-10.7316
▁kso	-10.7317
rangi	-10.7325
▁holo	-10.733
ogon	-10.733
▁rara	-10.733
rbal	-10.734
▁kina	-10.7359
nason	-10.7364
qiyanox	-10.7375
paq	-10.7381
▁develop	-10.7383
bang	-10.7397
▁moya	-10.7401
wagi	-10.741
▁rasi	-10.7441
kakay	-10.7458
▁kari	-10.7459
▁ripe	-10.746
▁banas	-10.7466
nqaya	-10.748
lak	-10.7485
alay	-10.7487
▁Ya	-10.7501
owas	-10.7503
eton	-10.7524
rite	-10.7525
hopp	-10.7525
▁tig	-10.7549
iloh	-10.7553
▁smr	-10.7564
bingon	-10.7568
mbar	-10.7591
witch	-10.7594
zyot	-10.7595
syon	-10.7604
pong	-10.7605
▁clea	-10.7619
▁toli	-10.762
▁wis	-10.7627
bsyaq	-10.7631
ept	-10.7639
▁qh	-10.7642
▁wrong	-10.7653
▁shin	-10.7653
▁Su	-10.7662
▁mayah	-10.7674
mong	-10.768
▁mno	-10.7683
umble	-10.7686
▁saha	-10.7701
▁mpa	-10.7706
▁nett	-10.7708
▁msya	-10.7714
ugh	-10.7724
▁maba	-10.7725
▁matako	-10.7729
▁boq	-10.773
▁minno	-10.773
▁bnkis	-10.7734
mbow	-10.7737
▁sbin	-10.7738
aginbiniy	-10.7741
▁raral	-10.7748
nelo	-10.775
▁becom	-10.7751
▁Some	-10.7755
▁Lany	-10.7755
qwasan	-10.7759
oodbye	-10.7765
▁mark	-10.7766
▁maspat	-10.7767
▁Q	-10.7767
%	-10.7767
6	-10.7767
vity	-10.7767
▁Batu	-10.7767
▁Gyenzyomin	-10.7767
▁Laysa	-10.7767
▁Pinpo	-10.7767
▁Truku	-10.7767
▁drunk	-10.7767
▁kakbahneq	-10.7767
▁mataliyom	-10.7767
▁muntjac	-10.7767
▁paqopaqon	-10.7767
▁pinqzyowan	-10.7767
▁pstiyan	-10.7767
▁qaqlayngan	-10.7767
▁qboqbox	-10.7767
▁qnhyon	-10.7767
▁tinbihlan	-10.7767
▁xikoki	-10.7767
▁ṟapiriy	-10.7767
akaragiyax	-10.7767
▁*	-10.7767
▁Papak	-10.7767
▁Seediq	-10.7767
▁chirp	-10.7767
▁comopah	-10.7767
▁habaag	-10.7767
▁ptiyawon	-10.7767
▁sahaysa	-10.7767
▁tloling	-10.7767
mlyap	-10.7767
▁Plngawan	-10.7767
▁Taype	-10.7767
▁Yilan	-10.7767
▁Yuraw	-10.7767
▁parnah	-10.7767
▁qcyay	-10.7767
▁tbihi	-10.7767
▁koysang	-10.7767
cked	-10.7767
▁kwaca	-10.7767
▁matibaay	-10.7767
▁tnatok	-10.7767
▁kahavaw	-10.7767
▁magbatonox	-10.7767
▁ksobih	-10.7767
▁papateq	-10.7767
▁Poyap	-10.7767
▁kbobo	-10.7767
▁klosan	-10.7767
▁tahosan	-10.7767
▁zywaw	-10.7767
▁pigeon	-10.7767
lmokan	-10.7767
▁cipoq	-10.7767
▁rinamowa	-10.7767
▁policies	-10.7767
▁Kyokay	-10.7767
▁Tayax	-10.7767
▁ciyeyon	-10.7767
▁Masaw	-10.7768
▁Yoraw	-10.7768
▁balihon	-10.7768
▁hangitox	-10.7768
▁sikwa	-10.7768
▁Puyap	-10.7768
▁rnamox	-10.7768
▁myiman	-10.7768
▁kamagaw	-10.7768
▁barowan	-10.7768
▁khoni	-10.7768
▁pinnong	-10.7769
▁rhoyan	-10.7769
yuan	-10.7769
▁qagirang	-10.7769
▁hmoloy	-10.7769
▁qroyox	-10.7769
▁knayril	-10.7769
▁pspngan	-10.7769
▁ksyok	-10.7769
▁tomabol	-10.7769
▁kahat	-10.7769
▁tgaring	-10.7769
▁voice	-10.7769
▁tmoto	-10.7769
▁ṟakah	-10.7769
▁homoloy	-10.7769
▁Kacu	-10.7769
▁truth	-10.7769
▁Giran	-10.7769
▁qatiyay	-10.7769
▁tmapeh	-10.777
▁mtasiq	-10.777
▁sexo	-10.777
▁downward	-10.777
▁thawak	-10.777
▁gmyah	-10.777
▁hamhom	-10.777
▁hozin	-10.777
▁lnhoyan	-10.7771
▁Bato	-10.7771
▁klesay	-10.7771
▁panayp	-10.7771
▁texi	-10.7771
▁congos	-10.7771
▁qaym	-10.7771
▁mahoṟi	-10.7771
▁pcpngan	-10.7772
stum	-10.7772
▁mziman	-10.7772
▁yonani	-10.7772
▁lban	-10.7772
▁qpiray	-10.7772
▁pnaga	-10.7772
siwat	-10.7772
▁kyaca	-10.7772
▁mtkgi	-10.7772
▁mqatong	-10.7772
▁Lanyiy	-10.7773
▁mhotaw	-10.7773
▁mhikang	-10.7773
▁bbisan	-10.7773
▁qsinow	-10.7773
▁rawq	-10.7773
▁sawbeh	-10.7773
▁pabinah	-10.7773
▁lpgan	-10.7773
▁mqzinah	-10.7773
▁ksyow	-10.7773
▁llongon	-10.7774
ult	-10.7774
▁xone	-10.7774
▁tbako	-10.7776
▁lmnglon	-10.7776
▁sabili	-10.7776
▁panaṟit	-10.7777
▁qamisan	-10.7777
▁mtzyol	-10.7778
▁mkta	-10.7778
▁papkita	-10.7778
oons	-10.7778
▁pakabagan	-10.7779
tern	-10.7779
▁minblayq	-10.7779
▁romag	-10.7779
▁makasion	-10.7779
▁mhnok	-10.778
▁yngyan	-10.778
▁kinwaw	-10.778
iwaal	-10.778
▁whether	-10.7781
▁mapatisa	-10.7782
▁mtoliq	-10.7783
▁cyaki	-10.7783
▁masowa	-10.7784
▁mtakoy	-10.7785
▁Masing	-10.7786
▁caminan	-10.7788
▁mayanox	-10.7788
▁macac	-10.7788
▁mnbox	-10.7789
▁pasaring	-10.779
▁makalox	-10.7791
▁mtiyon	-10.7793
lagan	-10.7793
▁maginbiniy	-10.7793
▁salaman	-10.7793
▁mtngi	-10.7794
▁sawki	-10.7795
▁eld	-10.7795
agiy	-10.7797
▁qara	-10.7798
▁onray	-10.7799
▁rozi	-10.7799
▁mqyanox	-10.78
▁hitay	-10.7802
▁banay	-10.7802
▁lalosan	-10.7803
visi	-10.7804
▁Af	-10.7804
ious	-10.7806
▁qowalax	-10.7808
racti	-10.7808
▁stumble	-10.7809
▁baboway	-10.781
ribe	-10.7812
▁sahoy	-10.7812
ties	-10.7813
▁real	-10.7814
itori	-10.7815
▁yar	-10.7822
mal	-10.7823
yoy	-10.7823
▁sopan	-10.7825
▁cingas	-10.7827
▁banox	-10.7829
hen	-10.7835
▁makibaq	-10.7835
bisan	-10.7835
▁lalbing	-10.7836
rig	-10.7836
▁gle	-10.7839
▁katowa	-10.7839
bla	-10.7839
▁qolit	-10.784
▁mlabo	-10.7842
imaw	-10.7843
roma	-10.7844
▁plaka	-10.7846
▁zmaga	-10.7848
▁olit	-10.7852
▁kabaxan	-10.7852
▁tong	-10.7853
▁sik	-10.7854
▁lko	-10.7854
▁ragiy	-10.7855
khani	-10.7857
▁syox	-10.7858
tatok	-10.7859
ese	-10.7861
▁ant	-10.7863
lyat	-10.7864
▁mbko	-10.7867
▁cry	-10.7869
▁kiki	-10.7877
▁Ipay	-10.788
tmwan	-10.7882
gho	-10.7889
▁miman	-10.7903
seng	-10.7908
ies	-10.7915
▁walis	-10.7916
▁paro	-10.7919
aṟos	-10.7924
▁pongi	-10.7924
▁myanox	-10.7925
▁Shan	-10.7925
▁mahiy	-10.7929
▁inha	-10.793
hoyay	-10.7933
▁kavalay	-10.7937
moh	-10.7942
▁shri	-10.7942
▁tng	-10.7943
▁dried	-10.795
hara	-10.7952
port	-10.7952
▁cent	-10.7953
▁insi	-10.7955
▁aqo	-10.7956
mit	-10.7957
add	-10.7963
▁waay	-10.7969
sqcyan	-10.7972
▁soxo	-10.7977
▁inlo	-10.7981
▁mini	-10.7984
▁studying	-10.7985
▁twanga	-10.7992
▁squirrels	-10.7993
▁nbon	-10.7997
ṟang	-10.8001
▁colle	-10.8005
▁hog	-10.8007
▁ray	-10.8008
▁pongan	-10.8009
▁Say	-10.801
▁kmami	-10.8026
ngoqo	-10.8028
▁qwax	-10.8035
▁papsa	-10.8041
▁oying	-10.8042
▁mlaw	-10.8053
▁atiy	-10.8065
▁sasal	-10.8069
▁mawas	-10.8072
rak	-10.8073
taq	-10.8079
▁loyang	-10.8079
▁kkilox	-10.808
▁2	-10.808
▁rrgyax	-10.8088
▁kasa	-10.809
wer	-10.809
▁maqa	-10.8091
▁mangiho	-10.8091
▁thok	-10.8093
tted	-10.8097
▁pinsa	-10.81
invo	-10.811
▁ṟating	-10.8115
▁khangi	-10.8116
▁appear	-10.8117
itay	-10.8119
▁mowani	-10.8119
zyon	-10.812
▁sq	-10.8125
▁psyasing	-10.8126
tbesan	-10.8127
zyal	-10.813
tot	-10.8145
weq	-10.8149
ttan	-10.8153
▁bzih	-10.8154
▁tiqa	-10.8157
▁pasa	-10.8165
▁goi	-10.819
▁gr	-10.8214
▁Te	-10.8214
▁Yo	-10.8223
▁momo	-10.8231
▁kahong	-10.8232
▁mawpo	-10.8234
riqon	-10.8238
▁kobo	-10.8238
ngel	-10.824
onaw	-10.825
ears	-10.825
serve	-10.826
40	-10.8263
▁yogi	-10.8271
oṟak	-10.8278
mngiya	-10.8287
lapow	-10.8289
▁siwi	-10.8302
sawni	-10.8329
▁Bas	-10.8333
▁aga	-10.8333
▁kaco	-10.8337
▁kins	-10.8344
▁rmoro	-10.8347
nama	-10.8375
▁owiy	-10.8376
hmot	-10.8386
▁toting	-10.8391
unti	-10.8409
yas	-10.8415
biyan	-10.8418
▁bri	-10.842
▁pc	-10.8428
▁places	-10.8443
▁koho	-10.8452
▁bor	-10.8452
▁otas	-10.8483
llaw	-10.8497
beh	-10.8514
▁tribes	-10.8516
▁comp	-10.8517
▁qmwa	-10.8519
▁pagiy	-10.8521
▁tg	-10.8534
ad	-10.8535
nan	-10.8546
▁tahonak	-10.855
wal	-10.8564
▁karoh	-10.8569
pay	-10.857
▁tatiro	-10.8578
▁qbobo	-10.859
yaqan	-10.859
▁capaang	-10.8594
▁gihaaq	-10.8596
▁phpah	-10.8597
▁sen	-10.8617
led	-10.8639
urt	-10.8646
tonox	-10.865
ush	-10.8653
▁fro	-10.8658
raw	-10.8671
▁mu	-10.8687
qoro	-10.8687
▁toki	-10.8694
▁conga	-10.8722
▁psqo	-10.875
bi	-10.8788
laka	-10.8819
▁cogan	-10.8852
▁zo	-10.8853
▁lala	-10.8854
hoyan	-10.8868
bona	-10.8899
kat	-10.8899
aray	-10.8912
enty	-10.8931
okoon	-10.8963
wit	-10.8979
ilinsya	-10.8981
▁participate	-10.8997
tohi	-10.9
▁tako	-10.9008
cess	-10.9029
▁mhoq	-10.9029
▁sibil	-10.9038
▁mala	-10.9039
▁masot	-10.904
▁tang	-10.9052
biq	-10.9061
ohiy	-10.9074
▁manaq	-10.9078
aṟ	-10.9106
byan	-10.9108
▁Kac	-10.912
ugu	-10.9125
yopan	-10.915
hoq	-10.9151
▁asa	-10.9151
cilong	-10.9152
ṟas	-10.9172
hngzyang	-10.9181
nṟa	-10.9183
▁hb	-10.9201
gaga	-10.9209
max	-10.9214
▁thi	-10.9223
weed	-10.923
Sbalay	-10.925
▁kakaṟa	-10.9269
zyaw	-10.927
ample	-10.9272
ut	-10.9276
▁paska	-10.9283
qwalax	-10.9293
karaw	-10.9297
cap	-10.9313
hyi	-10.9316
galiq	-10.932
▁Ci	-10.9327
nce	-10.9333
rawil	-10.9334
tmasoq	-10.9336
▁inl	-10.9344
▁kyaho	-10.935
grandfather	-10.9354
qthoy	-10.936
qoy	-10.9364
holoy	-10.9365
pping	-10.9371
nah	-10.9378
cooked	-10.9383
fruit	-10.9384
Go	-10.9384
coop	-10.9389
▁participat	-10.9398
gabiyan	-10.9403
gako	-10.9405
▁Bo	-10.941
▁poni	-10.941
▁snon	-10.9416
▁mon	-10.9416
iyah	-10.9419
mati	-10.942
hold	-10.9425
rngo	-10.9431
kito	-10.9434
▁tomato	-10.9435
▁bahon	-10.9435
kal	-10.9437
liy	-10.9438
two	-10.9474
▁lit	-10.9481
ban	-10.9485
▁pqot	-10.9487
▁sway	-10.9489
piray	-10.949
no	-10.949
lokos	-10.9496
if	-10.9497
▁sea	-10.951
▁Co	-10.951
enter	-10.9534
ksiyox	-10.9548
kmi	-10.9551
▁aso	-10.9554
▁patat	-10.9596
▁nabo	-10.9617
ayong	-10.9636
mpo	-10.9643
▁pint	-10.9654
▁hmi	-10.9662
sog	-10.9663
kon	-10.9664
nrya	-10.9694
agen	-10.9694
wall	-10.9699
mka	-10.9703
qowi	-10.9718
ibow	-10.9728
▁pababaw	-10.9738
bkisan	-10.9739
▁pinc	-10.9763
rself	-10.9784
aniq	-10.9788
▁lha	-10.9806
▁bga	-10.9812
nay	-10.9815
▁nn	-10.9829
sazing	-10.9855
balayq	-10.9871
▁tomo	-10.9878
▁bal	-10.9914
kok	-10.9916
▁lpo	-10.993
nanak	-10.9936
▁Thaya	-10.9939
cic	-10.995
kita	-10.9967
▁takin	-10.9981
▁sato	-10.9984
moyax	-10.9993
cka	-11.0008
liyat	-11.0016
zimo	-11.0023
lbing	-11.0033
insa	-11.0065
▁pb	-11.0069
▁rong	-11.0074
tama	-11.0075
bway	-11.0079
kaki	-11.0082
▁kahoni	-11.0104
▁paglo	-11.0116
peh	-11.0136
hṟ	-11.0147
ohi	-11.0178
avaw	-11.0181
▁toring	-11.0183
▁oṟ	-11.0235
kyasan	-11.0271
▁iman	-11.0275
og	-11.029
zil	-11.0305
▁Ma	-11.0313
yaya	-11.0333
▁kinb	-11.0336
▁phngi	-11.0356
nakay	-11.0359
▁Na	-11.0393
▁mangay	-11.0405
yanox	-11.041
ihoṟ	-11.0412
▁pali	-11.042
▁mawp	-11.0426
▁mqom	-11.0432
▁qin	-11.0435
qotox	-11.0442
iyox	-11.0447
qiy	-11.0456
nxw	-11.0481
▁pksyo	-11.0493
pkita	-11.0495
hala	-11.0501
aosa	-11.0505
nangi	-11.0506
poh	-11.0537
▁discuss	-11.0557
mol	-11.0561
▁Man	-11.057
kmaya	-11.058
okah	-11.0584
▁qena	-11.0586
▁ne	-11.0587
nbox	-11.0588
mple	-11.0595
royq	-11.06
abon	-11.0613
▁iri	-11.0619
ignit	-11.0641
gree	-11.0644
▁mnoq	-11.0646
▁kawt	-11.0661
▁relat	-11.0666
tting	-11.0679
ye	-11.0679
wagan	-11.0687
amam	-11.0688
soqi	-11.0689
▁tiyen	-11.0692
▁qq	-11.0725
ṟolong	-11.0735
tin	-11.0758
▁tino	-11.0759
imperative	-11.076
babaq	-11.0762
▁hmwa	-11.0763
galon	-11.078
moro	-11.0783
▁pinsq	-11.0795
zima	-11.0799
▁health	-11.0805
oṟati	-11.0817
rop	-11.0824
▁pinta	-11.0825
▁hola	-11.0827
havag	-11.0828
▁taka	-11.0831
▁sweep	-11.0834
zwi	-11.0837
▁pnek	-11.0839
wasn	-11.0843
tyawon	-11.0846
▁pcba	-11.0848
▁tru	-11.0848
gyon	-11.0849
▁Pongho	-11.0851
▁kaso	-11.0854
arvest	-11.0859
▁mspon	-11.086
▁cmyo	-11.086
sama	-11.086
ometimes	-11.0861
▁Nanto	-11.0861
▁pbz	-11.0862
▁Japan	-11.0862
▁erase	-11.0862
▁Matu	-11.0862
▁protect	-11.0862
▁respecti	-11.0862
▁suffer	-11.0862
replace	-11.0862
▁Amirika	-11.0862
▁Bariy	-11.0862
▁Bawtu	-11.0862
▁Iyung	-11.0862
▁Just	-11.0862
▁Matsudae	-11.0862
▁Skikun	-11.0862
▁Yayut	-11.0862
▁Yukeh	-11.0862
▁bzyowak	-11.0862
▁ceremony	-11.0862
▁coqoleq	-11.0862
▁cultural	-11.0862
▁equality	-11.0862
▁flavor	-11.0862
▁ghiyaq	-11.0862
▁hnapoy	-11.0862
▁khmay	-11.0862
▁knitoh	-11.0862
▁lmlamo	-11.0862
▁nnbkis	-11.0862
▁paparoxaw	-11.0862
▁pinksyo	-11.0862
▁siniyog	-11.0862
▁spinqzyo	-11.0862
▁succeed	-11.0862
▁tmaroq	-11.0862
▁toqowaq	-11.0862
▁words	-11.0862
▁zitengsya	-11.0862
▁Yuhaw	-11.0862
▁mtbazi	-11.0862
▁yokeh	-11.0862
▁Bawto	-11.0862
▁Siwat	-11.0862
▁bnkesan	-11.0862
▁kesaco	-11.0862
▁sskwan	-11.0862
▁stabb	-11.0862
▁tehasa	-11.0862
▁daughter	-11.0862
▁kakelan	-11.0862
▁minakong	-11.0862
▁hanaang	-11.0862
▁kowisang	-11.0862
▁pincyakan	-11.0862
▁ibabawiq	-11.0862
▁qariwal	-11.0862
▁thyayon	-11.0862
▁vawwak	-11.0862
▁hmenas	-11.0862
▁waṟiy	-11.0862
▁Matuuwal	-11.0862
▁kasasanan	-11.0862
▁pahangi	-11.0862
▁Pepay	-11.0862
▁accord	-11.0862
▁mtoki	-11.0862
lahoṟ	-11.0862
▁Yayot	-11.0862
▁cmyax	-11.0862
▁Yopas	-11.0862
▁lomanglong	-11.0862
▁Ngayngay	-11.0863
▁yimox	-11.0863
▁btakan	-11.0863
balbalayq	-11.0863
▁cqrox	-11.0863
▁mlhngan	-11.0863
▁bokil	-11.0863
▁mapapogaga	-11.0863
▁pasapangan	-11.0863
▁pinkacik	-11.0863
▁qnalang	-11.0863
▁komoriax	-11.0863
▁mqalox	-11.0863
▁kabahani	-11.0863
gagos	-11.0863
▁senben	-11.0863
▁kmyap	-11.0863
▁ptasan	-11.0863
▁Yohaw	-11.0863
▁qawlit	-11.0863
▁kmokan	-11.0863
omori	-11.0863
▁qmaz	-11.0863
▁poqing	-11.0863
▁zzik	-11.0863
▁phongxo	-11.0863
▁tasiaring	-11.0863
▁tomobon	-11.0863
▁powder	-11.0863
▁Kawsyong	-11.0863
▁mpcisan	-11.0863
▁Lawsing	-11.0863
▁matakoṟ	-11.0863
▁kinbahan	-11.0863
▁lmpox	-11.0863
▁lmeliq	-11.0863
▁commission	-11.0863
▁pahnga	-11.0864
▁cehoy	-11.0864
▁Yuan	-11.0864
▁qaqotian	-11.0864
▁nimen	-11.0864
▁mtanah	-11.0864
oṟiy	-11.0864
▁Tawyu	-11.0864
▁pangran	-11.0864
▁vavaw	-11.0864
▁lohiyong	-11.0864
▁Kusaw	-11.0864
▁waṟal	-11.0864
▁linpgan	-11.0864
▁Kosaw	-11.0864
▁marimal	-11.0865
▁takosi	-11.0865
▁kmkah	-11.0865
▁pgyan	-11.0865
▁hoyil	-11.0865
▁kahoneq	-11.0865
▁tatamalong	-11.0865
▁pkhgok	-11.0865
▁kinbabawen	-11.0865
▁rban	-11.0865
▁kawbo	-11.0865
▁bowating	-11.0865
▁pagalag	-11.0865
▁klama	-11.0865
▁express	-11.0865
yapas	-11.0865
▁mawgi	-11.0865
▁bokoy	-11.0865
▁pinnang	-11.0865
qayos	-11.0866
▁papagiyay	-11.0866
▁msbehoy	-11.0866
▁somato	-11.0866
▁scyaka	-11.0866
▁bhoniq	-11.0866
▁mtasi	-11.0866
▁nawkeh	-11.0866
▁matool	-11.0866
▁mataseq	-11.0866
▁tmmah	-11.0866
▁Talow	-11.0866
▁lmamo	-11.0867
▁holhol	-11.0867
▁identity	-11.0867
▁qmlo	-11.0867
▁mngilis	-11.0867
▁qmozi	-11.0867
rrel	-11.0867
ival	-11.0867
▁miyop	-11.0867
▁mabatonox	-11.0867
▁pnatas	-11.0867
▁manobowag	-11.0867
▁maṟokat	-11.0868
▁psgayon	-11.0868
▁psani	-11.0868
▁asikina	-11.0868
▁Talaw	-11.0868
▁rayx	-11.0868
▁baṟok	-11.0868
▁proposal	-11.0868
▁offende	-11.0868
▁rima	-11.0868
▁hlhon	-11.0868
▁zok	-11.0868
▁yopas	-11.0869
▁traveled	-11.0869
▁mangongo	-11.0869
▁qeno	-11.0869
▁mastanox	-11.0869
▁trako	-11.0869
▁smabo	-11.0869
ozyay	-11.0869
▁sbihan	-11.087
▁viro	-11.087
▁mqsoqi	-11.087
kensaco	-11.087
▁brok	-11.0871
▁nayp	-11.0871
▁malangiya	-11.0871
▁mhra	-11.0871
▁Boya	-11.0871
upas	-11.0871
rrosa	-11.0871
▁panekan	-11.0871
▁iyok	-11.0871
twahiq	-11.0871
▁msbzih	-11.0871
▁twahi	-11.0871
▁bokan	-11.0871
nyatan	-11.0872
▁raneq	-11.0872
▁tmobox	-11.0872
▁mtciriq	-11.0872
hihi	-11.0872
▁mzyop	-11.0872
qarax	-11.0872
▁qmisan	-11.0872
sbiso	-11.0872
▁hlahoy	-11.0873
▁mnbow	-11.0873
▁brio	-11.0873
▁minqotox	-11.0873
▁cimonan	-11.0873
▁tmana	-11.0873
Nantou	-11.0873
▁inzhoq	-11.0873
▁qesow	-11.0873
▁tatap	-11.0874
▁smogan	-11.0874
▁lmosay	-11.0874
▁Ponghow	-11.0875
▁paylhoy	-11.0875
eria	-11.0875
▁sigawah	-11.0875
▁cobalabalay	-11.0876
▁manabow	-11.0876
▁kiyl	-11.0876
▁ṟongi	-11.0878
▁yangah	-11.0878
▁lompo	-11.0878
▁myogi	-11.0878
▁onak	-11.0879
▁qomaso	-11.0879
▁msthay	-11.0879
▁mahaholoy	-11.0879
▁maliyap	-11.0879
▁educat	-11.088
▁lpi	-11.088
kyalan	-11.088
▁rapan	-11.0881
▁mapatisal	-11.0881
▁qenam	-11.0881
▁iyk	-11.0881
▁kmiki	-11.0881
wix	-11.0882
▁mnaki	-11.0882
▁palaka	-11.0883
▁sehoy	-11.0883
▁pincyo	-11.0883
▁tlaka	-11.0884
obeh	-11.0884
▁romow	-11.0884
▁cacka	-11.0884
▁mtiyol	-11.0884
▁hocyo	-11.0885
cies	-11.0885
zit	-11.0885
▁makaal	-11.0885
▁miyoy	-11.0886
▁bqani	-11.0886
▁tolat	-11.0886
▁hriqon	-11.0887
▁Di	-11.0888
▁teton	-11.0889
riyox	-11.0889
▁Eve	-11.0889
▁qabang	-11.089
▁bewak	-11.089
▁minc	-11.089
▁asigi	-11.0891
lyotox	-11.0891
▁babaan	-11.0892
▁Buya	-11.0892
▁kyapon	-11.0892
▁shou	-11.0892
▁lihon	-11.0893
cyong	-11.0893
▁icimo	-11.0894
▁hngi	-11.0894
▁mholoy	-11.0895
▁ngoho	-11.0895
dying	-11.0895
zi	-11.0895
▁sipanga	-11.0896
▁apit	-11.0896
▁nabowas	-11.0897
▁Laniy	-11.0898
stri	-11.0899
▁masang	-11.0901
▁hetay	-11.0901
▁cipaq	-11.0901
▁tniri	-11.0902
hahiyaw	-11.0902
▁mbehoy	-11.0904
▁kwe	-11.0906
▁mehong	-11.0906
tobay	-11.0906
▁bhe	-11.0906
▁takaw	-11.0907
▁obaq	-11.0907
▁pasiyog	-11.0909
▁mkalox	-11.0911
▁pg	-11.0911
▁mnglong	-11.0912
▁Ray	-11.0913
▁basis	-11.0913
ehm	-11.0913
▁caco	-11.0914
▁masag	-11.0916
▁myop	-11.0916
▁mlata	-11.0916
▁babiro	-11.0916
angiya	-11.0917
▁wanox	-11.0918
▁kble	-11.0918
▁psyax	-11.0919
▁kakilox	-11.092
sakaw	-11.092
▁pzit	-11.092
▁slwan	-11.0921
▁kkl	-11.0921
iyat	-11.0921
▁koog	-11.0921
bes	-11.0922
▁hmbya	-11.0922
▁raxay	-11.0922
▁smxo	-11.0922
▁mpanga	-11.0926
manga	-11.0926
▁ciyak	-11.0927
bili	-11.0928
▁msgagay	-11.0928
▁kawit	-11.0929
▁rmh	-11.093
▁bayqi	-11.0932
▁kinlawkah	-11.0934
▁qzyo	-11.0934
ragan	-11.0934
▁lro	-11.0934
▁ksya	-11.094
Amis	-11.0941
ciriq	-11.0942
▁mimaw	-11.0945
ron	-11.0946
ebo	-11.0947
▁mspaton	-11.0949
▁qway	-11.095
▁romil	-11.0951
telo	-11.0953
brwan	-11.0953
▁gomi	-11.0954
kaygi	-11.0956
▁paqi	-11.0957
▁start	-11.0959
▁pingk	-11.096
▁pinnoya	-11.0967
▁tatal	-11.0968
▁msil	-11.0968
agi	-11.0968
hpoyan	-11.097
▁mopo	-11.0973
▁tgli	-11.0973
atgi	-11.0976
▁planted	-11.0976
key	-11.0977
akasasawbeh	-11.0979
▁hesa	-11.098
▁stored	-11.098
▁qolo	-11.0984
▁makako	-11.0984
▁kinryaxan	-11.0986
▁qoli	-11.0991
iran	-11.0992
dom	-11.0995
▁mhoyi	-11.0996
▁torak	-11.0997
▁case	-11.0998
▁boliqo	-11.1009
▁kotan	-11.101
▁makiya	-11.1014
sinko	-11.1015
rxon	-11.1016
▁sakora	-11.1016
anism	-11.1028
uch	-11.1035
▁baling	-11.1036
langoy	-11.1037
▁qavaq	-11.104
▁Iban	-11.1042
olay	-11.1043
ktan	-11.1043
▁Kyo	-11.1044
▁pakingaso	-11.1045
▁smal	-11.1047
▁gini	-11.1053
▁bengi	-11.1057
▁hone	-11.1059
▁gomha	-11.1059
▁takay	-11.106
▁bin	-11.1063
▁kaingaso	-11.1066
kraho	-11.1071
mamo	-11.1071
bab	-11.1073
gno	-11.1077
▁nana	-11.1078
▁ici	-11.1078
awng	-11.1081
▁komna	-11.1083
▁nganga	-11.109
▁boxi	-11.1094
▁awalax	-11.1094
asoway	-11.1095
qoyat	-11.1095
makay	-11.1099
nsu	-11.1101
qingon	-11.1102
▁takan	-11.1105
▁thay	-11.1109
▁topo	-11.1111
▁kinblay	-11.1112
moling	-11.1114
nyal	-11.1119
▁tapa	-11.112
▁labos	-11.112
▁tomok	-11.1127
zngi	-11.1127
inok	-11.1129
rea	-11.1129
▁qali	-11.1134
kosa	-11.1135
▁minh	-11.1136
▁maro	-11.1141
▁makar	-11.1143
dic	-11.1147
hngon	-11.1149
nclude	-11.1153
lamaw	-11.1154
layon	-11.1159
▁patasi	-11.116
galayng	-11.1164
▁moci	-11.1166
▁shooting	-11.1167
nes	-11.1172
▁mko	-11.1173
aft	-11.1177
▁kangi	-11.1183
▁lahbo	-11.1192
▁shar	-11.1197
▁niam	-11.1198
▁patasan	-11.1211
▁spin	-11.1224
gahap	-11.1226
▁rma	-11.1228
▁nyaway	-11.123
▁lhb	-11.1235
hla	-11.124
iqon	-11.1258
▁bazing	-11.1267
ivo	-11.1269
▁molo	-11.127
▁mtnaq	-11.1271
elling	-11.1272
▁tman	-11.1272
▁hngiyang	-11.1273
▁tinna	-11.1282
▁drinking	-11.1293
khol	-11.1295
▁sbs	-11.13
▁ngiyaw	-11.1304
▁siyox	-11.131
nhoyan	-11.1311
▁Soto	-11.1322
lngyaq	-11.1325
▁moke	-11.133
▁yours	-11.134
iyang	-11.1341
▁exp	-11.1346
sqonan	-11.135
▁ngyaw	-11.1354
▁panqaqo	-11.1356
▁X	-11.1356
▁orik	-11.1357
▁ngarox	-11.1357
▁Miaoli	-11.1357
▁pilapilag	-11.1357
▁mgyebo	-11.1357
▁rengwa	-11.1357
pota	-11.1358
▁keweh	-11.1359
▁galeng	-11.1359
▁qiri	-11.1363
▁ghap	-11.1365
egi	-11.1366
▁qeso	-11.1369
▁ggiran	-11.1378
▁lohing	-11.1379
pac	-11.1389
▁pqbaq	-11.1407
hniq	-11.1414
akay	-11.1418
qani	-11.1422
oreh	-11.1429
wnga	-11.1442
▁pilag	-11.1446
▁bobo	-11.1459
▁5	-11.147
▁kogi	-11.1471
▁komi	-11.1477
▁ramiy	-11.1479
aziy	-11.148
iko	-11.1484
▁kiiy	-11.1487
▁mogi	-11.1494
▁cinbo	-11.1505
▁cya	-11.1509
▁binto	-11.1518
towaw	-11.1539
▁hapoy	-11.1562
leq	-11.1568
▁kotox	-11.1593
▁biq	-11.1595
▁yoro	-11.1607
yoti	-11.1613
op	-11.1615
▁boway	-11.1616
▁Tana	-11.1623
▁tawk	-11.1627
▁patisal	-11.1634
hile	-11.1639
▁poson	-11.1647
▁ever	-11.1664
▁nna	-11.1683
pax	-11.1695
vo	-11.1715
▁maman	-11.172
mam	-11.1724
▁pasik	-11.1725
▁apa	-11.1726
▁trees	-11.1732
lean	-11.1744
▁nono	-11.1753
can	-11.1755
lf	-11.1756
▁sapa	-11.1757
hagon	-11.1757
▁eating	-11.1766
axa	-11.1829
▁spon	-11.183
▁sgayan	-11.1833
▁kri	-11.1834
▁kasiyoki	-11.1854
▁homin	-11.1859
▁kinba	-11.1859
▁ptzyowa	-11.1862
takoy	-11.1889
▁rhi	-11.1899
he	-11.19
▁kako	-11.1903
▁kinmx	-11.1905
eri	-11.1925
▁el	-11.193
▁ptbazi	-11.193
▁Gy	-11.1936
▁kanga	-11.1948
rowa	-11.198
▁royi	-11.1982
▁kinnab	-11.1994
syaw	-11.2006
qni	-11.2012
▁banin	-11.2037
▁tey	-11.2037
yokan	-11.2037
▁kakalo	-11.2043
▁hahangiqan	-11.2046
▁Balay	-11.2048
▁boars	-11.2048
▁pasiya	-11.2058
story	-11.2068
basaw	-11.2071
ind	-11.2078
▁qat	-11.2082
hzi	-11.2095
mawya	-11.2138
▁haco	-11.2141
babawen	-11.2146
▁pasla	-11.216
▁aping	-11.2168
kani	-11.2177
▁kiy	-11.2199
▁sh	-11.2232
▁toya	-11.2267
▁ss	-11.227
baw	-11.2296
▁minkaho	-11.2309
acacpong	-11.231
zing	-11.2319
ood	-11.2327
▁bnasa	-11.2328
maso	-11.2334
▁ours	-11.2345
▁kinp	-11.2374
▁kinla	-11.2376
▁ones	-11.2391
ayhol	-11.2397
imuy	-11.24
▁ṟako	-11.2401
naki	-11.2418
ment	-11.2421
▁hin	-11.2436
loy	-11.2445
▁maw	-11.2455
▁pstna	-11.2458
yto	-11.2479
▁goro	-11.2486
▁hnb	-11.25
▁pkani	-11.2532
▁khi	-11.2532
my	-11.2532
agang	-11.2541
▁taki	-11.2545
▁rngo	-11.2552
olo	-11.2556
▁kito	-11.2557
ehka	-11.2564
cya	-11.2575
laman	-11.2604
layan	-11.2616
hiri	-11.2631
yiy	-11.2646
▁ising	-11.2673
amil	-11.268
cus	-11.2684
▁rawil	-11.2688
▁Sam	-11.2692
▁rom	-11.2695
aṟing	-11.2698
aba	-11.2715
aki	-11.2724
▁hyi	-11.2726
▁hahi	-11.2747
▁rule	-11.2762
mamaw	-11.2776
bal	-11.2785
agon	-11.2793
▁Sbalay	-11.2809
naray	-11.281
qu	-11.2814
ingon	-11.282
mpong	-11.2827
▁ming	-11.2839
▁karaw	-11.2856
▁pano	-11.2858
▁yopan	-11.2866
▁ssawn	-11.2906
▁mromo	-11.2916
yop	-11.292
▁era	-11.2922
▁longo	-11.2923
gami	-11.2936
nsba	-11.2962
layq	-11.2962
ial	-11.2966
ol	-11.2967
rape	-11.2984
▁foo	-11.2995
▁iyo	-11.3001
bwax	-11.3008
lk	-11.3012
▁eri	-11.3045
tere	-11.3104
▁toro	-11.3121
ish	-11.313
siga	-11.314
ate	-11.315
wasi	-11.315
▁pns	-11.3151
▁syon	-11.3154
▁ongko	-11.3176
▁mnko	-11.318
ca	-11.3205
▁soman	-11.3244
avaynay	-11.3259
awving	-11.3276
geh	-11.3276
akilox	-11.3283
▁poo	-11.3283
ipo	-11.3311
▁bingon	-11.3314
▁mhow	-11.3315
anos	-11.3322
tah	-11.3325
ak	-11.333
▁pabin	-11.3335
kis	-11.3343
wahi	-11.3344
ihoy	-11.3354
▁bh	-11.3398
clear	-11.3401
may	-11.3402
ckle	-11.3414
▁pasci	-11.3418
▁syo	-11.3426
kilox	-11.3427
waxi	-11.3439
▁prom	-11.3442
▁raṟ	-11.3489
▁mg	-11.3493
osaw	-11.3494
glga	-11.3498
gawah	-11.3504
▁pasasi	-11.3513
▁acc	-11.3518
yap	-11.3533
▁mshri	-11.3552
▁mgya	-11.3567
galo	-11.3574
▁cinr	-11.3582
mak	-11.3583
anak	-11.3597
▁sipaka	-11.3601
ngat	-11.3601
S	-11.3608
ganawo	-11.361
bowinah	-11.3636
yemo	-11.364
tanox	-11.3645
ryaw	-11.3652
pahpah	-11.3661
ṟapak	-11.3664
ksayox	-11.3667
banasan	-11.3674
tocing	-11.3675
ide	-11.3681
laqong	-11.3682
▁lac	-11.369
▁yak	-11.3691
pisaneq	-11.3694
solo	-11.3698
orow	-11.371
▁pzi	-11.3715
aviq	-11.3716
ira	-11.3719
qow	-11.3739
Balay	-11.3752
hahangiqan	-11.3754
▁prob	-11.3756
▁gin	-11.3782
kilo	-11.379
phpah	-11.3795
gihaaq	-11.3795
capaang	-11.3799
toliq	-11.3808
▁ciax	-11.3817
C	-11.3823
qbobo	-11.3827
karoh	-11.3828
cayox	-11.3834
cmapoh	-11.3838
yanay	-11.3838
lpyong	-11.3842
rroq	-11.3843
form	-11.3847
▁ngaw	-11.385
qowaw	-11.3853
qbhniq	-11.3857
[	-11.3866
sitowing	-11.3867
gleng	-11.3869
libo	-11.3872
banan	-11.3877
Atayal	-11.3877
grandmother	-11.388
government	-11.388
hari	-11.3886
makilox	-11.3886
moṟow	-11.3887
koyon	-11.3896
N	-11.3899
kanayrin	-11.3899
meat	-11.3902
O	-11.3906
shotaw	-11.3911
▁qata	-11.392
nanaq	-11.3927
gaben	-11.3927
mqo	-11.3936
pagiy	-11.3961
cut	-11.3961
pen	-11.3964
qih	-11.3965
kasaṟox	-11.3965
▁pcya	-11.3969
aping	-11.3976
tiko	-11.3977
fore	-11.3979
▁pakasiyo	-11.3981
aqot	-11.3982
▁seni	-11.3984
▁cacap	-11.399
rice	-11.3997
▁ginal	-11.4004
okan	-11.4008
aking	-11.4027
aywak	-11.403
hyoci	-11.4056
mwah	-11.4069
naniqon	-11.4075
ying	-11.4077
bonsyo	-11.4078
▁tatir	-11.4079
▁mem	-11.4083
topanga	-11.4088
bhol	-11.4089
mowah	-11.4108
▁minoka	-11.411
oqan	-11.4146
▁mnani	-11.4152
iani	-11.4154
▁paya	-11.416
siyok	-11.416
▁pasayo	-11.4176
▁Ti	-11.4186
skoyo	-11.4187
▁siyo	-11.4192
abl	-11.4193
yolong	-11.4193
▁sis	-11.4194
nisan	-11.4194
com	-11.4196
▁psq	-11.4199
▁bale	-11.4202
awan	-11.4216
kri	-11.4218
zik	-11.422
gong	-11.4233
▁tak	-11.4235
▁makta	-11.424
yotas	-11.4247
▁hiṟ	-11.4251
kayran	-11.4255
▁kmi	-11.4256
▁maganaw	-11.4265
trang	-11.4274
▁pasta	-11.4275
siq	-11.4281
yakay	-11.4294
tahi	-11.43
goro	-11.4323
▁convene	-11.4337
▁mhay	-11.4341
▁kma	-11.4344
hali	-11.435
▁sakinot	-11.4361
kagabiy	-11.4368
▁Sea	-11.4369
alang	-11.4369
yagon	-11.4379
bayhoy	-11.4383
▁mc	-11.44
kiya	-11.4401
mayah	-11.441
▁cinb	-11.4414
got	-11.4418
▁kp	-11.4419
▁ksyo	-11.4422
▁Me	-11.443
▁pins	-11.4433
▁koma	-11.4443
togal	-11.4444
hip	-11.4444
moyox	-11.4444
ṟaṟ	-11.4446
oo	-11.4473
talan	-11.4474
kaxa	-11.4475
▁D	-11.4491
mhom	-11.4511
ogos	-11.4515
nari	-11.452
mago	-11.4522
qaq	-11.4535
▁ste	-11.4539
axi	-11.454
▁sara	-11.4574
nahan	-11.4575
hap	-11.4575
▁kongbon	-11.4592
▁magiy	-11.4596
kah	-11.4602
lohiy	-11.4607
▁baba	-11.4615
▁rmo	-11.4627
▁gu	-11.4631
▁mahangn	-11.4638
▁bolo	-11.4638
cimo	-11.4638
ome	-11.4639
encomin	-11.4646
▁lngya	-11.465
asow	-11.4652
ngon	-11.4657
▁oboy	-11.4657
▁masaho	-11.4667
patol	-11.4671
par	-11.4682
nowah	-11.4692
htow	-11.4694
hoo	-11.4702
nok	-11.4715
bah	-11.4717
kox	-11.4723
▁La	-11.4724
▁mqe	-11.4729
▁pakaki	-11.4731
sorow	-11.4736
rong	-11.4774
▁psr	-11.4775
wali	-11.4786
▁ml	-11.4787
▁nane	-11.4803
ogan	-11.4806
▁hla	-11.4807
kow	-11.4811
glgan	-11.4817
▁rar	-11.4817
aroa	-11.4845
pih	-11.4857
paqan	-11.4863
iv	-11.488
▁bore	-11.488
▁ktali	-11.4882
tobonan	-11.4898
angi	-11.4921
eloq	-11.4933
▁sinr	-11.4934
asan	-11.4942
nyon	-11.4959
▁Miy	-11.4963
▁sqa	-11.4967
▁rhe	-11.4975
qoriq	-11.4978
▁nb	-11.4981
con	-11.4985
nna	-11.4987
▁meta	-11.5006
piya	-11.501
atak	-11.5013
ihol	-11.5017
▁phl	-11.5023
▁sinn	-11.5026
▁spyan	-11.5039
▁masoṟ	-11.5043
kora	-11.5056
ntana	-11.506
lip	-11.5072
yoko	-11.5075
iyow	-11.5097
aros	-11.5098
▁baqa	-11.5099
▁wawa	-11.5121
nang	-11.5126
toba	-11.514
obon	-11.5143
yanan	-11.5145
tako	-11.5146
▁tal	-11.5159
ṟok	-11.5161
ranch	-11.5166
▁kama	-11.5176
▁yama	-11.5183
▁kl	-11.5187
iqap	-11.5189
▁ṟom	-11.5193
lingon	-11.5197
econ	-11.5209
▁kabaxa	-11.5211
bayiy	-11.5227
aqro	-11.523
▁kakabahn	-11.523
akiyas	-11.5241
laq	-11.5243
▁sqas	-11.5248
▁ktal	-11.5261
magan	-11.5268
▁ql	-11.5273
act	-11.5276
pan	-11.5285
▁mne	-11.5285
eta	-11.5286
ract	-11.5286
aṟas	-11.5303
novowa	-11.5304
poyan	-11.5306
▁babi	-11.5306
▁though	-11.5309
▁coma	-11.5312
▁Lani	-11.5313
▁mqa	-11.5315
ek	-11.5315
▁famil	-11.5315
▁mtiyo	-11.5316
kayk	-11.5319
▁kam	-11.532
hnok	-11.5324
▁rango	-11.5325
xal	-11.5325
ṟow	-11.5329
▁naqar	-11.533
▁conve	-11.533
aliyap	-11.5337
ylag	-11.5339
▁tali	-11.534
▁hita	-11.5342
khgo	-11.5343
▁ihiy	-11.5344
▁sinbo	-11.5345
asibaq	-11.5349
aylhoy	-11.5349
▁deci	-11.5349
▁pqb	-11.5351
▁abag	-11.5353
▁psyasin	-11.5354
▁Masin	-11.5354
▁Losin	-11.5354
▁tha	-11.5355
▁bbir	-11.5356
reh	-11.5356
psibaq	-11.5356
▁hngiyan	-11.5357
klesa	-11.5357
▁bini	-11.5358
▁Taka	-11.5359
▁polic	-11.536
avawqil	-11.536
laglag	-11.536
ngkang	-11.5361
▁omiyo	-11.5361
▁sub	-11.5362
▁vegeta	-11.5362
orrow	-11.5362
nzyomin	-11.5362
~	-11.5362
distribut	-11.5362
▁discriminat	-11.5362
▁imperial	-11.5362
Government	-11.5362
ctually	-11.5362
ngaygyot	-11.5362
rarawmol	-11.5362
▁1945	-11.5362
▁Afterwards	-11.5362
▁Bawnay	-11.5362
▁Fengyuan	-11.5362
▁Greyfriars	-11.5362
▁Kamciyolang	-11.5362
▁Mountain	-11.5362
▁Nawpas	-11.5362
▁Numa	-11.5362
▁President	-11.5362
▁apatoṟ	-11.5362
▁argue	-11.5362
▁assimilat	-11.5362
▁binkgan	-11.5362
▁cehoṟ	-11.5362
▁conservati	-11.5362
▁describe	-11.5362
▁difficult	-11.5362
▁efforts	-11.5362
▁habaṟaw	-11.5362
▁homalngag	-11.5362
▁irarawq	-11.5362
▁kaknayril	-11.5362
▁kariyaxon	-11.5362
▁kgbyon	-11.5362
▁kloban	-11.5362
▁konlakah	-11.5362
▁linanglong	-11.5362
▁liquor	-11.5362
▁makaspat	-11.5362
▁masatana	-11.5362
▁mascaṟak	-11.5362
▁matahonak	-11.5362
▁mcqrox	-11.5362
▁mgwasiq	-11.5362
▁mlngiq	-11.5362
▁mtzywaw	-11.5362
▁ngaqowaq	-11.5362
▁nohanhan	-11.5362
▁pakaṟek	-11.5362
▁papasqotian	-11.5362
▁paptaliyoman	-11.5362
▁ptqalop	-11.5362
▁rawirawin	-11.5362
▁recogniz	-11.5362
▁representatives	-11.5362
▁sangaqowaq	-11.5362
▁sinkanaxan	-11.5362
▁sinngosan	-11.5362
fair	-11.5362
grgol	-11.5362
kbhni	-11.5362
nstitution	-11.5362
▁Atung	-11.5362
▁Cmyax	-11.5362
▁Kainu	-11.5362
▁Pamokan	-11.5362
▁Pihu	-11.5362
▁aṟimox	-11.5362
▁comiyok	-11.5362
▁deliberat	-11.5362
▁hrhol	-11.5362
▁msramo	-11.5362
▁qelis	-11.5362
▁qepit	-11.5362
▁ragex	-11.5362
▁tamorak	-11.5362
▁unfortunate	-11.5362
abaciyak	-11.5362
▁Nipon	-11.5362
▁deserves	-11.5362
▁hbayaw	-11.5362
▁kmoyah	-11.5362
▁mastahaṟ	-11.5362
▁pinqzyowaw	-11.5362
▁qmara	-11.5362
▁rgrgyax	-11.5362
▁tqiyay	-11.5362
abawqil	-11.5362
▁kaṟapon	-11.5362
▁Mekarang	-11.5362
▁Turay	-11.5362
▁gaghapoyan	-11.5362
▁maorag	-11.5362
▁sagoyo	-11.5362
▁somoṟal	-11.5362
gohiloq	-11.5362
▁Seyho	-11.5362
▁hweryaw	-11.5362
▁qparong	-11.5362
▁caypo	-11.5362
▁Kolas	-11.5362
▁mqelis	-11.5362
▁qinyatan	-11.5362
▁sramo	-11.5362
angqang	-11.5362
▁hahgo	-11.5362
▁lmyon	-11.5362
▁delineat	-11.5362
▁morkes	-11.5362
▁Vawnay	-11.5362
▁cigiaring	-11.5362
▁renki	-11.5362
▁vavinas	-11.5362
▁vawnay	-11.5362
▁Kawban	-11.5362
▁onroba	-11.5362
▁tagleq	-11.5362
▁kinriyax	-11.5362
▁kominoriax	-11.5362
▁mabel	-11.5362
▁noboon	-11.5362
▁omimag	-11.5362
caqrox	-11.5362
lomohing	-11.5362
▁qyatan	-11.5362
▁rarima	-11.5362
▁elect	-11.5363
▁Sabuw	-11.5363
▁qnapan	-11.5363
sapeeq	-11.5363
▁karariya	-11.5363
▁riyatox	-11.5363
▁xinoki	-11.5363
▁Tahayton	-11.5363
▁lalpo	-11.5363
▁nnep	-11.5363
amagalpo	-11.5363
▁safe	-11.5363
yuma	-11.5363
▁hrhi	-11.5363
▁honkang	-11.5363
▁cngosan	-11.5363
▁katana	-11.5363
▁patibaay	-11.5363
▁Kawyay	-11.5363
▁masamag	-11.5363
▁pqzyo	-11.5363
▁tanmoṟow	-11.5363
▁mahantan	-11.5363
▁youngster	-11.5363
syorak	-11.5363
▁snbilan	-11.5363
▁qanawan	-11.5363
likaway	-11.5363
▁exact	-11.5363
▁kakoyas	-11.5363
▁ssqoliq	-11.5363
▁Bakan	-11.5363
▁nawilong	-11.5363
▁komorongo	-11.5363
▁matṟo	-11.5363
▁kkhoniq	-11.5363
▁kmogos	-11.5363
▁rengki	-11.5363
▁bakit	-11.5363
▁htgan	-11.5363
▁mastokong	-11.5363
▁ponxo	-11.5363
▁Kiraw	-11.5363
▁realize	-11.5363
taptap	-11.5363
▁tawnox	-11.5363
▁masramoṟox	-11.5363
▁tkara	-11.5363
▁moloṟak	-11.5363
▁homakhok	-11.5363
axiy	-11.5363
▁magoṟow	-11.5363
▁bohino	-11.5363
▁qmici	-11.5363
▁papayma	-11.5363
▁salowi	-11.5363
▁Knyopan	-11.5363
▁Kulas	-11.5363
▁divers	-11.5363
▁makaroox	-11.5363
▁prahit	-11.5363
▁Mayngus	-11.5363
▁qmalang	-11.5363
▁manbabalayq	-11.5363
▁tlqi	-11.5363
taṟil	-11.5363
▁pinongan	-11.5363
▁masicoqi	-11.5363
▁comaping	-11.5363
▁solution	-11.5363
▁romileq	-11.5363
▁hinblan	-11.5363
▁kanrang	-11.5363
▁lhlahoy	-11.5363
▁orongko	-11.5364
▁pongkang	-11.5364
▁hlabang	-11.5364
▁patakalox	-11.5364
▁comawm	-11.5364
▁sbolok	-11.5364
▁tinabol	-11.5364
binkis	-11.5364
▁mogomalak	-11.5364
▁tararang	-11.5364
▁qaqoway	-11.5364
▁hiryo	-11.5364
▁Nibonsyo	-11.5364
▁pnaho	-11.5364
▁pataṟak	-11.5364
▁zimox	-11.5364
biyaq	-11.5364
hngali	-11.5364
▁tibalong	-11.5364
▁matakalang	-11.5364
▁hmzi	-11.5364
▁skyotan	-11.5364
▁knholan	-11.5364
▁manlaglag	-11.5364
▁losin	-11.5364
▁rps	-11.5364
▁txiy	-11.5365
▁sinxo	-11.5365
▁wariyong	-11.5365
▁kakriax	-11.5365
▁masaoto	-11.5365
▁mstopaw	-11.5365
▁hayhay	-11.5365
▁gmiba	-11.5365
▁sinbil	-11.5365
▁Savawqil	-11.5365
▁knihoy	-11.5365
ryohing	-11.5365
▁Yaki	-11.5365
▁mahoweq	-11.5365
▁tawyo	-11.5365
▁syop	-11.5365
ensive	-11.5365
▁Labi	-11.5365
▁pasnato	-11.5365
▁Paqalapaw	-11.5365
▁matatama	-11.5365
Kinsat	-11.5365
opas	-11.5365
▁habangan	-11.5365
▁pastokong	-11.5365
▁worry	-11.5365
▁mnep	-11.5365
bicek	-11.5365
▁tmala	-11.5366
▁Kating	-11.5366
▁tinirow	-11.5366
Hoco	-11.5366
▁qboli	-11.5366
▁layngon	-11.5366
▁Bayso	-11.5366
▁bingah	-11.5366
▁sakalay	-11.5366
▁Toray	-11.5366
▁hmakot	-11.5366
▁pema	-11.5366
▁kmloh	-11.5366
▁qpla	-11.5366
▁terri	-11.5366
▁omiyop	-11.5366
▁masiqon	-11.5366
▁paysan	-11.5366
▁tatoting	-11.5366
▁kmiyap	-11.5367
▁pahngawan	-11.5367
moyit	-11.5367
▁tmrangay	-11.5367
▁pipi	-11.5367
▁kwang	-11.5367
▁bnazi	-11.5367
▁pangih	-11.5367
ntain	-11.5367
▁kisleq	-11.5367
▁manavo	-11.5367
▁lhoyiy	-11.5367
honk	-11.5367
▁qsyox	-11.5367
▁Ocya	-11.5367
boreki	-11.5367
▁mangilis	-11.5367
maton	-11.5367
▁smyax	-11.5367
▁mnkox	-11.5367
▁makmosa	-11.5367
▁Tewan	-11.5367
▁tmapih	-11.5367
uwal	-11.5368
▁yayotas	-11.5368
▁kbzih	-11.5368
awna	-11.5368
▁tltow	-11.5368
▁konloh	-11.5368
▁lmwah	-11.5368
▁cmyok	-11.5368
qox	-11.5368
▁transition	-11.5368
▁payma	-11.5368
▁qmasow	-11.5368
glabang	-11.5368
▁bawli	-11.5368
▁tepeh	-11.5368
▁gyahiy	-11.5368
▁ppk	-11.5369
▁kongsincay	-11.5369
▁halhol	-11.5369
hakas	-11.5369
▁palohing	-11.5369
▁mkkayal	-11.5369
▁qamas	-11.5369
▁mnaho	-11.5369
▁qbaq	-11.5369
▁limok	-11.5369
▁wata	-11.537
▁moriy	-11.537
▁Cyok	-11.537
▁ibowi	-11.537
▁pslyan	-11.537
▁homakot	-11.537
▁qinah	-11.537
▁pasbalong	-11.537
▁regula	-11.537
▁tatalang	-11.537
▁ktahi	-11.537
mqing	-11.537
▁vari	-11.537
▁tayta	-11.537
▁snhi	-11.5371
▁mapogagay	-11.5371
▁rilom	-11.5371
▁lhmi	-11.5371
▁pgaliy	-11.5371
▁kilkah	-11.5371
mamas	-11.5371
▁howaka	-11.5371
▁pmohi	-11.5372
▁vora	-11.5372
▁gmwaya	-11.5372
▁maspatol	-11.5372
▁honṟi	-11.5372
▁rhkay	-11.5372
ddition	-11.5372
▁hmali	-11.5372
▁seiz	-11.5372
▁pahpo	-11.5373
▁sipto	-11.5373
▁poqowaw	-11.5373
▁paritensya	-11.5373
▁paptawwaw	-11.5373
▁poying	-11.5373
qotih	-11.5373
▁pilapi	-11.5373
ongxo	-11.5373
atagasa	-11.5374
▁bowayng	-11.5374
▁opak	-11.5374
▁hinason	-11.5374
▁splawa	-11.5374
▁ppwas	-11.5374
▁qtahi	-11.5374
▁qinow	-11.5374
▁paboling	-11.5374
zyok	-11.5374
omic	-11.5375
inapa	-11.5375
▁glaso	-11.5375
▁tpik	-11.5375
▁pook	-11.5376
▁salowan	-11.5376
qalangan	-11.5376
▁mheya	-11.5376
▁porong	-11.5376
▁smayok	-11.5376
▁tcingon	-11.5376
▁atona	-11.5376
▁torako	-11.5376
bwal	-11.5376
▁marahan	-11.5376
▁ptzyoaw	-11.5376
▁criqon	-11.5376
▁pnongan	-11.5377
▁obogan	-11.5377
▁hanray	-11.5377
▁conse	-11.5377
▁aalon	-11.5377
▁ryona	-11.5377
ayno	-11.5377
▁manaaring	-11.5378
▁kkyalan	-11.5378
makot	-11.5378
qinog	-11.5378
▁minkita	-11.5379
▁tmaso	-11.5379
▁tlak	-11.5379
▁knama	-11.5379
▁pkhgo	-11.5379
▁stnxan	-11.538
▁Siri	-11.538
▁ckaga	-11.538
▁kmto	-11.538
▁pasivaqa	-11.5381
▁pneloq	-11.5381
▁thbo	-11.5381
▁smbil	-11.5381
orox	-11.5381
▁omo	-11.5381
▁Wasaw	-11.5381
▁qorip	-11.5381
▁bno	-11.5381
▁pancang	-11.5382
▁Puli	-11.5382
riyat	-11.5382
▁manrakiyas	-11.5382
▁tasiyang	-11.5383
▁taronaw	-11.5383
▁pintasan	-11.5383
▁ngawa	-11.5384
inamo	-11.5384
action	-11.5384
▁hmor	-11.5384
▁hying	-11.5384
▁tayh	-11.5385
▁mabowinah	-11.5385
▁tkbaqan	-11.5385
akakil	-11.5385
▁binr	-11.5385
▁ptrang	-11.5385
▁pngran	-11.5385
▁pkaroh	-11.5385
noriax	-11.5386
▁bahagon	-11.5386
:"	-11.5386
▁smoran	-11.5386
kkoh	-11.5386
▁tmring	-11.5386
otas	-11.5386
▁creh	-11.5386
▁magaang	-11.5387
haylag	-11.5387
▁society	-11.5387
▁hmwaw	-11.5388
▁khe	-11.5388
▁mpika	-11.5388
▁tmobo	-11.5388
hongiqa	-11.5388
▁matata	-11.5388
▁slqi	-11.5388
▁pakaav	-11.5388
▁kmisan	-11.5389
▁mskora	-11.5389
▁cyaqo	-11.539
▁mhozi	-11.539
▁miyt	-11.539
▁micyo	-11.539
▁babaqon	-11.539
▁riwan	-11.539
▁klox	-11.5391
▁Tawy	-11.5391
▁matakal	-11.5391
mbol	-11.5392
▁gasil	-11.5393
▁homgo	-11.5393
▁sababo	-11.5393
▁waqco	-11.5393
▁gift	-11.5393
▁nhon	-11.5394
▁menpaw	-11.5394
▁bawxi	-11.5394
sonno	-11.5394
▁warang	-11.5395
▁slpyong	-11.5395
▁ggalan	-11.5395
▁smoyox	-11.5395
▁mobinah	-11.5395
▁tanabon	-11.5398
▁kinqi	-11.5398
▁qapow	-11.5398
▁Tah	-11.5398
▁loyox	-11.5398
▁xir	-11.5399
▁smpong	-11.54
roṟox	-11.54
▁yongay	-11.5401
▁qaraw	-11.5401
▁mtoroy	-11.5401
▁smko	-11.5402
sasan	-11.5402
▁betonox	-11.5402
▁gmawa	-11.5403
▁stat	-11.5403
akataxa	-11.5403
▁lnpo	-11.5403
cik	-11.5404
qiton	-11.5404
▁skato	-11.5405
▁skilox	-11.5405
▁kwali	-11.5406
mog	-11.5406
▁sinbowan	-11.5406
▁hlaqi	-11.5407
maimag	-11.5407
mtam	-11.5408
qoliq	-11.5408
▁bqan	-11.5408
▁syoni	-11.5408
▁Atong	-11.5409
▁kikow	-11.541
▁talami	-11.541
haṟi	-11.541
mayogi	-11.5411
▁klhang	-11.5411
iqong	-11.5412
aliyan	-11.5412
▁sebo	-11.5412
▁rhk	-11.5412
▁tapan	-11.5412
yawan	-11.5413
▁bne	-11.5414
▁pnekan	-11.5414
mngali	-11.5414
▁halilaw	-11.5414
▁mnama	-11.5414
niro	-11.5414
▁pasang	-11.5415
▁tringan	-11.5415
xyo	-11.5416
xol	-11.5416
▁zib	-11.5416
▁qmozyo	-11.5416
▁tmobon	-11.5417
▁korip	-11.5417
▁amalo	-11.5419
bior	-11.5419
▁tbison	-11.5419
▁Kaws	-11.542
▁omi	-11.542
▁ppg	-11.5422
▁becomes	-11.5422
▁intend	-11.5422
lisan	-11.5423
▁minn	-11.5424
▁yatox	-11.5425
qaros	-11.5426
alaman	-11.5427
▁stnaq	-11.5427
▁qabob	-11.5427
▁rago	-11.5427
▁kmat	-11.5428
▁Syoni	-11.5428
▁liliq	-11.543
ately	-11.543
raso	-11.543
abok	-11.5431
lbox	-11.5431
▁totingon	-11.5431
▁bnkisan	-11.5433
ongos	-11.5433
▁rangon	-11.5433
▁miam	-11.5434
yohong	-11.5435
▁paki	-11.5435
▁komat	-11.5435
▁raralan	-11.5435
▁hmkani	-11.5435
pagal	-11.5436
▁mwak	-11.5436
▁sabayho	-11.5437
▁parho	-11.5437
▁pkat	-11.5437
lobong	-11.5438
▁Ky	-11.5438
▁syoka	-11.5439
▁miniro	-11.5441
eeves	-11.5441
▁makato	-11.5442
▁awlit	-11.5442
▁qomalo	-11.5443
▁swagi	-11.5444
▁qmipo	-11.5444
▁tayto	-11.5446
klkah	-11.5446
▁shera	-11.5448
▁hiko	-11.5448
▁syopan	-11.5448
▁parox	-11.5449
bayqan	-11.5449
▁mz	-11.545
▁sasaw	-11.545
nayat	-11.5451
▁Yoming	-11.5452
▁tmma	-11.5452
▁binin	-11.5452
▁healthy	-11.5453
▁kokok	-11.5454
soq	-11.5454
▁ininah	-11.5456
▁qho	-11.5457
▁rangil	-11.5457
▁mkraki	-11.546
▁romoro	-11.546
▁qala	-11.5461
nyopan	-11.5463
omen	-11.5464
▁malang	-11.5469
▁sinv	-11.5472
awm	-11.5473
▁mtayox	-11.5474
▁sasing	-11.5474
▁imoa	-11.5474
▁pinsbaq	-11.5475
bilos	-11.5476
▁ckaw	-11.5479
▁hmit	-11.548
▁tomobox	-11.5481
▁mango	-11.5481
▁hico	-11.5483
▁mhol	-11.5484
▁tamol	-11.5484
▁haga	-11.5486
▁hoso	-11.5488
usi	-11.5488
atoli	-11.5489
▁conbo	-11.5491
▁ṟoho	-11.5492
tiyol	-11.5492
▁ksyos	-11.5494
hzyo	-11.5495
▁shelaw	-11.5496
▁giya	-11.5498
▁maqaq	-11.5503
tiri	-11.5505
hkngy	-11.5505
▁tokora	-11.5505
▁comoling	-11.5506
▁mtoli	-11.5506
▁mintana	-11.5507
▁qro	-11.5511
Cwan	-11.5512
lalabah	-11.5512
▁ksa	-11.5512
▁bake	-11.5516
▁mnoya	-11.5517
▁awlo	-11.5518
hozi	-11.5519
cyokan	-11.552
▁mhong	-11.552
▁matakoy	-11.552
▁qrqa	-11.5522
▁nwah	-11.5522
▁lx	-11.5522
▁meli	-11.5526
▁masqa	-11.5527
▁Noma	-11.5531
▁kwi	-11.5533
▁mstma	-11.5536
▁Pay	-11.5538
▁nabi	-11.554
▁klit	-11.5541
▁nu	-11.5541
▁maṟi	-11.5543
oco	-11.5543
▁angay	-11.5543
▁state	-11.5544
▁lango	-11.5546
▁somol	-11.5546
▁kalo	-11.5551
mah	-11.5555
morom	-11.5558
atom	-11.5569
▁asino	-11.557
▁pinss	-11.5572
iar	-11.5573
yaq	-11.5575
tsway	-11.5576
▁pawng	-11.558
▁manah	-11.5581
▁copo	-11.5583
▁yatat	-11.5586
bowang	-11.559
lam	-11.5592
yalan	-11.5594
▁seal	-11.5595
▁baro	-11.5595
sthay	-11.56
▁mabi	-11.56
▁silo	-11.56
ryasan	-11.5602
▁innaga	-11.5605
akox	-11.5609
▁tir	-11.561
▁wrongs	-11.5612
▁comon	-11.5614
▁saṟ	-11.5616
ringo	-11.5618
▁urn	-11.5621
▁ksos	-11.5622
▁pakiki	-11.5624
▁sklow	-11.5626
▁shot	-11.5627
▁lhyo	-11.5629
ahlan	-11.5634
▁saliq	-11.564
qenox	-11.564
▁gwahi	-11.5642
▁taiwan	-11.5642
ribi	-11.5644
▁nahi	-11.5645
▁kasawbih	-11.5645
sap	-11.5647
▁qaqalo	-11.5653
tzyo	-11.5653
▁tki	-11.5654
lapgan	-11.5654
▁mngan	-11.5656
▁mbolo	-11.5659
▁payo	-11.5659
ulas	-11.5659
krax	-11.5663
kyoko	-11.5671
▁mzyo	-11.5673
▁nah	-11.5675
▁cac	-11.5678
▁steaming	-11.5681
▁following	-11.5681
kesan	-11.5681
▁sapit	-11.5682
▁boyan	-11.5688
▁papagl	-11.569
▁tawbo	-11.5691
pika	-11.5693
awgaw	-11.5693
sngaho	-11.5696
▁Mayng	-11.57
ions	-11.5704
amaso	-11.5707
▁mapa	-11.5716
lapaw	-11.572
ngil	-11.5722
▁biy	-11.5726
▁nira	-11.5731
ntaga	-11.5734
▁qmoy	-11.5737
▁naqiy	-11.5738
▁waqbo	-11.5744
▁mabo	-11.5747
▁bosi	-11.5747
▁ngilis	-11.5763
mabil	-11.5769
▁chi	-11.5772
▁heko	-11.5773
▁capoh	-11.5776
samaw	-11.5777
yenpins	-11.5778
▁gyah	-11.5778
▁smzyo	-11.578
▁cila	-11.5781
▁kle	-11.5783
▁smoy	-11.5783
▁paqowa	-11.5784
ayqa	-11.5784
▁paspong	-11.5792
▁kava	-11.5792
nwan	-11.5799
▁biqiy	-11.5804
▁mokan	-11.581
isi	-11.5816
▁bnh	-11.5817
fon	-11.582
▁tamako	-11.5822
▁harvesting	-11.5827
hood	-11.5839
engon	-11.5849
hotang	-11.5854
taomok	-11.5858
▁kni	-11.586
▁iyi	-11.5861
▁cng	-11.5863
▁koba	-11.587
iho	-11.5874
▁romamo	-11.5877
▁bahat	-11.588
lmoh	-11.5881
mhot	-11.5888
lhol	-11.5892
kak	-11.5896
▁mryo	-11.5897
git	-11.5898
▁packe	-11.59
motaq	-11.5908
▁psk	-11.5909
powan	-11.5916
ret	-11.5919
boling	-11.592
▁msbe	-11.5926
stokon	-11.593
▁rhya	-11.5933
tiye	-11.594
kapah	-11.5954
▁cip	-11.5955
▁ṟomoy	-11.5959
▁skolo	-11.5972
▁tie	-11.5972
ṟon	-11.5973
nabah	-11.5979
ors	-11.5986
▁haha	-11.5993
ovox	-11.5993
▁omata	-11.5994
inblayq	-11.6
mowag	-11.6
▁mincyoga	-11.6004
storing	-11.6006
▁somirho	-11.6016
▁sgo	-11.6017
nlalo	-11.6017
rhon	-11.6018
▁mngo	-11.6027
▁Zo	-11.6036
skora	-11.604
▁hhi	-11.6041
awki	-11.6058
awli	-11.606
qay	-11.6062
pok	-11.6062
▁kinq	-11.6062
qsya	-11.6063
▁slox	-11.6065
▁sinsa	-11.6082
pik	-11.6082
▁mkaga	-11.6083
mti	-11.6083
▁heton	-11.6085
▁minnan	-11.6088
▁skota	-11.6092
▁crops	-11.6097
▁nahiyahiyaw	-11.61
▁stanox	-11.6101
▁moqo	-11.6101
▁voax	-11.6105
▁mnbo	-11.6108
wen	-11.6112
▁tami	-11.6114
ect	-11.6119
▁mota	-11.612
▁pinbaq	-11.6121
▁srapa	-11.6127
ace	-11.6129
▁masto	-11.6131
▁ozit	-11.6134
▁qowas	-11.6135
▁omomo	-11.6136
zen	-11.6137
sinok	-11.6139
▁kocon	-11.6144
mobox	-11.6154
▁poho	-11.6155
kakayr	-11.6156
mpol	-11.6164
▁taba	-11.6165
▁psing	-11.6174
▁mka	-11.6174
yaniy	-11.6182
▁qsino	-11.6184
▁syokon	-11.6192
anakox	-11.6193
pil	-11.6193
▁qolowang	-11.6194
▁osali	-11.6195
▁pogian	-11.6196
▁pingsyang	-11.6196
allow	-11.62
▁isting	-11.62
obing	-11.6202
▁osalan	-11.6204
▁hawak	-11.6205
▁ngongo	-11.6213
▁qco	-11.6215
▁kinsyok	-11.6215
pirayon	-11.6221
ima	-11.6225
▁babang	-11.6226
▁liho	-11.6227
▁rgy	-11.6229
▁Hawvin	-11.6232
evelopment	-11.6234
▁lalan	-11.6236
ngow	-11.6255
tobon	-11.6263
nek	-11.6269
arxon	-11.6273
▁mr	-11.6282
goson	-11.6283
▁kasi	-11.63
▁aang	-11.6301
▁sl	-11.6309
▁makita	-11.6317
▁soci	-11.632
▁sakow	-11.632
▁shiy	-11.6322
▁mta	-11.6337
▁raan	-11.6342
twan	-11.6346
▁sapi	-11.6348
▁somaw	-11.6352
▁sngos	-11.6361
olah	-11.6366
ngawan	-11.6371
▁marar	-11.6371
syo	-11.6375
karip	-11.6384
nam	-11.6385
meth	-11.6386
rarag	-11.6392
kraw	-11.6396
kyala	-11.6403
▁mahaho	-11.6417
tata	-11.6453
▁mkgi	-11.6456
▁glglo	-11.6461
▁game	-11.6468
▁kocyo	-11.6489
wasan	-11.6513
▁mqo	-11.6514
ngihi	-11.6516
ayq	-11.6521
rew	-11.6525
▁lands	-11.6527
qit	-11.6554
qabaq	-11.6563
▁Ka	-11.6564
bxan	-11.6565
ahan	-11.6568
▁hl	-11.6571
awni	-11.6586
rosa	-11.6588
kaw	-11.6588
▁sno	-11.6597
▁mosi	-11.66
▁ge	-11.6607
▁mogo	-11.6627
▁soyaw	-11.6636
▁des	-11.6637
▁koṟa	-11.6664
abay	-11.6664
▁rah	-11.6665
▁limo	-11.667
▁noto	-11.6688
▁kaway	-11.6691
▁smila	-11.6694
xox	-11.6695
▁pataq	-11.6704
rake	-11.6711
▁kaba	-11.6712
▁rnamo	-11.6727
naqi	-11.6742
▁tamapa	-11.6745
kian	-11.6759
▁mhon	-11.6764
▁pasayog	-11.6767
nyang	-11.6778
tagah	-11.6785
▁mayay	-11.6789
▁hngya	-11.6816
▁mtkar	-11.684
ngoq	-11.6857
aqowas	-11.6857
olin	-11.6863
tngi	-11.6864
▁oyit	-11.6869
▁gmi	-11.6872
▁pasaka	-11.6872
▁ib	-11.6877
mil	-11.6882
▁lhoy	-11.6896
▁pinh	-11.69
▁pqiy	-11.6917
kibaq	-11.6923
▁sinba	-11.6936
kanama	-11.6942
▁mastata	-11.6942
em	-11.6947
kabaga	-11.6948
▁mngah	-11.697
yot	-11.6971
amisan	-11.6976
▁kyahi	-11.6979
ril	-11.7006
▁kaciki	-11.7014
▁sibi	-11.7021
obo	-11.7024
▁masn	-11.7028
▁kalahang	-11.7038
▁Pe	-11.705
boyaw	-11.7054
▁amotox	-11.706
kasiyok	-11.7063
yahaw	-11.7065
inrya	-11.7068
eyo	-11.707
▁minkah	-11.7071
pxan	-11.7075
▁tomon	-11.7077
▁kagi	-11.7082
▁tigiqot	-11.7093
alaw	-11.7101
ikot	-11.7102
tol	-11.7114
oqil	-11.7121
▁gabgab	-11.7148
hon	-11.7148
▁ṟok	-11.7162
▁mahang	-11.7164
▁somiliy	-11.7168
▁khoy	-11.7188
lig	-11.7211
▁qoaw	-11.7218
walon	-11.7222
▁magiya	-11.7222
kgis	-11.7228
▁tinrow	-11.7238
▁msr	-11.7239
▁pbzih	-11.7242
▁byaq	-11.7269
▁papbi	-11.7273
ninano	-11.728
kalahang	-11.7294
▁taya	-11.7301
▁kasaṟox	-11.7325
askakaro	-11.7329
viq	-11.7332
▁rroq	-11.7336
▁moong	-11.7336
qsinox	-11.735
lalo	-11.7355
hib	-11.7368
hor	-11.7371
▁pisaneq	-11.7374
▁shotaw	-11.7376
▁laqong	-11.7386
▁ksayox	-11.7405
hgon	-11.7411
▁pahpah	-11.7412
▁ṟapak	-11.7413
▁gomaw	-11.7419
aron	-11.7424
omobo	-11.7425
▁bowinah	-11.7425
▁gagi	-11.7433
▁thmo	-11.7451
▁iqa	-11.7455
▁gonl	-11.7461
▁banasan	-11.7468
▁bgaya	-11.7468
ir	-11.7484
▁stbazi	-11.749
▁qmi	-11.7492
pita	-11.7504
miriq	-11.7513
▁biso	-11.7516
▁ongii	-11.7517
iking	-11.7532
j	-11.7533
kiyak	-11.7542
▁glga	-11.7543
▁rama	-11.7545
oloy	-11.7562
▁pato	-11.7567
▁gomal	-11.7569
▁Thay	-11.7594
▁bu	-11.7635
ep	-11.7641
tow	-11.7643
▁sav	-11.7643
▁hakay	-11.7643
▁inde	-11.765
▁pasasing	-11.7654
▁kinbaq	-11.7657
▁sogo	-11.7681
▁kamil	-11.77
▁cbaqa	-11.7702
shed	-11.7702
▁traditions	-11.7724
▁lohiy	-11.7753
▁saban	-11.7753
▁sipapa	-11.7776
tinon	-11.7791
▁ragan	-11.7797
▁sona	-11.7799
syogi	-11.7805
ikan	-11.7815
▁hra	-11.7824
abax	-11.7827
▁Re	-11.783
other	-11.7842
paw	-11.7861
rden	-11.7868
▁linp	-11.7874
▁qamiso	-11.7896
tiyay	-11.7898
ex	-11.7905
bax	-11.7908
baay	-11.7911
▁laway	-11.792
gyaw	-11.7948
bas	-11.7949
▁tocing	-11.7966
lingaw	-11.7971
rip	-11.7973
cy	-11.7983
ayi	-11.8005
▁hangal	-11.8024
arow	-11.8027
langa	-11.8032
pit	-11.8043
▁mtga	-11.805
▁wali	-11.8065
moq	-11.808
▁qiy	-11.8085
hir	-11.8095
ez	-11.81
▁Iwan	-11.8106
▁tgt	-11.8106
omatoe	-11.8111
▁sam	-11.8113
anah	-11.8113
lami	-11.8134
▁soyo	-11.8152
boway	-11.8156
ented	-11.8179
rity	-11.8193
▁magq	-11.821
royo	-11.8216
tari	-11.8217
morow	-11.8229
min	-11.8243
▁comi	-11.8286
▁bico	-11.8301
iyan	-11.8315
yocyo	-11.8332
gli	-11.8347
▁kinzya	-11.8355
▁ṟaṟ	-11.8367
tzyoaw	-11.8369
▁manovoa	-11.8378
▁add	-11.8381
▁spray	-11.8384
▁mok	-11.84
▁boho	-11.8409
stol	-11.8409
▁smwaya	-11.8413
▁kiyo	-11.8441
▁pswa	-11.8484
owi	-11.8485
▁mhi	-11.8489
▁skill	-11.8496
▁litan	-11.8496
▁paci	-11.8515
saba	-11.852
▁rowa	-11.8542
▁omato	-11.8555
▁towanga	-11.8582
▁mokora	-11.8584
▁brba	-11.8596
ngli	-11.8602
▁kingi	-11.8633
mimo	-11.8653
▁kinta	-11.8658
enpaw	-11.8678
nrama	-11.8679
▁slohi	-11.8711
cin	-11.8722
▁gow	-11.8727
ico	-11.8732
▁hngzyang	-11.8734
▁plq	-11.8775
▁miyen	-11.8786
oving	-11.8796
irow	-11.8796
▁phs	-11.8822
▁galiq	-11.8833
honiq	-11.886
▁hab	-11.8867
▁galo	-11.8919
▁papi	-11.8948
▁msk	-11.8954
▁hmot	-11.8976
edding	-11.8979
liq	-11.8983
▁smaw	-11.8991
▁matasow	-11.8992
▁loma	-11.902
salan	-11.9022
▁inoh	-11.9027
▁abon	-11.9044
▁manax	-11.9062
taal	-11.9063
▁sikalahan	-11.9072
ian	-11.9085
aspong	-11.9163
▁ngasa	-11.9173
ros	-11.918
▁lah	-11.9199
pi	-11.9242
id	-11.9254
hak	-11.9258
maṟ	-11.9278
▁rro	-11.9336
▁solo	-11.9345
ahoq	-11.935
kisan	-11.936
▁pis	-11.9367
▁sett	-11.9368
ngya	-11.9374
▁msoya	-11.9378
ayon	-11.9386
▁hkay	-11.9407
▁Sim	-11.9413
▁lilins	-11.9444
kaba	-11.9463
▁cilong	-11.9468
▁pres	-11.9486
▁bani	-11.9487
kot	-11.9502
▁praho	-11.951
muy	-11.9521
lves	-11.9525
lowap	-11.9547
▁cinn	-11.9553
▁pasen	-11.956
▁ratan	-11.958
▁taqa	-11.9584
▁sbe	-11.9609
▁koṟ	-11.9613
▁phnga	-11.9619
gebo	-11.962
ngar	-11.9633
lawm	-11.9661
osi	-11.9666
▁panan	-11.9671
qil	-11.9673
▁ṟ	-11.9693
iwi	-11.9693
kos	-11.9712
ayo	-11.9723
bowas	-11.9726
sac	-11.9734
gasan	-11.9737
koko	-11.9749
cow	-11.9749
atawaw	-11.9755
▁pagaga	-11.9763
▁king	-11.9768
akiy	-11.9786
ative	-11.9805
tahoy	-11.9812
qilang	-11.9816
▁mis	-11.9821
▁pkm	-11.9828
▁masma	-11.9836
leh	-11.9838
oriq	-11.9852
nayang	-11.9875
olon	-11.9903
spong	-11.9908
soro	-11.9946
roko	-11.9986
▁hbo	-11.9991
tr	-11.9993
▁gom	-12.001
orry	-12.0013
▁cmpo	-12.0083
▁pkiya	-12.009
▁roo	-12.0102
yogi	-12.0104
▁qab	-12.0128
mhit	-12.0132
piy	-12.0135
▁wi	-12.0151
bibi	-12.016
▁pksyoga	-12.0224
skakaro	-12.0226
ryax	-12.0244
ahox	-12.0268
▁qqsino	-12.0281
yasing	-12.0288
atok	-12.0288
kso	-12.0293
enso	-12.0298
inah	-12.0311
el	-12.0339
mot	-12.0348
sabo	-12.0358
▁tata	-12.0375
anabala	-12.038
▁siqa	-12.039
iyal	-12.0393
▁pbziha	-12.0413
▁omok	-12.0426
wayan	-12.0436
awkan	-12.0439
▁balayan	-12.0445
▁khl	-12.0465
▁qoma	-12.0473
▁smyo	-12.0496
onga	-12.0507
apat	-12.0528
▁sinpo	-12.0531
yazi	-12.0556
▁kapi	-12.0573
honakan	-12.0575
▁Tayc	-12.0604
yin	-12.0622
baqi	-12.0632
▁yayan	-12.0641
▁sagal	-12.065
▁pina	-12.0688
▁Y	-12.0688
▁mnkon	-12.0688
▁maca	-12.0697
▁tba	-12.0711
▁kinmxa	-12.0715
▁goq	-12.0726
▁mapan	-12.0748
ries	-12.0752
msb	-12.0782
cowal	-12.0803
mow	-12.0809
▁simpl	-12.081
▁miya	-12.0818
tori	-12.082
others	-12.0851
▁awas	-12.088
▁prah	-12.0886
▁tatoh	-12.0892
mwan	-12.0896
▁qomowa	-12.0907
yato	-12.0908
▁goma	-12.0911
ingasog	-12.0912
▁sgaya	-12.0928
▁bho	-12.0932
romo	-12.0941
ksoya	-12.0972
zo	-12.0985
▁paba	-12.0986
tatako	-12.099
pog	-12.0995
zyo	-12.0998
▁neg	-12.0999
▁mazi	-12.1001
sogi	-12.1016
shu	-12.1021
▁mngaha	-12.1057
▁apx	-12.1059
tango	-12.1064
▁psab	-12.11
zyoaw	-12.1103
kiyan	-12.1123
▁qmto	-12.1138
ken	-12.1165
rapa	-12.1168
tion	-12.1172
intga	-12.1191
lis	-12.1193
tang	-12.1197
oyi	-12.1204
▁mtg	-12.1208
ration	-12.1213
▁nasal	-12.1216
▁kayab	-12.1223
nbwan	-12.1247
gaw	-12.1256
▁mpl	-12.1288
▁bq	-12.1308
ab	-12.1311
▁comm	-12.1324
wayal	-12.134
bl	-12.1378
rasiy	-12.1378
iriq	-12.1394
▁qlo	-12.1398
omalo	-12.1398
▁kisi	-12.1411
▁kal	-12.1416
owagi	-12.1427
cog	-12.1438
▁kah	-12.144
ayho	-12.1457
inow	-12.146
ayn	-12.1461
omaw	-12.1463
die	-12.1477
▁tkl	-12.149
▁tarah	-12.1495
▁mglo	-12.15
kino	-12.1509
rgyax	-12.1513
kngih	-12.1522
miyah	-12.1525
▁tbo	-12.153
▁wasil	-12.1549
imple	-12.1554
▁qav	-12.1555
salon	-12.156
aboli	-12.1561
qoqo	-12.1583
4	-12.1584
▁vin	-12.1585
rah	-12.1588
▁phng	-12.1595
▁yomi	-12.1597
znga	-12.16
ṟo	-12.1602
Wh	-12.1606
▁raq	-12.1615
koṟ	-12.1632
▁minnxa	-12.1635
▁waq	-12.1647
▁prop	-12.1654
▁sasiy	-12.1656
angri	-12.1669
yaba	-12.1672
namow	-12.1676
aqil	-12.1682
panaq	-12.1683
wng	-12.1688
▁tkr	-12.1694
plaw	-12.171
▁hoei	-12.171
▁talah	-12.1715
bzih	-12.1721
Z	-12.1761
▁rh	-12.1769
▁cm	-12.1781
▁bru	-12.1783
▁leh	-12.1789
cyogan	-12.1789
▁dem	-12.1794
aṟo	-12.1799
▁kiyay	-12.1802
aṟik	-12.1802
miax	-12.1803
anga	-12.1807
nos	-12.1815
toring	-12.1822
bih	-12.1834
kiyo	-12.1846
ciyo	-12.1885
lalong	-12.1889
▁gmob	-12.1905
maq	-12.1908
▁ttho	-12.1914
yeng	-12.1915
szyo	-12.1928
▁patisa	-12.193
riax	-12.1936
komo	-12.195
ango	-12.1951
hab	-12.1952
tlto	-12.1953
▁lov	-12.1954
magon	-12.1961
esiy	-12.1967
ciyok	-12.1974
▁bona	-12.1975
naga	-12.1991
ptbazi	-12.2001
▁saka	-12.2002
ngongo	-12.2003
mkgi	-12.2009
pol	-12.2016
galiy	-12.2017
▁piy	-12.2018
pogian	-12.2022
pingsyang	-12.2025
qolowang	-12.2026
Yo	-12.2029
sngos	-12.2032
roq	-12.2034
qsino	-12.2036
kocyo	-12.2046
ghap	-12.205
pksyo	-12.2052
gel	-12.2057
hawak	-12.2057
▁j	-12.2064
gry	-12.2067
▁tmiri	-12.2069
ebong	-12.207
neg	-12.2072
khot	-12.2086
xil	-12.2088
out	-12.2089
komay	-12.2099
ncyo	-12.2099
babang	-12.2105
mgyebo	-12.2107
Miaoli	-12.2107
pilapilag	-12.2107
iqa	-12.2108
zyap	-12.2108
galeng	-12.2108
keweh	-12.2109
rengwa	-12.2109
X	-12.211
panqaqo	-12.2113
▁Commi	-12.2115
kax	-12.2119
naq	-12.2122
orik	-12.2123
tomon	-12.2124
nak	-12.2125
▁kwa	-12.2148
▁pinto	-12.2149
appear	-12.2157
khangi	-12.2159
qiri	-12.2164
amilan	-12.2166
shri	-12.2166
ngarox	-12.2167
nabowibowi	-12.2167
opong	-12.2168
nqwaq	-12.2169
syokon	-12.2171
tara	-12.2174
▁tinr	-12.2175
qwas	-12.2176
▁pakta	-12.2176
raxal	-12.2177
bicyo	-12.2181
▁cbon	-12.2181
Sinsiy	-12.2182
psyasing	-12.2183
You	-12.2186
lama	-12.2187
patas	-12.2187
catch	-12.2194
yotak	-12.2194
spzyang	-12.2198
mspat	-12.2199
voax	-12.2201
V	-12.2202
pcyowagon	-12.2203
qco	-12.2203
rq	-12.2204
maṟok	-12.2205
torakis	-12.2206
pomahon	-12.2207
ramat	-12.2207
qaqasino	-12.2208
qoaw	-12.2208
Genzyomin	-12.2209
skinot	-12.2212
toroy	-12.2213
rhzyal	-12.2213
aqeh	-12.2215
tabihi	-12.2215
ṟaṟolo	-12.2216
imoag	-12.2217
zyaq	-12.2217
reng	-12.2219
mountain	-12.2219
ngasal	-12.222
kobo	-12.222
know	-12.2222
qolih	-12.2223
royox	-12.2223
ksiyo	-12.2223
front	-12.2224
mica	-12.2225
qomisowan	-12.2227
tmalong	-12.2228
sipa	-12.2229
baaq	-12.2229
haca	-12.223
samiy	-12.2231
P	-12.2231
nono	-12.2234
kanowan	-12.2234
run	-12.2238
search	-12.224
miniy	-12.224
vaw	-12.2242
giyay	-12.2243
oma	-12.2244
helaw	-12.2246
kanayril	-12.2246
texan	-12.2247
while	-12.2249
osalan	-12.225
keno	-12.2252
llamo	-12.2255
kanel	-12.2258
came	-12.2261
▁sapo	-12.2264
bowax	-12.2266
doing	-12.2267
mowani	-12.2268
yota	-12.2269
took	-12.2271
girang	-12.2274
E	-12.2274
kira	-12.2279
Fo	-12.228
cent	-12.2281
pawsa	-12.2283
▁teta	-12.2284
maziy	-12.2286
kamil	-12.2288
coxan	-12.2294
yopon	-12.2301
poson	-12.2312
mami	-12.2312
tyaba	-12.2314
mrkyas	-12.2322
▁inblay	-12.2338
▁Ch	-12.2341
sesiy	-12.2348
▁sikaṟa	-12.2349
Sa	-12.2352
habok	-12.2353
abal	-12.2364
line	-12.2366
lohing	-12.237
▁tim	-12.238
hiyahiyaw	-12.2384
balong	-12.2385
moxaal	-12.2392
ṟating	-12.2393
ngyaw	-12.2395
halan	-12.2408
bawi	-12.2409
paka	-12.2415
hangaw	-12.2418
▁ginl	-12.2419
ocya	-12.2419
▁gmoya	-12.2423
vowa	-12.2432
gaṟ	-12.2438
waha	-12.2448
owak	-12.2451
▁mtlo	-12.2452
Th	-12.2453
behoṟ	-12.2459
roni	-12.2462
▁skaho	-12.2466
kato	-12.2466
hmi	-12.2471
ayoy	-12.2477
▁papay	-12.2481
L	-12.2482
byat	-12.2487
kabahneq	-12.25
▁hmk	-12.2505
▁pp	-12.2507
▁kyabi	-12.2509
tayan	-12.2515
▁cbo	-12.2516
▁bik	-12.2516
ship	-12.2517
▁kakaga	-12.2529
nnabkis	-12.2538
▁pinba	-12.2541
▁kaga	-12.2547
▁moṟi	-12.255
▁pnba	-12.2552
bato	-12.2553
indigenous	-12.256
aqi	-12.2567
▁krak	-12.2569
▁tah	-12.257
▁qes	-12.2571
qya	-12.2579
binah	-12.2584
give	-12.2589
ham	-12.2601
sbayho	-12.2602
▁kinl	-12.2606
mapo	-12.2616
ured	-12.2616
soqa	-12.2619
omang	-12.2623
cmon	-12.263
papak	-12.2631
▁moron	-12.2638
taqro	-12.2639
▁mtb	-12.2639
▁vavay	-12.2645
qawm	-12.2646
nts	-12.2663
lat	-12.2663
nj	-12.2666
ngot	-12.2667
holan	-12.2668
part	-12.268
guar	-12.2682
▁Pir	-12.2686
▁rg	-12.2691
wayay	-12.2694
▁tn	-12.2694
▁makto	-12.2696
▁rm	-12.2697
▁kbsya	-12.2697
▁kro	-12.2709
piyo	-12.2717
▁fel	-12.2737
lih	-12.2747
kahong	-12.2751
▁bta	-12.2757
bok	-12.2757
▁mlbin	-12.2762
nanowan	-12.2774
cpngan	-12.2782
▁bgan	-12.2787
ṟal	-12.2788
▁mnir	-12.2795
▁abo	-12.2795
hax	-12.2796
▁msoy	-12.2798
homan	-12.2801
ngco	-12.281
hand	-12.2823
haag	-12.2832
cak	-12.2833
enx	-12.2836
▁lmon	-12.2843
micow	-12.2852
qena	-12.2853
▁qmo	-12.2857
▁panaq	-12.2864
iriy	-12.2901
▁psya	-12.2904
rrgyax	-12.2905
hboy	-12.2911
ryo	-12.2933
bean	-12.2935
syasing	-12.2937
original	-12.2939
rakiyas	-12.2942
mna	-12.2953
yaway	-12.2955
kyi	-12.2957
acaw	-12.2957
Whe	-12.296
▁mataso	-12.297
cyoxan	-12.297
kbol	-12.2972
▁pbo	-12.3
▁gla	-12.3008
mowan	-12.3017
kmota	-12.3024
glu	-12.3034
pawalax	-12.3038
▁sapon	-12.3049
▁tgb	-12.3057
parara	-12.3058
ege	-12.306
otang	-12.3062
lagay	-12.3069
▁kinm	-12.3071
▁mahow	-12.3075
▁tno	-12.3085
▁kbaga	-12.3087
rly	-12.3101
▁hmoq	-12.3102
asaṟox	-12.3103
▁tqs	-12.3106
srapa	-12.3107
▁qaqal	-12.3126
moṟ	-12.3137
aling	-12.3143
▁nbow	-12.3145
▁kno	-12.3153
goqo	-12.3157
▁Kaw	-12.3161
▁mohal	-12.3174
▁paspon	-12.3186
▁manako	-12.3191
skolo	-12.3194
awx	-12.3194
▁pinsi	-12.3195
imag	-12.3196
magal	-12.3197
matap	-12.3198
siyo	-12.3218
kom	-12.3228
▁gwah	-12.3228
nblay	-12.3232
▁mciri	-12.3234
▁mkra	-12.3247
▁tmo	-12.3247
amin	-12.3247
▁qbon	-12.3251
layng	-12.3268
xay	-12.3273
ngiyaw	-12.3274
owawon	-12.3275
▁pakik	-12.3283
▁af	-12.3285
sasawbeh	-12.3291
▁mgali	-12.33
kkilox	-12.3302
▁qb	-12.3313
▁hina	-12.3315
▁psi	-12.3325
▁mzi	-12.333
▁somama	-12.3331
▁gl	-12.3339
nblayq	-12.3339
▁kinkr	-12.3349
▁tri	-12.3351
▁anaga	-12.3351
▁matao	-12.336
babo	-12.3363
qcyan	-12.3363
htoy	-12.3364
gobo	-12.3366
labah	-12.3369
▁kikon	-12.3374
▁zh	-12.338
atong	-12.3387
coling	-12.339
▁tqe	-12.3412
▁mkba	-12.3415
▁lapag	-12.3426
▁ṟaṟo	-12.3429
▁minani	-12.3434
aqiyanox	-12.3435
ments	-12.3442
▁kakan	-12.3443
▁sabeho	-12.3443
kin	-12.3444
▁Mayp	-12.3451
▁masira	-12.3451
iqan	-12.3456
tions	-12.3459
▁mhyo	-12.3459
bsy	-12.3468
cabil	-12.347
cyos	-12.3473
▁papag	-12.348
nag	-12.348
nahiyahiyaw	-12.3482
▁mlah	-12.3486
▁Ami	-12.3502
omit	-12.3505
▁tyen	-12.3505
▁build	-12.3508
▁teri	-12.3518
lkah	-12.3525
▁pgalo	-12.3525
▁hnya	-12.3526
▁loqi	-12.3527
helo	-12.3529
▁hama	-12.353
▁pac	-12.353
taraho	-12.3536
▁malahan	-12.3539
pri	-12.3544
kol	-12.355
axayan	-12.3552
siyang	-12.3552
kagan	-12.3556
▁eco	-12.3557
arang	-12.356
isan	-12.3561
ikang	-12.3564
bne	-12.3564
atalam	-12.3566
▁pany	-12.357
cang	-12.357
hob	-12.357
gazya	-12.3589
zyop	-12.3591
thok	-12.3592
▁custom	-12.3593
inas	-12.3599
osses	-12.3602
epend	-12.3606
ucumbers	-12.3611
ngoy	-12.3612
aka	-12.3612
crat	-12.3612
Ba	-12.3615
polat	-12.3615
alowan	-12.3618
ogiy	-12.3618
▁makas	-12.3619
▁decid	-12.3622
▁kng	-12.3625
▁pakaci	-12.3627
pology	-12.3629
▁zm	-12.363
siyasin	-12.3631
inko	-12.3635
otaq	-12.3637
nori	-12.3645
▁Amu	-12.3646
inaran	-12.3646
▁makasio	-12.3646
Fa	-12.3647
▁homaka	-12.3648
▁mistake	-12.3649
Sy	-12.365
oyqa	-12.3653
mber	-12.3654
▁enpi	-12.3655
▁raki	-12.3656
gibo	-12.3657
▁wome	-12.3659
▁panaṟi	-12.3659
moag	-12.3662
lamo	-12.3663
▁hawi	-12.3666
▁kinramas	-12.3666
ensaco	-12.3668
▁vav	-12.3668
▁pcyowag	-12.3669
abatoan	-12.3672
▁naqaro	-12.3672
aktaliyom	-12.3672
atawwaw	-12.3672
mayok	-12.3672
sgali	-12.3675
pogagay	-12.3676
bwan	-12.3676
▁mtoro	-12.3677
hekang	-12.3677
▁lpg	-12.3679
mahat	-12.3681
sincay	-12.3681
hayas	-12.3681
▁travel	-12.3682
awkeh	-12.3683
wnward	-12.3683
ptawwaw	-12.3683
▁qomlo	-12.3684
▁paptawwa	-12.3684
▁paritensy	-12.3685
hikang	-12.3685
dition	-12.3686
▁mnglon	-12.3687
ariariax	-12.3687
▁mhekan	-12.3687
▁ritens	-12.3687
▁Yabun	-12.3687
▁Hayun	-12.3688
▁knayri	-12.3688
somaṟ	-12.3688
hangiqan	-12.3689
mapeh	-12.3689
▁ptna	-12.3689
▁seho	-12.3689
▁pastoko	-12.369
▁pnong	-12.369
abbage	-12.369
ful	-12.369
▁Yabon	-12.369
aqalapaw	-12.369
Yu	-12.369
▁tomabo	-12.369
▁masta	-12.3691
▁tmrang	-12.3691
▁panek	-12.3691
▁msqo	-12.3691
▁societ	-12.3691
anguages	-12.3692
abgab	-12.3692
ffice	-12.3692
qaqoti	-12.3692
▁lmeli	-12.3692
▁mogomala	-12.3692
lderly	-12.3693
vide	-12.3694
▁bhoni	-12.3694
ough	-12.3694
ramoṟox	-12.3694
aroox	-12.3694
▁mqzin	-12.3695
nobowag	-12.3695
▁sasili	-12.3695
▁Bays	-12.3695
▁collect	-12.3695
buw	-12.3695
▁nabowib	-12.3695
nzh	-12.3696
uff	-12.3696
zyominzok	-12.3696
▁occ	-12.3696
▁reconcil	-12.3696
ɨ	-12.3696
▁Genz	-12.3696
ordin	-12.3696
sgayon	-12.3696
illage	-12.3696
airin	-12.3696
mpi	-12.3696
▁patayh	-12.3696
amoṟo	-12.3696
▁mkk	-12.3697
ktlyo	-12.3697
▁masramo	-12.3698
▁treat	-12.3698
flies	-12.3698
tkgi	-12.3698
gayngay	-12.3698
▁rilo	-12.3699
tpr	-12.3699
▁rram	-12.3699
vesti	-12.3699
acis	-12.37
▁sikasa	-12.3701
▁manbaha	-12.3702
▁snbi	-12.3702
rpos	-12.3703
▁become	-12.3703
ransition	-12.3703
asipa	-12.3703
ritensya	-12.3703
polici	-12.3704
nsiti	-12.3704
zyol	-12.3704
▁bott	-12.3704
▁kmlo	-12.3704
hgok	-12.3705
▁yayot	-12.3706
sobi	-12.3706
ṟol	-12.3706
matah	-12.3707
▁Down	-12.3708
talag	-12.3708
nsiv	-12.3708
babalayq	-12.3709
ign	-12.3709
▁msin	-12.3711
▁hk	-12.3711
▁rinam	-12.3711
kiyok	-12.3711
cyok	-12.3711
isuy	-12.3712
▁lmpo	-12.3712
▁garin	-12.3712
▁sesi	-12.3713
▁kmyo	-12.3714
giyax	-12.3714
isleq	-12.3715
wsyong	-12.3715
obih	-12.3715
wou	-12.3715
▁mcw	-12.3716
trans	-12.3717
oṟa	-12.3717
uation	-12.3718
▁lnl	-12.3719
agiran	-12.3719
▁kyok	-12.372
anrakiyas	-12.3721
22	-12.3721
bihan	-12.3722
▁Tahay	-12.3722
▁papta	-12.3723
▁maqila	-12.3723
▁Tru	-12.3724
▁pasapa	-12.3725
lot	-12.3727
▁matana	-12.3727
ahoqi	-12.3728
yogal	-12.3728
▁Hayon	-12.3728
▁smayo	-12.3729
inori	-12.373
ukan	-12.373
hahiy	-12.3731
utu	-12.3731
quest	-12.3733
▁qaqla	-12.3733
lize	-12.3734
▁manca	-12.3734
▁biya	-12.3735
mhng	-12.3735
azin	-12.3737
▁pinkaba	-12.3737
▁hkn	-12.3738
aboh	-12.3739
▁pqwas	-12.3739
oqowaw	-12.3741
▁qmaso	-12.3742
arin	-12.3743
olici	-12.3744
tensya	-12.3744
naxan	-12.3745
▁ptat	-12.3745
▁qawl	-12.3746
igaw	-12.3747
gilo	-12.3748
inally	-12.3748
▁smok	-12.375
▁obe	-12.375
▁tkbaq	-12.375
▁pasna	-12.375
oward	-12.3751
▁qino	-12.3752
▁mstop	-12.3753
mabay	-12.3754
ahakay	-12.3754
▁sabay	-12.3756
ember	-12.3757
umuy	-12.3757
golo	-12.3758
▁masra	-12.3759
▁Vaw	-12.3761
▁map	-12.3761
riaxan	-12.3762
▁ref	-12.3764
▁maska	-12.3765
qilan	-12.3766
atiq	-12.3767
anayp	-12.3768
ahap	-12.3769
cis	-12.3771
rning	-12.3772
▁pngra	-12.3774
nobowa	-12.3774
▁deli	-12.3774
▁malangi	-12.3775
wih	-12.3776
oriax	-12.3777
anca	-12.3778
▁hmol	-12.3781
qeq	-12.3781
ṟoy	-12.3782
▁matok	-12.3782
cles	-12.3783
▁commi	-12.3783
▁yola	-12.3783
▁sikal	-12.3784
oxaal	-12.3784
abaxan	-12.3785
▁komiyo	-12.3786
▁alih	-12.3788
▁pataṟ	-12.379
unda	-12.3792
▁hapon	-12.3792
▁ktay	-12.3792
▁tcing	-12.3793
▁qomor	-12.3793
gawn	-12.3793
▁nobow	-12.3794
unit	-12.3795
▁aky	-12.3802
bogan	-12.3803
▁tmm	-12.3803
lawax	-12.3813
pongon	-12.3814
orse	-12.3817
▁psb	-12.3819
▁orong	-12.382
hatte	-12.3822
mbya	-12.3825
tors	-12.3828
▁kmzya	-12.3828
▁niqa	-12.3828
bowis	-12.3828
▁mkt	-12.3836
hlon	-12.3839
▁kinri	-12.3841
besan	-12.3841
▁hwe	-12.3841
alangiya	-12.3842
iently	-12.3844
▁bha	-12.3846
awbing	-12.3848
akhok	-12.3848
▁kamag	-12.3849
qsoqi	-12.3852
weh	-12.3853
npaw	-12.3856
logi	-12.3857
▁indic	-12.3859
miyap	-12.3866
eloh	-12.387
▁appea	-12.387
skyot	-12.387
wbih	-12.387
ite	-12.3873
ogal	-12.3876
moloy	-12.3879
▁Kin	-12.3879
▁Le	-12.3881
owik	-12.3881
▁hyo	-12.3885
apatisal	-12.3887
mop	-12.3889
▁beast	-12.3893
minna	-12.3894
vaqan	-12.3894
ession	-12.39
kryax	-12.3902
kocon	-12.3902
▁lu	-12.3907
ibo	-12.3909
wwaw	-12.3909
nzing	-12.3911
igal	-12.3914
▁sta	-12.3918
paṟ	-12.3921
moon	-12.3921
stata	-12.3924
aposal	-12.3925
▁powa	-12.3926
▁qpa	-12.3928
gaba	-12.3931
awnan	-12.3933
inoki	-12.3933
▁papsi	-12.3947
▁poron	-12.3947
▁tatalan	-12.3949
ṟaw	-12.3954
inner	-12.3954
alox	-12.3956
▁Poy	-12.3958
▁qso	-12.396
igha	-12.3967
▁masla	-12.3968
owang	-12.3973
▁baṟi	-12.3974
▁sinrak	-12.3976
sbzih	-12.3976
▁govern	-12.3979
syos	-12.398
▁qomalowa	-12.398
gbon	-12.3981
oxal	-12.3984
emu	-12.3987
▁bba	-12.3993
▁yonga	-12.3994
natas	-12.3998
zyat	-12.4001
▁lq	-12.4003
apan	-12.4008
bangan	-12.4011
▁sayin	-12.4013
▁msh	-12.4016
rahan	-12.4017
▁pasili	-12.4024
luck	-12.4032
cla	-12.404
▁pkta	-12.404
orongo	-12.4045
poyon	-12.4048
▁kyo	-12.4049
▁masas	-12.4052
▁msl	-12.4054
mli	-12.4067
▁mtr	-12.4067
zyang	-12.4069
tciriq	-12.407
▁miyo	-12.407
iṟi	-12.4071
aliy	-12.4076
omak	-12.4077
col	-12.4078
zhoq	-12.4086
hiq	-12.4092
▁hto	-12.4092
chi	-12.4095
sawkan	-12.4097
abahan	-12.4097
▁tano	-12.4104
▁Ge	-12.4109
▁cam	-12.4109
▁su	-12.411
eci	-12.411
nbah	-12.4111
▁krya	-12.4114
▁xil	-12.4118
tories	-12.4119
▁tq	-12.4127
sbaqi	-12.4133
▁ṟapi	-12.4134
▁kara	-12.4136
nbale	-12.4138
▁sari	-12.4151
gu	-12.4152
▁ku	-12.4162
hiyon	-12.4174
zyay	-12.4179
qzinah	-12.4183
gga	-12.4184
▁sprin	-12.4188
▁poss	-12.4191
taya	-12.4194
pagiyay	-12.42
wawon	-12.4204
▁loman	-12.4205
cacp	-12.4207
oyaw	-12.4211
istrati	-12.4212
▁karaho	-12.4214
▁cq	-12.4217
rase	-12.4234
▁sc	-12.4234
gnaw	-12.4235
nkes	-12.4236
▁hinb	-12.4245
▁mawa	-12.4251
cept	-12.4251
irah	-12.4252
agiro	-12.4253
poy	-12.4253
▁wara	-12.4257
▁sonk	-12.4258
hito	-12.4271
▁mngiy	-12.4271
wom	-12.4275
stanox	-12.4275
knwan	-12.4284
hoṟi	-12.4286
cree	-12.4288
▁cobal	-12.4296
tanc	-12.43
giq	-12.4305
batonox	-12.4306
▁palo	-12.4311
▁tka	-12.4312
ode	-12.4318
▁somil	-12.4323
bayn	-12.4323
▁mbh	-12.4326
spatol	-12.4327
iyen	-12.433
pahan	-12.4333
hngiyang	-12.4333
agaang	-12.4335
▁smora	-12.434
▁makat	-12.4357
hey	-12.4361
▁Z	-12.4365
alagay	-12.4366
azyaw	-12.4367
▁mci	-12.4373
▁pnb	-12.4377
▁mla	-12.4379
▁ola	-12.4384
gre	-12.4404
loyang	-12.4409
pongan	-12.442
aṟal	-12.442
▁ele	-12.4426
ahba	-12.443
sop	-12.4432
yoxon	-12.4435
▁minb	-12.4435
▁lla	-12.4436
mbil	-12.4437
ozyaq	-12.4437
▁kyap	-12.444
sbil	-12.4443
onroṟ	-12.445
▁qari	-12.4451
▁pska	-12.4456
▁sbay	-12.4458
▁abaga	-12.4459
bazing	-12.446
▁mbe	-12.4462
▁ks	-12.4463
▁qosi	-12.4477
▁qoti	-12.4484
▁kinot	-12.4486
towan	-12.4489
linga	-12.4492
itox	-12.451
koto	-12.4517
abos	-12.4518
sklo	-12.452
▁Kn	-12.452
miliy	-12.4526
teq	-12.4527
yoci	-12.4529
inryax	-12.4532
kli	-12.4535
tbay	-12.4537
mang	-12.4547
hkan	-12.4548
▁galg	-12.4555
mtama	-12.4566
ahoy	-12.4568
▁bbe	-12.4582
asiy	-12.4582
roduce	-12.4603
ayox	-12.4605
ild	-12.4605
soo	-12.4607
amok	-12.4617
mapoh	-12.4622
▁sipan	-12.4622
ral	-12.4624
▁sopo	-12.4633
▁iqo	-12.4635
▁nabow	-12.4636
asoy	-12.4641
▁hriq	-12.4644
iversi	-12.4653
tee	-12.4662
▁mali	-12.4667
▁mraw	-12.4673
cye	-12.4682
qatong	-12.4691
yose	-12.4691
range	-12.4721
stna	-12.4731
axon	-12.4736
▁saso	-12.4753
giyaw	-12.4756
▁pasay	-12.4757
▁tx	-12.4766
sai	-12.4766
pyox	-12.4766
do	-12.4774
▁qpi	-12.4782
▁pkt	-12.4783
▁aut	-12.4787
▁pni	-12.4805
akakat	-12.4806
yani	-12.481
amon	-12.4825
▁ṟaka	-12.4838
oming	-12.4843
tasaw	-12.4847
▁naqa	-12.4853
▁discussi	-12.4861
hotaw	-12.4863
nyo	-12.487
▁psy	-12.488
▁texa	-12.4881
mpik	-12.4887
osok	-12.4901
▁Ap	-12.4907
▁mqs	-12.4919
nrakiyas	-12.4924
haṟ	-12.4938
mapat	-12.4939
▁beco	-12.4941
sag	-12.4948
qas	-12.4949
mnbo	-12.4959
asogag	-12.4968
▁qag	-12.4974
awa	-12.4986
▁mnt	-12.4991
mapih	-12.5003
yowan	-12.5014
▁qaqa	-12.5025
▁oron	-12.503
▁Men	-12.5041
▁nh	-12.5058
see	-12.5061
owan	-12.5064
▁rem	-12.5068
aleh	-12.507
ktaliy	-12.5076
awno	-12.5148
▁fru	-12.5155
ako	-12.5155
baho	-12.5167
▁bliho	-12.5192
ṟat	-12.5196
esan	-12.5198
iton	-12.5204
▁hid	-12.5212
bran	-12.5216
neloq	-12.5258
ringa	-12.5262
▁poto	-12.5271
▁nalan	-12.5299
rawm	-12.5302
kaka	-12.5308
▁mananan	-12.5319
yq	-12.5327
▁pinno	-12.5337
▁tinro	-12.5357
▁sinl	-12.5363
qeho	-12.5401
nas	-12.5413
▁mst	-12.5415
▁pskl	-12.5415
iax	-12.5445
layi	-12.5451
aman	-12.5452
spi	-12.5453
ronaw	-12.5485
▁inowah	-12.5509
▁pakba	-12.5518
▁komay	-12.552
▁paktal	-12.5527
oencomin	-12.5538
▁pth	-12.5539
mkah	-12.5547
▁mlh	-12.557
kongs	-12.5585
enzyo	-12.56
siyox	-12.5605
mzyap	-12.5613
▁romi	-12.5627
▁gomo	-12.563
movo	-12.5632
▁pe	-12.5633
ayanox	-12.5643
oyay	-12.5651
pas	-12.5676
▁Ar	-12.5685
ala	-12.5727
▁mlbi	-12.5759
thoway	-12.576
▁compe	-12.5775
yokon	-12.5855
▁inc	-12.5861
nc	-12.5874
ola	-12.5879
lngan	-12.5897
▁pur	-12.5899
awl	-12.5907
ory	-12.5909
▁tlto	-12.5918
▁ston	-12.5922
▁haws	-12.5946
kowi	-12.5962
nity	-12.5984
▁sayi	-12.5994
azi	-12.6006
nawon	-12.6008
mtnaq	-12.601
▁tasi	-12.6016
inqiyanox	-12.6017
▁mawi	-12.6049
siy	-12.6079
nta	-12.6086
ilon	-12.6102
▁Am	-12.6119
eric	-12.6125
gyah	-12.6131
▁mro	-12.6138
▁hangi	-12.614
hnga	-12.6142
▁qava	-12.6143
▁ral	-12.6198
▁tanabo	-12.6226
jo	-12.6242
coy	-12.626
▁kahan	-12.626
ix	-12.6263
▁kg	-12.6274
▁vaw	-12.6276
▁longa	-12.6276
▁mase	-12.6279
▁masan	-12.629
▁mqor	-12.6333
▁tbe	-12.6335
nwa	-12.6341
arari	-12.6363
chan	-12.6385
aṟox	-12.6405
onghow	-12.6426
mas	-12.6455
tisal	-12.6459
klah	-12.6463
capoh	-12.6507
▁sco	-12.6518
▁ngar	-12.6533
▁yen	-12.6567
▁smama	-12.6568
▁siga	-12.6575
▁raram	-12.6589
mag	-12.659
karang	-12.659
▁maṟ	-12.6593
▁reng	-12.6627
ayng	-12.6636
▁cmon	-12.6672
mraw	-12.6675
z	-12.8743
Q	-14.7166
*	-14.7167
J	-14.7168
3	-14.7169
U	-14.717
F	-14.7171
$	-14.7172
R	-14.7173
B	-14.7174
K	-14.7175
(	-14.7176
G	-14.7177
A	-14.7178
Y	-14.7179
H	-14.718
W	-14.7181
v	-14.7182
