<pad>	0
<unk>	0
<s>	0
</s>	0
<2ckv>	0
<2zh>	0
▁	-1.73833
,	-3.347
.	-3.35243
。	-3.3981
▁to	-4.01631
▁na	-4.17142
▁ti	-4.22322
?	-4.38747
an	-4.53452
▁ko	-4.58394
的	-4.77427
▁ta	-4.80942
▁ni	-4.96717
▁pa	-5.06193
▁ay	-5.11424
▁zao	-5.11731
▁iko	-5.16883
▁yao	-5.30308
▁mai	-5.31845
了	-5.31895
▁so	-5.33528
▁sa	-5.38977
▁'	-5.48828
nay	-5.55769
我	-5.66274
!	-5.66426
▁ya	-5.83886
嗎	-5.87986
▁nani	-5.89393
▁我	-5.92172
在	-5.97546
▁ika	-5.97948
▁qa	-5.99657
要	-6.02577
你	-6.04913
▁sonis	-6.05233
有	-6.06284
▁aizipna	-6.12054
▁lazat	-6.14177
是	-6.1449
▁iso	-6.17689
他	-6.19234
▁你	-6.2228
▁ka	-6.25899
▁ma	-6.27129
▁me	-6.35922
▁a	-6.40175
▁nengi	-6.41049
說	-6.42835
我們	-6.50655
、	-6.50893
▁matiw	-6.53873
▁ita	-6.55152
na	-6.57342
去	-6.58004
子	-6.59553
▁naRin	-6.59631
不	-6.60222
會	-6.61115
▁tama	-6.6322
▁tina	-6.63321
到	-6.66295
▁si	-6.68509
▁semano	-6.70569
▁"	-6.70927
n	-6.71232
▁我們	-6.73825
▁pama	-6.75094
就	-6.75225
▁leppaw	-6.76908
o	-6.77651
▁qeman	-6.79671
▁imi	-6.79919
沒有	-6.79966
ta	-6.80525
來	-6.83297
▁qodos	-6.83523
▁ngid	-6.8456
▁paRin	-6.85097
'	-6.85847
人	-6.86592
▁他	-6.8664
▁qaniyao	-6.88817
▁Raya	-6.89277
▁tangi	-6.89404
▁kebalan	-6.9072
把	-6.92177
上	-6.96962
被	-7.0052
▁qaya	-7.04168
▁zanom	-7.04851
▁melizaq	-7.05104
si	-7.0607
so	-7.06321
;	-7.06351
:「	-7.068
s	-7.08252
和	-7.08504
▁這個	-7.08786
用	-7.08978
一	-7.10592
吃	-7.11724
水	-7.12043
很	-7.12253
▁tazian	-7.14331
好	-7.14393
▁masang	-7.14787
▁azo	-7.15635
▁mowaza	-7.15732
▁m	-7.16662
▁qawka	-7.1714
▁qaqa	-7.18654
▁qatiw	-7.1889
ko	-7.19652
ay	-7.19833
也	-7.20366
她	-7.22831
▁nayao	-7.22895
過	-7.23167
▁tazongan	-7.23503
▁kelisiw	-7.23722
時	-7.23975
可以	-7.26336
i	-7.26369
▁aiko	-7.27476
▁Ronanay	-7.28161
▁mawto	-7.28162
他們	-7.28388
▁waso	-7.29096
大	-7.30545
不要	-7.31025
▁mala	-7.32078
▁baqi	-7.32212
to	-7.32287
都	-7.33491
▁zinna	-7.34254
▁naong	-7.35152
▁Ribang	-7.37601
▁soani	-7.37606
▁zin	-7.37654
叫	-7.39154
:	-7.40401
a	-7.41397
裡	-7.41739
▁tiana	-7.43347
頭	-7.44026
▁niana	-7.44499
對	-7.4539
看	-7.45503
R	-7.4562
ma	-7.4809
▁seRay	-7.48671
我要	-7.49067
走	-7.50606
拿	-7.5092
做	-7.51218
▁Rayngo	-7.51612
什麼	-7.52899
."	-7.54045
e	-7.54141
▁tanian	-7.54209
▁bai	-7.54599
▁aiso	-7.54706
著	-7.55079
▁ossiq	-7.55472
▁otay	-7.57516
▁qanengi	-7.58607
天	-7.59125
小孩	-7.59604
▁manna	-7.5991
。」	-7.59948
我的	-7.61477
樹	-7.61522
還	-7.61564
anna	-7.61884
地	-7.62554
▁lazing	-7.62952
▁baot	-7.63307
▁qay	-7.636
▁tasaw	-7.6456
▁tamon	-7.65776
m	-7.66076
放	-7.66465
▁kapot	-7.6651
la	-7.66599
▁soppaR	-7.67111
▁temaqsi	-7.67196
▁damo	-7.6721
ka	-7.67663
ng	-7.68321
是我	-7.68489
▁temanan	-7.68806
想	-7.68995
en	-7.69174
q	-7.69214
▁deddan	-7.70107
帶	-7.70197
y	-7.70368
▁taytan	-7.71008
工作	-7.71156
▁baboy	-7.71605
t	-7.71837
▁taRaw	-7.72239
▁mazemon	-7.72831
▁sodad	-7.73032
▁sikawma	-7.73067
▁angaw	-7.73088
▁lazan	-7.73359
得	-7.73477
mo	-7.73773
▁qiton	-7.74153
▁zana	-7.74288
l	-7.74367
▁semaqay	-7.74504
▁qanan	-7.75405
▁anem	-7.75755
p	-7.75895
lo	-7.76538
▁niaq	-7.77198
▁meniz	-7.77272
魚	-7.77712
▁waway	-7.77928
年	-7.78465
▁setangi	-7.78805
▁semangi	-7.78805
小	-7.79222
▁他們	-7.79593
米	-7.79652
▁patodan	-7.80078
已經	-7.80105
▁nizo	-7.81033
▁pasa	-7.81097
▁lima	-7.81569
▁這	-7.83889
b	-7.84299
起來	-7.84302
▁sikawman	-7.84981
打	-7.85094
▁nangan	-7.85449
▁sokaw	-7.85811
買	-7.86015
▁imo	-7.86077
草	-7.86089
▁我要	-7.86335
▁kelawkaway	-7.86723
在哪裡	-7.87136
部落	-7.87549
再	-7.87601
qa	-7.87681
菜	-7.87721
這個	-7.88085
從	-7.88331
老師	-7.88782
▁biyat	-7.88835
ya	-7.8895
▁mazas	-7.88988
▁我的	-7.89014
你們	-7.89812
為	-7.90306
li	-7.90694
開	-7.90777
▁wanayka	-7.90964
ti	-7.91241
青蛙	-7.91569
k	-7.91836
長	-7.92331
▁otani	-7.92967
▁temayta	-7.93962
先	-7.94119
下	-7.94615
▁taqsian	-7.94717
▁moman	-7.94993
▁boya	-7.95272
跟	-7.95513
又	-7.95996
▁maynep	-7.96029
▁lanas	-7.9603
▁nazao	-7.9603
給	-7.96037
▁timaikoan	-7.96151
wa	-7.97152
mi	-7.97333
快	-7.97758
出	-7.97889
中	-7.98086
呢	-7.9814
▁naqoni	-7.98647
吧	-7.99207
▁timaisoan	-8.00483
的時候	-8.00554
只有	-8.01093
掉	-8.01542
▁你們	-8.018
請	-8.02015
家	-8.02107
▁qabaw	-8.02449
這	-8.02504
東西	-8.03276
▁ozosa	-8.03631
風	-8.03635
衣服	-8.03896
▁這是我	-8.03944
讓	-8.04494
pa	-8.05089
▁這是	-8.05339
才	-8.05413
nan	-8.0562
找	-8.05839
▁paqenanem	-8.07061
ang	-8.07719
後	-8.08062
▁timaizipana	-8.0812
▁mipil	-8.08241
▁Ra	-8.08553
的衣服	-8.09302
▁bawa	-8.09679
yo	-8.09781
聽	-8.09862
「	-8.09952
se	-8.10099
的人	-8.10379
pi	-8.10385
▁meRasa	-8.10635
很多	-8.11477
▁siRab	-8.11839
那個	-8.11897
z	-8.11899
▁ala	-8.12448
不會	-8.12866
這樣	-8.12867
這裡	-8.13358
一個	-8.14355
▁betto	-8.14414
▁Rasa	-8.14558
may	-8.14809
發	-8.15511
講	-8.15536
▁zapan	-8.15577
▁pataz	-8.15632
d	-8.15691
所	-8.15776
▁tayan	-8.16016
有很多	-8.16151
一起	-8.16647
那	-8.1673
往	-8.16803
好了	-8.17052
的東西	-8.17225
以前	-8.17284
看到	-8.17298
ki	-8.17401
狗	-8.17866
▁qan	-8.18038
▁en	-8.18384
▁nomi	-8.18425
bi	-8.18727
住	-8.19349
▁我把	-8.19379
不能	-8.19389
▁tenayan	-8.19464
▁dedan	-8.19513
da	-8.19636
心	-8.19889
回去	-8.20228
▁qena	-8.20311
老	-8.20365
作	-8.2069
就會	-8.20842
太	-8.20968
回來	-8.21388
▁bolan	-8.21445
煮	-8.21894
sa	-8.22687
海	-8.22818
▁zoma	-8.23452
問	-8.23493
▁melanay	-8.23522
▁padames	-8.23549
▁zinko	-8.23676
Angaw	-8.23856
錢	-8.24123
ni	-8.24726
睡覺	-8.24737
不是	-8.2478
▁toRoz	-8.25014
不知道	-8.25095
!」	-8.25299
他的	-8.2605
▁yo	-8.26073
▁seRai	-8.26289
出來	-8.26579
▁iRoR	-8.26677
你的	-8.26888
教	-8.27643
啊	-8.27685
▁osiq	-8.27712
怎麼	-8.27732
自己	-8.27799
daq	-8.28331
的話	-8.28497
no	-8.2854
mai	-8.28551
玩	-8.28627
在這裡	-8.28788
用的	-8.2896
洗	-8.29032
▁melaziw	-8.29156
▁ozan	-8.2923
!"	-8.29451
但是	-8.29538
▁leppawan	-8.29724
很好	-8.29766
」	-8.29776
或	-8.29936
石頭	-8.30546
▁simao	-8.30621
▁mawRat	-8.30627
▁temawaR	-8.30646
▁oo	-8.30821
朋友	-8.30827
山	-8.30834
▁那個	-8.31207
▁mezokat	-8.32168
一點	-8.32174
▁oRo	-8.323
Ri	-8.32556
po	-8.33237
當	-8.33456
而	-8.3361
噶瑪蘭人	-8.33617
▁aimi	-8.33621
▁taqoq	-8.33687
沒	-8.34561
?」	-8.34907
牛	-8.34994
▁manmo	-8.35156
wama	-8.35437
手	-8.3545
▁bola	-8.36206
▁zenna	-8.36586
外	-8.36654
▁我媽媽	-8.36822
奶奶	-8.36823
▁那	-8.37067
個	-8.37505
生	-8.37697
aw	-8.37798
我們的	-8.37849
▁Raq	-8.38005
成	-8.38019
多	-8.38075
▁kitot	-8.38289
▁benina	-8.38295
花	-8.38319
▁lawlaw	-8.39121
▁sinanam	-8.39386
▁haw	-8.39897
▁satezay	-8.40038
Utay	-8.40155
種	-8.40196
火	-8.40853
回家	-8.41484
了嗎	-8.41501
▁kiya	-8.41654
▁o	-8.41884
的地方	-8.42066
▁sim	-8.42128
喜歡	-8.42937
酒	-8.43121
▁maken	-8.43188
▁kemilim	-8.43189
因為	-8.43194
▁ossa	-8.43195
們	-8.43751
▁qawman	-8.4456
▁baqian	-8.44821
採	-8.44829
▁pitemawaR	-8.44875
▁不要	-8.44938
Ra	-8.44959
▁nipaloman	-8.45059
▁abas	-8.4566
一下	-8.45683
▁ibabaw	-8.45734
"	-8.46047
穿	-8.46166
▁qemizoan	-8.46591
te	-8.46793
路	-8.46889
▁Rayngoan	-8.47841
很大	-8.48035
誰	-8.48079
it	-8.48193
是誰	-8.48214
點	-8.48271
▁sayza	-8.48339
▁sezang	-8.4834
zo	-8.48567
za	-8.48667
▁B	-8.49057
抓	-8.49169
?"	-8.49629
in	-8.50077
▁masolon	-8.50115
▁那是	-8.50161
▁wanay	-8.50277
▁我爸爸	-8.5049
wan	-8.50683
妳	-8.50772
▁izip	-8.50807
還有	-8.50964
▁po	-8.51037
▁我在	-8.5131
▁tanan	-8.51409
倒	-8.5142
▁tati	-8.51502
三	-8.51554
▁melabo	-8.51941
▁qalazok	-8.51948
▁mozan	-8.51964
▁meRaRiw	-8.51966
▁qawpiR	-8.52612
大家	-8.52701
孩子	-8.52782
▁bali	-8.52836
g	-8.53005
▁taqa	-8.53281
▁kasianem	-8.53436
將	-8.53657
▁otolo	-8.53769
知道	-8.54184
跑	-8.54836
▁damoan	-8.54852
▁niz	-8.55242
晚上	-8.553
▁mata	-8.5545
所以	-8.55483
分	-8.55591
▁salekiaw	-8.55647
▁maytis	-8.55649
▁adam	-8.5574
雞	-8.55946
▁molo	-8.56057
進	-8.5616
▁ising	-8.56512
▁lazingan	-8.56526
像	-8.56951
yao	-8.57234
今天	-8.57246
豬	-8.57525
Abas	-8.57561
眼	-8.57561
/	-8.57561
橘子	-8.57563
▁simqena	-8.57611
經過	-8.57613
▁meRamaz	-8.5763
▁saleppawan	-8.57902
才會	-8.58294
▁你的	-8.58614
這是	-8.5873
面	-8.58883
▁Ray	-8.5933
布	-8.59507
望	-8.59512
▁aimo	-8.59518
以後	-8.59539
▁mepatay	-8.59544
走路	-8.59784
事	-8.60023
那裡	-8.60151
放在	-8.60411
zi	-8.61185
前	-8.6137
弟弟	-8.61379
非常	-8.61495
▁qizoanan	-8.61502
▁semaqsaqay	-8.61502
幫忙	-8.61506
▁maseq	-8.6151
給我	-8.6245
sikawman	-8.62508
▁dames	-8.62936
飯	-8.63057
w	-8.63157
▁meRa	-8.634
坐	-8.63438
及	-8.63533
▁這個小孩	-8.63789
讀書	-8.64034
di	-8.64064
▁qataban	-8.64078
▁Ramaz	-8.64277
▁「	-8.64572
下來	-8.64602
家裡	-8.64662
▁saqa	-8.64734
▁takan	-8.64814
唱歌	-8.65076
學	-8.65161
幫我	-8.65333
喝	-8.655
偷	-8.65587
▁sonsonis	-8.65605
▁matapon	-8.65659
的錢	-8.65765
為什麼	-8.6602
最	-8.66143
▁那個小孩	-8.66445
es	-8.66564
▁naqonian	-8.66717
動	-8.67483
這些	-8.67605
一樣	-8.67615
痛	-8.67635
背	-8.6766
接	-8.67706
1	-8.67713
燒	-8.67721
▁tened	-8.67723
之後	-8.67739
▁paqan	-8.67805
▁wiya	-8.67989
▁sabaq	-8.68487
▁soppaRan	-8.68661
書	-8.68742
想要	-8.68778
▁zais	-8.69164
刀	-8.69437
▁yencomin	-8.69451
熱	-8.69554
▁naongan	-8.69662
包	-8.69766
流	-8.69849
剛	-8.6985
鹿	-8.69884
▁pataqsian	-8.69973
都是	-8.7006
以	-8.70222
田	-8.70446
族	-8.708
▁妳	-8.71174
被我	-8.71187
起	-8.71354
腳	-8.71375
全部	-8.71443
高	-8.71798
毛	-8.72082
麻	-8.72082
跳舞	-8.72084
豐年祭	-8.72086
utay	-8.72094
▁banang	-8.72108
外面	-8.72116
一直	-8.72146
▁maRong	-8.72158
▁tangan	-8.72316
,"	-8.72391
Buya	-8.72397
等	-8.72467
▁paqangi	-8.72479
吃飯	-8.72533
et	-8.72643
▁iza	-8.72684
到了	-8.72734
人們	-8.73274
送	-8.73358
撿	-8.7336
Raw	-8.73473
養	-8.73503
▁ano	-8.73645
ong	-8.74016
香蕉	-8.7429
入	-8.74334
名	-8.74344
喔	-8.74354
▁qaddan	-8.74354
▁qomni	-8.74356
▁pasi	-8.74626
▁alan	-8.74705
▁mali	-8.74806
船	-8.74993
▁lazanan	-8.75079
冷	-8.75179
▁qi	-8.75203
口	-8.76009
邊	-8.76065
地瓜	-8.76219
重	-8.7622
隻	-8.76315
房子	-8.76398
qaw	-8.7641
十	-8.76431
車	-8.76459
▁qawto	-8.76634
日	-8.76637
2	-8.76662
準備	-8.76666
▁beRas	-8.76669
▁lobong	-8.76669
▁soway	-8.76675
▁temita	-8.76711
還是	-8.76827
▁api	-8.77004
的水	-8.77515
能	-8.777
▁tema	-8.77797
▁paliway	-8.77843
yan	-8.77952
▁boqes	-8.78053
B	-8.78063
我想	-8.78216
綁	-8.78866
割	-8.79021
拉	-8.79026
▁pinileppaw	-8.79033
開始	-8.79034
織布	-8.79039
▁bo	-8.79549
▁aka	-8.79851
的菜	-8.80763
▁taso	-8.80971
月	-8.81324
色	-8.81427
與	-8.81454
睡	-8.81456
▁tomnon	-8.81457
種的	-8.8162
好像	-8.81669
木頭	-8.81935
▁Rabi	-8.82348
▁那個人	-8.82653
ing	-8.82662
還沒有	-8.82806
▁tayta	-8.82823
噶瑪蘭族	-8.82948
來了	-8.83003
qay	-8.83155
▁ba	-8.83167
可能	-8.83471
才不會	-8.83906
▁現在	-8.83921
那隻狗	-8.83942
▁semalaw	-8.83942
▁kokoy	-8.83944
▁patanan	-8.83945
▁kinilan	-8.84097
▁Ro	-8.84899
▁doki	-8.85495
anko	-8.86092
它	-8.86133
球	-8.86463
線	-8.86478
▁aita	-8.86509
▁Raqit	-8.8653
▁qaRabi	-8.86579
你會	-8.86591
蓋	-8.8665
回	-8.86772
▁mana	-8.87086
tani	-8.87535
下雨	-8.87887
▁sako	-8.88111
蛋	-8.88173
▁Angaw	-8.88425
可	-8.88833
▁sano	-8.88837
竹	-8.88962
鳥	-8.89018
砍	-8.89092
別人	-8.89096
根	-8.89102
▁tenes	-8.89106
那樣	-8.89112
▁wanma	-8.89118
▁pisapat	-8.89146
的工作	-8.89229
▁esi	-8.89231
我已經	-8.89415
▁te	-8.89436
▁qosazoi	-8.90104
▁poli	-8.90119
▁如果	-8.90359
雨	-8.90785
妹妹	-8.90786
do	-8.90838
竹子	-8.90913
裝	-8.91332
ai	-8.91343
▁t	-8.91575
▁baqbaqi	-8.91678
那些	-8.91694
▁qo	-8.91762
阿	-8.91776
笑	-8.91779
牠	-8.91788
▁timango	-8.91789
▁banged	-8.91791
很會	-8.9186
▁qangid	-8.91909
▁betin	-8.92014
▁Raybaot	-8.92802
anem	-8.92922
▁他是	-8.92972
Rasan	-8.93063
我就	-8.93166
ed	-8.93301
▁nipa	-8.93334
我去	-8.93447
▁ngayaw	-8.9346
▁oman	-8.93494
man	-8.93611
▁mammaq	-8.93787
過來	-8.93819
醫生	-8.94131
h	-8.94149
然	-8.94344
皮	-8.94497
黑	-8.94534
▁ipay	-8.94548
▁satawaR	-8.94548
▁sasetaR	-8.9455
▁biRi	-8.94556
▁iyo	-8.94576
▁meloma	-8.94584
▁salang	-8.94597
我們要	-8.94751
ala	-8.95293
新	-8.95412
▁pon	-8.95694
▁dadas	-8.95791
on	-8.96112
▁kelawkawayan	-8.96184
bang	-8.96203
山豬	-8.96295
如果	-8.96459
無法	-8.96463
▁他在	-8.9689
姐姐	-8.97045
果	-8.97144
收	-8.97249
生活	-8.97295
木	-8.97311
病	-8.97341
提	-8.97375
關	-8.97375
追	-8.97383
▁madded	-8.97385
▁pilay	-8.97385
練習	-8.97385
椅子	-8.97392
▁Rabetin	-8.97397
講話	-8.97404
▁mezaki	-8.97424
▁melilizaq	-8.97436
借	-8.97457
過去	-8.97466
▁kin	-8.97502
▁qaqanan	-8.97589
▁我們要	-8.97816
▁sizi	-8.97862
▁我叫	-8.97864
把這個	-8.97977
明天	-8.98034
正在	-8.98426
加	-8.9843
車子	-8.98453
▁ke	-8.98584
是要	-8.99096
▁Robatang	-8.99098
國	-8.99221
▁sepaw	-8.99461
▁今天	-8.99494
但	-8.9953
行	-8.99919
▁qe	-8.99923
使	-9.00017
幫	-9.0016
太陽	-9.00264
湯	-9.003
▁temozos	-9.00305
捉	-9.00305
▁maqezi	-9.00309
▁moRing	-9.0033
▁qakelawkawayan	-9.00367
▁metaRaw	-9.00391
▁pipis	-9.00565
他說	-9.00722
▁pazokat	-9.00742
男人	-9.00972
我的孩子	-9.00998
上面	-9.01167
▁Rais	-9.01171
▁qayao	-9.01193
親	-9.01746
▁kalingon	-9.02139
pan	-9.02405
氣	-9.02489
只	-9.02866
沒有人	-9.02871
掉了	-9.02968
力	-9.03012
門	-9.03221
曬	-9.03235
公	-9.03298
代	-9.03301
殺	-9.03305
貓頭鷹	-9.03312
)	-9.03312
▁siangato	-9.03312
▁temolis	-9.03314
▁qalizaqan	-9.03314
▁tiRoR	-9.03321
▁qasiR	-9.03354
▁siqodos	-9.03421
▁pasaqay	-9.03766
▁panmo	-9.03844
原住民	-9.03995
去山上	-9.04169
一個人	-9.04234
▁soni	-9.04303
▁Rotong	-9.04505
▁sepawan	-9.04511
▁hibang	-9.0531
出去	-9.05483
還沒	-9.05606
tong	-9.05644
maq	-9.05723
▁tengen	-9.05798
qi	-9.05819
▁Utay	-9.05908
摘	-9.06023
弄	-9.06046
常常	-9.06081
有人	-9.06288
歌	-9.06389
亂	-9.06392
參加	-9.06399
四	-9.064
向	-9.06402
台	-9.06408
噶瑪蘭的	-9.06412
結婚	-9.06413
▁melosit	-9.06413
▁moton	-9.06413
▁peRasko	-9.06413
Ipay	-9.06413
▁qaninanan	-9.06413
木材	-9.06415
照顧	-9.06417
▁masawa	-9.06427
▁kintani	-9.06428
▁temod	-9.06431
▁paqanas	-9.0658
就是	-9.06618
女人	-9.06621
結果	-9.06885
▁我沒有	-9.07072
Ro	-9.07121
女	-9.07281
老人家	-9.07716
▁sena	-9.07868
at	-9.0804
soppaR	-9.08093
▁qaybasi	-9.0816
乾	-9.08516
u	-9.08553
切	-9.08744
變	-9.08782
的家	-9.08818
找到	-9.08838
▁我要去	-9.08976
▁olima	-9.09008
擦	-9.09119
as	-9.0916
辣	-9.09257
完	-9.09486
別	-9.095
白	-9.09515
傷	-9.09553
留	-9.09558
跳	-9.09563
製作	-9.09603
壞	-9.09605
▁mezaqis	-9.09613
▁tatezoma	-9.09613
bekisi	-9.09614
游	-9.09614
學習	-9.09614
互相	-9.09615
▁Raqana	-9.09615
房間	-9.09621
好嗎	-9.09695
一次	-9.09734
▁balis	-9.09771
▁pameng	-9.09775
▁metiyo	-9.09792
很長	-9.10225
那邊	-9.10345
我是	-9.10366
▁叫	-9.10382
過的	-9.10541
▁azas	-9.10547
兩	-9.10548
家人	-9.10645
哭	-9.10828
▁(	-9.10844
為了	-9.10846
▁ipilan	-9.11144
很久	-9.11448
走了	-9.1196
▁iRoRan	-9.12187
▁qoni	-9.12208
waRi	-9.12324
過了	-9.12426
失	-9.12513
丟	-9.126
藥	-9.12736
iw	-9.12772
刺	-9.12788
方	-9.12844
畫	-9.12877
洞	-9.12888
信	-9.12906
圍	-9.12918
Imuy	-9.12919
sessen	-9.12919
休息	-9.12919
▁ngibiR	-9.12919
翻	-9.12919
▁qasolon	-9.1292
▁tenob	-9.1292
▁這些	-9.1303
很好吃	-9.13135
要去	-9.13148
把它	-9.13379
不好	-9.13679
父	-9.1463
名字	-9.1482
很喜歡	-9.14847
死	-9.14881
sam	-9.1504
做的	-9.15156
▁baliw	-9.1522
▁bawbi	-9.15254
▁qenabinnos	-9.15273
▁sapa	-9.15433
時間	-9.15543
賣	-9.15548
客	-9.16231
遠	-9.16255
napawan	-9.16282
醃	-9.16291
寫	-9.16315
很漂亮	-9.1632
照	-9.16324
更	-9.16325
芭樂	-9.16337
挖	-9.16338
通	-9.16338
▁baRqian	-9.16338
▁kinnawsa	-9.16338
▁simonang	-9.16338
▁temoqaz	-9.16338
罵	-9.16338
扛	-9.16339
▁taziyan	-9.16339
離開	-9.16362
▁saqanan	-9.16412
族人	-9.16588
▁zennan	-9.16607
,:	-9.17052
在山上	-9.17125
▁sin	-9.17128
▁patadikod	-9.17282
▁qeni	-9.17285
▁從前	-9.17415
▁bawbian	-9.17435
baba	-9.17523
去買	-9.1862
學生	-9.1869
sangian	-9.18752
全	-9.18976
tongaw	-9.19276
▁Buya	-9.19392
他們說	-9.19403
爬	-9.1973
美	-9.19782
飛	-9.19824
空	-9.19826
明	-9.19827
em	-9.1986
法	-9.19867
啦	-9.19874
場	-9.19876
▁Rasibo	-9.19879
▁qelizen	-9.19879
▁semodad	-9.19879
鐵	-9.19879
▁ineb	-9.19879
許多	-9.19883
▁dasam	-9.19884
▁melaot	-9.19886
qangi	-9.19943
如何	-9.19983
▁salil	-9.2003
裡面	-9.20184
覺得	-9.20223
zan	-9.20251
mayaw	-9.20304
才能	-9.20331
kay	-9.20332
很高	-9.20346
▁zina	-9.2039
▁pasano	-9.2041
▁pasani	-9.20506
上學	-9.2052
聲	-9.20947
me	-9.20984
dam	-9.21106
is	-9.21118
帶著	-9.21212
▁pateRongan	-9.21245
▁babaw	-9.21293
身體	-9.21527
傳統	-9.21703
後面	-9.22141
▁wi	-9.22453
▁sopaR	-9.22769
在家裡	-9.22934
給你	-9.22971
學校	-9.23
拔	-9.23036
老鼠	-9.23122
晚	-9.23426
▁你有	-9.23465
之	-9.2349
祭	-9.23501
葉	-9.23514
內	-9.23531
穀	-9.23542
光	-9.23547
愛	-9.23548
▁tebaRi	-9.23549
卻	-9.23549
▁temiboq	-9.23563
▁kwa	-9.2357
變成	-9.23573
生病	-9.23579
▁mezizi	-9.23616
▁manan	-9.2362
早上	-9.2364
ika	-9.24086
▁你要	-9.24798
lin	-9.24874
▁taRbabi	-9.24975
▁omanan	-9.25032
pis	-9.25098
▁onay	-9.25343
▁qanengian	-9.25425
也是	-9.25666
boqan	-9.25716
▁bedes	-9.25795
把我	-9.25829
做什麼	-9.25869
我來	-9.26074
小孩子	-9.26419
▁lawa	-9.26457
▁qanas	-9.26536
toqaz	-9.26539
海龜	-9.2654
soRan	-9.26551
▁bosos	-9.26553
肉	-9.26584
tabo	-9.26609
位	-9.26813
▁meli	-9.26922
地震	-9.27167
同	-9.27183
房	-9.27212
早	-9.27233
類	-9.27248
夾	-9.27318
相	-9.27326
常	-9.27333
羊	-9.27333
者	-9.2734
bol	-9.27343
五	-9.27345
轉	-9.27348
拜	-9.27349
神	-9.27349
院	-9.27355
任	-9.27356
騙	-9.27358
3	-9.27358
▁qemoni	-9.27358
▁sabasayan	-9.27358
▁tepolok	-9.27358
碗	-9.27358
▁posia	-9.27359
推	-9.27359
-	-9.27359
▁qawqawman	-9.27359
▁tilibi	-9.2736
qaRat	-9.27377
▁monna	-9.27378
這件衣服	-9.27383
真的	-9.27536
▁zipon	-9.27711
▁sasangian	-9.27879
lizaq	-9.27957
天氣	-9.28345
▁deddanan	-9.28669
dan	-9.28992
拿去	-9.29115
qe	-9.29405
ngi	-9.29498
Roz	-9.29613
你能	-9.29641
的事情	-9.2968
▁osepat	-9.29681
▁azasan	-9.29719
▁kowa	-9.29792
地方	-9.3005
▁saiza	-9.30056
那個人	-9.30071
幾	-9.30286
哪裡	-9.30303
bolan	-9.30329
去海邊	-9.30435
▁san	-9.30535
anta	-9.31061
出來了	-9.3107
A	-9.31257
平	-9.31302
什麼時候	-9.31312
禮	-9.31313
去看	-9.31315
換	-9.31315
掛	-9.31319
噶瑪蘭語	-9.31319
▁kintolo	-9.31319
▁molepon	-9.31319
▁oRat	-9.31319
▁qaizoanan	-9.31319
▁simsoqas	-9.31319
baqsiw	-9.3132
▁siqaR	-9.3132
▁bosaR	-9.3132
▁kayal	-9.3132
應該	-9.31321
▁zinneq	-9.31326
buya	-9.31329
banos	-9.31423
居住	-9.31441
跟著	-9.31527
▁niqanan	-9.31535
第	-9.31908
▁melo	-9.32161
在海邊	-9.32612
▁tem	-9.33076
還要	-9.33118
的小孩	-9.33384
poniR	-9.33482
▁semo	-9.33575
nian	-9.33864
saRo	-9.34011
paw	-9.34101
▁我吃	-9.34133
▁satezayan	-9.34178
我也	-9.34202
osa	-9.34461
▁melanayan	-9.34587
ban	-9.34594
剝	-9.34682
▁niRamaz	-9.34918
還在	-9.35003
土地	-9.35227
打獵	-9.3523
世	-9.35299
間	-9.35316
tongos	-9.35342
片	-9.35347
各	-9.35399
解	-9.35406
那是	-9.35411
安	-9.35413
binnos	-9.35418
那麼	-9.35421
南	-9.35422
部	-9.35424
Malala	-9.35443
missi	-9.35444
告訴	-9.35445
▁qomnot	-9.35445
▁qemapaR	-9.35445
慢慢	-9.35446
突然	-9.35447
▁tabay	-9.35452
▁simsano	-9.35458
▁tiyam	-9.35463
記得	-9.35475
▁melozit	-9.35486
吹	-9.35514
od	-9.35515
▁sinangan	-9.35522
▁melisaw	-9.35538
▁onnay	-9.35548
怎麼樣	-9.35584
很痛	-9.35604
▁seppaw	-9.35818
我很喜歡	-9.35825
▁nisangi	-9.35836
看起來	-9.35954
sez	-9.36045
▁sangi	-9.36094
aka	-9.36175
很重	-9.3647
前面	-9.36551
▁這個人	-9.36594
才可以	-9.36644
pas	-9.36801
很高興	-9.36857
bon	-9.36982
az	-9.36995
▁RosRos	-9.37044
toR	-9.37098
叫他	-9.37153
的朋友	-9.37156
借我	-9.37162
▁osa	-9.37172
▁qani	-9.3728
tot	-9.3777
▁naqoqoni	-9.37965
▁tolis	-9.38208
我的衣服	-9.38376
的孩子	-9.38453
進去	-9.38492
▁kalingko	-9.38647
zokat	-9.38837
我弟弟	-9.39004
▁我種的	-9.3908
很難	-9.39155
剛剛	-9.39384
去找	-9.39394
我昨天	-9.39439
lan	-9.39482
次	-9.39515
累	-9.39581
獵	-9.39589
oway	-9.39616
少	-9.39626
其他	-9.39676
捕	-9.39701
▁teReq	-9.39708
工	-9.39714
5	-9.39727
意	-9.3973
政府	-9.3974
烤	-9.39744
貓	-9.39745
▁baqibai	-9.39745
▁melawis	-9.39745
▁qawsoa	-9.39745
▁temonoR	-9.39745
堆	-9.39745
甚麼	-9.39745
▁bosoq	-9.39745
越	-9.39745
kisaiz	-9.39745
行李	-9.39745
▁maqayta	-9.39745
▁nianiana	-9.39746
▁temankebalan	-9.39746
▁lineng	-9.39749
祭拜	-9.39751
▁bilo	-9.3977
min	-9.39789
▁antangi	-9.39815
▁pasazi	-9.39836
Raq	-9.39863
語言	-9.39914
一定	-9.39988
▁saRabi	-9.40022
▁otoz	-9.40168
▁asa	-9.4028
的魚	-9.4044
▁tazosa	-9.40447
我會	-9.4076
▁wasona	-9.40882
比賽	-9.41121
話	-9.41199
了很多	-9.4121
看看	-9.41217
tis	-9.41407
▁pelisin	-9.41412
▁nizi	-9.41416
▁dengat	-9.41417
的是	-9.41444
豬肉	-9.41444
▁melimo	-9.41467
▁這條路	-9.41999
▁你能	-9.42115
角	-9.42256
▁sema	-9.42332
在那裡	-9.42405
liwayan	-9.42785
我不	-9.42897
都沒有	-9.43004
要帶	-9.4302
他就	-9.43106
▁qinpan	-9.4314
▁satoto	-9.43147
物	-9.43284
▁imoy	-9.4335
ising	-9.43399
Ribon	-9.43403
qapaR	-9.4342
say	-9.43466
▁paqe	-9.43515
這種	-9.43763
菜園	-9.43777
老人	-9.43815
比較	-9.43826
每天	-9.43903
身	-9.43921
祖母	-9.43954
捕魚	-9.44126
掃	-9.44149
石	-9.44176
土	-9.44184
熟	-9.44188
理	-9.44219
無	-9.44229
食	-9.4423
牙	-9.44235
夫	-9.44239
彩	-9.4424
▁qaqaytisan	-9.4424
▁siRmoq	-9.4424
至	-9.44241
kisasa	-9.44254
棉被	-9.44261
完成	-9.44273
▁zani	-9.44419
」。	-9.4442
河	-9.4444
waki	-9.44508
兩個	-9.44653
bisoR	-9.44658
▁koo	-9.44669
謝謝	-9.44692
▁isi	-9.44828
oz	-9.44829
這裡有	-9.44871
成為	-9.44916
一隻	-9.44989
▁niala	-9.45004
▁ato	-9.45136
▁pe	-9.45194
▁sopaRan	-9.45196
ku	-9.4529
▁你為什麼	-9.45321
▁toRabi	-9.45385
用來	-9.45391
Raya	-9.45656
▁qenabinnosan	-9.45696
▁ngayawan	-9.46053
soRaw	-9.4622
男	-9.46431
naw	-9.46459
二	-9.46477
怎麼會	-9.46641
有一個	-9.46785
田裡	-9.46828
回去了	-9.47431
明天要	-9.47718
破	-9.4772
▁medaod	-9.47847
▁paisingan	-9.47922
▁kaysing	-9.48024
讓他	-9.48087
條	-9.48131
▁你把	-9.48456
生氣	-9.48482
直	-9.48791
處	-9.48794
▁nipaloma	-9.48826
近	-9.48835
見	-9.48839
島	-9.48847
朵花	-9.48863
抱	-9.48891
餐	-9.48892
領	-9.48898
買的	-9.48907
唱	-9.48922
女祭司	-9.48923
母	-9.48923
miboq	-9.48928
舉行	-9.4893
Aki	-9.48933
張	-9.4894
摸	-9.48944
夢	-9.48946
元	-9.48946
▁moaza	-9.48946
揹	-9.48946
▁misis	-9.48947
qazqaz	-9.48947
▁saRiq	-9.48947
玩耍	-9.48949
▁kobo	-9.48953
醫院	-9.48953
聊天	-9.48958
▁paqiRi	-9.48959
直接	-9.48964
很危險	-9.48965
onem	-9.48965
之前	-9.48971
▁qaytisan	-9.48979
tanoz	-9.48987
▁qasokaw	-9.49039
▁qabos	-9.49085
▁去拿	-9.49125
▁sinapawan	-9.49147
betoq	-9.49152
▁sapaR	-9.49256
▁seni	-9.49286
看著	-9.49351
meq	-9.49396
▁e	-9.49463
saqay	-9.49577
aq	-9.49733
只要	-9.49769
男孩	-9.50142
▁kizaya	-9.50277
去學校	-9.50458
去了	-9.50496
旁邊	-9.50528
▁palilin	-9.50726
▁我們去	-9.5084
▁於是	-9.51126
香	-9.5125
▁ngidan	-9.5138
niq	-9.51569
▁omos	-9.51586
她的	-9.51713
walin	-9.52004
女生	-9.52046
mon	-9.52111
palana	-9.52127
跟他	-9.52199
Ris	-9.52308
這個木頭	-9.52537
taytan	-9.53152
▁kon	-9.5324
海邊	-9.53312
ling	-9.53488
panmoan	-9.53618
油	-9.53717
iq	-9.538
亮	-9.53814
擔心	-9.53824
搖	-9.53864
編	-9.53865
主	-9.53873
靈	-9.53876
靠	-9.53876
害	-9.53878
嘴	-9.53878
pon	-9.53881
化	-9.53883
池	-9.53885
八	-9.53885
Lohok	-9.53885
kotkot	-9.53885
▁malemes	-9.53885
▁tomqez	-9.53885
業	-9.53885
咬	-9.53886
索	-9.53886
胖	-9.53886
習慣	-9.53886
蟲	-9.53886
餵	-9.53886
山羌	-9.53886
▁mangay	-9.53888
月亮	-9.53891
不好意思	-9.53892
▁biat	-9.53894
▁siRemoq	-9.53898
▁taiwan	-9.53901
bedong	-9.53903
▁sining	-9.53908
▁manbaseR	-9.53924
▁medaiyong	-9.53928
小男孩	-9.53929
▁wang	-9.53946
▁melaydaw	-9.53955
▁taian	-9.53976
▁mzokat	-9.53989
▁gilanan	-9.53993
一定會	-9.54043
加油	-9.54054
▁這個房子	-9.54085
▁tmayta	-9.54094
我們就	-9.54128
他的狗	-9.54135
身上	-9.5417
到山上	-9.5419
▁pasan	-9.54306
▁aki	-9.54325
在一起	-9.54353
煮的	-9.54588
甜	-9.54598
最後	-9.54782
桌子	-9.54885
Ras	-9.55015
▁這是我要	-9.55318
Ropo	-9.55402
▁Api	-9.55497
那個小孩	-9.5559
▁matayta	-9.55703
▁把你	-9.55783
▁satoRin	-9.55819
很快	-9.55897
事情	-9.55981
▁tasawan	-9.56001
死了	-9.56045
了一	-9.56081
Ramaz	-9.56303
就不會	-9.56768
▁qm	-9.56849
語	-9.56893
指	-9.56932
叫孩子	-9.57049
▁pizian	-9.57194
給他	-9.57202
patodan	-9.5732
abang	-9.57436
怕	-9.57514
滿	-9.57917
Rayngo	-9.57925
liz	-9.57939
keton	-9.57979
zosa	-9.58135
數	-9.58287
sepa	-9.58342
我們來	-9.5838
的手	-9.58507
除	-9.5858
機	-9.58696
讓我	-9.5874
自己的	-9.58756
炒	-9.58789
忘記	-9.5886
久	-9.58892
袋	-9.58918
自	-9.58926
癢	-9.58976
活	-9.59041
六	-9.59051
紅	-9.59061
取	-9.59065
兒	-9.5907
染	-9.59077
合	-9.59077
該	-9.59079
菸	-9.59079
繼續	-9.5908
選	-9.5908
醉	-9.59081
Pipis	-9.59081
▁libeng	-9.59081
▁sekawalo	-9.59081
▁sizenges	-9.59081
▁telaqoq	-9.59081
灰	-9.59081
▁pasalawan	-9.59081
共	-9.59081
螺	-9.59081
bawki	-9.59081
▁qatemo	-9.59081
叔叔	-9.59082
▁mwaza	-9.59082
laqid	-9.59084
kodat	-9.59085
▁sayzi	-9.59086
改變	-9.59089
而已	-9.59092
▁ponoz	-9.59097
動物	-9.59101
▁sebi	-9.59102
然後	-9.59141
獵人	-9.59212
▁qayRozik	-9.59245
met	-9.59258
izaw	-9.59293
▁saqayan	-9.59339
新社	-9.59415
裝滿	-9.59455
這塊	-9.59462
kowayan	-9.59517
就這樣	-9.59787
azas	-9.59794
孩子們	-9.59814
nanoman	-9.59846
倒了	-9.59948
▁nizan	-9.5999
▁我今天	-9.59996
▁pena	-9.6023
▁pawRat	-9.60275
我們家	-9.60429
跟我	-9.60466
出去玩	-9.60536
上的	-9.60604
sim	-9.60695
好多	-9.60727
的故事	-9.60892
噶瑪蘭族的	-9.60985
▁toRozan	-9.60998
國家	-9.61026
在家	-9.61064
▁tedem	-9.6112
▁那是我	-9.61467
zaw	-9.61635
il	-9.61678
▁qem	-9.61877
吃了	-9.61944
▁kilim	-9.62046
女孩	-9.62277
全部都	-9.62359
▁temi	-9.62418
山上	-9.62519
▁tamak	-9.62552
那條	-9.6264
你有	-9.62775
你的孩子	-9.62925
我可以	-9.63222
olon	-9.63332
是我要	-9.63469
來到	-9.63526
吐	-9.63537
的田	-9.63795
受	-9.64011
kinil	-9.64111
▁paising	-9.6419
樣	-9.64355
nimen	-9.64414
▁kongko	-9.64414
衣	-9.6446
利	-9.64476
離	-9.64504
▁melana	-9.64505
酸	-9.64522
黃	-9.64537
性	-9.64542
量	-9.64549
sazemaken	-9.64554
治	-9.64557
姊姊	-9.64559
lele	-9.64561
阿美族	-9.64561
搶	-9.64562
縫	-9.64562
datebos	-9.64562
sazmaken	-9.64562
▁kinlima	-9.64562
▁mayseng	-9.64562
▁medadona	-9.64562
▁sasopasan	-9.64562
鋪	-9.64562
陷	-9.64562
▁penno	-9.64562
禁忌	-9.64562
員	-9.64562
餓	-9.64562
▁kinnaosa	-9.64562
paRtik	-9.64563
屋頂	-9.64564
編織	-9.64567
經常	-9.64567
女性	-9.64573
▁lanem	-9.64579
▁Rotoz	-9.6459
nebi	-9.64591
海祭	-9.64602
▁mniz	-9.64618
釣魚	-9.64626
▁mesikaz	-9.64645
太多	-9.64645
快點	-9.64652
坐在	-9.64658
king	-9.64661
分開	-9.64672
不然	-9.64686
▁你們家	-9.64766
▁mesoRaw	-9.64775
▁meRibon	-9.64788
banaw	-9.64835
可是	-9.65072
ngaR	-9.65091
說話	-9.65497
tibo	-9.65614
我妹妹	-9.65836
▁lazatan	-9.65884
▁sanoan	-9.66008
▁niRamazan	-9.66041
sobat	-9.66083
▁qaRo	-9.66113
也會	-9.66142
跟你	-9.66145
▁byabas	-9.66719
eted	-9.6678
ngo	-9.66836
▁有一天	-9.6686
wanay	-9.67561
▁matalin	-9.67731
ten	-9.68005
daw	-9.68072
sopaR	-9.68298
儀式	-9.68482
qeRas	-9.68767
bin	-9.68839
▁qamowaza	-9.68914
你好	-9.69035
吃起來	-9.69039
toloz	-9.69158
boRaw	-9.69672
趕	-9.70019
',	-9.70119
忘了	-9.70165
原來	-9.70184
▁beto	-9.70196
要去哪裡	-9.70305
認	-9.70306
記	-9.70307
稱	-9.70319
野	-9.70321
停	-9.70337
待	-9.70338
品	-9.70341
醒	-9.70341
由	-9.70351
苦	-9.70354
視	-9.70357
料	-9.70358
急	-9.70358
搬	-9.70359
烏克蘭	-9.70359
筆	-9.70359
九	-9.70359
派	-9.7036
ozep	-9.7036
Rangazi	-9.7036
meqasiR	-9.7036
patoRqan	-9.7036
▁belawan	-9.7036
▁qenabinos	-9.7036
▁sidadak	-9.7036
▁temalombi	-9.7036
▁wawaway	-9.7036
▁qaniao	-9.7036
槍	-9.7036
磨	-9.7036
碰	-9.7036
蜜蜂	-9.7036
▁qenasoani	-9.7036
sobolin	-9.7036
▁timaitan	-9.70361
▁saqabian	-9.70361
▁smani	-9.70361
答應	-9.70361
▁yaoqaya	-9.70362
▁taRni	-9.70362
▁paRaybaotan	-9.70363
木板	-9.70365
回答	-9.70366
▁bangRaw	-9.70366
▁kemoway	-9.70367
第二	-9.70372
起床	-9.70372
就可以了	-9.7038
▁owalo	-9.70384
▁這隻狗	-9.70384
▁labang	-9.70384
趕快	-9.70395
感到	-9.70397
▁lawad	-9.70407
下次	-9.70409
到達	-9.70411
的飯	-9.70415
就是這樣	-9.7042
▁zata	-9.70421
出門	-9.70428
要小心	-9.70489
一些	-9.7051
▁lozit	-9.70527
的生活	-9.70565
lobos	-9.70589
▁toqazan	-9.70655
他的腳	-9.70713
▁qawRatan	-9.70738
不動	-9.70745
maw	-9.70775
taRaw	-9.70799
▁這個孩子	-9.70806
lazing	-9.70887
丟掉	-9.70923
有幾	-9.71045
去哪裡	-9.7108
難	-9.71162
lipayan	-9.71206
得到	-9.71225
很熱	-9.71258
心裡	-9.71354
他會	-9.71369
▁tikas	-9.71792
不可以	-9.71951
你來	-9.72243
下雨了	-9.72371
kan	-9.7246
Raos	-9.72467
sano	-9.72506
來的	-9.72694
的名字	-9.72795
把他	-9.72803
zin	-9.72822
洗衣服	-9.72925
歲	-9.72954
群	-9.73238
男生	-9.73323
siasing	-9.73422
天上	-9.73458
園	-9.73487
▁這裡的	-9.73925
▁konna	-9.741
來吃	-9.74264
在學校	-9.74272
裡的	-9.74367
的船	-9.7444
新的	-9.74537
看過	-9.74881
並	-9.74895
戴	-9.74932
pong	-9.75156
他們的	-9.75276
他的手	-9.75423
▁sammay	-9.75432
▁timaiso	-9.75441
不到	-9.7557
wat	-9.75606
每	-9.75692
錯	-9.75989
爛	-9.76012
濕	-9.76016
Ran	-9.76096
一天	-9.76144
河邊	-9.76326
落	-9.76402
釣	-9.76442
壓	-9.7646
顆	-9.76468
浪	-9.76484
ozong	-9.76491
敬	-9.76506
連	-9.7651
存	-9.7651
射	-9.76511
移	-9.76512
lalan	-9.76513
蝦	-9.76513
約	-9.76514
Umus	-9.76514
圈	-9.76515
復	-9.76515
產	-9.76515
婆	-9.76515
兄弟姊妹	-9.76515
熊	-9.76515
qeliwaRwaR	-9.76515
sapazeng	-9.76515
▁kemadabo	-9.76515
▁kezot	-9.76515
▁okelan	-9.76515
▁peRawiR	-9.76515
▁sikobo	-9.76515
橡皮擦	-9.76515
殼	-9.76515
浸泡	-9.76515
肥	-9.76515
須	-9.76515
kawili	-9.76515
waRang	-9.76515
▁matanaq	-9.76515
kalamaz	-9.76516
釘	-9.76516
▁qomRas	-9.76516
▁metawa	-9.76516
▁saizi	-9.76516
資	-9.76516
bakes	-9.76516
觀	-9.76516
幫助	-9.76517
窗戶	-9.76518
文化	-9.76518
嘴巴	-9.76518
綠豆	-9.76519
因此	-9.7652
本書	-9.76521
兔子	-9.76521
戰爭	-9.76522
▁papay	-9.76526
獵物	-9.76527
今年	-9.76528
kikong	-9.76537
▁mateqas	-9.76564
▁titaanna	-9.76571
看見	-9.76592
很遠	-9.76641
快樂	-9.76787
zena	-9.76788
我不會	-9.77041
台北	-9.77093
蓋房子	-9.77137
▁nisano	-9.7719
▁ota	-9.77208
bowaq	-9.77215
▁senangian	-9.77405
▁biyatna	-9.77422
bettoq	-9.77567
我怎麼	-9.77662
▁我喜歡	-9.77717
▁這是誰	-9.77751
看到了	-9.77776
siwa	-9.77853
med	-9.77863
tama	-9.77874
煮菜	-9.78053
awan	-9.78096
nengi	-9.78122
mammaq	-9.78265
qala	-9.7863
siw	-9.78712
pama	-9.78719
▁lepaw	-9.79331
回到	-9.79412
▁我說	-9.79419
damo	-9.79529
吃的	-9.79607
kalingon	-9.79618
說的話	-9.79715
tolis	-9.80079
▁nipawaRi	-9.8011
pak	-9.80152
有什麼	-9.8016
我沒	-9.80186
▁salo	-9.80401
不要吃	-9.80446
沒有了	-9.80682
都會	-9.80686
夠	-9.80687
原住民族	-9.80876
▁paska	-9.80905
我叫	-9.80976
網	-9.81051
的帽子	-9.81333
認真	-9.81429
isan	-9.81499
在樹	-9.81524
pawaRian	-9.81542
的頭髮	-9.81764
天天	-9.81919
於	-9.81932
kolikoz	-9.82005
qodo	-9.82053
pat	-9.82834
臉	-9.8284
總	-9.82852
遺	-9.8289
qeseR	-9.829
短	-9.82963
輕	-9.82989
假	-9.83006
區	-9.83024
siangozos	-9.83024
此	-9.83025
剪	-9.83039
糯米飯	-9.83046
tebes	-9.8305
如	-9.83054
溪	-9.83062
比	-9.83065
沉	-9.83068
金	-9.83068
較	-9.83069
宜	-9.8307
您	-9.83072
祭儀	-9.83074
項	-9.83074
不聽話	-9.83074
蛇	-9.83074
警	-9.83074
Sincyang	-9.83074
soksok	-9.83074
▁Rapedadaw	-9.83074
▁mawRawRat	-9.83074
▁melobas	-9.83074
▁mzaqis	-9.83074
▁semolol	-9.83074
叮	-9.83074
kenasianem	-9.83074
▁kinawsa	-9.83074
吞	-9.83074
▁masowat	-9.83075
▁meRiz	-9.83075
▁menanom	-9.83075
▁opito	-9.83075
拖	-9.83075
埋	-9.83075
▁pemani	-9.83075
Ribis	-9.83076
漁夫	-9.83076
青年	-9.83076
teqez	-9.83077
西瓜	-9.83077
乾淨	-9.8308
這件事情	-9.8308
參與	-9.83083
多少	-9.83084
掉下去	-9.83084
▁pasinangan	-9.83089
qopit	-9.831
toliq	-9.83102
骨頭	-9.83118
▁zako	-9.83122
lapos	-9.83125
很髒	-9.83129
▁mimet	-9.8313
▁meRenem	-9.83132
當然	-9.83134
▁那個男人	-9.83145
很寬	-9.83145
喝酒	-9.83146
開車	-9.83183
boRang	-9.83187
不管	-9.83193
發生	-9.83209
米酒	-9.83242
魚網	-9.8332
▁pasaya	-9.83342
maRaw	-9.83346
的路	-9.83367
她們	-9.83372
留下來	-9.834
▁timaimoan	-9.8343
▁mesoppaR	-9.83442
不一樣	-9.83511
出生	-9.83662
教會	-9.83722
▁tomo	-9.83747
baqi	-9.83751
pokonan	-9.83963
izan	-9.84031
也可以	-9.84066
▁tenon	-9.84068
▁sammayan	-9.84256
▁qamai	-9.84285
我的手	-9.84392
▁我奶奶	-9.8453
oRo	-9.85026
在田裡	-9.85062
qaqa	-9.85108
我才	-9.85109
下去	-9.85281
在路上	-9.85377
的心	-9.85537
▁pizi	-9.85545
很硬	-9.85669
不見了	-9.86098
不要拿	-9.86211
sonis	-9.86574
一起去	-9.86716
▁be	-9.86725
▁qaynep	-9.86898
bat	-9.86938
teng	-9.87052
樹下	-9.87176
▁bangto	-9.8721
的車子	-9.8723
真	-9.87249
就沒有	-9.8737
am	-9.87451
palilin	-9.87483
高興	-9.87703
不過	-9.87718
你們有	-9.87792
於是	-9.88006
▁kem	-9.88058
sal	-9.88165
ib	-9.88569
在那邊	-9.88601
paRin	-9.88612
Rai	-9.8885
▁我爸爸在	-9.88913
結	-9.88996
▁saleppaw	-9.89013
▁kalingonan	-9.89192
▁paq	-9.89213
屋	-9.89317
重要	-9.89662
▁taqan	-9.89721
zing	-9.89823
站	-9.89859
懂	-9.8989
這麼	-9.89906
聚	-9.89952
的病	-9.89963
慢	-9.90001
籃子	-9.9001
臭	-9.90014
▁這隻	-9.90027
鹽巴	-9.90044
求	-9.90059
瓶子	-9.90063
綠	-9.90074
命	-9.90075
血	-9.90077
kawit	-9.90081
北	-9.90082
忙	-9.90082
改	-9.90084
刷	-9.90086
服	-9.90088
雲	-9.90089
吵	-9.90091
呀	-9.90092
度	-9.90092
削	-9.90092
涼	-9.90093
4	-9.90093
kulu	-9.90094
擾	-9.90094
煙	-9.90094
談	-9.90094
盤	-9.90094
boqaRes	-9.90094
linemnem	-9.90094
▁kemiala	-9.90094
▁pamemeng	-9.90094
▁pelolo	-9.90094
▁semoRap	-9.90094
▁temadikod	-9.90094
姓	-9.90094
牆	-9.90094
蟻	-9.90094
pibod	-9.90094
划	-9.90094
針	-9.90094
▁maded	-9.90094
▁qinonong	-9.90094
敲	-9.90094
清	-9.90094
滑	-9.90094
散	-9.90094
qatanaq	-9.90094
▁pakongko	-9.90094
低	-9.90095
RomeR	-9.90095
保護	-9.90095
▁tawki	-9.90095
認識	-9.90095
決定	-9.90095
▁paqayaw	-9.90095
▁semmin	-9.90096
▁temanoz	-9.90096
方式	-9.90096
龍蝦	-9.90096
吵架	-9.90097
豐收	-9.90098
黃藤	-9.90099
賺錢	-9.90099
湯圓	-9.90103
▁temongaw	-9.90104
靠近	-9.90105
qaseq	-9.90108
怎麼辦	-9.90108
temaqan	-9.90116
找不到	-9.90137
過夜	-9.90141
▁osiwa	-9.90146
其	-9.90156
沙子	-9.90162
在地上	-9.90196
住在	-9.90232
煮的菜	-9.90232
▁meliway	-9.90235
▁ngasan	-9.90238
bong	-9.90265
不然會	-9.90272
▁kezan	-9.90278
遇到	-9.90303
ibiq	-9.9032
▁sitongos	-9.90343
nap	-9.90383
噶瑪蘭族人	-9.90408
▁yateng	-9.90408
▁我要買	-9.90429
▁qaRayngo	-9.90439
的木頭	-9.90447
包起來	-9.90463
Rapotoy	-9.90534
長大	-9.90588
abas	-9.90783
使用	-9.90804
tayzin	-9.90823
請你	-9.90961
拿來	-9.90989
▁kolikozan	-9.91254
部落裡	-9.91307
qoRo	-9.91356
我的頭	-9.91467
▁我很	-9.91657
▁我朋友	-9.91744
這個石頭	-9.91813
qapaRan	-9.91858
▁qawi	-9.91907
起來了	-9.9208
▁temonaw	-9.92225
▁zaqisan	-9.92244
Rabi	-9.92265
angaw	-9.92351
食物	-9.93193
要做	-9.93243
的事	-9.93271
yazi	-9.93447
pes	-9.93515
個人	-9.93615
很喜歡吃	-9.93795
▁sikawmaan	-9.94218
全家	-9.94351
是用	-9.94403
▁mowa	-9.94664
▁saqoni	-9.94688
nangan	-9.9473
回來了	-9.95091
Api	-9.95256
▁sas	-9.95347
kilim	-9.95362
從前	-9.95405
kebalan	-9.95461
ngid	-9.95786
maz	-9.95835
那個孩子	-9.96356
的臉	-9.96522
七	-9.96522
▁ipil	-9.9656
lowas	-9.96582
▁senangi	-9.96585
liw	-9.96646
斷	-9.96992
很有	-9.97016
塊	-9.9704
的腳	-9.97169
的祖先	-9.97193
水桶	-9.97252
我爸爸要	-9.97292
▁niRasa	-9.97293
RaRiw	-9.97362
tisan	-9.97392
neng	-9.97408
管	-9.97499
整	-9.97549
lisaw	-9.97558
瓜	-9.9756
寬	-9.97562
哪	-9.97569
Rozik	-9.97583
牽	-9.97589
期	-9.97597
因	-9.97602
製	-9.97604
織	-9.97616
耕	-9.97616
▁qaniyaoan	-9.97617
燙	-9.9763
鑽	-9.97632
電腦	-9.97633
顧	-9.97634
廣	-9.97634
彎	-9.97637
號	-9.97638
陪	-9.9764
念	-9.97643
足	-9.97643
茄	-9.97644
容易	-9.97644
懶	-9.97644
拍	-9.97644
串	-9.97644
▁linggo	-9.97644
▁melimek	-9.97644
▁selawal	-9.97644
▁temabal	-9.97644
▁wantima	-9.97644
故鄉	-9.97644
那隻青蛙	-9.97644
diyoq	-9.97644
qadded	-9.97644
▁amilika	-9.97644
▁losit	-9.97644
▁pasazoi	-9.97644
▁semosoR	-9.97644
帳	-9.97644
▁qasemin	-9.97644
▁qiyol	-9.97644
這座山	-9.97644
程	-9.97644
sabidang	-9.97644
擊	-9.97645
睡著了	-9.97645
▁molpon	-9.97645
岸邊	-9.97646
的葉子	-9.97647
basaw	-9.97648
我的錢	-9.9765
黃金	-9.97651
泥土	-9.97651
李子	-9.97652
leko	-9.97653
五個人	-9.97654
▁kikay	-9.97655
▁simtayta	-9.97656
祭品	-9.97656
qaRim	-9.97661
▁sayto	-9.97666
集中	-9.97671
打架	-9.97671
肚子	-9.97674
鞋子	-9.97674
那棵樹	-9.97677
▁paskoa	-9.97677
阿公	-9.97679
成熟	-9.97684
▁semoni	-9.97692
認為	-9.97694
中餐	-9.97701
▁omaw	-9.97704
大便	-9.97707
▁temoko	-9.97715
等一下	-9.9772
sopay	-9.9772
▁好啊	-9.97721
▁sataRbabi	-9.97723
看不到	-9.97734
▁mRaRiw	-9.97734
▁miyan	-9.97736
超過	-9.97737
toRang	-9.97739
白米	-9.97746
天空	-9.97756
小山豬	-9.9776
▁qalisimpo	-9.97783
▁menangoy	-9.97792
去看病	-9.97812
很美	-9.97813
▁mengid	-9.9783
到海邊	-9.97843
▁qalabo	-9.97854
▁qatapon	-9.97865
▁siRis	-9.97875
▁saqonga	-9.97888
很累	-9.97937
seppawan	-9.97947
▁palisimpo	-9.97992
害怕	-9.98017
才好	-9.98031
▁onong	-9.98037
帶回去	-9.98053
nomi	-9.98058
美麗	-9.98092
tos	-9.98117
▁paqatiw	-9.98128
omasan	-9.98204
taytay	-9.98246
濕了	-9.98264
水果	-9.98268
teman	-9.98317
種子	-9.98322
qonian	-9.98346
比較好	-9.98361
▁penay	-9.9838
▁qatani	-9.98419
▁niqodoan	-9.98421
qipit	-9.98472
▁talepawan	-9.98475
實	-9.98535
▁我跟	-9.98541
每個	-9.98549
▁我正在	-9.98552
▁這條	-9.98588
▁meRo	-9.98617
▁kasa	-9.98705
▁patoqaz	-9.98961
也有	-9.99022
▁你怎麼	-9.99187
這邊	-9.99304
lozan	-9.99374
快要	-9.9947
▁satotoan	-9.99542
▁這是要	-9.99636
lik	-9.99885
▁好的	-10.0003
Rasokaw	-10.0003
▁meti	-10.0017
iya	-10.0019
▁sepezan	-10.0031
baR	-10.0031
tod	-10.0032
▁temo	-10.0032
族語	-10.0042
▁napas	-10.0049
nanem	-10.0051
tob	-10.0075
sem	-10.0081
niyan	-10.0104
你喜歡	-10.0114
lepawan	-10.013
人家	-10.0139
花蓮	-10.0147
oq	-10.0148
lawlawan	-10.0152
菜園裡	-10.0155
▁我拿	-10.0167
正	-10.0175
我不喜歡	-10.0199
▁zanoman	-10.0213
▁你沒有	-10.0223
他的青蛙	-10.0223
▁tita	-10.023
的食物	-10.0232
日本	-10.024
▁todan	-10.024
跟你說	-10.0251
Rin	-10.0326
很小	-10.0329
▁她是	-10.0343
siwan	-10.041
kong	-10.0423
路上	-10.0436
sepaw	-10.0454
koan	-10.0463
pokon	-10.0471
民	-10.0482
瘦	-10.0484
tangan	-10.0496
betin	-10.0508
paloman	-10.0511
hoa	-10.0513
otoz	-10.0513
pipis	-10.0514
▁toto	-10.0531
RiR	-10.0534
星期	-10.054
就是那樣	-10.0542
都要	-10.0545
經	-10.0554
床	-10.0556
sengat	-10.056
傳	-10.0562
Rapsi	-10.0563
強	-10.0569
便	-10.057
定	-10.0572
深	-10.0574
豆	-10.0575
pit	-10.0575
傘	-10.0576
toq	-10.0576
裂	-10.0577
字	-10.0577
烏	-10.0578
興	-10.0578
犁	-10.0579
替	-10.058
剩	-10.058
milim	-10.058
圖	-10.058
倉	-10.058
弟	-10.058
daytan	-10.058
結束	-10.058
搭	-10.0581
層	-10.0581
故意	-10.0581
表	-10.0581
戶	-10.0581
鹽	-10.0581
準	-10.0581
搓	-10.0581
富	-10.0581
臺	-10.0581
負責	-10.0581
格	-10.0581
百	-10.0581
股	-10.0581
balodoq	-10.0581
gasoling	-10.0581
pakelabi	-10.0581
sapsap	-10.0581
▁dasidas	-10.0581
▁hitay	-10.0581
▁kemawili	-10.0581
▁kikiya	-10.0581
▁nansoani	-10.0581
▁pedatay	-10.0581
▁pilit	-10.0581
▁qasemmin	-10.0581
▁qaypenayan	-10.0581
▁qemodo	-10.0581
▁sasepezan	-10.0581
▁senapowaR	-10.0581
▁這棵樹	-10.0581
唸	-10.0581
▁Rikom	-10.0581
滾	-10.0581
鉤	-10.0581
雨停了	-10.0581
podoq	-10.0581
▁masalin	-10.0581
▁nitenon	-10.0581
擰	-10.0581
標	-10.0581
罰	-10.0581
ngaqat	-10.0581
▁kappa	-10.0581
▁meqayta	-10.0581
逃	-10.0581
而且	-10.0581
鎖	-10.0581
▁qipenayan	-10.0581
騎腳踏車	-10.0581
舉行亡魂祭	-10.0581
▁Raibang	-10.0581
曾經	-10.0581
組織	-10.0581
考試	-10.0581
今晚	-10.0582
搖籃	-10.0582
便宜	-10.0582
▁kawka	-10.0582
tiRRan	-10.0582
方便	-10.0582
▁semobat	-10.0582
屋內	-10.0582
▁lopas	-10.0582
▁qobo	-10.0583
做記號	-10.0583
sopol	-10.0584
▁saqazosa	-10.0584
耕作	-10.0584
撞到	-10.0584
多少錢	-10.0584
▁我買了	-10.0585
來吧	-10.0585
重新	-10.0586
teReq	-10.0588
▁qenasoppaR	-10.0588
▁yen	-10.0589
魚的	-10.0589
▁paRama	-10.059
蓋住	-10.059
▁masebang	-10.059
▁mesanem	-10.0591
▁qatoRiyas	-10.0592
變得	-10.0593
▁malisimpo	-10.0593
太太	-10.0599
▁qomo	-10.0601
tosoz	-10.0603
pissa	-10.0604
▁yaozoma	-10.0609
laziwan	-10.0609
當時	-10.0622
iRoR	-10.0623
▁izao	-10.0626
就像	-10.0634
▁qabawa	-10.0638
有些	-10.0644
錯了	-10.0649
花生	-10.0652
lazan	-10.0657
水泥	-10.0658
toqed	-10.0659
▁nasanan	-10.0664
滿了	-10.0667
lingi	-10.0675
不行	-10.0676
再來	-10.068
失去	-10.0684
我的狗	-10.069
azasan	-10.0694
在花蓮	-10.0696
不要再	-10.0699
族群	-10.0707
kez	-10.0707
ssa	-10.071
哭了	-10.0712
▁mais	-10.0723
很像	-10.0725
▁nalis	-10.073
kasianeman	-10.0735
▁kapotna	-10.0736
沒辦法	-10.075
naqoni	-10.0758
satezay	-10.0766
sasano	-10.0779
我的腳	-10.0791
▁pakal	-10.0792
▁kalingkoan	-10.0797
▁不要玩	-10.0814
▁saw	-10.082
送給	-10.0823
▁kena	-10.0833
大家都	-10.0846
qom	-10.0847
三個	-10.0854
大家一起	-10.0858
mol	-10.0861
一年	-10.0885
niz	-10.0901
我的家	-10.0904
dokian	-10.0907
海裡	-10.091
生的	-10.0917
toqos	-10.0923
▁poq	-10.0929
已經被	-10.0934
一位	-10.0934
▁Rosi	-10.0944
▁tomay	-10.0984
或是	-10.0984
你為什麼	-10.0985
我們一起	-10.1018
baliw	-10.1027
喜歡吃	-10.1043
▁qatabanan	-10.1049
paR	-10.1056
wi	-10.1057
全都	-10.1062
有一隻	-10.1068
qapo	-10.1072
兩個人	-10.112
gilan	-10.1164
▁我用	-10.1202
去田裡	-10.1207
你的衣服	-10.1227
▁qasa	-10.1231
ad	-10.1249
這是我	-10.1249
▁我看到	-10.1277
不喜歡	-10.1278
的雞	-10.1284
紙	-10.1285
liway	-10.1295
talin	-10.1305
▁niseppaw	-10.1353
擋	-10.1354
▁paRpaRin	-10.136
▁timaiko	-10.1363
我們去採	-10.1365
讓你	-10.137
泥	-10.1386
▁我媽媽在	-10.1402
美麗的	-10.1408
▁這個菜	-10.1411
飽	-10.1416
想吃	-10.1419
要放	-10.1419
躲	-10.144
tapon	-10.1442
倆	-10.1443
不知	-10.1444
福	-10.1446
這樣說	-10.1453
被風吹	-10.1455
考	-10.146
緊	-10.1461
舀	-10.1462
貴	-10.1462
▁teRi	-10.1463
試	-10.1464
骨	-10.1464
道	-10.1466
pisa	-10.1466
招	-10.1468
糖	-10.1469
舞	-10.1469
星星	-10.1469
造	-10.147
報	-10.147
箭	-10.147
賽	-10.147
藏	-10.147
東	-10.147
撕	-10.147
碎	-10.147
在宜蘭	-10.147
雕	-10.147
滴	-10.147
用左手	-10.147
飄	-10.147
救	-10.147
挑	-10.147
橋	-10.147
萬	-10.147
Rabtin	-10.147
keladot	-10.147
soloydo	-10.147
tennes	-10.147
▁hikoki	-10.147
▁inengat	-10.147
▁ipaz	-10.147
▁kemotkot	-10.147
▁kiyokay	-10.147
▁lolen	-10.147
▁lozem	-10.147
▁nansasoani	-10.147
▁nozon	-10.147
▁otobay	-10.147
▁pitasaw	-10.147
▁saqawRatan	-10.147
▁sasiqetan	-10.147
▁senolal	-10.147
▁tangayaw	-10.147
慕	-10.147
檢查	-10.147
蔥	-10.147
蚌	-10.147
polet	-10.147
zepo	-10.147
▁melabin	-10.147
▁nisalawan	-10.147
▁semanga	-10.147
大葉山欖	-10.147
柱	-10.147
閩南人	-10.147
▁matazay	-10.147
▁padadames	-10.147
▁qenawang	-10.147
▁siqqay	-10.147
哇	-10.147
抬	-10.147
軟	-10.147
某	-10.147
靈魂	-10.147
防	-10.147
biseR	-10.147
▁tmanan	-10.147
權	-10.147
piyaz	-10.1471
寶	-10.1471
▁liyab	-10.1471
sinot	-10.1471
漁網	-10.1471
課本	-10.1471
▁qasikazan	-10.1471
▁moReti	-10.1471
永遠	-10.1471
味道	-10.1471
tepoq	-10.1471
▁seminap	-10.1471
▁manmet	-10.1471
▁pamsi	-10.1471
特別	-10.1471
的樣子	-10.1471
somati	-10.1471
▁kedabo	-10.1471
長輩	-10.1471
▁smano	-10.1471
tawik	-10.1472
▁kawanan	-10.1472
跑步	-10.1472
▁sinapon	-10.1472
遊玩	-10.1472
畫圖	-10.1472
umaw	-10.1472
平安	-10.1472
之間	-10.1472
那條船	-10.1473
便當	-10.1473
青菜	-10.1474
▁tozos	-10.1475
傷口	-10.1475
只能	-10.1475
邀請	-10.1476
一半	-10.1477
qepeR	-10.1478
▁sikapot	-10.1479
▁那個女人	-10.148
bidas	-10.1481
很慢	-10.1481
▁zinmet	-10.1482
以為	-10.1484
角落	-10.1485
才有	-10.149
到田裡	-10.1496
▁laposan	-10.1497
▁semi	-10.1498
▁這個男人	-10.15
都有	-10.1502
到學校	-10.1503
qaynepan	-10.1507
在河邊	-10.1508
wiyati	-10.1509
mak	-10.1509
▁sawaq	-10.1511
收起來	-10.1512
很好看	-10.1514
dis	-10.1515
一種	-10.1519
▁qaRaya	-10.1521
放在哪裡	-10.1522
mos	-10.1524
▁sasonis	-10.1531
學會	-10.1532
▁qat	-10.1545
對著	-10.1548
bokasan	-10.1551
▁nisepaw	-10.1552
yang	-10.156
馬路	-10.1563
▁paqanan	-10.1577
▁sopas	-10.1578
那小孩	-10.1584
最喜歡	-10.1593
tiana	-10.1601
nangoy	-10.1607
▁我煮	-10.1613
▁kolo	-10.1616
我的頭髮	-10.1618
幫他	-10.1618
耳朵	-10.1618
Rta	-10.1623
菜刀	-10.1643
要吃的	-10.1645
▁我只	-10.1646
▁zinta	-10.1648
▁sik	-10.165
帽子	-10.1653
▁medaodan	-10.1686
我的弟弟	-10.1688
▁qinpanan	-10.1697
paningoan	-10.1697
的時間	-10.1703
tamak	-10.1715
不用	-10.1766
lawa	-10.1767
▁qema	-10.1779
乾了	-10.1786
ei	-10.1808
sinanaman	-10.1817
老了	-10.1824
tamos	-10.1828
▁sab	-10.1831
很多人	-10.1835
拿出來	-10.1845
▁qabo	-10.1875
要加	-10.1877
只是	-10.1919
我們的祖先	-10.1942
▁takanan	-10.1974
▁他很	-10.1975
osan	-10.1986
的身體	-10.1993
我的東西	-10.2009
▁taboan	-10.2017
itos	-10.2019
kaway	-10.2064
很快就	-10.2077
我知道	-10.2093
yon	-10.2098
故事	-10.2105
▁sepez	-10.2109
好吃	-10.2125
lis	-10.2129
全部都是	-10.2134
Rayan	-10.2139
moz	-10.2151
糖果	-10.2199
我的朋友	-10.2207
pin	-10.2208
▁sazan	-10.2217
在這	-10.2218
在新社	-10.2227
▁titan	-10.2276
些	-10.2282
kapotan	-10.2285
的耳朵	-10.2286
▁paRasa	-10.2301
▁taqsi	-10.2304
很甜	-10.2304
去上學	-10.2313
▁nisikawma	-10.2325
謝謝你	-10.2346
▁koa	-10.2352
不同	-10.2354
nos	-10.2408
退	-10.2409
隨	-10.2421
原	-10.243
zana	-10.2431
▁pisapatan	-10.2431
影	-10.2431
Rinang	-10.2433
並不	-10.2433
akita	-10.2436
課	-10.2437
青	-10.2437
支	-10.2438
髒	-10.2438
到河邊	-10.2439
醫	-10.244
電視	-10.2441
集	-10.2442
鼠	-10.2443
藤	-10.2443
左	-10.2445
運	-10.2445
式	-10.2445
圓	-10.2445
體	-10.2446
屬	-10.2446
確	-10.2446
響	-10.2446
味	-10.2446
聚集	-10.2446
持	-10.2446
幹	-10.2446
漂亮的	-10.2446
願	-10.2446
曆	-10.2446
貼	-10.2446
汗	-10.2447
▁sapaqan	-10.2447
單	-10.2447
沖	-10.2447
算	-10.2447
Wusay	-10.2447
[	-10.2447
lalikid	-10.2447
Kingciang	-10.2447
傲	-10.2447
虎頭蜂	-10.2447
補	-10.2447
鬼	-10.2447
]	-10.2447
dosdos	-10.2447
kakolot	-10.2447
kelibakib	-10.2447
qeloqot	-10.2447
zepzep	-10.2447
▁ilibeng	-10.2447
▁qakelisa	-10.2447
▁qemizowan	-10.2447
▁tebteb	-10.2447
▁tembes	-10.2447
▁temoRang	-10.2447
▁timaimian	-10.2447
▁tonek	-10.2447
▁wanaika	-10.2447
付	-10.2447
泡	-10.2447
燈	-10.2447
limmez	-10.2447
▁nipaqiRi	-10.2447
刨	-10.2447
則	-10.2447
灑	-10.2447
牡	-10.2447
獎	-10.2447
盪	-10.2447
秧苗	-10.2447
脫	-10.2447
▁menanaz	-10.2447
▁temabo	-10.2447
豐濱	-10.2447
6	-10.2447
paqepid	-10.2447
鋸	-10.2447
伸	-10.2447
蘭陽平原	-10.2447
polaw	-10.2447
蓮霧	-10.2447
▁mengangaw	-10.2447
beRoR	-10.2447
Rowin	-10.2447
尤	-10.2447
▁kapid	-10.2447
山蘇	-10.2447
終於	-10.2447
▁qalilizaqan	-10.2447
▁patado	-10.2447
教育	-10.2447
表示	-10.2447
Nalis	-10.2447
遷移	-10.2447
工具	-10.2447
▁saqepeRan	-10.2447
出海捕魚	-10.2447
真正	-10.2447
雨傘	-10.2447
春天	-10.2447
▁sedaw	-10.2448
▁tawian	-10.2448
鬆綁	-10.2448
▁pinto	-10.2448
Ronat	-10.2448
▁tebos	-10.2448
竹籃	-10.2448
▁paita	-10.2448
處理	-10.2448
堵住	-10.2448
海膽	-10.2449
要好好	-10.2449
濳水	-10.2449
在瓶子裡	-10.2449
流血	-10.2449
黃色	-10.2449
停下來	-10.245
畫畫	-10.245
也許	-10.245
見面	-10.2451
tabal	-10.2451
同學	-10.2451
▁koaya	-10.2452
從此	-10.2452
▁peno	-10.2452
qita	-10.2453
toRes	-10.2453
進行	-10.2454
qidis	-10.2455
上課	-10.2456
帶領	-10.2456
很臭	-10.2458
飛魚	-10.2459
動作	-10.246
煮飯	-10.2461
有時候	-10.2461
不能走路	-10.2461
遲到	-10.2462
在樹上	-10.2462
dames	-10.2462
▁sataqsian	-10.2463
很近	-10.2464
當作	-10.2465
下面	-10.2466
不夠	-10.2467
講的話	-10.2468
iyan	-10.2469
回頭	-10.2471
▁matoqed	-10.2471
▁qapatay	-10.2471
▁masengat	-10.2471
吃完	-10.2473
人類	-10.2476
▁patod	-10.2477
有三個	-10.2477
kongkong	-10.2477
▁今天天氣	-10.2478
客人	-10.2478
▁sinap	-10.2478
不會忘記	-10.248
▁nipaRit	-10.2481
放心	-10.2484
刺到	-10.2486
一整天	-10.2487
把這	-10.2487
ngas	-10.2488
palawisan	-10.2489
▁nisodadan	-10.2489
這就是	-10.2496
晚餐	-10.2501
的聲音	-10.2521
要做什麼	-10.2521
我們不	-10.2521
▁samolayan	-10.2524
▁qasoppaR	-10.2529
拿著	-10.253
躲在	-10.2532
把那	-10.2545
破了	-10.2555
Risiw	-10.2562
▁這是你	-10.2566
▁paRpaRinan	-10.257
▁satabo	-10.2573
aiko	-10.2584
拔掉	-10.2587
▁zoman	-10.2595
讓我們	-10.2604
的學校	-10.261
加了	-10.2624
還會	-10.2638
我沒有在	-10.2646
tep	-10.2656
有錢	-10.2701
atoR	-10.2721
palowas	-10.2722
qatiw	-10.2748
gay	-10.2762
zayan	-10.2767
boki	-10.2768
生了	-10.2769
masang	-10.2819
sangi	-10.2825
找到了	-10.2829
▁qati	-10.2833
養的	-10.2835
人都	-10.2836
在做什麼	-10.2867
的火	-10.2873
▁paqaynep	-10.2874
azo	-10.2876
▁你不要	-10.2877
去撿	-10.2892
qasopaR	-10.2895
▁mel	-10.2917
bola	-10.2949
的傳統	-10.2971
nani	-10.298
母親	-10.2987
▁semoR	-10.2987
是男生	-10.299
linan	-10.3033
totoz	-10.3058
patay	-10.307
怎麼知道	-10.3076
▁mao	-10.3103
的旁邊	-10.3105
bali	-10.3111
長出	-10.3116
很冷	-10.3126
你說的話	-10.3141
我都	-10.3154
awka	-10.3157
zam	-10.3178
坐下	-10.3187
大聲	-10.3196
▁zaqis	-10.32
奶奶說	-10.3205
所有	-10.3218
隨著	-10.322
waq	-10.3226
tedan	-10.3241
在下雨	-10.3257
ngaw	-10.3257
▁izipan	-10.3265
▁pawRatan	-10.3278
的桌子	-10.3286
辦法	-10.3293
nanam	-10.3303
玩水	-10.3312
有幾個人	-10.3313
爬上	-10.3345
受傷	-10.3357
交	-10.3373
▁pawaRi	-10.3381
的花	-10.3381
papanmo	-10.3397
的眼睛	-10.3414
nokob	-10.3418
腫	-10.3433
▁nasan	-10.3467
cia	-10.3491
掉下來	-10.3496
出去了	-10.3501
桌	-10.3504
singot	-10.3509
diatip	-10.351
籃	-10.3512
腰	-10.3513
知	-10.3514
墊	-10.3514
褲	-10.3514
alawma	-10.3517
摩托車	-10.3518
小心	-10.3518
班	-10.3519
夜	-10.352
半	-10.352
勤勞	-10.352
patez	-10.352
lilizaq	-10.3521
鐘	-10.3522
我們會	-10.3522
隔	-10.3523
架	-10.3524
村	-10.3524
mawaR	-10.3525
反	-10.3526
8	-10.3527
煩	-10.3527
渴	-10.3527
器	-10.3527
座	-10.3527
▁moRin	-10.3527
西	-10.3528
修	-10.3528
遷	-10.3528
伴	-10.3528
尿	-10.3528
依	-10.3528
舊	-10.3528
鄰	-10.3528
喊	-10.3528
維	-10.3528
腳踏車	-10.3528
歡	-10.3528
的皮膚	-10.3528
窮	-10.3528
忌	-10.3528
森	-10.3528
店	-10.3528
排	-10.3528
賴	-10.3528
沒關係	-10.3528
媳婦	-10.3528
惜	-10.3528
的陷阱	-10.3528
耶	-10.3528
局	-10.3528
kingciang	-10.3528
tangzasan	-10.3528
tenozon	-10.3528
▁cienpocay	-10.3528
▁kinaosa	-10.3528
▁lezon	-10.3528
▁maRemaq	-10.3528
▁masebit	-10.3528
▁mediyatip	-10.3528
▁mesosopa	-10.3528
▁metazoq	-10.3528
▁mlaziw	-10.3528
▁qemidat	-10.3528
▁semiaRaR	-10.3528
▁smaqay	-10.3528
▁snazao	-10.3528
▁tepowaq	-10.3528
▁tingzen	-10.3528
▁tiyennaw	-10.3528
▁你現在	-10.3528
王	-10.3528
那張椅子	-10.3528
kawlah	-10.3528
pedeq	-10.3528
▁pasasani	-10.3528
▁qapakala	-10.3528
捐	-10.3528
越來越	-10.3528
kenasaw	-10.3528
sepol	-10.3528
▁Umas	-10.3528
▁mabod	-10.3528
撒	-10.3528
暗	-10.3528
插秧	-10.3528
一個小時	-10.3528
膠	-10.3528
很厲害	-10.3528
肩	-10.3528
攪拌	-10.3529
躺	-10.3529
qemadanan	-10.3529
▁somRoz	-10.3529
粗	-10.3529
Buli	-10.3529
pani	-10.3529
仔細	-10.3529
tedob	-10.3529
kilas	-10.3529
▁qakiya	-10.3529
獨	-10.3529
ngiyas	-10.3529
辛苦	-10.3529
收拾	-10.3529
▁dawad	-10.3529
zimot	-10.3529
原本	-10.3529
迷路	-10.3529
qaded	-10.3529
▁qaypanay	-10.3529
安慰	-10.3529
linamaw	-10.3529
稱呼	-10.3529
稀飯	-10.3529
▁到了這邊	-10.3529
絲瓜	-10.3529
抽菸	-10.3529
秋天	-10.3529
陪伴	-10.3529
祭典	-10.3529
屬於	-10.3529
▁iRebeng	-10.3529
苦瓜	-10.3529
沉下去	-10.3529
冬天	-10.3529
▁niRapotoyan	-10.353
南瓜	-10.353
patoRoz	-10.353
palonan	-10.353
寫字	-10.353
香蕉絲	-10.353
男性	-10.353
左邊	-10.353
撿海菜	-10.353
神靈	-10.3531
▁Ramenen	-10.3531
女兒	-10.3531
toqiq	-10.3531
安全	-10.3531
照相	-10.3532
看病	-10.3532
活動	-10.3532
這麼多	-10.3532
村長	-10.3532
saisi	-10.3532
▁ponangan	-10.3532
美國	-10.3532
曬乾	-10.3533
海浪	-10.3533
一瓶	-10.3534
▁tokayan	-10.3535
每年	-10.3536
炒菜	-10.3537
zaya	-10.3537
小女孩	-10.3537
▁mabenaR	-10.3537
再見	-10.3538
現在才	-10.3538
中間	-10.3538
▁niqodo	-10.3538
Raqat	-10.3538
解開	-10.3539
▁tingiwan	-10.3539
▁medotiq	-10.354
海鳥	-10.354
幾年	-10.3541
▁meqila	-10.3542
▁meRetot	-10.3544
▁semin	-10.3545
▁mozong	-10.3545
toqo	-10.3546
▁oh	-10.3547
▁menanam	-10.3547
洗手	-10.3547
河水	-10.3549
▁qawtoka	-10.355
▁boli	-10.355
雞肉	-10.3551
▁smo	-10.3553
開花	-10.3555
強壯	-10.3556
poten	-10.3558
機會	-10.3558
▁takinilan	-10.3559
到處	-10.3559
▁tengan	-10.356
▁molay	-10.3564
總是	-10.3566
walo	-10.3567
心想	-10.3569
▁apon	-10.3569
▁Rabis	-10.357
▁paqawit	-10.3572
anom	-10.3574
到底	-10.3583
pazaken	-10.3584
已被	-10.3586
趕走	-10.3586
▁我喜歡吃	-10.3587
▁makala	-10.3592
將來	-10.3597
斷了	-10.3602
吃飽了	-10.3603
▁ah	-10.3604
整個部落	-10.3608
很美麗	-10.3609
受傷了	-10.3612
那個石頭	-10.3615
▁sake	-10.3621
▁zinnaq	-10.3623
nobi	-10.3624
這裡沒有	-10.3631
▁我把我的	-10.3633
除了	-10.3637
▁qaala	-10.3646
生氣了	-10.3648
是原住民	-10.3649
▁我常常	-10.3652
的學生	-10.3659
人民	-10.3663
▁ho	-10.3664
就把	-10.3667
qaiR	-10.367
不同的	-10.3674
一把	-10.3675
▁siti	-10.3681
kiw	-10.3683
▁這個水	-10.3686
都不會	-10.3691
不再	-10.3695
有個	-10.3701
新社部落	-10.3707
ninnan	-10.3726
只有他	-10.3744
很怕	-10.3762
iRawan	-10.3762
emet	-10.3768
ketonan	-10.377
喜歡讀書	-10.3783
▁saba	-10.3789
▁melona	-10.3792
was	-10.3795
▁tongawan	-10.3797
omos	-10.3807
只好	-10.3823
▁qaR	-10.3825
qananam	-10.3826
laop	-10.3826
▁imoyan	-10.3827
我已	-10.3833
▁我家	-10.3841
水田	-10.3868
▁maqe	-10.3869
要怎麼	-10.3876
跟隨	-10.3876
▁simpa	-10.3879
ibabaw	-10.3892
的儀式	-10.3898
蓋的	-10.3913
能夠	-10.3918
想到	-10.392
lingian	-10.3928
▁不要把	-10.3936
▁hibangan	-10.394
▁這是誰的	-10.3954
看什麼	-10.3962
是學生	-10.3966
跑掉	-10.4013
我最	-10.4025
▁paRo	-10.4058
sikaz	-10.406
▁這是什麼	-10.407
在哭	-10.4088
所有的	-10.4093
沒有看到	-10.4094
父母	-10.4107
這條路	-10.4111
到菜園	-10.4176
dadas	-10.4187
kelisiw	-10.4198
niana	-10.4214
kelawkawayan	-10.4219
都很	-10.422
tangi	-10.4245
硬	-10.4266
Raybaot	-10.4276
裡有好多	-10.4283
iza	-10.4283
▁mase	-10.4302
▁pot	-10.431
跟我說	-10.4338
已	-10.434
開心	-10.4372
babaw	-10.439
pais	-10.4402
iko	-10.4413
▁kiliman	-10.4415
面前	-10.4433
▁amoto	-10.4437
我說的話	-10.4462
的肉	-10.4484
▁kia	-10.4487
太大	-10.4493
dadan	-10.4505
▁sate	-10.4533
小的時候	-10.4535
kit	-10.4545
力氣	-10.4549
你的東西	-10.4557
▁sanis	-10.4562
tadikod	-10.4582
有一天	-10.4589
馬	-10.4614
▁Roqa	-10.4627
歲了	-10.4627
▁taypak	-10.4631
bokas	-10.4632
▁lang	-10.4636
的家人	-10.464
soboq	-10.4641
我要做	-10.4642
一定要	-10.4643
部落的人	-10.4647
一點點	-10.4647
早餐	-10.4659
吃晚餐	-10.4676
的名字是	-10.468
底	-10.4681
嫁	-10.4681
道路	-10.4694
sang	-10.4699
遇	-10.4703
baliwan	-10.4706
曾	-10.4707
nongan	-10.4718
siyop	-10.4722
Retot	-10.4723
laydaw	-10.4724
隨便	-10.4725
件	-10.4727
彈	-10.4728
zizi	-10.4728
棵	-10.473
棒	-10.4733
龜	-10.4734
市	-10.4735
巨人	-10.4736
沿	-10.4736
種了很多	-10.4737
立	-10.4737
雜	-10.4738
野菜	-10.4738
辦	-10.4738
首	-10.4738
刮	-10.4738
asan	-10.4738
電話	-10.4739
參	-10.4739
膽	-10.4739
術	-10.4739
絲	-10.474
電	-10.474
悶	-10.474
讀	-10.474
答	-10.474
頂	-10.474
驚	-10.4741
雙	-10.4741
保	-10.4741
承	-10.4741
姐	-10.4741
窗	-10.4741
示	-10.4741
剖	-10.4741
祭師	-10.4741
形	-10.4741
計	-10.4741
侵	-10.4742
森林裡	-10.4742
升	-10.4742
慶	-10.4742
淚	-10.4742
套	-10.4742
瞪	-10.4742
惡	-10.4742
協助	-10.4742
並且	-10.4742
節	-10.4742
罩	-10.4742
感謝	-10.4742
輪	-10.4742
囉	-10.4742
引	-10.4742
省	-10.4742
義	-10.4742
舞蹈	-10.4742
陰	-10.4742
Wosay	-10.4742
liambo	-10.4742
lizeqzeq	-10.4742
onnem	-10.4742
qalepon	-10.4742
qiReb	-10.4742
soRena	-10.4742
somzang	-10.4742
▁Seqalo	-10.4742
▁baibodan	-10.4742
▁baqbaqibai	-10.4742
▁dingki	-10.4742
▁lobas	-10.4742
▁miRRi	-10.4742
▁moteded	-10.4742
▁qakikiya	-10.4742
▁qazitinsia	-10.4742
▁qeRiw	-10.4742
▁qenaliman	-10.4742
▁sebata	-10.4742
▁semangsangi	-10.4742
▁semozoq	-10.4742
▁simqanengi	-10.4742
▁takelolo	-10.4742
▁tapeRaskoan	-10.4742
▁tenoqosan	-10.4742
▁toRpos	-10.4742
否	-10.4742
喝醉了	-10.4742
很懶惰	-10.4742
懷孕	-10.4742
擋土牆	-10.4742
習俗	-10.4742
舔	-10.4742
薯	-10.4742
蘆	-10.4742
跪	-10.4742
atung	-10.4742
benoway	-10.4742
bolidat	-10.4742
kanosoz	-10.4742
kiskis	-10.4742
taktak	-10.4742
ziyot	-10.4742
▁mezamet	-10.4742
▁patongayaw	-10.4742
▁saozisan	-10.4742
▁senazao	-10.4742
井	-10.4742
削樹皮	-10.4742
很清楚	-10.4742
舅	-10.4742
薄	-10.4742
踢	-10.4742
belolo	-10.4742
salkiaw	-10.4742
▁sinananam	-10.4742
抖	-10.4742
炭	-10.4742
痣	-10.4742
zoqoR	-10.4742
▁qaiton	-10.4742
▁ziyanan	-10.4742
有哪些	-10.4742
爐灶	-10.4742
盛	-10.4742
衛生紙	-10.4742
適	-10.4742
配	-10.4742
sobidang	-10.4742
▁mesiRis	-10.4742
枯	-10.4742
狀	-10.4742
的屁股	-10.4742
祈求	-10.4742
祭祖儀式	-10.4742
▁melalazan	-10.4742
▁somking	-10.4742
掉到水裡	-10.4742
九孔	-10.4742
護士	-10.4742
paliyaw	-10.4742
qenot	-10.4742
浮	-10.4742
即	-10.4742
注意	-10.4742
減少	-10.4742
鉛筆	-10.4742
taqsam	-10.4742
法律	-10.4742
lomozan	-10.4742
▁sakedisan	-10.4742
強迫	-10.4742
浪費	-10.4742
▁tissan	-10.4742
▁metad	-10.4742
增加	-10.4742
病毒	-10.4742
▁niyaq	-10.4742
問題	-10.4742
▁qibasi	-10.4742
swani	-10.4742
機器	-10.4742
▁moRetot	-10.4742
宴請	-10.4742
潛水	-10.4743
我只是在	-10.4743
▁biabas	-10.4743
▁sadamoan	-10.4743
▁temangan	-10.4743
紅豆	-10.4743
右邊	-10.4743
maipil	-10.4743
管理	-10.4743
香蕉樹皮	-10.4743
最大的	-10.4743
pasenawa	-10.4743
放棄	-10.4743
樹枝	-10.4743
玩具	-10.4743
momoR	-10.4744
各自	-10.4744
關於	-10.4744
到外面去	-10.4744
▁bakong	-10.4744
綠色	-10.4744
反而	-10.4744
命名	-10.4745
zaki	-10.4745
相同	-10.4745
小時候	-10.4745
niniR	-10.4745
▁melilin	-10.4745
打電話	-10.4746
雜草	-10.4746
有一隻狗	-10.4746
太陽出來了	-10.4746
巴	-10.4746
絕對	-10.4746
▁seRi	-10.4746
父親	-10.4746
火柴	-10.4746
洗臉	-10.4747
曬太陽	-10.4747
▁laot	-10.4747
多久	-10.4747
眾人	-10.4748
能力	-10.4748
看電視	-10.4749
各種	-10.4749
很厚	-10.4749
▁這條魚	-10.4749
站起來	-10.4749
那麼多	-10.4749
山羊	-10.475
杯子	-10.475
牽著	-10.4751
▁我已經把	-10.4751
很勤勞	-10.4751
地區	-10.4751
▁tengo	-10.4751
▁tanem	-10.4752
▁zaso	-10.4752
ninoR	-10.4752
potit	-10.4752
▁這是我昨天	-10.4752
Rabas	-10.4752
進入	-10.4753
打掃	-10.4753
社會	-10.4754
▁我們今天要	-10.4755
▁motoz	-10.4756
子彈	-10.4756
ngato	-10.4756
▁wani	-10.4756
ebon	-10.4757
bangti	-10.4757
很短	-10.4758
開門	-10.4758
一個月	-10.4758
▁那個房子	-10.4759
▁mesokaw	-10.4759
▁你有幾個	-10.4761
利用	-10.4761
▁siyopan	-10.4761
▁mediatip	-10.4762
▁ne	-10.4763
▁後來	-10.4763
tatas	-10.4763
potti	-10.4764
▁這個桌子	-10.4765
tawasi	-10.4766
聚會	-10.4766
香蕉樹	-10.4769
大雨	-10.4771
qipes	-10.4774
▁meqeseR	-10.4776
▁sikawmaanta	-10.4777
掉下來了	-10.4778
作為	-10.4778
小狗	-10.4779
▁niano	-10.4779
qilan	-10.478
家鄉的	-10.478
▁makalingon	-10.478
種樹	-10.4782
很討厭	-10.4783
▁qawas	-10.4783
sastaR	-10.4784
實在	-10.4784
大學	-10.4785
▁這個竹子	-10.4787
▁azaw	-10.4787
被別人	-10.4787
喝水	-10.4788
▁sabaliwan	-10.4792
dabo	-10.4793
原來是	-10.4794
打開	-10.4794
oRing	-10.4796
手機	-10.4798
omis	-10.4799
他的帽子	-10.4801
teRis	-10.4805
Rated	-10.4809
qamit	-10.481
daiyongan	-10.481
seking	-10.4818
kamet	-10.4819
imet	-10.4826
▁那個水	-10.483
綁起來	-10.4831
不要在這裡	-10.4833
教他	-10.4839
sikiw	-10.4839
幾歲	-10.4841
爛了	-10.4845
腫起來	-10.485
▁taypakan	-10.4854
qoniakita	-10.4854
不怕	-10.4862
RosiR	-10.4863
▁anemko	-10.4864
▁sapon	-10.4864
▁timaizipan	-10.4866
受到	-10.4866
裝在	-10.4867
▁今天是	-10.4867
nokoban	-10.4869
我的眼睛	-10.4873
到花蓮	-10.4874
在睡覺	-10.4875
▁qatian	-10.4884
弄倒	-10.4892
▁我姐姐	-10.4896
▁你今天	-10.4907
▁timeng	-10.4913
ipilan	-10.4935
你的錢	-10.494
▁nayaw	-10.4943
izaan	-10.4953
裡有很多	-10.4954
是一個	-10.496
老師說	-10.4964
爬上去	-10.4988
pasoRiR	-10.499
pap	-10.499
植物	-10.5003
他們家有	-10.5018
我要把	-10.5028
▁pemo	-10.5051
▁mona	-10.5055
meng	-10.5059
好看	-10.506
認真的	-10.5066
在唱歌	-10.5068
▁我不是	-10.5071
切的	-10.5094
omo	-10.5106
我無法	-10.5168
的族人	-10.5181
拿走	-10.5203
sokaw	-10.5214
eR	-10.5222
聽到	-10.5247
他的衣服	-10.525
等我	-10.5252
alaanna	-10.527
手指	-10.528
不要放	-10.5288
手上	-10.5294
的角	-10.5298
等你	-10.5317
ez	-10.5338
zozos	-10.5354
河裡	-10.5361
poniRan	-10.5368
說什麼	-10.5369
pasid	-10.5376
抓到	-10.538
oRan	-10.542
tiq	-10.5427
很香	-10.5446
跟他們	-10.5451
qenan	-10.5453
他的朋友	-10.5456
借給	-10.5483
是個	-10.5513
來煮	-10.5554
讓人	-10.5555
那個老人	-10.5574
說族語	-10.5593
你不會	-10.56
有一位	-10.5612
以前是	-10.5651
Rong	-10.5654
bala	-10.5655
的雨	-10.5675
▁那裡有	-10.5676
soy	-10.5734
tikas	-10.5779
▁iRaR	-10.578
kizaya	-10.578
nono	-10.5796
naR	-10.5806
qanas	-10.5814
都沒	-10.5829
betto	-10.5835
▁bobo	-10.5843
Rames	-10.5853
讓孩子	-10.5855
到哪裡去	-10.5863
不在家	-10.5876
▁tonoR	-10.5884
▁如果有	-10.5909
patadikod	-10.5909
▁miza	-10.5924
kapot	-10.5924
manna	-10.5934
ossiq	-10.5937
posan	-10.5961
▁laziw	-10.5964
totoq	-10.597
覺得很	-10.5984
一條	-10.5987
▁sale	-10.5995
lisimpo	-10.6011
▁samolay	-10.6012
整個	-10.6024
鬆	-10.603
bila	-10.6037
他是我的	-10.6052
你知道	-10.6059
mano	-10.6067
▁pasinanam	-10.6067
qatolo	-10.6076
居	-10.6078
天氣如何	-10.608
▁niqan	-10.6088
情	-10.6099
社	-10.6107
沙	-10.6108
論	-10.6109
達	-10.611
▁這件	-10.6112
厚	-10.6114
▁kowaya	-10.6115
順	-10.6117
qabed	-10.6118
釀	-10.6118
簍	-10.6118
步	-10.6119
黏	-10.6119
師	-10.6119
具	-10.6119
奶	-10.612
洋	-10.612
遊	-10.612
兵	-10.612
▁kya	-10.612
應	-10.612
只剩	-10.6121
文	-10.6121
板	-10.6121
特	-10.6121
意思	-10.6121
淨	-10.6121
建	-10.6122
爭	-10.6122
組	-10.6122
設	-10.6122
迫	-10.6122
asetaR	-10.6122
團	-10.6122
▁meReb	-10.6122
印	-10.6122
籠	-10.6122
蒸	-10.6122
混	-10.6122
勇	-10.6122
熄	-10.6122
喚	-10.6122
可憐	-10.6123
啄木鳥	-10.6123
政策	-10.6123
疤	-10.6123
積	-10.6123
尊	-10.6123
若	-10.6123
Seqalu	-10.6123
一桶水	-10.6123
徵	-10.6123
陸	-10.6123
嚴	-10.6123
善	-10.6123
扭	-10.6123
抵	-10.6123
N	-10.6123
Yukit	-10.6123
ciye	-10.6123
唷	-10.6123
尖尖的	-10.6123
晴	-10.6123
榮	-10.6123
橫	-10.6123
甲	-10.6123
續	-10.6123
苗	-10.6123
保佑	-10.6123
打噴嚏	-10.6123
葡	-10.6123
betbet	-10.6123
botenik	-10.6123
kamkam	-10.6123
lihom	-10.6123
loqenaw	-10.6123
sapeRasko	-10.6123
saytaw	-10.6123
tawtawa	-10.6123
zanzanoman	-10.6123
▁baReng	-10.6123
▁kemolikoz	-10.6123
▁maRtik	-10.6123
▁maqezaq	-10.6123
▁meRazes	-10.6123
▁meteded	-10.6123
▁mineb	-10.6123
▁pazaqis	-10.6123
▁qeloqong	-10.6123
▁qenabalang	-10.6123
▁qmeRas	-10.6123
▁semapang	-10.6123
▁siqawsoa	-10.6123
▁tebako	-10.6123
▁temingiw	-10.6123
▁temoloz	-10.6123
▁tenaqsi	-10.6123
▁tenned	-10.6123
▁zimmet	-10.6123
喘	-10.6123
塞	-10.6123
密	-10.6123
攤	-10.6123
斤	-10.6123
窩	-10.6123
缝	-10.6123
胸	-10.6123
X	-10.6123
kadopas	-10.6123
▁baibai	-10.6123
▁holam	-10.6123
▁meningo	-10.6123
▁mesasoani	-10.6123
▁metenes	-10.6123
▁pemokon	-10.6123
商店	-10.6123
撐	-10.6123
鹹	-10.6123
dingwa	-10.6123
▁lazom	-10.6123
很可怕	-10.6123
潑	-10.6123
遮	-10.6123
onglay	-10.6123
qeRawas	-10.6123
▁mammin	-10.6123
扁	-10.6123
湖	-10.6123
manges	-10.6123
siyangato	-10.6123
▁qenanaman	-10.6123
歷	-10.6123
段	-10.6123
甕	-10.6123
吃晚飯	-10.6123
懸崖	-10.6123
良	-10.6123
▁siqet	-10.6123
級	-10.6123
ingRoan	-10.6123
pasiRang	-10.6123
菌	-10.6123
透	-10.6123
天黑了	-10.6123
▁temeqan	-10.6123
liton	-10.6123
▁laloy	-10.6123
令	-10.6123
知識	-10.6123
siawpo	-10.6123
財產	-10.6123
▁toRboan	-10.6123
被關起來	-10.6123
▁semaRoR	-10.6123
▁Raingo	-10.6123
▁eRed	-10.6123
▁mozis	-10.6123
規定	-10.6123
的照片	-10.6123
▁maska	-10.6123
搭飛機	-10.6123
▁abo	-10.6123
▁qalaydawan	-10.6123
nonno	-10.6123
▁liwaliw	-10.6123
的行為	-10.6123
ngangay	-10.6123
爭取	-10.6123
彎腰	-10.6123
坍方	-10.6123
製造	-10.6123
▁temabako	-10.6123
枕頭	-10.6123
獲得	-10.6123
▁pispis	-10.6123
射箭	-10.6124
頂嘴	-10.6124
▁qaniyaw	-10.6124
▁sasepawan	-10.6124
很窄	-10.6124
番刀	-10.6124
就夠了	-10.6124
▁qemazaw	-10.6124
▁satodan	-10.6124
nanol	-10.6124
如此	-10.6124
平原	-10.6124
回應	-10.6124
pezaw	-10.6124
用力拉	-10.6124
▁temingaR	-10.6124
▁stangi	-10.6124
soqoR	-10.6125
吃素	-10.6125
酒釀	-10.6125
分鐘	-10.6125
木屋	-10.6125
▁kelisa	-10.6125
點鐘	-10.6125
擺放	-10.6125
海洋	-10.6126
很有力	-10.6126
犁田	-10.6126
▁matatalin	-10.6126
全身	-10.6126
▁kyami	-10.6126
▁meRaRaRiw	-10.6126
▁sinbon	-10.6126
▁yokit	-10.6126
壞話	-10.6127
他是我的老師	-10.6127
▁pasko	-10.6127
褲子	-10.6127
講故事	-10.6127
▁melikeneng	-10.6127
提早	-10.6128
看守	-10.6128
solos	-10.6128
方向	-10.6128
sakobong	-10.6128
topaq	-10.6128
子孫	-10.6128
沒錯	-10.6128
孫子	-10.6128
▁miRi	-10.6129
沿著	-10.6129
畫線	-10.6129
▁saqodoan	-10.6129
香蕉葉	-10.6129
去買菜	-10.6129
漏水	-10.613
▁zaka	-10.6131
boRaR	-10.6131
▁tisin	-10.6131
▁senayao	-10.6131
▁bodo	-10.6131
跑走了	-10.6132
本來	-10.6132
▁qenalizaq	-10.6133
laten	-10.6134
▁這顆	-10.6134
qaozosa	-10.6134
長了很多	-10.6135
上班	-10.6135
▁可以啊	-10.6136
很貴	-10.6136
最好的	-10.6136
▁peli	-10.6137
不論	-10.6137
那個瓶子	-10.6137
bu	-10.6138
捲起來	-10.614
daong	-10.614
ongot	-10.614
不要隨便	-10.614
是黑色的	-10.6142
幾天	-10.6142
不要擔心	-10.6143
bid	-10.6143
不斷	-10.6145
ziyon	-10.6146
抓住	-10.6146
小鳥	-10.6147
很亮	-10.6147
▁qaossiq	-10.6148
▁meRinang	-10.6149
sanem	-10.615
▁manobi	-10.615
imis	-10.6151
很少	-10.6151
niss	-10.6152
叫你的孩子	-10.6154
戴帽子	-10.6156
iteR	-10.6157
▁sitaRaw	-10.6159
▁ningo	-10.6159
很不好	-10.6159
出海	-10.616
不懂	-10.6161
▁我曾	-10.6162
袋子	-10.6162
遺忘	-10.6163
piyok	-10.6167
真是	-10.6169
pitiRan	-10.6171
兩位	-10.6173
口水	-10.6174
▁basi	-10.6175
這樣想	-10.6179
▁這個月	-10.618
niyana	-10.6183
qila	-10.6183
還不會	-10.6184
我的名字是	-10.619
那個木頭	-10.6191
dita	-10.6196
我知道了	-10.6205
去打獵	-10.6206
▁satangan	-10.6207
醫生說	-10.6212
▁banan	-10.6213
只有一個	-10.6221
吃早餐	-10.6221
qotaR	-10.6222
▁tababaw	-10.6226
▁atong	-10.6228
▁我每天	-10.6234
這些人	-10.6236
用力	-10.6247
▁imetan	-10.625
taRan	-10.6261
是真的	-10.6262
是醫生	-10.6264
就沒	-10.6265
我的牛	-10.6269
他很喜歡	-10.627
▁oRona	-10.627
▁pabola	-10.6278
taz	-10.6286
▁nitaytan	-10.6328
▁pasoso	-10.6332
破掉	-10.6349
沒有力氣	-10.6351
為什麼不	-10.6359
哪裡去了	-10.6393
家族	-10.6394
▁maqen	-10.6407
才是	-10.6412
的紙	-10.6423
qatos	-10.6439
穿過	-10.6439
蓋起來	-10.6441
一隻青蛙	-10.645
▁moRena	-10.6456
來賣	-10.6463
qonga	-10.6478
pet	-10.6484
diq	-10.6516
去花蓮	-10.6521
senizasan	-10.6529
在後面	-10.6534
有兩個	-10.6543
bos	-10.6552
要蓋	-10.6558
吃起來很	-10.6593
種的菜	-10.6597
▁qeRasan	-10.6607
很久沒	-10.6617
▁bab	-10.6715
ipes	-10.6717
是女生	-10.6729
zoma	-10.6771
qos	-10.6779
qamay	-10.6853
二十	-10.6918
我的書	-10.6929
tayta	-10.694
在讀書	-10.6952
yaw	-10.6956
祖先們	-10.6992
maita	-10.701
那你	-10.7017
我不想	-10.7023
會洗衣服	-10.705
籃子裡	-10.7052
走到	-10.7054
從小	-10.7105
▁go	-10.7161
sidam	-10.717
在菜園	-10.7212
temonawan	-10.7235
一件	-10.7268
nizo	-10.7276
桌上的	-10.7292
試著	-10.7297
在石頭上	-10.7307
peR	-10.7352
qoqo	-10.7384
lonas	-10.7397
ipitan	-10.7409
第三	-10.7468
sanaqo	-10.7483
betiq	-10.7485
▁paseniw	-10.7491
藤心	-10.75
engo	-10.7529
abay	-10.7564
時候	-10.7569
回到家	-10.7584
lod	-10.7586
leppawan	-10.7586
才會好	-10.7608
▁qawRat	-10.7617
omas	-10.7618
抱著	-10.7622
sikawma	-10.7622
▁poRamaz	-10.7632
很輕	-10.764
▁saoR	-10.7642
lozit	-10.7659
▁poRo	-10.7661
▁qaba	-10.7664
整天	-10.7669
▁penaloma	-10.7676
temawaR	-10.7681
qayRozik	-10.7686
qawit	-10.7697
桶	-10.7699
捲	-10.77
patawa	-10.7702
瓶	-10.7703
你要買	-10.7704
salang	-10.7705
暈	-10.7707
黑色的	-10.7709
dotiq	-10.7709
聞	-10.7709
qabaw	-10.771
本	-10.771
maRong	-10.771
珠	-10.7711
肚	-10.7711
▁qalimek	-10.7712
這個孩子	-10.7713
melizaq	-10.7713
今	-10.7713
漏	-10.7716
份	-10.7717
seban	-10.7717
矮	-10.7717
右	-10.7718
soRiR	-10.7718
絕	-10.7719
守	-10.7719
堵	-10.7722
價	-10.7722
材	-10.7723
武	-10.7724
突	-10.7724
婦	-10.7724
非	-10.7724
腦	-10.7724
止	-10.7724
思	-10.7724
誇	-10.7724
揮	-10.7724
抽	-10.7725
曲	-10.7725
制	-10.7725
尖	-10.7725
冰	-10.7725
川	-10.7725
堅	-10.7725
姊	-10.7725
護	-10.7725
決	-10.7725
備	-10.7725
壁	-10.7725
戰	-10.7725
專	-10.7725
誠	-10.7725
簡單	-10.7725
克	-10.7725
究	-10.7725
功	-10.7725
詞	-10.7725
官	-10.7725
慶功宴	-10.7725
脆	-10.7725
封	-10.7725
置	-10.7725
膿	-10.7725
藝	-10.7725
途	-10.7725
qob	-10.7725
愈來愈	-10.7725
打瞌睡	-10.7725
聖	-10.7725
調查	-10.7725
讚	-10.7725
輸	-10.7725
林投樹	-10.7725
粒	-10.7725
避	-10.7725
兄弟姐妹	-10.7725
杓	-10.7725
握	-10.7725
搭公車	-10.7725
搭火車	-10.7725
歪	-10.7725
鮮	-10.7725
pakelang	-10.7725
穿耳洞	-10.7725
竊	-10.7725
Romzang	-10.7725
bassing	-10.7725
deqap	-10.7725
kemkem	-10.7725
kiamsay	-10.7725
kizamet	-10.7725
qiwaqiw	-10.7725
senobongan	-10.7725
simsedes	-10.7725
tedasay	-10.7725
teqteq	-10.7725
zengzeng	-10.7725
▁Raytongoz	-10.7725
▁baibedan	-10.7725
▁beRing	-10.7725
▁kemilas	-10.7725
▁lalobas	-10.7725
▁matotomis	-10.7725
▁meRapongos	-10.7725
▁mesaiz	-10.7725
▁mlazyo	-10.7725
▁niqaybasi	-10.7725
▁padetaso	-10.7725
▁pakenang	-10.7725
▁panoRed	-10.7725
▁penina	-10.7725
▁qaotobay	-10.7725
▁qaytened	-10.7725
▁qeminonon	-10.7725
▁semiyop	-10.7725
▁siwRatan	-10.7725
▁soncyo	-10.7725
▁temopaq	-10.7725
▁temqez	-10.7725
▁tenoded	-10.7725
▁tesawi	-10.7725
▁zemiyan	-10.7725
叫你爸爸	-10.7725
各式各樣	-10.7725
嚼	-10.7725
妝	-10.7725
打招呼	-10.7725
搔	-10.7725
梳	-10.7725
沾	-10.7725
獨角仙	-10.7725
老闆說	-10.7725
象	-10.7725
貝	-10.7725
開玩笑	-10.7725
galas	-10.7725
zitinsya	-10.7725
▁RoaRo	-10.7725
▁melalazok	-10.7725
▁meliyam	-10.7725
▁zazaman	-10.7725
不要勉強	-10.7725
吟	-10.7725
旗	-10.7725
袖	-10.7725
閂	-10.7725
sikakak	-10.7725
▁snayao	-10.7725
▁那些孩子喜歡	-10.7725
晒	-10.7725
痰	-10.7725
筋	-10.7725
茅草屋	-10.7725
鬧	-10.7725
▁sesen	-10.7725
耳環	-10.7725
hao	-10.7725
maRRong	-10.7725
tikkok	-10.7725
▁2022	-10.7725
▁tosongan	-10.7725
又大又	-10.7725
均	-10.7725
巢	-10.7725
智	-10.7725
系	-10.7725
肺	-10.7725
▁metoRoz	-10.7725
kepowa	-10.7725
temikas	-10.7725
▁palingwa	-10.7725
尾	-10.7725
我聽不到	-10.7725
炸	-10.7725
致	-10.7725
▁meqamai	-10.7725
▁qanmetan	-10.7725
樟原	-10.7725
環境	-10.7725
舉辦	-10.7725
▁nisammay	-10.7725
獻	-10.7725
禁止	-10.7725
錢藏起來	-10.7725
景	-10.7725
▁pangzan	-10.7725
呼吸	-10.7725
▁qenikian	-10.7725
▁tiatiana	-10.7725
我忘了帶	-10.7725
▁menet	-10.7725
▁kmyala	-10.7725
受不了	-10.7725
隔壁	-10.7725
反胃	-10.7726
▁tamaikoan	-10.7726
文字	-10.7726
乘涼	-10.7726
仍然	-10.7726
祈福儀式	-10.7726
三郎	-10.7726
親友	-10.7726
paylit	-10.7726
kakasa	-10.7726
qiyaR	-10.7726
川燙	-10.7726
限制	-10.7726
▁sapaRitan	-10.7726
紫菜	-10.7726
零食	-10.7726
死亡	-10.7726
餅乾	-10.7726
的生命	-10.7726
紅色	-10.7726
報紙	-10.7726
▁pemaRit	-10.7726
腦袋	-10.7726
小小的	-10.7726
擔任	-10.7726
藍色	-10.7726
試試	-10.7726
海岸	-10.7726
誇張	-10.7726
今年幾歲	-10.7726
微笑	-10.7726
村落	-10.7726
edada	-10.7726
麵包	-10.7726
▁qaozan	-10.7726
白色的	-10.7726
到海邊撿	-10.7726
sonoq	-10.7726
tepik	-10.7727
pasabay	-10.7727
交換	-10.7727
baqoy	-10.7727
palikaw	-10.7727
▁namani	-10.7727
收驚	-10.7727
整理	-10.7727
▁baybai	-10.7727
▁piRis	-10.7727
日本政府	-10.7727
柿子	-10.7727
結石	-10.7727
整平	-10.7727
的花園	-10.7727
道別	-10.7727
metmet	-10.7727
起立	-10.7727
失傳	-10.7728
演講	-10.7728
tengngi	-10.7728
▁sapaqonian	-10.7728
好好的	-10.7728
價錢	-10.7728
▁laoz	-10.7728
木瓜	-10.7728
上岸	-10.7728
運動	-10.7728
▁penaniyan	-10.7728
tiRitiR	-10.7728
把這隻	-10.7728
背對著	-10.7729
▁有一個小孩	-10.7729
拉肚子	-10.7729
假裝	-10.7729
pakil	-10.7729
▁saqayaw	-10.7729
編寫	-10.7729
toded	-10.7729
力量	-10.7729
車站	-10.7729
▁paskowa	-10.7729
肚子痛	-10.7729
相片	-10.7729
章魚	-10.7729
▁我的手被	-10.773
的主人	-10.773
▁sasiR	-10.773
捕魚歌	-10.773
招手	-10.773
不然你會	-10.773
少女	-10.773
▁solol	-10.773
等待	-10.773
下大雨	-10.773
▁nonoR	-10.773
▁tengn	-10.7731
完全	-10.7731
麻袋	-10.7731
有一個妹妹	-10.7731
dadis	-10.7731
▁simtebes	-10.7732
mamit	-10.7732
qedita	-10.7732
的家園	-10.7732
那條路	-10.7732
太短	-10.7732
balon	-10.7733
waneng	-10.7733
隔天	-10.7733
什麼時候才會	-10.7734
六個人	-10.7734
tibay	-10.7734
hib	-10.7734
我們的語言	-10.7736
▁他們三個	-10.7737
▁konkon	-10.7737
幫妳	-10.7737
Rengez	-10.7738
▁把你的東西	-10.7738
太陽很大	-10.7738
▁bolbol	-10.7738
山洞	-10.7738
▁nisiangozosan	-10.7738
聞到	-10.7739
▁大家好	-10.7739
▁laso	-10.7739
珠子	-10.774
▁senano	-10.774
siyon	-10.7741
很緊	-10.7741
▁paRitan	-10.7741
借錢	-10.7742
naRin	-10.7742
生日	-10.7743
正好	-10.7743
▁meqamay	-10.7745
沒有辦法	-10.7746
女人們	-10.7747
saitan	-10.7748
有幾個	-10.7749
▁tomayta	-10.775
qoni	-10.775
前往	-10.7751
不要忘了	-10.7752
pakoz	-10.7752
很癢	-10.7753
epas	-10.7753
可以吃了	-10.7754
▁kenaw	-10.7755
個樣子	-10.7757
不小心	-10.7758
傳說	-10.776
小刀	-10.776
▁tena	-10.7761
▁meRapsi	-10.7762
得動	-10.7762
想起	-10.7763
alez	-10.7763
小雞	-10.7764
▁sisiw	-10.7765
這麼說	-10.7765
放學	-10.7766
baneng	-10.7766
Rapis	-10.7767
往後	-10.7769
背著	-10.777
當老師	-10.777
有福	-10.7771
▁我要去買	-10.7772
床上	-10.7772
發出	-10.7774
做事	-10.7775
什麼都	-10.7776
▁pasepi	-10.7778
▁baso	-10.7778
穿著	-10.7778
抓著	-10.7779
去捕魚	-10.778
▁mengaR	-10.7781
▁menimen	-10.7781
▁saqatolo	-10.7782
palanan	-10.7784
去世	-10.7785
▁qon	-10.7785
▁你的頭髮	-10.7791
▁baqbaqita	-10.7796
他的名字是	-10.7797
妳們	-10.7798
洗頭	-10.7799
上船	-10.7799
把那些	-10.78
很笨	-10.78
poRoR	-10.7805
嫁給	-10.7808
kanis	-10.7814
▁boqanan	-10.7814
臉上	-10.7814
在水裡	-10.7815
在旁邊	-10.7819
可能會	-10.7823
poRamazan	-10.7828
▁ped	-10.7829
wman	-10.7829
輕鬆	-10.7834
兩隻	-10.7837
baot	-10.784
跑到	-10.7844
我的妹妹	-10.7847
剛剛才	-10.785
▁menang	-10.7854
akong	-10.7856
▁qalim	-10.7871
▁penani	-10.7873
tu	-10.7875
差一點	-10.788
inat	-10.7891
lazat	-10.7901
所以我們	-10.7904
不好吃	-10.7915
pasawan	-10.7928
你的臉	-10.7932
會擋路	-10.7941
去摘	-10.7944
交給	-10.7963
怎麼可能	-10.7967
sabiqbiq	-10.7977
taqanan	-10.798
inpanan	-10.7992
satasawan	-10.7994
potan	-10.8
送來	-10.8002
誰拿走	-10.8009
Rez	-10.8065
iyen	-10.808
幾個人	-10.8086
種菜	-10.81
真好	-10.8121
posipos	-10.8136
一口	-10.814
▁qamowaz	-10.8159
▁qaipil	-10.8162
padames	-10.8163
我試著	-10.818
生吃	-10.8181
桌上	-10.8194
alekez	-10.8199
並沒有	-10.8207
qoRas	-10.8212
qoq	-10.8239
tesoR	-10.8286
mama	-10.8345
買蛋	-10.8359
mamaq	-10.8413
會說族語	-10.8423
baban	-10.8443
也不知道	-10.8464
tiRan	-10.8475
ngisiw	-10.8505
條河	-10.8568
是誰種的	-10.863
bawan	-10.8654
sozoq	-10.8724
青蛙不見了	-10.8753
▁請問	-10.8762
nimas	-10.877
有兩	-10.8782
十歲	-10.8794
鄉	-10.8872
qeni	-10.8959
akon	-10.8971
要比賽	-10.9002
lose	-10.9068
▁senizas	-10.9083
boan	-10.9121
▁babal	-10.9129
▁melao	-10.916
▁niposi	-10.916
鼓	-10.9207
▁qatayta	-10.9216
我們一起去	-10.9221
種植	-10.9223
是我的朋友	-10.9229
▁semapo	-10.9304
timak	-10.9305
▁mebo	-10.9316
我們昨天	-10.9322
▁inpan	-10.9323
果實	-10.9332
biqbiq	-10.9338
▁lipay	-10.9342
▁nanom	-10.9345
教學	-10.9377
koit	-10.9412
騎	-10.9429
去台北	-10.9449
qayao	-10.9472
▁talombi	-10.9475
跑出去	-10.95
我很想念	-10.9504
daiyong	-10.9505
吃飽	-10.9518
▁timaimo	-10.9526
▁salaw	-10.9527
很害怕	-10.9538
▁難道	-10.956
討厭	-10.9568
留下	-10.9569
▁dad	-10.9582
▁piyo	-10.9582
壯	-10.9584
隨便亂	-10.9588
▁oti	-10.9589
Renem	-10.959
lazok	-10.9595
edesan	-10.9599
幾個	-10.96
很強	-10.9605
ngoy	-10.9607
toRiyas	-10.9608
tingiw	-10.9616
都市	-10.9619
杯	-10.962
的背袋	-10.9621
感	-10.9621
許	-10.9622
Rozangin	-10.9622
lawot	-10.9623
眾	-10.9624
棉	-10.9625
危險	-10.9626
qidat	-10.9628
繞	-10.9629
聊	-10.9629
附近的	-10.9629
隊	-10.9629
他們倆	-10.963
擔	-10.9631
saqot	-10.9631
演	-10.9631
導	-10.9631
告	-10.9631
isasa	-10.9632
要去哪	-10.9632
科	-10.9632
▁bayb	-10.9633
自然	-10.9633
芽	-10.9633
豐	-10.9633
呼	-10.9633
簸	-10.9633
插	-10.9633
典	-10.9633
互	-10.9633
費	-10.9633
臭酸了	-10.9634
Rebeng	-10.9634
載	-10.9634
龍	-10.9634
滅	-10.9634
那隻雞	-10.9634
練	-10.9634
胃	-10.9634
型	-10.9634
海龍王	-10.9634
吸	-10.9634
奮	-10.9634
岩	-10.9634
儲	-10.9634
巫	-10.9634
證	-10.9634
贏	-10.9634
7	-10.9634
哆囉美遠	-10.9634
砰	-10.9634
旅	-10.9634
年齡階層	-10.9634
軍	-10.9634
吊	-10.9634
獨木舟	-10.9634
勞	-10.9634
益	-10.9634
眠	-10.9634
拆	-10.9634
攪	-10.9634
政	-10.9634
稍	-10.9634
▁噶瑪蘭式的	-10.9634
▁老鷹去問	-10.9634
一碗麵	-10.9634
剃	-10.9634
季	-10.9634
擠	-10.9634
施	-10.9634
祢	-10.9634
穿山甲	-10.9634
英	-10.9634
逗	-10.9634
鴨	-10.9634
Raylikoz	-10.9634
didomen	-10.9634
f	-10.9634
inopal	-10.9634
qaosiq	-10.9634
qebangaRan	-10.9634
qinRos	-10.9634
samokon	-10.9634
tebbeq	-10.9634
▁Raiwawa	-10.9634
▁gimoy	-10.9634
▁iRem	-10.9634
▁ilebeng	-10.9634
▁kelaba	-10.9634
▁maineb	-10.9634
▁makken	-10.9634
▁meRamotiR	-10.9634
▁melaylay	-10.9634
▁meloziyop	-10.9634
▁mepilay	-10.9634
▁mezoqat	-10.9634
▁mitoRong	-10.9634
▁motideng	-10.9634
▁padasidas	-10.9634
▁pakonko	-10.9634
▁paniwsan	-10.9634
▁pelikid	-10.9634
▁penazengitan	-10.9634
▁pengilit	-10.9634
▁pozanom	-10.9634
▁qasosolon	-10.9634
▁qenaRpotoy	-10.9634
▁qenazapan	-10.9634
▁qenoqos	-10.9634
▁qimanong	-10.9634
▁salibangan	-10.9634
▁selabawan	-10.9634
▁semingot	-10.9634
▁siqolin	-10.9634
▁soykeng	-10.9634
▁soykoo	-10.9634
▁tangayaoan	-10.9634
▁temawik	-10.9634
▁temeqez	-10.9634
▁tengilaw	-10.9634
▁tengoRed	-10.9634
▁tmoqaz	-10.9634
▁toRantoRabi	-10.9634
▁比方說	-10.9634
到哪去了	-10.9634
嚇一跳	-10.9634
大聲喊叫	-10.9634
太貴了	-10.9634
怒	-10.9634
扶	-10.9634
揍	-10.9634
株	-10.9634
欺騙	-10.9634
溜	-10.9634
溫	-10.9634
潘	-10.9634
火燒傷	-10.9634
番石榴	-10.9634
盡	-10.9634
筒	-10.9634
脹	-10.9634
蒜	-10.9634
議	-10.9634
蹲	-10.9634
進行食戒	-10.9634
那隻豬	-10.9634
露	-10.9634
didot	-10.9634
ngaday	-10.9634
saRiway	-10.9634
▁Reboan	-10.9634
▁kezomai	-10.9634
▁masaqonga	-10.9634
▁meqiwat	-10.9634
▁niomanan	-10.9634
▁qaizow	-10.9634
▁samangsa	-10.9634
▁temaqsam	-10.9634
▁zengna	-10.9634
▁現在是幾點	-10.9634
凹洞的水	-10.9634
在沙灘上	-10.9634
堂	-10.9634
捶	-10.9634
返回去拿	-10.9634
那隻貓	-10.9634
isqis	-10.9634
kizot	-10.9634
▁poyoma	-10.9634
▁sapeRet	-10.9634
不願意	-10.9634
公務員	-10.9634
吻仔魚	-10.9634
屎	-10.9634
瓶子的蓋子	-10.9634
端	-10.9634
聾	-10.9634
託	-10.9634
U	-10.9634
tepiRis	-10.9634
timmoR	-10.9634
▁nipawRat	-10.9634
▁qatenes	-10.9634
▁你有幾隻	-10.9634
▁這根竹子	-10.9634
偶	-10.9634
在客廳	-10.9634
很可惜	-10.9634
秤	-10.9634
給客人吃	-10.9634
這條河有很多	-10.9634
Raykelisiwan	-10.9634
zazang	-10.9634
分享給	-10.9634
勢	-10.9634
喜歡用左手的人	-10.9634
嚐	-10.9634
奉	-10.9634
寫的字	-10.9634
弄丟了	-10.9634
診	-10.9634
遺失了	-10.9634
鈍	-10.9634
bibing	-10.9634
塗	-10.9634
bedayang	-10.9634
biting	-10.9634
▁tmita	-10.9634
噴	-10.9634
▁mesozep	-10.9634
天亮了	-10.9634
巾	-10.9634
年輕人	-10.9634
快樂王子	-10.9634
西方的	-10.9634
qaRebo	-10.9634
tennoR	-10.9634
▁sasodadan	-10.9634
從事什麼	-10.9634
禱告	-10.9634
連續吃	-10.9634
▁nizamet	-10.9634
一大早	-10.9634
我們祖先	-10.9634
橫樑	-10.9634
疲	-10.9634
繫	-10.9634
酵	-10.9634
懷念	-10.9634
柄	-10.9634
模仿	-10.9634
鞘	-10.9634
漲潮	-10.9634
qayseng	-10.9634
▁kemoliseng	-10.9634
千	-10.9634
夫妻	-10.9634
那件衣服	-10.9634
釣竿	-10.9634
pasasing	-10.9634
賞	-10.9634
amoy	-10.9634
nawiz	-10.9634
▁meRonanay	-10.9634
我來找你	-10.9634
菜園的草	-10.9634
▁qaymanong	-10.9634
基本	-10.9634
婦女	-10.9634
困難	-10.9634
混濁	-10.9634
澳	-10.9634
▁patedaq	-10.9634
弓箭	-10.9635
降	-10.9635
熄滅	-10.9635
難怪	-10.9635
缺	-10.9635
你曬的衣服	-10.9635
折彎	-10.9635
popok	-10.9635
▁Riban	-10.9635
工寮	-10.9635
呼喊	-10.9635
多麼	-10.9635
例如	-10.9635
▁sapoR	-10.9635
老虎	-10.9635
▁lamangan	-10.9635
patazoqan	-10.9635
▁tobtob	-10.9635
▁mengasan	-10.9635
鄰居	-10.9635
▁tibato	-10.9635
依舊	-10.9635
阿嬤	-10.9635
▁saqsaqay	-10.9635
建造	-10.9635
▁pasaRoR	-10.9635
遺漏	-10.9635
團結	-10.9635
kapetan	-10.9635
停止	-10.9635
▁meliwaliw	-10.9635
sebitan	-10.9635
▁sasiti	-10.9635
尿床	-10.9635
mangten	-10.9635
深夜	-10.9635
躲藏	-10.9635
▁mettong	-10.9635
▁banban	-10.9635
▁dadosa	-10.9635
正確	-10.9635
qazoi	-10.9635
▁nipakala	-10.9635
pitpit	-10.9635
▁zingit	-10.9635
Robaqin	-10.9636
醫治	-10.9636
來我家	-10.9636
pespes	-10.9636
▁nibolbol	-10.9636
▁那個女孩子喜歡	-10.9636
幾個月	-10.9636
武代	-10.9636
聚集在一起	-10.9636
azazasan	-10.9636
傳染	-10.9636
那部車	-10.9636
座位	-10.9636
komoing	-10.9636
夜晚	-10.9636
Rangang	-10.9636
播種	-10.9636
今日	-10.9636
pasalas	-10.9636
聞起來很	-10.9636
祭拜結束	-10.9636
展開	-10.9636
妻子	-10.9637
頭飾	-10.9637
椰子	-10.9637
額頭	-10.9637
你是不是	-10.9637
刷牙	-10.9637
那裏	-10.9637
▁semoRiR	-10.9637
躲起來	-10.9637
或許	-10.9637
教導	-10.9637
▁temaita	-10.9637
悶熱	-10.9637
▁bongoR	-10.9637
到這裡來	-10.9637
▁nisazemakenan	-10.9637
▁我試著去	-10.9637
口渴	-10.9637
花朵	-10.9637
代替	-10.9637
敬禮	-10.9637
釀酒	-10.9637
麻煩	-10.9637
四個人	-10.9638
kialan	-10.9638
▁temamak	-10.9638
牛奶	-10.9638
飛機	-10.9638
▁moRas	-10.9638
月亮出來了	-10.9638
sebang	-10.9639
takono	-10.9639
幾次	-10.9639
pites	-10.9639
我聽說	-10.9639
早安	-10.9639
▁temoqi	-10.9639
戒子	-10.964
取笑	-10.964
palez	-10.964
Rokanan	-10.964
temanbaseR	-10.964
非常高興	-10.964
teboan	-10.964
首先	-10.964
第一次	-10.964
▁saqanengi	-10.9641
魚簍	-10.9641
kedis	-10.9641
abako	-10.9641
▁lain	-10.9641
擋住	-10.9641
▁melalibed	-10.9641
▁pasababaw	-10.9641
一起去打獵	-10.9641
▁simkawit	-10.9642
舉行豐年祭	-10.9642
更加	-10.9642
河流	-10.9642
Rison	-10.9642
▁mayni	-10.9642
強風	-10.9643
15	-10.9643
抓癢	-10.9643
▁我很久沒吃	-10.9643
▁laing	-10.9643
地瓜葉	-10.9644
砍傷	-10.9644
裂開	-10.9644
qoRiRiz	-10.9644
帶雨傘	-10.9644
awRat	-10.9644
一份	-10.9644
才不會亂	-10.9644
長期	-10.9644
很矮	-10.9645
割傷	-10.9645
manmin	-10.9645
其中	-10.9645
大巨人	-10.9646
在海上	-10.9646
▁semani	-10.9647
mipit	-10.9647
他們天天看電視	-10.9647
▁meRobatang	-10.9647
煮熟	-10.9647
稱為	-10.9648
▁Raybang	-10.9648
很棒	-10.9648
每天都很	-10.9648
▁我在製作	-10.9649
很會唱歌	-10.9649
owang	-10.9649
酸菜	-10.9649
Raybabaw	-10.9649
放假	-10.965
sinkoan	-10.965
▁loli	-10.965
▁pemi	-10.9651
很深	-10.9652
▁qonna	-10.9652
一支	-10.9652
▁qayton	-10.9652
tiye	-10.9652
走的路	-10.9652
流下來	-10.9653
▁melazok	-10.9653
壓著	-10.9653
▁meRozangin	-10.9653
得很快	-10.9653
對於	-10.9653
mongaw	-10.9653
舀水	-10.9654
▁pasinap	-10.9655
▁他的頭	-10.9655
還要再	-10.9655
Akim	-10.9655
看得到	-10.9656
lidam	-10.9656
玩球	-10.9656
夾菜	-10.9656
考上	-10.9657
▁miRoR	-10.9657
掃地	-10.9658
才行	-10.9658
▁antemawaR	-10.9658
▁qoyo	-10.9658
這部車子	-10.9659
mapsi	-10.9659
▁我在幫	-10.966
podaw	-10.966
▁dokiyo	-10.966
▁qatiboq	-10.9661
▁nisaqayan	-10.9661
墊子	-10.9661
在都市	-10.9661
▁qaRenem	-10.9661
我的腰	-10.9662
一起吃飯	-10.9663
▁sedes	-10.9663
影子	-10.9664
▁meRosiR	-10.9664
跳得	-10.9664
爬樹	-10.9665
回部落	-10.9667
給他吃	-10.9668
白天	-10.9669
▁imisan	-10.967
皮帶	-10.967
▁singotan	-10.9671
那朵花	-10.9671
外海	-10.9672
▁有一個人	-10.9672
zingay	-10.9673
tottoz	-10.9673
剛剛好	-10.9674
屋子	-10.9676
一片	-10.9677
島上	-10.9677
這位	-10.9679
來自	-10.9679
▁也對	-10.968
botoq	-10.9681
我去拿	-10.9684
賠我	-10.9684
快一點	-10.9685
你有看到	-10.9687
海中	-10.969
▁kemawa	-10.9693
我們的部落	-10.9693
toqis	-10.9695
▁temalin	-10.9701
你又不	-10.9701
▁temako	-10.9703
ocia	-10.9703
坐下來	-10.9704
▁wio	-10.9706
sod	-10.9708
不好看	-10.971
koako	-10.9711
帶回家	-10.9715
很飽滿	-10.9717
▁qoo	-10.9725
一星期	-10.9728
talawma	-10.9737
我們兩個人	-10.9737
▁akim	-10.9748
吃藥	-10.975
labo	-10.975
paqowad	-10.9754
soRot	-10.9758
tottoan	-10.976
這個水桶	-10.9763
土地上	-10.9766
kaod	-10.9785
不是只有	-10.9792
家屋	-10.9804
▁makas	-10.9806
tonoRan	-10.9811
laqaw	-10.9822
騎車	-10.9823
paRit	-10.9824
katem	-10.9839
有好多	-10.9866
很瘦	-10.9879
朋友們	-10.9912
baqita	-10.9918
我孩子的	-10.9931
人數	-10.9952
olima	-10.996
擦掉	-10.996
kelawkaway	-10.9962
qodosan	-10.999
想吐	-11.0026
在你家	-11.0035
paRames	-11.0037
kaysing	-11.0047
這個地瓜	-11.005
qataban	-11.006
yencomin	-11.0061
melanay	-11.0063
tengen	-11.007
tiboq	-11.0071
qawman	-11.0078
▁moti	-11.0113
叫那個孩子	-11.0115
要戴	-11.0128
會變	-11.0139
這個糖果	-11.0159
bosos	-11.0164
sann	-11.018
網路	-11.0208
taboq	-11.0212
很開心	-11.0333
▁pask	-11.0391
▁nitap	-11.0456
poasa	-11.0462
bangton	-11.0527
去日本	-11.053
到籃子裡	-11.0569
tozan	-11.06
▁beli	-11.0645
masan	-11.0681
pasiasing	-11.0743
ssim	-11.0748
otian	-11.0856
是什麼東西	-11.0964
tti	-11.1029
集會所	-11.1037
▁sanga	-11.1154
▁mliza	-11.1428
peng	-11.1464
▁menin	-11.1568
▁iRaw	-11.1586
zipana	-11.1602
Rotan	-11.1619
▁paningo	-11.1655
qalo	-11.1665
salilan	-11.1682
跨	-11.1763
▁ipit	-11.1805
聲音	-11.1806
▁somng	-11.1825
potoy	-11.1833
看起來很美	-11.184
salob	-11.1858
言	-11.1877
笨	-11.1881
樂	-11.1882
palawis	-11.1885
▁nisodad	-11.1885
▁ded	-11.1891
zoqan	-11.1897
layta	-11.1918
qalima	-11.1932
lobo	-11.1943
縣	-11.1951
芥菜	-11.1961
nbaseR	-11.1968
ningoan	-11.1969
teqas	-11.1975
孩	-11.1976
benaR	-11.1976
koway	-11.1985
候	-11.1988
舉	-11.1989
是紅色的	-11.199
▁那棵	-11.199
擺	-11.1991
陽	-11.1992
▁Rozang	-11.1992
牧	-11.1992
記號	-11.1992
小孩和狗	-11.1992
爆	-11.1992
裏	-11.1992
霉	-11.1992
燙傷	-11.1993
播	-11.1993
灶	-11.1993
番	-11.1994
麵	-11.1994
零	-11.1994
孩子喜歡畫圖	-11.1994
統	-11.1994
lawkaway	-11.1994
微	-11.1994
坍	-11.1994
音	-11.1994
精	-11.1995
貨幣	-11.1995
星	-11.1995
▁keba	-11.1995
終	-11.1995
亡魂祭	-11.1995
例	-11.1995
士	-11.1995
潮	-11.1995
閉	-11.1995
乘	-11.1995
規	-11.1995
城	-11.1995
列	-11.1995
基	-11.1995
息	-11.1995
蘇聯	-11.1995
築	-11.1995
調	-11.1995
加密貨幣	-11.1995
濁	-11.1995
▁pemat	-11.1995
祈福	-11.1995
愈	-11.1995
被狗咬	-11.1995
優	-11.1995
里	-11.1995
漲	-11.1995
爾	-11.1995
責	-11.1995
劈	-11.1995
附	-11.1995
9	-11.1995
宗	-11.1995
梯	-11.1995
蜂	-11.1995
把這根鐵條弄彎	-11.1995
細	-11.1995
斜	-11.1995
直到現在	-11.1995
霧	-11.1995
1984	-11.1995
2023	-11.1995
▁今年的稻	-11.1995
似	-11.1995
台灣各	-11.1995
幼	-11.1995
很適合	-11.1995
糟	-11.1995
罐	-11.1995
除瘟祭	-11.1995
按	-11.1995
供	-11.1995
侵略	-11.1995
呈	-11.1995
啃	-11.1995
年齡階級	-11.1995
拳	-11.1995
淹	-11.1995
癒	-11.1995
祂	-11.1995
趁	-11.1995
那座山	-11.1995
踏	-11.1995
厭	-11.1995
我有一個哥哥	-11.1995
T	-11.1995
▁baksiw	-11.1995
困擾	-11.1995
威	-11.1995
用水漱口	-11.1995
百合花	-11.1995
睏	-11.1995
雷	-11.1995
Batu	-11.1995
Raytongtongoz	-11.1995
▁sapatananan	-11.1995
▁他們跟著青蛙來到了	-11.1995
去挽臉	-11.1995
哎	-11.1995
扇	-11.1995
眼鏡蛇	-11.1995
賣完了	-11.1995
那些孩子在玩耍	-11.1995
2019	-11.1995
L	-11.1995
batqodi	-11.1995
bawot	-11.1995
benaoR	-11.1995
botbot	-11.1995
cence	-11.1995
dadapiyak	-11.1995
diqebong	-11.1995
kaboRongay	-11.1995
kelakil	-11.1995
lienhoy	-11.1995
lisinpo	-11.1995
palebaqoyan	-11.1995
pangked	-11.1995
pataqoz	-11.1995
pazoqat	-11.1995
pediyas	-11.1995
qemidoday	-11.1995
qetaba	-11.1995
sadapad	-11.1995
sengazan	-11.1995
sisiqaR	-11.1995
▁Rametiyo	-11.1995
▁Relan	-11.1995
▁RipRip	-11.1995
▁adesiw	-11.1995
▁azkaw	-11.1995
▁baRbaqibai	-11.1995
▁biqon	-11.1995
▁boqaRas	-11.1995
▁deqono	-11.1995
▁hakhak	-11.1995
▁kawsiyong	-11.1995
▁kenaRpotoy	-11.1995
▁kesiye	-11.1995
▁koliseng	-11.1995
▁maRebos	-11.1995
▁makasianem	-11.1995
▁melaidaw	-11.1995
▁melilikaw	-11.1995
▁mesoqas	-11.1995
▁mesosozep	-11.1995
▁midayan	-11.1995
▁moRebo	-11.1995
▁nawsiRab	-11.1995
▁neRasoR	-11.1995
▁niqaypanayan	-11.1995
▁nisalekiaw	-11.1995
▁nisepez	-11.1995
▁omipil	-11.1995
▁pabobo	-11.1995
▁paqelabot	-11.1995
▁pasodad	-11.1995
▁pazengitan	-11.1995
▁pilolen	-11.1995
▁pitepi	-11.1995
▁pizya	-11.1995
▁pokennaw	-11.1995
▁qaRokedabo	-11.1995
▁qahikoki	-11.1995
▁qalemes	-11.1995
▁qasimonang	-11.1995
▁qasolol	-11.1995
▁qasoqas	-11.1995
▁qatatati	-11.1995
▁qedadabowang	-11.1995
▁qemaRat	-11.1995
▁qemopit	-11.1995
▁qenalemes	-11.1995
▁qoqapatay	-11.1995
▁saRoaRo	-11.1995
▁sabasabasayan	-11.1995
▁saidai	-11.1995
▁samawmang	-11.1995
▁sapaqiRian	-11.1995
▁satamonan	-11.1995
▁saysiyat	-11.1995
▁sikawkawma	-11.1995
▁simkena	-11.1995
▁somdes	-11.1995
▁somkil	-11.1995
▁taRenita	-11.1995
▁talibeng	-11.1995
▁tebeRan	-11.1995
▁temoRes	-11.1995
▁tiaRay	-11.1995
▁tiqoRis	-11.1995
▁tmadikod	-11.1995
▁tmnon	-11.1995
▁tobantoRabi	-11.1995
▁颱風來了	-11.1995
不相信	-11.1995
亞	-11.1995
分成兩半	-11.1995
刷一刷	-11.1995
占	-11.1995
占卜鳥	-11.1995
叉	-11.1995
句	-11.1995
吠	-11.1995
呆	-11.1995
呦	-11.1995
嗯	-11.1995
墾	-11.1995
我的蘋果	-11.1995
扯	-11.1995
拍拍手	-11.1995
有道理	-11.1995
槳	-11.1995
欺負	-11.1995
汁	-11.1995
淺	-11.1995
測	-11.1995
溼	-11.1995
災	-11.1995
營	-11.1995
爍	-11.1995
犯	-11.1995
現在是夏天	-11.1995
用手抓著吃	-11.1995
用橡皮筋彈	-11.1995
用火烤直	-11.1995
當頭目	-11.1995
疊	-11.1995
瘋	-11.1995
的權利	-11.1995
磯	-11.1995
箕	-11.1995
編竹筏	-11.1995
膩	-11.1995
評	-11.1995
貌	-11.1995
過年祭祖	-11.1995
都是泥巴	-11.1995
釀糯米酒	-11.1995
風很涼	-11.1995
飛來飛去	-11.1995
餌	-11.1995
鹿的頭上	-11.1995
kenaped	-11.1995
sabawbi	-11.1995
▁kemilin	-11.1995
▁maRaRames	-11.1995
▁meRapoq	-11.1995
▁mezaqos	-11.1995
▁ngazoy	-11.1995
▁qainonong	-11.1995
▁qenaswanita	-11.1995
▁salaloy	-11.1995
▁seminot	-11.1995
▁wawai	-11.1995
▁那個男孩子正在	-11.1995
峽	-11.1995
很聰明	-11.1995
搭捷運	-11.1995
生殖器	-11.1995
看不清楚	-11.1995
票	-11.1995
籐	-11.1995
肚子餓了	-11.1995
蒼	-11.1995
設陷阱	-11.1995
赤	-11.1995
這個海域有	-11.1995
這張桌子	-11.1995
那塊田	-11.1995
Reti	-11.1995
Riqet	-11.1995
piRes	-11.1995
~	-11.1995
▁lawlawlawan	-11.1995
▁qaisis	-11.1995
你的手會被	-11.1995
勸	-11.1995
小酸柑	-11.1995
掌	-11.1995
灌	-11.1995
爬到樹上	-11.1995
由頭目	-11.1995
納	-11.1995
茶	-11.1995
虛	-11.1995
貧窮	-11.1995
遵守	-11.1995
鱉	-11.1995
▁melikaw	-11.1995
▁melipay	-11.1995
▁sateppo	-11.1995
▁semopay	-11.1995
低頭彎腰	-11.1995
扮	-11.1995
按摩	-11.1995
洗一洗	-11.1995
箱	-11.1995
那隻山豬	-11.1995
muy	-11.1995
▁inaRan	-11.1995
▁kepitan	-11.1995
▁soliyen	-11.1995
催眠	-11.1995
傷心地	-11.1995
喂	-11.1995
嗨	-11.1995
幫你弟弟	-11.1995
幸	-11.1995
很久很久以前	-11.1995
我的爸爸是	-11.1995
放進屋內	-11.1995
有獎品	-11.1995
留在部落	-11.1995
的一部份	-11.1995
莖	-11.1995
萎	-11.1995
訂	-11.1995
ARay	-11.1995
館	-11.1995
Raylazong	-11.1995
patepiq	-11.1995
zokas	-11.1995
▁simmaipilan	-11.1995
的外套	-11.1995
祝福你	-11.1995
Raynoq	-11.1995
▁qeteR	-11.1995
示範	-11.1995
RabRab	-11.1995
▁ngisaw	-11.1995
▁tawiz	-11.1995
了好幾次	-11.1995
小凱正在和	-11.1995
很涼快	-11.1995
比特幣	-11.1995
▁qasowat	-11.1995
▁sawanaq	-11.1995
斜坡	-11.1995
lalaq	-11.1996
sobedi	-11.1996
儘	-11.1996
討論	-11.1996
遊戲	-11.1996
▁ekoo	-11.1996
疤痕	-11.1996
馬偕	-11.1996
badas	-11.1996
▁QA	-11.1996
模糊	-11.1996
▁temaytayta	-11.1996
感覺	-11.1996
掉光了	-11.1996
落葵	-11.1996
qonep	-11.1996
也穿上	-11.1996
欣	-11.1996
的貓是黑色的	-11.1996
礦	-11.1996
軍隊	-11.1996
moqo	-11.1996
▁ondokay	-11.1996
▁qapiyo	-11.1996
我背後	-11.1996
Roqoz	-11.1996
tekok	-11.1996
▁sosozep	-11.1996
新冠病毒	-11.1996
沉默	-11.1996
麻雀	-11.1996
▁niqawRat	-11.1996
▁saRRo	-11.1996
▁我放在這裡的	-11.1996
容器	-11.1996
▁nisinap	-11.1996
▁pinneng	-11.1996
▁qenasessenan	-11.1996
擴	-11.1996
lamoq	-11.1996
▁wangloan	-11.1996
叫你姐姐	-11.1996
立刻	-11.1996
波浪	-11.1996
物質	-11.1996
litongtong	-11.1996
▁paksang	-11.1996
設立	-11.1996
▁pematez	-11.1996
排列	-11.1996
盒	-11.1996
qalizen	-11.1996
弟妹	-11.1996
▁satepeng	-11.1996
我們一家人	-11.1996
▁simaipilan	-11.1996
折斷	-11.1996
退潮	-11.1996
毛柿	-11.1996
bayaq	-11.1996
道歉	-11.1996
我的名字叫	-11.1996
跟過他	-11.1996
bodoqan	-11.1996
統治	-11.1996
器具	-11.1996
我有二	-11.1996
空閒	-11.1996
▁這件褲子	-11.1996
戲弄	-11.1996
qadado	-11.1996
▁qapezawan	-11.1996
抱歉	-11.1996
選舉	-11.1996
刺豚	-11.1996
情形	-11.1996
▁qaqalizaqan	-11.1996
▁taRRaw	-11.1996
▁paseka	-11.1996
▁sanaong	-11.1996
sangsoy	-11.1996
彎曲	-11.1996
▁請問您	-11.1996
記載	-11.1996
▁qangasan	-11.1996
女方家	-11.1996
鞭打	-11.1996
▁mettot	-11.1996
圍裙	-11.1996
相信他說的話	-11.1996
tiRpes	-11.1996
青年組	-11.1996
sidap	-11.1996
傳承	-11.1996
根據	-11.1996
精神	-11.1996
▁Reno	-11.1996
陽光	-11.1996
口述	-11.1996
棵大樹	-11.1996
不停的	-11.1996
因為牠在	-11.1996
去砍竹子	-11.1996
的病情	-11.1996
▁tiRos	-11.1996
領隊	-11.1996
▁pazazasan	-11.1996
▁manotoz	-11.1996
戒酒	-11.1997
Raikelisiw	-11.1997
正式	-11.1997
qaping	-11.1997
▁qanamo	-11.1997
▁nisalangan	-11.1997
sitoqaw	-11.1997
簸穀	-11.1997
▁bates	-11.1997
很用力的	-11.1997
六個	-11.1997
雲層	-11.1997
我的錢不夠	-11.1997
▁binos	-11.1997
遇難	-11.1997
最近的	-11.1997
採芭樂的	-11.1997
黏土	-11.1997
告別	-11.1997
▁sozitang	-11.1997
▁temotos	-11.1997
paqamai	-11.1997
▁senalazat	-11.1997
那間房子很大	-11.1997
pabod	-11.1997
生薑	-11.1997
泉水	-11.1997
▁qasaizan	-11.1997
新芽	-11.1997
修理	-11.1997
趕緊	-11.1997
我想要吃	-11.1997
教室	-11.1997
雙方	-11.1998
掐住	-11.1998
期待	-11.1998
▁我故意讓	-11.1998
連結	-11.1998
tiseq	-11.1998
zek	-11.1998
數字	-11.1998
maiseng	-11.1998
紙張	-11.1998
的生活方式	-11.1998
女祭師	-11.1998
牧牛	-11.1998
▁nidaytanan	-11.1998
▁simqatazay	-11.1998
▁qangoda	-11.1998
▁sabanawan	-11.1998
▁tatak	-11.1998
編製	-11.1998
科學	-11.1998
帶著雨傘	-11.1998
飛鼠	-11.1998
salekiw	-11.1998
星星出來了	-11.1998
交代	-11.1998
爆發	-11.1998
妹妹在睡覺	-11.1998
發霉	-11.1998
流口水	-11.1999
▁betis	-11.1999
▁那個小孩和狗	-11.1999
自由	-11.1999
大家穿著	-11.1999
穀倉	-11.1999
▁tapaRinan	-11.1999
廣場	-11.1999
進步	-11.1999
黑青	-11.1999
▁你怎麼啦	-11.1999
▁soqas	-11.1999
物品	-11.1999
▁qemRas	-11.1999
28	-11.1999
kinsan	-11.1999
鑽洞	-11.1999
▁tolako	-11.2
舉起來	-11.2
你們有賣	-11.2
當兵	-11.2
等我一下	-11.2
▁我去採	-11.2
力氣很大	-11.2
成立	-11.2
隊長	-11.2
手術	-11.2001
▁qenabid	-11.2001
黏住	-11.2001
其它	-11.2001
wei	-11.2001
▁bangas	-11.2001
轉身	-11.2001
聽不懂	-11.2001
有養一隻	-11.2001
▁kemaway	-11.2001
▁matatapon	-11.2001
▁她忘了	-11.2001
同意	-11.2002
沒想到	-11.2002
五次	-11.2002
dadadas	-11.2002
自殺	-11.2002
鐘睡覺	-11.2002
最重要	-11.2002
歌唱	-11.2002
只剩下	-11.2002
tamiq	-11.2002
四處	-11.2003
繞著	-11.2003
刮掉	-11.2003
▁這隻雞	-11.2003
▁naned	-11.2003
qiqidat	-11.2003
▁nipasaqay	-11.2003
下巴	-11.2003
▁totosan	-11.2003
能做完	-11.2004
醒來了	-11.2004
捲走	-11.2004
內傷	-11.2004
各國	-11.2004
qatazay	-11.2004
寫信	-11.2004
▁sioy	-11.2004
我穿了	-11.2004
▁ha	-11.2004
大自然	-11.2004
屋外	-11.2005
青年們	-11.2005
不斷地	-11.2005
搖動	-11.2005
快點跑	-11.2005
一個星期	-11.2005
分離	-11.2005
很遠的地方	-11.2005
身邊	-11.2005
順著	-11.2005
接近	-11.2006
隻烏龜	-11.2006
南邊	-11.2006
kikilim	-11.2006
裙子	-11.2006
草原	-11.2006
煮糯米飯	-11.2007
▁那個水桶	-11.2007
waliw	-11.2007
qoqoq	-11.2007
身分	-11.2007
timoR	-11.2007
▁batisa	-11.2007
我們來採	-11.2008
的衣服是紅色的	-11.2008
學者	-11.2008
再也不	-11.2008
請求	-11.2008
女祭司們	-11.2008
▁直到	-11.2008
從花蓮	-11.2008
▁你能把這個	-11.2008
▁qmod	-11.2008
▁Razing	-11.2009
剪掉	-11.2009
▁kemaz	-11.2009
毛很長	-11.201
小塊	-11.201
門口	-11.201
參加跳舞	-11.201
▁yobin	-11.2011
ket	-11.2011
樹豆	-11.2012
▁zamo	-11.2012
一棵	-11.2012
▁taqanasan	-11.2013
▁sepaR	-11.2015
▁notoz	-11.2016
lasong	-11.2017
▁那個人偷	-11.2018
wiq	-11.2019
這件事	-11.202
▁temaRa	-11.202
我的褲子	-11.202
撿野菜	-11.2021
kalaanna	-11.2022
飽滿	-11.2023
會暈車	-11.2024
在桌子上	-11.2029
心情	-11.2031
我這樣跟你	-11.2031
花蓮縣	-11.204
雨衣	-11.2041
qelan	-11.2045
▁qen	-11.2046
▁mlim	-11.2047
▁taoRoan	-11.2054
posalil	-11.2057
冒出	-11.2058
不要隨便亂	-11.2059
不在了	-11.2059
kining	-11.206
elaw	-11.206
不要站在	-11.2061
losiq	-11.2078
banis	-11.2092
退回	-11.2092
massim	-11.2108
singki	-11.2111
pakaw	-11.2114
Raypa	-11.2118
我炒的	-11.2123
ondo	-11.2125
lango	-11.2125
meRong	-11.2143
liyaman	-11.2144
我讓她	-11.2145
pilaw	-11.2157
tiyana	-11.2159
的腳受傷	-11.2212
跨過	-11.2233
一隻老鼠	-11.2313
asoani	-11.2337
採藤心	-11.2359
benoqoan	-11.2373
pabetiq	-11.2382
七個	-11.2386
nisika	-11.2477
amotoan	-11.253
Ranis	-11.2569
昨天晚上	-11.2578
talombian	-11.2603
tipil	-11.2609
pawas	-11.2655
tapos	-11.2657
papatay	-11.272
ngyaw	-11.2743
件事	-11.2746
iRian	-11.2753
Sa	-11.2769
▁請坐	-11.283
▁beni	-11.2911
家鄉	-11.2965
taqsian	-11.3028
bawa	-11.3125
Robatang	-11.3132
osepat	-11.3148
bedes	-11.3149
naqoqoni	-11.3152
boqes	-11.3156
paisingan	-11.3158
qiton	-11.3164
sowasan	-11.3203
不想去	-11.3212
baboy	-11.3392
▁tazoq	-11.3394
qaRoan	-11.3396
▁saiRaR	-11.3782
iRaRan	-11.3803
▁satap	-11.398
長長的	-11.3986
▁saqoR	-11.402
Renap	-11.4318
▁這條魚的皮	-11.4453
▁pasoR	-11.4488
們先吃	-11.4541
▁satasaw	-11.4551
▁patalombi	-11.4578
paiz	-11.4584
▁benoqo	-11.4599
▁siRaRaz	-11.4649
▁toqeb	-11.4649
qiba	-11.477
▁nitaRa	-11.4854
qowad	-11.4887
zaken	-11.4916
sabet	-11.4935
pitiR	-11.4979
msoR	-11.4983
osiqan	-11.4984
擔憂他	-11.4991
冒	-11.5006
▁sibo	-11.5028
忘	-11.504
ttoan	-11.5042
超	-11.5048
▁siqam	-11.5053
孫	-11.5062
mangan	-11.5062
▁maReng	-11.5065
邀	-11.5067
天天看電視	-11.507
▁patol	-11.5075
裙	-11.5075
帽	-11.5077
鞋	-11.5077
柴	-11.5077
撞	-11.5078
遇見	-11.5079
不太會	-11.508
濳	-11.5082
satono	-11.5084
覺	-11.5084
枝	-11.5086
棄	-11.5086
震	-11.5086
展	-11.5086
輩	-11.5087
掐	-11.5088
故	-11.5088
室	-11.5088
賺	-11.5088
題	-11.5088
蓮	-11.5088
薑	-11.5088
那間房子	-11.5088
▁sozitan	-11.5088
旁	-11.5089
述	-11.5089
仍	-11.5089
藍	-11.5089
增	-11.5089
歉	-11.5089
漁	-11.5089
據	-11.5089
亡	-11.5089
永	-11.5089
餅	-11.509
山頂上	-11.509
識	-11.509
折	-11.509
慰	-11.509
去醫院看	-11.509
打工者	-11.509
妹	-11.509
容	-11.509
鉛	-11.509
速	-11.509
maRoR	-11.509
的後代長得跟	-11.509
詐騙集團	-11.509
技	-11.509
刻	-11.509
志	-11.509
的基因	-11.509
陶	-11.509
揉	-11.509
▁Reng	-11.509
異	-11.509
Q	-11.509
閃	-11.509
叢	-11.509
限	-11.509
樓	-11.509
一顆心	-11.509
刺桐花開	-11.509
端午節	-11.509
負	-11.509
召	-11.509
新北市	-11.509
仔	-11.5091
分工合作	-11.5091
末	-11.5091
爐	-11.5091
矮黑人	-11.5091
蜜	-11.5091
模	-11.5091
疹	-11.5091
Ziauddin	-11.5091
交易所	-11.5091
參與政治的權利	-11.5091
啟	-11.5091
喜歡用右手的人	-11.5091
暴	-11.5091
朗	-11.5091
獸	-11.5091
男性入贅	-11.5091
葬	-11.5091
遍	-11.5091
醜	-11.5091
雉	-11.5091
糊	-11.5091
r	-11.5091
一整年	-11.5091
滲	-11.5091
原住民族委員會	-11.5091
的時刻	-11.5091
齊	-11.5091
踩	-11.5091
貫	-11.5091
卡車司機	-11.5091
慶豐年	-11.5091
挨	-11.5091
桿	-11.5091
梗	-11.5091
藉	-11.5091
訓	-11.5091
谷	-11.5091
長方形	-11.5091
飛行員	-11.5091
暫	-11.5091
依賴著他	-11.5091
蟬	-11.5091
一年一度的	-11.5091
剖成兩半	-11.5091
哦	-11.5091
媒	-11.5091
往生者	-11.5091
昏	-11.5091
照顧病人	-11.5091
真是太棒了	-11.5091
穿這件	-11.5091
緩	-11.5091
耐	-11.5091
腎	-11.5091
話小聲一點	-11.5091
讓你弟弟打赤膊	-11.5091
較聰明	-11.5091
鰓	-11.5091
▁那些女孩子喜歡	-11.5091
漆	-11.5091
Bubu	-11.5091
▁biqolo	-11.5091
▁你晚上幾點	-11.5091
▁你的指甲	-11.5091
▁太陽下山了	-11.5091
佳	-11.5091
含	-11.5091
壺	-11.5091
很膽小	-11.5091
從瓶子裡	-11.5091
怕被搔癢	-11.5091
憶	-11.5091
比較年輕	-11.5091
汽	-11.5091
潘烏吉	-11.5091
CinRu	-11.5091
Raimazoq	-11.5091
baRqiyan	-11.5091
belaysan	-11.5091
boRiboR	-11.5091
boRsas	-11.5091
hoygi	-11.5091
inkokoy	-11.5091
lalasan	-11.5091
manbabaseR	-11.5091
mimasen	-11.5091
ngowit	-11.5091
nisamangsan	-11.5091
padiyatipan	-11.5091
paypaydatan	-11.5091
pelating	-11.5091
qabtoanan	-11.5091
qaqayton	-11.5091
qaqelizaqan	-11.5091
qaysimao	-11.5091
sabeneq	-11.5091
sebeliwan	-11.5091
siRapaz	-11.5091
sikodang	-11.5091
soqebqeb	-11.5091
tawlaq	-11.5091
tiRsas	-11.5091
umus	-11.5091
yilanan	-11.5091
▁2014	-11.5091
▁Raymazoq	-11.5091
▁Ziaoddin	-11.5091
▁bilbil	-11.5091
▁datetebos	-11.5091
▁dazit	-11.5091
▁hoalien	-11.5091
▁hociyen	-11.5091
▁kanghoho	-11.5091
▁kemapet	-11.5091
▁kemawit	-11.5091
▁kemolazo	-11.5091
▁kiakiya	-11.5091
▁latiyot	-11.5091
▁likisian	-11.5091
▁mRaymazoq	-11.5091
▁maseqales	-11.5091
▁matatanaq	-11.5091
▁menabet	-11.5091
▁metatad	-11.5091
▁mezanga	-11.5091
▁nanleppaw	-11.5091
▁naonaongan	-11.5091
▁nayawsayzi	-11.5091
▁ngingol	-11.5091
▁nobaseR	-11.5091
▁paipil	-11.5091
▁palepon	-11.5091
▁pinisanga	-11.5091
▁qaniayoan	-11.5091
▁qasatawaRan	-11.5091
▁qasimqena	-11.5091
▁qaylonges	-11.5091
▁qayqabos	-11.5091
▁qedqedan	-11.5091
▁qoliseng	-11.5091
▁sapaksangan	-11.5091
▁saqaddanan	-11.5091
▁sasammayan	-11.5091
▁seqawalo	-11.5091
▁shoyzon	-11.5091
▁simaliqowan	-11.5091
▁simpatongayaw	-11.5091
▁simpeise	-11.5091
▁simpez	-11.5091
▁simqenna	-11.5091
▁sisonaqabao	-11.5091
▁sosowayan	-11.5091
▁soyqo	-11.5091
▁tadedanan	-11.5091
▁tasinsiaan	-11.5091
▁tawyen	-11.5091
▁timaizipna	-11.5091
▁zitinsia	-11.5091
▁zongosan	-11.5091
▁我只要模仿她們跳舞	-11.5091
▁抖動身體	-11.5091
▁第二種是	-11.5091
▁這個樹皮是	-11.5091
一個一個撿起來	-11.5091
中午要吃	-11.5091
你明天有空	-11.5091
僅	-11.5091
償	-11.5091
兜	-11.5091
兩兄弟	-11.5091
刮颱風	-11.5091
劃	-11.5091
勇士	-11.5091
包尿布	-11.5091
卵	-11.5091
去店裡買	-11.5091
去掃一掃	-11.5091
和一隻狗	-11.5091
哆囉美遠式的	-11.5091
唇	-11.5091
唱噶瑪蘭的歌	-11.5091
喪	-11.5091
噶瑪蘭的祖先從宜蘭來	-11.5091
在吃芋頭	-11.5091
在田埂上	-11.5091
堪	-11.5091
塑膠袋裡	-11.5091
峰	-11.5091
待會兒	-11.5091
很不禮貌	-11.5091
很雜亂	-11.5091
循	-11.5091
必須要潛水去拿	-11.5091
恕	-11.5091
悔	-11.5091
成四方形	-11.5091
我在路上撿到	-11.5091
手牽手	-11.5091
打棒球	-11.5091
打火機	-11.5091
把這根竹子	-11.5091
押	-11.5091
振	-11.5091
捆綁固定	-11.5091
捏	-11.5091
掉到地上	-11.5091
損	-11.5091
搞	-11.5091
搭火車去臺東	-11.5091
搭高鐵去高雄	-11.5091
搯	-11.5091
放的稻草人	-11.5091
是很忌諱的事	-11.5091
晃	-11.5091
晨	-11.5091
款	-11.5091
沫	-11.5091
沾鹽巴吃	-11.5091
渣	-11.5091
用右手	-11.5091
用手抓飯	-11.5091
疼	-11.5091
發酒瘋	-11.5091
的痕跡	-11.5091
碾	-11.5091
祝你新年快樂	-11.5091
祭拜祖靈	-11.5091
笛	-11.5091
粉	-11.5091
紅紅的	-11.5091
肯	-11.5091
腋	-11.5091
舉行除瘟祭儀式	-11.5091
葷	-11.5091
蔞	-11.5091
蘆葦莖	-11.5091
要食戒	-11.5091
請到屋內來	-11.5091
錶	-11.5091
除草除好了	-11.5091
雙胞胎	-11.5091
雪	-11.5091
飄浮在水上	-11.5091
駛	-11.5091
高高興興	-11.5091
鰻	-11.5091
RaysaoRan	-11.5091
Rengiyas	-11.5091
Rosinget	-11.5091
Ryanga	-11.5091
dodot	-11.5091
ienhu	-11.5091
lisinbo	-11.5091
loziop	-11.5091
ngedod	-11.5091
saksak	-11.5091
▁Ngaday	-11.5091
▁biRbiR	-11.5091
▁boRoR	-11.5091
▁boRqaR	-11.5091
▁dangtes	-11.5091
▁kelawk	-11.5091
▁keminsa	-11.5091
▁kibing	-11.5091
▁kikitot	-11.5091
▁loqaloq	-11.5091
▁mangngan	-11.5091
▁meRainin	-11.5091
▁miRaR	-11.5091
▁mlalazok	-11.5091
▁naiao	-11.5091
▁pangisaw	-11.5091
▁patingzen	-11.5091
斑	-11.5091
桑	-11.5091
罈	-11.5091
腸	-11.5091
蹤	-11.5091
傻	-11.5091
准	-11.5091
嘛	-11.5091
愁	-11.5091
攀	-11.5091
案	-11.5091
沈	-11.5091
澀	-11.5091
紮	-11.5091
辭	-11.5091
預	-11.5091
ㄧ	-11.5091
剌	-11.5091
榖	-11.5091
賜	-11.5091
際	-11.5091
鳴	-11.5091
捨	-11.5091
繳	-11.5091
柔	-11.5091
域	-11.5091
敗	-11.5091
泣	-11.5091
周	-11.5091
融	-11.5091
紛	-11.5091
(	-11.7655
S	-11.8116
差	-11.9102
戒	-11.9573
岸	-11.9576
章	-11.9577
椅	-11.9577
素	-11.9582
飾	-11.9585
額	-11.9585
春	-11.9585
冬	-11.9586
宴	-11.9586
籤	-11.9588
耍	-11.9588
植	-11.9588
校	-11.9589
稀	-11.9589
友	-11.9589
嬤	-11.9589
助	-11.9589
毒	-11.9589
閒	-11.9589
律	-11.9589
注	-11.9589
質	-11.9589
豚	-11.959
祈	-11.959
寮	-11.959
束	-11.959
減	-11.959
登	-11.959
易	-11.959
怪	-11.959
辛	-11.959
波	-11.959
宿	-11.959
財	-11.959
弓	-11.959
懷	-11.959
縮	-11.959
略	-11.959
禁	-11.959
勤	-11.959
仇	-11.959
偕	-11.959
鎮	-11.959
貧	-11.959
耳	-11.959
延	-11.959
副	-11.959
奄	-11.959
歸	-11.959
煉	-11.959
協	-11.959
弱	-11.959
謝	-11.959
遵	-11.959
聯	-11.959
暖	-11.959
禱	-11.959
伍	-11.959
側	-11.959
妥	-11.959
愉	-11.959
攻	-11.959
既	-11.959
襲	-11.959
酬	-11.959
釋	-11.959
商	-11.959
坡	-11.9591
填	-11.9591
灼	-11.9591
環	-11.9591
充	-11.9591
忽	-11.9591
恩	-11.9591
涵	-11.9591
筐	-11.9591
臨	-11.9591
諸	-11.9591
逝	-11.9591
嗚	-11.9591
簡	-11.9591
朋	-11.9591
奇	-11.9591
帝	-11.9591
狼	-11.9591
眨	-11.9591
邪	-11.9591
─	-11.9591
募	-11.9591
尺	-11.9591
柑	-11.9591
槌	-11.9591
樟	-11.9591
溺	-11.9591
%	-11.9591
C	-11.9591
F	-11.9591
〇	-11.9591
《	-11.9591
》	-11.9591
丸	-11.9591
乞	-11.9591
予	-11.9591
仟	-11.9591
伊	-11.9591
佔	-11.9591
凱	-11.9591
呵	-11.9591
嗆	-11.9591
囈	-11.9591
坎	-11.9591
坷	-11.9591
塌	-11.9591
孤	-11.9591
崩	-11.9591
巡	-11.9591
巧	-11.9591
廢	-11.9591
徑	-11.9591
悅	-11.9591
患	-11.9591
憂	-11.9591
懲	-11.9591
投	-11.9591
揚	-11.9591
援	-11.9591
搗	-11.9591
撈	-11.9591
攝	-11.9591
昇	-11.9591
杜	-11.9591
梁	-11.9591
欄	-11.9591
欠	-11.9591
殘	-11.9591
港	-11.9591
潤	-11.9591
激	-11.9591
濺	-11.9591
瀉	-11.9591
牌	-11.9591
犬	-11.9591
狂	-11.9591
猛	-11.9591
痢	-11.9591
癩	-11.9591
睜	-11.9591
睪	-11.9591
瞎	-11.9591
竟	-11.9591
簾	-11.9591
糢	-11.9591
纍	-11.9591
翔	-11.9591
肢	-11.9591
腹	-11.9591
舖	-11.9591
舟	-11.9591
茸	-11.9591
菁	-11.9591
蠔	-11.9591
街	-11.9591
衡	-11.9591
訊	-11.9591
豎	-11.9591
賀	-11.9591
跡	-11.9591
返	-11.9591
逛	-11.9591
醬	-11.9591
銅	-11.9591
雄	-11.9591
革	-11.9591
頓	-11.9591
颳	-11.9591
饞	-11.9591
魯	-11.9591
麥	-11.9591
吭	-11.9591
噁	-11.9591
妨	-11.9591
扣	-11.9591
蝨	-11.9591
勾	-11.9591
幚	-11.9591
淡	-11.9591
眉	-11.9591
瞞	-11.9591
磚	-11.9591
膚	-11.9591
臂	-11.9591
菓	-11.9591
貨	-11.9591
浴	-11.9591
邁	-11.9591
仗	-11.9591
勁	-11.9591
孵	-11.9591
授	-11.9591
朝	-11.9591
劇	-11.9591
吶	-11.9591
寄	-11.9591
澄	-11.9591
盟	-11.9591
莎	-11.9591
職	-11.9591
芥	-11.9664
麗	-12.7177
麴	-12.7309
鴿	-12.731
鬚	-12.7311
駝	-12.7312
饒	-12.7313
饋	-12.7314
頌	-12.7315
障	-12.7316
陌	-12.7317
鏃	-12.7318
銀	-12.7319
釁	-12.732
醋	-12.7321
郊	-12.7322
遙	-12.7323
逼	-12.7324
蹄	-12.7325
購	-12.7326
賓	-12.7327
謊	-12.7328
諦	-12.7329
諒	-12.733
訝	-12.7331
覓	-12.7332
襪	-12.7333
蜢	-12.7334
蜈	-12.7335
蜆	-12.7336
蚱	-12.7337
蚣	-12.7338
薦	-12.7339
蓉	-12.734
萊	-12.7341
茂	-12.7342
茁	-12.7343
芙	-12.7344
胰	-12.7345
耘	-12.7346
繡	-12.7347
績	-12.7348
綑	-12.7349
競	-12.735
竄	-12.7351
癌	-12.7352
痱	-12.7353
痠	-12.7354
症	-12.7355
疔	-12.7356
畜	-12.7357
瓢	-12.7358
瑚	-12.7359
珊	-12.736
獠	-12.7361
猜	-12.7362
犧	-12.7363
牢	-12.7364
燼	-12.7365
燥	-12.7366
烹	-12.7367
濟	-12.7368
潔	-12.7369
漬	-12.737
渡	-12.7371
添	-12.7372
況	-12.7373
殊	-12.7374
檻	-12.7375
橄	-12.7376
槽	-12.7377
棺	-12.7378
棠	-12.7379
棟	-12.738
械	-12.7381
桂	-12.7382
栽	-12.7383
柚	-12.7384
杵	-12.7385
晾	-12.7386
昭	-12.7387
昂	-12.7388
旺	-12.7389
撇	-12.739
搏	-12.7391
措	-12.7392
捻	-12.7393
挺	-12.7394
拭	-12.7395
括	-12.7396
慟	-12.7397
慎	-12.7398
惱	-12.7399
悟	-12.74
恨	-12.7401
恐	-12.7402
幽	-12.7403
幅	-12.7404
崎	-12.7405
崇	-12.7406
嫌	-12.7407
婿	-12.7408
姆	-12.7409
奔	-12.741
奏	-12.7411
奈	-12.7412
壤	-12.7413
墳	-12.7414
執	-12.7415
埃	-12.7416
坦	-12.7417
囪	-12.7418
囑	-12.7419
嘯	-12.742
嘆	-12.7421
嗇	-12.7422
咐	-12.7423
吝	-12.7424
厥	-12.7425
匠	-12.7426
勵	-12.7427
劍	-12.7428
兆	-12.7429
偵	-12.743
倦	-12.7431
伯	-12.7432
仲	-12.7433
乏	-12.7434
V	-12.7435
E	-12.7436
龞	-12.7437
鶖	-12.7438
鱷	-12.7439
鱗	-12.744
鰥	-12.7441
鰍	-12.7442
鯛	-12.7443
鯊	-12.7444
騰	-12.7445
餘	-12.7446
隙	-12.7447
陀	-12.7448
闊	-12.7449
鎬	-12.745
銜	-12.7451
輯	-12.7452
軸	-12.7453
趴	-12.7454
賒	-12.7455
誕	-12.7456
詢	-12.7457
裕	-12.7458
蟋	-12.7459
蟀	-12.746
蝗	-12.7461
蝌	-12.7462
蚪	-12.7463
虔	-12.7464
薩	-12.7465
芹	-12.7466
艘	-12.7467
臍	-12.7468
膨	-12.7469
腥	-12.747
肘	-12.7471
聆	-12.7472
童	-12.7473
穫	-12.7474
秘	-12.7475
矛	-12.7476
睫	-12.7477
睦	-12.7478
瘀	-12.7479
畚	-12.748
率	-12.7481
煤	-12.7482
泊	-12.7483
沃	-12.7484
污	-12.7485
汙	-12.7486
歹	-12.7487
櫻	-12.7488
槿	-12.7489
楝	-12.749
棚	-12.7491
棕	-12.7492
棍	-12.7493
框	-12.7494
松	-12.7495
晀	-12.7496
旋	-12.7497
批	-12.7498
悉	-12.7499
廠	-12.75
庵	-12.7501
寒	-12.7502
娌	-12.7503
姻	-12.7504
妯	-12.7505
央	-12.7506
培	-12.7507
嘔	-12.7508
唯	-12.7509
唉	-12.751
吉	-12.7511
匆	-12.7512
勝	-12.7513
初	-12.7514
凝	-12.7515
值	-12.7516
丈	-12.7517
+	-12.7518
鵲	-12.7519
鴉	-12.752
鯨	-12.7521
飢	-12.7522
飆	-12.7523
顯	-12.7524
雅	-12.7525
跛	-12.7526
諱	-12.7527
誓	-12.7528
蟑	-12.7529
螂	-12.753
蝸	-12.7531
蚯	-12.7532
蚓	-12.7533
藻	-12.7534
莓	-12.7535
荷	-12.7536
苳	-12.7537
膊	-12.7538
糰	-12.7539
糠	-12.754
稅	-12.7541
祀	-12.7542
皺	-12.7543
瑞	-12.7544
牲	-12.7545
烘	-12.7546
瀑	-12.7547
澈	-12.7548
漿	-12.7549
漩	-12.755
溢	-12.7551
渦	-12.7552
洲	-12.7553
泰	-12.7554
汪	-12.7555
殯	-12.7556
殖	-12.7557
櫥	-12.7558
榕	-12.7559
杖	-12.756
昌	-12.7561
敵	-12.7562
拐	-12.7563
戀	-12.7564
徙	-12.7565
康	-12.7566
屑	-12.7567
宮	-12.7568
娶	-12.7569
娘	-12.757
姑	-12.7571
塵	-12.7572
嘍	-12.7573
嗽	-12.7574
喙	-12.7575
啪	-12.7576
哀	-12.7577
咳	-12.7578
叩	-12.7579
健	-12.758
俯	-12.7581
佛	-12.7582
乎	-12.7583
O	-12.7584
鷺	-12.7585
鷥	-12.7586
鵝	-12.7587
鬥	-12.7588
頸	-12.7589
逐	-12.759
詛	-12.7591
詐	-12.7592
衝	-12.7593
蝠	-12.7594
蝙	-12.7595
蜘	-12.7596
蛛	-12.7597
蕗	-12.7598
蕎	-12.7599
蔭	-12.76
蒂	-12.7601
菇	-12.7602
芝	-12.7603
舌	-12.7604
耀	-12.7605
羽	-12.7606
纖	-12.7607
粽	-12.7608
簧	-12.7609
簑	-12.761
筷	-12.7611
穩	-12.7612
研	-12.7613
瞄	-12.7614
眺	-12.7615
皂	-12.7616
璃	-12.7617
琴	-12.7618
玻	-12.7619
狸	-12.762
狩	-12.7621
澆	-12.7622
賠	-12.7622
涕	-12.7623
氏	-12.7624
曠	-12.7625
操	-12.7626
擇	-12.7627
拒	-12.7628
抹	-12.7629
慧	-12.763
態	-12.7631
恆	-12.7632
審	-12.7633
姨	-12.7634
妒	-12.7635
嘗	-12.7636
哨	-12.7637
咒	-12.7638
呻	-12.7639
卑	-12.764
x	-12.7641
騷	-12.7642
餚	-12.7643
飲	-12.7644
鋤	-12.7645
釦	-12.7646
郵	-12.7647
遣	-12.7648
譯	-12.7649
誣	-12.765
複	-12.7651
袒	-12.7652
蔬	-12.7653
蔔	-12.7654
萄	-12.7655
莊	-12.7656
肋	-12.7657
翅	-12.7658
笆	-12.7659
穗	-12.766
瞌	-12.7661
監	-12.7662
瘡	-12.7663
濘	-12.7664
榴	-12.7665
暑	-12.7666
摺	-12.7667
捷	-12.7668
嬸	-12.7669
墓	-12.767
垢	-12.7671
圳	-12.7672
卜	-12.7673
凹	-12.7674
傾	-12.7675
偏	-12.7676
鳳	-12.7677
鬍	-12.7678
鈔	-12.7679
遭	-12.768
逆	-12.7681
蠅	-12.7682
蜻	-12.7683
蜓	-12.7684
膝	-12.7685
羅	-12.7686
缸	-12.7687
箏	-12.7688
瞭	-12.7689
畢	-12.769
漱	-12.7691
涉	-12.7692
樁	-12.7693
楊	-12.7694
梨	-12.7695
栓	-12.7696
斟	-12.7697
挽	-12.7698
戚	-12.7699
恢	-12.77
固	-12.7701
史	-12.7702
冠	-12.7703
仰	-12.7704
驗	-12.7705
飼	-12.7706
陣	-12.7707
鑰	-12.7708
鍊	-12.7709
迎	-12.771
趣	-12.7711
謠	-12.7712
觸	-12.7713
薪	-12.7714
苔	-12.7715
脖	-12.7716
羞	-12.7717
紹	-12.7718
筍	-12.7719
瘟	-12.772
疾	-12.7721
爲	-12.7722
焦	-12.7723
澱	-12.7724
淋	-12.7725
悲	-12.7726
廊	-12.7727
嫂	-12.7728
嚨	-12.7729
嚏	-12.773
喉	-12.7731
哆	-12.7732
介	-12.7733
⋯	-12.7734
錄	-12.7735
遲	-12.7735
覆	-12.7736
衛	-12.7737
蠣	-12.7738
蘿	-12.7739
胡	-12.774
瓦	-12.7741
炎	-12.7742
灘	-12.7743
柬	-12.7744
斯	-12.7745
彼	-12.7746
寨	-12.7747
勉	-12.7748
創	-12.7749
傍	-12.775
俄	-12.7751
Y	-12.7752
鐮	-12.7753
蝶	-12.7754
蝴	-12.7755
蕃	-12.7756
蔗	-12.7757
葦	-12.7758
腐	-12.7759
糕	-12.776
篩	-12.7761
笠	-12.7762
消	-12.7763
洪	-12.7764
構	-12.7765
披	-12.7766
嫩	-12.7767
埂	-12.7768
嘲	-12.7769
啄	-12.777
咱	-12.7771
吻	-12.7772
務	-12.7773
Z	-12.7774
驕	-12.7775
蓆	-12.7776
肝	-12.7777
羨	-12.7778
紋	-12.7779
盆	-12.778
攜	-12.7781
廁	-12.7782
匙	-12.7783
j	-12.7784
閩	-12.7785
蚊	-12.7786
苧	-12.7787
舒	-12.7788
膀	-12.7789
糬	-12.779
筏	-12.7791
狐	-12.7792
源	-12.7793
斗	-12.7794
庫	-12.7795
埔	-12.7796
螞	-12.7797
臟	-12.7798
籬	-12.7799
燕	-12.78
欖	-12.7801
桐	-12.7802
掩	-12.7803
塑	-12.7804
係	-12.7805
鏡	-12.7806
蘋	-12.7807
聰	-12.7808
紀	-12.7809
療	-12.781
珍	-12.7811
捆	-12.7812
托	-12.7813
惰	-12.7814
嶼	-12.7815
嚀	-12.7816
厲	-12.7817
K	-12.7818
闆	-12.7819
莿	-12.782
未	-12.7821
古	-12.7822
齡	-12.7823
齒	-12.7824
螃	-12.7825
甘	-12.7826
漸	-12.7827
楚	-12.7828
撫	-12.7829
卡	-12.783
階	-12.7831
虹	-12.7832
芒	-12.7833
玉	-12.7834
澡	-12.7835
探	-12.7836
希	-12.7837
啼	-12.7838
享	-12.7839
贅	-12.784
芋	-12.7841
泳	-12.7842
尋	-12.7843
腿	-12.7844
溝	-12.7845
擁	-12.7846
廳	-12.7847
努	-12.7848
顏	-12.7849
靜	-12.785
雖	-12.7851
茅	-12.7852
耆	-12.7853
察	-12.7854
塘	-12.7855
廚	-12.7856
鼻	-12.7857
跌	-12.7858
橡	-12.7859
敢	-12.786
嚇	-12.7861
W	-12.7862
訪	-12.7863
祝	-12.7864
農	-12.7865
漢	-12.7866
慣	-12.7867
屁	-12.7868
另	-12.7869
椒	-12.787
必	-12.7871
阱	-12.7872
鍋	-12.7873
蟹	-12.7874
夏	-12.7875
桃	-12.7876
P	-12.7877
M	-12.7878
需	-12.7879
界	-12.788
繼	-12.7881
垃	-12.7882
圾	-12.7883
訴	-12.7884
司	-12.7885
免	-12.7886
芭	-12.7887
甚	-12.7888
猴	-12.7889
庭	-12.789
休	-12.7891
灣	-12.7892
颱	-12.7893
林	-12.7894
兄	-12.7895
睛	-12.7896
繩	-12.7897
漂	-12.7898
髮	-12.7899
鷹	-12.79
午	-12.7901
檳	-12.7902
糯	-12.7903
朵	-12.7903
榔	-12.7904
婚	-12.7905
目	-12.7906
何	-12.7907
I	-12.7908
柿	-12.7908
蕉	-12.7909
妻	-12.7909
李	-12.7909
昨	-12.791
椰	-12.791
兔	-12.791
橘	-12.791
0	-12.7911
麼	-12.7911
稻	-12.7912
蛙	-12.7913
祖	-12.7914
巨	-12.7914
怎	-12.7915
泉	-12.7915
現	-12.7916
窄	-12.7916
爺	-12.7917
潛	-12.7917
哥	-12.7918
枕	-12.7918
喜	-12.7919
秋	-12.7919
噶	-12.792
鞭	-12.792
獲	-12.792
始	-12.792
紫	-12.792
c	-12.7921
迷	-12.7921
且	-12.7921
虎	-12.7921
忍	-12.7921
育	-12.7921
蘇	-12.7921
瑪	-12.7922
羌	-12.7922
宣	-12.7922
郎	-12.7922
習	-12.7922
雀	-12.7922
尼	-12.7922
迅	-12.7922
戲	-12.7923
蘭	-12.7923
憐	-12.7923
困	-12.7923
拾	-12.7923
契	-12.7923
魂	-12.7923
己	-12.7923
欺	-12.7923
蔴	-12.7923
誤	-12.7923
佰	-12.7923
儀	-12.7923
境	-12.7923
炊	-12.7923
諾	-12.7923
謂	-12.7923
遞	-12.7923
隸	-12.7923
浸	-12.7923
私	-12.7923
距	-12.7923
奪	-12.7923
竿	-12.7923
範	-12.7923
銳	-12.7923
樑	-12.7923
孔	-12.7923
葵	-12.7923
蹈	-12.7923
描	-12.7923
默	-12.7923
盼	-12.7923
什	-12.7924
危	-12.7924
討	-12.7924
凸	-12.7924
刊	-12.7924
吱	-12.7924
噢	-12.7924
屈	-12.7924
屠	-12.7924
干	-12.7924
悠	-12.7924
惠	-12.7924
抗	-12.7924
攬	-12.7924
普	-12.7924
暮	-12.7924
淫	-12.7924
瀕	-12.7924
瞧	-12.7924
脅	-12.7924
詩	-12.7924
誌	-12.7924
轎	-12.7924
辜	-12.7924
拌	-12.7924
撬	-12.7924
秧	-12.7924
德	-12.7924
佑	-12.7924
序	-12.7924
極	-12.7924
痕	-12.7924
媳	-12.7924
丘	-12.7924
冊	-12.7924
壇	-12.7924
宛	-12.7924
惑	-12.7924
憲	-12.7924
控	-12.7924
斥	-12.7924
旨	-12.7924
棲	-12.7924
滷	-12.7924
烈	-12.7924
熔	-12.7924
芳	-12.7924
蠻	-12.7924
詮	-12.7924
跎	-12.7924
蹉	-12.7924
頒	-12.7924
催	-12.7924
府	-12.7924
濱	-12.7924
策	-12.7924
查	-12.7924
叔	-12.7924
摩	-12.7924
檢	-12.7924
唏	-12.7924
喻	-12.7924
搆	-12.7924
湧	-12.7924
版	-12.7924
砧	-12.7924
脛	-12.7924
薏	-12.7924
裸	-12.7924
駕	-12.7924
魟	-12.7924
幣	-12.7924
孕	-12.7924
債	-12.7924
庇	-12.7924
忼	-12.7924
繪	-12.7924
蜷	-12.7924
鬢	-12.7924
崖	-12.7924
險	-12.7924
俗	-12.7924
懸	-12.7924
H	-12.7924
v	-12.7924
丐	-12.7924
乖	-12.7924
乳	-12.7924
亦	-12.7924
仙	-12.7924
伏	-12.7924
伐	-12.7924
伺	-12.7924
佩	-12.7924
俊	-12.7924
俱	-12.7924
倔	-12.7924
倚	-12.7924
偉	-12.7924
傢	-12.7924
允	-12.7924
兇	-12.7924
凌	-12.7924
剁	-12.7924
匹	-12.7924
卓	-12.7924
卸	-12.7924
叨	-12.7924
吳	-12.7924
吼	-12.7924
咀	-12.7924
咦	-12.7924
哈	-12.7924
哩	-12.7924
啞	-12.7924
嘟	-12.7924
嘩	-12.7924
噎	-12.7924
嚥	-12.7924
囊	-12.7924
址	-12.7924
夷	-12.7924
委	-12.7924
嬉	-12.7924
寡	-12.7924
寸	-12.7924
屍	-12.7924
岀	-12.7924
岳	-12.7924
峭	-12.7924
帥	-12.7924
幗	-12.7924
弛	-12.7924
征	-12.7924
徊	-12.7924
徘	-12.7924
徴	-12.7924
怡	-12.7924
恤	-12.7924
恰	-12.7924
悄	-12.7924
悴	-12.7924
慈	-12.7924
慌	-12.7924
慮	-12.7924
憊	-12.7924
憔	-12.7924
憤	-12.7924
憾	-12.7924
截	-12.7924
拇	-12.7924
拓	-12.7924
挪	-12.7924
掀	-12.7924
掘	-12.7924
掙	-12.7924
揀	-12.7924
摔	-12.7924
摻	-12.7924
撘	-12.7924
撥	-12.7924
撰	-12.7924
撲	-12.7924
撼	-12.7924
擤	-12.7924
效	-12.7924
敞	-12.7924
斃	-12.7924
斧	-12.7924
旬	-12.7924
旱	-12.7924
晉	-12.7924
曉	-12.7924
杈	-12.7924
杞	-12.7924
梅	-12.7924
榜	-12.7924
様	-12.7924
檜	-12.7924
欸	-12.7924
毀	-12.7924
氓	-12.7924
氛	-12.7924
汲	-12.7924
渾	-12.7924
湊	-12.7924
溶	-12.7924
潦	-12.7924
澎	-12.7924
澗	-12.7924
澤	-12.7924
濃	-12.7924
濾	-12.7924
煎	-12.7924
煞	-12.7924
燃	-12.7924
爪	-12.7924
爽	-12.7924
狽	-12.7924
獄	-12.7924
瑣	-12.7924
申	-12.7924
畏	-12.7924
畔	-12.7924
疏	-12.7924
疙	-12.7924
疝	-12.7924
疥	-12.7924
痊	-12.7924
瘤	-12.7924
瘩	-12.7924
癬	-12.7924
盈	-12.7924
盲	-12.7924
矩	-12.7924
砂	-12.7924
碕	-12.7924
碧	-12.7924
碩	-12.7924
碴	-12.7924
礁	-12.7924
祥	-12.7924
禍	-12.7924
稚	-12.7924
窒	-12.7924
窪	-12.7924
竂	-12.7924
筌	-12.7924
篤	-12.7924
篦	-12.7924
簷	-12.7924
簿	-12.7924
籌	-12.7924
籜	-12.7924
籮	-12.7924
粘	-12.7924
粥	-12.7924
粱	-12.7924
糞	-12.7924
綜	-12.7924
緣	-12.7924
给	-12.7924
罪	-12.7924
署	-12.7924
羡	-12.7924
翹	-12.7924
耙	-12.7924
肆	-12.7924
肌	-12.7924
肛	-12.7924
胎	-12.7924
胞	-12.7924
脂	-12.7924
脾	-12.7924
腔	-12.7924
腺	-12.7924
臀	-12.7924
臥	-12.7924
臼	-12.7924
舍	-12.7924
艙	-12.7924
苣	-12.7924
茉	-12.7924
荖	-12.7924
菊	-12.7924
葚	-12.7924
葫	-12.7924
蔓	-12.7924
藷	-12.7924
蘊	-12.7924
虐	-12.7924
蚤	-12.7924
蛀	-12.7924
蜥	-12.7924
蜴	-12.7924
蝕	-12.7924
螢	-12.7924
袍	-12.7924
裳	-12.7924
襄	-12.7924
誦	-12.7924
説	-12.7924
誼	-12.7924
謾	-12.7924
譏	-12.7924
譜	-12.7924
譬	-12.7924
譴	-12.7924
豔	-12.7924
豹	-12.7924
貢	-12.7924
販	-12.7924
貿	-12.7924
賄	-12.7924
賭	-12.7924
贈	-12.7924
贖	-12.7924
踨	-12.7924
躍	-12.7924
辨	-12.7924
邏	-12.7924
邵	-12.7924
鄒	-12.7924
醇	-12.7924
鈑	-12.7924
鍬	-12.7924
鎚	-12.7924
鏟	-12.7924
鏽	-12.7924
鑑	-12.7924
鑲	-12.7924
閣	-12.7924
闖	-12.7924
阻	-12.7924
陋	-12.7924
陡	-12.7924
隆	-12.7924
随	-12.7924
隱	-12.7924
雌	-12.7924
霜	-12.7924
靡	-12.7924
鞦	-12.7924
韆	-12.7924
韌	-12.7924
韭	-12.7924
顫	-12.7924
饗	-12.7924
驅	-12.7924
鳩	-12.7924
黴	-12.7924
齋	-12.7924
−	-12.7924
廂	-12.7924
拚	-12.7924
杉	-12.7924
柳	-12.7924
概	-12.7924
甩	-12.7924
礙	-12.7924
綿	-12.7924
縱	-12.7924
螫	-12.7924
貪	-12.7924
踝	-12.7924
鞤	-12.7924
鰭	-12.7924
仿	-12.7924
傭	-12.7924
凶	-12.7924
咻	-12.7924
堤	-12.7924
塔	-12.7924
奴	-12.7924
宰	-12.7924
幕	-12.7924
彙	-12.7924
拎	-12.7924
柒	-12.7924
欲	-12.7924
津	-12.7924
痘	-12.7924
磁	-12.7924
穴	-12.7924
純	-12.7924
絆	-12.7924
膛	-12.7924
萁	-12.7924
蹬	-12.7924
週	-12.7924
鋒	-12.7924
錦	-12.7924
疫	-12.7924
兼	-12.7924
咖	-12.7924
啡	-12.7924
囚	-12.7924
壽	-12.7924
尚	-12.7924
席	-12.7924
彿	-12.7924
恭	-12.7924
悵	-12.7924
摯	-12.7924
昆	-12.7924
湍	-12.7924
纜	-12.7924
聳	-12.7924
榷	-12.7924
佈	-12.7924
匯	-12.7924
岬	-12.7924
徹	-12.7924
撤	-12.7924
氧	-12.7924
猶	-12.7924
碳	-12.7924
簽	-12.7924
纏	-12.7924
航	-12.7924
般	-12.7924
蕩	-12.7924
衍	-12.7924
諮	-12.7924
豪	-12.7924
軌	-12.7924
采	-12.7924
魄	-12.7924
爸	-12.7925
倡	-12.7925
兌	-12.7925
皆	-12.7925
緬	-12.7925
媽	-12.7926
甸	-12.7926
