<pad>	0
<unk>	0
<s>	0
</s>	0
<2dru>	0
<2en>	0
▁	-1.82422
.	-2.97909
,	-3.65262
'	-3.76409
?	-4.19697
▁the	-4.33322
▁to	-4.48598
▁ko	-4.5158
s	-4.57239
▁I	-4.57793
▁ka	-4.60812
▁ki	-4.68533
e	-4.78707
a	-4.8899
▁you	-4.97551
▁and	-5.00449
o	-5.02518
▁is	-5.02717
▁la	-5.10133
t	-5.19946
▁a	-5.29305
▁si	-5.3485
▁'	-5.35619
i	-5.48665
y	-5.49688
nga	-5.56171
▁na	-5.56525
▁so	-5.60278
n	-5.62634
▁in	-5.63941
▁kay	-5.68083
!	-5.69598
▁ta	-5.76829
▁it	-5.76958
▁are	-5.83875
▁of	-5.86177
▁go	-5.92052
▁koini	-5.92114
▁my	-5.92527
ing	-5.93039
▁ma	-5.9362
▁lo	-5.9513
ed	-5.98374
▁we	-6.03806
▁sa	-6.07912
▁have	-6.08246
ane	-6.08665
▁The	-6.17013
▁kai	-6.21133
▁wa	-6.21479
▁for	-6.22429
li	-6.23389
▁will	-6.23465
m	-6.27273
d	-6.27576
▁that	-6.34613
▁be	-6.35047
▁your	-6.39574
▁kodra	-6.45825
▁with	-6.47012
re	-6.48381
▁do	-6.49831
▁How	-6.49893
so	-6.49962
▁me	-6.50561
ll	-6.55864
▁moa	-6.58967
▁he	-6.60417
▁this	-6.63286
▁M	-6.64985
▁going	-6.65884
▁was	-6.66889
la	-6.68968
▁no	-6.71081
)	-6.71177
▁up	-6.71303
▁at	-6.71677
ko	-6.73817
▁pa	-6.7468
▁No	-6.7528
▁It	-6.76774
ta	-6.77294
ne	-6.77887
▁mwa	-6.7828
▁Yes	-6.78688
▁take	-6.82273
▁kikay	-6.82689
▁We	-6.84029
▁school	-6.84029
-	-6.84029
▁on	-6.85124
▁ai	-6.85969
▁want	-6.86347
▁What	-6.87131
ako	-6.87761
▁can	-6.88578
▁out	-6.91575
ka	-6.93016
▁yaie	-6.93814
w	-6.94264
ni	-6.95007
▁A	-6.97234
▁name	-6.97332
▁ini	-6.98776
▁by	-7.00773
▁This	-7.00922
▁see	-7.01327
▁buy	-7.02034
▁old	-7.02581
▁like	-7.03332
▁not	-7.03462
▁am	-7.04011
r	-7.04267
na	-7.04299
▁there	-7.05426
▁today	-7.0677
▁very	-7.07067
▁one	-7.07314
▁He	-7.08645
▁iya	-7.10719
▁back	-7.11779
▁don	-7.11909
▁There	-7.12175
▁home	-7.12383
▁his	-7.14237
▁our	-7.14879
ina	-7.15337
▁yakai	-7.19324
▁kake	-7.19798
▁You	-7.20599
▁When	-7.20644
▁mo	-7.23577
▁Then	-7.23652
▁day	-7.24167
lrao	-7.2511
▁brother	-7.2567
▁did	-7.26656
nai	-7.2702
▁here	-7.27174
▁tribe	-7.27415
le	-7.27532
▁went	-7.28132
se	-7.2817
▁lri	-7.28722
▁an	-7.28913
▁eene	-7.303
▁said	-7.31775
▁together	-7.33975
▁from	-7.34208
▁bring	-7.34821
▁Do	-7.35777
ve	-7.37666
▁teacher	-7.37843
va	-7.38346
▁us	-7.393
▁Let	-7.39392
▁time	-7.40662
▁"	-7.40788
iya	-7.41667
▁many	-7.42084
▁whe	-7.43288
▁mado	-7.43885
▁him	-7.44279
▁know	-7.44285
▁three	-7.45139
▁Is	-7.45826
▁much	-7.45966
▁down	-7.46821
g	-7.46879
▁need	-7.46905
▁li	-7.47405
ki	-7.47617
▁get	-7.47772
wa	-7.47855
/	-7.48069
er	-7.48469
▁would	-7.49425
▁come	-7.50237
▁fish	-7.50929
▁P	-7.51109
▁ikay	-7.51705
ma	-7.51828
▁water	-7.52142
▁malra	-7.52336
▁then	-7.52687
▁two	-7.53973
▁people	-7.54724
▁everyone	-7.54846
ext	-7.54863
▁some	-7.55081
▁sister	-7.55684
▁borrow	-7.55774
▁ala	-7.55799
▁rice	-7.56269
ini	-7.56658
▁make	-7.57699
▁swa	-7.58174
▁father	-7.58545
▁Are	-7.58915
ng	-7.59128
▁kɨkɨ	-7.60069
▁vavalake	-7.6057
ra	-7.60638
▁dog	-7.60656
▁katoase	-7.6167
▁has	-7.61861
st	-7.63088
▁nai	-7.63107
▁family	-7.63563
▁yakay	-7.64112
▁singsi	-7.64253
▁maka	-7.64677
▁but	-7.65419
▁catch	-7.65618
▁lot	-7.65981
▁Who	-7.66339
▁about	-7.66648
kai	-7.66998
u	-7.67827
▁child	-7.68256
▁took	-7.68634
mo	-7.68734
ana	-7.69191
ring	-7.69631
▁Rukai	-7.69833
▁gako	-7.70295
▁Whe	-7.70352
ili	-7.70479
▁p	-7.70857
▁sun	-7.70941
▁amo	-7.70947
▁all	-7.71446
lease	-7.73088
▁she	-7.73279
é	-7.74589
▁laso	-7.75405
▁them	-7.75462
▁nao	-7.76288
▁nagane	-7.76825
dha	-7.77042
▁ikai	-7.77325
▁tomorrow	-7.77678
▁makanaelre	-7.78073
ai	-7.78655
olo	-7.78922
ya	-7.79539
▁long	-7.79643
▁sinsi	-7.80036
▁Okay	-7.80059
▁hunting	-7.80143
▁kela	-7.80289
▁eat	-7.80667
ro	-7.81679
▁taka	-7.81751
p	-7.82616
dra	-7.82877
nger	-7.82886
▁amani	-7.8299
▁does	-7.83793
▁pen	-7.83956
ly	-7.84904
b	-7.8549
▁mani	-7.85604
nay	-7.85714
lri	-7.86163
▁just	-7.86189
▁help	-7.86194
▁Hello	-7.86196
▁away	-7.862
▁taopongo	-7.86226
▁mosowa	-7.8623
▁more	-7.87796
ange	-7.88448
▁uncle	-7.88767
▁She	-7.8878
▁Koi	-7.89622
ather	-7.90025
▁return	-7.90078
▁Kui	-7.9008
nge	-7.90319
l	-7.90742
▁kadrowa	-7.91768
▁years	-7.91769
pa	-7.91956
kɨ	-7.92064
▁/	-7.92145
si	-7.92438
▁also	-7.92805
▁let	-7.93076
to	-7.93511
▁ama	-7.938
▁Can	-7.9412
▁Moni	-7.9415
▁been	-7.94366
▁trap	-7.94468
▁clothes	-7.9551
▁now	-7.96169
▁iké	-7.9659
▁lend	-7.9691
▁Muni	-7.96913
▁sweet	-7.9692
▁ababay	-7.96925
▁too	-7.97467
lo	-7.97478
▁as	-7.97564
ce	-7.97794
h	-7.98105
▁man	-7.98174
▁their	-7.98344
▁look	-7.9838
▁sia	-7.98602
iyakay	-7.9977
▁forgot	-7.99775
th	-8.00298
▁were	-8.00876
▁good	-8.01246
▁money	-8.01247
in	-8.01795
▁house	-8.02254
ba	-8.02719
;	-8.02726
▁give	-8.02737
▁angato	-8.03111
▁work	-8.04237
▁kini	-8.0446
."	-8.05411
ikay	-8.05566
ch	-8.05595
ur	-8.06507
▁O	-8.06688
▁bottle	-8.07325
▁what	-8.07325
▁lunch	-8.07326
k	-8.07605
nic	-8.07701
▁ni	-8.08165
▁m	-8.08665
▁clean	-8.0893
▁c	-8.09051
▁put	-8.09314
▁k	-8.09536
ɨ	-8.09712
eth	-8.10152
▁prey	-8.10513
▁kwani	-8.10601
▁any	-8.1169
▁po	-8.11704
▁play	-8.11888
▁Elrenge	-8.12146
▁they	-8.12267
▁live	-8.12654
▁tara	-8.12916
▁dreele	-8.13694
▁iloko	-8.13755
▁Balenge	-8.13805
▁how	-8.13852
▁makalra	-8.13933
▁hot	-8.14016
▁left	-8.15494
al	-8.15694
en	-8.1601
miya	-8.16715
▁kaka	-8.17204
▁who	-8.17218
▁indigenous	-8.17218
▁kavay	-8.17446
▁saw	-8.17579
▁th	-8.17924
ava	-8.18427
pi	-8.18781
bo	-8.19042
▁or	-8.19591
▁speak	-8.19644
▁mia	-8.20095
▁madro	-8.20315
▁kwa	-8.20568
▁cam	-8.2061
apa	-8.20807
▁fishing	-8.21272
▁eraser	-8.21492
kay	-8.21755
▁mother	-8.22569
▁kid	-8.22972
▁tree	-8.23321
▁frog	-8.23339
"	-8.23411
iyae	-8.23671
ngo	-8.2399
▁walk	-8.24131
▁cold	-8.24234
▁visit	-8.24479
▁bus	-8.24557
▁omiki	-8.24994
▁sya	-8.25232
▁iyo	-8.25454
▁caili	-8.26223
ge	-8.26228
f	-8.26286
▁vegetables	-8.26639
▁nomi	-8.26762
▁mountains	-8.26799
▁basket	-8.2713
▁Tanebake	-8.28179
▁every	-8.28185
▁each	-8.28212
▁call	-8.28433
▁kiname	-8.28759
aka	-8.28856
▁nakowa	-8.28935
ke	-8.29804
▁kadroa	-8.29872
▁over	-8.30165
aw	-8.30282
▁wash	-8.30432
▁mosoane	-8.30452
▁after	-8.30631
▁grandmother	-8.31182
▁Don	-8.31529
▁In	-8.32613
ga	-8.32964
▁daane	-8.33024
▁Wh	-8.33054
▁cekele	-8.33079
▁language	-8.33104
▁Did	-8.34153
▁big	-8.34158
▁nakoane	-8.34413
ca	-8.34446
▁sawvalay	-8.34452
ingi	-8.35641
▁interview	-8.36224
▁already	-8.36228
▁if	-8.36297
▁rain	-8.37399
▁amia	-8.37676
▁ba	-8.37893
▁young	-8.38118
ongolo	-8.38243
▁should	-8.38257
▁into	-8.38349
▁amiya	-8.39027
▁tell	-8.39049
nomi	-8.39201
▁boys	-8.39351
ala	-8.39579
▁S	-8.39845
▁Teacher	-8.40502
▁That	-8.40504
▁raining	-8.40778
▁later	-8.40907
▁poa	-8.41332
▁boy	-8.41987
▁manema	-8.42089
he	-8.42094
▁naw	-8.42324
▁mus	-8.42736
▁these	-8.42908
▁da	-8.43108
▁ca	-8.43138
ké	-8.4327
▁moso	-8.43331
lre	-8.43395
▁why	-8.43906
▁say	-8.44295
lra	-8.44715
▁teach	-8.44911
▁bicycle	-8.44972
▁women	-8.44972
▁nyani	-8.44973
▁names	-8.45077
▁please	-8.4508
▁paiso	-8.4509
▁agi	-8.45174
▁male	-8.45189
day	-8.45426
▁mosoa	-8.45438
▁grow	-8.45541
pe	-8.4578
▁brothers	-8.46121
go	-8.4637
▁tama	-8.46854
▁whi	-8.47218
▁bamboo	-8.47285
▁find	-8.47286
▁learn	-8.47287
▁margi	-8.47291
▁because	-8.47317
▁kaivai	-8.47355
▁sell	-8.47369
de	-8.47402
▁only	-8.47488
▁doing	-8.47665
lro	-8.47693
▁nakoa	-8.47763
alra	-8.4794
ri	-8.48036
ci	-8.48247
▁langai	-8.48414
▁Thank	-8.48577
▁kane	-8.48603
me	-8.48721
law	-8.49457
▁outside	-8.49596
▁Taitung	-8.49651
▁first	-8.49651
▁swimming	-8.49652
▁fell	-8.49652
▁cut	-8.49653
▁Com	-8.49663
▁really	-8.49668
ae	-8.4974
▁talk	-8.4991
▁again	-8.50169
be	-8.50867
▁ani	-8.51136
▁traps	-8.51474
▁head	-8.51476
▁ngi	-8.51615
had	-8.51865
▁delicious	-8.52076
▁motorcycle	-8.52076
▁boar	-8.5209
▁open	-8.52093
▁hit	-8.5214
▁compet	-8.52281
▁On	-8.52291
▁leave	-8.52771
▁solate	-8.52852
▁chicken	-8.53504
fter	-8.53967
▁vai	-8.54426
ali	-8.54523
▁Go	-8.5456
▁umbrella	-8.5456
▁class	-8.54567
ill	-8.54685
▁fly	-8.54718
▁yourself	-8.54718
v	-8.54718
▁sisters	-8.54842
▁manemane	-8.54848
▁Pu	-8.55278
▁takoraoro	-8.55418
ale	-8.55439
ino	-8.55513
▁ti	-8.55994
▁Ka	-8.56507
es	-8.56635
▁tall	-8.56964
▁ask	-8.57139
▁fields	-8.57482
kwa	-8.57961
▁wear	-8.58236
▁fruit	-8.58424
ngi	-8.58801
not	-8.5908
▁afternoon	-8.59723
▁dollars	-8.59723
▁grass	-8.59726
▁Laoco	-8.59731
▁still	-8.59732
▁toramoro	-8.59736
▁Sure	-8.59737
▁food	-8.59749
▁off	-8.5976
▁while	-8.59802
▁night	-8.60057
c	-8.6058
▁love	-8.60686
isi	-8.61042
▁dha	-8.61693
▁br	-8.62268
▁group	-8.62409
▁carry	-8.6243
ano	-8.62547
▁pick	-8.62903
▁birds	-8.63032
adha	-8.63237
▁cengele	-8.63528
▁drosa	-8.63595
▁Tak	-8.63824
▁ana	-8.6419
▁mene	-8.64239
able	-8.64713
▁loka	-8.64723
▁Takanaw	-8.65166
▁drink	-8.65166
▁running	-8.65167
▁nyaso	-8.65167
▁station	-8.65168
▁sha	-8.65198
▁Lri	-8.65231
adhi	-8.65236
no	-8.65335
▁asked	-8.65449
▁K	-8.65681
▁pi	-8.65873
▁cooked	-8.66255
ose	-8.6634
ten	-8.66671
mita	-8.66863
▁dra	-8.66972
raditional	-8.68004
▁lalaso	-8.6801
▁sky	-8.6803
▁sesane	-8.68106
bi	-8.68181
▁siblings	-8.68208
▁loiya	-8.68237
co	-8.68305
▁siya	-8.68586
▁things	-8.68785
▁bit	-8.68851
dre	-8.68985
▁languages	-8.69491
gi	-8.69687
ara	-8.69999
▁va	-8.70089
▁men	-8.70269
ld	-8.7031
▁lacenge	-8.70421
▁cloud	-8.70923
▁payso	-8.70978
▁Du	-8.70984
▁mikake	-8.71258
ango	-8.71356
imiya	-8.71513
▁mom	-8.71746
▁Da	-8.72029
▁eh	-8.72355
▁taiya	-8.72394
oa	-8.72742
yana	-8.73395
▁hunt	-8.73541
ow	-8.73573
ling	-8.736
▁textbook	-8.73931
▁five	-8.73937
▁train	-8.73945
▁far	-8.73946
▁vaiyana	-8.73968
▁wine	-8.73978
▁Kako	-8.74384
▁line	-8.745
▁kya	-8.74673
▁mathariri	-8.74878
▁1	-8.75332
▁nay	-8.75383
▁kikai	-8.75681
▁where	-8.75737
▁turn	-8.76036
▁thank	-8.76072
ar	-8.76853
▁female	-8.77032
▁great	-8.77037
▁potatoes	-8.77047
▁bought	-8.77051
ck	-8.77164
igo	-8.77396
ase	-8.77523
ani	-8.77562
ami	-8.77582
as	-8.77729
▁sana	-8.77876
ipi	-8.78134
name	-8.78548
ate	-8.78916
▁nakay	-8.79072
ho	-8.79205
▁twa	-8.79507
avai	-8.79996
▁church	-8.80232
▁record	-8.80232
▁living	-8.80236
▁sawalay	-8.80243
▁dad	-8.80272
▁foot	-8.80319
▁tadrosa	-8.80409
iyane	-8.80457
▁mama	-8.80733
▁care	-8.80822
▁pack	-8.80825
▁aga	-8.80872
▁full	-8.80883
▁nako	-8.81785
ha	-8.81831
▁elder	-8.82448
▁book	-8.82492
ting	-8.82595
▁spo	-8.82656
lini	-8.82701
▁friend	-8.82979
▁hundred	-8.83538
▁wife	-8.83538
▁smell	-8.83538
▁little	-8.8354
▁happy	-8.8355
▁dri	-8.8366
▁late	-8.83702
▁tea	-8.83752
aolai	-8.84237
▁students	-8.8428
▁ngo	-8.84666
▁swing	-8.84724
angi	-8.85085
ong	-8.85151
▁iniane	-8.85171
A	-8.85345
▁sing	-8.8546
▁tak	-8.85487
▁red	-8.85512
api	-8.85605
ao	-8.85614
▁dry	-8.85751
▁silape	-8.85944
▁side	-8.85944
▁kadro	-8.86051
oko	-8.86193
▁ina	-8.86367
oco	-8.86876
▁Laucu	-8.86957
▁future	-8.86957
▁kaiasaa	-8.86958
▁Bu	-8.86959
▁yet	-8.86979
▁madalame	-8.87009
▁hole	-8.87023
▁acilay	-8.87046
ay	-8.8708
▁door	-8.87136
▁kaingo	-8.87322
▁tamali	-8.87392
▁agili	-8.87432
▁ball	-8.87475
▁kind	-8.87669
▁snakes	-8.87683
▁sit	-8.87807
▁arakay	-8.87907
▁wathingale	-8.88199
aiso	-8.88507
▁C	-8.88667
▁taw	-8.88721
▁sesa	-8.889
▁idra	-8.88931
▁takes	-8.88962
da	-8.89097
▁pato	-8.89124
eaea	-8.8937
the	-8.89562
iso	-8.89703
▁stand	-8.90226
der	-8.90278
▁morning	-8.90497
▁Everyone	-8.905
▁kaykameane	-8.90501
▁sakora	-8.90502
▁mangeale	-8.90504
awkay	-8.90524
▁could	-8.90527
▁warm	-8.9059
▁ate	-8.90691
agi	-8.90716
▁share	-8.90736
ought	-8.91027
▁thingale	-8.91123
cengele	-8.91454
▁sleep	-8.91455
▁mata	-8.91603
▁classmates	-8.91787
rry	-8.92178
ngɨ	-8.92202
▁langay	-8.92905
▁madraw	-8.93072
▁mountain	-8.93124
▁tali	-8.93205
grown	-8.93324
▁de	-8.93367
:	-8.94138
▁wind	-8.94158
▁Wait	-8.94167
▁knife	-8.94167
▁remember	-8.94167
▁short	-8.94167
▁zoo	-8.94167
▁close	-8.94167
▁maelanenga	-8.94169
▁malimeme	-8.9417
▁Today	-8.94171
▁feel	-8.94177
▁spring	-8.94247
▁stop	-8.943
▁well	-8.94367
kane	-8.9438
▁anea	-8.94464
il	-8.94525
ele	-8.9455
▁soil	-8.94583
▁peoples	-8.94638
▁other	-8.94727
ici	-8.94875
▁aneane	-8.95076
▁iniya	-8.95153
▁sigo	-8.95155
▁either	-8.952
piya	-8.95236
▁cat	-8.95251
▁read	-8.95379
▁ino	-8.95388
aina	-8.95647
aki	-8.95814
▁her	-8.96281
▁hat	-8.96488
mao	-8.96809
▁l	-8.97479
▁kwane	-8.97502
▁kakodhane	-8.97631
ete	-8.97669
owa	-8.97771
▁thing	-8.97777
▁understand	-8.97977
▁corn	-8.97977
▁Vaaho	-8.97978
▁slowly	-8.97978
▁Kaku	-8.97979
▁stall	-8.9798
▁sabao	-8.97981
▁paper	-8.98022
▁rod	-8.98092
▁pull	-8.98135
▁pro	-8.98457
!"	-8.98694
▁ceele	-8.99292
▁bo	-8.9937
▁ga	-8.99626
▁omaomase	-9.00088
▁baskets	-9.0012
ness	-9.00232
▁year	-9.00552
▁fall	-9.00825
▁culture	-9.00868
▁mak	-9.01233
cer	-9.01269
▁end	-9.01392
▁wacekecekele	-9.01927
apobaka	-9.01938
▁butterflies	-9.01938
▁dinner	-9.01938
▁four	-9.01939
▁before	-9.01939
▁yesterday	-9.01939
▁woman	-9.01942
▁wood	-9.01942
▁dishes	-9.01949
▁Grandma	-9.01963
▁green	-9.01981
▁own	-9.02028
Ase	-9.0203
▁plane	-9.02041
▁Sha	-9.02113
ono	-9.02274
iloko	-9.02708
▁takali	-9.02874
inako	-9.02894
oto	-9.03096
▁du	-9.03163
▁friends	-9.03214
▁ono	-9.03375
▁use	-9.04151
ter	-9.04296
▁wailoko	-9.05129
▁malri	-9.05318
?"	-9.05325
▁study	-9.05785
▁kia	-9.0582
▁wait	-9.05826
▁Lavorase	-9.06062
▁karadrare	-9.06062
▁typhoon	-9.06062
▁twenty	-9.06062
▁children	-9.06064
▁owl	-9.06071
▁somewhere	-9.06082
▁floor	-9.06087
▁kaido	-9.0609
▁walromay	-9.06144
▁iday	-9.06188
imperatives	-9.06313
▁tatolro	-9.06322
▁So	-9.06465
▁both	-9.06503
▁soon	-9.06546
▁near	-9.06622
▁lini	-9.06624
▁comes	-9.06832
▁alra	-9.06881
▁miya	-9.06971
swa	-9.07102
▁amali	-9.0718
▁tolro	-9.07365
ola	-9.0755
▁hongo	-9.07578
kake	-9.07645
▁kala	-9.07965
▁net	-9.07973
dhe	-9.08007
cenge	-9.08014
mado	-9.0805
▁naiya	-9.08178
▁laka	-9.08275
▁kené	-9.08331
tel	-9.08386
▁arriv	-9.08602
olro	-9.08755
▁Th	-9.0876
rts	-9.0897
on	-9.09027
olri	-9.09037
olra	-9.09103
▁tokolro	-9.09178
anga	-9.0968
cal	-9.09787
sh	-9.10114
▁touch	-9.10134
▁cayli	-9.10283
iyo	-9.10313
▁ar	-9.10329
▁river	-9.10358
▁run	-9.10363
]	-9.10363
▁Kaohsiung	-9.10363
▁introduce	-9.10363
▁pound	-9.10363
joy	-9.10364
▁summer	-9.10364
▁hold	-9.10384
▁else	-9.104
or	-9.10508
▁taste	-9.10514
▁gre	-9.10589
▁tangea	-9.10762
dro	-9.10848
▁sick	-9.10969
▁*	-9.11015
palr	-9.12417
cɨ	-9.12425
▁way	-9.1282
▁wakela	-9.13114
▁rest	-9.13233
▁sito	-9.13485
▁made	-9.14117
ia	-9.14119
aini	-9.14205
▁piece	-9.14286
▁vaeva	-9.14572
▁burn	-9.1478
▁bava	-9.14802
ould	-9.14807
q	-9.1485
▁Lavurase	-9.14858
▁Taipei	-9.14858
▁quickly	-9.14858
▁shoot	-9.14858
▁warehouse	-9.14859
▁right	-9.14864
▁aracɨ	-9.14867
▁eea	-9.14938
▁ho	-9.15002
▁myself	-9.15049
▁okay	-9.15183
▁table	-9.15288
▁sold	-9.15491
moa	-9.15598
▁konako	-9.15698
▁makasi	-9.15742
▁ya	-9.1589
▁lay	-9.16097
▁Ko	-9.161
▁lavavalake	-9.16387
moso	-9.16421
▁b	-9.16481
▁seem	-9.16491
▁tina	-9.16613
other	-9.16897
ata	-9.16993
▁péso	-9.1732
▁arakai	-9.17406
ry	-9.17854
0	-9.17931
top	-9.17951
▁bird	-9.18155
▁10	-9.18378
▁student	-9.18517
▁namɨ	-9.18644
rough	-9.1902
▁harvest	-9.19308
▁La	-9.19527
▁Ngodradrekay	-9.19565
▁makecelre	-9.19565
▁usually	-9.19565
▁jump	-9.19565
▁millet	-9.19566
▁bunch	-9.19568
▁toilet	-9.19568
▁beautiful	-9.19582
ribal	-9.19587
▁éni	-9.19633
▁city	-9.19633
▁aliso	-9.1965
▁acini	-9.19658
lent	-9.1966
▁ocao	-9.19749
▁ilata	-9.19766
▁thin	-9.19802
lata	-9.19845
▁change	-9.19862
ika	-9.19957
▁gili	-9.19991
▁hands	-9.20265
▁front	-9.20281
▁Arasɨ	-9.20283
hi	-9.20421
lriho	-9.20486
obo	-9.20589
▁madhao	-9.20694
dri	-9.21165
ima	-9.21771
ecenge	-9.21924
cilri	-9.22039
ake	-9.22272
sɨ	-9.22279
▁nut	-9.22549
▁odale	-9.22554
lisi	-9.2273
▁vo	-9.22963
mane	-9.23031
for	-9.23153
nd	-9.23172
▁ila	-9.23252
oho	-9.23387
▁laiya	-9.23407
ene	-9.2343
▁classmate	-9.23455
▁snake	-9.23457
vi	-9.23478
ngana	-9.2361
▁vaga	-9.23728
one	-9.23755
tle	-9.23784
aelre	-9.23785
llow	-9.23799
boro	-9.23993
▁competition	-9.24504
▁doctor	-9.24504
▁something	-9.24504
▁Takanao	-9.24505
▁black	-9.24505
▁vaaho	-9.2451
▁box	-9.24512
▁member	-9.24518
▁evening	-9.24571
▁feed	-9.24572
▁taught	-9.2462
▁coat	-9.24632
▁roof	-9.24699
▁ico	-9.24711
▁di	-9.24718
▁longai	-9.24782
ty	-9.25014
▁tai	-9.25179
▁government	-9.25256
▁eggs	-9.25297
▁rainy	-9.25502
eve	-9.25616
▁Ini	-9.25917
kaw	-9.26177
▁tako	-9.26246
▁soko	-9.26603
age	-9.26666
ent	-9.26834
▁coming	-9.27249
▁ea	-9.27266
lr	-9.27299
▁momo	-9.27428
kalra	-9.27504
▁base	-9.27728
▁lalake	-9.27864
ready	-9.28009
▁kone	-9.28087
▁kisalro	-9.28106
▁enter	-9.28316
▁koso	-9.28374
▁lrima	-9.28413
enge	-9.2849
odho	-9.28541
teen	-9.2856
▁vegetable	-9.28657
▁place	-9.28718
▁song	-9.29052
▁cook	-9.29173
iakay	-9.29319
asa	-9.2952
The	-9.29603
▁cheap	-9.29643
▁Taiwan	-9.29645
yako	-9.29646
▁Alright	-9.297
▁broken	-9.297
▁hometown	-9.297
▁swim	-9.297
otobay	-9.297
▁anything	-9.297
▁follow	-9.297
▁riverside	-9.29709
eat	-9.29758
▁Usao	-9.29762
▁olriho	-9.2982
▁bag	-9.29878
▁May	-9.29902
▁U	-9.29923
▁myaso	-9.30034
ama	-9.30052
▁T	-9.30188
▁around	-9.30237
▁paka	-9.30365
▁wada	-9.30377
▁manini	-9.30384
ita	-9.30556
▁mango	-9.3069
awbo	-9.30712
▁sp	-9.30721
▁bow	-9.30758
ced	-9.30803
▁g	-9.30985
oso	-9.31113
elre	-9.31388
ikai	-9.31724
eke	-9.31871
uc	-9.31994
id	-9.32383
▁asi	-9.3279
ble	-9.3292
oilri	-9.32938
apo	-9.32959
amani	-9.3331
▁alopo	-9.33527
▁window	-9.33699
adraw	-9.33792
▁maongo	-9.33837
lay	-9.33838
▁girl	-9.34084
▁miss	-9.341
belenge	-9.34506
▁cekecekele	-9.34768
rate	-9.34775
osa	-9.34777
▁cloth	-9.34881
▁vi	-9.34907
▁tatava	-9.35064
▁taro	-9.35095
▁potato	-9.35152
▁than	-9.35163
▁autumn	-9.3518
▁hospital	-9.3518
▁pineapple	-9.3518
▁tatakesikesiya	-9.3518
▁Mooni	-9.3518
▁holiday	-9.3518
▁mouth	-9.3518
▁olopo	-9.3518
▁Usau	-9.35185
▁ababai	-9.35188
▁steam	-9.3519
ongo	-9.35191
▁rock	-9.35192
▁number	-9.35199
hung	-9.352
▁marimora	-9.35202
lthough	-9.35225
▁tédra	-9.35243
eme	-9.35359
▁part	-9.35366
▁bekela	-9.35398
▁inside	-9.35504
▁aci	-9.35634
▁hon	-9.35687
▁Lo	-9.35762
▁fle	-9.35891
odo	-9.35922
▁navate	-9.36019
ride	-9.36134
▁same	-9.36166
▁amwa	-9.36318
ine	-9.36361
▁seed	-9.36461
langay	-9.36482
▁iki	-9.36673
▁Here	-9.36693
▁plu	-9.3696
mos	-9.371
kali	-9.37144
oth	-9.37299
ice	-9.37453
ela	-9.37651
tolro	-9.37671
▁sika	-9.37694
▁toki	-9.38474
▁days	-9.38689
and	-9.38771
▁chop	-9.39092
▁stick	-9.39228
▁mɨ	-9.39277
▁light	-9.39393
▁ha	-9.39442
▁chat	-9.3955
▁inya	-9.39565
rt	-9.39695
kolo	-9.398
▁ango	-9.40193
acase	-9.40935
▁identi	-9.40966
▁His	-9.40978
▁MRT	-9.40978
▁didilrongo	-9.40978
▁dragonflies	-9.40978
▁husband	-9.40978
▁immediately	-9.40978
▁ipoingaw	-9.40978
▁married	-9.40978
▁Cangale	-9.40979
▁lregelrege	-9.40979
▁possible	-9.40979
▁video	-9.40979
▁hard	-9.40979
lower	-9.40979
▁kibolro	-9.40979
▁dirty	-9.4098
collective	-9.40981
ipasolriya	-9.40982
▁classroom	-9.40996
▁lra	-9.41001
▁lrabo	-9.41023
lebe	-9.41029
▁never	-9.41039
▁weaving	-9.41041
▁maposale	-9.41069
ang	-9.41073
▁total	-9.41112
ised	-9.41141
yard	-9.41143
▁bee	-9.41146
lang	-9.41298
oalay	-9.41346
▁tila	-9.41359
dle	-9.41425
▁lwangai	-9.41464
▁kamadha	-9.41504
▁minutes	-9.41661
idha	-9.41788
▁esi	-9.41797
▁toalay	-9.41849
lralra	-9.42147
nɨ	-9.42585
I	-9.426
mwa	-9.42725
▁bees	-9.42732
adringi	-9.42783
00	-9.4288
▁elders	-9.42881
ic	-9.42997
▁lrika	-9.43002
▁saovalay	-9.43043
iyaw	-9.43141
▁saka	-9.4319
oca	-9.43388
▁fruits	-9.43463
▁set	-9.43518
▁sir	-9.43605
▁pelaela	-9.43631
▁seven	-9.44129
▁frogs	-9.44442
▁wata	-9.44656
elaela	-9.44764
draw	-9.45039
▁aongane	-9.45118
molo	-9.45233
dho	-9.45534
balre	-9.4557
▁doo	-9.45593
▁bos	-9.45927
ré	-9.46058
▁bwa	-9.46221
oro	-9.46401
ece	-9.46443
round	-9.46477
▁gro	-9.46728
▁meet	-9.46955
▁aso	-9.46986
8	-9.47134
▁Hav	-9.47134
▁Lavakaw	-9.47134
▁Was	-9.47134
▁Yingcoming	-9.47134
▁ancestors	-9.47134
▁breakfast	-9.47134
▁enough	-9.47134
▁problem	-9.47134
▁barongolo	-9.47134
▁blue	-9.47134
▁invite	-9.47135
▁listen	-9.47136
▁market	-9.47136
▁lasito	-9.47141
▁road	-9.47141
▁body	-9.47148
▁grandpa	-9.47149
▁talaisi	-9.4715
▁ranch	-9.4716
▁batoko	-9.47172
omece	-9.47174
▁Be	-9.47202
▁lrimaka	-9.47346
▁sweeping	-9.47353
▁sw	-9.47413
▁naganeini	-9.47429
▁clothing	-9.47439
doko	-9.47491
▁hear	-9.47581
▁pas	-9.47639
ila	-9.47671
▁lre	-9.4768
▁bad	-9.47847
langai	-9.48024
▁nomiane	-9.48026
▁sovlé	-9.48084
amalra	-9.48097
oli	-9.48265
▁kayngo	-9.48353
▁ear	-9.48569
▁kamani	-9.4861
▁throw	-9.48669
polra	-9.48771
▁latadre	-9.49191
▁koli	-9.49299
▁saowalai	-9.49334
▁mind	-9.49348
▁kné	-9.49361
est	-9.4944
lringa	-9.49538
ally	-9.49636
side	-9.49692
▁chickens	-9.4985
self	-9.5
idhe	-9.50003
made	-9.50057
50	-9.50237
▁room	-9.50281
▁lribate	-9.50288
ping	-9.50334
▁says	-9.50344
▁aimaka	-9.50546
1	-9.50598
nako	-9.50657
alri	-9.50686
room	-9.50763
▁wil	-9.50864
▁nia	-9.51192
vale	-9.51694
pɨ	-9.51705
drosa	-9.51725
▁lama	-9.5187
sipi	-9.52099
▁omo	-9.52127
colo	-9.5229
gako	-9.52293
▁arrow	-9.52488
ad	-9.52495
cai	-9.52515
pela	-9.52547
▁egg	-9.52641
▁dro	-9.5267
▁baai	-9.52798
▁break	-9.53212
▁tired	-9.53282
▁ok	-9.53298
▁nyane	-9.53327
▁watch	-9.53421
▁malrigili	-9.53539
▁Taito	-9.53659
▁Masegesege	-9.53693
▁Penghu	-9.53693
▁further	-9.53693
▁welcome	-9.53693
▁cookies	-9.53693
▁hurt	-9.53693
▁handsome	-9.53696
▁stories	-9.53697
▁block	-9.53699
▁thirty	-9.537
▁angry	-9.53703
▁under	-9.53703
▁Paiwan	-9.53703
▁white	-9.53706
▁stone	-9.53707
▁color	-9.53708
rchi	-9.53713
iloka	-9.53714
▁keep	-9.53714
▁grandma	-9.53721
terday	-9.53727
▁Island	-9.53732
▁fat	-9.53735
▁true	-9.53737
abayane	-9.53751
▁early	-9.53763
▁tacekecekelane	-9.53768
▁cokoi	-9.53772
▁vaha	-9.53782
▁police	-9.53795
▁salt	-9.53836
lɨ	-9.53838
▁wamece	-9.53866
▁aangai	-9.53887
▁sickle	-9.53933
▁start	-9.53955
▁harvested	-9.54057
▁animals	-9.54108
▁new	-9.54406
▁kipingi	-9.54411
▁kɨné	-9.54551
▁acilai	-9.54714
▁move	-9.54815
mwadringadringai	-9.54889
▁shoulder	-9.54984
ese	-9.55035
▁drele	-9.55065
ion	-9.55235
▁pork	-9.55288
▁books	-9.55365
▁hang	-9.55656
▁wakane	-9.55669
nganako	-9.55703
tiki	-9.55776
ant	-9.55848
ceele	-9.55927
▁bat	-9.56096
▁ice	-9.5634
▁ngya	-9.56517
▁obolo	-9.56604
▁tapa	-9.56877
▁land	-9.57061
drang	-9.57114
▁valro	-9.57369
tobi	-9.57394
▁meat	-9.57543
iti	-9.57692
▁ene	-9.57723
igh	-9.57776
▁ahakai	-9.57858
ongola	-9.58449
either	-9.58734
▁\	-9.58796
pongo	-9.5881
P	-9.58867
eng	-9.58908
▁pot	-9.59027
angato	-9.59032
lrima	-9.59315
val	-9.59511
enga	-9.59548
▁field	-9.59667
▁plant	-9.59669
lass	-9.59775
▁taboo	-9.59891
ver	-9.59908
anane	-9.60076
▁hand	-9.60089
▁parents	-9.602
ame	-9.60257
▁taha	-9.60398
▁Ngudradrekay	-9.60713
▁climb	-9.60713
▁forward	-9.60713
▁lobibilrili	-9.60713
▁loza	-9.60713
▁lunchbox	-9.60713
▁straight	-9.60713
▁eagle	-9.60713
▁expensive	-9.60713
▁everything	-9.60713
▁separate	-9.60713
▁kitchen	-9.60714
▁tatavi	-9.60715
▁baboy	-9.60716
▁leaving	-9.60716
▁forget	-9.60717
▁hair	-9.6072
▁honey	-9.60725
clock	-9.60731
▁won	-9.60732
▁dhona	-9.60733
▁cup	-9.60733
▁teeth	-9.60735
▁cavilini	-9.60766
▁peel	-9.60774
▁tohamoho	-9.60777
▁shake	-9.60783
▁office	-9.60818
▁passed	-9.60847
▁deer	-9.60858
▁taller	-9.6088
▁kacaw	-9.60882
▁todhao	-9.60884
▁different	-9.60908
▁story	-9.60943
▁tool	-9.60952
▁matter	-9.60966
▁malisi	-9.61143
▁En	-9.61234
▁stars	-9.61238
▁sleeping	-9.61262
▁kwi	-9.61268
boboro	-9.61281
pé	-9.61484
try	-9.61612
▁taelre	-9.61755
▁katoatoase	-9.61802
▁talialalay	-9.61802
▁goodbye	-9.61827
ac	-9.61874
odha	-9.61906
▁weight	-9.6194
▁nine	-9.62016
▁dane	-9.62197
lrapa	-9.62344
tic	-9.62476
oba	-9.62479
▁mati	-9.62674
▁inali	-9.62685
▁kɨ	-9.62722
iname	-9.62862
dingi	-9.63009
naw	-9.6301
▁pang	-9.63015
▁al	-9.63107
▁af	-9.63156
▁Mrino	-9.63239
▁f	-9.63499
omi	-9.63542
▁bl	-9.63707
▁unt	-9.63761
▁mw	-9.63774
▁lose	-9.63918
▁dria	-9.64027
ny	-9.64094
raid	-9.642
▁kao	-9.64513
miyaiya	-9.64518
sk	-9.64561
▁idai	-9.64591
aso	-9.64677
lip	-9.65023
▁erasers	-9.65044
anini	-9.65088
▁tra	-9.65182
ngane	-9.65202
▁longé	-9.6523
▁war	-9.65254
▁laceng	-9.65386
toko	-9.65476
▁draw	-9.65516
ito	-9.65613
wala	-9.65666
▁bai	-9.65797
kaava	-9.65814
nges	-9.65964
▁bolro	-9.65977
▁mobaliyo	-9.663
▁fl	-9.66415
▁tala	-9.66638
▁ran	-9.66748
▁store	-9.6692
▁mi	-9.66928
ip	-9.66928
vay	-9.67031
ous	-9.67048
kwadra	-9.671
▁hornet	-9.67197
▁kaiyasa	-9.67222
30	-9.67225
apece	-9.67232
▁kaange	-9.67331
killed	-9.6748
▁kaika	-9.67672
droma	-9.67726
sinsi	-9.67899
▁search	-9.67973
▁sweep	-9.67997
▁mya	-9.68086
▁stomach	-9.68262
▁Gilagilaw	-9.68262
▁Yakay	-9.68262
▁mahimoho	-9.68262
▁pumpkin	-9.68262
▁quilt	-9.68262
▁squirrel	-9.68262
▁tevelengae	-9.68262
▁winter	-9.68262
▁become	-9.68262
▁grain	-9.68262
▁samosakisakidra	-9.68264
▁happen	-9.68265
▁middle	-9.68267
▁walopo	-9.68278
▁matolrolo	-9.6828
▁adravane	-9.6828
▁knee	-9.68281
▁takawng	-9.68307
▁rope	-9.68334
▁idhai	-9.68354
rary	-9.68357
▁mogako	-9.68359
▁moadreke	-9.68373
▁lamanemane	-9.68376
drɨ	-9.68389
ball	-9.68403
▁sheep	-9.68407
laylay	-9.68407
▁Li	-9.68408
▁Uno	-9.68434
▁pidra	-9.68444
▁goat	-9.68447
▁nomiya	-9.68454
mikita	-9.6851
▁hunter	-9.68582
▁solraw	-9.68616
▁madho	-9.68627
▁yaki	-9.68639
▁sometimes	-9.68737
▁waiting	-9.68772
▁waigo	-9.68796
▁mra	-9.68874
▁takalra	-9.68898
▁path	-9.68913
ever	-9.68922
▁mala	-9.6895
▁meal	-9.68972
vail	-9.69061
▁At	-9.69092
▁pra	-9.69101
thade	-9.69223
ji	-9.69391
▁kaocae	-9.69423
abake	-9.69426
▁abéya	-9.6944
▁Taihoko	-9.69449
▁goes	-9.69513
▁thi	-9.69685
ah	-9.69718
▁sara	-9.69874
ity	-9.69966
▁mat	-9.69978
▁$20	-9.70047
skin	-9.70099
▁nor	-9.70139
onga	-9.70492
vake	-9.70529
▁dholro	-9.70577
▁wade	-9.70617
vala	-9.70743
langalangai	-9.70776
▁kisa	-9.70877
roko	-9.70904
▁bab	-9.70937
yae	-9.71177
▁kep	-9.7155
▁dae	-9.71712
robo	-9.71779
bɨrɨ	-9.71823
main	-9.71914
esa	-9.71989
▁soa	-9.7232
ained	-9.72506
oka	-9.72721
▁com	-9.72978
L	-9.73018
▁tong	-9.73236
rigo	-9.73479
adhaili	-9.73488
xi	-9.73498
▁dig	-9.73694
mali	-9.73866
bé	-9.74027
sivi	-9.74081
▁lai	-9.74147
▁omikikai	-9.74284
▁lie	-9.74409
edre	-9.74482
dreele	-9.74638
▁mawriva	-9.75036
▁adri	-9.75227
rab	-9.75358
▁guava	-9.75382
▁car	-9.75586
tter	-9.75666
cake	-9.75744
mia	-9.75753
▁sow	-9.75807
▁tap	-9.75848
amece	-9.75875
opo	-9.75934
aza	-9.76071
ug	-9.76132
kela	-9.76259
▁dis	-9.76266
▁lamalala	-9.76301
valri	-9.76367
▁small	-9.76369
pathagili	-9.76377
▁Grand	-9.76384
▁careful	-9.76389
▁Gr	-9.76421
▁organ	-9.76421
2	-9.76427
▁Cegaw	-9.76427
▁elephant	-9.76429
▁Tomorrow	-9.76429
▁found	-9.76429
▁mahimoha	-9.76429
▁pepper	-9.76429
▁zako	-9.76429
▁attract	-9.76429
▁customers	-9.76429
▁kaanaeni	-9.76429
▁spear	-9.76429
▁step	-9.7643
▁gun	-9.7643
▁20	-9.76431
▁emeeme	-9.76431
ouch	-9.76431
▁coop	-9.76432
▁twist	-9.76432
▁suppo	-9.76432
▁palrata	-9.76433
▁talropono	-9.76434
mbar	-9.76435
▁finger	-9.76436
▁high	-9.76436
▁stopped	-9.76437
▁divide	-9.76438
▁week	-9.7644
▁laimay	-9.76443
▁omase	-9.76444
▁laymay	-9.76444
▁wonder	-9.76446
phone	-9.76446
▁legeageay	-9.76446
▁fast	-9.76447
▁sapacapacasane	-9.76447
angiyadraw	-9.76448
▁ikakwa	-9.7645
▁sang	-9.76456
▁dance	-9.7646
▁ailangadha	-9.76478
▁think	-9.76486
▁surprised	-9.76491
malrimale	-9.7652
▁mitaane	-9.76542
▁flip	-9.7658
▁modaane	-9.7659
▁fern	-9.7661
▁topalra	-9.76611
▁eye	-9.76648
▁mine	-9.7666
▁oil	-9.76671
tive	-9.76721
▁kirimo	-9.76766
▁sasopisopilrane	-9.76771
▁kaynganay	-9.76797
▁meeting	-9.76798
▁cooking	-9.76865
lrisi	-9.76916
mɨcɨ	-9.76944
▁akisalro	-9.77007
▁lily	-9.77054
nganay	-9.77178
ap	-9.77263
cation	-9.77303
osen	-9.77442
▁lamo	-9.7746
cekele	-9.77544
▁bur	-9.77588
▁Ta	-9.77655
▁nosi	-9.77696
▁[	-9.7771
▁grandfather	-9.77712
ripe	-9.77735
▁Kay	-9.77922
▁Bo	-9.77977
angeange	-9.78074
led	-9.78217
▁itch	-9.78219
aca	-9.78236
soa	-9.78248
may	-9.7831
▁stu	-9.7832
▁namiya	-9.78436
pakane	-9.78471
valre	-9.78708
▁toma	-9.78931
▁kani	-9.79323
inga	-9.7943
▁pana	-9.79573
▁wake	-9.79665
bit	-9.79832
▁nowa	-9.8005
ibo	-9.80418
ngalrao	-9.80615
▁alaka	-9.80734
ud	-9.81123
dame	-9.81165
malra	-9.8139
fi	-9.81438
anani	-9.81529
oane	-9.81593
elra	-9.81604
wako	-9.81614
dhane	-9.82016
apia	-9.82103
ladha	-9.8212
lraw	-9.82157
▁tay	-9.82252
▁wet	-9.82284
▁pad	-9.82694
vane	-9.82796
pwa	-9.82807
owane	-9.82892
dy	-9.82973
vai	-9.83105
man	-9.83174
▁un	-9.83192
gai	-9.83251
enɨ	-9.83419
sia	-9.83586
ute	-9.83595
rib	-9.83599
▁pakisalro	-9.83629
▁tɨ	-9.83704
oape	-9.83943
▁langadha	-9.84028
tolo	-9.8413
alay	-9.84164
▁té	-9.84203
▁guy	-9.84238
▁minute	-9.84268
▁steal	-9.8431
▁bean	-9.84349
▁belenge	-9.84534
ture	-9.84558
▁bright	-9.8458
▁cool	-9.84603
hao	-9.84633
▁Mom	-9.84634
maka	-9.84874
icy	-9.84909
cele	-9.84924
rɨ	-9.84927
▁mara	-9.84949
ebe	-9.84977
pasolri	-9.85119
▁talragi	-9.85125
▁kadaengane	-9.85188
▁titina	-9.85191
bolrobolro	-9.85287
ridge	-9.85304
▁horn	-9.85319
acocaocao	-9.85322
stream	-9.85322
▁$5	-9.85322
▁Japanese	-9.85322
▁Ngodradrekai	-9.85322
▁ceremony	-9.85322
▁croquet	-9.85322
▁kongadavane	-9.85322
▁refrigerator	-9.85322
▁shrimp	-9.85322
▁sugar	-9.85322
▁thakongadavane	-9.85322
▁thunder	-9.85322
▁valisane	-9.85322
▁weapons	-9.85322
。	-9.85322
half	-9.85322
scree	-9.85322
▁chair	-9.85322
▁dark	-9.85323
▁daughter	-9.85323
▁occasion	-9.85323
▁purp	-9.85323
▁tahokoko	-9.85323
▁believe	-9.85323
▁barn	-9.85324
xactly	-9.85325
▁oranges	-9.85325
vaevaeva	-9.85325
▁straw	-9.85325
▁loangay	-9.85326
▁spouse	-9.85329
▁alopae	-9.85329
▁sawkoa	-9.85331
▁kalalekete	-9.85332
▁bu	-9.85338
▁lodhaa	-9.85339
▁filt	-9.85342
▁price	-9.85343
▁fine	-9.85362
pingi	-9.85371
▁carefully	-9.85378
▁tingitingi	-9.85392
▁bleed	-9.85396
▁lift	-9.85398
▁sabiki	-9.85405
▁mɨra	-9.85433
▁miyalri	-9.85443
▁taingea	-9.85445
▁def	-9.85452
▁Taic	-9.85457
hroom	-9.85465
▁finished	-9.85486
▁snail	-9.85489
▁pour	-9.85508
▁lwangay	-9.85512
cocobongo	-9.85528
wor	-9.85537
▁includ	-9.85596
▁squa	-9.85601
kisi	-9.85611
▁nakoni	-9.85635
▁valo	-9.8564
tely	-9.85645
▁el	-9.85668
malramalra	-9.85724
▁wamoa	-9.85769
▁missing	-9.85777
▁maelre	-9.85815
▁noon	-9.85869
▁liniane	-9.85948
easure	-9.85967
▁ang	-9.85977
omoko	-9.86024
▁aiya	-9.8603
▁toverevere	-9.86062
avava	-9.86119
▁pain	-9.86156
▁pin	-9.86171
▁aboriginals	-9.86297
ithi	-9.86304
▁apece	-9.86362
▁non	-9.86423
▁ara	-9.86446
▁saying	-9.86528
▁weave	-9.86558
▁hill	-9.86561
▁taboos	-9.86696
kisalro	-9.86704
▁wi	-9.86718
▁patoelre	-9.86752
▁kadrwa	-9.8679
▁pia	-9.87018
▁fr	-9.87126
▁nina	-9.87203
▁doro	-9.8725
ociya	-9.87286
lringi	-9.87311
miti	-9.87317
▁sila	-9.87322
abee	-9.87662
5	-9.87743
▁sour	-9.8777
▁soape	-9.87812
▁tomane	-9.87839
▁pant	-9.88019
dria	-9.881
stick	-9.88112
▁pango	-9.88125
urd	-9.88176
nail	-9.88274
kopa	-9.88291
sopate	-9.88313
▁others	-9.88328
house	-9.88329
kange	-9.88333
What	-9.8835
singsi	-9.88389
vila	-9.8848
alre	-9.88573
▁kongkoane	-9.88592
▁hook	-9.88599
▁ship	-9.88617
tomo	-9.88757
alopo	-9.88843
akena	-9.88922
bongo	-9.89194
kanekane	-9.8952
▁cr	-9.89611
▁pan	-9.89625
▁poko	-9.89922
rge	-9.89942
oda	-9.90018
▁mad	-9.90091
▁yi	-9.90148
ged	-9.9044
iniya	-9.9078
kodro	-9.91066
akada	-9.91487
vava	-9.91515
itovolri	-9.91587
ile	-9.92008
▁adringi	-9.92039
odra	-9.92057
▁kelanga	-9.92307
▁its	-9.92348
atha	-9.92486
▁bra	-9.92632
pono	-9.92698
▁bed	-9.9272
op	-9.92819
ment	-9.92935
nɨme	-9.92965
▁tana	-9.93008
ok	-9.9301
nenga	-9.93064
▁sap	-9.93349
kace	-9.93356
caeme	-9.93596
▁ci	-9.93641
ivi	-9.93826
▁kece	-9.93842
▁zhe	-9.93871
▁flower	-9.9403
Ipolo	-9.94036
▁able	-9.94221
▁mobeleng	-9.94245
omo	-9.94309
▁pl	-9.94361
taka	-9.94373
by	-9.94424
▁kawriva	-9.94441
bila	-9.9449
▁lani	-9.9451
ngimia	-9.94604
▁aboriginal	-9.9461
▁apologize	-9.94626
▁bark	-9.94809
▁kipo	-9.9489
ceela	-9.94944
▁ski	-9.94979
▁zoko	-9.95008
mangesale	-9.95076
depend	-9.95084
▁photograph	-9.95084
9	-9.95084
▁For	-9.95084
▁THSR	-9.95084
▁Tanobake	-9.95084
▁across	-9.95084
▁backpack	-9.95084
▁blessing	-9.95084
▁bloom	-9.95084
▁cabbage	-9.95084
▁centimeters	-9.95084
▁correct	-9.95084
▁fresh	-9.95084
▁heavily	-9.95084
▁marodrange	-9.95084
▁pheasant	-9.95084
▁prepare	-9.95084
▁rarokodrane	-9.95084
▁scythe	-9.95084
▁tingatingi	-9.95084
▁Before	-9.95084
▁Lavaoso	-9.95084
▁miyakakwa	-9.95084
▁pigeon	-9.95084
▁complete	-9.95084
▁sleeve	-9.95084
▁carrot	-9.95085
▁nyamo	-9.95085
▁bread	-9.95085
▁garden	-9.95085
▁human	-9.95085
▁maesale	-9.95085
▁matoase	-9.95085
▁cingpi	-9.95085
▁Kecelre	-9.95085
▁plain	-9.95085
▁*[	-9.95085
▁Madi	-9.95085
▁Pingp	-9.95085
▁kakorongo	-9.95085
twe	-9.95086
▁aikiedha	-9.95086
▁cards	-9.95087
tional	-9.95088
golagolay	-9.95089
▁kidringi	-9.95089
▁kameane	-9.95097
▁branch	-9.951
▁mwswa	-9.95101
▁louder	-9.95101
▁sharp	-9.95103
▁various	-9.95107
▁blow	-9.95108
▁nyama	-9.95111
▁broom	-9.95112
▁fire	-9.95115
▁wamalra	-9.95117
▁vacation	-9.95118
▁papacay	-9.95121
▁lrikape	-9.95122
▁dish	-9.95124
▁saseverane	-9.95131
▁coaw	-9.95146
▁ngwakai	-9.95146
rami	-9.95146
▁rake	-9.95157
▁Legeai	-9.95162
▁yacengecenge	-9.95165
ameamece	-9.95169
▁himself	-9.95179
dringay	-9.9519
▁Spe	-9.95191
▁moment	-9.95202
▁plowing	-9.95218
▁carried	-9.95219
lai	-9.95222
▁makocingalre	-9.95223
▁wedding	-9.95228
▁masa	-9.95253
▁obelenge	-9.95282
▁roll	-9.95285
cket	-9.95324
▁face	-9.95334
▁pig	-9.95357
▁sanaka	-9.95415
▁pile	-9.95475
▁hope	-9.95477
▁noama	-9.955
▁tinali	-9.95539
▁bend	-9.95576
▁cry	-9.95607
sako	-9.9562
▁aunt	-9.95628
iyanga	-9.95666
▁burning	-9.95696
▁horses	-9.95718
▁Ea	-9.95874
▁seat	-9.95906
bye	-9.95942
luck	-9.95956
akela	-9.96001
kadha	-9.96073
▁sting	-9.96115
angese	-9.9613
▁oh	-9.96142
rarobo	-9.96153
viva	-9.96264
▁beans	-9.96273
dromane	-9.96363
iva	-9.96383
▁guavas	-9.96384
▁chas	-9.96633
▁ngitalaisi	-9.96646
▁laolri	-9.96681
katha	-9.96828
▁lid	-9.96828
ration	-9.96887
sesa	-9.96957
▁ikadra	-9.97156
edhe	-9.97225
▁tele	-9.973
alrima	-9.9737
▁lr	-9.9748
rare	-9.97577
oki	-9.97925
▁orogo	-9.97965
kowa	-9.98005
▁dwa	-9.98359
vaivai	-9.9855
pava	-9.98568
oponoho	-9.98686
▁kakadroa	-9.98706
▁om	-9.98751
▁molebe	-9.98837
▁otobai	-9.98889
▁yell	-9.98923
aliki	-9.99059
▁Sal	-9.99131
▁kidremedreme	-9.99149
x	-9.99221
neli	-9.99299
pake	-9.99353
▁pay	-9.9946
▁bor	-9.99488
kidri	-10.0012
coming	-10.0033
momo	-10.0056
ian	-10.0074
▁vienɨ	-10.0084
idra	-10.0094
▁Vedai	-10.0095
▁madɨ	-10.0104
▁Tr	-10.0126
ance	-10.0133
where	-10.0137
kɨkɨ	-10.0144
▁kita	-10.0161
▁tw	-10.0169
adolro	-10.0213
lromay	-10.0217
now	-10.0217
ace	-10.0231
▁Ki	-10.0249
▁oha	-10.0251
koko	-10.0254
▁ika	-10.0262
▁bw	-10.0291
▁amoa	-10.037
▁aii	-10.0385
eane	-10.039
ers	-10.0392
▁tomo	-10.0394
tain	-10.0413
adavace	-10.0418
ledra	-10.043
sasingi	-10.0436
prin	-10.044
▁wakelanga	-10.0441
kets	-10.0448
atomane	-10.045
iae	-10.0468
ibongo	-10.0481
elrelre	-10.0492
rget	-10.0495
lrenge	-10.0496
▁aha	-10.05
pelaela	-10.0507
talia	-10.0511
bol	-10.0512
▁walra	-10.0514
▁Kacaw	-10.0523
daroro	-10.0525
boriginal	-10.0526
penge	-10.0532
▁ngia	-10.0544
▁akanea	-10.0546
inpici	-10.0552
aniname	-10.056
cegecege	-10.0567
odroli	-10.0586
▁Every	-10.0589
▁protect	-10.0589
▁wound	-10.059
▁Hu	-10.059
▁Rail	-10.059
▁Talrobalringi	-10.059
▁angrily	-10.059
▁cicavili	-10.059
▁community	-10.059
▁demedeme	-10.059
▁ghost	-10.059
▁maihange	-10.059
▁molregelrege	-10.059
▁mosquitoe	-10.059
▁observe	-10.059
▁restaurant	-10.059
▁sesesane	-10.059
▁village	-10.059
▁cross	-10.059
▁fifteen	-10.059
▁icongonga	-10.059
▁person	-10.059
▁crawl	-10.059
▁dhidhape	-10.059
▁bwathi	-10.059
▁sound	-10.059
▁whether	-10.059
siviri	-10.059
▁leaf	-10.059
▁meaning	-10.059
▁menanae	-10.059
pétha	-10.059
▁jar	-10.059
▁rinse	-10.0591
drepete	-10.0591
▁course	-10.0591
▁lritomane	-10.0591
▁akanekanea	-10.0591
▁witchc	-10.0591
▁Kacalrisiane	-10.0591
▁urinat	-10.0591
▁ooma	-10.0591
mavalrolo	-10.0591
▁free	-10.0591
▁mamangele	-10.0592
▁peaches	-10.0592
▁kɨnamɨ	-10.0592
ahaki	-10.0592
having	-10.0592
▁rainbow	-10.0592
▁boat	-10.0593
▁Legeane	-10.0593
▁belly	-10.0593
▁Momoni	-10.0593
▁dadavace	-10.0593
▁balrolane	-10.0594
▁alracedha	-10.0594
▁push	-10.0594
▁mapini	-10.0595
omawma	-10.0595
ight	-10.0596
▁nakwane	-10.0597
▁neck	-10.0597
▁mistaken	-10.0598
▁papia	-10.0598
▁amolangai	-10.0599
▁alraceni	-10.0599
▁stumble	-10.06
▁ripen	-10.0601
▁kopo	-10.0602
▁thought	-10.0602
▁timo	-10.0603
▁ngokay	-10.0603
▁pagay	-10.0603
▁thir	-10.0603
▁elderly	-10.0604
melo	-10.0605
▁important	-10.0608
▁amiyaikai	-10.0608
▁mapo	-10.0609
▁madalamako	-10.0609
▁nanini	-10.061
▁patelr	-10.0613
takaese	-10.0614
▁seniors	-10.0624
▁midra	-10.0626
▁fol	-10.0629
▁D	-10.063
▁eighty	-10.0631
▁flo	-10.0635
▁zikange	-10.0637
▁macolo	-10.0638
ache	-10.0647
▁saolri	-10.065
kacalrilrisiyana	-10.0651
▁nadroma	-10.0652
▁yakailo	-10.0652
ngodrosa	-10.066
Eve	-10.0662
geni	-10.0663
▁por	-10.0671
▁once	-10.0679
▁tonight	-10.0683
opa	-10.0692
nino	-10.0696
dhako	-10.0701
▁wasp	-10.0712
▁kaang	-10.0717
▁killed	-10.0736
▁Ngodra	-10.0736
lepe	-10.0742
long	-10.0743
▁hornets	-10.0748
▁tha	-10.0756
▁iko	-10.0765
▁kateme	-10.0765
ilape	-10.0766
adrava	-10.0768
▁taowana	-10.0771
iringi	-10.0777
ciya	-10.0779
tai	-10.0781
▁spa	-10.0782
▁bang	-10.0791
ongdo	-10.0793
▁kosi	-10.0806
pay	-10.0812
▁mwata	-10.082
inono	-10.0825
ft	-10.0826
▁koka	-10.0832
cela	-10.0854
▁pao	-10.0861
▁aim	-10.0868
▁pieces	-10.0875
kilalra	-10.0879
▁Ala	-10.088
▁cultures	-10.0899
▁eight	-10.0905
adra	-10.0907
▁te	-10.092
lake	-10.092
eep	-10.0931
act	-10.0933
▁koici	-10.0948
liali	-10.0957
visi	-10.0967
kelanga	-10.0987
gane	-10.0988
▁waodriodripi	-10.0993
▁dholrokali	-10.0994
▁egeege	-10.0996
▁cɨnglɨ	-10.0996
▁madha	-10.1014
▁mapelaela	-10.1021
▁vay	-10.1045
▁kapa	-10.1052
lraae	-10.106
oilringa	-10.1066
▁koiya	-10.1069
kisa	-10.1088
▁sango	-10.11
otobai	-10.1122
▁poelre	-10.1136
per	-10.1151
▁ngoa	-10.1158
py	-10.1168
valra	-10.117
olrao	-10.117
▁plants	-10.1174
say	-10.1195
▁50	-10.1195
pele	-10.1197
▁mialri	-10.1217
land	-10.1222
unt	-10.1222
▁pacase	-10.1241
▁bilibili	-10.1252
asi	-10.1265
▁trees	-10.1274
alro	-10.129
madha	-10.1298
adreke	-10.1301
▁Re	-10.1302
kakalra	-10.1315
fort	-10.1323
▁swaswa	-10.1329
pong	-10.1336
S	-10.1351
▁maela	-10.1369
▁mark	-10.1372
dress	-10.1373
latadre	-10.1376
piyani	-10.1384
para	-10.1386
▁gone	-10.1391
▁kanea	-10.1411
▁hoe	-10.1415
▁ad	-10.1425
from	-10.1428
angokai	-10.1435
▁odaodale	-10.1436
▁miti	-10.1447
idi	-10.1456
▁Man	-10.1473
yon	-10.1474
▁thili	-10.1475
up	-10.1476
▁palribolo	-10.148
▁makɨ	-10.1495
▁mabo	-10.1507
▁mako	-10.151
solate	-10.1517
daane	-10.1517
▁naganeli	-10.1542
fully	-10.1546
libi	-10.1553
B	-10.1558
▁six	-10.1576
ɨsɨ	-10.1585
ric	-10.1599
karo	-10.1607
aha	-10.1608
rongo	-10.1615
sal	-10.1629
ation	-10.1637
▁madhalame	-10.1643
lenga	-10.1645
▁pasi	-10.1668
▁miki	-10.1669
▁math	-10.1669
us	-10.1674
avo	-10.1684
bici	-10.169
like	-10.1691
▁spoon	-10.1701
yane	-10.1704
▁tobalre	-10.1715
bange	-10.172
▁real	-10.1721
▁yar	-10.1734
▁cave	-10.1742
▁waba	-10.1743
▁maso	-10.175
▁sasopisopilra	-10.1752
▁pu	-10.1758
ants	-10.1765
▁pito	-10.1771
▁show	-10.1775
▁alrace	-10.1783
▁tokoho	-10.1784
cause	-10.1786
lekete	-10.1789
kakecelre	-10.1791
kelakela	-10.1795
▁grand	-10.1795
ndigenous	-10.1797
▁soro	-10.18
▁overflow	-10.1804
▁2022	-10.1804
▁Han	-10.1804
▁Sunday	-10.1804
▁bariangalay	-10.1804
▁discount	-10.1804
▁injured	-10.1804
▁jacket	-10.1804
▁join	-10.1804
▁longolangoi	-10.1804
▁medicine	-10.1804
▁shocked	-10.1804
▁suddenly	-10.1804
▁throat	-10.1804
▁mokoné	-10.1804
▁monkey	-10.1804
▁scratch	-10.1804
▁ɨdé	-10.1804
avaevaehe	-10.1804
▁soccer	-10.1804
▁subway	-10.1804
▁sessa	-10.1804
▁Drekai	-10.1804
▁kinaocekel	-10.1804
▁weekend	-10.1804
▁salaongane	-10.1804
▁solasolate	-10.1804
▁vomit	-10.1804
▁aidolro	-10.1804
▁obere	-10.1804
▁adhadhame	-10.1804
▁silpe	-10.1804
▁palongo	-10.1804
▁dowry	-10.1804
▁enemy	-10.1804
▁hikoki	-10.1804
▁lamatakataka	-10.1804
▁talacenga	-10.1804
biabila	-10.1804
▁betakane	-10.1804
▁few	-10.1804
▁split	-10.1804
▁apokoa	-10.1804
▁ocia	-10.1804
▁adethe	-10.1804
▁dhipolo	-10.1804
vorasi	-10.1804
▁mix	-10.1804
▁omiiyae	-10.1804
▁bump	-10.1804
▁Moino	-10.1804
▁otaha	-10.1804
▁tangoco	-10.1805
▁twice	-10.1805
▁kaoti	-10.1805
▁cherry	-10.1805
▁suck	-10.1805
▁suff	-10.1805
▁loudly	-10.1805
▁count	-10.1805
ties	-10.1805
▁promise	-10.1805
▁bike	-10.1805
▁ngiabalay	-10.1806
▁relative	-10.1806
▁sakiké	-10.1806
osale	-10.1806
▁thaino	-10.1806
▁voice	-10.1806
▁kosianga	-10.1806
▁since	-10.1806
▁botolo	-10.1806
▁palraingi	-10.1806
Anaw	-10.1806
Panay	-10.1806
▁drapale	-10.1807
▁masongo	-10.1807
▁kibaka	-10.1807
▁wok	-10.1808
kadola	-10.1808
▁niyama	-10.1808
▁bakale	-10.1808
palalava	-10.1809
▁chili	-10.181
▁releas	-10.181
kelrete	-10.1812
▁lribange	-10.1813
▁customs	-10.1814
ahakiki	-10.1815
▁tinono	-10.1815
▁court	-10.1815
rotat	-10.1815
▁Takaw	-10.1817
ect	-10.1818
▁cheaper	-10.1818
boale	-10.1818
▁loasane	-10.1818
avelevele	-10.1818
▁lraili	-10.1819
▁stee	-10.1821
▁sarakaiya	-10.1821
▁moadringi	-10.1821
▁waste	-10.1822
akakwanga	-10.1822
▁onion	-10.1825
▁Loka	-10.1826
▁yowa	-10.1829
▁moagako	-10.1831
ach	-10.1833
▁mamap	-10.1835
ivoko	-10.1836
▁amiyaini	-10.1836
▁Sola	-10.1836
iyanini	-10.1839
V	-10.184
psobaka	-10.1844
Takao	-10.1848
makaela	-10.1848
▁mali	-10.1848
adhini	-10.185
▁cekelenai	-10.1851
▁agree	-10.1852
▁kaki	-10.1854
eneme	-10.1858
rious	-10.1872
cogo	-10.1878
▁sur	-10.1882
▁sobelebelenge	-10.1883
▁lamani	-10.1883
▁avili	-10.1892
icingi	-10.1893
▁pasodame	-10.1896
▁yathil	-10.1896
▁naiyana	-10.1899
kata	-10.1902
▁laws	-10.1914
▁kama	-10.1915
atho	-10.1916
▁dogs	-10.1916
▁sakada	-10.1923
▁wing	-10.1925
▁lriodale	-10.1929
▁flowers	-10.194
imi	-10.1951
▁kacalrisiya	-10.1955
▁lima	-10.1957
▁spi	-10.1967
▁maca	-10.1967
▁itara	-10.1971
▁danɨ	-10.1972
▁30	-10.1977
poalra	-10.198
▁aolro	-10.1982
missed	-10.199
▁walking	-10.1996
▁saabaw	-10.2001
▁sabaw	-10.2001
▁may	-10.2005
lu	-10.2014
▁kadho	-10.2024
gay	-10.2024
ibonga	-10.2025
▁stor	-10.2036
▁kedr	-10.2037
▁seeds	-10.2054
nest	-10.2054
▁kaongo	-10.206
▁Kai	-10.2063
becenge	-10.2063
▁leg	-10.2093
▁alro	-10.2102
▁saki	-10.2103
tongo	-10.2104
okai	-10.2109
ataka	-10.2112
kanɨ	-10.2119
▁mwani	-10.2119
▁eating	-10.2128
▁waodale	-10.2136
▁longer	-10.2164
soape	-10.2176
kala	-10.2178
acilri	-10.2181
thingale	-10.2183
pikay	-10.2188
▁cy	-10.2189
yams	-10.2192
roro	-10.2213
ung	-10.2227
kiyokai	-10.2244
ngé	-10.2245
▁times	-10.2247
mare	-10.2247
▁tokodrali	-10.2249
▁turns	-10.2256
▁biilanenga	-10.2265
▁lredreke	-10.2265
sand	-10.2266
▁tradro	-10.2267
▁drakerale	-10.2269
▁takane	-10.2274
nia	-10.2281
▁comp	-10.2281
kobo	-10.2291
swinging	-10.2294
ouse	-10.2301
ota	-10.231
▁As	-10.2313
amiso	-10.2323
▁arrive	-10.234
▁mov	-10.2343
riti	-10.2349
bla	-10.2354
iyana	-10.2359
bee	-10.2363
drele	-10.2363
▁tear	-10.2386
▁Thanks	-10.2403
pilri	-10.2408
ogo	-10.2419
ikaiya	-10.243
▁maci	-10.244
▁cap	-10.2445
ikela	-10.2472
lolo	-10.2489
papalra	-10.2503
ngedelane	-10.2505
▁age	-10.2512
sea	-10.2527
▁mon	-10.2535
imo	-10.2537
▁kiaseasene	-10.2538
▁yam	-10.2545
▁pacer	-10.258
ngako	-10.2588
olrolo	-10.2612
eni	-10.262
▁neli	-10.264
ngu	-10.2648
▁konai	-10.2653
▁adra	-10.2665
▁nolengé	-10.2671
loto	-10.2703
hana	-10.2703
▁kisia	-10.271
aeni	-10.2741
▁lake	-10.2745
kamani	-10.2746
▁mao	-10.2752
▁sea	-10.2753
boko	-10.2763
▁yai	-10.2764
oshi	-10.2795
▁5	-10.2802
bow	-10.2808
▁takibolrobolro	-10.2811
ovo	-10.2831
koini	-10.284
pace	-10.2845
▁$2	-10.2856
▁pass	-10.2863
onai	-10.2874
E	-10.2876
▁nani	-10.2881
adrao	-10.2901
hai	-10.2902
▁maolai	-10.2905
ananae	-10.2915
pot	-10.2926
night	-10.293
▁lriki	-10.2943
bili	-10.2946
danɨ	-10.2959
Al	-10.2961
lacenge	-10.2962
▁mid	-10.2964
wane	-10.2967
kadalame	-10.2967
▁appear	-10.2968
oman	-10.2976
ranga	-10.2985
tor	-10.2989
kɨné	-10.2997
weight	-10.3001
▁Taromak	-10.3011
▁senay	-10.3017
▁Va	-10.3019
piece	-10.302
katoase	-10.302
10	-10.3021
mikake	-10.3021
talk	-10.3028
▁star	-10.3046
hill	-10.3054
verevere	-10.3068
ica	-10.3068
rig	-10.3069
ized	-10.3072
ught	-10.3078
▁sibling	-10.308
▁drop	-10.3084
▁padalro	-10.3086
kopingi	-10.3092
ising	-10.3092
▁kivaevang	-10.3093
boroboro	-10.3094
▁che	-10.3094
anaedha	-10.3098
ralobo	-10.3101
▁chang	-10.3102
▁likes	-10.3104
ciyo	-10.3104
▁cla	-10.3117
▁beat	-10.3124
olay	-10.3129
▁ngwa	-10.3138
thɨ	-10.3141
some	-10.3148
▁cho	-10.315
ngci	-10.3151
▁sees	-10.3152
▁fur	-10.3158
▁finish	-10.3159
dali	-10.316
silasilape	-10.3162
▁fee	-10.3164
▁makarakara	-10.3167
angico	-10.3167
▁carrie	-10.3168
▁trem	-10.3172
writ	-10.3172
kisaalro	-10.3174
▁ju	-10.3183
mite	-10.3183
▁sahivoe	-10.3184
aovaovaha	-10.3184
sovɨlé	-10.3184
▁Ngoa	-10.3184
▁icongoonga	-10.3184
▁takdrɨngéso	-10.3184
akawmawmale	-10.3184
kacaysyane	-10.3184
osahiyo	-10.3184
size	-10.3184
topodhaolae	-10.3184
▁Chinese	-10.3184
▁Kelesai	-10.3184
▁Kongadavane	-10.3184
▁Mrinu	-10.3184
▁answer	-10.3184
▁barorongolo	-10.3184
▁charcoal	-10.3184
▁dancing	-10.3184
▁heavy	-10.3184
▁homework	-10.3184
▁job	-10.3184
▁karodrange	-10.3184
▁kasamalimali	-10.3184
▁kodamono	-10.3184
▁lwangolangoy	-10.3184
▁marriage	-10.3184
▁method	-10.3184
▁ngodrangodro	-10.3184
▁overturn	-10.3184
▁playground	-10.3184
▁prohibit	-10.3184
▁quiet	-10.3184
▁reconciliation	-10.3184
▁repeat	-10.3184
▁salawngoane	-10.3184
▁sangepahe	-10.3184
▁sidosiya	-10.3184
▁stealthily	-10.3184
▁strength	-10.3184
▁taibalribalriva	-10.3184
thabilane	-10.3184
▁Sisip	-10.3184
▁inclusi	-10.3184
▁mamɨne	-10.3184
▁palrapalra	-10.3184
▁saseveha	-10.3184
▁tavangolo	-10.3184
produc	-10.3185
▁alralrame	-10.3185
▁gakko	-10.3185
▁vakahe	-10.3185
▁wrong	-10.3185
▁entire	-10.3185
Awni	-10.3185
▁grape	-10.3185
▁laugh	-10.3185
▁sidroadromane	-10.3185
▁Abang	-10.3185
▁waswape	-10.3185
iyanono	-10.3185
▁Ngobabocolo	-10.3185
▁aalrame	-10.3185
▁indica	-10.3185
adhamai	-10.3185
▁kawti	-10.3185
origin	-10.3185
▁partner	-10.3185
▁below	-10.3185
▁singsé	-10.3185
▁banana	-10.3185
▁present	-10.3185
▁shaking	-10.3185
▁lightning	-10.3185
▁kisodame	-10.3185
▁above	-10.3185
▁ngiapalay	-10.3185
▁thread	-10.3185
▁holrici	-10.3185
▁lrededepe	-10.3185
ulation	-10.3185
peanut	-10.3185
stock	-10.3185
▁Kanao	-10.3185
▁blood	-10.3185
Amis	-10.3185
▁hasiko	-10.3185
▁represent	-10.3185
▁cɨkɨlɨ	-10.3185
selredre	-10.3185
isaba	-10.3186
thahihi	-10.3186
▁kiapakilringaw	-10.3186
▁cvélni	-10.3186
▁belt	-10.3186
▁decide	-10.3186
rite	-10.3186
pasalrivane	-10.3186
▁tarokoko	-10.3186
▁borasi	-10.3186
▁cvélé	-10.3186
▁fight	-10.3186
▁akovaeva	-10.3186
wabolro	-10.3186
▁sinisi	-10.3186
▁peck	-10.3186
▁pangodrale	-10.3187
▁ngoalai	-10.3187
▁nogiyane	-10.3187
▁sweat	-10.3187
▁death	-10.3187
lɨcenge	-10.3187
▁movalriyo	-10.3187
▁tahapiya	-10.3187
▁bridge	-10.3187
▁thick	-10.3188
▁omiine	-10.3188
▁omale	-10.3188
ngɨsa	-10.3188
▁wipe	-10.3188
ult	-10.3188
nganai	-10.3188
▁tawmoma	-10.3188
▁adrala	-10.3188
▁hollow	-10.3189
▁upstairs	-10.3189
manemele	-10.3189
▁lritara	-10.3189
bekele	-10.3189
▁Sula	-10.319
▁Mathariri	-10.319
▁ngicolo	-10.319
▁duck	-10.319
▁maelrenge	-10.3191
▁nene	-10.3191
▁reache	-10.3191
saliva	-10.3191
▁cengela	-10.3192
▁idoro	-10.3192
▁stay	-10.3192
▁comb	-10.3192
▁polebe	-10.3192
▁kisace	-10.3193
▁wadrangedrange	-10.3193
▁misa	-10.3194
▁makociacingalre	-10.3194
amadhalae	-10.3194
▁taetale	-10.3195
▁paniya	-10.3195
▁race	-10.3195
▁kaivaiyana	-10.3195
▁dare	-10.3195
▁motavanane	-10.3196
ililoko	-10.3197
▁yaino	-10.3197
▁eleve	-10.3198
amɨ	-10.3198
▁mab	-10.3199
▁regi	-10.32
▁stolen	-10.32
▁swavivi	-10.32
▁wathingalako	-10.3201
▁Taiwang	-10.3201
▁amokoani	-10.3202
500	-10.3202
▁moalatadre	-10.3202
dadaane	-10.3202
▁torn	-10.3202
▁omiyalrao	-10.3202
▁wabaai	-10.3204
▁moswa	-10.3204
▁sadrisidrisi	-10.3205
▁baase	-10.3206
aliliding	-10.3206
▁vole	-10.3206
▁spill	-10.3207
dust	-10.3207
▁pagai	-10.3207
▁alraceli	-10.3208
▁tasty	-10.3209
▁inilringa	-10.3209
▁omini	-10.3209
▁moon	-10.321
▁senai	-10.3212
ngepae	-10.3213
yaniso	-10.3214
▁passing	-10.3214
▁iywa	-10.3214
▁syakay	-10.3215
▁nema	-10.3216
▁brake	-10.3219
wheat	-10.322
wig	-10.3224
▁barking	-10.3224
▁macaeme	-10.3227
▁ahead	-10.3228
▁shi	-10.3232
band	-10.3234
▁soup	-10.3234
ayni	-10.3235
▁talragili	-10.3236
▁shoes	-10.3237
rien	-10.3241
ngele	-10.3244
▁nakayla	-10.3244
▁walangai	-10.3251
sure	-10.3251
▁sakela	-10.3252
akɨ	-10.3253
▁lakamani	-10.3254
akata	-10.3258
resɨ	-10.3261
▁cailini	-10.3264
▁Sa	-10.3266
leg	-10.3267
▁moaino	-10.3271
▁kaingoli	-10.3271
▁sco	-10.3272
arre	-10.3272
▁cavili	-10.3273
drale	-10.3274
▁Anean	-10.3274
▁aiowa	-10.3278
▁toalai	-10.3279
▁smart	-10.328
lrae	-10.3282
▁tamaso	-10.3289
cngle	-10.3289
▁standing	-10.3299
haiya	-10.3302
▁maeaea	-10.3303
▁spoons	-10.331
▁lakela	-10.3319
▁heart	-10.3319
60	-10.3322
ikalra	-10.3323
drengé	-10.3323
lope	-10.3335
▁goose	-10.3338
avor	-10.3339
▁mwaki	-10.3343
▁akaneane	-10.3344
ciw	-10.3345
nagane	-10.3349
ories	-10.3352
▁iyaiya	-10.336
▁koko	-10.3362
bal	-10.3362
▁lived	-10.3363
▁rained	-10.3373
lim	-10.3373
hy	-10.3391
▁mwaba	-10.3391
boco	-10.3391
▁fro	-10.3391
event	-10.3395
celeb	-10.3409
▁ngipalay	-10.3413
▁sakacekele	-10.3414
▁bengka	-10.3414
ood	-10.3423
vé	-10.3425
▁madola	-10.3425
▁aanga	-10.3428
▁kadalame	-10.343
▁playing	-10.3436
▁bri	-10.3446
▁kodhali	-10.3448
kasa	-10.3456
▁aingo	-10.3463
▁loki	-10.3468
erece	-10.3471
gili	-10.3474
edha	-10.3475
▁kwanea	-10.3487
Alri	-10.3488
doro	-10.3492
lalra	-10.3496
cingi	-10.3499
▁nayyan	-10.35
sikatha	-10.3515
ethe	-10.3519
tengatengane	-10.3521
new	-10.3536
koso	-10.3543
▁kidro	-10.3545
ive	-10.3558
▁coc	-10.3578
yakai	-10.3586
rode	-10.3603
▁wave	-10.3606
sted	-10.3611
▁tanger	-10.3615
▁sore	-10.3616
kiokai	-10.3682
▁packs	-10.3684
pet	-10.3696
▁su	-10.3696
ignit	-10.3697
▁ingpico	-10.3701
▁inten	-10.3703
aking	-10.3709
▁tolo	-10.371
▁dress	-10.3717
ence	-10.3717
▁twatwatoma	-10.3718
▁lrehelrehe	-10.3718
▁Oponoho	-10.3719
▁aramoro	-10.3722
ist	-10.3723
▁dec	-10.3731
▁alealeale	-10.3736
ware	-10.3742
▁taowa	-10.3743
howa	-10.3744
▁attac	-10.3756
▁droma	-10.3759
▁tawpongo	-10.3763
▁kodrolo	-10.3769
ped	-10.377
lalri	-10.3771
mani	-10.3785
ron	-10.3798
dredre	-10.3811
▁moata	-10.3812
alrao	-10.3814
▁sora	-10.3818
has	-10.3823
anɨ	-10.384
▁lakai	-10.3841
▁pwalra	-10.386
▁kiodo	-10.3863
dringai	-10.3864
▁toba	-10.3871
cobo	-10.3947
alang	-10.3947
▁thanks	-10.3949
sca	-10.3951
▁continu	-10.3961
▁hate	-10.3973
ical	-10.3975
set	-10.3975
lrong	-10.3983
late	-10.3984
sier	-10.3987
▁waka	-10.3997
▁konomi	-10.3997
tapiya	-10.4028
▁mobalriw	-10.4038
▁nala	-10.4045
koenɨ	-10.4051
▁stair	-10.4051
kica	-10.407
amita	-10.4075
olongo	-10.408
odro	-10.4082
aima	-10.4082
▁adv	-10.409
▁ngoaka	-10.4099
iga	-10.4105
ssion	-10.4117
▁omoa	-10.412
cɨngɨ	-10.4163
aloalopo	-10.4171
talo	-10.4171
cekela	-10.4183
né	-10.4187
dreadrekadhane	-10.4197
ngalra	-10.4211
ɨtɨ	-10.4213
▁anika	-10.4215
oping	-10.4221
▁nib	-10.4221
▁yours	-10.4227
▁pic	-10.4253
ikamani	-10.4286
▁mar	-10.431
▁polringao	-10.4323
itovolro	-10.4326
▁noo	-10.4328
▁taelrea	-10.4329
▁Tai	-10.433
ahakaiya	-10.4356
alili	-10.4362
piane	-10.4379
bete	-10.44
▁waga	-10.4401
▁tapia	-10.4403
odholro	-10.4406
dɨ	-10.4409
gate	-10.4409
yata	-10.441
press	-10.4416
dder	-10.442
doo	-10.442
▁maimoro	-10.4425
koco	-10.4427
ered	-10.4435
avi	-10.4443
▁waki	-10.4447
yokai	-10.4459
uan	-10.4469
ongdoka	-10.4488
kani	-10.4498
▁nɨma	-10.4527
▁rip	-10.4528
▁ngolringa	-10.455
▁taikay	-10.4581
rown	-10.4581
athingale	-10.4606
j	-10.4606
aneli	-10.4614
ybe	-10.4624
▁drain	-10.4626
elling	-10.4629
angiya	-10.4633
kw	-10.4646
mpit	-10.4665
▁anatoma	-10.4669
bece	-10.467
▁pencil	-10.4679
▁animal	-10.4681
▁imit	-10.4682
▁horse	-10.4682
drisidrisi	-10.4686
▁sobelebeleng	-10.4701
colro	-10.4709
▁tavanane	-10.471
bava	-10.4719
gree	-10.4719
tir	-10.4731
▁ex	-10.4741
▁bir	-10.4742
▁pul	-10.4745
tomatomane	-10.4749
drodro	-10.475
▁loiga	-10.4757
▁interest	-10.4758
▁masi	-10.4758
▁twakesi	-10.4759
asolasolate	-10.4763
weet	-10.477
▁fer	-10.4773
▁wathingala	-10.4775
▁cou	-10.4779
▁valriyo	-10.4779
lɨngé	-10.478
▁madrao	-10.4782
kaoriva	-10.4782
ometimes	-10.4783
▁Some	-10.4784
▁arm	-10.4785
umber	-10.4785
hoppe	-10.4786
▁butterfl	-10.4787
▁dragonfl	-10.4787
rɨgɨrgɨ	-10.4787
talangalangalrae	-10.4787
Bunun	-10.4787
hikooki	-10.4787
kalaleketa	-10.4787
lrakoyli	-10.4787
ngidrakale	-10.4787
ralrangedrangane	-10.4787
▁Balrangaw	-10.4787
▁Goodbye	-10.4787
▁Hakka	-10.4787
▁Nan	-10.4787
▁Pingpozoko	-10.4787
▁Pingtung	-10.4787
▁Talrubalringi	-10.4787
▁aikatoma	-10.4787
▁announce	-10.4787
▁apple	-10.4787
▁bibilrili	-10.4787
▁blossom	-10.4787
▁cliff	-10.4787
▁earthquake	-10.4787
▁entrance	-10.4787
▁jelly	-10.4787
▁lakaokaolo	-10.4787
▁ngialisiane	-10.4787
▁niciobi	-10.4787
▁pamenanae	-10.4787
▁princip	-10.4787
▁select	-10.4787
▁tavongovongo	-10.4787
▁thakathakai	-10.4787
▁vilrilaenga	-10.4787
badhabadha	-10.4787
besebese	-10.4787
otalivaivay	-10.4787
▁ngyatoma	-10.4787
▁tahamangeal	-10.4787
▁wakaciane	-10.4787
kaohiva	-10.4787
▁Sinisi	-10.4787
▁mialrealre	-10.4787
▁mokonia	-10.4787
▁makakibolro	-10.4787
▁lrakoili	-10.4787
Esai	-10.4787
angaangade	-10.4787
▁fear	-10.4787
▁maodrange	-10.4787
pabanaw	-10.4787
▁karadrale	-10.4787
▁tabelengane	-10.4787
▁didyosa	-10.4787
▁mawlai	-10.4787
▁scra	-10.4787
asaseane	-10.4787
▁dodoli	-10.4787
ingpice	-10.4787
tavanane	-10.4787
▁accept	-10.4787
▁shining	-10.4787
▁tangilribatane	-10.4787
▁Taidrengere	-10.4787
▁lipstick	-10.4787
▁wadavadavace	-10.4787
▁dream	-10.4787
inpice	-10.4787
▁Ubakɨ	-10.4787
▁bongka	-10.4787
dringadha	-10.4787
thobongo	-10.4787
▁takanekaneane	-10.4788
isasadra	-10.4788
▁taleke	-10.4788
▁begin	-10.4788
econd	-10.4788
maovagavaga	-10.4788
▁loasaa	-10.4788
ranged	-10.4788
▁lomase	-10.4788
▁swapepeale	-10.4788
▁mposle	-10.4788
▁axe	-10.4788
▁kokboboro	-10.4788
▁kiwkay	-10.4788
▁ngitoloko	-10.4788
▁pasalri	-10.4788
▁polit	-10.4788
▁compan	-10.4788
▁latadhe	-10.4788
▁tatama	-10.4788
▁ngitoatomane	-10.4789
▁country	-10.4789
▁bohasi	-10.4789
▁Look	-10.4789
▁organic	-10.4789
▁Ulai	-10.4789
▁leader	-10.4789
▁serious	-10.4789
▁pingkang	-10.4789
▁cube	-10.4789
droway	-10.479
▁pacongol	-10.479
▁melt	-10.479
▁nikwani	-10.479
votha	-10.479
epate	-10.479
▁lalaka	-10.4791
iyakikay	-10.4791
▁exam	-10.4791
▁balate	-10.4791
▁malimeeme	-10.4791
▁fest	-10.4791
▁wadolro	-10.4791
avagay	-10.4791
▁viene	-10.4791
▁rich	-10.4792
cious	-10.4792
▁bwate	-10.4792
▁karimor	-10.4792
cicigi	-10.4792
▁ground	-10.4792
▁calrisi	-10.4793
asilange	-10.4793
ncle	-10.4793
▁borathi	-10.4793
papalraini	-10.4794
cokini	-10.4794
lngé	-10.4794
▁valriyonai	-10.4794
amaolro	-10.4795
▁abolro	-10.4795
▁padhalro	-10.4795
▁cacane	-10.4796
▁resp	-10.4796
ngkong	-10.4797
habit	-10.4797
▁histor	-10.4798
▁pakalisi	-10.4799
▁molatadhe	-10.4799
▁barange	-10.4799
▁molatadre	-10.4799
▁madalama	-10.4799
▁loigane	-10.4799
tarodrosa	-10.48
lant	-10.4801
▁bowl	-10.4801
▁yatavanane	-10.4801
▁dramare	-10.4801
▁imɨcɨ	-10.4801
▁cica	-10.4801
▁pakisaalro	-10.4802
▁pak	-10.4802
▁yiae	-10.4803
apya	-10.4803
▁alone	-10.4804
depɨ	-10.4804
icient	-10.4805
▁oaha	-10.4805
ccess	-10.4805
rass	-10.4807
racti	-10.4807
▁sodosia	-10.4807
ngilribate	-10.4808
mada	-10.4809
▁oamece	-10.481
▁twalay	-10.481
▁taiki	-10.4811
akai	-10.4811
anopapalra	-10.4812
drelre	-10.4814
vaeva	-10.4814
▁sneeze	-10.4814
▁amiyaikay	-10.4814
▁stain	-10.4814
vagalini	-10.4815
lrilrikodr	-10.4815
ibaka	-10.4815
cigi	-10.4816
dding	-10.4817
tangimiamiane	-10.4817
▁Arase	-10.482
tawmomo	-10.482
▁shou	-10.4821
▁cekelenay	-10.4823
papapalra	-10.4824
▁Lav	-10.4824
thingathingale	-10.4825
tapeapecane	-10.4825
▁acita	-10.4826
▁Law	-10.4826
chin	-10.4826
▁expe	-10.4831
▁lawpang	-10.4832
matikay	-10.4834
▁soak	-10.4835
▁mami	-10.4835
nyane	-10.4836
▁maelrelre	-10.4836
pen	-10.4838
▁pasolriya	-10.4838
▁tur	-10.4848
▁post	-10.4848
▁omoli	-10.4848
sokoba	-10.485
idri	-10.4851
▁stag	-10.4852
▁acili	-10.4853
building	-10.4857
tyadraw	-10.4863
▁mill	-10.4866
lenge	-10.4867
elraelra	-10.4868
rigi	-10.4872
▁walangay	-10.4872
▁mathalr	-10.4876
vele	-10.4879
iyako	-10.488
ada	-10.4881
elebe	-10.4881
bwala	-10.4881
urse	-10.4882
▁taito	-10.4883
▁direct	-10.4885
▁talrima	-10.4887
lisin	-10.4889
▁Taromake	-10.4891
Kacaw	-10.4892
ible	-10.4893
▁tire	-10.4894
cekecekele	-10.4894
▁kidringai	-10.4894
▁bear	-10.4895
▁pencils	-10.4897
kawriva	-10.4897
▁cekeleta	-10.4897
▁touching	-10.4898
▁isadra	-10.4902
▁les	-10.4904
out	-10.4907
▁ngiao	-10.491
dow	-10.4912
books	-10.4912
break	-10.4912
▁akange	-10.4914
balay	-10.4915
droro	-10.4919
ccele	-10.4919
▁takora	-10.4919
time	-10.4919
▁got	-10.492
meme	-10.4921
bird	-10.4922
heat	-10.4922
cold	-10.4924
parents	-10.4926
▁kiapo	-10.4926
▁tin	-10.4927
year	-10.4927
fruit	-10.4931
lreme	-10.4933
▁conven	-10.4937
tired	-10.494
M	-10.4941
kakodhane	-10.4941
acale	-10.4947
▁pea	-10.495
▁mobelenge	-10.4963
kidrali	-10.4964
mitiya	-10.4965
▁pair	-10.4966
gace	-10.4969
bolronga	-10.497
father	-10.4975
vern	-10.4979
lili	-10.4983
ihi	-10.4991
▁manga	-10.4991
▁guys	-10.4993
lriw	-10.5
▁moalri	-10.5005
▁wathi	-10.5013
▁aonga	-10.5016
▁takaso	-10.5034
wak	-10.5036
inlan	-10.5039
▁Ivay	-10.5041
amao	-10.5047
▁repres	-10.5049
▁lako	-10.5049
▁nayane	-10.505
yng	-10.5052
▁along	-10.5054
▁panay	-10.5057
▁kahingalai	-10.5058
▁katwase	-10.5058
▁Drekay	-10.5058
ɨle	-10.5065
▁paiya	-10.5067
adalro	-10.5094
▁pasopaa	-10.5096
doay	-10.5098
▁tokaange	-10.5102
dreme	-10.5107
It	-10.5113
makɨ	-10.5116
log	-10.513
▁ago	-10.5139
abolo	-10.5146
▁ailangai	-10.5148
▁kacalisiya	-10.5156
▁drodros	-10.5161
▁maolainga	-10.5162
St	-10.5176
ways	-10.5176
iliar	-10.5181
iho	-10.5187
kipaelre	-10.519
tokoro	-10.5202
▁Dr	-10.5205
▁chatt	-10.5217
vus	-10.522
▁kenam	-10.5233
▁kopingi	-10.5233
toro	-10.5246
angip	-10.5251
▁baa	-10.5255
▁tidi	-10.5266
posale	-10.5283
elane	-10.5288
itha	-10.53
▁floo	-10.5303
hoe	-10.5308
mosoa	-10.5322
▁lame	-10.533
▁Tar	-10.534
rev	-10.5341
▁smo	-10.5345
lrolro	-10.5356
▁insi	-10.5362
omae	-10.5372
tad	-10.5374
dripi	-10.5388
ria	-10.5393
dryane	-10.5425
▁lango	-10.5427
papa	-10.543
▁100	-10.5446
adhailinga	-10.5483
pakela	-10.5484
lane	-10.5528
rodro	-10.5557
▁nett	-10.5557
of	-10.557
aimo	-10.5574
rself	-10.5586
▁leaves	-10.5594
ɨngɨlɨ	-10.5601
senay	-10.5615
▁laiyakay	-10.5619
kece	-10.5619
▁talika	-10.5636
adhao	-10.5636
▁em	-10.5638
cocobonga	-10.5638
aneta	-10.5651
▁naomo	-10.5652
dnes	-10.5654
▁baka	-10.5664
▁continue	-10.5687
rse	-10.5695
okali	-10.5721
cay	-10.5734
sisi	-10.5736
dranga	-10.5737
balrithi	-10.5742
esɨ	-10.5742
ef	-10.5743
teke	-10.5745
ond	-10.5771
lock	-10.5775
▁kowa	-10.5792
▁kongokongo	-10.5796
inome	-10.5799
▁walo	-10.5807
tting	-10.5825
au	-10.5843
kiang	-10.5849
▁alo	-10.5853
dralri	-10.5854
▁moda	-10.5856
ngimiya	-10.5859
▁pingk	-10.5869
ind	-10.5877
R	-10.5896
dreke	-10.5901
▁speaks	-10.5909
manema	-10.5911
mple	-10.5916
lrolo	-10.5934
ating	-10.5939
▁develop	-10.5939
dii	-10.5947
▁makao	-10.5979
▁kwang	-10.5985
▁kodrali	-10.5989
▁lives	-10.6
▁Sel	-10.6009
lribalribat	-10.6018
ept	-10.6053
▁ikaodh	-10.6071
▁cob	-10.6074
▁ik	-10.6084
aela	-10.6092
nɨma	-10.6095
▁wall	-10.6107
angid	-10.6117
ania	-10.6135
cars	-10.6142
▁pool	-10.6158
gomo	-10.6181
▁wal	-10.6181
hepe	-10.6219
▁pata	-10.6233
▁ciy	-10.6235
du	-10.6245
adhe	-10.6252
lrikili	-10.6253
▁kn	-10.6262
ney	-10.6267
adhane	-10.6281
tara	-10.6299
hopping	-10.6317
lrane	-10.6324
yame	-10.6332
langadha	-10.634
moco	-10.6375
▁even	-10.6386
tomé	-10.6399
pora	-10.6403
namɨ	-10.6409
okoli	-10.6417
▁Ve	-10.6431
gne	-10.6439
onɨ	-10.6451
dalrane	-10.6467
arrow	-10.6477
éngé	-10.648
▁lwanga	-10.6485
ntend	-10.6487
▁aiki	-10.6502
▁mal	-10.6506
isange	-10.6506
▁daikon	-10.6516
athii	-10.6528
kocingalre	-10.6544
avahe	-10.6562
sopilri	-10.6569
hingi	-10.6584
darepe	-10.6589
séli	-10.6597
▁sometime	-10.6597
lɨke	-10.6598
pping	-10.66
▁niya	-10.6605
▁elreelre	-10.6607
angise	-10.6608
▁zikang	-10.661
boi	-10.6611
wamini	-10.6616
▁foo	-10.6631
▁differen	-10.664
itomane	-10.664
▁kalakecelra	-10.6644
umble	-10.6645
ongting	-10.6648
reek	-10.6651
mperatives	-10.6654
▁médavli	-10.6661
sins	-10.6663
nur	-10.6671
▁plow	-10.6673
▁pret	-10.6674
abwale	-10.6674
atakataka	-10.6675
alai	-10.6678
▁fan	-10.6679
latadrane	-10.668
dredrele	-10.6686
lakɨ	-10.6686
pokoane	-10.6687
umb	-10.6687
▁To	-10.6688
imoro	-10.6692
▁aborigin	-10.6693
kathariri	-10.6694
witch	-10.6695
alangalangay	-10.6695
ekelae	-10.6695
▁tawmo	-10.6695
arvest	-10.6696
oponohae	-10.6696
kalava	-10.6696
rɨmɨ	-10.6696
locobonga	-10.6696
sɨviri	-10.6696
acegecega	-10.6696
barvia	-10.6696
belebelenga	-10.6696
epengenga	-10.6696
modrakehale	-10.6696
mɨmɨ	-10.6696
odryodripi	-10.6696
talicovongae	-10.6696
vlɨvlɨ	-10.6696
▁Drokaizoko	-10.6696
▁Festival	-10.6696
▁Lavausu	-10.6696
▁Liucu	-10.6696
▁People	-10.6696
▁alivaevaha	-10.6696
▁appli	-10.6696
▁breast	-10.6696
▁buzzing	-10.6696
▁chieftain	-10.6696
▁ckɨckɨlɨ	-10.6696
▁costume	-10.6696
▁cotton	-10.6696
▁dhakehale	-10.6696
▁disappointed	-10.6696
▁dokiosé	-10.6696
▁kakoza	-10.6696
▁lemataktaka	-10.6696
▁liquor	-10.6696
▁lrawlrawdro	-10.6696
▁mahodrange	-10.6696
▁molekate	-10.6696
▁otrɨtrɨ	-10.6696
▁raramɨ	-10.6696
▁rattan	-10.6696
▁salaongoane	-10.6696
▁siwbai	-10.6696
▁syobai	-10.6696
▁takilrongo	-10.6696
▁themselves	-10.6696
▁tisiaba	-10.6696
▁tisyaba	-10.6696
▁tomanɨni	-10.6696
▁tyakadringay	-10.6696
▁tɨbɨlɨnga	-10.6696
▁vavoi	-10.6696
▁vilivili	-10.6696
anahalre	-10.6696
dawdawdaw	-10.6696
▁Muakai	-10.6696
▁abilrili	-10.6696
▁masobka	-10.6696
▁tarodrawdrange	-10.6696
▁thalidoko	-10.6696
▁toward	-10.6696
X	-10.6696
cocongolane	-10.6696
kongadangadavane	-10.6696
▁Kolele	-10.6696
▁Labowa	-10.6696
▁aiodale	-10.6696
▁kahadhoho	-10.6696
▁loicaili	-10.6696
▁mamatolrolo	-10.6696
▁mapapangale	-10.6696
▁pwacase	-10.6696
uyuma	-10.6696
▁aloalo	-10.6696
▁mahedel	-10.6696
▁solatɨ	-10.6696
▁sɨvongvongo	-10.6696
kahedele	-10.6696
mabangate	-10.6696
▁tothadalrane	-10.6696
lapolapo	-10.6696
▁velevele	-10.6696
▁Kanau	-10.6696
▁belebele	-10.6696
▁syalikay	-10.6696
▁maymoo	-10.6696
▁treatment	-10.6696
silaimay	-10.6696
special	-10.6696
rarame	-10.6696
▁pears	-10.6696
▁ololopo	-10.6696
Ex	-10.6696
abibay	-10.6696
▁amyaini	-10.6696
dralray	-10.6697
▁longalangai	-10.6697
▁kakinɨma	-10.6697
▁dropped	-10.6697
▁ksédemɨ	-10.6697
▁gift	-10.6697
▁lredheke	-10.6697
kadalranane	-10.6697
▁yaiye	-10.6697
ykay	-10.6697
▁kirarokodra	-10.6697
▁tagiagi	-10.6697
mmer	-10.6697
▁lrolai	-10.6697
▁drakeale	-10.6697
▁Palripilripi	-10.6697
▁makecee	-10.6697
▁abera	-10.6697
▁lrayli	-10.6697
▁matoalrai	-10.6697
thipate	-10.6697
▁kayasaa	-10.6697
luti	-10.6697
▁ngyaboale	-10.6697
ficient	-10.6697
▁photo	-10.6697
▁cacevél	-10.6698
taotaotao	-10.6698
anism	-10.6698
▁kamolini	-10.6698
pélia	-10.6698
▁tarodraodrange	-10.6698
▁colle	-10.6698
regn	-10.6698
pongopongo	-10.6698
▁silodo	-10.6698
▁kolokolo	-10.6698
▁thɨné	-10.6698
▁kacaisyane	-10.6698
▁ngodradrekai	-10.6699
empo	-10.6699
▁wavelevele	-10.6699
▁scar	-10.6699
▁makatokodrali	-10.6699
kalaelange	-10.6699
▁malisilisi	-10.6699
oons	-10.67
icengeceng	-10.67
▁qu	-10.67
▁Lany	-10.67
evehe	-10.67
▁pako	-10.67
▁asasane	-10.67
▁ngiababa	-10.67
▁watapyani	-10.6701
▁lawngo	-10.6701
▁mabebere	-10.6701
angidrosa	-10.6701
atomanane	-10.6701
▁marpa	-10.6702
irimoa	-10.6702
▁takopili	-10.6702
▁pacengecenge	-10.6703
▁dead	-10.6703
edrese	-10.6703
atula	-10.6703
▁ngitiki	-10.6704
▁erase	-10.6704
pisisi	-10.6704
▁cekelaenai	-10.6705
▁moun	-10.6705
ocks	-10.6706
▁lcenge	-10.6706
hut	-10.6707
▁adrisi	-10.6707
▁sapas	-10.6707
▁labaibay	-10.6707
▁spr	-10.6707
▁makodrolro	-10.6707
▁kwasa	-10.6707
▁earth	-10.6708
▁Madalam	-10.6708
ohasi	-10.6708
ssor	-10.6708
▁noren	-10.6708
aswalala	-10.6708
tamatama	-10.6709
alapai	-10.6709
adrosa	-10.6709
angeese	-10.671
▁cekelae	-10.671
▁payrange	-10.671
osakaele	-10.671
▁kitobobolro	-10.671
▁amanisa	-10.6711
▁kawai	-10.6712
▁lakoni	-10.6712
▁justice	-10.6712
erc	-10.6712
▁mwadringai	-10.6712
ppy	-10.6713
ebele	-10.6713
cocoaw	-10.6714
▁adralala	-10.6714
▁keme	-10.6714
▁disappear	-10.6715
▁lrikikalromal	-10.6717
elaelra	-10.6717
▁waodaodale	-10.6717
▁mokela	-10.6719
▁masalro	-10.6719
ush	-10.6719
kro	-10.6719
▁scold	-10.672
lɨva	-10.672
▁fift	-10.672
▁azazame	-10.6721
▁ilrae	-10.6721
▁makɨla	-10.6721
makamolringedele	-10.6722
▁waitoko	-10.6724
▁mabola	-10.6724
▁laikai	-10.6724
▁kisiya	-10.6725
▁lapo	-10.6725
kɨdro	-10.6727
ethela	-10.6727
▁shine	-10.673
▁okaodh	-10.673
cé	-10.6731
▁Moakai	-10.6731
▁lamanema	-10.6738
▁lamalalala	-10.6739
mokalava	-10.6739
tumble	-10.674
▁laomaomase	-10.6742
cess	-10.6745
▁shower	-10.6745
▁caylini	-10.6745
▁Oh	-10.6747
▁Mon	-10.6748
ndle	-10.6754
alrenga	-10.6755
vévanɨ	-10.6757
lrimo	-10.6759
fty	-10.6764
drip	-10.6766
▁lit	-10.6767
lets	-10.6768
▁papiya	-10.6769
stea	-10.6771
▁akece	-10.6772
▁bka	-10.6773
otavanane	-10.6773
▁ph	-10.6774
▁soft	-10.6774
▁bran	-10.6775
▁outsider	-10.6778
▁yes	-10.6779
▁nobles	-10.6783
▁wath	-10.6784
▁ngokai	-10.6784
▁avé	-10.6788
maongo	-10.679
eath	-10.6799
pasopalriya	-10.68
▁malrima	-10.6801
▁agini	-10.6801
rane	-10.6802
nous	-10.6804
▁matolro	-10.6806
stri	-10.6807
▁Paelre	-10.6808
riding	-10.6809
▁kalad	-10.681
kacipi	-10.6811
ount	-10.6813
▁laongo	-10.6824
ngla	-10.6825
tance	-10.6826
▁kilrong	-10.6827
▁amooa	-10.6828
ak	-10.683
ilra	-10.6836
▁studying	-10.6837
▁mabitolro	-10.6841
atoka	-10.6841
idhanga	-10.6842
▁lakisi	-10.6848
▁paki	-10.6848
cod	-10.685
▁maongonga	-10.6858
ives	-10.6859
▁kwaob	-10.6877
agane	-10.6877
mavangate	-10.6877
akane	-10.6877
▁amowa	-10.6877
▁kadrowana	-10.6878
saladha	-10.6885
▁ikéla	-10.6889
▁tail	-10.6897
▁myaiya	-10.6901
koro	-10.6907
hoai	-10.6912
ram	-10.6915
lreeme	-10.6915
talrabwabwala	-10.692
aese	-10.6923
mca	-10.6932
▁aniya	-10.6938
aeli	-10.6945
▁mowa	-10.6947
▁beate	-10.6947
▁steals	-10.6948
tures	-10.6948
▁willing	-10.6956
oloco	-10.6967
um	-10.697
ering	-10.6974
▁salip	-10.6976
kayyane	-10.6983
osay	-10.6989
ongtingi	-10.7003
olriya	-10.7005
ison	-10.7017
▁nakwa	-10.7024
kaneane	-10.7048
itor	-10.7049
lakakalra	-10.7061
▁Te	-10.7066
yasi	-10.7088
ilap	-10.7091
placed	-10.7094
▁katolro	-10.7098
agae	-10.7098
ɨra	-10.7101
▁stro	-10.7112
▁girls	-10.7117
cek	-10.7138
▁Tw	-10.7142
▁pill	-10.7142
omao	-10.7148
ahe	-10.7153
▁salri	-10.7156
▁koongo	-10.716
ror	-10.7162
poi	-10.7172
▁talodro	-10.7173
bale	-10.7178
▁pasoala	-10.7178
hahe	-10.7182
niso	-10.7198
▁boo	-10.7204
▁past	-10.7204
haha	-10.7207
nakai	-10.721
▁pip	-10.7212
dayli	-10.7217
head	-10.7225
▁nage	-10.7226
mini	-10.7226
odaodale	-10.7231
leave	-10.724
▁sawli	-10.7241
karededele	-10.7243
▁gla	-10.7244
palribolo	-10.7248
gaga	-10.7251
ier	-10.7252
ivo	-10.7258
▁koene	-10.7258
D	-10.7262
▁tangi	-10.7262
rop	-10.7265
tobalre	-10.7266
\	-10.7272
▁tie	-10.7276
▁thor	-10.7278
window	-10.7279
▁kicakwa	-10.7282
light	-10.7286
▁kidremedremeli	-10.7286
tokolro	-10.7293
anenai	-10.7294
▁aika	-10.7295
O	-10.7299
When	-10.7303
T	-10.7307
▁aro	-10.731
rrow	-10.731
owe	-10.7311
into	-10.7318
wailoko	-10.7319
baai	-10.7319
enter	-10.736
▁coa	-10.7378
▁swings	-10.7396
cako	-10.7397
▁walro	-10.7404
▁ben	-10.741
▁ugl	-10.741
ngoalra	-10.744
▁madrawnga	-10.7462
▁silo	-10.7465
▁hid	-10.7517
kwana	-10.7524
die	-10.7535
▁pakacolo	-10.7548
▁tang	-10.7559
ege	-10.7575
aving	-10.7602
▁sne	-10.762
▁Rep	-10.7643
▁aikela	-10.7643
papay	-10.7646
poro	-10.7666
madro	-10.768
akase	-10.7712
beceng	-10.772
vase	-10.7753
▁participate	-10.7754
ikaita	-10.7762
ngalre	-10.7778
lodro	-10.7785
port	-10.7806
▁mot	-10.783
ɨkɨ	-10.784
beleng	-10.7845
elela	-10.7846
▁sabo	-10.7859
dhange	-10.7896
anili	-10.7897
voko	-10.7897
aikanomi	-10.792
▁tya	-10.7927
gisi	-10.7938
amaniako	-10.7942
ked	-10.7946
iyaso	-10.7946
▁butt	-10.7978
ikadra	-10.7979
malri	-10.799
aanenga	-10.8024
acic	-10.8031
nets	-10.8038
avaeva	-10.81
aniso	-10.8101
aico	-10.811
osolo	-10.8118
abolr	-10.813
▁buck	-10.8132
lrape	-10.8142
▁masal	-10.815
dao	-10.8155
wkai	-10.8166
pange	-10.8167
adhae	-10.8167
ɨnɨ	-10.8168
ngata	-10.8168
▁pikai	-10.8174
itoko	-10.8177
▁gl	-10.8195
kiso	-10.8195
saké	-10.8201
▁doiya	-10.8217
▁ast	-10.8217
kana	-10.8223
sanɨ	-10.8226
sty	-10.824
▁sak	-10.8268
pitolo	-10.8269
lalai	-10.8283
▁ngid	-10.8286
aobo	-10.8314
aho	-10.8315
dresenge	-10.8319
▁taoa	-10.8352
lidha	-10.8365
baro	-10.8376
athay	-10.8387
ɨrɨ	-10.8389
▁ov	-10.839
▁con	-10.8391
▁kaita	-10.8397
apelaela	-10.8398
rahe	-10.8399
▁coco	-10.8411
kici	-10.8412
▁takesi	-10.8444
▁ona	-10.8457
ongane	-10.8469
valak	-10.8472
line	-10.8473
▁soap	-10.8517
akiso	-10.8521
▁tacekecekelani	-10.8541
▁tato	-10.8549
ul	-10.8555
▁nea	-10.8559
▁mwagak	-10.8585
padolro	-10.8597
died	-10.86
ckle	-10.8629
sadra	-10.8644
aongane	-10.8644
▁mwadringadringa	-10.8662
arimo	-10.8669
agɨ	-10.8672
ure	-10.8675
▁tik	-10.871
inganai	-10.8769
▁pasoa	-10.8771
yang	-10.8772
sir	-10.8786
asane	-10.8796
kidremedreme	-10.8811
pard	-10.8817
itori	-10.8824
erese	-10.8826
palili	-10.8827
▁akana	-10.8828
vangate	-10.8833
aswala	-10.8839
bab	-10.8854
alalrange	-10.8862
ikodrangane	-10.8866
▁kibobo	-10.887
abe	-10.8874
kanea	-10.8877
elanga	-10.8878
▁konay	-10.888
▁makaelaela	-10.8885
lean	-10.8886
▁tav	-10.892
vayva	-10.8937
kaikaiya	-10.8939
emele	-10.8939
biri	-10.8946
imperative	-10.8952
idhi	-10.8958
yanita	-10.8973
▁squ	-10.8978
abay	-10.8989
amaw	-10.899
▁tawpong	-10.8992
▁taopong	-10.8997
cilay	-10.8999
drɨdrɨ	-10.9005
▁motaowana	-10.9006
▁cavi	-10.9007
kisalrwa	-10.9012
▁noble	-10.9012
▁mokani	-10.9025
molringedele	-10.9025
avivii	-10.9027
lragili	-10.9031
kalromale	-10.9031
dromolro	-10.9032
▁Moaka	-10.9033
avalavala	-10.9034
akolodro	-10.9034
dradrɨk	-10.9034
▁force	-10.9034
▁bilibil	-10.9035
▁hop	-10.9038
▁buil	-10.9041
▁sasevera	-10.9045
pri	-10.9045
▁tapata	-10.9048
ebɨ	-10.9049
kivaga	-10.9049
atengatenga	-10.9051
▁gua	-10.9052
ipato	-10.9053
obalrio	-10.9053
calrisiane	-10.9055
pakilringaw	-10.9055
angititi	-10.9056
dition	-10.9057
▁collect	-10.9057
eeze	-10.9057
sakisakidrane	-10.9057
appoint	-10.9057
tangetange	-10.9057
▁cɨngcɨnglɨ	-10.9057
▁tahodrawdrange	-10.9057
acɨlé	-10.9057
adavili	-10.9057
angotawngatingi	-10.9057
ikalromalromale	-10.9057
itovolrovolro	-10.9057
kaladrangedranga	-10.9057
kavolevole	-10.9057
pokavol	-10.9057
rgɨrgɨ	-10.9057
sɨvéré	-10.9057
taagaagane	-10.9057
taivalrivalriyae	-10.9057
▁Arupu	-10.9057
▁Cemelresai	-10.9057
▁Gigiyo	-10.9057
▁Gigiyu	-10.9057
▁Hipono	-10.9057
▁Kalrimadraw	-10.9057
▁Leeve	-10.9057
▁Muakadha	-10.9057
▁Ohosane	-10.9057
▁Paehece	-10.9057
▁Paidrisi	-10.9057
▁Pianiw	-10.9057
▁Ratage	-10.9057
▁Woman	-10.9057
▁alribaebang	-10.9057
▁apopangoo	-10.9057
▁aristocrat	-10.9057
▁bazabaza	-10.9057
▁dhoadhaace	-10.9057
▁didilongo	-10.9057
▁discuss	-10.9057
▁drengehana	-10.9057
▁fabric	-10.9057
▁festival	-10.9057
▁grasp	-10.9057
▁idilipi	-10.9057
▁kaiasasaa	-10.9057
▁kaladraidraza	-10.9057
▁kalahyahiga	-10.9057
▁kalalrisiane	-10.9057
▁kalapahalrae	-10.9057
▁kiaboboli	-10.9057
▁kingidralomo	-10.9057
▁késaco	-10.9057
▁késédeme	-10.9057
▁lalikilika	-10.9057
▁laobobolo	-10.9057
▁lwangoi	-10.9057
▁mabalesebese	-10.9057
▁malrilrigilinga	-10.9057
▁marngica	-10.9057
▁masitikadringay	-10.9057
▁matidadalame	-10.9057
▁matiyagawgaw	-10.9057
▁mokyokai	-10.9057
▁myalrealre	-10.9057
▁nomɨcɨmam	-10.9057
▁ohamaca	-10.9057
▁paraloba	-10.9057
▁patekedre	-10.9057
▁policies	-10.9057
▁posopra	-10.9057
▁saceacebe	-10.9057
▁salrakoykoyla	-10.9057
▁sidisidisi	-10.9057
▁slept	-10.9057
▁tahiyao	-10.9057
▁tarakopaopa	-10.9057
▁tarathaino	-10.9057
▁tarwarodrang	-10.9057
▁tatahokoka	-10.9057
▁toloholrana	-10.9057
▁tomanɨdra	-10.9057
▁tsɨkɨla	-10.9057
▁twakaenena	-10.9057
▁tɨrɨbɨ	-10.9057
▁wacalrigi	-10.9057
▁wisdom	-10.9057
▁wisengce	-10.9057
akisawlro	-10.9057
▁Taotao	-10.9057
▁apakacehe	-10.9057
▁spread	-10.9057
cnglɨ	-10.9057
dwavace	-10.9057
oliliyo	-10.9057
▁asiradra	-10.9057
▁kiasaalro	-10.9057
▁makakaela	-10.9057
▁palribola	-10.9057
▁spirit	-10.9057
▁Aroay	-10.9057
▁salabisi	-10.9057
pangodhale	-10.9057
▁Lakadhaal	-10.9057
▁mabelreng	-10.9057
oelaanga	-10.9057
popoli	-10.9057
tokacodo	-10.9057
▁Chen	-10.9057
▁nibongsi	-10.9057
▁senate	-10.9057
▁kakoakodha	-10.9057
abebebee	-10.9057
▁kiragay	-10.9057
▁moleba	-10.9057
▁Aropo	-10.9057
atwanaw	-10.9057
maolohonga	-10.9057
▁acikini	-10.9057
▁kivavange	-10.9057
▁macecele	-10.9057
▁lrisawlri	-10.9057
▁tariyaw	-10.9057
▁kongfen	-10.9057
▁otahapinga	-10.9057
▁kivaavange	-10.9057
▁Maolay	-10.9057
kisamola	-10.9057
thabre	-10.9057
▁oomoe	-10.9057
talocobongane	-10.9058
▁solte	-10.9058
▁watinono	-10.9058
ocya	-10.9058
pangepange	-10.9058
RO	-10.9058
lwange	-10.9058
▁calrai	-10.9058
▁odalɨ	-10.9058
▁sapapacai	-10.9058
akobii	-10.9058
▁omiidhe	-10.9058
alibake	-10.9058
▁cengelimade	-10.9058
▁motolrolo	-10.9058
▁kodholo	-10.9058
▁Saabaw	-10.9058
balrako	-10.9058
▁thelrece	-10.9058
▁tabere	-10.9058
▁Ngia	-10.9058
tokadrane	-10.9058
▁balase	-10.9058
kaoaongo	-10.9058
moronga	-10.9058
kikikoini	-10.9058
▁marimoro	-10.9058
▁tokotoko	-10.9058
rathod	-10.9058
▁lapanai	-10.9058
▁valakini	-10.9058
▁thɨke	-10.9058
▁ngwalai	-10.9058
ngikakamani	-10.9058
▁pelehe	-10.9058
▁padaleme	-10.9058
lripethel	-10.9058
▁lanyi	-10.9058
olig	-10.9059
kabitolro	-10.9059
bongobongo	-10.9059
▁nogene	-10.9059
▁pinkange	-10.9059
▁Kooi	-10.9059
▁peaelaela	-10.9059
▁lamengae	-10.9059
taotao	-10.9059
▁walapo	-10.9059
▁golrogolrane	-10.9059
▁hug	-10.9059
▁malimale	-10.9059
ivivai	-10.9059
mothoa	-10.9059
▁kaelrelrea	-10.9059
▁watamangesale	-10.906
▁obebere	-10.906
swlatɨ	-10.906
▁kakwakodhane	-10.906
▁truth	-10.906
▁walangalangay	-10.906
▁palralopo	-10.906
▁isioli	-10.906
inainana	-10.906
▁peach	-10.906
▁masasevesevere	-10.9061
▁savivi	-10.9061
▁akangɨ	-10.9061
▁tawkoko	-10.9061
▁bangate	-10.9061
▁ikadro	-10.9061
dokodoko	-10.9061
▁pals	-10.9061
▁kaelrea	-10.9062
▁tinoa	-10.9062
yawn	-10.9062
adadyali	-10.9062
▁koasaa	-10.9062
arche	-10.9062
▁palangini	-10.9062
rɨlé	-10.9062
▁elreelreedha	-10.9062
▁baboi	-10.9062
korisi	-10.9062
▁awlro	-10.9063
▁toroka	-10.9063
ovelre	-10.9063
▁twalrisi	-10.9063
▁kinaomasane	-10.9063
▁crop	-10.9063
haneta	-10.9063
▁lrwabwala	-10.9063
▁power	-10.9063
▁mabeabee	-10.9063
▁lasigo	-10.9063
teresɨ	-10.9064
▁tomato	-10.9064
▁cevanana	-10.9064
▁paygo	-10.9064
ciboko	-10.9065
lakebe	-10.9065
mission	-10.9065
lringaw	-10.9065
▁num	-10.9065
tolriki	-10.9066
▁pathah	-10.9066
▁mathange	-10.9066
▁tarabolrobolro	-10.9066
olawlay	-10.9066
ovagai	-10.9067
▁acɨko	-10.9067
ikemani	-10.9067
▁drakera	-10.9067
▁bengelray	-10.9068
anoaelre	-10.9068
▁dhoma	-10.9068
▁Langi	-10.9068
▁babila	-10.9068
akabelengane	-10.9068
lrabwale	-10.9068
aydri	-10.9069
▁idoo	-10.9069
▁bask	-10.9069
▁modaana	-10.9069
▁annoyed	-10.907
ikipingi	-10.9071
▁klrima	-10.9071
ahobo	-10.9072
arakayane	-10.9072
raw	-10.9072
▁shaved	-10.9072
▁munt	-10.9072
▁takataka	-10.9073
▁tapato	-10.9074
▁wasaolri	-10.9074
rats	-10.9074
▁kipaa	-10.9074
▁aoili	-10.9074
omaoma	-10.9074
gers	-10.9075
▁walraolra	-10.9075
▁walribate	-10.9075
▁aikipaelre	-10.9075
▁doroma	-10.9075
▁thɨkadane	-10.9075
▁stung	-10.9076
akwadraw	-10.9077
▁nomakɨ	-10.9077
▁clea	-10.9077
▁ipono	-10.9077
otogo	-10.9077
sorake	-10.9077
▁yea	-10.9078
▁kodhaa	-10.9078
▁tilila	-10.9078
▁langaiyana	-10.9079
▁term	-10.9079
▁twaga	-10.9079
ceme	-10.908
▁moswane	-10.908
capange	-10.908
▁irobo	-10.9081
bwale	-10.9081
▁maragre	-10.9081
▁kwisang	-10.9082
lroco	-10.9083
▁papo	-10.9083
vaivay	-10.9083
rarete	-10.9085
sape	-10.9085
▁piké	-10.9086
▁write	-10.9086
▁taramoa	-10.9086
▁thou	-10.9086
ngiadrava	-10.9087
▁moadaane	-10.9089
pakahakaha	-10.9089
eape	-10.9089
▁wadredrele	-10.9089
▁mavo	-10.9089
biki	-10.9089
bilrilanenga	-10.909
utu	-10.9091
lpɨ	-10.9091
inoni	-10.9091
apaalra	-10.9091
kiaangato	-10.9092
▁sakale	-10.9093
▁talebean	-10.9095
▁Arasa	-10.9095
twaladha	-10.9095
▁ahoa	-10.9095
▁kwini	-10.9096
▁weigh	-10.9097
rant	-10.9099
▁sék	-10.91
teter	-10.91
▁aolroli	-10.91
▁tokoholi	-10.91
▁hive	-10.91
▁malreme	-10.9101
moelebe	-10.9102
unch	-10.9103
alavalava	-10.9103
▁wakal	-10.9104
fang	-10.9104
nagipi	-10.9105
alrolrod	-10.9105
onae	-10.9106
▁tasya	-10.9107
ube	-10.9108
▁lenai	-10.9108
▁kadhao	-10.9109
▁questions	-10.9109
▁civilians	-10.911
giri	-10.9111
▁lrikatoase	-10.9111
ondon	-10.9113
▁pest	-10.9113
kacoak	-10.9113
▁tarapi	-10.9113
▁repa	-10.9113
▁lringao	-10.9115
▁todamai	-10.9115
▁wadi	-10.9115
▁tatavane	-10.9117
▁nipa	-10.9118
Mayaw	-10.912
▁tenge	-10.9121
▁nawmo	-10.9121
▁ipatokama	-10.9122
kiboboli	-10.9122
ebate	-10.9123
avange	-10.9123
▁malrigiliso	-10.9123
▁tomoli	-10.9123
▁badha	-10.9125
▁biya	-10.9126
▁mohi	-10.9128
▁agiini	-10.9129
▁gather	-10.913
balriyo	-10.9133
▁sesana	-10.9134
adhako	-10.9135
▁wapakane	-10.9135
▁matiya	-10.9136
▁samia	-10.9137
ngeangeangea	-10.9137
▁yelling	-10.9139
▁Vai	-10.9139
tarango	-10.9142
dhalro	-10.9144
eleme	-10.9148
rise	-10.915
ɨvélé	-10.9152
▁taelrelre	-10.9154
modo	-10.9154
bolabolay	-10.9155
▁masalra	-10.9156
▁lriba	-10.9156
▁key	-10.9158
▁wadoko	-10.9159
▁drama	-10.9159
kisalrowa	-10.9159
gib	-10.9161
miny	-10.9161
▁tén	-10.9162
▁somomo	-10.9162
▁kavot	-10.9163
ngico	-10.9163
▁miso	-10.9166
alodho	-10.9166
▁elreelree	-10.9167
vaale	-10.9167
alraingi	-10.9168
▁vaiya	-10.917
▁taisadrasadra	-10.9171
▁yaini	-10.9172
eam	-10.9174
icelreba	-10.9175
tog	-10.9182
atobiako	-10.9182
▁yoo	-10.9187
▁kokoi	-10.9188
apangale	-10.919
▁pati	-10.9191
lriyo	-10.9192
▁yanai	-10.9193
▁Taromaka	-10.9194
tomana	-10.9194
lengele	-10.9194
olokai	-10.9199
▁maadraw	-10.9199
▁nenea	-10.9203
longolong	-10.9206
▁Api	-10.9207
gener	-10.9209
onane	-10.9211
▁maadrao	-10.9212
hingihingi	-10.9214
▁mongo	-10.9216
▁thingaleli	-10.9217
vavava	-10.9218
▁mé	-10.9219
▁sinsinai	-10.9228
emɨ	-10.9229
tenga	-10.9233
▁kiboroboro	-10.924
▁sital	-10.924
▁amodha	-10.9245
▁yaso	-10.9245
manis	-10.9248
▁sinaw	-10.9249
oadra	-10.9255
adhili	-10.9255
esele	-10.9262
langoy	-10.9263
base	-10.9265
ngete	-10.9268
▁pow	-10.9272
▁sasev	-10.9275
▁soboro	-10.9282
orgo	-10.9285
tted	-10.9289
▁topapalra	-10.9294
ately	-10.9294
wu	-10.9297
kakoa	-10.93
opange	-10.9301
▁iniyana	-10.9306
eleba	-10.9308
lalake	-10.9309
iyobo	-10.931
ient	-10.9316
▁sasing	-10.9322
wana	-10.9326
▁pakisalroa	-10.9328
▁mapi	-10.9329
karedele	-10.9335
tengane	-10.9338
imite	-10.9342
▁cekeleli	-10.9344
▁kacaeme	-10.9347
▁maha	-10.9354
ɨngé	-10.9356
domolo	-10.9361
▁amiamia	-10.9361
tamaini	-10.9362
takanga	-10.9365
▁twalrepengenga	-10.9367
droko	-10.9373
takidremedremane	-10.9384
▁kaea	-10.9391
avelre	-10.9391
▁siolri	-10.9391
▁sooko	-10.9391
manimani	-10.9402
niako	-10.9416
▁dida	-10.9424
kalɨ	-10.9426
▁tathi	-10.9441
▁ngipap	-10.945
kɨcɨ	-10.9451
▁omoanga	-10.9452
▁ngiaka	-10.9463
▁watha	-10.9464
eces	-10.9483
▁pala	-10.9485
▁amina	-10.949
▁kielaela	-10.9505
▁naiyane	-10.9511
rivariva	-10.9514
loho	-10.9517
nme	-10.9526
▁sdrisdrisi	-10.9534
▁aisaolri	-10.954
▁aikane	-10.9549
chen	-10.9563
▁rele	-10.9571
▁bolroa	-10.9609
▁tamiya	-10.9615
tngi	-10.9618
▁ngilralredreke	-10.9625
▁syada	-10.9635
▁kiobo	-10.9638
dolri	-10.9662
▁talro	-10.9667
inema	-10.9673
hoko	-10.9678
kese	-10.9682
kɨtɨ	-10.9689
adolo	-10.969
▁soTaromaka	-10.9704
▁othɨ	-10.9708
▁pangol	-10.9726
ananaeli	-10.9728
walama	-10.9771
hae	-10.9798
ɨdɨ	-10.9798
kalisi	-10.9809
irigo	-10.9821
▁falls	-10.9824
nbi	-10.9841
sivale	-10.9861
ragil	-10.9871
moamoa	-10.9882
▁kailri	-10.9911
toatomane	-10.9921
uni	-10.9925
▁Ru	-10.9932
leve	-10.9933
▁save	-10.9936
▁pangia	-10.9937
cecenge	-10.9954
pisi	-10.9963
▁papalral	-10.9967
▁fis	-10.9984
lrobo	-10.9985
▁rid	-10.9998
amolri	-10.9999
▁walr	-11.0012
takibolrobolrowa	-11.0026
cece	-11.0035
▁aisi	-11.0037
▁iciba	-11.0042
rker	-11.0047
droanga	-11.0052
kitobi	-11.0118
olodro	-11.0128
rest	-11.0135
roadrosa	-11.015
nuts	-11.0153
▁ninet	-11.0167
▁vao	-11.017
lingo	-11.0174
wadrava	-11.0194
giamia	-11.0198
pici	-11.0201
akasi	-11.0207
▁lrongol	-11.0207
▁alaw	-11.0209
araso	-11.0218
éda	-11.022
▁moc	-11.0223
▁kogi	-11.0225
▁malim	-11.0233
longé	-11.0247
akovai	-11.0273
atɨ	-11.0307
omaomase	-11.0313
amala	-11.0323
kabola	-11.0324
kongokongo	-11.0326
mobalriw	-11.0326
kiaseasene	-11.0338
▁tobavan	-11.0341
bilibili	-11.035
Vedai	-11.0351
vienɨ	-11.0355
lape	-11.0358
alɨ	-11.0359
laobo	-11.036
madɨ	-11.0361
iiki	-11.0362
airo	-11.0363
nganeli	-11.0367
yakay	-11.0369
bli	-11.0373
▁kaino	-11.0384
C	-11.0385
pacer	-11.0386
grandmother	-11.0392
wale	-11.0394
child	-11.0396
kené	-11.0411
obolo	-11.0412
why	-11.0413
pacase	-11.0423
sol	-11.0447
akamol	-11.045
▁sevent	-11.0463
ster	-11.0464
dreela	-11.0465
kisia	-11.0469
cla	-11.0491
meat	-11.0492
apimo	-11.0493
odaw	-11.0502
▁aipa	-11.0508
siho	-11.0511
dolroa	-11.0532
drere	-11.054
babange	-11.0549
melre	-11.0552
▁participat	-11.0556
péso	-11.0566
kipi	-11.0583
kikai	-11.0584
fo	-11.061
avangane	-11.0611
▁sawlri	-11.0612
▁lripa	-11.0629
tati	-11.0635
knia	-11.0649
abɨrɨ	-11.0661
nɨnga	-11.0662
pawa	-11.0664
▁magi	-11.0668
▁rono	-11.0671
▁tib	-11.0671
ikainga	-11.0683
▁vongovongo	-11.0686
idai	-11.0686
lolodane	-11.0688
anikoa	-11.0714
rice	-11.0716
elepe	-11.0732
ayasasane	-11.0769
rase	-11.0773
wakane	-11.0799
tale	-11.081
▁piki	-11.0811
kikay	-11.0821
imai	-11.0839
▁tapapi	-11.084
▁imp	-11.085
anemane	-11.0854
sange	-11.0863
damo	-11.0866
tongma	-11.0888
édra	-11.0904
kaolrao	-11.0916
▁lep	-11.0933
▁kakimo	-11.0934
▁Kacalrisilrisi	-11.0936
thoro	-11.0959
▁Tan	-11.0999
ingase	-11.1004
hoes	-11.1009
elenga	-11.101
▁tobava	-11.1033
▁takol	-11.1036
abai	-11.1037
angikalra	-11.1067
okodro	-11.1076
lela	-11.1162
cici	-11.1166
▁swalro	-11.1167
osɨ	-11.1169
▁wado	-11.1205
kete	-11.1224
cilr	-11.1251
alodro	-11.1256
katomane	-11.1256
▁yali	-11.1267
hoho	-11.1275
lrang	-11.129
olako	-11.1294
▁tathingal	-11.135
maboto	-11.1358
abeleng	-11.1379
amanga	-11.1383
langalanga	-11.1411
lribate	-11.1425
sodalro	-11.1463
ision	-11.1467
alribo	-11.1514
drengere	-11.1531
damay	-11.1541
▁sdrisdris	-11.1549
asoalala	-11.1549
▁kelre	-11.1584
moke	-11.1624
tékadra	-11.1646
ession	-11.1657
kaiyako	-11.1665
wakoso	-11.1668
gara	-11.1687
kadre	-11.1704
▁ngiakak	-11.1722
▁lop	-11.1727
dhalri	-11.1733
avane	-11.1733
etenga	-11.1759
ngocong	-11.176
hanane	-11.176
asaké	-11.1776
waongo	-11.181
etalre	-11.1818
▁kitobolro	-11.1822
tokono	-11.1824
okakaiya	-11.1836
▁otahamangele	-11.1839
asiyo	-11.1846
▁sawl	-11.1854
repane	-11.1856
▁conve	-11.1857
▁moro	-11.1865
ored	-11.1868
otomo	-11.188
apiyani	-11.188
▁bonka	-11.1903
atange	-11.1915
pacay	-11.1918
▁acc	-11.1949
nakay	-11.195
▁thal	-11.1952
han	-11.1953
▁tbɨ	-11.1959
asabo	-11.1962
▁drangedrang	-11.197
▁paytha	-11.1974
rani	-11.1983
kanai	-11.1986
acasa	-11.1994
angili	-11.2002
▁ngika	-11.201
▁talr	-11.2011
oofing	-11.2018
cɨb	-11.2024
▁lopo	-11.2034
▁build	-11.2036
▁senior	-11.2046
▁sakaci	-11.2051
drolo	-11.2055
▁mobo	-11.2055
dosia	-11.2059
▁Kaynwan	-11.2061
▁adrai	-11.2064
▁tokaang	-11.2066
▁tolrepenge	-11.2067
dhaacengalrao	-11.2073
▁Ngodradrekadha	-11.2073
▁tékan	-11.2074
▁koisan	-11.2076
abotho	-11.2079
▁wamec	-11.2079
tol	-11.2082
▁shoe	-11.2083
dremedreme	-11.2088
abang	-11.2088
▁tangimiamia	-11.2089
omɨcɨ	-11.2089
ngolo	-11.2091
▁importan	-11.2096
athariri	-11.2097
▁pasopa	-11.2101
avara	-11.2103
dalamako	-11.2105
emedreme	-11.2105
belebelenge	-11.2112
▁stole	-11.2116
▁okalava	-11.2116
ɨné	-11.2118
▁ngik	-11.2119
tobiako	-11.212
voso	-11.212
vant	-11.2121
twatoma	-11.2125
adringadringay	-11.2125
apiapia	-11.2128
bolroane	-11.2129
▁cin	-11.2135
balriva	-11.2136
ngkang	-11.2139
ngohikoki	-11.2139
▁Teldreka	-11.214
▁asiloiya	-11.214
▁aitoma	-11.214
▁dén	-11.214
▁balrola	-11.2141
retesa	-11.2141
▁cevana	-11.2143
▁mapit	-11.2143
▁nodopa	-11.2143
▁karedede	-11.2143
boelɨ	-11.2144
▁respect	-11.2147
ngopia	-11.2147
ovalriyo	-11.2148
▁ongténg	-11.2148
atolro	-11.2149
aykameane	-11.2149
pakisalr	-11.2149
kilalalra	-11.2149
▁famili	-11.215
this	-11.215
tɨlamɨ	-11.215
lravathe	-11.2151
uku	-11.2151
cus	-11.2152
▁vegeta	-11.2152
▁lrwasa	-11.2152
padodoo	-11.2152
gemegeme	-11.2152
psédeme	-11.2152
▁Wans	-11.2152
▁angkémoso	-11.2152
▁médɨli	-11.2152
▁pursu	-11.2152
aanoapalra	-11.2152
adadalame	-11.2152
akokaecelrange	-11.2152
alamelamengane	-11.2152
dralrangedrange	-11.2152
eanwhile	-11.2152
ekepeke	-11.2152
githigithi	-11.2152
idolrodolro	-11.2152
iyasolodrane	-11.2152
kalalidrarane	-11.2152
kalavengelralrae	-11.2152
kihikihi	-11.2152
lazu	-11.2152
mdradrɨsngɨ	-11.2152
pingsiang	-11.2152
posobaka	-11.2152
sisyepɨ	-11.2152
sorsor	-11.2152
tarapasoala	-11.2152
tatelradhane	-11.2152
thabethabe	-11.2152
ɨsɨgɨ	-11.2152
▁Adralriu	-11.2152
▁Aruay	-11.2152
▁Atayal	-11.2152
▁Ipulu	-11.2152
▁Karuku	-11.2152
▁Kulele	-11.2152
▁Laikimi	-11.2152
▁Maelanenga	-11.2152
▁Soliyape	-11.2152
▁Tarumake	-11.2152
▁Wutai	-11.2152
▁adhaadhame	-11.2152
▁akalrolai	-11.2152
▁alrigoali	-11.2152
▁boetɨ	-11.2152
▁cacɨngalɨ	-11.2152
▁cyavili	-11.2152
▁cɨkɨcɨkɨlɨ	-11.2152
▁drɨkerle	-11.2152
▁equality	-11.2152
▁happily	-11.2152
▁idhopele	-11.2152
▁kadadalranane	-11.2152
▁kalakekecelra	-11.2152
▁kalarigarigane	-11.2152
▁kalariyariga	-11.2152
▁kasiloane	-11.2152
▁kiakamoramoraw	-11.2152
▁kiathareve	-11.2152
▁kinawmasane	-11.2152
▁kiyatoma	-11.2152
▁kozolo	-11.2152
▁kyaseasen	-11.2152
▁laadhaadhame	-11.2152
▁lobiibilrili	-11.2152
▁lramatakataka	-11.2152
▁lwalranga	-11.2152
▁madhalremedheme	-11.2152
▁makatamalie	-11.2152
▁makorathɨ	-11.2152
▁mangangehece	-11.2152
▁maobalribalrith	-11.2152
▁margagi	-11.2152
▁maridare	-11.2152
▁masiarara	-11.2152
▁mathaithariri	-11.2152
▁mlrémle	-11.2152
▁moTaito	-11.2152
▁molangyi	-11.2152
▁mvangte	-11.2152
▁nodalɨma	-11.2152
▁nogɨne	-11.2152
▁odhiodhipi	-11.2152
▁olrivate	-11.2152
▁omohomohonga	-11.2152
▁palrayngi	-11.2152
▁pianiakɨné	-11.2152
▁properties	-11.2152
▁ptélo	-11.2152
▁rarokorokodro	-11.2152
▁sagemalre	-11.2152
▁saleseese	-11.2152
▁salrakoikoilane	-11.2152
▁saparaisaneta	-11.2152
▁solatiso	-11.2152
▁solosolote	-11.2152
▁taisolasoladha	-11.2152
▁takoaiavithi	-11.2152
▁taseketane	-11.2152
▁tisiyaba	-11.2152
▁twakainena	-11.2152
▁virgin	-11.2152
▁wamohomohonga	-11.2152
▁wawoodo	-11.2152
▁weysengce	-11.2152
=	-11.2153
Dhekai	-11.2153
amatikoro	-11.2153
crimina	-11.2153
miyalrealre	-11.2153
ngiragelan	-11.2153
ngisasingkai	-11.2153
olɨngalɨngé	-11.2153
poalringalringaw	-11.2153
sɨtosia	-11.2153
▁Dridripongan	-11.2153
▁Kukui	-11.2153
▁aitotoatomane	-11.2153
▁akasavahe	-11.2153
▁asarké	-11.2153
▁couple	-11.2153
▁deliberat	-11.2153
▁kalakeceane	-11.2153
▁kilalava	-11.2153
▁kyabobo	-11.2153
▁mabalrebalre	-11.2153
▁magagemegeme	-11.2153
▁miiyangai	-11.2153
▁mikakwa	-11.2153
▁nolɨngémakɨ	-11.2153
▁pakalreva	-11.2153
▁podringi	-11.2153
▁sipiyaliya	-11.2153
▁tahathaino	-11.2153
▁talangolango	-11.2153
▁tapekece	-11.2153
▁thaviki	-11.2153
▁tikohai	-11.2153
▁wasabalringa	-11.2153
▁ɨbɨlɨ	-11.2153
ailrilrai	-11.2153
anosangepahe	-11.2153
avalavalakili	-11.2153
brobr	-11.2153
iteay	-11.2153
ngidrakala	-11.2153
talrogolrogane	-11.2153
▁Kulas	-11.2153
▁Lapu	-11.2153
▁abrélé	-11.2153
▁dilrongo	-11.2153
▁kukui	-11.2153
▁kyabolro	-11.2153
▁laomase	-11.2153
▁lroolai	-11.2153
▁mosakidri	-11.2153
▁pwacilacilay	-11.2153
▁taramangeale	-11.2153
▁thkebe	-11.2153
▁vanidho	-11.2153
▁wadawlo	-11.2153
Otonga	-11.2153
rapangane	-11.2153
▁asingitha	-11.2153
▁marodrɨng	-11.2153
▁ngodoi	-11.2153
我	-11.2153
aciacilay	-11.2153
kisolrava	-11.2153
sidramadrama	-11.2153
▁Malrengana	-11.2153
▁lrenege	-11.2153
▁makiwc	-11.2153
▁matwase	-11.2153
▁mwbaliy	-11.2153
dralreke	-11.2153
glinɨma	-11.2153
tathaino	-11.2153
thathatha	-11.2153
▁makataamani	-11.2153
avathiya	-11.2153
lraolraodro	-11.2153
podriadringay	-11.2153
▁Pingikalra	-11.2153
▁babangɨ	-11.2153
▁dominat	-11.2153
▁lalacenga	-11.2153
▁samogako	-11.2153
▁tyanese	-11.2153
aliyaliya	-11.2153
ltɨ	-11.2153
▁kvaro	-11.2153
▁kyahaga	-11.2153
▁maricolo	-11.2153
▁smash	-11.2153
▁blibili	-11.2153
▁mekɨtɨnga	-11.2153
▁oomoli	-11.2153
▁bakisiy	-11.2153
▁talangalangaane	-11.2153
▁tiyanese	-11.2153
bɨva	-11.2153
▁berathe	-11.2153
▁doomya	-11.2153
▁pgé	-11.2153
▁tahiyo	-11.2153
nɨmɨ	-11.2153
▁kiyalalra	-11.2153
▁odhaadhaace	-11.2153
▁osolatenga	-11.2153
▁kaingangai	-11.2153
▁ladhadhame	-11.2153
▁saviki	-11.2153
▁tétho	-11.2153
aeleele	-11.2153
kathabara	-11.2153
▁Adralrio	-11.2153
▁drakale	-11.2153
▁kivavaga	-11.2153
dreredrere	-11.2153
▁Cangala	-11.2153
▁mamolisi	-11.2153
opapalange	-11.2153
talrailragi	-11.2153
▁penkang	-11.2153
▁taongodokadhane	-11.2153
▁aibolro	-11.2153
▁mobere	-11.2153
▁valavalak	-11.2153
▁daykongo	-11.2153
▁kdroo	-11.2153
▁takaokaw	-11.2153
soswape	-11.2153
▁necessit	-11.2153
▁tacebea	-11.2153
▁tianese	-11.2153
▁kwakwao	-11.2153
kahimoho	-11.2153
▁frightened	-11.2153
avétha	-11.2153
drengedrenge	-11.2153
▁maolaynga	-11.2153
palapalay	-11.2153
oponoponoha	-11.2153
que	-11.2153
▁abobolro	-11.2153
▁stack	-11.2153
▁talicobong	-11.2153
▁kawrivariva	-11.2153
▁loadhana	-11.2153
▁skakolane	-11.2153
akosaaen	-11.2153
▁sialenay	-11.2153
repnge	-11.2153
kɨdrali	-11.2153
▁dingki	-11.2153
▁sarké	-11.2153
▁dredredreele	-11.2153
▁obobola	-11.2153
▁sakera	-11.2153
wagogo	-11.2153
valringiv	-11.2153
▁ngyalalrang	-11.2153
▁matoolo	-11.2153
▁kamangolo	-11.2153
▁nodale	-11.2153
▁watekepe	-11.2153
▁lrolram	-11.2153
▁makocingay	-11.2153
▁pavilringi	-11.2153
▁wasyasipi	-11.2153
takilili	-11.2153
▁taelreelreini	-11.2153
lémɨcɨ	-11.2153
Ku	-11.2153
▁masiasilange	-11.2153
diadi	-11.2153
▁spasobké	-11.2153
▁olangalangaikan	-11.2153
ébibé	-11.2153
▁dadavaca	-11.2153
▁langaza	-11.2153
▁sodang	-11.2153
▁taikiedha	-11.2153
▁level	-11.2153
▁lroiga	-11.2153
▁masipepe	-11.2153
▁seasenay	-11.2153
Sbalay	-11.2153
bsɨbsɨ	-11.2153
▁tawlima	-11.2153
▁akwani	-11.2153
▁nokanɨma	-11.2153
▁olropengenga	-11.2153
teketeke	-11.2153
▁talwabalr	-11.2153
acoga	-11.2154
ijiao	-11.2154
omasa	-11.2154
▁Tuku	-11.2154
▁idiri	-11.2154
▁twalisiya	-11.2154
▁siobay	-11.2154
▁vlavlakɨ	-11.2154
abetake	-11.2154
langelange	-11.2154
yenɨnga	-11.2154
▁kovasal	-11.2154
▁takolralrava	-11.2154
wcia	-11.2154
edheke	-11.2154
adolrowane	-11.2154
osaken	-11.2154
iangh	-11.2154
▁matɨkadr	-11.2154
▁madradreseng	-11.2154
▁kyasalro	-11.2154
▁akwaso	-11.2154
mavaolo	-11.2154
▁tokololi	-11.2154
▁patient	-11.2154
▁taolrima	-11.2154
▁companion	-11.2154
redrare	-11.2154
▁biyoingi	-11.2154
kasopatele	-11.2154
▁odholrokai	-11.2154
▁thɨkadang	-11.2154
▁toalrepeng	-11.2154
▁create	-11.2154
▁aolrolai	-11.2154
obalate	-11.2154
talialaala	-11.2154
▁mabithengel	-11.2154
▁tɨkoko	-11.2154
sovri	-11.2155
▁mwdaane	-11.2155
▁matilibi	-11.2155
ɨbɨkɨ	-11.2155
▁higi	-11.2155
abeiso	-11.2155
▁mahamao	-11.2155
atoo	-11.2155
▁wapaka	-11.2155
hahamao	-11.2155
kebere	-11.2155
ɨlamɨkoa	-11.2155
▁doray	-11.2155
lecega	-11.2155
toropongo	-11.2155
torokodro	-11.2156
▁syaetenga	-11.2156
▁childhood	-11.2156
ngedele	-11.2156
▁makolongo	-11.2156
twairo	-11.2156
▁families	-11.2156
kocibir	-11.2156
lamengane	-11.2156
▁viper	-11.2156
▁potalovaiva	-11.2156
▁kobaw	-11.2156
serve	-11.2156
▁ponkang	-11.2156
▁nonoro	-11.2156
laolaw	-11.2156
▁paocilri	-11.2156
iniyaelre	-11.2156
▁ketekete	-11.2157
▁cwace	-11.2157
deethe	-11.2157
▁kilalibak	-11.2157
alriyae	-11.2157
▁lrolay	-11.2157
▁bcɨngɨ	-11.2157
mosobaka	-11.2157
▁lumber	-11.2157
▁alroono	-11.2157
kopia	-11.2157
▁vagisi	-11.2157
▁mabibi	-11.2157
wapii	-11.2157
▁lrikacolo	-11.2157
▁toapoi	-11.2157
▁lroiki	-11.2158
drɨsɨ	-11.2158
▁downstairs	-11.2158
▁madir	-11.2158
sɨbɨrɨ	-11.2158
▁sakadrosa	-11.2158
▁mokanikɨ	-11.2158
▁malimali	-11.2158
▁tawalrima	-11.2158
▁kialalra	-11.2158
lrolropi	-11.2158
▁Taroko	-11.2158
▁athiili	-11.2159
▁Taiciyo	-11.2159
apapacay	-11.2159
lengelenge	-11.2159
▁rɨna	-11.2159
▁surprise	-11.2159
▁Lu	-11.2159
▁trunk	-11.2159
vecah	-11.2159
▁kedrali	-11.2159
iyasasadra	-11.2159
▁modrakerale	-11.2159
▁Mumuni	-11.2159
▁penghw	-11.2159
alringana	-11.2159
pyani	-11.216
▁sasolravane	-11.216
hevehe	-11.216
kabeabee	-11.216
sititi	-11.216
▁tolropongo	-11.216
inipalapalai	-11.216
▁tokosi	-11.216
▁char	-11.216
brabr	-11.216
▁laiyaikai	-11.216
▁skadr	-11.216
▁identity	-11.216
▁pakono	-11.216
koladhane	-11.216
▁lrigilane	-11.2161
thahev	-11.2161
▁mabosoko	-11.2161
▁miciyo	-11.2161
dratane	-11.2161
▁orɨdɨ	-11.2161
bobaro	-11.2161
▁covo	-11.2162
kivagako	-11.2162
▁wakelamado	-11.2162
▁kanaedha	-11.2163
▁toliki	-11.2163
▁accord	-11.2163
▁Ceme	-11.2163
kerenge	-11.2163
▁pasopalra	-11.2163
delena	-11.2164
ocongolo	-11.2164
siwlri	-11.2164
bwane	-11.2164
▁akwadradra	-11.2164
▁lawlri	-11.2164
▁relat	-11.2164
▁nakaowai	-11.2164
olivate	-11.2164
siasingi	-11.2164
▁blate	-11.2165
▁Teldrekane	-11.2165
▁asiloiyane	-11.2165
▁ngotolro	-11.2166
cebɨ	-11.2166
▁dhalinga	-11.2166
retesane	-11.2166
swlat	-11.2166
déng	-11.2166
rican	-11.2166
ridrosa	-11.2166
patwa	-11.2167
kalrigili	-11.2167
▁ikédria	-11.2167
▁bead	-11.2167
énidria	-11.2167
▁eray	-11.2168
homoko	-11.2168
dɨlé	-11.2168
hihi	-11.2168
▁tingse	-11.2169
▁tél	-11.2169
kapairang	-11.2169
takesikesi	-11.2169
tésiaba	-11.2169
▁ciingi	-11.217
▁masolra	-11.2171
▁samoro	-11.2171
▁lokabibilrili	-11.2171
lriniya	-11.2171
▁peep	-11.2171
▁mabilibilibili	-11.2171
▁apology	-11.2172
▁ikaivai	-11.2172
▁Lrikane	-11.2172
▁dawlo	-11.2172
▁kolrabao	-11.2172
inikookono	-11.2172
lɨgɨ	-11.2172
▁vɨlo	-11.2173
▁mwabeleng	-11.2173
▁broco	-11.2173
orasi	-11.2173
ebeke	-11.2174
▁lodreela	-11.2174
▁nokana	-11.2174
▁késdama	-11.2174
▁lɨm	-11.2175
▁posopa	-11.2175
boobolro	-11.2175
▁lingao	-11.2175
▁thiili	-11.2176
arimora	-11.2176
▁pakathariri	-11.2176
icide	-11.2176
pɨdra	-11.2176
maycenge	-11.2177
▁olɨngé	-11.2177
▁mood	-11.2177
kikawria	-11.2177
▁balac	-11.2178
▁aingokai	-11.2178
dredreme	-11.2178
dodoko	-11.2178
kakolanɨ	-11.2178
▁Sia	-11.2178
▁lecenge	-11.2178
cco	-11.2179
oavili	-11.2179
▁smaller	-11.2179
▁zokonai	-11.2179
pangibilri	-11.218
ogogo	-11.218
samadrane	-11.218
:"	-11.2181
▁paithay	-11.2181
▁takedrengé	-11.2181
▁Taitong	-11.2182
gilimwa	-11.2182
apacai	-11.2182
▁baowa	-11.2183
awgaw	-11.2183
▁kboboro	-11.2183
▁madradra	-11.2183
▁wagiri	-11.2184
▁corps	-11.2184
iamia	-11.2184
▁kelakelanga	-11.2186
lregelrega	-11.2186
▁pahai	-11.2186
roborobo	-11.2187
▁karila	-11.2187
▁arigoa	-11.2188
▁okanɨ	-11.2188
▁lrikela	-11.219
amai	-11.219
▁sasolasolate	-11.219
▁mir	-11.2191
lraveve	-11.2192
▁kelacenge	-11.2192
tailebe	-11.2193
tamolatadr	-11.2193
trans	-11.2194
alonga	-11.2194
pavalavala	-11.2194
alringolo	-11.2194
pangolro	-11.2195
▁pretend	-11.2195
ahalrae	-11.2195
rededele	-11.2196
▁sabolo	-11.2196
vanɨ	-11.2197
▁alawlai	-11.2197
walomo	-11.2198
▁balrio	-11.2198
balai	-11.2199
▁pathingale	-11.2201
akame	-11.2202
▁kasipelre	-11.2203
▁booane	-11.2203
▁wapacay	-11.2204
thiyabe	-11.2204
▁kwalre	-11.2204
ngiyaw	-11.2204
▁lrikace	-11.2204
▁loadhane	-11.2205
▁sidosia	-11.2206
▁mwakolodr	-11.2207
ress	-11.2208
▁okela	-11.2209
▁wasilasilape	-11.2209
▁makakane	-11.2209
vovo	-11.2209
▁omalra	-11.2209
argi	-11.221
draongaso	-11.221
▁mokaninga	-11.221
▁orongo	-11.221
▁icecelrenge	-11.2211
ceceele	-11.2211
▁tagaga	-11.2212
▁interesting	-11.2213
idiya	-11.2214
▁coko	-11.2215
▁Su	-11.2215
▁tkoro	-11.2215
boho	-11.2216
angeale	-11.2216
lricongo	-11.2216
▁nigi	-11.2216
▁wacogo	-11.2216
apitak	-11.2219
▁jie	-11.2219
▁shave	-11.2221
▁adaili	-11.2222
▁timoso	-11.2224
▁yabelenge	-11.2224
▁Lrimo	-11.2224
motaowanane	-11.2225
▁kolao	-11.2225
▁wacegecege	-11.2225
▁médavlinga	-11.2225
▁analo	-11.2226
amoro	-11.2227
kwanimade	-11.2228
aiwan	-11.2228
bɨrlɨl	-11.2228
▁waledra	-11.2228
awkayya	-11.2229
sikaino	-11.223
kathane	-11.2231
Ngodradrekadhane	-11.2232
▁waceela	-11.2234
akabaka	-11.2237
toloko	-11.2238
yabe	-11.2238
legeagea	-11.2238
▁waalopo	-11.2238
odongo	-11.2239
badhane	-11.2239
▁lomaongo	-11.2239
kathaane	-11.224
lrolroy	-11.2241
silapa	-11.2242
▁drianɨ	-11.2243
kalakecelrane	-11.2244
▁lakaka	-11.2244
▁Kaynwane	-11.2245
▁moiso	-11.2246
▁kaimaka	-11.2246
▁tabolr	-11.2247
tolrepengenga	-11.2248
ainana	-11.2249
▁hik	-11.2251
▁ababong	-11.2251
▁wadreele	-11.2252
▁mwathi	-11.2255
thotho	-11.2256
▁loomo	-11.2257
bingi	-11.2257
▁tawana	-11.2257
▁Mau	-11.2257
hotongo	-11.2258
▁rag	-11.2259
▁oono	-11.2259
▁waapece	-11.2259
▁ciey	-11.226
sateatedre	-11.2261
ngiadrakale	-11.2261
▁mold	-11.2261
▁lrana	-11.2261
▁loud	-11.2263
▁sidrisidrisi	-11.2264
réta	-11.2264
▁aitomane	-11.2266
rian	-11.2267
▁beads	-11.2267
▁matharirir	-11.2267
▁mobola	-11.2268
kalrase	-11.227
dhalra	-11.2272
▁apange	-11.2272
lrilrikili	-11.2273
celra	-11.2274
birli	-11.2274
▁wabai	-11.2274
▁wapic	-11.2276
▁bwati	-11.2277
ɨtha	-11.2277
iidhedhemelra	-11.2278
ivate	-11.2278
idholro	-11.2279
ikaikay	-11.228
kiboboi	-11.228
▁moino	-11.2281
▁memane	-11.2281
yogo	-11.2282
viɨ	-11.2284
▁fac	-11.2284
emelre	-11.2285
▁odaodalenga	-11.2287
▁samaka	-11.2288
▁searching	-11.2288
▁posi	-11.2289
aagae	-11.2289
kadreng	-11.2293
lamama	-11.2295
▁edé	-11.2297
▁nodo	-11.2298
roboa	-11.2301
▁watched	-11.2302
▁kiwkai	-11.231
elange	-11.231
ishi	-11.2312
drangedrange	-11.2317
tolravai	-11.2318
▁pakisa	-11.2319
▁lanagane	-11.2319
mawngo	-11.2326
lrokolo	-11.2328
▁exp	-11.2328
daili	-11.2329
▁sent	-11.233
dedepe	-11.233
▁koasane	-11.233
▁acɨ	-11.2331
▁sakaka	-11.2332
▁Ro	-11.2333
vaiyane	-11.2334
▁takebe	-11.2339
▁manget	-11.234
lrotho	-11.2342
avoto	-11.2343
▁ngorobo	-11.2344
▁Un	-11.2344
esebe	-11.2345
▁amoanga	-11.2345
▁maicecelenge	-11.2345
nghikoki	-11.2346
ɨthɨ	-11.2349
▁lida	-11.235
imade	-11.2356
venge	-11.2357
▁taene	-11.2362
▁komaongo	-11.2362
▁maopong	-11.2362
▁Alay	-11.2365
angobas	-11.2369
▁paythayani	-11.2372
▁nikai	-11.2372
▁taiane	-11.2373
piakay	-11.2373
▁tokocingalre	-11.2376
▁Kadroa	-11.2377
ocogo	-11.2379
lɨsé	-11.2381
▁dir	-11.2381
▁wacengele	-11.2381
▁adoka	-11.2382
▁kivaevange	-11.2383
asimayane	-11.2383
▁maelaela	-11.2385
nega	-11.2387
nginame	-11.2391
angoinga	-11.2393
adavan	-11.2395
▁Ah	-11.2396
▁ngeres	-11.2396
daedae	-11.2403
▁kilacenge	-11.241
▁abongo	-11.2412
▁bwai	-11.2414
▁gakonai	-11.2417
ikini	-11.2418
▁lrikodranga	-11.2419
rap	-11.2421
lrakisi	-11.2423
moongo	-11.2429
olropeng	-11.2432
▁wasinasina	-11.2433
▁sodo	-11.2436
▁drops	-11.2436
▁aidavacenga	-11.2436
▁edreka	-11.2441
▁Kacalrisiya	-11.2441
dɨd	-11.2444
▁wasapa	-11.2446
▁coolo	-11.2448
takesinga	-11.245
yanini	-11.2453
▁beke	-11.2455
▁aray	-11.2456
tatokono	-11.2458
▁kyaca	-11.2458
langɨ	-11.2459
iding	-11.2459
midi	-11.2465
tokonoi	-11.2465
bekac	-11.2466
orikay	-11.2468
▁kwako	-11.2471
kakaiya	-11.2472
▁yin	-11.2473
▁otahamangelenga	-11.2476
coane	-11.2477
▁Momo	-11.248
▁roo	-11.2482
bane	-11.2487
▁mili	-11.2488
kɨce	-11.2488
▁sinci	-11.2493
▁thre	-11.2493
dadav	-11.2502
▁nadro	-11.2503
▁taiyaw	-11.2504
▁icail	-11.2508
abola	-11.2509
▁korongo	-11.251
kodholro	-11.2511
yoso	-11.2515
▁todaane	-11.2515
enty	-11.2517
giama	-11.252
▁demel	-11.2526
alrainga	-11.2528
iciyo	-11.2529
bilane	-11.2535
▁mahi	-11.2542
sawsi	-11.2547
▁Dripongo	-11.2548
angito	-11.2549
▁Sad	-11.2552
tbav	-11.2565
▁beca	-11.2568
kidredre	-11.2589
imoane	-11.2594
iliti	-11.2603
▁offende	-11.2613
▁madhalameka	-11.2617
bethe	-11.2627
▁alop	-11.2627
elelre	-11.2628
akanakan	-11.2629
vavale	-11.2636
cang	-11.2647
tɨtɨ	-11.2657
écé	-11.2662
asiasip	-11.2665
▁kavai	-11.2668
▁Toko	-11.2679
▁véva	-11.2684
▁wasena	-11.2685
▁tapo	-11.2701
choan	-11.2703
asipi	-11.2704
ikɨmani	-11.2716
aelreka	-11.2729
atedra	-11.2741
▁tiday	-11.2743
pwalra	-11.2756
amake	-11.277
ngép	-11.2771
kaloka	-11.2781
▁Veda	-11.2792
itoa	-11.2797
aiiloko	-11.2799
acekace	-11.2807
▁mabarengera	-11.2815
poco	-11.2815
▁agai	-11.2818
arane	-11.2831
cekeleini	-11.2834
▁daadavac	-11.2839
▁akoaea	-11.2848
meri	-11.2856
athoro	-11.2857
▁cengeli	-11.2863
aomo	-11.2864
lriaw	-11.2877
▁maong	-11.2898
topadolro	-11.29
krongo	-11.2901
dhame	-11.2931
thili	-11.2942
ilay	-11.2949
taowaa	-11.2949
dede	-11.2949
cengeana	-11.2963
▁ngesa	-11.2981
mingi	-11.2996
otho	-11.3001
liv	-11.3001
▁sixt	-11.3003
▁koiga	-11.3007
▁aciko	-11.3017
▁maimorokɨ	-11.3027
▁longokay	-11.3032
ank	-11.3072
▁ngodradre	-11.3085
ripi	-11.3102
▁adrika	-11.3102
arata	-11.3111
▁mobaliyonga	-11.3113
lolay	-11.3119
dramane	-11.312
▁wakap	-11.3121
▁sovilri	-11.3152
drikisi	-11.3158
siyaete	-11.3161
▁pr	-11.3177
▁watake	-11.3178
▁wadrel	-11.3209
atu	-11.3215
lrake	-11.3231
kamama	-11.3247
ikilanga	-11.3266
ɨdanɨ	-11.3269
pɨdrɨng	-11.327
▁walanga	-11.3283
aidridring	-11.3286
▁kidreseng	-11.3293
itovolr	-11.3298
▁takiya	-11.3302
habe	-11.331
▁mapalrib	-11.3339
▁drapali	-11.335
thari	-11.3355
ikaodho	-11.3355
kodho	-11.3367
▁apoi	-11.3369
lici	-11.3371
pakɨ	-11.3373
▁bob	-11.3409
kilromay	-11.3413
anako	-11.3417
poho	-11.3431
▁mida	-11.3431
▁dholronga	-11.3438
adring	-11.3447
ebee	-11.3447
borakoa	-11.3477
ngisi	-11.3497
kaneso	-11.3504
▁takidremedrem	-11.3512
émanga	-11.3519
▁noleng	-11.3535
malrao	-11.3539
viv	-11.3542
▁lrange	-11.3544
lɨp	-11.3572
▁lanika	-11.3578
▁dholroka	-11.3594
▁lomak	-11.3622
▁langayani	-11.3666
waswaswa	-11.3678
mav	-11.3697
▁pasodam	-11.3719
tɨkɨ	-11.3725
kakola	-11.3787
lada	-11.3787
depani	-11.3802
▁amaong	-11.3809
acake	-11.3823
wanana	-11.3859
stairs	-11.3869
odane	-11.3872
laliali	-11.3878
momoo	-11.3892
▁Madr	-11.39
adradra	-11.3907
daana	-11.3938
evege	-11.3977
elaneli	-11.3978
▁maty	-11.3982
ɨbar	-11.4044
▁twala	-11.4052
▁kɨp	-11.4055
▁olangai	-11.407
lroalro	-11.4074
yagi	-11.4083
asika	-11.409
▁Tin	-11.4104
▁Kon	-11.4122
awka	-11.4137
cocobong	-11.4194
dreedre	-11.4198
waobo	-11.4198
modha	-11.4204
lrikane	-11.4205
gipi	-11.4223
ɨcɨ	-11.4243
ɨdam	-11.4252
▁matiko	-11.4263
▁chopp	-11.4268
▁kɨnam	-11.4301
miako	-11.4332
takadh	-11.4349
aidi	-11.4351
▁dh	-11.4356
bilringi	-11.4401
▁madralr	-11.4412
salro	-11.4417
taelreane	-11.4419
yadringai	-11.4422
caw	-11.4435
lreng	-11.4439
well	-11.4443
edrase	-11.4458
lraine	-11.4465
anavane	-11.4465
ikoli	-11.4507
▁nodepa	-11.4526
alealeale	-11.4533
kivi	-11.4541
bakɨ	-11.4577
▁ɨlɨ	-11.4593
▁sakil	-11.4628
padalronga	-11.4639
kaleketa	-11.4652
colocolo	-11.4673
▁klap	-11.4673
ababa	-11.4757
hongo	-11.4757
aramoro	-11.4789
▁singka	-11.4811
aysi	-11.4826
kelanganai	-11.4827
drakerale	-11.4831
tawpongo	-11.4831
Oponoho	-11.4831
ingpico	-11.4831
tokodrali	-11.4832
lrehelrehe	-11.4834
twatwatoma	-11.4838
biilanenga	-11.4841
tradro	-11.4843
plants	-11.4848
cɨnglɨ	-11.4849
lredreke	-11.485
egeege	-11.4851
kakadroa	-11.4854
kongkoane	-11.486
oponoholra	-11.4863
lehe	-11.4865
kodrolo	-11.4867
ship	-11.4868
lavavalake	-11.4869
Mrino	-11.4869
hook	-11.4873
saowalai	-11.4874
saovalay	-11.4876
kameamealeane	-11.4878
U	-11.4883
kné	-11.4885
sleep	-11.4889
cooked	-11.4891
ahakai	-11.4891
takoraoro	-11.4892
wear	-11.4894
K	-11.4894
molebe	-11.4897
kadrowa	-11.4899
makanaelre	-11.4899
wabalre	-11.4913
arakaiyan	-11.4915
mathariri	-11.4918
took	-11.4922
doing	-11.4931
mind	-11.4931
wathingale	-11.4941
waodriodripi	-11.4953
rakac	-11.4994
odradreadrekadha	-11.4998
▁spak	-11.5031
lrakay	-11.506
dholrokali	-11.5068
yaie	-11.5073
dridring	-11.5096
capab	-11.5101
but	-11.5119
abelra	-11.5148
mapelaela	-11.5161
aku	-11.518
ɨlɨl	-11.5186
▁cac	-11.5209
rakai	-11.5262
▁arakayya	-11.5268
dhele	-11.5287
dradreel	-11.5367
▁ngiabal	-11.5376
▁soTaromak	-11.5398
animo	-11.5424
▁patengatenga	-11.547
athingala	-11.5475
▁arakaiya	-11.5482
▁modradr	-11.55
rodrarodrange	-11.5514
nakowa	-11.5522
poy	-11.5552
pakoalri	-11.5565
ngimiane	-11.5583
sonagan	-11.5635
ngece	-11.5636
yalralra	-11.5637
trong	-11.5654
aelele	-11.5655
▁kalapa	-11.5709
tomoto	-11.5711
▁xin	-11.5724
▁téka	-11.5749
athabae	-11.5773
unu	-11.5796
aritha	-11.5821
kɨmani	-11.5851
papapalai	-11.5854
▁tarodraodra	-11.5865
▁lridh	-11.5885
▁holr	-11.5891
saolriya	-11.5894
ngdrang	-11.592
drapal	-11.5929
ngaynga	-11.5963
drake	-11.5968
ɨce	-11.6006
polravo	-11.6034
▁twalrepenge	-11.6041
pasɨ	-11.6073
▁twalra	-11.6073
redele	-11.6092
ngkoa	-11.6125
abalra	-11.6162
▁nikwa	-11.617
▁skal	-11.6188
acengecenge	-11.6197
▁laopan	-11.6203
▁aidavace	-11.6224
rɨsa	-11.6236
nipo	-11.6245
lb	-11.625
aoanga	-11.626
pangimia	-11.6271
abitolronga	-11.6272
▁makakya	-11.6277
taelreelre	-11.6281
▁daeda	-11.6292
▁smar	-11.6298
▁kyapa	-11.6303
asana	-11.6306
▁jio	-11.6308
ection	-11.6344
adailane	-11.6354
▁kabicea	-11.6364
ɨnge	-11.6372
▁walrede	-11.6383
damadamay	-11.6385
bɨr	-11.639
▁kc	-11.639
▁késdem	-11.6391
atomatoma	-11.6392
mangsal	-11.6397
ɨké	-11.6399
alrobalr	-11.6405
▁icelreb	-11.6406
pasopalr	-11.641
▁pingpo	-11.6427
▁taisadra	-11.6433
cavil	-11.6443
drima	-11.6445
▁bolabola	-11.6448
rɨngɨ	-11.6448
vélé	-11.6448
ragadhako	-11.6451
ngisasi	-11.6451
caceng	-11.6473
apeapece	-11.6475
▁madalam	-11.6481
▁tarongeangea	-11.6486
▁Aras	-11.6488
elrange	-11.649
▁kɨcar	-11.6498
drɨdrɨmɨ	-11.6507
takokane	-11.6509
▁ababo	-11.6516
▁tɨra	-11.6525
lravai	-11.6527
▁Legea	-11.6537
kotikia	-11.6539
▁civilian	-11.6542
▁question	-11.6542
▁lrimolri	-11.6543
▁wapo	-11.6548
yalangai	-11.6552
posav	-11.6552
▁icecelreng	-11.6561
▁sneez	-11.6565
▁lrilriki	-11.6565
▁kadalam	-11.6568
damai	-11.6569
▁polic	-11.657
singisi	-11.6574
▁yabeleng	-11.6579
dringadringai	-11.658
▁tkor	-11.6582
▁omiyalra	-11.6584
▁takibolro	-11.6584
pelrenge	-11.6585
zazame	-11.6587
mokoani	-11.6588
lriape	-11.6597
lawlai	-11.6598
damili	-11.6603
babay	-11.6605
tékana	-11.6605
▁Elre	-11.6607
lilivi	-11.6608
▁tyaki	-11.6609
▁mahilai	-11.6609
alrigil	-11.6609
▁tingiting	-11.661
▁siking	-11.6612
▁mistake	-11.6615
abeabee	-11.6619
lrevesane	-11.6619
cekecekelane	-11.6619
alalava	-11.6619
ecengae	-11.6622
ravane	-11.6623
miyaikai	-11.6623
kociacingalre	-11.6624
bilibilibili	-11.6624
▁annoy	-11.6626
kidalroane	-11.6626
tangidrakakal	-11.6627
▁escape	-11.6631
thingalako	-11.6631
▁matomane	-11.6632
lailai	-11.6632
odaodao	-11.6632
kbobor	-11.6633
ended	-11.6633
mber	-11.6633
basis	-11.6635
kabibilrili	-11.6635
drisdrisi	-11.6635
kilibake	-11.6635
aesai	-11.6636
▁ckɨlɨ	-11.6636
twalrepeng	-11.6637
dredreele	-11.6638
cient	-11.6639
▁nangyo	-11.6639
cɨngla	-11.6639
padradresenge	-11.6639
kodrolro	-11.6639
odong	-11.664
▁kinaomasa	-11.664
biciringi	-11.6641
▁sapacapacasa	-11.6641
▁Tu	-11.6641
aragadha	-11.6641
▁lrigila	-11.6641
runk	-11.6643
korokoro	-11.6643
▁watapya	-11.6643
sababo	-11.6644
otalovayvay	-11.6645
araramaw	-11.6645
bawba	-11.6646
ibibi	-11.6646
alwalo	-11.6646
▁mavalro	-11.6648
dɨpɨ	-11.6648
▁dhedhe	-11.6648
▁xian	-11.6648
▁ngitalai	-11.6648
golrogolr	-11.6649
hipolo	-11.6649
talailaisi	-11.665
▁lrwabwa	-11.665
ivaevange	-11.665
▁pengh	-11.665
lawlango	-11.665
irls	-11.6651
▁tangeangea	-11.6651
iokoko	-11.6651
ɨkɨlɨ	-11.6651
amarama	-11.6652
▁talropo	-11.6652
asahovo	-11.6652
▁paitha	-11.6652
wasanenga	-11.6652
▁tomatoma	-11.6652
umu	-11.6652
▁tapagwagwag	-11.6652
dremedremane	-11.6652
▁kameamea	-11.6652
ivalriyo	-11.6652
ingitoma	-11.6652
▁Talrubal	-11.6652
▁labayba	-11.6652
▁odvadvacɨ	-11.6652
▁wadangedange	-11.6652
apiamogako	-11.6652
opoaciyacilai	-11.6652
pasɨksɨktɨ	-11.6652
rélé	-11.6652
valracevac	-11.6652
▁commit	-11.6652
▁container	-11.6652
▁davacengana	-11.6652
▁klatingingisa	-11.6652
▁maspɨp	-11.6652
▁ngyadrakal	-11.6652
▁patekedri	-11.6652
▁seiz	-11.6652
▁sololopo	-11.6652
▁thamdal	-11.6652
▁watinotino	-11.6652
%	-11.6652
Government	-11.6652
Kaniyu	-11.6652
Matthew	-11.6652
adhidhalikai	-11.6652
adhidhapae	-11.6652
akalrwalromala	-11.6652
akodhadhalra	-11.6652
anoapalrae	-11.6652
anokaoti	-11.6652
anosakale	-11.6652
aodadodale	-11.6652
atahriri	-11.6652
babalrealreanane	-11.6652
binereberese	-11.6652
caysisyane	-11.6652
dangedangane	-11.6652
dihethenge	-11.6652
drehedrehe	-11.6652
dringadringaza	-11.6652
gakosolwsolwte	-11.6652
gegegee	-11.6652
holroholro	-11.6652
iconganae	-11.6652
iyacekale	-11.6652
iyakaydrinino	-11.6652
kacaecaema	-11.6652
kadhalremedheme	-11.6652
karodrangane	-11.6652
kelrakelra	-11.6652
kilibakako	-11.6652
lawlriodale	-11.6652
lrisisisiane	-11.6652
lɨpané	-11.6652
masityakadringay	-11.6652
matiadalame	-11.6652
ngiatalaisi	-11.6652
ngidrosoa	-11.6652
ngvétha	-11.6652
onglangédro	-11.6652
padamatha	-11.6652
paivivig	-11.6652
paroakayya	-11.6652
replace	-11.6652
rimangacɨvélini	-11.6652
sarkiké	-11.6652
skédɨm	-11.6652
timɨrɨ	-11.6652
wacebecebe	-11.6652
watwalovaivai	-11.6652
·	-11.6652
▁1945	-11.6652
▁Alaelrepe	-11.6652
▁Alazomo	-11.6652
▁Alazumu	-11.6652
▁Basadha	-11.6652
▁Cyamaha	-11.6652
▁Deresai	-11.6652
▁Dheedhese	-11.6652
▁Gaita	-11.6652
▁Hiyao	-11.6652
▁Kalrasingane	-11.6652
▁Kaynuane	-11.6652
▁Kelresai	-11.6652
▁Ladadke	-11.6652
▁Laipanan	-11.6652
▁Laotia	-11.6652
▁Lapoane	-11.6652
▁Lebetai	-11.6652
▁Ledheme	-11.6652
▁Lrangepao	-11.6652
▁Masegesegako	-11.6652
▁Pathagaw	-11.6652
▁Poponganɨ	-11.6652
▁President	-11.6652
▁Riono	-11.6652
▁Seehe	-11.6652
▁acinocɨnglata	-11.6652
▁adradralrele	-11.6652
▁adraikéno	-11.6652
▁aikahedela	-11.6652
▁akaesadhaneta	-11.6652
▁alrikodhae	-11.6652
▁apakacokai	-11.6652
▁balrilawlao	-11.6652
▁bingzyo	-11.6652
▁bisikito	-11.6652
▁borococo	-11.6652
▁bɨrlelé	-11.6652
▁calraviya	-11.6652
▁ciwkini	-11.6652
▁collapse	-11.6652
▁collide	-11.6652
▁cottonmouth	-11.6652
▁coycyo	-11.6652
▁cultural	-11.6652
▁dadɨranɨ	-11.6652
▁dhaikongo	-11.6652
▁dhapedhape	-11.6652
▁diheheele	-11.6652
▁disgust	-11.6652
▁disidisi	-11.6652
▁drakehale	-11.6652
▁eheheca	-11.6652
▁escort	-11.6652
▁eyebrows	-11.6652
▁foreign	-11.6652
▁galaoga	-11.6652
▁gilagilaw	-11.6652
▁guess	-11.6652
▁icizikang	-11.6652
▁isipyale	-11.6652
▁iyalrailidhe	-11.6652
▁kacalrisyane	-11.6652
▁kaisipayso	-11.6652
▁kalralringidri	-11.6652
▁karadradre	-11.6652
▁kensase	-11.6652
▁kiasamola	-11.6652
▁kirararagay	-11.6652
▁kirarokodro	-11.6652
▁kopropro	-11.6652
▁kopsopra	-11.6652
▁kwacalrilrisia	-11.6652
▁kwadaladala	-11.6652
▁kɨlapɨgarna	-11.6652
▁lakawkawlo	-11.6652
▁lrabaybay	-11.6652
▁lrekelreke	-11.6652
▁lrimolregelrege	-11.6652
▁lrwakoili	-11.6652
▁lɨmatakɨtaka	-11.6652
▁mabɨlɨsbɨsɨ	-11.6652
▁macalrosi	-11.6652
▁madhaalamelrao	-11.6652
▁madileange	-11.6652
▁madrangedrang	-11.6652
▁madrɨrmɨ	-11.6652
▁makalrilao	-11.6652
▁mapapalraingina	-11.6652
▁maraveravere	-11.6652
▁mariarida	-11.6652
▁marodrawdrang	-11.6652
▁masamaliako	-11.6652
▁matelrege	-11.6652
▁matililyeng	-11.6652
▁matiyadalame	-11.6652
▁mavilivilivili	-11.6652
▁mingpaw	-11.6652
▁mnɨmlɨ	-11.6652
▁moalecege	-11.6652
▁moasakene	-11.6652
▁moatalovaivay	-11.6652
▁mobalati	-11.6652
▁morikaikaita	-11.6652
▁msobaka	-11.6652
▁mthéptele	-11.6652
▁mvarlo	-11.6652
▁mwalreves	-11.6652
▁mwarairay	-11.6652
▁nangzikang	-11.6652
▁ngiaongotingi	-11.6652
▁ngimaimalri	-11.6652
▁ngopangalre	-11.6652
▁ngrngele	-11.6652
▁nibongsyo	-11.6652
▁ningzing	-11.6652
▁nitotaolrisiane	-11.6652
▁nogɨnagɨpi	-11.6652
▁nopayth	-11.6652
▁obailanɨ	-11.6652
▁obengela	-11.6652
▁ogɨmɨgɨmɨ	-11.6652
▁oisengce	-11.6652
▁olngisonga	-11.6652
▁olralidring	-11.6652
▁oroboboelɨ	-11.6652
▁padavathane	-11.6652
▁paihange	-11.6652
▁pakisyasingili	-11.6652
▁pangialisiane	-11.6652
▁pangisabolo	-11.6652
▁paogoaadreke	-11.6652
▁pasolrange	-11.6652
▁patarpɨngɨ	-11.6652
▁patharevane	-11.6652
▁patokelrece	-11.6652
▁pawgogo	-11.6652
▁pelɨlanga	-11.6652
▁pidracɨvél	-11.6652
▁pitimrɨ	-11.6652
▁pohanéni	-11.6652
▁pongepangen	-11.6652
▁pongodrɨle	-11.6652
▁psopra	-11.6652
▁psédɨm	-11.6652
▁rakiyo	-11.6652
▁recogniz	-11.6652
▁representatives	-11.6652
▁rump	-11.6652
▁sacaecaeba	-11.6652
▁sadamatha	-11.6652
▁sagniragerane	-11.6652
▁salesese	-11.6652
▁sanakamanemane	-11.6652
▁sanawnawko	-11.6652
▁sangokipagadha	-11.6652
▁saolatadra	-11.6652
▁sapatothingala	-11.6652
▁sasiyasing	-11.6652
▁sasolasolatiso	-11.6652
▁separating	-11.6652
▁shengjie	-11.6652
▁sobosobo	-11.6652
▁society	-11.6652
▁sosoepɨ	-11.6652
▁succeed	-11.6652
▁suppress	-11.6652
▁suspects	-11.6652
▁swapeapeale	-11.6652
▁taecelrange	-11.6652
▁tahamonage	-11.6652
▁tahamonahe	-11.6652
▁takitolalaka	-11.6652
▁takohaoho	-11.6652
▁talapingae	-11.6652
▁talinamiyanane	-11.6652
▁taramonage	-11.6652
▁tasekeseketa	-11.6652
▁tatarokoka	-11.6652
▁tawbobokane	-11.6652
▁tawngatingi	-11.6652
▁teldrekane	-11.6652
▁thaybakebake	-11.6652
▁thilithilibi	-11.6652
▁thvéké	-11.6652
▁tiisyaba	-11.6652
▁tingpingsyang	-11.6652
▁tmacɨcrɨngɨ	-11.6652
▁tngavlo	-11.6652
▁tokɨtakɨ	-11.6652
▁tolwanini	-11.6652
▁twaehaehai	-11.6652
▁tébabarvia	-11.6652
▁vahokoho	-11.6652
▁valravalrae	-11.6652
▁vilisɨne	-11.6652
▁vlisɨne	-11.6652
▁wonderful	-11.6652
▁zidosia	-11.6652
個	-11.6652
做	-11.6652
己	-11.6652
是	-11.6652
的	-11.6652
自	-11.6652
akivavangean	-11.6652
atolohae	-11.6652
kilavalava	-11.6652
lévava	-11.6652
panianianiake	-11.6652
paroalebe	-11.6652
pasaabo	-11.6652
▁Gadh	-11.6652
▁Legai	-11.6652
▁Pengho	-11.6652
▁Rath	-11.6652
▁Saidhai	-11.6652
▁Tayrezoko	-11.6652
▁Taytongo	-11.6652
▁Ubake	-11.6652
▁ababira	-11.6652
▁akanekanae	-11.6652
▁akangkana	-11.6652
▁appro	-11.6652
▁assimilat	-11.6652
▁atatimala	-11.6652
▁bawthotho	-11.6652
▁careless	-11.6652
▁cavalriya	-11.6652
▁choanzh	-11.6652
▁cɨkɨcɨkɨle	-11.6652
▁dwaladalaman	-11.6652
▁frustrat	-11.6652
▁kaocaaeka	-11.6652
▁kitobolrwa	-11.6652
▁mabocokonga	-11.6652
▁marlé	-11.6652
▁motalrobon	-11.6652
▁motokoho	-11.6652
▁osiyalalra	-11.6652
▁pinsiyang	-11.6652
▁sakedrekedr	-11.6652
▁savigivig	-11.6652
▁solution	-11.6652
▁takaomaomasane	-11.6652
▁tarokokana	-11.6652
▁tenaena	-11.6652
▁thkadanɨ	-11.6652
▁tiatina	-11.6652
▁tikrisisianɨ	-11.6652
▁tkopli	-11.6652
▁toloholrae	-11.6652
▁twakwalre	-11.6652
▁vilitoro	-11.6652
▁wabokabokonga	-11.6652
▁wataogatoane	-11.6652
anoaelri	-11.6653
aovaha	-11.6653
ataleese	-11.6653
cngɨlɨma	-11.6653
gelrethe	-11.6653
mwalringedele	-11.6653
ngyaiyaobo	-11.6653
pangodo	-11.6653
patikaykay	-11.6653
pilipili	-11.6653
ɨlɨkɨ	-11.6653
▁Sulaku	-11.6653
▁Vuda	-11.6653
▁cilolra	-11.6653
▁cokonoho	-11.6653
▁kyasodame	-11.6653
▁latabere	-11.6653
▁loangolangoy	-11.6653
▁lrikolao	-11.6653
▁makagologolénga	-11.6653
▁makakidringay	-11.6653
▁makawrivariva	-11.6653
▁makcɨngé	-11.6653
▁makolrongo	-11.6653
▁necklace	-11.6653
▁ngipapelaelaa	-11.6653
▁ngoakodrosa	-11.6653
▁niciyoobi	-11.6653
▁pingsyang	-11.6653
▁posasingae	-11.6653
▁sirloin	-11.6653
▁skaragre	-11.6653
▁soronom	-11.6653
▁thkadane	-11.6653
▁tɨlacɨ	-11.6653
▁wabiciingi	-11.6653
▁wakococo	-11.6653
▁wasolasolatenga	-11.6653
▁worried	-11.6653
ipacacengel	-11.6653
kicawcak	-11.6653
lrikarodrang	-11.6653
plɨngɨ	-11.6653
ustice	-11.6653
▁Bokoto	-11.6653
▁Canglak	-11.6653
▁deserves	-11.6653
▁kyahahaga	-11.6653
▁laotia	-11.6653
▁mardé	-11.6653
▁mathoré	-11.6653
▁milrikin	-11.6653
▁ngiamamo	-11.6653
▁olengé	-11.6653
▁padhaace	-11.6653
▁pathoaraka	-11.6653
▁pidɨkel	-11.6653
▁tetehe	-11.6653
▁topatilai	-11.6653
▁tosyoba	-11.6653
▁tébar	-11.6653
▁tédraavé	-11.6653
anagipane	-11.6653
balibali	-11.6653
ngangengerece	-11.6653
ngipaipai	-11.6653
sévélé	-11.6653
▁Retage	-11.6653
▁Takanau	-11.6653
▁angikamaniya	-11.6653
▁gentle	-11.6653
▁kakoakodhaneta	-11.6653
▁lawcoc	-11.6653
▁longlangé	-11.6653
▁lriarakay	-11.6653
▁nwaoko	-11.6653
▁sabekela	-11.6653
▁siacawbo	-11.6653
▁tatawkok	-11.6653
▁tomboy	-11.6653
icikla	-11.6653
lomasane	-11.6653
▁beehive	-11.6653
▁makalrilaw	-11.6653
▁mierɨ	-11.6653
▁spakamné	-11.6653
▁takovaiya	-11.6653
avidhi	-11.6653
drokdroro	-11.6653
ihaihang	-11.6653
makaketekete	-11.6653
siyobai	-11.6653
▁Dodoi	-11.6653
▁kaoshiong	-11.6653
▁lriapeceako	-11.6653
▁mekɨnɨ	-11.6653
▁waleleape	-11.6653
kongisingisi	-11.6653
okolodho	-11.6653
▁Aboala	-11.6653
▁Besides	-11.6653
▁dekele	-11.6653
▁skakɨcɨng	-11.6653
▁tiyoma	-11.6653
▁towalribongo	-11.6653
Eepe	-11.6653
▁alalikisi	-11.6653
▁bahange	-11.6653
▁bebekela	-11.6653
▁kivavavange	-11.6653
▁matakolra	-11.6653
▁pacolroli	-11.6653
▁patoicilri	-11.6653
▁selredra	-11.6653
▁wasenekete	-11.6653
drɨsngɨ	-11.6653
ngitalailaisiane	-11.6653
▁crime	-11.6653
▁kolrolrongo	-11.6653
drekadreka	-11.6653
tekahen	-11.6653
▁Kaniyo	-11.6653
▁binki	-11.6653
▁cacvélé	-11.6653
▁kakeceami	-11.6653
▁pakɨdroro	-11.6653
▁waaleale	-11.6653
fair	-11.6653
▁Drangalr	-11.6653
▁notomara	-11.6653
bahongolo	-11.6653
balribalri	-11.6653
odhipi	-11.6653
▁amodholrong	-11.6653
▁ciéing	-11.6653
▁cokocoko	-11.6653
▁kyadolro	-11.6653
▁maminema	-11.6653
▁masopatele	-11.6653
▁ocoloko	-11.6653
▁talangalangani	-11.6653
▁tamasososo	-11.6653
kmania	-11.6653
sɨlapɨ	-11.6653
▁matiasama	-11.6653
▁moalrikilriki	-11.6653
▁tholake	-11.6653
adhangamita	-11.6653
makavaladha	-11.6653
olaholai	-11.6653
▁Lrikikalromal	-11.6653
▁mavocoh	-11.6653
▁nidang	-11.6653
alekate	-11.6653
podriadringai	-11.6653
rodrenge	-11.6653
▁dringki	-11.6653
▁ipcacɨng	-11.6653
▁makilrong	-11.6653
▁tpopolia	-11.6653
adhailae	-11.6653
akatatodro	-11.6653
lrikatwasenga	-11.6653
▁Paerece	-11.6653
▁months	-11.6653
miaoaobo	-11.6653
sirapale	-11.6653
thbarɨ	-11.6653
▁bodolo	-11.6653
▁health	-11.6653
▁lamialri	-11.6653
▁legend	-11.6653
▁omeca	-11.6653
▁ravare	-11.6653
▁terribl	-11.6653
alobalringi	-11.6653
atoloho	-11.6653
taimanɨ	-11.6653
▁mameale	-11.6653
▁nokéma	-11.6653
iyaevese	-11.6653
nagɨnagɨpia	-11.6653
olrovo	-11.6653
▁libang	-11.6653
▁mosawa	-11.6653
▁sakwalri	-11.6653
▁tiiday	-11.6653
▁twakainene	-11.6653
▁words	-11.6653
ragaraga	-11.6653
▁karidrang	-11.6653
▁mwsaka	-11.6653
angokis	-11.6653
inyaelre	-11.6653
▁kiavavange	-11.6653
▁lrikolaw	-11.6653
▁maateleke	-11.6653
▁sraké	-11.6653
lromadhako	-11.6653
▁minpa	-11.6653
▁opiki	-11.6653
▁wathenay	-11.6653
sinakete	-11.6653
▁Tingang	-11.6653
▁kathatha	-11.6653
▁mapadolronga	-11.6653
▁private	-11.6653
▁romai	-11.6653
▁swainino	-11.6653
▁takitobobolro	-11.6653
▁tangaavane	-11.6653
angengesa	-11.6653
▁mwacaki	-11.6653
▁osiri	-11.6653
▁pathaheva	-11.6653
▁wakelakelangata	-11.6653
dradrela	-11.6653
▁bakway	-11.6653
▁tabalanga	-11.6653
initato	-11.6653
▁dalrili	-11.6653
▁tothadalrana	-11.6653
atedhanga	-11.6653
sekelre	-11.6653
▁isobribrili	-11.6653
adɨlamɨ	-11.6653
nished	-11.6653
wakodrali	-11.6653
▁angrngɨlɨ	-11.6653
▁dinki	-11.6653
▁malobi	-11.6653
▁mabelengnga	-11.6653
▁dinva	-11.6653
borthi	-11.6653
▁mokono	-11.6653
▁séto	-11.6653
asabaliya	-11.6653
▁alaiyasi	-11.6653
▁omorm	-11.6653
▁takaconga	-11.6653
▁tasobolrobolro	-11.6653
▁walrapesa	-11.6653
▁kɨnéngaka	-11.6653
▁ngotokotoko	-11.6653
kiposao	-11.6653
bingziyo	-11.6653
▁cekei	-11.6653
▁dhohepe	-11.6653
▁kabociya	-11.6653
▁polelebe	-11.6653
kankana	-11.6653
▁komédra	-11.6653
▁pakidredreme	-11.6653
▁tapagwagwagwane	-11.6653
angikakilibakane	-11.6653
clé	-11.6653
poopoa	-11.6653
▁Kalange	-11.6653
▁tyaidai	-11.6653
ekeseke	-11.6653
kiaragai	-11.6653
▁direrel	-11.6653
▁nwange	-11.6653
katakolra	-11.6653
pacoro	-11.6653
▁Lingase	-11.6653
▁pipiec	-11.6653
▁sokédra	-11.6653
▁tikora	-11.6653
pingcɨg	-11.6653
▁botto	-11.6653
Isai	-11.6653
sovalé	-11.6653
▁mwakono	-11.6653
▁pressure	-11.6653
akaabeabe	-11.6653
▁pakdredreme	-11.6653
▁sonaganeane	-11.6653
alringaana	-11.6653
osvéré	-11.6653
pavilrivilring	-11.6653
▁atatabang	-11.6653
▁rgerge	-11.6653
▁troka	-11.6653
inonwa	-11.6653
▁Adriy	-11.6653
▁idrenge	-11.6653
▁saleké	-11.6653
kiyaraga	-11.6653
▁naopata	-11.6653
▁aikikalromale	-11.6653
mapadodoonga	-11.6653
▁divers	-11.6653
icekala	-11.6653
olrodho	-11.6653
▁liicinga	-11.6653
▁mamɨrɨ	-11.6653
▁moabere	-11.6653
seresere	-11.6653
▁tangimalri	-11.6653
ikanini	-11.6653
abɨbɨrɨ	-11.6653
ihaki	-11.6653
polroko	-11.6653
▁itiitoko	-11.6653
kelray	-11.6653
▁aitaha	-11.6653
gohongkang	-11.6653
kirarimo	-11.6653
sinalreme	-11.6653
kabavaa	-11.6653
cokarɨ	-11.6653
dalrila	-11.6653
hovohovo	-11.6653
▁Congtongho	-11.6653
▁kolodoro	-11.6653
ngobaase	-11.6653
▁patharok	-11.6653
adɨkrɨ	-11.6653
▁Dolray	-11.6653
▁Swing	-11.6653
▁pitaw	-11.6653
▁Adralriy	-11.6653
daedapenge	-11.6653
maovagay	-11.6653
picae	-11.6653
thapɨ	-11.6653
wrapping	-11.6653
▁kaicaili	-11.6653
▁masavahe	-11.6653
baylane	-11.6653
▁tapakelane	-11.6653
▁tatadrosa	-11.6653
kelrai	-11.6653
▁vasaw	-11.6653
▁laolangoy	-11.6653
arokaabisi	-11.6653
droadroma	-11.6653
▁Donner	-11.6653
▁ubakɨ	-11.6654
▁ébeke	-11.6654
ahidahe	-11.6654
▁wasawli	-11.6654
▁ikmani	-11.6654
▁vinwa	-11.6654
▁Cegaweso	-11.6654
▁angokisiya	-11.6654
▁lrikilrikili	-11.6654
▁souls	-11.6654
makarorobor	-11.6654
▁sainino	-11.6654
▁satedre	-11.6654
deedepe	-11.6654
▁obey	-11.6654
▁ngodradrekadha	-11.6654
solsolt	-11.6654
▁lapanay	-11.6654
kawariva	-11.6654
▁maboti	-11.6654
▁encou	-11.6654
écépé	-11.6654
tariaw	-11.6654
▁wasoasoap	-11.6654
itovolrolraine	-11.6654
▁angolingaw	-11.6654
▁syadramako	-11.6654
yataleke	-11.6654
▁ivalriyolrao	-11.6654
▁maongonae	-11.6654
▁vlakɨ	-11.6654
▁elrengane	-11.6654
▁Sakin	-11.6654
▁blatɨ	-11.6654
▁kaisyane	-11.6654
▁matilɨkɨ	-11.6654
dhiliange	-11.6654
▁moalraane	-11.6654
▁laveke	-11.6654
▁angkékɨ	-11.6654
▁wapana	-11.6654
ɨdrɨk	-11.6654
▁hum	-11.6654
▁ngiyao	-11.6654
▁pkés	-11.6654
becebecenge	-11.6654
▁maceace	-11.6654
▁ciéy	-11.6654
draroa	-11.6654
▁dawdaw	-11.6654
▁ipolri	-11.6654
alwalop	-11.6654
▁ngyalisiya	-11.6654
lroahai	-11.6654
▁lrwasanenga	-11.6654
maimale	-11.6654
▁cwao	-11.6654
▁cwaceela	-11.6654
▁twbava	-11.6654
▁waodri	-11.6654
▁kapalongane	-11.6654
▁kecalr	-11.6654
▁ngwamanema	-11.6654
▁mapaka	-11.6654
▁noengɨ	-11.6654
▁rɨgi	-11.6654
▁niciyobi	-11.6654
▁Taicio	-11.6654
▁boboto	-11.6654
▁mapitake	-11.6655
▁masalese	-11.6655
wamaca	-11.6655
▁mangangerece	-11.6655
sakibolrobolrona	-11.6655
korobongo	-11.6655
▁ikakece	-11.6655
▁kongsingcai	-11.6655
▁makocingai	-11.6655
▁loangai	-11.6655
▁paolacenge	-11.6655
hilriyo	-11.6655
▁haimai	-11.6655
▁jiang	-11.6655
sapalangan	-11.6655
lranglrang	-11.6655
celrakane	-11.6655
pongkang	-11.6655
▁Anika	-11.6655
▁masalasa	-11.6655
▁komogo	-11.6655
▁consen	-11.6655
dradrongo	-11.6655
ikoange	-11.6655
▁mopol	-11.6655
▁Taicie	-11.6655
lawlawlango	-11.6655
▁miakao	-11.6655
▁sabali	-11.6655
angatongato	-11.6655
▁ngitalailaisi	-11.6655
▁cover	-11.6655
alrisilrisi	-11.6655
▁waodolri	-11.6655
acengace	-11.6655
kicakowa	-11.6655
ngielɨ	-11.6655
kiavaga	-11.6655
Balay	-11.6655
▁mikoso	-11.6655
▁nothing	-11.6655
▁dreese	-11.6655
▁taihoko	-11.6655
▁niciwbi	-11.6655
hedhele	-11.6655
jian	-11.6655
▁lrawtiya	-11.6655
▁wadahepe	-11.6655
▁mamimwa	-11.6656
ongawlo	-11.6656
regere	-11.6656
makatolrolonga	-11.6656
▁mimilriki	-11.6656
▁mokavole	-11.6656
abadha	-11.6656
angititiici	-11.6656
▁inatoménia	-11.6656
▁ikɨrapa	-11.6656
thiathia	-11.6656
▁idrengerana	-11.6656
▁linali	-11.6656
sobiili	-11.6656
▁tatɨm	-11.6656
▁tarima	-11.6656
▁mindset	-11.6656
▁gogogo	-11.6656
ototho	-11.6656
hobowa	-11.6656
▁wasinaw	-11.6656
▁laiyaj	-11.6656
▁vicok	-11.6656
ɨlatɨ	-11.6656
▁ciokoko	-11.6656
▁Ivadha	-11.6656
▁alrehe	-11.6656
inicekala	-11.6656
▁mobyoingi	-11.6656
▁orosonga	-11.6656
iniyamece	-11.6656
▁Mrinokɨkɨ	-11.6656
asatedra	-11.6657
▁protection	-11.6657
ngbaso	-11.6657
taberan	-11.6657
abisi	-11.6657
asolatae	-11.6657
▁lakasane	-11.6657
dingva	-11.6657
▁lamolai	-11.6657
▁sedreke	-11.6657
▁lribonga	-11.6657
laababay	-11.6657
makɨswa	-11.6657
▁talaace	-11.6657
▁Mumu	-11.6657
thathingala	-11.6657
▁swmanema	-11.6657
ahwah	-11.6657
▁takoalriane	-11.6657
▁sinTaromakana	-11.6657
Asane	-11.6657
▁lrwabo	-11.6657
▁ngilisian	-11.6657
osoepe	-11.6657
▁Limang	-11.6657
▁talakange	-11.6657
saniange	-11.6657
▁mkat	-11.6657
ucul	-11.6657
▁Maelreng	-11.6657
▁salwalopi	-11.6657
sapara	-11.6657
italeke	-11.6657
▁yasadra	-11.6657
▁alevee	-11.6658
▁kiavavava	-11.6658
oolrima	-11.6658
▁tagia	-11.6658
▁lritaramoa	-11.6658
valrengane	-11.6658
▁varokoro	-11.6658
▁lamataka	-11.6658
odhaace	-11.6658
▁Saolri	-11.6658
▁aoaedh	-11.6658
▁karara	-11.6658
ongsing	-11.6658
▁oaita	-11.6658
padodolro	-11.6658
▁nipalre	-11.6658
▁akaodho	-11.6658
polele	-11.6658
▁bolrowai	-11.6658
▁tasolasolatane	-11.6658
▁aidridringane	-11.6658
atradre	-11.6658
▁drisisi	-11.6658
▁papalange	-11.6658
aangii	-11.6658
▁pikisia	-11.6659
▁moadriadring	-11.6659
▁isisipi	-11.6659
▁kaniakoae	-11.6659
▁aimolregelreg	-11.6659
thɨmɨ	-11.6659
kadhiliyange	-11.6659
maramaw	-11.6659
▁Pelrese	-11.6659
▁ongténgkɨ	-11.6659
▁Thus	-11.6659
▁ngimalri	-11.6659
▁Manenge	-11.6659
itolorae	-11.6659
▁rɨva	-11.6659
▁nanno	-11.6659
olilio	-11.666
▁mwadringi	-11.666
▁Usava	-11.666
▁mararamaw	-11.666
▁motalovayvay	-11.666
cases	-11.666
akaelela	-11.666
pɨpɨ	-11.666
▁makadolro	-11.666
▁thioro	-11.666
▁lead	-11.666
▁siyalalra	-11.666
▁yobingi	-11.666
pwacila	-11.666
▁xiang	-11.666
▁lodrela	-11.666
▁noraso	-11.666
dhedhehe	-11.666
▁aleale	-11.666
▁twaera	-11.666
▁waodriodri	-11.666
▁saseane	-11.666
▁baavane	-11.666
osakaelre	-11.666
taibalriva	-11.666
oholrongo	-11.666
▁cokoé	-11.666
lringalringa	-11.666
lrilange	-11.6661
gɨre	-11.6661
▁sataetaetale	-11.6661
▁valriyonomi	-11.6661
▁tangadra	-11.6661
▁lingiyawnga	-11.6661
▁makatakesinga	-11.6661
▁makatolrol	-11.6661
▁Siho	-11.6661
maconga	-11.6661
▁avangɨ	-11.6661
▁aména	-11.6661
▁pakaea	-11.6661
madredreele	-11.6661
▁brangɨ	-11.6661
lebelebe	-11.6661
▁lokakala	-11.6661
homong	-11.6662
▁dingding	-11.6662
▁wadavace	-11.6662
kotrakili	-11.6662
▁longlongé	-11.6662
▁ikoani	-11.6662
orathi	-11.6662
▁soepe	-11.6662
▁nwagi	-11.6662
▁mɨbal	-11.6662
▁nomyan	-11.6662
obalrionay	-11.6662
▁ciciyo	-11.6662
▁ngwalra	-11.6662
▁kasoili	-11.6662
▁pasabo	-11.6662
▁palangi	-11.6662
kivalanga	-11.6662
lralib	-11.6662
samaliane	-11.6662
miyaobonga	-11.6662
bingkiyo	-11.6662
▁rul	-11.6662
ceheb	-11.6663
dridringai	-11.6663
▁waibate	-11.6663
vadavace	-11.6663
aodriodrip	-11.6663
▁opna	-11.6663
▁yaelrelre	-11.6663
analeve	-11.6663
akalisilisi	-11.6663
▁ngoakakay	-11.6663
▁nngopia	-11.6663
▁tacekecekela	-11.6663
▁lripadalronga	-11.6663
▁onglo	-11.6663
apelengane	-11.6663
▁apoto	-11.6663
▁myaikai	-11.6664
▁warothoko	-11.6664
▁icɨng	-11.6664
▁rokolo	-11.6664
▁ikolaw	-11.6664
▁taraaloalopo	-11.6664
▁Pidh	-11.6665
▁sababoo	-11.6665
▁obiciringi	-11.6665
▁kilaelang	-11.6665
▁okorokoro	-11.6665
avangae	-11.6665
▁pawacilri	-11.6665
hood	-11.6665
sakabilrilanenga	-11.6665
▁tangerava	-11.6665
▁treated	-11.6665
lrisais	-11.6665
▁paosolr	-11.6666
kiapadradresenge	-11.6666
▁lokabiibilrili	-11.6666
▁wapece	-11.6666
▁tékangn	-11.6666
▁baza	-11.6666
▁lrikivagako	-11.6666
▁dmath	-11.6666
▁lrisilapa	-11.6666
▁madiretheng	-11.6666
▁makiisace	-11.6666
yoobin	-11.6666
▁wadrodromo	-11.6666
miine	-11.6666
▁kaelea	-11.6666
▁passes	-11.6666
ararake	-11.6666
▁patɨ	-11.6666
▁saalavavalak	-11.6666
▁pacon	-11.6666
lrokoco	-11.6667
▁tibila	-11.6667
▁moboelɨ	-11.6667
▁amiyaidra	-11.6667
sheng	-11.6667
▁makeceng	-11.6667
▁pakavaeva	-11.6667
teleke	-11.6667
▁kwacalisiya	-11.6667
▁Milr	-11.6667
▁madradradraw	-11.6667
aarakay	-11.6667
▁siviriso	-11.6668
xiao	-11.6668
▁wide	-11.6668
▁Karoko	-11.6668
▁pongkange	-11.6668
▁mathao	-11.6668
cocolo	-11.6669
▁sub	-11.6669
bawbaw	-11.6669
alraneana	-11.6669
▁takaahodhange	-11.6669
ckɨlɨmo	-11.6669
wrap	-11.6669
▁ngipapapalay	-11.6669
dalrodalro	-11.6669
▁tatelratelra	-11.6669
kcɨng	-11.6669
bɨkɨ	-11.6669
▁tomonomi	-11.667
▁pomelo	-11.667
▁Adeethe	-11.667
caicai	-11.667
tavisie	-11.667
▁pasaelre	-11.667
▁Kaingo	-11.667
olrawlra	-11.667
ɨlengɨ	-11.667
▁malabeabe	-11.667
lwai	-11.667
lingtava	-11.6671
▁osla	-11.6671
▁coloko	-11.6671
▁poelrengi	-11.6671
▁osititi	-11.6671
▁kwici	-11.6671
▁moeleba	-11.6671
▁kokongo	-11.6672
▁waodawdalenga	-11.6672
▁salawnga	-11.6672
▁mongico	-11.6672
▁pasolasolate	-11.6672
▁okanenga	-11.6672
ngiarakayane	-11.6672
pabaythi	-11.6672
▁dwapi	-11.6673
iidhem	-11.6673
▁glass	-11.6673
▁lripaka	-11.6673
▁aingohikoki	-11.6673
▁aisilapa	-11.6673
▁tikier	-11.6673
▁lodreelane	-11.6673
▁nodopata	-11.6674
balrivako	-11.6674
▁pkadr	-11.6674
▁escaped	-11.6674
maesai	-11.6674
▁peleela	-11.6674
▁Makav	-11.6674
mahavehavehelrao	-11.6674
▁edrekane	-11.6675
ososoepɨ	-11.6675
sɨbɨ	-11.6675
▁ténna	-11.6675
▁dovdav	-11.6675
tangilisi	-11.6675
pocavi	-11.6676
incai	-11.6676
▁patolre	-11.6676
▁biyo	-11.6676
▁sikingi	-11.6676
lyopa	-11.6677
davece	-11.6677
mikiname	-11.6677
▁kaidredreele	-11.6677
inipalri	-11.6677
▁lroho	-11.6677
rote	-11.6677
sikinginai	-11.6677
▁sɨk	-11.6678
pilikai	-11.6678
▁ikatomane	-11.6678
▁kakodhanelini	-11.6678
idhape	-11.6678
tangidrakakalane	-11.6679
ongoting	-11.6679
▁takibolroane	-11.6679
▁sakirikiri	-11.6679
dangɨ	-11.6679
▁sakidalroane	-11.6679
ngovaeva	-11.6679
piaso	-11.6679
itiiti	-11.6679
▁mathai	-11.6679
alrigili	-11.6679
▁aipako	-11.668
▁ngoalay	-11.668
▁Cong	-11.668
▁mwaebate	-11.668
▁watokodr	-11.668
elangata	-11.668
▁tési	-11.668
▁aitomaneso	-11.668
▁modripi	-11.668
▁lemat	-11.6681
▁bwabo	-11.6681
wahanao	-11.6681
palrainga	-11.6681
ieves	-11.6681
▁motokoro	-11.6681
▁kasani	-11.6681
ngiailoko	-11.6681
▁kabebe	-11.6682
▁opd	-11.6682
drodroro	-11.6682
acakela	-11.6682
▁skakolanɨ	-11.6682
▁pɨta	-11.6682
kadrayane	-11.6683
▁wacik	-11.6683
▁ngwatokotok	-11.6683
moTaihoko	-11.6683
pasapoko	-11.6684
ananaenai	-11.6684
▁wathakongada	-11.6684
vadavanane	-11.6684
▁mwatr	-11.6685
ously	-11.6685
angiyadra	-11.6685
cngcng	-11.6685
lrevelreve	-11.6686
vecengae	-11.6686
▁makioc	-11.6686
▁mababaka	-11.6686
taroelre	-11.6686
ipathagilinga	-11.6687
soloso	-11.6687
▁lrede	-11.6688
utter	-11.6688
▁mokɨné	-11.6688
▁wapilo	-11.6688
▁rsam	-11.6688
▁niciyo	-11.6688
▁tsɨk	-11.6689
elrese	-11.6689
mikiya	-11.6689
▁wacelra	-11.669
amapelaelane	-11.669
thada	-11.669
akiraragay	-11.6691
hilo	-11.6691
▁takwap	-11.6691
ingceg	-11.6692
▁saselre	-11.6692
▁tapoli	-11.6692
abaili	-11.6693
dwape	-11.6693
▁viri	-11.6693
vetai	-11.6694
▁satwatoma	-11.6694
▁cawbo	-11.6694
▁kaikatomane	-11.6694
▁Taromakana	-11.6694
ongong	-11.6695
▁ondoka	-11.6695
otalovaiva	-11.6695
▁tapini	-11.6695
▁agiagi	-11.6695
▁lamelamengani	-11.6695
babaka	-11.6695
▁akoea	-11.6695
▁Elrenga	-11.6696
yogi	-11.6696
garɨ	-11.6697
▁miniya	-11.6697
paramoro	-11.6697
alrogo	-11.6697
▁sangwa	-11.6697
▁mahilainga	-11.6697
▁vigo	-11.6698
▁acidra	-11.6698
odholri	-11.6698
▁fill	-11.6699
gaoco	-11.6699
rus	-11.6699
cekelane	-11.6699
▁sarawa	-11.67
Ciyaw	-11.67
▁patoapapal	-11.67
kadray	-11.6701
▁poss	-11.6701
▁sodadan	-11.6701
ɨnagɨpia	-11.6701
▁daname	-11.6702
▁nwami	-11.6702
▁shape	-11.6702
adare	-11.6702
▁wadromolro	-11.6704
▁wacilay	-11.6704
cocongolo	-11.6704
kalaelaela	-11.6705
akamapo	-11.6705
▁kisodami	-11.6705
alangadhane	-11.6705
sisaw	-11.6705
iyakaikai	-11.6705
▁yanomi	-11.6705
mililivi	-11.6705
▁moaelebe	-11.6705
pataromara	-11.6706
▁yarakai	-11.6706
asinaw	-11.6707
bilribilri	-11.6707
elve	-11.6708
▁kisya	-11.6708
▁matka	-11.6708
lawlaw	-11.6709
lisiya	-11.6709
▁doria	-11.671
titiki	-11.671
tremolo	-11.671
▁aikakecelre	-11.671
▁tapeapec	-11.671
▁takalodros	-11.671
lroolra	-11.6711
▁aanai	-11.6711
▁Usa	-11.6712
lathɨ	-11.6712
▁tedra	-11.6712
maceecelenga	-11.6712
▁tum	-11.6712
atakatakali	-11.6712
▁ngiatolok	-11.6713
▁tlacɨ	-11.6714
▁kisalroana	-11.6715
odev	-11.6715
▁syaolri	-11.6715
lredhe	-11.6716
ciici	-11.6716
lɨpɨ	-11.6716
▁wakacipi	-11.6716
▁Solako	-11.6717
▁lavavalakeana	-11.6717
▁waongting	-11.6717
alraalra	-11.6718
ngerece	-11.6718
▁lroko	-11.6719
olrianga	-11.672
▁lalao	-11.672
▁anikalra	-11.672
▁makarakaraso	-11.6721
▁ingpicoso	-11.6721
▁kaynganga	-11.6722
solrasolra	-11.6723
vɨna	-11.6723
tokodraliya	-11.6723
ngéla	-11.6724
▁salangadha	-11.6725
lingaw	-11.6726
▁lakibobo	-11.6726
kilibakane	-11.6728
cies	-11.6728
ondho	-11.6728
▁ngongo	-11.6729
▁ibelenge	-11.673
▁wadredre	-11.673
bitake	-11.673
▁sokora	-11.673
legele	-11.6731
▁wadrisidrisi	-11.6731
▁waelebe	-11.6732
igar	-11.6733
bocolan	-11.6733
liliep	-11.6734
▁titinane	-11.6734
apiyam	-11.6734
▁wadoda	-11.6735
▁pangcang	-11.6735
▁kadaenganeta	-11.6735
▁sinsilini	-11.6735
▁wacekecekeleini	-11.6736
ngoea	-11.6737
▁yela	-11.6737
▁olinga	-11.6737
▁syaca	-11.6737
aenomi	-11.674
vavalane	-11.674
▁balri	-11.674
▁ref	-11.6742
inpiciso	-11.6742
▁loiyasi	-11.6743
osovo	-11.6744
makolo	-11.6744
ethele	-11.6744
dradrimiti	-11.6745
▁pure	-11.6746
▁Lola	-11.6746
kapɨ	-11.6747
gakogakonga	-11.6747
mikini	-11.6748
hahi	-11.6748
▁kyaili	-11.6749
▁panata	-11.675
▁arakaikai	-11.6751
▁mabab	-11.6751
odringainga	-11.6751
▁cong	-11.6751
▁Mada	-11.6751
singsiyane	-11.6751
icecelenge	-11.6752
▁loangol	-11.6754
mamamoa	-11.6755
agiya	-11.6755
araora	-11.6756
▁Kecya	-11.6757
aitaw	-11.6758
lrikilri	-11.6758
▁kahilai	-11.6761
taradro	-11.6762
▁lrihi	-11.6763
inpicili	-11.6763
mwayso	-11.6764
ialringaw	-11.6765
vono	-11.6766
▁wakelakela	-11.6766
▁nipana	-11.6768
vikay	-11.6769
sahav	-11.6769
alredheedhek	-11.677
▁tathan	-11.677
▁kosiya	-11.6772
▁wapay	-11.6772
ekeme	-11.6775
sɨsa	-11.6775
▁kcarisi	-11.6776
▁kyatobolrowa	-11.6777
▁lrolrain	-11.6777
▁amodhaacenga	-11.6779
adradrele	-11.6779
▁kakoona	-11.6781
mult	-11.6781
alaela	-11.6783
▁takalo	-11.6784
patahoma	-11.6786
▁ngiaw	-11.6787
isae	-11.6788
▁Cib	-11.6788
▁bush	-11.6789
loloep	-11.679
▁yong	-11.6792
acacase	-11.6795
▁modro	-11.6795
▁matkadr	-11.6796
lear	-11.6796
sakaiyako	-11.6797
atele	-11.6798
▁lrimoa	-11.6799
▁dhodh	-11.6799
sakapa	-11.68
kdrɨdrɨmɨ	-11.6801
▁éb	-11.6802
blɨ	-11.6804
olroto	-11.6805
ililing	-11.6805
ɨporo	-11.6806
sinaonga	-11.6807
engce	-11.6807
▁kékang	-11.6809
olev	-11.6809
cerka	-11.681
lanɨ	-11.681
malid	-11.6811
▁drodrova	-11.6813
igaigan	-11.6814
lialiva	-11.6815
ngying	-11.6818
▁Kara	-11.6823
basenge	-11.6824
▁ngiacaem	-11.6825
▁shy	-11.6827
apedre	-11.683
ongya	-11.6832
▁borak	-11.6832
ɨcacakɨ	-11.6833
hiyae	-11.6834
▁ceka	-11.6835
hapale	-11.684
ngolre	-11.6843
erv	-11.6844
▁tangipap	-11.6844
▁tɨradr	-11.6846
langaiso	-11.6847
asaelre	-11.6848
▁fu	-11.6848
▁muc	-11.6848
ongala	-11.685
▁yaili	-11.6851
adronga	-11.6853
▁swadrekel	-11.6853
▁arokoti	-11.6856
▁cok	-11.6856
kacaisisiy	-11.6856
▁kasas	-11.6859
pedhe	-11.6859
▁patasin	-11.686
ganeta	-11.6863
▁kɨla	-11.6869
▁kiararaga	-11.687
iyake	-11.6877
▁kolroto	-11.6877
balrake	-11.6878
▁engag	-11.6881
▁mangil	-11.6886
odalenga	-11.6887
lribatane	-11.6887
Alem	-11.6891
yageng	-11.6891
▁alralrai	-11.6899
draydra	-11.6907
▁apologiz	-11.691
hapang	-11.6914
lilili	-11.6914
kmangsal	-11.6915
▁tobong	-11.6919
angya	-11.692
lithi	-11.692
késdema	-11.6921
asoro	-11.6922
waneli	-11.6922
▁poadaan	-11.6929
wadreke	-11.6929
elde	-11.6932
yobing	-11.6934
▁tidamadama	-11.6934
sokosok	-11.6945
inilralr	-11.6949
ceaceaka	-11.6952
▁karaleale	-11.6961
▁nipi	-11.6965
▁wapaca	-11.6965
[	-12.3216
*	-12.3237
6	-12.3863
些	-12.4986
子	-12.4986
孩	-12.4986
師	-12.4986
成	-12.4986
所	-12.4986
打	-12.4986
有	-12.4986
老	-12.4986
追	-12.4986
_	-12.4986
~	-12.4986
一	-12.4986
了	-12.4986
圈	-12.4986
學	-12.4986
生	-12.4986
三	-12.4986
次	-12.4986
騙	-12.4986
Q	-14.581
這	-14.5811
4	-14.5812
J	-14.5813
3	-14.5814
F	-14.5815
$	-14.5816
G	-14.5817
(	-14.5818
z	-14.5819
N	-14.582
Y	-14.5821
H	-14.5822
W	-14.5823
