<pad>	0
<unk>	0
<s>	0
</s>	0
<2ami>	0
<2en>	0
▁	-2.03325
.	-2.90523
'	-3.3631
,	-3.57553
▁to	-3.6607
▁a	-3.70934
▁ko	-4.00447
?	-4.31016
▁the	-4.33171
s	-4.55285
▁I	-4.57101
▁no	-4.58456
ay	-4.80142
▁i	-4.81535
▁is	-5.03098
an	-5.04322
▁you	-5.11223
and	-5.11737
▁kako	-5.14927
en	-5.37573
^	-5.38497
t	-5.42076
▁ako	-5.51035
▁of	-5.52352
▁O	-5.54767
▁o	-5.56124
▁in	-5.56302
!	-5.73858
▁sa	-5.75308
y	-5.84827
▁it	-5.85489
ed	-5.8792
▁The	-5.88483
ing	-5.91117
▁nira	-5.92155
▁are	-5.92959
▁ci	-5.935
▁He	-5.97518
▁for	-5.99175
▁haw	-6.01211
▁my	-6.04831
▁kiso	-6.0764
▁ma	-6.08061
▁have	-6.08699
▁ka	-6.1027
▁cingra	-6.12962
▁iso	-6.13107
▁mi	-6.15227
-	-6.15256
▁go	-6.17157
▁we	-6.17521
▁was	-6.19047
n	-6.27247
▁your	-6.30476
▁be	-6.30791
▁he	-6.33089
▁kita	-6.33289
▁that	-6.35337
▁with	-6.35337
i	-6.36479
▁han	-6.37184
▁M	-6.37504
▁ho	-6.40218
▁will	-6.42624
d	-6.42881
▁so	-6.44675
▁me	-6.47192
▁mako	-6.47458
m	-6.48349
▁ira	-6.51724
a	-6.52265
▁ato	-6.53796
ad	-6.53874
/	-6.54533
e	-6.54668
▁How	-6.57675
▁A	-6.58707
▁Ma	-6.59913
▁ni	-6.61253
▁loma	-6.63662
▁ili	-6.67192
▁anini	-6.68046
▁on	-6.69045
▁do	-6.70139
▁wawa	-6.71723
▁We	-6.72842
▁kami	-6.74768
to	-6.74818
▁this	-6.75921
▁up	-6.77305
▁ta	-6.79015
▁going	-6.79547
▁saw	-6.79791
▁tayra	-6.80938
▁What	-6.82271
▁pa	-6.8704
▁niyam	-6.87071
▁sowal	-6.8731
▁take	-6.88784
ll	-6.9035
▁Kacaw	-6.90915
▁out	-6.90971
▁Yes	-6.91643
▁saka	-6.92383
▁romi	-6.93055
▁No	-6.93672
▁at	-6.94815
▁It	-6.95503
▁want	-6.96315
▁his	-6.98163
▁home	-7.01279
)	-7.02983
▁koya	-7.05346
▁P	-7.05455
▁our	-7.07138
▁by	-7.07571
▁school	-7.10139
▁did	-7.10777
▁miso	-7.11596
aca	-7.12726
▁ano	-7.13003
▁time	-7.13479
▁niyaro	-7.13869
▁ca	-7.14293
▁am	-7.14877
▁saan	-7.15871
▁there	-7.16052
▁faloco	-7.16189
▁him	-7.16519
▁has	-7.16582
o	-7.17048
▁like	-7.1733
▁can	-7.18106
▁ita	-7.18384
:	-7.18518
▁itini	-7.18599
▁one	-7.18989
▁"	-7.21491
▁day	-7.21682
▁ngangan	-7.22671
▁not	-7.23251
▁child	-7.23334
▁old	-7.24136
▁name	-7.25234
▁from	-7.25277
▁buy	-7.25477
▁today	-7.2593
▁There	-7.264
▁here	-7.27088
▁caay	-7.2726
r	-7.27722
▁very	-7.28414
▁Let	-7.29259
▁back	-7.29897
▁kaka	-7.29932
▁T	-7.30233
▁come	-7.31013
▁pi	-7.31023
▁Ci	-7.31146
▁us	-7.31372
▁see	-7.31727
▁demak	-7.32308
▁S	-7.3277
▁all	-7.3284
▁tamdaw	-7.33943
▁went	-7.34542
aw	-7.347
▁don	-7.3544
▁maan	-7.35892
er	-7.3821
▁said	-7.38602
▁fa	-7.38656
▁polo	-7.38792
▁aca	-7.39341
al	-7.39925
▁sato	-7.43592
▁You	-7.43666
▁Panay	-7.43717
▁would	-7.44473
▁tayni	-7.45465
ve	-7.45854
▁Hay	-7.45933
na	-7.46006
g	-7.46467
▁mato	-7.46638
▁together	-7.47221
▁nga	-7.47729
▁them	-7.47962
▁singsi	-7.48018
▁lot	-7.48683
▁many	-7.49093
co	-7.49118
▁brother	-7.5063
▁na	-7.5065
▁nika	-7.51099
▁Thi	-7.52642
▁bring	-7.53656
▁what	-7.53696
▁Caay	-7.53794
▁were	-7.53944
▁cira	-7.53959
▁get	-7.55058
▁Do	-7.55317
▁tribe	-7.55405
▁cowa	-7.55657
▁cecay	-7.56584
▁Nga	-7.56821
▁konini	-7.57651
▁kiya	-7.57768
▁they	-7.5793
▁Amis	-7.58059
han	-7.58175
▁people	-7.58415
▁mihecaan	-7.59609
re	-7.60364
▁next	-7.60505
▁much	-7.60505
▁about	-7.60523
▁Mi	-7.61642
▁tosa	-7.61684
ang	-7.6183
▁work	-7.62393
asay	-7.63396
▁family	-7.6362
▁know	-7.63794
▁rice	-7.64687
▁fish	-7.65481
▁Where	-7.66692
▁Ano	-7.66776
▁When	-7.6684
▁water	-7.66846
ly	-7.67135
▁mita	-7.67478
▁Is	-7.67924
▁some	-7.68558
▁father	-7.69514
▁U	-7.70576
Amis	-7.70694
▁toya	-7.70845
▁everyone	-7.71298
▁look	-7.71303
▁Aka	-7.72147
▁three	-7.72444
▁good	-7.72513
▁catch	-7.73614
▁She	-7.73656
h	-7.74001
▁ningra	-7.74776
▁or	-7.75029
▁but	-7.76139
;	-7.77162
▁more	-7.77216
▁W	-7.7809
▁now	-7.78203
."	-7.79015
▁That	-7.79752
▁Ira	-7.80255
araw	-7.8029
▁Are	-7.8034
▁tala	-7.80428
▁mama	-7.80437
▁Pangcah	-7.80856
▁she	-7.81154
▁down	-7.82117
▁when	-7.83545
l	-7.83981
▁been	-7.84256
▁Pa	-7.84289
▁teacher	-7.84735
▁kamo	-7.84797
fo	-7.85507
▁tayal	-7.85622
▁Don	-7.86412
▁safa	-7.86828
▁borrow	-7.8733
▁itira	-7.87823
▁kilang	-7.88681
▁two	-7.88687
▁does	-7.88791
▁their	-7.89174
ur	-7.89629
▁took	-7.89804
▁just	-7.90037
▁need	-7.9004
▁sun	-7.90051
▁long	-7.90083
as	-7.90248
▁adihay	-7.90539
k	-7.9082
▁Ta	-7.91041
▁clothes	-7.9143
▁had	-7.91509
▁kapah	-7.91753
▁Who	-7.92147
▁return	-7.92829
▁sister	-7.93188
▁la	-7.93188
nger	-7.93293
▁Awaay	-7.94217
ot	-7.94538
▁who	-7.95412
▁Hai	-7.95744
▁Na	-7.9694
▁too	-7.97121
▁THE	-7.97539
▁pen	-7.97935
▁ask	-7.98683
▁Then	-7.98737
inayan	-7.98762
▁ina	-7.98828
ya	-7.98931
lease	-7.98992
▁over	-7.99157
▁riko	-7.9981
▁put	-8.0017
▁His	-8.00175
ho	-8.00515
la	-8.01014
▁noya	-8.01213
▁Hello	-8.01691
▁years	-8.02168
▁Sa	-8.02577
▁hay	-8.02652
▁house	-8.03133
▁also	-8.03264
es	-8.03268
▁play	-8.03285
▁Okay	-8.03371
▁ama	-8.03523
ol	-8.04265
▁money	-8.04829
at	-8.05582
▁dateng	-8.06063
▁tiya	-8.063
▁any	-8.06431
▁tomorrow	-8.06443
ayaw	-8.06521
▁tisowanan	-8.06674
▁make	-8.06689
ather	-8.06728
▁koni	-8.07343
or	-8.07423
▁paka	-8.08329
▁Can	-8.08517
▁minokay	-8.0856
▁cangra	-8.09234
▁namo	-8.09747
▁tolo	-8.09877
▁frog	-8.10327
se	-8.10489
got	-8.10582
▁takola	-8.1061
▁came	-8.10968
▁give	-8.115
▁how	-8.11649
▁trap	-8.12113
▁miala	-8.12175
ko	-8.12463
▁ciira	-8.12561
▁Iraay	-8.12854
▁person	-8.13132
▁dog	-8.13376
▁village	-8.13773
in	-8.13969
▁eat	-8.14132
▁kora	-8.14468
each	-8.14764
▁help	-8.14823
▁mother	-8.14881
▁away	-8.15902
▁children	-8.16875
▁mafana	-8.1722
▁awaay	-8.17407
▁other	-8.17629
ma	-8.1763
p	-8.17707
▁wa	-8.1786
▁After	-8.18295
▁tilid	-8.18376
▁uncle	-8.18466
▁lend	-8.18467
▁Cowa	-8.18468
▁again	-8.18468
▁anocila	-8.18482
▁Mayaw	-8.18734
st	-8.19026
▁tree	-8.19224
min	-8.1978
▁If	-8.19952
▁sweet	-8.20325
▁Cima	-8.20378
▁live	-8.20618
▁misa	-8.20905
▁basket	-8.21105
▁waco	-8.21141
▁yo	-8.22065
▁fafahiyan	-8.22191
▁nanom	-8.22852
▁should	-8.23905
▁hananay	-8.24143
▁takowanan	-8.24262
▁fruits	-8.24947
ak	-8.25156
▁after	-8.2605
▁if	-8.26271
▁let	-8.26405
ng	-8.26476
▁tireng	-8.28045
▁codad	-8.28054
▁Kolas	-8.28276
ong	-8.28917
▁right	-8.29002
ta	-8.29067
▁doing	-8.29407
▁because	-8.30075
▁teach	-8.30077
▁ccay	-8.30086
▁kina	-8.301
▁hunting	-8.30257
"	-8.30287
vana	-8.30614
▁Adihay	-8.30667
▁speak	-8.31046
▁rakat	-8.31077
▁H	-8.31258
so	-8.31393
ayam	-8.31748
hnic	-8.32153
▁Hayda	-8.32154
S	-8.3262
orad	-8.32894
alo	-8.33567
▁sapi	-8.3403
▁Did	-8.34266
▁Pina	-8.34558
▁mo	-8.34959
▁lima	-8.35114
▁ya	-8.35133
▁awa	-8.35356
▁man	-8.35513
cay	-8.35942
▁really	-8.36434
▁fell	-8.36438
▁kapot	-8.36495
▁Saka	-8.37139
▁mikilim	-8.37322
ch	-8.37692
▁big	-8.37703
▁into	-8.38398
▁iraay	-8.3843
▁bus	-8.38641
▁lotok	-8.38664
▁prey	-8.38692
▁komaen	-8.38756
▁miliso	-8.38901
▁wama	-8.38986
▁vegetables	-8.39036
▁heart	-8.39249
▁cidal	-8.39461
▁Icowa	-8.3978
▁kira	-8.40396
▁indigenous	-8.41006
il	-8.41083
▁fali	-8.41284
▁paro	-8.41357
▁fishing	-8.41477
▁tata	-8.41821
▁To	-8.42312
▁sanay	-8.4319
▁tell	-8.43262
▁minengneng	-8.43326
▁impic	-8.43478
▁mountains	-8.43652
▁mitilid	-8.43726
▁lalan	-8.43989
▁si	-8.44081
▁eraser	-8.44488
ni	-8.45102
▁lunch	-8.45574
▁itiya	-8.45735
ka	-8.45805
▁kind	-8.4585
▁In	-8.46183
adop	-8.46541
▁malacaf	-8.46716
▁young	-8.4687
c	-8.46916
▁language	-8.46932
▁clean	-8.4773
▁Yin	-8.47999
▁find	-8.48002
▁while	-8.48007
▁Mafana	-8.48038
▁et	-8.48077
▁sp	-8.48572
▁So	-8.4874
▁maro	-8.4882
▁kakaenen	-8.49035
▁fruit	-8.49069
▁B	-8.49305
w	-8.49416
ce	-8.4944
▁p	-8.49922
▁bicycle	-8.50483
▁delicious	-8.50483
▁please	-8.5054
▁hot	-8.50642
▁heci	-8.50788
pa	-8.51019
▁sha	-8.5135
▁li	-8.51917
▁pina	-8.52322
▁faki	-8.52413
▁these	-8.52573
▁tamlaw	-8.52694
▁remiad	-8.53029
▁Teacher	-8.53031
▁something	-8.53031
▁why	-8.53031
▁kafana	-8.53102
sa	-8.53109
▁off	-8.5318
▁kngli	-8.54074
▁mala	-8.54422
do	-8.54497
▁cold	-8.54906
▁micakay	-8.55647
▁could	-8.55652
▁tahira	-8.55652
▁wind	-8.5566
▁only	-8.55957
▁way	-8.57096
ill	-8.57178
▁visit	-8.58037
▁then	-8.58052
▁adada	-8.58204
▁Singsi	-8.5833
▁K	-8.58356
▁haca	-8.5836
is	-8.58457
▁Put	-8.58465
▁talakal	-8.5864
▁midangoy	-8.58644
▁grandmother	-8.58644
ayay	-8.58677
▁God	-8.58762
▁where	-8.59076
ic	-8.59666
▁aka	-8.59939
▁group	-8.59974
▁elder	-8.59978
acaen	-8.60343
osi	-8.60377
▁Yo	-8.60779
▁first	-8.61089
▁running	-8.61089
▁turn	-8.61089
▁serangawan	-8.61102
▁later	-8.61173
▁kona	-8.61257
ting	-8.61257
▁full	-8.61848
▁C	-8.62158
▁hanto	-8.6224
▁Com	-8.62822
et	-8.62882
▁head	-8.63474
lo	-8.63665
▁left	-8.63926
▁interview	-8.63926
▁Everyone	-8.63927
▁nangra	-8.63929
▁pitilidan	-8.63999
▁misalama	-8.64139
▁Ka	-8.65453
tep	-8.66075
▁made	-8.66428
▁every	-8.66845
▁Thank	-8.66846
▁swimming	-8.66846
▁food	-8.66861
▁hen	-8.6738
▁Hayi	-8.67435
▁pick	-8.68305
▁aci	-8.68492
▁care	-8.68542
▁traps	-8.68694
loma	-8.69394
▁talk	-8.69561
▁hunt	-8.69649
▁love	-8.69742
▁Taitung	-8.69853
▁church	-8.69853
▁learn	-8.69853
▁foting	-8.69872
NO	-8.69985
od	-8.70361
▁dad	-8.70497
▁sell	-8.71099
opo	-8.71221
▁Manga	-8.71774
▁called	-8.71786
owal	-8.71861
▁mami	-8.71906
on	-8.71946
▁un	-8.7226
▁taloma	-8.72417
▁w	-8.72656
▁feel	-8.72657
▁motorcycle	-8.72954
▁morning	-8.72954
▁near	-8.72955
▁great	-8.72958
▁yourself	-8.73052
▁brothers	-8.73407
▁told	-8.74004
▁ha	-8.74206
▁rain	-8.74942
long	-8.75292
▁falo	-8.75994
▁dollars	-8.76154
▁bottle	-8.76155
▁still	-8.76202
▁mali	-8.76358
▁raining	-8.7644
▁Maolah	-8.76455
▁Why	-8.76531
▁payso	-8.76545
▁losay	-8.76545
▁misanga	-8.76582
▁birds	-8.76775
▁panay	-8.76861
▁omah	-8.77056
▁lahok	-8.77307
able	-8.77521
▁pasevan	-8.77592
▁hato	-8.78457
▁walk	-8.78897
▁share	-8.78965
▁grow	-8.79001
hich	-8.79209
▁carry	-8.79218
▁umbrella	-8.7946
▁thank	-8.79491
▁foot	-8.79498
nga	-8.79527
▁around	-8.79933
▁hai	-8.79962
lin	-8.80151
I	-8.8021
▁harateng	-8.80286
▁things	-8.8032
▁pasifana	-8.80358
▁tada	-8.80821
▁languages	-8.8094
▁grown	-8.81066
▁nipaloma	-8.81476
ayto	-8.81894
▁sisters	-8.82006
▁du	-8.82114
▁nengneng	-8.82392
▁rest	-8.82658
angay	-8.82684
▁pro	-8.82698
▁far	-8.82741
▁outside	-8.82827
law	-8.82847
▁Jesus	-8.82879
▁someone	-8.82906
▁Sure	-8.82924
▁mus	-8.83006
▁tatoloay	-8.83188
▁Dur	-8.83248
▁snakes	-8.83282
▁own	-8.83284
▁tall	-8.83611
▁night	-8.83871
▁elders	-8.84223
▁piece	-8.84291
▁year	-8.84328
▁chicken	-8.85341
▁friend	-8.8535
▁Tata	-8.855
▁late	-8.85566
▁lo	-8.85972
▁N	-8.86206
▁Pancah	-8.86419
▁short	-8.8642
▁pakayni	-8.86427
▁already	-8.8643
▁class	-8.86445
▁train	-8.8645
▁Tosa	-8.86459
▁laloma	-8.86474
▁niira	-8.86545
▁wear	-8.86602
pi	-8.8665
orip	-8.86703
▁Take	-8.86861
▁her	-8.87103
!"	-8.87235
▁male	-8.87285
▁dadaya	-8.87942
le	-8.88091
ra	-8.88117
▁ball	-8.88491
▁cima	-8.8862
▁book	-8.89016
iw	-8.89173
▁Yis	-8.89405
herek	-8.89628
ring	-8.89818
▁sick	-8.90084
▁afternoon	-8.9009
▁textbook	-8.9009
▁drink	-8.9009
▁Cecay	-8.9009
▁titi	-8.90094
▁Anini	-8.90119
▁wait	-8.90127
▁stop	-8.90139
▁cut	-8.9024
▁open	-8.90372
O	-8.90457
▁widang	-8.90537
▁wash	-8.90584
▁tonini	-8.90707
▁manga	-8.90985
▁well	-8.91017
▁tama	-8.91107
▁friends	-8.91211
▁manan	-8.91247
▁seen	-8.91261
▁cacay	-8.9128
▁re	-8.91765
▁read	-8.91845
ek	-8.91926
▁pida	-8.92054
▁bit	-8.9257
of	-8.92993
no	-8.93086
▁fofo	-8.93093
▁po	-8.93671
▁remember	-8.93899
▁paliding	-8.939
▁words	-8.93904
▁before	-8.93905
▁living	-8.93909
▁sky	-8.93912
▁passed	-8.9397
▁fafoy	-8.9435
▁wina	-8.94363
▁Go	-8.94467
▁meat	-8.94735
▁b	-8.94849
▁br	-8.95249
▁hacowa	-8.95472
ten	-8.95643
▁2.	-8.95908
lay	-8.95976
nengneng	-8.96332
▁L	-8.96363
▁side	-8.96451
▁tradition	-8.96729
▁place	-8.96878
▁cooked	-8.96884
tayra	-8.96907
▁1	-8.96945
ira	-8.97056
▁isaw	-8.97224
ne	-8.973
mi	-8.97783
▁future	-8.9786
▁study	-8.9786
▁Tayra	-8.97861
▁hard	-8.97862
▁dinner	-8.97863
▁Grandma	-8.97871
▁potatoes	-8.97872
▁Today	-8.97883
▁Lima	-8.97884
▁grass	-8.97942
▁yet	-8.97946
▁pakafana	-8.97966
▁last	-8.97992
▁maemin	-8.98076
▁than	-8.98142
▁mom	-8.98168
haka	-8.98211
▁front	-8.98327
komod	-8.98403
▁Itira	-8.98433
▁Si	-8.98626
▁fields	-8.98765
▁polong	-8.98957
▁compete	-8.99227
▁net	-8.99586
▁1.	-8.99649
li	-9.00078
▁soon	-9.00994
▁thing	-9.00999
▁masa	-9.01406
po	-9.01581
ami	-9.01849
eso	-9.01905
▁afraid	-9.01984
▁typhoon	-9.01984
▁close	-9.01985
▁somowal	-9.01985
▁quickly	-9.01986
▁station	-9.01987
▁bike	-9.01988
▁kaenen	-9.02025
▁minanam	-9.02139
▁door	-9.02153
f	-9.02237
hose	-9.02331
▁kakarayan	-9.02472
▁end	-9.02665
▁nima	-9.02751
it	-9.02759
▁al	-9.02974
▁halafin	-9.03572
th	-9.03693
▁pahanhan	-9.0373
ter	-9.04212
tel	-9.04419
▁Paka	-9.04512
▁de	-9.04831
el	-9.0493
▁rock	-9.05158
▁Ala	-9.05189
▁culture	-9.05211
▁understand	-9.05975
em	-9.06092
▁found	-9.06278
▁ancestors	-9.06286
▁climb	-9.06286
▁record	-9.06286
▁government	-9.06286
▁member	-9.06287
▁little	-9.06288
▁payci	-9.06295
▁bought	-9.06302
▁five	-9.0631
▁plane	-9.06322
elif	-9.06324
▁Papina	-9.0633
▁thought	-9.06362
▁Dad	-9.06366
ar	-9.06443
▁pafeli	-9.06495
▁kanga	-9.06553
iya	-9.06574
▁finawlan	-9.06796
▁tisowan	-9.06811
E	-9.07311
▁warm	-9.07553
▁leave	-9.07693
oner	-9.07802
▁safaw	-9.07805
ci	-9.0782
▁micaliw	-9.08584
▁katayni	-9.08672
▁days	-9.08799
A	-9.09236
▁Bu	-9.09406
emin	-9.09584
▁Samaan	-9.09831
ling	-9.09956
cowaay	-9.10124
ayho	-9.10168
eng	-9.10174
▁ki	-9.10236
▁pito	-9.10335
▁co	-9.10662
▁Alikakay	-9.10781
▁mipitpit	-9.10781
▁summer	-9.10781
▁stone	-9.10784
▁never	-9.10802
▁tatosa	-9.10837
▁making	-9.10856
▁mitengil	-9.10877
▁part	-9.10884
▁mihcaan	-9.10924
▁caka	-9.10956
▁niya	-9.11038
▁paso	-9.11089
nian	-9.11094
▁stay	-9.11097
▁gitih	-9.11241
▁okay	-9.11255
▁pasowal	-9.11347
▁tao	-9.11626
out	-9.11693
▁fafahi	-9.12035
▁say	-9.12063
oc	-9.12445
▁May	-9.12462
ro	-9.12663
▁tangasa	-9.12722
▁Ar	-9.12839
day	-9.12996
▁konga	-9.13282
ought	-9.13283
▁fana	-9.13825
wa	-9.13986
▁adihayay	-9.14029
ry	-9.14052
▁Sha	-9.1422
▁new	-9.14331
▁field	-9.14419
▁Now	-9.1489
▁set	-9.15021
ok	-9.15099
▁ate	-9.15174
▁Masa	-9.15192
eman	-9.1533
▁dri	-9.15342
maan	-9.15425
▁both	-9.15428
▁river	-9.15486
▁Alright	-9.15487
▁writing	-9.15487
▁women	-9.15487
▁dancing	-9.15488
▁Wait	-9.15498
▁grain	-9.15501
▁matter	-9.15565
▁siri	-9.15627
▁matawal	-9.15687
▁call	-9.15706
▁riyar	-9.16033
▁[	-9.16047
▁sepat	-9.16047
▁cacodadan	-9.16075
id	-9.16334
ri	-9.16379
▁fat	-9.16429
▁hands	-9.16493
▁malo	-9.16565
▁TO	-9.16763
▁finacadan	-9.16783
most	-9.16793
▁ride	-9.16964
▁kamay	-9.17022
▁fo	-9.1718
▁Matawal	-9.17522
▁Fa	-9.18081
▁Here	-9.18238
▁c	-9.18356
]	-9.18937
ity	-9.18956
▁either	-9.19033
00	-9.19133
▁bi	-9.19284
▁rod	-9.19454
▁Posong	-9.19547
▁men	-9.19711
▁harvest	-9.1983
mo	-9.19847
ud	-9.19884
AN	-9.20046
▁think	-9.20183
ING	-9.2029
▁hat	-9.20345
▁nani	-9.20382
▁stand	-9.20383
▁bamboo	-9.20426
▁wife	-9.20426
▁bag	-9.20428
▁picodadan	-9.20429
▁somewhere	-9.20436
▁dishes	-9.20442
▁folad	-9.20468
▁mikalic	-9.20469
▁sasipasip	-9.20472
▁evening	-9.20507
▁road	-9.20519
▁bad	-9.20634
▁tara	-9.2067
▁siblings	-9.20686
▁red	-9.20694
▁masadak	-9.2073
▁peoples	-9.20742
▁soil	-9.2079
elin	-9.20861
▁papotal	-9.21015
▁Doci	-9.21075
room	-9.21188
▁classmates	-9.21289
aloman	-9.21565
kay	-9.2159
maanen	-9.2171
▁coming	-9.21843
▁ini	-9.22027
▁koko	-9.22094
icle	-9.2243
▁Cen	-9.22703
▁names	-9.22892
▁pala	-9.23175
ala	-9.23315
▁hakowa	-9.23362
▁Ha	-9.23657
▁patikol	-9.2375
ion	-9.23771
▁Ya	-9.23951
ir	-9.24162
▁On	-9.24406
▁dream	-9.24537
▁hand	-9.24598
▁maolah	-9.24944
ecos	-9.2496
▁At	-9.25209
▁sava	-9.25382
▁hold	-9.25442
ny	-9.2546
akamaan	-9.25513
▁thin	-9.25544
▁tea	-9.25606
ould	-9.25616
▁follow	-9.25626
▁miasik	-9.25632
▁chat	-9.25634
▁mangalay	-9.25645
▁sakalahok	-9.25653
▁kongkoan	-9.25683
▁mind	-9.25691
▁langa	-9.25704
▁mafoti	-9.25725
▁clothing	-9.25766
▁matini	-9.25789
us	-9.25813
▁paper	-9.2589
ness	-9.25928
▁honi	-9.26014
▁miheca	-9.26024
▁faliyos	-9.26247
▁boar	-9.26248
▁alomanay	-9.26271
q	-9.26277
ure	-9.26292
▁spring	-9.26346
ge	-9.27039
▁rank	-9.27044
▁salikaka	-9.27059
▁kawas	-9.27283
een	-9.27288
ca	-9.27531
▁ito	-9.27703
▁nut	-9.2791
ever	-9.28526
▁tatihi	-9.28651
▁caciyaw	-9.28704
▁maha	-9.28726
▁Ca	-9.28768
▁maka	-9.29006
▁3	-9.29436
kong	-9.2998
▁mountain	-9.30039
rry	-9.30913
hakelong	-9.30962
▁hatini	-9.30968
▁panokas	-9.31013
▁swe	-9.31072
▁grandpa	-9.31103
▁immediately	-9.31103
▁twenty	-9.31103
▁stall	-9.31103
▁keep	-9.31104
▁yesterday	-9.31104
▁tawki	-9.31104
▁vaki	-9.31104
▁malitengay	-9.31105
▁Kapah	-9.31108
▁Halafin	-9.31114
▁parents	-9.31125
▁miming	-9.31161
▁pull	-9.31169
▁flying	-9.31176
▁city	-9.31387
▁sawni	-9.31392
▁taste	-9.31402
M	-9.31415
▁aro	-9.31604
▁sapisorit	-9.31759
▁mapolong	-9.31793
▁sing	-9.32139
▁tono	-9.32499
▁pacaliwen	-9.32787
▁pack	-9.32847
est	-9.33221
onen	-9.34
▁rights	-9.34108
▁fangcal	-9.34115
▁Ini	-9.34218
▁earl	-9.3477
▁niyah	-9.34898
joy	-9.35004
▁bird	-9.35045
pen	-9.3542
wan	-9.35431
yon	-9.35821
▁vegetable	-9.35838
▁Maha	-9.36141
▁car	-9.36553
AND	-9.36834
cal	-9.36869
▁hospital	-9.36901
▁everything	-9.36901
▁competition	-9.36902
▁toilet	-9.36902
▁kaysing	-9.36903
▁high	-9.36903
▁riverside	-9.36907
▁under	-9.36907
▁Saaniwan	-9.3691
▁through	-9.36921
▁inacila	-9.36924
▁ri	-9.36925
▁fire	-9.3693
▁lipay	-9.36939
▁knows	-9.36952
▁meet	-9.36963
▁line	-9.36964
▁Wa	-9.36993
▁enter	-9.37009
▁same	-9.3705
▁pay	-9.37054
▁hole	-9.37178
icep	-9.37182
▁mahaen	-9.37473
▁romakat	-9.37589
▁Taiwan	-9.37597
▁Tada	-9.37721
ite	-9.37979
▁sera	-9.38174
▁seem	-9.38198
▁For	-9.38384
▁lomowad	-9.3852
▁Gi	-9.38601
raw	-9.38701
ciw	-9.38902
sh	-9.39058
nanam	-9.39075
celi	-9.39199
fa	-9.39275
▁10	-9.39365
▁whi	-9.39998
yaw	-9.40648
▁act	-9.40914
▁ti	-9.40951
angayay	-9.4119
▁pacaliw	-9.41518
▁icowa	-9.41589
lent	-9.41709
ped	-9.41892
▁classmate	-9.41985
akawang	-9.42051
▁pita	-9.42198
ayaway	-9.42577
▁dry	-9.42807
▁toni	-9.42843
The	-9.42855
not	-9.42914
ac	-9.42964
▁hundred	-9.43056
lthough	-9.43056
▁autumn	-9.43056
▁straight	-9.43056
▁zoo	-9.43056
▁owl	-9.43057
▁Yencomin	-9.43057
▁butterflies	-9.43057
▁feed	-9.43057
▁hakiya	-9.43058
▁black	-9.4306
▁20	-9.43061
▁tingting	-9.43062
▁else	-9.43062
▁Micakay	-9.43066
▁nicaliwan	-9.43068
▁market	-9.43069
▁tosha	-9.43069
▁loose	-9.43078
▁cup	-9.43079
▁watch	-9.43079
aliwacan	-9.43088
▁another	-9.43091
▁wine	-9.43093
▁Tolo	-9.43106
▁gather	-9.43116
▁tokos	-9.43157
▁tamiyanan	-9.43171
▁green	-9.43179
▁milicay	-9.43212
▁pray	-9.43331
▁fall	-9.43361
for	-9.4338
▁sananay	-9.43389
▁tina	-9.43707
▁possible	-9.43771
▁eggs	-9.43796
▁happy	-9.43799
▁fongoh	-9.43799
▁vayi	-9.43799
▁Mana	-9.4395
pina	-9.44026
alomanay	-9.44186
▁malingaday	-9.44217
▁meal	-9.44255
orts	-9.44337
▁sit	-9.44354
▁done	-9.44445
ty	-9.45045
▁tafo	-9.45124
W	-9.45595
▁akong	-9.45608
one	-9.45687
maherek	-9.45984
nanay	-9.46269
▁working	-9.46497
▁tini	-9.46799
▁stick	-9.46903
▁matira	-9.47001
aken	-9.47084
ation	-9.47167
hall	-9.47282
ways	-9.47433
▁use	-9.48067
▁Mangal	-9.48294
▁konian	-9.48345
ment	-9.48451
▁micodad	-9.48763
▁hatira	-9.48778
oya	-9.48779
▁wood	-9.49261
▁Adihayay	-9.49526
▁Penghu	-9.49615
▁blue	-9.49615
▁slowly	-9.49615
▁anything	-9.49615
▁Lisin	-9.49615
▁anohoni	-9.49615
▁bread	-9.49616
▁pound	-9.49617
▁bunch	-9.49618
▁stories	-9.49619
D	-9.49621
▁white	-9.49622
▁roof	-9.49626
▁true	-9.49636
▁draw	-9.4964
▁middle	-9.4964
▁KO	-9.49653
▁office	-9.4967
▁won	-9.4967
▁matalaw	-9.49679
lower	-9.49689
▁myself	-9.49718
▁finished	-9.49766
▁burn	-9.49824
▁plant	-9.49852
▁manengneng	-9.49987
niyaro	-9.50187
naw	-9.50231
▁mana	-9.50364
▁kilim	-9.50369
▁Mimaan	-9.50439
▁miholol	-9.50471
▁hour	-9.50479
▁miliyaw	-9.50488
▁Maherek	-9.50537
▁fita	-9.50576
si	-9.50595
▁youth	-9.50625
ine	-9.50678
▁touch	-9.50695
try	-9.50734
elinay	-9.5087
▁cho	-9.5094
rs	-9.50964
▁nipa	-9.51192
▁Well	-9.51243
ance	-9.514
▁toki	-9.51416
▁kini	-9.5144
onini	-9.51479
▁hemay	-9.51479
▁patado	-9.51517
lt	-9.51729
▁ayam	-9.51741
oraday	-9.51744
▁Fo	-9.51775
▁kid	-9.51939
u	-9.52258
pinang	-9.52439
ted	-9.53524
▁kolong	-9.53609
▁mimaan	-9.53686
oning	-9.53822
▁talo	-9.54077
▁face	-9.5409
▁tora	-9.54622
▁skin	-9.54762
▁ikor	-9.54855
adopen	-9.55378
▁sir	-9.554
▁gro	-9.55476
▁miss	-9.55564
rode	-9.55601
▁event	-9.55666
gan	-9.55675
▁land	-9.55718
Y	-9.55731
olah	-9.55772
▁Maka	-9.56154
ous	-9.56229
▁hear	-9.56386
▁trib	-9.56466
▁corn	-9.5653
lak	-9.56576
▁bow	-9.56603
adipangpang	-9.56635
▁Kaohsiung	-9.56635
▁floor	-9.56635
▁introduce	-9.56635
▁knife	-9.56635
▁mouth	-9.56635
▁pineapple	-9.56635
▁warehouse	-9.56635
▁Taywan	-9.56636
▁steam	-9.56636
▁dragonflies	-9.56636
▁body	-9.56637
▁large	-9.56637
▁felac	-9.56638
▁block	-9.56643
▁kacanglahan	-9.56648
rchi	-9.5665
▁usually	-9.5665
▁shoot	-9.5665
▁stopped	-9.56651
▁Island	-9.56667
▁wil	-9.56685
▁malahok	-9.5669
▁dirty	-9.56715
▁tatokian	-9.5672
▁talid	-9.56752
▁taller	-9.56768
▁sold	-9.56786
▁means	-9.56788
acaan	-9.56837
▁table	-9.56856
imperatives	-9.56862
elaw	-9.56883
▁heni	-9.56889
▁taha	-9.56997
▁miteli	-9.57116
▁walked	-9.57257
taloma	-9.57289
▁f	-9.57337
▁kawkaw	-9.57489
tic	-9.57671
▁saki	-9.57861
▁dafak	-9.57907
▁ra	-9.5795
▁latek	-9.58206
ec	-9.58221
dateng	-9.58372
▁di	-9.58481
alaan	-9.58598
▁kiraan	-9.58745
▁liyaw	-9.58816
▁kasa	-9.58989
falic	-9.5902
▁g	-9.59355
lass	-9.59366
AY	-9.59515
▁cila	-9.59544
use	-9.59665
▁throw	-9.5975
▁6	-9.59751
▁Misa	-9.59897
▁mapolin	-9.59905
▁dis	-9.60355
▁V	-9.60424
▁tira	-9.607
▁Mapaw	-9.60769
ready	-9.61013
▁toward	-9.61226
hawikid	-9.61915
▁books	-9.61948
ah	-9.62111
▁Mata	-9.62181
▁Mato	-9.62462
▁along	-9.6257
▁En	-9.62697
▁los	-9.62787
▁farmer	-9.63117
▁ear	-9.63322
▁Ye	-9.63323
▁takowan	-9.63538
▁sleep	-9.63591
▁pluck	-9.63621
▁cook	-9.63651
▁mitiliday	-9.63779
▁war	-9.63909
▁Re	-9.63931
▁Mahaen	-9.63953
▁enem	-9.64009
▁koliciw	-9.64012
▁free	-9.64132
▁careful	-9.64146
hum	-9.6417
▁swim	-9.64183
▁MRT	-9.64185
▁hometown	-9.64185
▁lunchbox	-9.64185
▁stomach	-9.64185
▁taboo	-9.64185
▁worship	-9.64185
▁lofoc	-9.64185
Wow	-9.64186
▁lisin	-9.64186
▁Tayni	-9.64187
▁country	-9.64189
▁grew	-9.64192
▁ground	-9.64192
▁kept	-9.64196
▁matiya	-9.64198
▁Malacafay	-9.64201
bye	-9.64202
terday	-9.64207
▁tayla	-9.64212
▁fawahan	-9.64218
▁siwa	-9.64222
▁milaliw	-9.6423
▁better	-9.64275
▁four	-9.6428
▁sasisit	-9.64281
▁matayal	-9.64285
▁thirty	-9.64297
tini	-9.64316
▁bright	-9.64316
▁caira	-9.64346
▁heard	-9.64365
▁nikaenan	-9.64378
▁coat	-9.64409
▁police	-9.6451
ld	-9.64597
▁Pase	-9.64608
▁minutes	-9.64675
▁Hakowaay	-9.64726
▁matoasay	-9.64807
dle	-9.64882
▁rainy	-9.64927
▁kafong	-9.65115
man	-9.65154
ilol	-9.65201
▁bees	-9.65221
sed	-9.6525
▁Itini	-9.65544
he	-9.65562
▁Aray	-9.6558
▁maaraw	-9.65685
▁ava	-9.65775
▁pipa	-9.65776
▁talacowa	-9.66115
▁anocha	-9.66321
▁mapo	-9.66432
▁chickens	-9.66573
fi	-9.6663
▁got	-9.66678
▁As	-9.67072
came	-9.67226
house	-9.67239
▁unti	-9.67255
ught	-9.6784
las	-9.68675
ono	-9.68706
▁nano	-9.68856
▁others	-9.68951
▁nonini	-9.69489
iden	-9.6949
▁miadop	-9.6952
yan	-9.6962
fana	-9.69731
▁round	-9.70256
▁D	-9.70374
▁tano	-9.70496
te	-9.70654
▁store	-9.71104
ki	-9.71315
gla	-9.71378
▁bur	-9.71831
way	-9.71935
▁age	-9.72042
cer	-9.72143
▁tato	-9.72307
FOR	-9.72352
▁PAKOMODAN	-9.72352
▁expensive	-9.72352
▁few	-9.72352
▁grandma	-9.72352
▁join	-9.72352
▁video	-9.72352
▁Pahanhan	-9.72352
▁further	-9.72353
▁Kaagatay	-9.72353
▁doctor	-9.72354
▁crow	-9.72354
▁enough	-9.72357
▁rope	-9.72358
▁ngraan	-9.72362
▁moetep	-9.72364
▁pork	-9.72365
▁sound	-9.72365
▁hiya	-9.72365
▁Licay	-9.72376
▁order	-9.72377
▁malafi	-9.72391
rayray	-9.72392
▁sickle	-9.72393
▁goodbye	-9.72401
▁nacila	-9.72402
▁mimali	-9.72403
ongcoy	-9.72409
▁liteng	-9.72416
▁forward	-9.72436
▁caught	-9.72437
▁forget	-9.72439
▁happened	-9.72444
▁pising	-9.72453
▁prepared	-9.72458
▁invited	-9.72475
rite	-9.72482
▁Masamaan	-9.72506
▁Talacowa	-9.7255
▁sharp	-9.72556
▁hair	-9.72561
▁vavainayan	-9.72565
▁path	-9.72575
▁pateli	-9.72621
▁cooking	-9.72654
▁guavas	-9.72699
▁animals	-9.72699
▁Pacaliwen	-9.72733
▁papi	-9.72796
▁Mita	-9.72804
▁clouds	-9.72886
icel	-9.72891
0	-9.73129
▁kinian	-9.73176
▁past	-9.73241
▁carrie	-9.73314
▁chiyo	-9.73355
tch	-9.73361
▁panokay	-9.73381
▁\	-9.7345
dam	-9.74016
▁may	-9.74085
▁nai	-9.74159
▁able	-9.74202
linay	-9.74221
▁tiyad	-9.74243
▁seed	-9.74411
esos	-9.74581
▁nora	-9.74671
▁mata	-9.75103
▁fafa	-9.75341
▁IN	-9.75634
▁ala	-9.75846
▁Naw	-9.75964
▁8	-9.76083
▁Ea	-9.76153
50	-9.76407
▁life	-9.76451
▁mamaan	-9.76468
am	-9.76569
▁ngata	-9.76719
inay	-9.76853
▁kasoling	-9.7697
▁Al	-9.77157
come	-9.77282
▁sadak	-9.77367
▁fodoy	-9.77431
▁paloma	-9.77559
▁pisa	-9.77691
▁Mala	-9.77762
b	-9.78115
pe	-9.78135
sing	-9.78348
▁Not	-9.78378
vaw	-9.78464
licay	-9.78993
adopay	-9.79001
▁Ngaay	-9.79145
▁An	-9.79165
shi	-9.79409
▁son	-9.79451
taw	-9.7973
▁change	-9.79916
▁number	-9.80131
▁hurt	-9.80141
▁smell	-9.8015
plants	-9.80169
▁egg	-9.80176
▁snake	-9.80179
aka	-9.80261
top	-9.80422
▁main	-9.80446
det	-9.80765
▁arrow	-9.80911
▁listen	-9.80926
▁cheap	-9.81183
▁Taipei	-9.81245
▁attitude	-9.81245
▁beautiful	-9.81245
▁elephant	-9.81245
▁girl	-9.81245
▁problem	-9.81245
▁tapokpokan	-9.81245
▁thunder	-9.81245
▁vehicle	-9.81245
▁hikoki	-9.81245
▁welcome	-9.81245
▁Lalatan	-9.81245
▁oranges	-9.81245
▁Yincomin	-9.81245
▁kalahokan	-9.81245
▁peel	-9.81247
▁speech	-9.81248
▁suddenly	-9.81248
▁cookies	-9.8125
▁price	-9.81252
▁roray	-9.81255
▁millet	-9.81257
▁limood	-9.81259
▁ranch	-9.81259
▁ago	-9.81268
▁arrived	-9.81287
▁Gre	-9.81289
hung	-9.81294
▁dance	-9.81296
▁equal	-9.81307
▁nagla	-9.81317
▁present	-9.81319
special	-9.81326
▁whole	-9.81334
▁raraw	-9.81339
▁weaving	-9.81343
▁malecad	-9.81347
▁cool	-9.81357
▁total	-9.8138
▁mix	-9.81392
▁answer	-9.81429
▁mimelaw	-9.81445
▁mihawikid	-9.8149
▁mamang	-9.81533
▁plucked	-9.81587
▁meeting	-9.8168
ble	-9.8173
▁gone	-9.81757
▁harvested	-9.81775
▁stars	-9.81838
▁light	-9.82071
▁tatolo	-9.82093
patay	-9.82321
▁hakhak	-9.82342
▁correct	-9.82342
▁kiyafes	-9.82342
▁fakar	-9.82343
▁Hongay	-9.82343
▁Fotod	-9.82351
▁mark	-9.82369
▁v	-9.82415
neng	-9.82441
▁kiyami	-9.82464
▁goat	-9.8251
▁force	-9.82514
▁Hav	-9.8254
▁nengnengen	-9.82688
op	-9.82709
▁masadakay	-9.82813
pt	-9.83194
▁Be	-9.83199
▁da	-9.83209
▁Tano	-9.83324
▁tomok	-9.83364
▁E	-9.83559
▁sin	-9.83988
▁mira	-9.84094
^/	-9.84167
▁4	-9.84294
▁wet	-9.84463
▁pana	-9.84475
▁fl	-9.84614
▁killed	-9.84721
oray	-9.85087
▁met	-9.85219
▁sapa	-9.85257
harateng	-9.85263
▁epah	-9.85269
▁kwocha	-9.85272
▁maso	-9.85419
vo	-9.85464
per	-9.85758
▁teli	-9.85951
ate	-9.8666
▁hav	-9.86709
▁baskets	-9.86732
▁tahidang	-9.86827
▁ada	-9.8719
LO	-9.87214
we	-9.87241
▁mice	-9.87268
ck	-9.87296
▁qui	-9.87297
▁ten	-9.87298
▁le	-9.87366
killed	-9.87599
ose	-9.87809
melaw	-9.87841
pu	-9.87876
ssion	-9.87898
▁sasa	-9.88161
▁Nan	-9.88164
▁lie	-9.88211
▁Loma	-9.88417
hay	-9.88429
aray	-9.8846
▁Sienaw	-9.88507
tengil	-9.8852
di	-9.89194
▁todong	-9.89211
ada	-9.89274
▁bo	-9.89333
▁continu	-9.89373
tar	-9.89429
▁kacaw	-9.89686
kiw	-9.89817
▁Tala	-9.89859
▁hit	-9.90117
▁Ami	-9.90144
▁mamo	-9.90186
awa	-9.90535
▁pig	-9.90678
▁cloth	-9.90697
▁luck	-9.90707
▁Pu	-9.90711
ache	-9.90845
▁Grand	-9.90979
▁tanamen	-9.90991
▁dark	-9.90997
grandfather	-9.91007
▁Apetayan	-9.91007
▁Canglah	-9.91007
▁above	-9.91007
▁breakfast	-9.91007
▁croquet	-9.91007
▁female	-9.91007
▁heavily	-9.91007
▁pepper	-9.91007
▁rainbow	-9.91007
▁smooth	-9.91007
▁system	-9.91007
▁various	-9.91007
▁watermelon	-9.91007
▁written	-9.91007
▁activity	-9.91007
▁barn	-9.91007
▁kodasing	-9.91007
course	-9.91007
▁savoric	-9.91008
▁siyataw	-9.91008
ariray	-9.91009
▁Taiwanese	-9.91009
▁subway	-9.91009
Aloman	-9.91009
▁fokeloh	-9.91011
▁kiwkay	-9.91012
▁spouse	-9.91012
▁wonder	-9.91012
▁Hacowa	-9.91014
▁tilo	-9.91015
▁Kilang	-9.91015
maro	-9.91017
▁Pasowal	-9.91023
▁micomod	-9.91027
▁selar	-9.91039
▁fine	-9.91046
▁ekong	-9.91051
▁lomi	-9.91054
▁moment	-9.91064
▁sofitay	-9.91076
▁blowing	-9.91086
▁malacecay	-9.91091
▁ship	-9.91105
▁blessing	-9.91114
▁Kako	-9.91125
▁roll	-9.91139
efore	-9.9116
▁different	-9.91176
▁pile	-9.91202
▁kafoti	-9.91203
▁cingranan	-9.91241
▁padang	-9.9125
▁kisonan	-9.91253
▁Mom	-9.91292
▁move	-9.91295
▁lose	-9.91315
▁inside	-9.91367
▁plucking	-9.91373
▁sleeping	-9.91373
▁enemy	-9.91395
▁Api	-9.914
twe	-9.91402
▁Idek	-9.91405
▁divide	-9.91422
▁burning	-9.91428
▁comikay	-9.91436
▁seat	-9.91443
▁thinking	-9.9158
▁longer	-9.91636
ave	-9.91713
▁Mamaan	-9.91719
▁says	-9.9183
▁comikayay	-9.91859
▁walking	-9.91865
lalifet	-9.91986
▁broken	-9.92256
▁aboriginal	-9.92277
lican	-9.9241
missed	-9.92577
less	-9.92657
EST	-9.92665
tolo	-9.92766
▁Ko	-9.92856
nay	-9.93009
cel	-9.93117
▁saho	-9.93228
▁hanaw	-9.93433
▁La	-9.93434
ATO	-9.93641
▁ro	-9.93759
▁window	-9.93828
▁otofay	-9.93828
▁tong	-9.93833
▁tatiih	-9.93912
▁dro	-9.94197
▁adadaay	-9.94256
tama	-9.94289
▁vodoy	-9.94703
▁taro	-9.94723
haw	-9.94823
▁pitaw	-9.94863
ary	-9.95158
▁teloc	-9.95458
▁ngoyos	-9.95469
cila	-9.95494
N	-9.95934
▁cat	-9.96283
▁ari	-9.9635
▁Li	-9.96478
▁paysin	-9.9714
▁kala	-9.97196
▁room	-9.97345
▁believe	-9.97387
▁pacemot	-9.97555
ken	-9.98313
ke	-9.98553
wiro	-9.98621
▁matama	-9.98747
vi	-9.99082
▁weight	-9.99083
ised	-9.99119
mimaan	-9.99178
up	-9.99208
boriginal	-9.99261
▁ofang	-9.9928
sota	-9.99311
iday	-9.99323
▁Pinaay	-9.99357
AR	-9.99532
▁roma	-9.99801
ent	-10.0023
va	-10.0027
ali	-10.0033
kes	-10.0055
▁box	-10.0073
▁tay	-10.0073
▁malekaka	-10.0093
▁pre	-10.0122
ug	-10.0126
▁organ	-10.0138
▁bark	-10.0151
▁jump	-10.0152
side	-10.0162
ripa	-10.0163
▁invite	-10.0166
▁Nika	-10.0173
▁complete	-10.0177
omorrow	-10.0178
▁Se	-10.0178
▁potato	-10.0179
▁Ra	-10.018
hile	-10.0181
▁being	-10.0182
▁miparo	-10.0182
▁$5	-10.0183
▁Ahowiday	-10.0183
▁Orasaka	-10.0183
▁Sunday	-10.0183
▁Tangafolan	-10.0183
▁daughter	-10.0183
▁experience	-10.0183
▁second	-10.0183
▁soigoo	-10.0183
▁teeth	-10.0183
▁accord	-10.0183
▁fresh	-10.0183
▁garden	-10.0183
▁married	-10.0183
▁mitengteng	-10.0183
▁soccer	-10.0183
▁chechay	-10.0183
▁south	-10.0183
▁Adada	-10.0183
▁bump	-10.0183
collective	-10.0183
▁Japanese	-10.0183
▁sinafel	-10.0183
▁vacation	-10.0183
stair	-10.0183
▁reason	-10.0183
▁small	-10.0183
▁strong	-10.0183
▁tamina	-10.0183
▁neck	-10.0183
ridge	-10.0183
▁patekenan	-10.0183
▁vonga	-10.0183
scree	-10.0183
▁fight	-10.0183
▁cross	-10.0183
▁blo	-10.0183
▁facac	-10.0183
▁wrong	-10.0183
▁Asenay	-10.0183
▁fern	-10.0183
▁chili	-10.0183
▁handsome	-10.0183
wheat	-10.0184
▁peaches	-10.0184
▁shehoy	-10.0184
▁Look	-10.0184
▁pancah	-10.0184
▁preacher	-10.0185
▁nawhani	-10.0185
▁plow	-10.0185
▁voting	-10.0185
▁dadoy	-10.0185
▁sasowalen	-10.0185
▁saasik	-10.0186
▁broom	-10.0186
▁boat	-10.0186
▁langdaway	-10.0186
▁Chang	-10.0186
▁limo	-10.0186
▁mitafsiw	-10.0187
▁suppo	-10.0187
▁sitting	-10.0187
▁race	-10.0188
▁dish	-10.0188
▁honey	-10.0188
▁sweeping	-10.0188
▁kaliki	-10.0189
▁picakay	-10.019
▁Spe	-10.0191
▁mansa	-10.0194
▁below	-10.0195
▁simal	-10.0196
▁shining	-10.0197
▁baby	-10.0199
▁deer	-10.02
▁angry	-10.02
limaw	-10.0201
▁Marang	-10.0202
▁started	-10.0202
▁nigla	-10.0202
▁cloudy	-10.0202
▁tool	-10.0204
▁mikerid	-10.0205
▁Onini	-10.0208
▁sakatayra	-10.021
▁sometimes	-10.0217
lawac	-10.0219
lute	-10.022
▁agree	-10.0223
▁Pacaliw	-10.0223
▁kerid	-10.0228
▁weave	-10.0228
if	-10.0228
▁eyes	-10.023
▁drying	-10.0233
▁paliwalay	-10.0238
▁ngiha	-10.0253
▁kalo	-10.0258
▁masaso	-10.0267
▁yni	-10.0268
tenok	-10.0277
▁growing	-10.0278
▁mara	-10.028
▁farm	-10.0284
▁soni	-10.0285
▁cu	-10.0286
ext	-10.0294
▁aboriginals	-10.0305
▁kemaen	-10.0313
▁respond	-10.0318
▁lalosidan	-10.0318
▁ociya	-10.0318
▁katayalan	-10.0318
▁stream	-10.0318
caliwen	-10.0336
asip	-10.0346
▁haratengen	-10.0352
▁fangcalay	-10.0357
▁ora	-10.0364
teker	-10.0366
▁sakalafi	-10.039
wawa	-10.0394
pacaliwan	-10.0406
▁mipadang	-10.0407
▁dreams	-10.042
om	-10.0421
▁kapi	-10.0424
▁keter	-10.0433
▁masamaan	-10.0436
mok	-10.0442
kan	-10.0448
▁sea	-10.045
▁midemak	-10.0478
SE	-10.0489
▁salt	-10.0489
▁keliw	-10.0499
▁oner	-10.0501
ian	-10.0501
▁melaw	-10.0514
ally	-10.0533
ical	-10.0552
lon	-10.0557
▁bra	-10.0578
▁pik	-10.058
tosa	-10.0587
▁ila	-10.0619
▁2	-10.0619
cecay	-10.0632
▁aray	-10.0642
ies	-10.0649
foti	-10.0683
▁ngiyangi	-10.0683
▁Mami	-10.0693
▁Make	-10.0711
solinga	-10.0745
▁Ping	-10.0746
heci	-10.0778
light	-10.0817
▁$20	-10.0851
yi	-10.087
ikol	-10.0872
▁De	-10.0874
mb	-10.0875
▁trees	-10.0878
be	-10.0878
tong	-10.0882
▁nasa	-10.0888
oss	-10.0899
▁mipa	-10.0901
pang	-10.0909
ecosay	-10.0921
aya	-10.0928
▁compet	-10.0972
adihay	-10.0989
▁times	-10.1001
▁ciraan	-10.1007
▁apologize	-10.1018
▁olah	-10.1022
ren	-10.1034
▁paya	-10.1042
▁hatiniay	-10.1056
eg	-10.1073
▁tangal	-10.1078
▁most	-10.1081
▁reach	-10.1102
kaw	-10.1105
▁rid	-10.1113
pafeli	-10.113
▁Ho	-10.1155
▁tele	-10.1176
tang	-10.1176
yen	-10.1188
▁fi	-10.119
kayan	-10.1192
hayda	-10.1202
omi	-10.1224
alican	-10.1234
sion	-10.1249
▁pain	-10.1251
▁ngodo	-10.126
▁holiday	-10.1286
ap	-10.1299
tangtang	-10.1303
▁faedet	-10.1308
▁malingad	-10.1312
osaw	-10.1313
▁kaemang	-10.1321
cya	-10.1324
half	-10.1328
paliwal	-10.1341
1	-10.1357
fully	-10.1364
▁eight	-10.1366
olimeten	-10.1367
▁finish	-10.1367
ngangan	-10.1368
hakolong	-10.1371
▁twist	-10.1371
What	-10.1377
enho	-10.1377
kerid	-10.1385
▁Fi	-10.139
aheto	-10.139
pakafana	-10.1391
mod	-10.1393
▁cry	-10.1395
laplap	-10.1396
▁Bunun	-10.1396
▁Festival	-10.1396
▁THSR	-10.1396
▁activities	-10.1396
▁buffalo	-10.1396
▁charcoal	-10.1396
▁hakini	-10.1396
▁heavy	-10.1396
▁jacket	-10.1396
▁pakapaliding	-10.1396
▁patiyamay	-10.1396
▁pencil	-10.1396
▁playground	-10.1396
▁scythe	-10.1396
▁squirrel	-10.1396
▁talakiwkay	-10.1396
▁develop	-10.1396
▁haliki	-10.1396
▁semowal	-10.1396
▁talapitilidan	-10.1396
▁attract	-10.1396
▁gun	-10.1396
▁swallow	-10.1396
▁AMIS	-10.1396
▁Tangasa	-10.1396
▁patafoan	-10.1396
▁vomit	-10.1396
▁sleeve	-10.1396
▁discount	-10.1396
▁weekend	-10.1396
▁Mikalic	-10.1396
▁nomita	-10.1396
▁Komaen	-10.1396
▁knee	-10.1396
▁protection	-10.1396
▁community	-10.1396
tefing	-10.1396
▁arrange	-10.1396
▁direction	-10.1396
▁pingteng	-10.1396
▁Kanas	-10.1396
▁felt	-10.1396
▁anosani	-10.1396
▁matomes	-10.1396
▁lopas	-10.1396
▁easi	-10.1397
▁itila	-10.1397
▁fotig	-10.1397
▁deep	-10.1397
arvest	-10.1397
▁pears	-10.1397
▁Tatiih	-10.1397
▁nikawrira	-10.1397
▁rake	-10.1397
▁Kamaro	-10.1398
▁earth	-10.1398
▁wish	-10.1398
▁Bible	-10.1398
▁show	-10.1398
▁Daya	-10.1398
▁identifi	-10.1399
▁filt	-10.1399
▁laloodan	-10.1399
▁classroom	-10.1399
▁tears	-10.14
▁Tatolo	-10.14
▁Siwa	-10.1401
▁flower	-10.1401
▁bleed	-10.1401
▁parakat	-10.1402
▁Fangcal	-10.1402
▁taini	-10.1403
▁tatodong	-10.1403
▁tired	-10.1404
▁kohetingay	-10.1404
▁mistaken	-10.1405
▁sakacecay	-10.1407
▁mafekac	-10.1407
▁patayni	-10.1408
ulation	-10.1409
▁happening	-10.141
▁pipahanhanan	-10.1411
▁nasi	-10.1411
▁hoping	-10.1412
▁color	-10.1415
▁elderly	-10.1418
lement	-10.1419
▁maedeng	-10.142
tion	-10.1423
sk	-10.1425
▁mitala	-10.1435
UN	-10.1435
▁moved	-10.1436
CH	-10.1436
fah	-10.144
▁makena	-10.1443
▁hook	-10.1443
▁stoo	-10.1445
▁alatek	-10.1446
▁upon	-10.1447
▁horses	-10.1449
▁malikoda	-10.1454
▁ninet	-10.1457
uck	-10.1457
sini	-10.1459
kapot	-10.146
▁mitangtangan	-10.1462
tled	-10.1465
▁singing	-10.1468
▁week	-10.1469
nt	-10.1472
▁calling	-10.1473
lang	-10.1482
▁saying	-10.1489
sak	-10.149
▁sur	-10.1495
sig	-10.1495
▁sow	-10.1496
ih	-10.1498
▁kill	-10.151
▁mih	-10.1515
▁picked	-10.1521
▁Ker	-10.1528
▁miki	-10.1528
G	-10.1532
▁Fro	-10.1533
▁pin	-10.1534
▁makamelaw	-10.1536
▁plain	-10.1546
▁sore	-10.1547
▁romadiw	-10.155
▁Taypak	-10.155
▁distance	-10.155
▁chief	-10.155
▁taneng	-10.1566
▁tolok	-10.1573
▁ahead	-10.1582
pod	-10.1586
ido	-10.1586
▁maorad	-10.1595
▁Mo	-10.1602
▁saso	-10.1605
▁gl	-10.1608
▁maolahay	-10.161
▁oil	-10.1628
milifet	-10.1631
▁kofaw	-10.1634
▁che	-10.1641
efa	-10.165
yin	-10.1651
▁halafinay	-10.1659
harek	-10.1688
pic	-10.1692
v	-10.1695
ngi	-10.1698
▁haci	-10.1704
▁cultures	-10.1725
▁paca	-10.1728
▁coop	-10.1752
5.	-10.1753
▁rikec	-10.1755
af	-10.1755
amis	-10.1757
anca	-10.1767
▁Kacawan	-10.1771
nem	-10.1775
▁respect	-10.1784
▁Sad	-10.1806
▁picomod	-10.1819
▁icowaay	-10.1824
▁pacakay	-10.1829
rek	-10.1838
▁Co	-10.1841
ga	-10.1842
▁masama	-10.1852
oren	-10.1852
▁noon	-10.1859
nan	-10.1859
▁tana	-10.1877
nstead	-10.196
▁sanga	-10.1968
rang	-10.1973
▁erasers	-10.2006
▁nimaan	-10.2016
▁sad	-10.202
tilid	-10.2056
▁Was	-10.2058
wal	-10.2063
▁hill	-10.2082
liyas	-10.2083
▁cal	-10.2084
ern	-10.2087
maanay	-10.211
▁tokay	-10.2113
cowa	-10.2123
▁noni	-10.2124
ping	-10.2126
▁Mara	-10.2143
▁G	-10.2147
▁kata	-10.2161
▁lipahak	-10.2165
arrow	-10.2165
fol	-10.2173
edo	-10.2177
panokasen	-10.2178
ekay	-10.2178
x	-10.2182
rt	-10.2194
▁5	-10.2199
eno	-10.2208
lim	-10.2243
lik	-10.2257
▁frogs	-10.2265
land	-10.2278
▁tali	-10.2279
▁top	-10.2281
T	-10.2321
▁kasi	-10.2326
▁Ro	-10.2328
sanay	-10.234
▁Maan	-10.2354
ut	-10.2356
kel	-10.2371
angen	-10.2377
tihi	-10.2398
▁pakaen	-10.2409
▁hekal	-10.2414
king	-10.2421
▁mido	-10.245
▁pasadak	-10.246
meden	-10.2468
tefad	-10.2474
▁Han	-10.2497
ily	-10.2504
▁tra	-10.2505
ED	-10.2532
ega	-10.2534
ef	-10.2554
EN	-10.2561
▁likes	-10.2561
ric	-10.2561
lada	-10.2601
rain	-10.2619
▁seven	-10.2622
pit	-10.2636
ama	-10.2637
ver	-10.2644
ice	-10.2647
me	-10.2648
▁job	-10.2656
▁Papi	-10.2657
▁cr	-10.2662
▁student	-10.2666
wo	-10.2674
▁per	-10.2675
ols	-10.2692
homong	-10.2694
▁palo	-10.2702
diw	-10.2712
Sha	-10.2712
wi	-10.2722
▁patek	-10.2726
▁pas	-10.2733
▁patiko	-10.2733
▁eco	-10.2739
▁includ	-10.2741
▁mipana	-10.2754
ght	-10.2755
▁stumble	-10.2758
▁since	-10.2759
▁alili	-10.276
ariri	-10.2762
cation	-10.2763
lan	-10.277
ful	-10.2772
ount	-10.2775
ecause	-10.2776
▁access	-10.2777
▁People	-10.2777
▁SAANIWAN	-10.2777
▁adawag	-10.2777
▁arbitrary	-10.2777
▁husband	-10.2777
▁knowledge	-10.2777
▁laugh	-10.2777
▁nipicakay	-10.2777
▁observe	-10.2777
▁purpose	-10.2777
▁retired	-10.2777
▁seashore	-10.2777
▁thousand	-10.2777
▁tomireng	-10.2777
▁kitchen	-10.2777
▁papacem	-10.2777
▁picture	-10.2777
ladder	-10.2777
▁question	-10.2777
▁Halikien	-10.2777
▁pionto	-10.2777
▁consider	-10.2777
▁customers	-10.2777
▁VILLAGE	-10.2777
▁sheep	-10.2777
▁association	-10.2777
▁lowanen	-10.2777
▁sugar	-10.2777
▁marriage	-10.2777
▁mapatayay	-10.2777
pakongko	-10.2777
▁winter	-10.2777
▁cards	-10.2777
▁represent	-10.2777
▁mikaenan	-10.2777
▁soft	-10.2777
▁education	-10.2777
▁public	-10.2777
▁basi	-10.2777
▁talapicodadan	-10.2777
▁backpack	-10.2778
▁fun	-10.2778
▁straw	-10.2778
kets	-10.2778
clar	-10.2778
▁talalotok	-10.2778
▁Saddle	-10.2778
▁lafag	-10.2778
▁misatapang	-10.2779
▁serve	-10.2779
▁directly	-10.2779
▁bend	-10.2779
▁tadamaanay	-10.2779
▁rinse	-10.2779
▁fokes	-10.2779
▁Puyuma	-10.2779
▁horn	-10.2779
▁Aniw	-10.2779
▁quiet	-10.278
▁sign	-10.278
▁kalikoda	-10.278
▁ciyak	-10.278
▁taywan	-10.278
▁spread	-10.2781
FISHING	-10.2781
▁decided	-10.2781
ories	-10.2781
▁hid	-10.2781
iwkay	-10.2782
▁Miasik	-10.2782
▁Miliyas	-10.2783
▁patenakay	-10.2783
▁paisingan	-10.2783
▁BE	-10.2783
▁Cacay	-10.2784
▁himself	-10.2784
▁mitakaw	-10.2784
▁Matenes	-10.2784
▁meaning	-10.2785
▁tangila	-10.2785
▁gawasay	-10.2786
ified	-10.2787
iondokay	-10.2787
▁snail	-10.2787
▁torn	-10.2787
▁mitolon	-10.2787
▁Long	-10.2787
▁carefully	-10.2788
the	-10.2788
yo	-10.2789
print	-10.2791
▁needle	-10.2792
tinako	-10.2793
▁searched	-10.2793
▁saheto	-10.2794
▁omen	-10.2794
▁malaheci	-10.2796
aliwen	-10.2796
▁stolen	-10.2796
▁bother	-10.2797
lohay	-10.28
▁Cong	-10.2802
▁army	-10.2802
shing	-10.2803
▁story	-10.2803
P	-10.2805
▁nanengneng	-10.2805
▁customs	-10.2805
▁building	-10.2806
▁enti	-10.2806
ddy	-10.2807
▁soldiers	-10.2807
▁kalang	-10.2808
odal	-10.2812
▁cilimaw	-10.2812
▁cre	-10.2813
▁vavahian	-10.2814
gar	-10.2814
▁paherek	-10.2821
▁mine	-10.2821
born	-10.2821
▁mipalomaan	-10.2825
▁Repe	-10.2825
yuan	-10.2825
▁efa	-10.2826
▁lame	-10.283
▁Takar	-10.2832
▁pinanowangan	-10.2834
▁missing	-10.2835
▁Hu	-10.2841
▁step	-10.2849
▁load	-10.2849
palita	-10.2852
▁island	-10.2853
▁half	-10.2855
▁sti	-10.286
▁hayda	-10.2872
helek	-10.2876
ants	-10.2877
lepel	-10.2885
▁ensur	-10.2887
▁sting	-10.2888
▁mima	-10.289
ngodo	-10.2891
▁kaemangay	-10.2896
▁chop	-10.2899
▁washed	-10.2905
▁pisalama	-10.2906
was	-10.2911
▁sang	-10.2912
▁mitangtang	-10.2913
ran	-10.2914
▁rained	-10.2916
▁cengel	-10.2938
2	-10.2938
▁Right	-10.2955
▁mipacok	-10.2955
▁filled	-10.2955
▁lavii	-10.2957
▁clear	-10.2959
bird	-10.2961
dodo	-10.2964
▁appl	-10.2964
▁hatiraay	-10.2966
▁30	-10.2968
▁kalaeno	-10.297
▁kalas	-10.2972
naway	-10.2972
fruit	-10.2972
tamlaw	-10.2974
C	-10.2976
Where	-10.2978
▁hang	-10.2978
edil	-10.2984
▁radiw	-10.2985
kita	-10.2998
daw	-10.3005
▁maamaan	-10.3006
edeng	-10.3007
polog	-10.3007
▁kama	-10.3009
▁pahanhanan	-10.3015
▁song	-10.3015
cent	-10.3016
▁eating	-10.3018
▁mifa	-10.3024
fin	-10.3062
well	-10.3068
▁tahekal	-10.3071
romi	-10.3091
▁spo	-10.3117
takec	-10.3118
▁itch	-10.3121
▁build	-10.3138
rikor	-10.3141
▁law	-10.3148
▁Sienaway	-10.3149
▁cakay	-10.3153
▁Min	-10.317
▁fakian	-10.317
ible	-10.3172
▁GO	-10.319
▁ngasaw	-10.3193
▁thu	-10.32
▁takaraw	-10.3209
▁Le	-10.3231
▁fai	-10.3246
lined	-10.3247
lalicay	-10.3252
▁pieces	-10.3258
▁ice	-10.3261
lahan	-10.3262
▁shak	-10.3272
ako	-10.3273
tingay	-10.3293
todoh	-10.3305
▁Oh	-10.3307
um	-10.3329
▁pol	-10.333
▁nipi	-10.3332
▁quit	-10.3334
akay	-10.3336
▁patay	-10.336
wards	-10.3373
col	-10.3377
like	-10.3405
▁continue	-10.3411
ul	-10.3429
▁fadahong	-10.3438
tter	-10.3454
▁mill	-10.3459
cen	-10.3461
minokay	-10.3466
maha	-10.3475
mek	-10.3475
self	-10.348
▁rip	-10.3524
▁hearts	-10.3526
▁miko	-10.3527
igh	-10.3558
▁kaemed	-10.3569
tek	-10.3613
▁Pi	-10.3615
iro	-10.3617
pon	-10.3618
wang	-10.3658
▁alaen	-10.3665
▁depend	-10.3685
▁kimad	-10.3698
olay	-10.3701
▁salil	-10.3723
▁amaan	-10.3746
riko	-10.375
der	-10.3758
▁hani	-10.3759
▁pili	-10.3778
▁Bi	-10.3793
▁pass	-10.3794
?"	-10.3795
lata	-10.3808
hip	-10.381
hi	-10.3823
▁ilisin	-10.3832
▁miliyas	-10.3855
▁practice	-10.3857
▁houses	-10.3896
late	-10.3915
▁pec	-10.3923
low	-10.3931
poh	-10.394
eing	-10.3955
▁pot	-10.3963
▁fle	-10.3982
nohacowa	-10.3985
▁sap	-10.3991
▁mahadak	-10.3991
kawan	-10.3993
telong	-10.4005
▁twi	-10.4009
▁nanomen	-10.4011
▁uni	-10.4013
api	-10.4016
▁gra	-10.4016
▁gen	-10.4017
▁waste	-10.4046
ha	-10.4063
solot	-10.4068
da	-10.4093
▁onto	-10.4096
ora	-10.41
fofo	-10.41
▁mae	-10.4105
▁stor	-10.411
hap	-10.4114
▁star	-10.4139
uch	-10.4146
hafay	-10.4152
▁yam	-10.4153
press	-10.418
erid	-10.4185
ery	-10.4197
▁fast	-10.4212
wit	-10.4216
ained	-10.4221
ther	-10.4234
▁cloud	-10.4241
caw	-10.4246
▁ran	-10.4254
▁expect	-10.426
hemek	-10.4261
▁freedom	-10.4269
▁minute	-10.4271
▁naw	-10.4275
▁mon	-10.4278
▁pasa	-10.4278
ndigenous	-10.4295
iraw	-10.4296
▁origin	-10.4317
▁pinanowang	-10.4317
▁matefad	-10.4321
▁shing	-10.4332
▁kangodo	-10.4336
fan	-10.4337
▁Map	-10.4345
▁point	-10.435
▁con	-10.435
ner	-10.4351
ngiliw	-10.4355
▁stole	-10.4361
▁buil	-10.4363
▁arm	-10.4367
▁plu	-10.4374
rawraw	-10.4374
▁separate	-10.4376
icodad	-10.4377
UR	-10.4379
▁occasion	-10.4379
▁kaciherangan	-10.4379
address	-10.4379
hakiwid	-10.4379
▁Ciwkangan	-10.4379
▁June	-10.4379
▁PANCAH	-10.4379
▁Rinahem	-10.4379
▁accept	-10.4379
▁across	-10.4379
▁breast	-10.4379
▁ciwkangan	-10.4379
▁couple	-10.4379
▁dafong	-10.4379
▁earthquake	-10.4379
▁fifteen	-10.4379
▁guy	-10.4379
▁important	-10.4379
▁insect	-10.4379
▁kafaedet	-10.4379
▁kilakilangan	-10.4379
▁madafonohay	-10.4379
▁necessary	-10.4379
▁nipicodad	-10.4379
▁participate	-10.4379
▁pumpkin	-10.4379
▁refrigerator	-10.4379
▁sakaranam	-10.4379
▁sararop	-10.4379
▁shrimp	-10.4379
▁silikami	-10.4379
▁stealthily	-10.4379
▁talakongkoan	-10.4379
▁temporar	-10.4379
▁throat	-10.4379
▁wrote	-10.4379
▁Monday	-10.4379
▁Namoh	-10.4379
▁Ponong	-10.4379
▁embarrassed	-10.4379
▁pheasant	-10.4379
▁salawinawina	-10.4379
▁attach	-10.4379
▁spear	-10.4379
▁relative	-10.4379
▁anosawni	-10.4379
▁aunt	-10.4379
▁steal	-10.4379
▁whether	-10.4379
▁mifoting	-10.4379
▁eleven	-10.4379
▁KAPAH	-10.4379
▁battle	-10.4379
▁Patado	-10.4379
▁mapacidal	-10.4379
▁catties	-10.4379
▁gagan	-10.4379
▁Chinese	-10.4379
▁slant	-10.4379
▁push	-10.4379
▁fikeloh	-10.438
▁Lalima	-10.438
▁apart	-10.438
▁misawsaw	-10.438
▁Sontok	-10.438
▁hungry	-10.438
▁sapaliroc	-10.438
▁Fihil	-10.438
▁litaol	-10.438
▁Dipong	-10.438
▁sapitalakal	-10.438
songtol	-10.438
▁flood	-10.438
▁sunset	-10.438
▁brush	-10.438
▁Pakapaliding	-10.438
otovay	-10.438
▁tatekoh	-10.438
▁Sasepat	-10.438
▁kofoc	-10.438
▁leaving	-10.438
▁sahto	-10.438
▁praise	-10.438
wacay	-10.438
▁otopay	-10.438
▁bloom	-10.438
▁squash	-10.438
▁Micomod	-10.438
▁Komod	-10.438
▁honor	-10.438
▁Maharekay	-10.438
▁Imoy	-10.438
▁chipen	-10.438
▁death	-10.438
▁center	-10.438
▁Father	-10.4381
▁upset	-10.4381
▁bucket	-10.4381
▁koreng	-10.4381
▁sefi	-10.4381
▁mapawan	-10.4381
▁ocean	-10.4381
▁satisfied	-10.4382
phone	-10.4382
kadofah	-10.4382
▁epang	-10.4382
▁nikaorira	-10.4382
▁fever	-10.4382
▁national	-10.4382
▁Show	-10.4382
▁louder	-10.4382
▁misalisin	-10.4383
▁blood	-10.4383
tangic	-10.4383
▁Lais	-10.4383
▁drop	-10.4383
▁Every	-10.4383
▁society	-10.4383
▁kotem	-10.4383
▁mararaw	-10.4384
▁kikay	-10.4384
▁thread	-10.4384
▁justice	-10.4384
▁plug	-10.4385
▁finger	-10.4386
▁tiloc	-10.4386
▁misawad	-10.4386
koesan	-10.4386
▁mitenoon	-10.4386
▁Calaw	-10.4386
▁mitenooy	-10.4386
▁tahila	-10.4386
▁Tokong	-10.4387
▁Mangataay	-10.4387
▁maefer	-10.4387
▁Once	-10.4387
▁alone	-10.4387
▁anoroma	-10.4388
▁malalitemoh	-10.4388
▁energ	-10.4388
▁quarreled	-10.4388
▁company	-10.4389
▁run	-10.4389
▁CI	-10.4389
▁tila	-10.4389
▁Namaha	-10.439
▁Tafa	-10.439
▁maapac	-10.439
▁cheaper	-10.4391
▁poison	-10.4392
ental	-10.4392
▁malinah	-10.4392
baw	-10.4393
▁wipe	-10.4394
▁DANCE	-10.4395
afang	-10.4395
clock	-10.4395
piasik	-10.4395
^!	-10.4396
todog	-10.4396
▁masiday	-10.4398
▁sasingaran	-10.44
▁posi	-10.4401
▁palicay	-10.4401
▁pour	-10.4401
emangay	-10.4401
maomah	-10.4402
▁overflowing	-10.4403
▁takaw	-10.4403
▁piala	-10.4404
▁lama	-10.4404
▁Matalaw	-10.4404
tawa	-10.4405
▁tige	-10.4408
▁naira	-10.4411
▁niah	-10.4412
▁paini	-10.4412
▁tax	-10.4413
raay	-10.4413
▁talacay	-10.4414
▁pair	-10.4417
▁real	-10.4417
▁vole	-10.4418
hrough	-10.4419
▁tsi	-10.4419
▁haenen	-10.4419
▁Bot	-10.442
becoming	-10.4423
▁sever	-10.4426
roh	-10.4427
▁hoeing	-10.4429
oron	-10.4429
edef	-10.443
▁maalaay	-10.4436
▁Away	-10.4437
▁witchc	-10.4439
cial	-10.4439
YA	-10.4442
penec	-10.4443
felih	-10.4445
▁mihakelong	-10.4449
roma	-10.4454
iled	-10.4463
▁conven	-10.4463
gnan	-10.4464
▁Amish	-10.447
▁caho	-10.4475
enec	-10.4475
▁tonight	-10.4479
romaroma	-10.448
▁ex	-10.4488
▁freedoms	-10.4491
▁sapaka	-10.4492
▁Tadamaan	-10.4498
▁start	-10.451
▁students	-10.451
aredet	-10.4511
▁tamowan	-10.452
oten	-10.4523
▁holidays	-10.453
oden	-10.4533
tive	-10.4541
makat	-10.4546
▁talked	-10.4547
▁aalaen	-10.455
▁shouldn	-10.4558
tayi	-10.4565
▁visited	-10.4568
▁sevent	-10.4569
round	-10.457
matira	-10.4572
▁sho	-10.4589
▁smells	-10.4589
▁hurts	-10.4589
▁pipitpit	-10.459
▁7	-10.459
▁fonos	-10.459
▁Lapic	-10.4591
▁wadis	-10.4591
5	-10.4595
▁lafang	-10.4596
▁collect	-10.4598
ivers	-10.4602
▁patedo	-10.4602
▁micodaday	-10.4603
▁beat	-10.4609
head	-10.4617
choa	-10.4635
▁fafahian	-10.4637
liw	-10.4641
had	-10.4643
dengay	-10.4653
hekal	-10.4661
▁nina	-10.4664
▁vi	-10.467
▁Pafe	-10.4679
hen	-10.4692
▁packs	-10.4721
▁Lan	-10.4722
tiw	-10.4724
inokay	-10.4755
rine	-10.4761
▁chi	-10.4764
▁Ki	-10.4765
▁even	-10.4797
▁hoe	-10.4813
▁pinokay	-10.4817
ongan	-10.482
▁urinat	-10.4829
aged	-10.4829
řa	-10.4833
ilisin	-10.4836
falah	-10.4846
weight	-10.4851
K	-10.4856
kafit	-10.4858
▁talaomah	-10.4863
hela	-10.4864
10	-10.4864
▁eaten	-10.4871
▁kahirahira	-10.4873
either	-10.4875
▁Kalang	-10.4875
cooked	-10.4877
year	-10.4878
piece	-10.488
▁idang	-10.4884
from	-10.4889
fafa	-10.4891
ikor	-10.4895
etep	-10.4896
cold	-10.4915
citings	-10.4917
rok	-10.4922
by	-10.4935
inian	-10.4938
▁ramod	-10.4938
saga	-10.4949
▁ITI	-10.4962
▁tak	-10.4962
fak	-10.4975
▁Maso	-10.4981
▁talip	-10.4996
▁tadama	-10.5
▁pikowan	-10.5001
▁miaca	-10.501
tayal	-10.5013
os	-10.5013
tadah	-10.5021
de	-10.503
oli	-10.5039
litemoh	-10.5042
has	-10.5047
hon	-10.5053
nca	-10.5054
ik	-10.507
eto	-10.5081
nini	-10.5084
ged	-10.5094
caay	-10.5098
▁talod	-10.513
It	-10.5131
shed	-10.5135
▁samaan	-10.5146
hic	-10.5147
▁Mase	-10.5153
▁licay	-10.5154
30	-10.5161
▁9	-10.5164
▁pifoting	-10.5164
▁break	-10.5165
band	-10.5176
▁tw	-10.5227
afo	-10.5246
ikaka	-10.5274
liyaw	-10.5296
ris	-10.5311
▁hawikid	-10.5315
made	-10.5338
▁50	-10.5346
▁speaks	-10.5347
koyod	-10.5374
matama	-10.5381
▁pr	-10.539
sarayaray	-10.5396
AS	-10.5405
▁nor	-10.5425
▁palemed	-10.5445
▁tange	-10.5457
▁malata	-10.5465
araway	-10.5496
dademak	-10.5504
▁cy	-10.5517
▁nipacaliw	-10.5518
fangcal	-10.5535
▁Masas	-10.5535
▁villages	-10.5541
licen	-10.5542
▁SAKA	-10.5582
yay	-10.5598
▁aloman	-10.5605
kaka	-10.5627
▁mal	-10.5629
MA	-10.5636
▁bed	-10.5644
daka	-10.5651
▁rat	-10.5671
eter	-10.5686
▁mila	-10.5706
elay	-10.5708
fay	-10.5734
▁Ay	-10.5743
lien	-10.5775
▁fore	-10.5775
ith	-10.578
cafay	-10.5788
pah	-10.5792
chochin	-10.58
miliyas	-10.5863
odac	-10.5889
▁kali	-10.5893
▁kaw	-10.591
▁deng	-10.5914
age	-10.5917
▁pow	-10.5917
niyah	-10.5937
kakawa	-10.5938
▁repe	-10.5941
fawah	-10.5945
aving	-10.595
▁rara	-10.5958
etec	-10.5966
dok	-10.5971
hin	-10.5992
▁Taha	-10.5998
yu	-10.6012
▁aim	-10.6013
yar	-10.6032
▁fla	-10.6039
patikol	-10.6041
lamit	-10.6046
V	-10.6063
▁para	-10.6066
koliciway	-10.6082
▁tihi	-10.6092
koh	-10.6106
tie	-10.611
▁kapa	-10.6112
LA	-10.6113
bee	-10.6118
▁exe	-10.612
our	-10.613
ngila	-10.6138
emed	-10.6164
▁medium	-10.6173
▁penal	-10.6175
▁sibling	-10.6181
pstick	-10.6196
▁malikaka	-10.6196
▁kahengang	-10.6202
aporo	-10.6206
▁mahecad	-10.6207
▁mov	-10.6218
▁clan	-10.6218
▁butt	-10.6218
▁mihca	-10.6228
pay	-10.6236
lif	-10.6239
kit	-10.624
epong	-10.6241
▁differen	-10.6243
rat	-10.6244
ngit	-10.6248
▁ngaay	-10.6249
gay	-10.6251
rcis	-10.6253
▁scar	-10.6259
ieve	-10.626
ARE	-10.626
▁overflow	-10.626
▁makahi	-10.6261
▁nu	-10.6262
▁bab	-10.6263
▁appear	-10.6264
▁milo	-10.6268
▁weigh	-10.6272
owak	-10.6272
ngoy	-10.6274
▁Fot	-10.6275
▁milong	-10.6276
▁lokiy	-10.628
▁colle	-10.628
atula	-10.6283
▁mapa	-10.6283
ives	-10.6284
EC	-10.6284
▁squa	-10.6285
▁exam	-10.6285
▁Christ	-10.6288
paising	-10.6288
▁CEREMONY	-10.6288
▁FESTIVAL	-10.6288
▁Kumud	-10.6288
▁SAKATO	-10.6288
▁YOUNG	-10.6288
▁adipapang	-10.6288
▁asleep	-10.6288
▁cabbage	-10.6288
▁chair	-10.6288
▁cousin	-10.6288
▁feast	-10.6288
▁guarantee	-10.6288
▁kawrira	-10.6288
▁knew	-10.6288
▁kwochi	-10.6288
▁lazy	-10.6288
▁message	-10.6288
▁mikihatiya	-10.6288
▁misanoPangcah	-10.6288
▁niKacaw	-10.6288
▁pesticides	-10.6288
▁repair	-10.6288
▁reputation	-10.6288
▁responsibility	-10.6288
▁squeeze	-10.6288
▁sufficient	-10.6288
▁talaPosong	-10.6288
▁tatirengan	-10.6288
▁tobacco	-10.6288
▁accompan	-10.6288
▁blunt	-10.6288
▁certain	-10.6288
▁dignity	-10.6288
▁fear	-10.6288
▁namicodad	-10.6288
▁pigeon	-10.6288
▁pretty	-10.6288
▁swanyam	-10.6288
▁arrest	-10.6288
▁banana	-10.6288
▁changing	-10.6288
▁deliberate	-10.6288
▁dress	-10.6288
▁fourteen	-10.6288
▁measure	-10.6288
▁wisdom	-10.6288
▁adult	-10.6288
▁lokedaw	-10.6288
▁photograph	-10.6288
▁foefo	-10.6288
▁kangalayan	-10.6288
▁tahini	-10.6288
▁kiokay	-10.6288
ficient	-10.6288
ogram	-10.6288
▁kasienawan	-10.6288
▁target	-10.6288
▁imatini	-10.6288
▁Tumay	-10.6288
▁trouble	-10.6288
▁pawali	-10.6288
▁voice	-10.6288
▁attend	-10.6289
▁receive	-10.6289
▁pawli	-10.6289
▁Hualien	-10.6289
▁eagle	-10.6289
▁kafekang	-10.6289
▁namal	-10.6289
▁Rakat	-10.6289
hecek	-10.6289
▁Walk	-10.6289
▁ihoni	-10.6289
▁sapaiyo	-10.6289
▁cinah	-10.6289
▁buck	-10.6289
▁fro	-10.6289
▁samanen	-10.6289
▁Lahok	-10.6289
▁evil	-10.6289
▁grandchild	-10.6289
▁themselves	-10.6289
▁apology	-10.6289
▁dropped	-10.629
▁sprout	-10.629
▁Tomay	-10.629
AFA	-10.629
▁velac	-10.629
▁pidangoy	-10.629
▁anywhere	-10.629
▁cherry	-10.629
▁Katayni	-10.629
▁misakero	-10.629
▁terong	-10.629
curse	-10.629
▁tatipelok	-10.629
imoc	-10.629
▁malonem	-10.629
▁Turis	-10.6291
▁kenaw	-10.6291
▁chase	-10.6291
▁celebrate	-10.6291
▁belly	-10.6291
▁Kulas	-10.6291
▁ahowiday	-10.6291
▁promot	-10.6291
podpod	-10.6291
▁graduated	-10.6291
▁lonem	-10.6291
alapit	-10.6292
▁proper	-10.6292
▁saytaw	-10.6292
▁state	-10.6292
▁Pakahikoki	-10.6292
▁watah	-10.6292
▁Rail	-10.6293
atekak	-10.6293
▁Mikilim	-10.6293
kasoy	-10.6293
▁scattered	-10.6293
▁Mararid	-10.6294
peanuts	-10.6294
▁square	-10.6294
kwo	-10.6294
▁kinatolo	-10.6294
tamelac	-10.6294
▁write	-10.6294
kayki	-10.6294
▁Tatalacowa	-10.6294
▁heaven	-10.6295
▁faelohay	-10.6295
▁waneng	-10.6296
▁Kitakit	-10.6296
▁mitenon	-10.6297
tingwa	-10.6297
▁cotad	-10.6297
▁kakawit	-10.6297
vali	-10.6298
cepet	-10.6298
▁lakaw	-10.6298
lalotong	-10.6298
luti	-10.6299
▁shouted	-10.6299
pacamol	-10.63
▁sakatayal	-10.63
▁kaci	-10.63
nanom	-10.6301
▁hollow	-10.6301
ilos	-10.6301
▁Nikar	-10.6302
▁moraraw	-10.6303
▁parikor	-10.6304
namar	-10.6305
▁matepa	-10.6306
▁pohay	-10.6306
▁Matayal	-10.6307
string	-10.6308
litapang	-10.631
▁cagla	-10.631
dding	-10.6312
▁Afan	-10.6312
▁history	-10.6312
rekad	-10.6313
chong	-10.6314
▁mifanaw	-10.6314
▁sakafana	-10.6315
lock	-10.6315
▁Mahelek	-10.6316
▁appeared	-10.6318
▁mangiliw	-10.6318
▁die	-10.6318
▁salipahak	-10.6319
▁kolisiw	-10.632
▁thirt	-10.632
▁angr	-10.632
▁soup	-10.6321
▁sisiten	-10.6321
▁mica	-10.6322
▁moko	-10.6322
▁spr	-10.6323
▁Nimaan	-10.6326
yard	-10.6326
keror	-10.6327
▁changed	-10.6328
▁kn	-10.6328
pacek	-10.6328
vern	-10.6329
▁carrots	-10.633
▁generations	-10.633
sarocod	-10.633
▁sent	-10.6331
▁paliwal	-10.6331
▁saikor	-10.6333
ake	-10.6335
▁matengil	-10.6338
▁miharateng	-10.6339
▁Itiya	-10.6339
▁papina	-10.634
▁beans	-10.6342
▁Tona	-10.6343
▁fly	-10.6344
raft	-10.6347
idoc	-10.6348
voca	-10.635
▁lucky	-10.6351
tifek	-10.6352
▁Mama	-10.6355
kiyokay	-10.6355
nous	-10.6355
""	-10.6357
▁pants	-10.6357
▁mahemekay	-10.6357
cifa	-10.6359
▁tomangic	-10.6363
▁dead	-10.6365
arakatan	-10.6365
pades	-10.6366
▁doorway	-10.6367
mikarkar	-10.6367
palasawad	-10.6369
mowa	-10.637
tanam	-10.6372
rring	-10.6375
satataday	-10.6377
polin	-10.6379
98	-10.6385
▁melawen	-10.6391
▁forest	-10.6392
celem	-10.6394
▁matefaday	-10.6394
oint	-10.6395
▁MALE	-10.6397
▁clans	-10.6401
lac	-10.6404
shopp	-10.6406
▁cop	-10.6407
nengnengnengneng	-10.6408
▁katayra	-10.641
iyof	-10.6418
▁wall	-10.642
Peng	-10.642
▁Maeminay	-10.6421
▁doka	-10.6423
nokay	-10.6424
▁aware	-10.6429
adingo	-10.643
▁militemoh	-10.6431
▁bear	-10.6434
kem	-10.6434
undle	-10.6437
amie	-10.644
misi	-10.6442
tegil	-10.6443
▁osaw	-10.6448
▁Awa	-10.6451
ster	-10.6454
▁diheko	-10.6456
nipacakay	-10.6458
▁patelian	-10.6461
▁lafi	-10.6461
▁malemed	-10.6466
tili	-10.6467
mamelawen	-10.6472
yong	-10.6473
ngan	-10.6476
▁cave	-10.648
holol	-10.6487
▁Tur	-10.6494
ilisinan	-10.6494
▁mili	-10.6495
aniwan	-10.6499
tangan	-10.6509
fare	-10.6514
tataang	-10.6519
aro	-10.6522
▁mifotig	-10.6523
laheci	-10.6529
iloh	-10.6532
▁repres	-10.6537
▁sapilepe	-10.6544
▁mamaanay	-10.6544
▁numbers	-10.6545
pacemot	-10.6545
▁Wama	-10.6546
lecad	-10.6546
▁karoray	-10.6546
▁tadem	-10.6546
▁fanges	-10.6546
▁karireng	-10.6547
▁birth	-10.6547
▁responsive	-10.6547
▁Amoy	-10.6547
▁pangcah	-10.6548
▁likoda	-10.6548
▁kinatosa	-10.6552
ence	-10.6555
▁lafii	-10.6562
▁given	-10.6566
▁sour	-10.657
▁pacef	-10.6572
▁cow	-10.6576
▁Taloma	-10.6579
▁tribes	-10.6582
▁wave	-10.6587
▁kahengangay	-10.6593
▁farmers	-10.6594
ient	-10.6596
▁shake	-10.6605
▁moun	-10.6613
▁remes	-10.6614
hok	-10.6617
likor	-10.6626
Isin	-10.663
▁akawang	-10.6637
doen	-10.6657
Ah	-10.6663
▁dakaw	-10.6666
▁agreed	-10.6674
▁pali	-10.6675
amaan	-10.6708
▁liso	-10.6709
▁mika	-10.6719
lilis	-10.6723
wad	-10.6727
oripay	-10.6774
des	-10.6791
▁cleaning	-10.6803
▁shin	-10.6806
owe	-10.6809
ocor	-10.6816
▁pakalic	-10.6823
oway	-10.6823
▁kowa	-10.6826
ahira	-10.6831
▁sienaw	-10.6832
ien	-10.6836
▁leaves	-10.684
seng	-10.684
DAN	-10.684
ota	-10.6843
▁Talaen	-10.6844
vot	-10.6865
mong	-10.6868
kalat	-10.6877
keting	-10.6883
▁unite	-10.689
▁kangkang	-10.6893
▁semot	-10.6895
▁rengos	-10.6895
▁poener	-10.6896
▁taheka	-10.6898
rot	-10.6905
hal	-10.691
▁post	-10.691
stored	-10.6915
▁mace	-10.6936
till	-10.6942
pace	-10.6956
▁practic	-10.6959
siday	-10.6965
ngol	-10.6968
pot	-10.6969
▁tipos	-10.6983
ux	-10.6986
▁joy	-10.6987
▁sakaka	-10.701
▁tail	-10.701
teng	-10.7014
▁inter	-10.7015
U	-10.7016
nest	-10.7026
rom	-10.7029
cocok	-10.7046
▁mari	-10.7047
KALI	-10.7047
fac	-10.7056
kimad	-10.7059
▁Mapo	-10.706
▁fol	-10.7062
oradan	-10.7075
▁bat	-10.7081
▁aadopen	-10.7095
▁pinanam	-10.7122
edaw	-10.7122
pela	-10.7125
Matthew	-10.7139
cacevaren	-10.7139
odax	-10.7141
search	-10.7141
poyapoy	-10.7141
▁Ge	-10.7143
lingato	-10.7147
▁sanek	-10.7152
dic	-10.7162
yams	-10.7162
neg	-10.7165
▁edo	-10.7169
▁groups	-10.717
patireng	-10.7173
▁sapad	-10.7174
laeno	-10.7177
tahidang	-10.718
ngel	-10.7184
kak	-10.7185
▁rota	-10.7189
nail	-10.719
emeday	-10.7195
depend	-10.7198
leave	-10.7206
▁kara	-10.7211
repet	-10.7211
afofo	-10.7211
ouch	-10.7214
fodoy	-10.7221
hatiniay	-10.7231
hakowa	-10.7233
ball	-10.7239
pahanhan	-10.724
called	-10.7242
ckle	-10.7243
paysin	-10.725
demak	-10.725
▁rakar	-10.725
keton	-10.7252
If	-10.7254
▁cavay	-10.7255
▁papah	-10.7259
Ano	-10.7262
▁Takaw	-10.7266
▁kopo	-10.7275
caciyaw	-10.7278
Na	-10.728
stick	-10.7283
▁sifo	-10.7304
▁kopi	-10.7308
▁Fat	-10.731
▁Mal	-10.732
▁inaan	-10.7322
▁amin	-10.7323
kamay	-10.7333
lof	-10.7335
owac	-10.7353
▁haen	-10.7354
▁leg	-10.7359
lipahak	-10.7367
some	-10.7387
lok	-10.74
palemed	-10.7402
pinanom	-10.7408
tir	-10.7416
panokas	-10.7426
paw	-10.7432
efon	-10.7434
eco	-10.7438
esing	-10.7451
eleng	-10.746
kora	-10.7463
gen	-10.7481
▁stee	-10.7492
▁Sin	-10.7503
▁kae	-10.7511
talem	-10.7518
▁lid	-10.7525
eca	-10.7529
▁lolong	-10.753
▁paci	-10.7565
ocks	-10.7574
tatihi	-10.7602
rac	-10.7606
▁vol	-10.7621
cekok	-10.7623
sadak	-10.7639
▁laeno	-10.764
▁100	-10.7641
kilac	-10.7645
▁pinanom	-10.7652
▁patireng	-10.7654
▁Lam	-10.7678
iyan	-10.7679
takola	-10.7688
ocil	-10.7717
katayni	-10.7717
lolong	-10.7725
▁packe	-10.7733
▁brak	-10.7736
ifang	-10.7748
▁caca	-10.775
ikes	-10.7776
▁god	-10.7778
can	-10.7779
arawi	-10.7783
her	-10.7794
▁mat	-10.7796
ST	-10.7812
vad	-10.7826
▁mimok	-10.7836
▁orip	-10.7857
▁bor	-10.7858
itay	-10.7861
cing	-10.7871
fitay	-10.7887
lita	-10.7888
▁Da	-10.789
▁por	-10.7899
OD	-10.7904
▁sand	-10.7906
bra	-10.7925
rama	-10.7949
▁par	-10.7957
ina	-10.7978
orong	-10.7981
tapangan	-10.7982
vel	-10.7994
▁continual	-10.7995
ahen	-10.8035
imsim	-10.8044
NI	-10.8048
iyo	-10.8052
mare	-10.8062
hem	-10.8065
deg	-10.8073
kari	-10.8093
ignit	-10.8094
▁cingraan	-10.8095
▁sela	-10.8132
▁anger	-10.8154
edes	-10.8165
▁gre	-10.8166
som	-10.8169
temik	-10.8178
caliway	-10.818
kalafian	-10.8184
alaen	-10.8188
▁kil	-10.8194
▁AS	-10.8213
laan	-10.8214
▁oli	-10.8231
emek	-10.8232
▁Mar	-10.8242
rlay	-10.8244
▁pagalat	-10.8252
▁SA	-10.8271
edongan	-10.8274
rari	-10.8275
▁palafang	-10.828
alah	-10.8286
ming	-10.8288
safel	-10.8306
nanomen	-10.8325
▁hina	-10.8351
ward	-10.8352
▁Fr	-10.8372
tedi	-10.8412
ual	-10.842
▁hills	-10.8426
▁ciya	-10.8429
▁misi	-10.8431
line	-10.8433
▁edeng	-10.8435
pitek	-10.8452
▁tangsol	-10.8455
▁sowar	-10.8456
acc	-10.8459
IS	-10.8462
▁kaolah	-10.8464
mu	-10.8466
▁Hakowa	-10.8468
▁happen	-10.8472
▁MI	-10.8476
▁falah	-10.8478
▁saway	-10.8479
▁Wata	-10.8485
▁tumble	-10.8488
▁mamelaw	-10.8489
leg	-10.85
alem	-10.8512
EAR	-10.8519
caan	-10.8526
▁stalk	-10.8529
▁standard	-10.8529
▁begin	-10.8529
▁grape	-10.853
▁scra	-10.853
LE	-10.8533
dy	-10.8537
▁State	-10.8537
▁spirit	-10.8537
▁recogni	-10.854
▁eye	-10.8541
▁guava	-10.8542
▁pela	-10.8542
▁animal	-10.8543
▁spoke	-10.8546
▁horse	-10.8559
rakat	-10.8559
▁ver	-10.8564
lip	-10.8572
▁thir	-10.8573
kodor	-10.8574
▁paco	-10.8574
amoto	-10.8574
▁makapah	-10.8574
toh	-10.8575
pili	-10.8578
▁pitatala	-10.858
▁vavahi	-10.8582
sapal	-10.8583
▁vavainay	-10.8584
▁hata	-10.8587
▁mipaloma	-10.8588
ipahak	-10.8588
▁outsider	-10.8591
▁raay	-10.8593
ini	-10.8593
elac	-10.8595
▁mahemek	-10.8602
▁Liyaw	-10.8603
▁though	-10.8605
get	-10.8606
iliar	-10.8607
vake	-10.8611
▁maala	-10.8611
▁fala	-10.8612
▁interest	-10.862
▁sneez	-10.8621
▁histor	-10.8621
▁dirt	-10.8622
▁grab	-10.8623
▁bless	-10.8626
vatikar	-10.8627
▁Pakaci	-10.8627
sisit	-10.863
▁mistake	-10.863
▁inclu	-10.8632
▁kakerid	-10.8633
atiyatiya	-10.8633
worm	-10.8635
▁pleas	-10.8635
abl	-10.8636
▁Oli	-10.8637
comoli	-10.8639
patenak	-10.8639
▁cause	-10.864
weet	-10.8641
rents	-10.8642
▁FISH	-10.8643
▁aborigin	-10.8643
▁erase	-10.8643
▁kamel	-10.8643
anektek	-10.8644
▁FA	-10.8645
que	-10.8645
▁masasi	-10.8645
float	-10.8645
cumbe	-10.8646
▁Pali	-10.8646
▁RANK	-10.8647
▁princip	-10.8648
vision	-10.8648
▁nikawri	-10.8648
▁entr	-10.8648
▁FI	-10.8649
▁dragonfl	-10.8649
bject	-10.8649
▁Japan	-10.8649
▁sub	-10.8649
▁prohibit	-10.8649
▁perform	-10.8649
%	-10.865
KAMAYA	-10.865
intentional	-10.865
purple	-10.865
temireng	-10.865
▁ANCESTORS	-10.865
▁Just	-10.865
▁LATINGWA	-10.865
▁Lagasan	-10.865
▁Sometime	-10.865
▁WAWA	-10.865
▁anopapacem	-10.865
▁arrival	-10.865
▁beehive	-10.865
▁centimeters	-10.865
▁ceremony	-10.865
▁character	-10.865
▁ciKacaw	-10.865
▁costume	-10.865
▁criminal	-10.865
▁dangah	-10.865
▁definitely	-10.865
▁determin	-10.865
▁dihif	-10.865
▁discrimination	-10.865
▁festival	-10.865
▁habit	-10.865
▁halikaenen	-10.865
▁industrious	-10.865
▁international	-10.865
▁juic	-10.865
▁lotoklotokan	-10.865
▁mafokil	-10.865
▁mipawali	-10.865
▁mosquitoe	-10.865
▁namilipay	-10.865
▁nifonsiw	-10.865
▁ongtofay	-10.865
▁overturn	-10.865
▁pahotinan	-10.865
▁possession	-10.865
▁remadiw	-10.865
▁rengorengosan	-10.865
▁shadow	-10.865
▁situation	-10.865
▁strength	-10.865
▁studied	-10.865
▁tarawadaw	-10.865
▁titaanan	-10.865
▁charge	-10.865
▁daytime	-10.865
▁feet	-10.865
▁gourds	-10.865
▁popyan	-10.865
▁secret	-10.865
▁slept	-10.865
▁valiyos	-10.865
▁yeast	-10.865
▁Posko	-10.865
▁blind	-10.865
▁debt	-10.865
▁itakowan	-10.865
▁orasaka	-10.865
▁photo	-10.865
▁CHILD	-10.865
▁ciMayaw	-10.865
▁method	-10.865
balance	-10.865
regard	-10.865
▁pasayra	-10.865
▁kacikafang	-10.865
stration	-10.865
▁related	-10.865
▁relax	-10.865
▁maranam	-10.865
▁Fadas	-10.865
▁madoka	-10.865
▁mirokrokay	-10.865
▁regi	-10.865
ciferang	-10.865
▁Midangoy	-10.865
▁Payrang	-10.865
▁pitpit	-10.865
▁enip	-10.865
▁paringad	-10.865
cahid	-10.865
sirsir	-10.865
▁Kaynga	-10.865
▁lightning	-10.865
▁vinacadan	-10.865
▁subject	-10.865
▁rinom	-10.865
atefoc	-10.865
▁fotod	-10.865
▁kedohan	-10.865
▁sakola	-10.865
▁woman	-10.865
▁damdam	-10.865
▁Lohok	-10.865
▁citosiya	-10.865
thim	-10.865
▁policies	-10.865
▁guard	-10.865
wadwad	-10.865
▁matomos	-10.865
▁roast	-10.865
▁mitoor	-10.865
▁limec	-10.865
▁committed	-10.865
▁fifty	-10.865
▁figure	-10.865
▁reduce	-10.865
▁ropas	-10.865
▁pafatis	-10.865
▁canoe	-10.865
▁insist	-10.865
▁strange	-10.865
▁position	-10.865
▁tanengnengan	-10.865
▁split	-10.865
▁Ngayngay	-10.865
▁onions	-10.865
▁towaso	-10.865
brate	-10.865
▁division	-10.865
▁vaso	-10.865
▁vois	-10.865
▁piyang	-10.865
▁chishi	-10.865
▁level	-10.865
Taytong	-10.865
▁tongroh	-10.865
▁peace	-10.8651
▁Valiyus	-10.8651
katatodong	-10.8651
▁Thus	-10.8651
▁seaside	-10.8651
construct	-10.8651
▁tomilen	-10.8651
▁fence	-10.8651
▁korira	-10.8651
▁Hatila	-10.8651
cedem	-10.8651
easy	-10.8651
▁tagasa	-10.8651
▁Katomerep	-10.8651
▁koengel	-10.8651
▁Miding	-10.8651
▁tube	-10.8651
▁leaf	-10.8651
▁Hokin	-10.8651
itali	-10.8651
produc	-10.8651
▁kapawan	-10.8651
▁koleto	-10.8651
▁payrang	-10.8651
▁silamalay	-10.8651
▁mikowan	-10.8651
▁pakacinamalay	-10.8652
▁patatikol	-10.8652
legos	-10.8652
▁malawidang	-10.8652
▁nicakayan	-10.8652
22	-10.8652
tonton	-10.8652
▁RANKS	-10.8652
▁nothing	-10.8652
▁saemelay	-10.8652
▁tompo	-10.8652
common	-10.8652
▁onglay	-10.8652
▁Botod	-10.8652
▁offence	-10.8652
dnes	-10.8652
▁pakalogay	-10.8652
GAGAN	-10.8652
▁hacol	-10.8653
▁malakaka	-10.8653
kogko	-10.8653
▁Kangodo	-10.8653
▁Neg	-10.8653
nanowang	-10.8653
▁Caki	-10.8653
▁mifonsi	-10.8653
▁prison	-10.8654
▁pangiroan	-10.8654
tayhi	-10.8654
▁tireg	-10.8654
▁kongcho	-10.8654
▁prob	-10.8654
▁caciaw	-10.8654
▁Mahecad	-10.8654
▁Milifet	-10.8654
▁foundation	-10.8654
limit	-10.8655
▁stag	-10.8655
▁malavi	-10.8655
▁kasaso	-10.8655
▁tayring	-10.8655
lope	-10.8655
▁nahacowa	-10.8655
▁Valiy	-10.8655
▁sapaloma	-10.8655
▁fakeloh	-10.8655
▁tanektek	-10.8656
▁clea	-10.8656
▁excit	-10.8656
Imeng	-10.8656
shaeli	-10.8656
asiro	-10.8656
▁mancel	-10.8656
▁lalima	-10.8656
▁nicacakan	-10.8656
sanga	-10.8657
▁separately	-10.8657
pavatis	-10.8657
▁announced	-10.8658
▁Tatosa	-10.8658
arche	-10.8658
▁tahaf	-10.8658
pacaov	-10.8658
pox	-10.8659
▁entire	-10.8659
bin	-10.8659
▁kanas	-10.8659
isine	-10.8659
cerak	-10.8659
▁dinay	-10.8659
▁Kilimen	-10.866
LAS	-10.866
▁lokiyo	-10.866
▁count	-10.8661
▁faith	-10.8661
▁mitapal	-10.8661
limela	-10.8661
▁masakelo	-10.8661
▁Malacecay	-10.8661
▁Good	-10.8662
▁masoeso	-10.8662
▁mihalaka	-10.8662
▁fonga	-10.8662
▁pihomong	-10.8663
▁Saway	-10.8663
kingkiw	-10.8663
▁lomakat	-10.8663
▁succeed	-10.8664
▁Sinto	-10.8664
▁papatikol	-10.8664
umble	-10.8664
▁sasowaren	-10.8665
riti	-10.8666
rror	-10.8667
▁mikolisiway	-10.8667
▁kohecalay	-10.8668
▁sorit	-10.8668
▁masakapah	-10.8668
rture	-10.8668
Tahok	-10.8668
lingko	-10.8668
▁Plan	-10.8669
MALA	-10.867
lb	-10.8671
▁paenan	-10.8671
posong	-10.8671
▁Using	-10.8671
▁malalood	-10.8672
▁tamako	-10.8673
▁moon	-10.8673
▁kitakit	-10.8674
▁mararom	-10.8675
▁Mako	-10.8675
▁sapariri	-10.8675
▁dig	-10.8675
500	-10.8676
erep	-10.8676
angoy	-10.8677
▁mipacemot	-10.8677
▁hide	-10.8678
▁include	-10.8678
frica	-10.8678
▁suck	-10.868
akayni	-10.8681
▁kati	-10.8681
▁sneezing	-10.8682
▁maketer	-10.8682
lack	-10.8682
▁kafang	-10.8682
layap	-10.8683
▁mamanay	-10.8684
pelak	-10.8684
hanki	-10.8685
troll	-10.8685
kacomikay	-10.8685
liyaliyaw	-10.8686
moke	-10.8686
rig	-10.8687
▁fera	-10.8687
▁scared	-10.8687
olic	-10.8687
▁corner	-10.8688
▁milepel	-10.8689
henay	-10.8689
rise	-10.8689
▁pet	-10.869
nengen	-10.869
acefelay	-10.8691
▁atodi	-10.8691
▁ski	-10.8691
▁sapacemot	-10.8691
dotoc	-10.8692
ider	-10.8693
▁losa	-10.8694
pong	-10.8695
▁gal	-10.8695
tenes	-10.8696
mararamod	-10.8696
todongay	-10.8697
afesoc	-10.8697
▁anoci	-10.8697
▁mipaliwal	-10.8697
▁malita	-10.8699
▁katalawan	-10.8701
▁wok	-10.8703
sasowalsowal	-10.8703
▁valo	-10.8703
ADI	-10.8704
pisalisin	-10.8704
▁malalicay	-10.8705
elohay	-10.8705
chinhay	-10.8705
pasela	-10.8706
AC	-10.8706
▁patikor	-10.8706
▁mipanay	-10.8707
▁ph	-10.8709
▁thor	-10.8709
rarom	-10.8712
▁safang	-10.8712
▁Em	-10.8712
▁ninanam	-10.8713
fekac	-10.8713
▁eighty	-10.8713
lakec	-10.8713
▁Kalamkam	-10.8714
▁pakahikokiay	-10.8714
elve	-10.8715
▁matatodongay	-10.8715
▁Cila	-10.8715
stur	-10.8716
▁wor	-10.8717
▁included	-10.8721
kayat	-10.8721
▁mor	-10.8721
mavekac	-10.8722
▁ihacowa	-10.8722
lasawad	-10.8722
▁saadihay	-10.8723
paekel	-10.8723
▁pato	-10.8724
▁patayra	-10.8725
▁sasing	-10.8726
ters	-10.873
▁fona	-10.873
rse	-10.8733
▁leaders	-10.8733
▁makapahay	-10.8738
▁panan	-10.8738
▁maci	-10.874
▁panga	-10.874
tis	-10.8741
kayakay	-10.8745
cahiw	-10.8746
litod	-10.8749
cepi	-10.875
maadah	-10.8754
▁tamowanan	-10.8755
▁cipinang	-10.8758
tamod	-10.876
▁mahecaday	-10.8762
▁choy	-10.8763
▁padi	-10.8763
▁States	-10.8764
mahkolong	-10.8764
fra	-10.8766
ihay	-10.8766
avor	-10.8767
▁planted	-10.8767
loc	-10.8772
taliyok	-10.8772
tip	-10.8774
matastasay	-10.8776
▁scrape	-10.8781
ocked	-10.8782
▁ripe	-10.8782
▁cheng	-10.8782
edac	-10.8785
▁once	-10.8795
▁fart	-10.8798
▁saceli	-10.8799
ros	-10.8801
▁compu	-10.8801
▁milifet	-10.8802
pida	-10.8803
▁sixt	-10.8804
▁holo	-10.8813
▁Asing	-10.8814
minanom	-10.8814
▁cod	-10.8817
▁Padangen	-10.882
▁lale	-10.8822
▁chonya	-10.8824
Kaw	-10.8825
▁anodafak	-10.8825
elal	-10.8827
▁faw	-10.8828
raso	-10.8829
WO	-10.8832
▁pacakayay	-10.8833
▁faedetay	-10.8834
lafin	-10.8835
▁fur	-10.8836
▁su	-10.8838
bris	-10.8838
▁panca	-10.8843
adaan	-10.8844
lek	-10.8845
▁tatala	-10.8845
\"	-10.885
ations	-10.8851
▁mic	-10.8853
▁mipadangay	-10.8857
▁fallen	-10.886
▁Namaka	-10.8866
liwal	-10.8867
sort	-10.8869
▁cast	-10.8872
▁lit	-10.8874
misolot	-10.888
▁coa	-10.8889
TH	-10.8896
saowac	-10.89
▁mitatoy	-10.8902
mission	-10.8909
afokod	-10.8909
pangangan	-10.891
▁boxe	-10.8911
wis	-10.8914
▁patal	-10.8915
▁Irato	-10.8919
katihi	-10.8921
vah	-10.8921
iva	-10.8923
▁sano	-10.8923
kilan	-10.8934
MATO	-10.8946
▁pigs	-10.8949
olac	-10.8949
▁amis	-10.8949
▁Mahaenay	-10.8954
ano	-10.8965
▁tiraay	-10.8965
ngata	-10.8968
dado	-10.897
▁Anay	-10.897
senger	-10.8972
sasowal	-10.8976
▁kick	-10.8981
▁fangsis	-10.8981
lacapo	-10.8982
▁makavaso	-10.8983
▁malasingsi	-10.8983
▁pitakcian	-10.8983
▁kaketi	-10.8983
▁vadahong	-10.8983
▁Ripon	-10.8983
▁kafalawfawan	-10.8983
▁tanestes	-10.8983
▁remiremiad	-10.8983
▁sasorit	-10.8983
▁kilag	-10.8984
▁kadit	-10.8984
▁comod	-10.8993
▁vovo	-10.8994
▁madademec	-10.9001
▁mangataay	-10.9002
▁healthy	-10.9007
lifet	-10.9009
fati	-10.9013
▁identi	-10.9013
▁tosor	-10.9016
moli	-10.9017
▁takolaw	-10.902
▁sipa	-10.9024
▁DAY	-10.9024
▁matiraay	-10.9027
▁sala	-10.9032
▁kacawas	-10.9039
alolol	-10.9052
ated	-10.9058
atalacowa	-10.906
▁tomatira	-10.9073
▁iri	-10.9078
pacafay	-10.9087
ments	-10.9089
▁onal	-10.9091
▁paint	-10.9092
maharateng	-10.91
▁saong	-10.9109
▁organiz	-10.911
▁sasi	-10.9119
▁Posongay	-10.9125
▁teker	-10.9127
colo	-10.9139
▁nang	-10.9143
lid	-10.915
▁INA	-10.9152
▁Yisan	-10.9152
▁pitilid	-10.9158
▁fohat	-10.9163
tempt	-10.9167
▁lemed	-10.9169
▁known	-10.9169
kap	-10.9201
ALL	-10.9202
▁pakay	-10.9205
corah	-10.9212
▁pananom	-10.9213
faloco	-10.9221
▁coko	-10.9243
▁kiri	-10.9249
inner	-10.925
▁ripa	-10.9254
▁yar	-10.9256
fit	-10.9267
▁mahadakay	-10.9276
▁Talo	-10.9278
nget	-10.9283
manan	-10.9286
▁Th	-10.9288
ier	-10.929
Ula	-10.9294
amay	-10.9297
kol	-10.9301
▁taangayay	-10.9303
placed	-10.9322
B	-10.9331
▁Piday	-10.9331
erer	-10.9333
samo	-10.934
wen	-10.9357
kawas	-10.9357
kamayan	-10.9358
▁rocks	-10.9365
sowal	-10.9379
MEN	-10.9381
dek	-10.9382
▁minan	-10.9385
▁remiadan	-10.9386
▁mikoliciw	-10.9392
▁palilam	-10.9394
St	-10.9397
▁kakel	-10.9401
coy	-10.9424
▁traditions	-10.9429
▁tapang	-10.9433
▁kadafo	-10.9434
▁tatelek	-10.9437
▁cieying	-10.9438
rag	-10.9444
apa	-10.9445
▁makero	-10.9458
aniw	-10.9461
imed	-10.9468
▁yof	-10.947
▁olip	-10.9486
▁hano	-10.95
reda	-10.9505
ohong	-10.9508
AST	-10.9509
▁Rom	-10.9511
falod	-10.9513
dengal	-10.9516
▁pacaliwan	-10.9521
laway	-10.9534
▁MAN	-10.9543
ial	-10.9553
fty	-10.9556
alaway	-10.9593
▁tefo	-10.9598
ide	-10.9607
▁Ti	-10.9608
▁loved	-10.9613
▁losid	-10.9624
acek	-10.9626
Yoing	-10.9654
anma	-10.9661
llow	-10.9666
afar	-10.9674
mang	-10.9674
alikolay	-10.9684
chan	-10.9686
▁timol	-10.9696
hila	-10.9704
lev	-10.9706
isil	-10.972
▁satapang	-10.9734
kor	-10.9737
pakaen	-10.9745
▁Pate	-10.9746
▁Hin	-10.9751
▁oni	-10.9751
▁epoc	-10.9762
▁liyawen	-10.9765
pers	-10.9766
ahan	-10.9767
▁ciiraan	-10.9768
soay	-10.9788
salama	-10.9789
enot	-10.9794
faw	-10.9797
▁heads	-10.9798
▁Masafa	-10.9804
▁cangraan	-10.981
▁nananom	-10.9818
▁pac	-10.9821
▁kalala	-10.9834
avi	-10.9842
▁sw	-10.9843
▁cover	-10.9851
▁tarod	-10.9854
▁Maro	-10.9861
tock	-10.9871
▁$2	-10.9878
lahad	-10.9906
▁mafo	-10.9911
▁lonan	-10.9916
ears	-10.9922
▁sakacowa	-10.9928
hroom	-10.9938
SA	-10.9941
▁kowang	-10.9949
hel	-10.9963
feli	-10.9975
eep	-10.9975
▁tapa	-10.9975
▁tatoy	-10.9985
now	-10.9993
▁Hang	-11.0005
▁kalalo	-11.0022
cho	-11.0023
led	-11.0061
▁died	-11.0071
tolon	-11.0083
emo	-11.0094
▁mapoh	-11.0097
▁nikaen	-11.0104
fed	-11.013
tted	-11.0131
asadak	-11.0141
▁Mapa	-11.0149
8	-11.0151
rself	-11.0157
pitala	-11.017
faca	-11.0177
anaw	-11.0183
▁minokayay	-11.0201
adac	-11.021
▁kono	-11.0213
lalood	-11.022
▁PA	-11.024
lean	-11.0254
ripe	-11.0264
fadahong	-11.0265
Takaw	-11.0269
9	-11.0278
cavay	-11.0279
break	-11.028
pifoting	-11.0285
mil	-11.0293
ngiyangi	-11.0305
sifo	-11.0306
vodoy	-11.0309
ngoyos	-11.031
work	-11.0311
kwocha	-11.0313
rakar	-11.0319
papah	-11.032
6	-11.0321
books	-11.0321
throw	-11.0322
teloc	-11.0323
kec	-11.0323
polo	-11.0326
fafahi	-11.0329
▁Ch	-11.0332
died	-11.0333
halafin	-11.0333
dadaya	-11.0335
grown	-11.0336
tangasa	-11.0338
epah	-11.0339
kakaenen	-11.034
▁spen	-11.0342
fohat	-11.0342
How	-11.0346
lima	-11.0353
face	-11.0355
▁search	-11.0356
▁shar	-11.0358
father	-11.0371
hill	-11.0375
Hay	-11.0382
tah	-11.0386
▁keton	-11.0398
kohaw	-11.0408
waco	-11.0414
▁poyapoy	-11.0426
An	-11.0426
▁odax	-11.0428
▁cacevaren	-11.0428
▁Matthew	-11.0428
sanek	-11.043
lonan	-11.0431
LISIN	-11.044
hed	-11.0459
▁kohaw	-11.0483
pac	-11.0517
▁nail	-11.0522
▁lecad	-11.0524
▁fr	-11.0532
▁pipan	-11.0534
she	-11.0535
▁demaken	-11.0541
▁malah	-11.0546
mikilim	-11.057
▁remo	-11.0573
dom	-11.0577
ilicay	-11.0609
dong	-11.0613
▁aira	-11.0614
cted	-11.0617
cover	-11.0626
anamen	-11.063
atayni	-11.0648
▁mapati	-11.065
tepa	-11.0654
lide	-11.0658
hemaw	-11.0678
▁kah	-11.0695
kngli	-11.0701
meri	-11.0725
akong	-11.0734
galay	-11.0745
▁tonian	-11.0801
safit	-11.0803
kelid	-11.0817
ř	-11.0819
▁mitek	-11.0819
▁kaayaw	-11.0826
palomaan	-11.0827
▁app	-11.0847
tafo	-11.0858
py	-11.088
sell	-11.0888
▁tati	-11.089
inengneng	-11.0892
▁releas	-11.0898
▁Sh	-11.091
▁colo	-11.0941
ngaw	-11.0945
tiri	-11.0959
▁sif	-11.0968
▁Ni	-11.0996
pacakay	-11.0996
tol	-11.0999
▁Masadak	-11.1004
cise	-11.1016
hacowa	-11.1026
ron	-11.1037
ettle	-11.1041
pagalatay	-11.106
axe	-11.1076
maced	-11.1086
micaliw	-11.1092
kawal	-11.1101
tatoy	-11.1109
NT	-11.1114
olen	-11.1134
takos	-11.1144
▁tr	-11.1146
eda	-11.1148
▁imp	-11.1158
▁Hakka	-11.1159
▁Miti	-11.1161
▁kakae	-11.1186
ved	-11.1204
ahepo	-11.1228
cada	-11.1234
HAY	-11.1235
oh	-11.1246
lol	-11.1251
▁Masi	-11.1257
▁ours	-11.1278
karata	-11.1279
▁mate	-11.1281
tapang	-11.1283
ongso	-11.1297
▁savo	-11.1303
▁ru	-11.1307
rocok	-11.1315
▁lala	-11.1315
▁tomato	-11.1325
palal	-11.1326
odan	-11.1335
afala	-11.1347
doh	-11.1348
ree	-11.1356
using	-11.1366
eh	-11.137
loay	-11.1382
hoy	-11.1384
▁Maherekay	-11.1393
patala	-11.1397
▁manay	-11.1401
ES	-11.1406
▁sinavel	-11.1415
koko	-11.1417
manay	-11.1426
Awaa	-11.1427
ually	-11.1437
LY	-11.1437
main	-11.1438
▁nari	-11.1446
ofang	-11.146
ome	-11.1464
Ini	-11.1481
ex	-11.1482
alatalo	-11.1493
▁cita	-11.1494
leda	-11.1496
tadas	-11.1501
kohepic	-11.1503
fu	-11.151
nokas	-11.1518
PAT	-11.153
eath	-11.153
▁giv	-11.1531
▁Pakafa	-11.154
atim	-11.1542
▁six	-11.1545
▁comp	-11.1556
▁Sata	-11.1558
NIYARO	-11.1559
mot	-11.1562
ize	-11.1564
VES	-11.1572
ekal	-11.1577
▁sakaca	-11.1593
erv	-11.1594
adanca	-11.1595
tafok	-11.1598
lahok	-11.1601
court	-11.1602
▁angang	-11.1609
▁Pac	-11.1613
▁gi	-11.162
radan	-11.162
▁Christian	-11.1625
▁crop	-11.1631
iyol	-11.1631
ERS	-11.1635
▁chon	-11.1636
▁sometime	-11.1636
▁leader	-11.1636
imperative	-11.1637
lolen	-11.164
▁lake	-11.1641
tomerep	-11.1648
esel	-11.1657
▁matatodong	-11.1658
opper	-11.1659
loh	-11.1661
▁pakahikoki	-11.1663
▁karo	-11.1665
likat	-11.1669
▁Kristo	-11.1671
▁pakayra	-11.1677
▁pant	-11.1678
▁tamiyan	-11.1679
def	-11.1682
▁katalaw	-11.1682
sapad	-11.1686
▁polic	-11.1687
▁matenes	-11.1687
imer	-11.1687
▁rub	-11.1689
▁sipo	-11.1689
cika	-11.1691
mple	-11.1691
▁machin	-11.1691
▁Ga	-11.1699
▁kaikor	-11.17
▁prepar	-11.1701
nasani	-11.1702
syang	-11.1705
▁cl	-11.1708
tiih	-11.1708
▁Caka	-11.171
▁inhabit	-11.1713
▁concern	-11.1714
▁health	-11.1714
▁wound	-11.1715
kalen	-11.172
patiked	-11.172
▁fec	-11.1722
▁nine	-11.1723
nited	-11.1723
dademec	-11.1725
nitor	-11.1726
▁boy	-11.1726
emble	-11.1727
▁cultur	-11.1727
fet	-11.1727
▁blow	-11.1728
▁arrive	-11.1728
▁pul	-11.1728
▁mikali	-11.1729
engnengen	-11.1729
linah	-11.173
▁micoco	-11.173
▁cru	-11.1734
langdaw	-11.1735
elled	-11.1735
udasing	-11.1736
keloh	-11.1738
ease	-11.1738
acafay	-11.1739
▁direct	-11.1739
▁branch	-11.1741
AGAN	-11.1742
akacinamalay	-11.1742
ikawrira	-11.1742
ized	-11.1742
tub	-11.1743
nac	-11.1744
vice	-11.1744
TEL	-11.1744
▁prepare	-11.1745
view	-11.1745
ncle	-11.1745
▁Mikihatiya	-11.1745
▁progress	-11.1745
AKAT	-11.1745
Q	-11.1745
Sawmah	-11.1745
katomireng	-11.1745
kawmah	-11.1745
kocakoc	-11.1745
mirmir	-11.1745
pakoyoc	-11.1745
▁Fee	-11.1745
▁LAKOKAY	-11.1745
▁LATIFO	-11.1745
▁LATINWA	-11.1745
▁MEDIUM	-11.1745
▁PIPIHAYAN	-11.1745
▁Piyoma	-11.1745
▁Poyoma	-11.1745
▁ROMIAD	-11.1745
▁Samatiya	-11.1745
▁September	-11.1745
▁baseball	-11.1745
▁cinamalay	-11.1745
▁covenant	-11.1745
▁crab	-11.1745
▁cracked	-11.1745
▁effective	-11.1745
▁elbow	-11.1745
▁example	-11.1745
▁fabric	-11.1745
▁fafahyan	-11.1745
▁fekeloh	-11.1745
▁gossip	-11.1745
▁guests	-11.1745
▁guilty	-11.1745
▁kasariwsiwan	-11.1745
▁kasemowal	-11.1745
▁kyafes	-11.1745
▁masakero	-11.1745
▁matokatok	-11.1745
▁numerous	-11.1745
▁pahotingan	-11.1745
▁pipahotingan	-11.1745
▁process	-11.1745
▁reconciliation	-11.1745
▁responsible	-11.1745
▁rimood	-11.1745
▁sasiwasiw	-11.1745
▁sevayo	-11.1745
▁siawsoei	-11.1745
▁sinatowik	-11.1745
▁taerev	-11.1745
▁tamorak	-11.1745
▁taviras	-11.1745
▁tsangřa	-11.1745
▁value	-11.1745
▁weapons	-11.1745
cikcik	-11.1745
davak	-11.1745
ifolodan	-11.1745
pelpel	-11.1745
▁Everything	-11.1745
▁defeat	-11.1745
▁personality	-11.1745
▁pilipayan	-11.1745
▁reconcile	-11.1745
▁serious	-11.1745
▁thick	-11.1745
nahato	-11.1745
vohang	-11.1745
vohat	-11.1745
▁Mafasaw	-11.1745
▁Teloc	-11.1745
▁bait	-11.1745
▁dadingoan	-11.1745
▁discuss	-11.1745
▁fitengal	-11.1745
▁inherit	-11.1745
▁paheko	-11.1745
▁wagon	-11.1745
anoktok	-11.1745
▁Mimali	-11.1745
▁imitate	-11.1745
▁matelangay	-11.1745
▁midnight	-11.1745
▁shopat	-11.1745
isarakarakat	-11.1745
▁astray	-11.1745
▁takonan	-11.1745
▁Pongho	-11.1745
▁cork	-11.1745
ihaked	-11.1745
▁Lord	-11.1745
▁Tamih	-11.1745
▁behind	-11.1745
PAH	-11.1745
▁beginning	-11.1745
▁PAKALOGAY	-11.1745
▁chisho	-11.1745
▁lefot	-11.1745
▁patelac	-11.1745
Atekakay	-11.1745
itori	-11.1745
▁ansawni	-11.1745
kareteng	-11.1745
▁mivoting	-11.1745
Akawang	-11.1745
taktak	-11.1745
▁kafer	-11.1745
▁Kowaping	-11.1745
▁legend	-11.1745
▁nemnem	-11.1745
▁tilifi	-11.1745
▁Koesan	-11.1745
▁ninanoman	-11.1745
▁vavoy	-11.1745
akatamina	-11.1745
▁hatapes	-11.1745
▁involve	-11.1745
rasiras	-11.1745
▁widi	-11.1745
satahaf	-11.1745
tapodo	-11.1745
▁bank	-11.1745
▁exist	-11.1745
tikami	-11.1745
▁Tarakaw	-11.1745
firm	-11.1745
rasras	-11.1745
taeliv	-11.1745
tesek	-11.1745
malakinca	-11.1745
▁east	-11.1745
Tamlaw	-11.1745
▁posko	-11.1745
dingwa	-11.1745
▁kidafes	-11.1745
▁rotten	-11.1745
▁gentle	-11.1745
▁Lahuk	-11.1745
▁circ	-11.1745
▁decision	-11.1745
ALAPO	-11.1745
▁pakoni	-11.1745
rokrok	-11.1745
solep	-11.1745
▁spell	-11.1745
liyoc	-11.1745
siyang	-11.1745
▁sakaenem	-11.1745
▁cokowi	-11.1745
▁koskos	-11.1745
▁makonkon	-11.1745
lenlen	-11.1745
▁chongfen	-11.1745
mahini	-11.1745
ADA	-11.1745
tamorong	-11.1745
pohpoh	-11.1745
▁rahek	-11.1745
pproach	-11.1745
▁Mapacaliw	-11.1745
▁respective	-11.1745
▁Vaki	-11.1745
diction	-11.1745
▁Holam	-11.1746
▁pakaotopay	-11.1746
LAC	-11.1746
▁Pengho	-11.1746
▁kalitang	-11.1746
▁truth	-11.1746
▁Moetep	-11.1746
▁holam	-11.1746
NAM	-11.1746
▁travel	-11.1746
▁tanomal	-11.1746
▁lokot	-11.1746
▁Nawhani	-11.1746
▁swam	-11.1746
▁tingki	-11.1746
asilo	-11.1746
▁entertain	-11.1746
magic	-11.1746
▁mifetik	-11.1746
▁Kati	-11.1746
▁Tahini	-11.1746
▁Polong	-11.1746
▁express	-11.1746
▁impac	-11.1746
▁vavahiyan	-11.1746
▁Lafin	-11.1746
ITION	-11.1746
▁Katahenay	-11.1746
▁mahekolong	-11.1746
▁identity	-11.1746
▁talapapotal	-11.1746
▁kadang	-11.1746
▁tokatok	-11.1746
▁fayinayan	-11.1746
fesiw	-11.1746
▁pakini	-11.1746
▁nengeng	-11.1746
TALO	-11.1746
▁tengteng	-11.1747
▁cifaki	-11.1747
▁cement	-11.1747
▁oversee	-11.1747
▁dipong	-11.1747
▁maparo	-11.1747
▁mateli	-11.1747
▁halfway	-11.1747
▁maroray	-11.1747
fasolan	-11.1747
▁enemies	-11.1747
▁Tino	-11.1747
adetay	-11.1747
▁remain	-11.1747
▁slave	-11.1747
rongen	-11.1747
▁pipadang	-11.1747
comfortable	-11.1747
▁Nations	-11.1747
palamlam	-11.1747
▁dipot	-11.1747
▁illness	-11.1747
▁Xi	-11.1747
tim	-11.1747
▁Papedohan	-11.1747
▁agreement	-11.1747
fect	-11.1748
▁month	-11.1748
▁misacacak	-11.1748
▁Kaenen	-11.1748
opic	-11.1748
OC	-11.1748
toltol	-11.1748
▁kyokay	-11.1748
pariri	-11.1748
maotang	-11.1748
siwto	-11.1748
pride	-11.1748
▁restored	-11.1748
dadoki	-11.1748
asisiw	-11.1748
▁darkness	-11.1748
icedam	-11.1749
pawchang	-11.1749
▁varo	-11.1749
▁focol	-11.1749
▁kasaniyaro	-11.1749
▁talatokos	-11.1749
▁piti	-11.1749
▁alive	-11.1749
▁cedeng	-11.1749
▁Akowiday	-11.1749
▁tokar	-11.1749
▁vines	-11.1749
▁equality	-11.1749
▁pacomod	-11.1749
▁chancha	-11.1749
▁tonpo	-11.1749
▁veded	-11.175
▁Makadit	-11.175
▁location	-11.175
▁Kapit	-11.175
▁Safaw	-11.175
▁nipateli	-11.175
▁realized	-11.175
▁Matongal	-11.175
▁kafel	-11.175
▁piepi	-11.175
▁cacelakan	-11.175
ingchi	-11.1751
tepih	-11.1751
▁kasasoaraw	-11.1751
ikak	-11.1751
ikod	-11.1751
unch	-11.1751
▁loud	-11.1751
▁CAR	-11.1751
▁lokiw	-11.1752
LD	-11.1752
petek	-11.1752
▁salikoray	-11.1752
▁mavatac	-11.1752
▁mapalit	-11.1752
▁fest	-11.1752
▁kifetolay	-11.1752
▁Malafi	-11.1752
akiroen	-11.1752
▁Watah	-11.1752
▁hacafay	-11.1753
kelet	-11.1753
afekang	-11.1753
▁matalakal	-11.1753
ngoso	-11.1753
▁Water	-11.1753
sakalavi	-11.1753
koliniw	-11.1753
▁ELDER	-11.1753
▁frightened	-11.1753
▁miseking	-11.1753
▁kinacecay	-11.1753
▁plenty	-11.1753
▁pahavay	-11.1753
kameleng	-11.1754
corok	-11.1754
▁Pakaala	-11.1754
▁ciPanay	-11.1754
▁pacako	-11.1754
▁Paul	-11.1754
arayom	-11.1754
▁mamahaen	-11.1755
▁tire	-11.1755
cinglaw	-11.1755
antly	-11.1755
▁masoso	-11.1756
kinacacay	-11.1756
siket	-11.1756
▁Tapang	-11.1756
▁misaefeefer	-11.1756
▁tapag	-11.1756
▁MIFOTIG	-11.1757
▁sakalima	-11.1757
kasadakan	-11.1757
pakonira	-11.1757
▁Nacila	-11.1757
lp	-11.1757
▁pinapina	-11.1758
▁fist	-11.1758
lawla	-11.1758
▁religion	-11.1758
Saomah	-11.1758
▁masalaw	-11.1759
▁Maapac	-11.1759
▁pakatengil	-11.1759
▁accur	-11.1759
cokap	-11.176
▁copelak	-11.1761
▁setting	-11.1761
▁north	-11.1761
▁KA	-11.1761
▁completely	-11.1761
maen	-11.1761
▁everyday	-11.1761
sipasip	-11.1761
▁Kaeso	-11.1761
▁Silo	-11.1762
eref	-11.1762
kelac	-11.1762
▁Anocila	-11.1762
pokoh	-11.1763
▁tomes	-11.1763
▁tatapangan	-11.1763
▁mafali	-11.1764
▁Hali	-11.1764
ately	-11.1764
▁Mapitek	-11.1764
▁preaching	-11.1764
▁matakaw	-11.1765
EM	-11.1765
epoc	-11.1765
ig	-11.1765
▁worms	-11.1765
pacarcar	-11.1766
firo	-11.1766
▁nisanga	-11.1767
merek	-11.1767
worthy	-11.1767
▁Malalisan	-11.1767
fahal	-11.1767
▁Singa	-11.1768
halhal	-11.1768
awni	-11.1768
▁midakaw	-11.1768
▁nikatengil	-11.1768
▁pakaala	-11.1769
▁kalalodan	-11.1769
▁pakapasoay	-11.177
▁tosiya	-11.177
▁movement	-11.177
▁malawla	-11.177
▁koesanay	-11.177
potar	-11.1772
▁mararid	-11.1772
▁tayar	-11.1772
miahowid	-11.1772
▁kahacowa	-11.1772
▁wlo	-11.1772
▁Eve	-11.1772
TAG	-11.1772
tatoro	-11.1772
▁Panokas	-11.1772
▁USE	-11.1772
ream	-11.1772
ssor	-11.1774
paveli	-11.1774
▁deko	-11.1774
▁general	-11.1774
▁misano	-11.1775
▁mikowang	-11.1775
▁AT	-11.1775
hngangay	-11.1775
▁wounded	-11.1775
▁fanca	-11.1776
▁mivatikar	-11.1777
▁sorcerer	-11.1777
▁Kalikien	-11.1777
rase	-11.1777
▁kihepic	-11.1777
▁papaliwal	-11.1778
cidal	-11.1778
▁kacomoli	-11.1778
lekal	-11.1781
okak	-11.1781
▁sisa	-11.1781
▁misafel	-11.1781
▁tooth	-11.1783
▁miocor	-11.1784
▁Taring	-11.1784
▁Kaka	-11.1784
▁soul	-11.1785
▁matahidang	-11.1785
▁searching	-11.1785
ceka	-11.1787
mifoh	-11.1787
▁pipe	-11.1787
lifot	-11.1787
demet	-11.1788
▁piyaw	-11.1789
simaan	-11.1789
▁tataak	-11.179
▁sasifo	-11.1791
mula	-11.1791
lacecay	-11.1792
▁mavot	-11.1793
▁WI	-11.1794
▁taangay	-11.1794
ilocan	-11.1794
▁kolit	-11.1794
isaki	-11.1795
lick	-11.1796
▁rorong	-11.1796
▁miloing	-11.1798
▁seli	-11.1798
▁mota	-11.1799
tono	-11.1799
▁kangata	-11.1799
▁peach	-11.1801
▁namakay	-11.1802
▁salita	-11.1802
▁Sapi	-11.1802
▁sino	-11.1803
parana	-11.1804
▁kalalicay	-11.1805
▁mangodo	-11.1807
▁howak	-11.1807
▁tayo	-11.1807
▁tamana	-11.1808
patelas	-11.1808
paratoh	-11.1809
lisimet	-11.181
terep	-11.1811
gue	-11.1811
lakat	-11.1812
pture	-11.1812
timol	-11.1813
▁Liyawen	-11.1814
▁pakayraan	-11.1815
iwma	-11.1816
▁mahakolong	-11.1816
setol	-11.1817
▁kakomaen	-11.1817
▁kasara	-11.1818
▁miasip	-11.1818
▁Cakay	-11.182
▁solinay	-11.182
micidek	-11.1822
lalodan	-11.1823
eam	-11.1823
oons	-11.1825
rahid	-11.1826
▁walo	-11.1826
▁SAR	-11.1826
▁toro	-11.1826
▁sheng	-11.1827
▁matoas	-11.183
ngataay	-11.183
▁twisted	-11.1831
▁fail	-11.1832
▁piliyas	-11.1833
▁malac	-11.1833
ative	-11.1836
makilim	-11.1838
iyak	-11.1838
▁isawni	-11.1839
bbed	-11.184
palowad	-11.1841
▁kakeridan	-11.1841
oradayto	-11.1841
llar	-11.1841
sakadademak	-11.1842
sifin	-11.1844
tapolong	-11.1845
ilang	-11.1845
endor	-11.1845
root	-11.1845
patosokan	-11.1847
▁lalang	-11.1848
misimaw	-11.1852
▁talaya	-11.1853
▁mililis	-11.1855
awl	-11.1856
▁Lin	-11.1856
elek	-11.1857
tongod	-11.1859
ngong	-11.186
▁feelings	-11.1861
▁crops	-11.1861
tengay	-11.1861
▁somo	-11.1866
mamanaw	-11.1867
▁faso	-11.1867
▁kaolahan	-11.1867
osa	-11.187
▁sack	-11.1874
▁mero	-11.1876
▁niso	-11.1877
▁flipp	-11.188
▁fafaed	-11.188
▁tapi	-11.1881
▁Ati	-11.1882
▁maf	-11.1883
pera	-11.1884
▁miciw	-11.1886
▁kamaen	-11.1889
avala	-11.189
▁trip	-11.1891
▁sleepy	-11.1892
▁kangodoan	-11.1893
koli	-11.1894
spoken	-11.1896
▁dihekoay	-11.1901
▁grie	-11.1902
rian	-11.1903
▁liver	-11.1904
▁spirits	-11.1904
cin	-11.1904
▁tefos	-11.1907
seti	-11.1908
layer	-11.1911
▁Maped	-11.1912
pas	-11.1912
▁yes	-11.1914
▁pape	-11.1917
sses	-11.1918
▁matawa	-11.1918
cell	-11.1919
ngara	-11.192
kacipinang	-11.192
▁kaala	-11.1922
asan	-11.1922
▁safak	-11.1923
tangtangan	-11.1923
▁outsiders	-11.1925
cacak	-11.1925
nohatini	-11.1926
▁mass	-11.1928
fluen	-11.1928
▁forever	-11.1928
▁kapo	-11.193
kaered	-11.193
▁piteli	-11.1936
pakimad	-11.1938
▁kolafaw	-11.1939
lahci	-11.194
▁kisowan	-11.1943
neneng	-11.1943
toto	-11.1945
▁talaw	-11.1945
▁gods	-11.1945
▁legs	-11.1946
▁mediums	-11.1947
▁holding	-11.1949
stol	-11.1949
wning	-11.1957
▁standing	-11.196
▁vano	-11.1961
▁cikay	-11.1964
▁sure	-11.1965
▁muc	-11.1971
▁belong	-11.1972
▁akaa	-11.1973
▁feeling	-11.1974
sawali	-11.1974
▁pri	-11.1975
OK	-11.1978
▁kalic	-11.1982
▁eld	-11.1986
faliw	-11.1993
yah	-11.1994
▁mikoli	-11.1996
▁party	-11.1997
▁shoe	-11.2001
lafaw	-11.2001
▁kelo	-11.2003
hedaw	-11.2004
▁midipot	-11.2004
▁kar	-11.2006
inip	-11.2009
kapi	-11.2014
pole	-11.2015
iaw	-11.2015
prehen	-11.2026
parak	-11.2026
rong	-11.2032
kop	-11.2033
▁malekakaay	-11.2036
▁makota	-11.2044
kalamkamen	-11.2057
vangcal	-11.2057
ocen	-11.2059
kohenac	-11.206
▁haman	-11.206
▁carrying	-11.2071
▁Awaayto	-11.2075
isi	-11.208
nol	-11.2086
ngiw	-11.2086
mihayda	-11.2086
▁mafecolay	-11.2106
pasi	-11.2106
▁Pasay	-11.2107
WE	-11.2112
ashan	-11.2114
▁niko	-11.212
takop	-11.212
▁nation	-11.2122
▁taloan	-11.2122
sakapah	-11.2129
▁consci	-11.2132
▁mati	-11.2136
cog	-11.2151
▁Nil	-11.2157
moecel	-11.2166
lood	-11.2167
▁whom	-11.2172
▁pipaloma	-11.2174
▁aga	-11.218
PO	-11.2188
▁koyo	-11.2189
▁laws	-11.2191
▁maliki	-11.2194
his	-11.2196
▁wing	-11.2196
▁tatilid	-11.2196
ers	-11.2206
▁changes	-11.2209
noc	-11.2217
ekel	-11.2221
ART	-11.2229
edis	-11.2229
pipatala	-11.2232
owad	-11.2244
liva	-11.2244
masipon	-11.2249
esa	-11.225
acici	-11.2261
▁ciko	-11.2262
▁Akaa	-11.2271
losid	-11.2273
kowat	-11.2282
pakafi	-11.2287
ON	-11.2293
▁riri	-11.2294
nien	-11.2306
▁tiniay	-11.2311
sapi	-11.2311
port	-11.2312
▁events	-11.2343
als	-11.2348
▁afan	-11.2351
▁rohe	-11.2355
cy	-11.2356
awfaw	-11.2359
Hakkas	-11.2367
atang	-11.237
▁Tao	-11.238
olahan	-11.2384
waro	-11.2386
▁woods	-11.2387
▁icowacowa	-11.2388
ney	-11.2393
▁kawasay	-11.2393
cious	-11.2401
matoe	-11.2403
▁caci	-11.2408
deed	-11.2412
▁icifa	-11.2416
▁Matak	-11.2417
apac	-11.2419
kat	-11.2423
mer	-11.2427
▁cot	-11.243
mocela	-11.2433
raraay	-11.2435
▁hana	-11.2438
▁gr	-11.2449
loan	-11.2452
PE	-11.2461
epo	-11.2468
pinanam	-11.2473
tata	-11.2493
▁pata	-11.2495
▁salo	-11.2501
▁asking	-11.2502
▁caayto	-11.2504
emang	-11.251
saysay	-11.2517
pek	-11.2524
ung	-11.2526
alien	-11.253
lacing	-11.2537
▁sna	-11.2538
hofoc	-11.2562
ker	-11.2565
▁iche	-11.2567
icang	-11.2575
adah	-11.2579
lotay	-11.2585
ugu	-11.2591
mpa	-11.2596
......	-11.2622
tif	-11.265
▁violat	-11.265
▁news	-11.2663
▁hena	-11.2665
laliw	-11.2684
hor	-11.2699
icy	-11.2716
▁cane	-11.272
▁talata	-11.2732
site	-11.2732
liaw	-11.2736
alenak	-11.2737
▁Liya	-11.2737
▁fad	-11.2742
amanan	-11.2779
fas	-11.2788
Nowa	-11.2788
▁Mapatiko	-11.2791
▁lawi	-11.2798
▁sapipa	-11.2817
▁mave	-11.2854
alili	-11.2868
apol	-11.2873
]?	-11.2882
afas	-11.289
▁papaka	-11.289
rit	-11.2897
▁goi	-11.2926
▁nisa	-11.2926
▁west	-11.2941
▁Alas	-11.2942
efos	-11.2957
kahemaw	-11.2958
worker	-11.2963
powak	-11.2964
kahenay	-11.2977
aredo	-11.2992
sied	-11.2995
lipa	-11.3005
solol	-11.301
tefok	-11.3023
enang	-11.3038
▁raise	-11.3049
tooren	-11.3056
kowang	-11.3068
haen	-11.307
apawan	-11.3071
oso	-11.3079
ton	-11.3104
▁translat	-11.3114
mar	-11.3119
tomecek	-11.312
tle	-11.3122
kinih	-11.315
noh	-11.3153
ax	-11.3161
▁Patela	-11.3186
alamaan	-11.3191
ese	-11.3245
inga	-11.3278
foha	-11.3299
IN	-11.3304
atol	-11.3309
dis	-11.3309
over	-11.3326
ering	-11.3332
wac	-11.334
noninian	-11.3344
▁infl	-11.3356
yanan	-11.3357
pasa	-11.3369
▁saal	-11.3399
ybe	-11.3402
olihaw	-11.3404
GAY	-11.3414
pana	-11.344
amed	-11.3454
kodo	-11.3459
ku	-11.3476
▁cont	-11.3479
▁ash	-11.3483
kalecad	-11.3501
ried	-11.3504
sakilac	-11.3511
▁cale	-11.3521
▁Kina	-11.3541
tipos	-11.3542
hawang	-11.3551
▁mitako	-11.3559
caco	-11.3561
▁Mason	-11.3568
▁taken	-11.359
ranan	-11.3594
mitan	-11.3637
▁malalis	-11.366
here	-11.3675
▁pinan	-11.3689
unk	-11.3711
inacecay	-11.3712
kep	-11.3717
kamaan	-11.3731
▁mipat	-11.3735
iso	-11.3745
uran	-11.3754
▁tera	-11.3766
demakan	-11.3817
▁matato	-11.384
▁Matoh	-11.3851
sela	-11.3859
deteng	-11.3862
har	-11.3868
roko	-11.388
ramod	-11.3907
▁naon	-11.391
tyi	-11.3913
irang	-11.3925
▁tri	-11.395
eci	-11.3956
kako	-11.3962
atahekal	-11.3962
lung	-11.3966
katimol	-11.3987
dongan	-11.3992
olad	-11.3992
▁Mag	-11.4027
▁Pacaka	-11.4051
lili	-11.4069
▁Tadama	-11.4072
▁Some	-11.408
PAGAY	-11.4107
itolon	-11.4117
nsi	-11.4119
▁Matawala	-11.4151
cus	-11.4162
▁Bur	-11.4162
▁apa	-11.4181
nuts	-11.4193
alac	-11.4207
matang	-11.4214
enal	-11.4216
ove	-11.4218
angta	-11.423
oon	-11.4235
are	-11.4243
▁Tal	-11.4276
▁caus	-11.4286
▁Todo	-11.4304
folesak	-11.4335
mangan	-11.4358
▁etol	-11.4362
mafana	-11.4379
cep	-11.4402
▁micoka	-11.4407
▁kasapa	-11.4408
▁translate	-11.4419
▁bath	-11.442
yof	-11.4459
▁mipala	-11.4473
atapang	-11.4474
▁Mifa	-11.4492
L	-11.4505
emel	-11.4515
▁com	-11.4517
inno	-11.4523
akalahok	-11.4526
▁Mila	-11.4526
night	-11.4531
omah	-11.4531
riw	-11.4541
where	-11.4583
halaka	-11.4587
adodem	-11.4645
idang	-11.4654
bor	-11.4682
respectful	-11.4694
todong	-11.4701
coming	-11.4705
▁papa	-11.4721
▁Masasa	-11.4736
loved	-11.4747
makero	-11.4748
cieying	-11.4748
ORN	-11.4748
tatelek	-11.4751
kadafo	-11.4754
tatala	-11.4762
▁Mise	-11.4765
MAN	-11.4768
poener	-11.4769
hom	-11.4771
olip	-11.4771
kangkang	-11.4773
rengos	-11.4778
semot	-11.4779
even	-11.4781
fali	-11.4784
Kalang	-11.4784
kahirahira	-11.4784
ITI	-11.4787
100	-11.479
▁appli	-11.4792
kakerem	-11.4795
takaraw	-11.4797
ngasaw	-11.4797
picomod	-11.4806
rikec	-11.4806
acious	-11.4806
window	-11.4812
otofay	-11.4813
keliw	-11.4814
4	-11.4814
tarod	-11.4816
unti	-11.4818
anocha	-11.4821
mapolin	-11.483
Ko	-11.4831
salikaka	-11.4831
patado	-11.4832
lomowad	-11.4833
finacadan	-11.4833
tisowan	-11.4834
warm	-11.4837
palilam	-11.4838
tail	-11.4841
pasifana	-11.4842
remiad	-11.4842
safa	-11.4843
Adihay	-11.4843
▁pataheka	-11.4845
coop	-11.4845
You	-11.4849
▁lica	-11.485
tatiih	-11.4857
He	-11.4859
vahoy	-11.486
mato	-11.4864
tamdaw	-11.4865
itira	-11.4867
Who	-11.4874
working	-11.4875
post	-11.4878
▁maraay	-11.4881
▁kileme	-11.4884
cacay	-11.4887
atomo	-11.4892
▁les	-11.4894
Gi	-11.4895
mipadang	-11.4898
▁kahec	-11.4901
▁Du	-11.4905
build	-11.4921
▁chin	-11.4927
nima	-11.4929
adada	-11.4932
emer	-11.4933
koni	-11.4937
sienaw	-11.4943
▁accu	-11.4957
ANA	-11.496
Be	-11.4966
ocokan	-11.4968
ihawikid	-11.497
took	-11.4982
epi	-11.4983
▁Mitilid	-11.4987
amen	-11.4991
talaomah	-11.4992
▁malak	-11.5003
▁mip	-11.5007
hemay	-11.5017
▁maminengnen	-11.5022
kian	-11.503
▁Minengnen	-11.5044
nite	-11.5048
▁Hinat	-11.5064
rank	-11.5076
kiya	-11.508
▁patefo	-11.5082
▁paki	-11.5083
arikak	-11.5105
▁karaa	-11.5113
sato	-11.5119
rif	-11.5133
▁Tanol	-11.516
aloma	-11.5176
▁teke	-11.5201
▁Patada	-11.522
sakaka	-11.5223
empt	-11.5232
ipen	-11.5243
iloc	-11.5244
hoe	-11.5262
▁koli	-11.5292
idahi	-11.5296
sea	-11.5322
▁chit	-11.5327
onay	-11.5328
siye	-11.5349
ag	-11.5355
eli	-11.5365
pitaw	-11.5371
vol	-11.5372
THE	-11.5389
aikor	-11.5411
wat	-11.5434
▁fanaw	-11.5472
kerem	-11.5487
▁Malali	-11.5508
cacaliw	-11.5519
gree	-11.5533
alic	-11.5538
.....	-11.5543
▁Mapaset	-11.556
aveli	-11.5568
eq	-11.5569
ecel	-11.5579
raan	-11.5592
nayat	-11.5596
etekan	-11.5611
kapah	-11.5614
palamo	-11.5616
▁Mica	-11.5616
▁assembl	-11.5636
litemo	-11.564
alw	-11.565
tiv	-11.5661
▁kolac	-11.5669
▁dive	-11.5686
AL	-11.5686
TS	-11.5693
▁mafecol	-11.5716
row	-11.5716
PER	-11.5716
acikay	-11.5721
tilidan	-11.5727
imela	-11.5731
ngli	-11.5736
dik	-11.5736
hekar	-11.5741
gile	-11.5755
▁mipita	-11.5758
elo	-11.5773
▁tatak	-11.5773
icaliwan	-11.5782
ist	-11.5791
final	-11.58
ripping	-11.5804
onel	-11.5805
liyal	-11.5812
sipon	-11.584
▁kalamkam	-11.5852
ipan	-11.5855
ifotig	-11.5857
itavo	-11.5859
tokad	-11.5863
eked	-11.5864
arang	-11.5869
ME	-11.5878
ident	-11.588
▁Maf	-11.5886
▁Padang	-11.5893
nihar	-11.5935
▁Hana	-11.5936
kakoy	-11.5937
atoh	-11.594
ikon	-11.5941
40	-11.5953
LEN	-11.5965
▁kasasi	-11.5966
molal	-11.5976
Piday	-11.5979
ipe	-11.5985
kelen	-11.5986
dac	-11.5991
lamal	-11.5992
▁19	-11.5994
▁conve	-11.5995
KEL	-11.5996
hkolong	-11.6004
▁Nami	-11.6007
yawch	-11.601
nged	-11.6014
▁Patah	-11.6015
divid	-11.6019
NA	-11.6024
▁Nama	-11.6026
▁drip	-11.6028
eker	-11.6031
valen	-11.6039
▁flip	-11.6039
rative	-11.605
witch	-11.6065
aki	-11.6069
raramod	-11.607
▁pakoko	-11.6073
▁miha	-11.6073
▁mida	-11.6077
▁Maemin	-11.6082
atien	-11.6085
▁disc	-11.6087
pih	-11.6091
vekac	-11.6093
tahenay	-11.6096
polong	-11.6097
Hi	-11.6099
acha	-11.611
▁effort	-11.6124
▁affair	-11.6124
▁command	-11.6125
cidek	-11.6129
▁attack	-11.613
arocod	-11.6133
▁generation	-11.6134
▁PAR	-11.6135
▁custom	-11.6135
▁carrot	-11.6136
▁soldier	-11.6137
▁sapisa	-11.6148
H	-11.6149
emec	-11.6149
▁hafa	-11.6155
acefel	-11.6158
▁makili	-11.616
peri	-11.6162
▁plan	-11.6163
aolahen	-11.6168
sina	-11.6169
▁mamiki	-11.6169
▁Malaso	-11.6172
ratoh	-11.6174
kok	-11.6177
▁kawil	-11.6179
noos	-11.618
iyok	-11.6181
▁Nima	-11.6183
apilis	-11.6184
lowad	-11.6186
▁papata	-11.6192
▁kongko	-11.6194
▁eviden	-11.6194
▁Kaliki	-11.6194
horac	-11.6195
liyok	-11.6196
ppre	-11.6197
▁tatoki	-11.6197
▁pipahanhan	-11.6197
pinokay	-11.6199
wikid	-11.62
ipasip	-11.6201
▁pacaco	-11.6201
telas	-11.6208
egil	-11.6209
ngoh	-11.621
▁raro	-11.621
▁cikawas	-11.6211
▁mamipa	-11.6211
acarcar	-11.6211
▁select	-11.6213
▁patire	-11.6214
▁supp	-11.6215
▁preach	-11.6215
kodol	-11.6215
▁quarrel	-11.6216
▁suffer	-11.6217
▁sweep	-11.6217
▁shout	-11.6218
arara	-11.6219
sef	-11.622
kereng	-11.6221
efok	-11.6221
LOG	-11.6222
tafsiw	-11.6223
tenooy	-11.6223
▁succe	-11.6223
▁religio	-11.6224
sakelo	-11.6224
cicih	-11.6225
▁thre	-11.6225
▁broke	-11.6225
IFOTIG	-11.6226
▁patiren	-11.6226
sarayray	-11.6227
▁decide	-11.6228
▁secur	-11.6229
efer	-11.6229
tenoon	-11.6229
▁tru	-11.623
▁copel	-11.6231
pread	-11.6231
eanuts	-11.6231
▁announce	-11.6232
kifetol	-11.6233
▁makala	-11.6233
harate	-11.6234
▁cingla	-11.6235
▁dadaha	-11.6236
uyuma	-11.6236
▁Kin	-11.6236
IP	-11.6236
▁misaefeefe	-11.6237
pangiro	-11.6238
cinowas	-11.6238
alalotok	-11.6239
lahen	-11.624
▁offende	-11.624
▁Pangca	-11.624
▁patatiko	-11.624
ahkal	-11.6241
eaking	-11.6242
▁publi	-11.6243
ahekolong	-11.6243
ember	-11.6243
ducation	-11.6243
struct	-11.6243
▁ciina	-11.6243
EAD	-11.6243
nstru	-11.6243
TION	-11.6243
ontinue	-11.6243
▁commun	-11.6244
▁protect	-11.6244
ference	-11.6244
▁commit	-11.6244
stitut	-11.6244
▁vegeta	-11.6244
▁butterfl	-11.6244
LIN	-11.6244
IGH	-11.6244
roach	-11.6245
ngfen	-11.6245
▁PAKALO	-11.6245
IFO	-11.6245
FEKA	-11.6245
POR	-11.6245
jia	-11.6245
ISACIPO	-11.6245
tiwatiw	-11.6245
▁MAHAHAWA	-11.6245
▁PRA	-11.6245
▁TATATOY	-11.6245
▁mawakang	-11.6245
▁oblig	-11.6245
Adingo	-11.6245
Swanyam	-11.6245
alyz	-11.6245
cicacelakan	-11.6245
employment	-11.6245
mptu	-11.6245
ogcoy	-11.6245
pasasiyor	-11.6245
responsibilities	-11.6245
tadimocokan	-11.6245
▁Anohatira	-11.6245
▁April	-11.6245
▁BASKET	-11.6245
▁BELEIFS	-11.6245
▁Dakoc	-11.6245
▁FOTIG	-11.6245
▁FRIENDS	-11.6245
▁Fafokod	-11.6245
▁HOUSE	-11.6245
▁July	-11.6245
▁Kaosong	-11.6245
▁Katomireng	-11.6245
▁LAHALAC	-11.6245
▁MASAKE	-11.6245
▁MIPATIKAL	-11.6245
▁MISAGA	-11.6245
▁Malasingsi	-11.6245
▁Nadulan	-11.6245
▁PALIDIG	-11.6245
▁PASIFANA	-11.6245
▁PakaKawti	-11.6245
▁Pakelag	-11.6245
▁Pipihayan	-11.6245
▁Pokoto	-11.6245
▁Polog	-11.6245
▁RICE	-11.6245
▁RIVER	-11.6245
▁RUMA	-11.6245
▁River	-11.6245
▁SPIRIT	-11.6245
▁Sawtoy	-11.6245
▁School	-11.6245
▁TATIHI	-11.6245
▁Taycong	-11.6245
▁Tomerepay	-11.6245
▁VESSEL	-11.6245
▁WHO	-11.6245
▁abreast	-11.6245
▁amazed	-11.6245
▁arriving	-11.6245
▁bodies	-11.6245
▁ceremonies	-11.6245
▁chongchaw	-11.6245
▁chronic	-11.6245
▁cokaymas	-11.6245
▁conquer	-11.6245
▁consistent	-11.6245
▁dafdaf	-11.6245
▁degrad	-11.6245
▁deserves	-11.6245
▁diarrhea	-11.6245
▁dimokos	-11.6245
▁disobey	-11.6245
▁disturb	-11.6245
▁divorced	-11.6245
▁essential	-11.6245
▁fafetohan	-11.6245
▁fakeciw	-11.6245
▁fangtsar	-11.6245
▁foreign	-11.6245
▁frequent	-11.6245
▁genuine	-11.6245
▁happiness	-11.6245
▁hinoki	-11.6245
▁hurried	-11.6245
▁importance	-11.6245
▁influenced	-11.6245
▁inhibited	-11.6245
▁injur	-11.6245
▁journey	-11.6245
▁kacedah	-11.6245
▁kakavotian	-11.6245
▁kilomot	-11.6245
▁kincac	-11.6245
▁lalipayan	-11.6245
▁lalomiheca	-11.6245
▁lotolotokan	-11.6245
▁machete	-11.6245
▁major	-11.6245
▁mamaviyanga	-11.6245
▁mawmah	-11.6245
▁mirisris	-11.6245
▁misakalafi	-11.6245
▁mitoysiw	-11.6245
▁mohetingay	-11.6245
▁moladiw	-11.6245
▁molefot	-11.6245
▁nalikolan	-11.6245
▁nipahavay	-11.6245
▁nipisiyasing	-11.6245
▁observance	-11.6245
▁paeyawan	-11.6245
▁payayoka	-11.6245
▁pihivang	-11.6245
▁piporangan	-11.6245
▁pomegranate	-11.6245
▁profession	-11.6245
▁rahkad	-11.6245
▁realization	-11.6245
▁relieved	-11.6245
▁resolve	-11.6245
▁response	-11.6245
▁result	-11.6245
▁sakalamkam	-11.6245
▁sapikpik	-11.6245
▁satadamaanay	-11.6245
▁shanchi	-11.6245
▁shepherd	-11.6245
▁sikava	-11.6245
▁strive	-11.6245
▁stroked	-11.6245
▁surprise	-11.6245
▁tatangalan	-11.6245
▁tatongroh	-11.6245
▁taypak	-11.6245
▁tribunal	-11.6245
▁trumpet	-11.6245
▁turtle	-11.6245
▁unmarried	-11.6245
▁valley	-11.6245
▁vessel	-11.6245
▁widawidang	-11.6245
▁wizard	-11.6245
Sbalay	-11.6245
replace	-11.6245
shenpan	-11.6245
▁BRAVE	-11.6245
▁Katalawan	-11.6245
▁PAYO	-11.6245
▁PIILISINAN	-11.6245
▁Pakapaso	-11.6245
▁SORCERE	-11.6245
▁Vahi	-11.6245
▁attention	-11.6245
▁double	-11.6245
▁hoywankwo	-11.6245
▁kanatal	-11.6245
▁karacingay	-11.6245
▁mihalama	-11.6245
▁misakilang	-11.6245
▁multiply	-11.6245
▁nipawali	-11.6245
▁otherwise	-11.6245
▁pagagan	-11.6245
▁pocpoc	-11.6245
▁representatives	-11.6245
▁tikolac	-11.6245
halinanom	-11.6245
kadavo	-11.6245
pakoshoelin	-11.6245
propri	-11.6245
▁Akiko	-11.6245
▁MALALEFO	-11.6245
▁Offic	-11.6245
▁SELAR	-11.6245
▁attentive	-11.6245
▁belief	-11.6245
▁fitoka	-11.6245
▁kahmaw	-11.6245
▁kalapiyat	-11.6245
▁kanicaw	-11.6245
▁kincal	-11.6245
▁midefong	-11.6245
▁mifaedet	-11.6245
▁nacnac	-11.6245
▁promise	-11.6245
▁tatelecan	-11.6245
▁cakelis	-11.6245
▁cangping	-11.6245
▁sasirawen	-11.6245
▁President	-11.6245
▁Satokinikini	-11.6245
▁Takaki	-11.6245
▁assign	-11.6245
▁communicat	-11.6245
▁falinono	-11.6245
▁hamiso	-11.6245
▁kafocerak	-11.6245
▁karimoco	-11.6245
▁misatataay	-11.6245
▁moroho	-11.6245
▁ningcing	-11.6245
▁towpyaw	-11.6245
ELT	-11.6245
cekoceko	-11.6245
koosiaw	-11.6245
▁boiling	-11.6245
▁dingki	-11.6245
▁gift	-11.6245
▁loengel	-11.6245
▁paychi	-11.6245
▁resemble	-11.6245
▁MILLE	-11.6245
▁kilangkilang	-11.6245
▁ordinary	-11.6245
▁pledge	-11.6245
▁shelter	-11.6245
alapatiyamay	-11.6245
▁Mirokrokay	-11.6245
▁fohet	-11.6245
▁tatikeda	-11.6245
bilize	-11.6245
kiwakiw	-11.6245
toktok	-11.6245
▁hamako	-11.6245
▁kanatar	-11.6245
▁metmet	-11.6245
▁wrapp	-11.6245
▁řomi	-11.6245
corcor	-11.6245
▁Mangatato	-11.6245
▁demons	-11.6245
▁mitahka	-11.6245
▁pingsiyang	-11.6245
▁sidatengen	-11.6245
▁issue	-11.6245
▁Mahini	-11.6245
▁falohang	-11.6245
ICE	-11.6245
▁Adup	-11.6245
▁Tomon	-11.6245
▁guid	-11.6245
▁rapet	-11.6245
▁relations	-11.6245
anofakeloh	-11.6245
somowar	-11.6245
▁escape	-11.6245
intien	-11.6245
▁achieve	-11.6245
▁knots	-11.6245
ATING	-11.6245
▁electric	-11.6245
▁tiked	-11.6245
▁mangcel	-11.6245
▁tatayalen	-11.6245
torecek	-11.6245
▁TELOC	-11.6245
▁chongcho	-11.6245
▁pisekingan	-11.6245
▁Taychong	-11.6245
▁kalopinaloma	-11.6245
PISA	-11.6245
▁lifawa	-11.6245
pakacepe	-11.6245
asoemet	-11.6245
iondoan	-11.6245
▁cingki	-11.6245
▁recom	-11.6245
mapawho	-11.6245
▁misamangah	-11.6245
▁Word	-11.6245
▁bones	-11.6245
▁ciIna	-11.6245
▁Olanda	-11.6245
▁pinalengaw	-11.6245
▁tawalen	-11.6245
▁LOT	-11.6245
▁yiwo	-11.6245
dadotos	-11.6245
▁dissol	-11.6245
▁lyokay	-11.6245
script	-11.6245
▁paafangay	-11.6245
nikalafo	-11.6245
▁Mionto	-11.6245
▁Tadamatekes	-11.6245
▁buried	-11.6245
▁tongalen	-11.6245
▁Inacila	-11.6245
▁punishment	-11.6245
▁treatment	-11.6245
▁fohecalay	-11.6245
▁kerit	-11.6245
▁Therefore	-11.6245
dongdong	-11.6245
▁mutual	-11.6245
lalengawan	-11.6245
SINAN	-11.6245
NAME	-11.6245
▁witness	-11.6245
angrer	-11.6245
▁tawcike	-11.6245
adipel	-11.6245
ritrit	-11.6245
▁ngiyaw	-11.6245
anekak	-11.6245
telii	-11.6245
▁fogg	-11.6245
▁nipatada	-11.6245
▁Hoalien	-11.6245
▁changpin	-11.6245
▁election	-11.6245
▁cahocaho	-11.6245
▁kaotal	-11.6245
▁masamaamaanay	-11.6245
▁Tayciw	-11.6245
▁NUT	-11.6245
▁kohtingay	-11.6245
▁prohibitions	-11.6245
▁consent	-11.6245
▁moketep	-11.6245
▁FINA	-11.6246
▁chiye	-11.6246
▁Maysang	-11.6246
▁marofoay	-11.6246
atatongo	-11.6246
isopsop	-11.6246
sawarak	-11.6246
▁lafot	-11.6246
▁cimacima	-11.6246
▁komialaay	-11.6246
shomoal	-11.6246
▁monafaw	-11.6246
▁tilen	-11.6246
▁tortured	-11.6246
▁manawnaw	-11.6246
tangled	-11.6246
▁Kinapina	-11.6246
▁drunk	-11.6246
▁ocolen	-11.6246
misovaw	-11.6246
▁mikilok	-11.6246
litapod	-11.6246
▁Misatata	-11.6246
▁therefore	-11.6246
unning	-11.6246
▁casca	-11.6246
▁Tongal	-11.6246
▁makemet	-11.6246
▁kokpo	-11.6246
▁linke	-11.6246
▁intend	-11.6246
oceko	-11.6246
▁approached	-11.6246
▁linyi	-11.6246
▁tamolong	-11.6246
lafong	-11.6246
▁ongcong	-11.6246
▁mirarakat	-11.6246
silasi	-11.6246
▁advent	-11.6246
▁pawho	-11.6246
idate	-11.6246
▁provide	-11.6246
▁pahko	-11.6246
▁motor	-11.6246
cacavi	-11.6246
PAGALAT	-11.6246
▁masasilsil	-11.6246
▁mihayi	-11.6246
▁world	-11.6246
▁Pawali	-11.6246
eving	-11.6246
▁pinareng	-11.6246
▁kawih	-11.6246
▁discipline	-11.6246
adofah	-11.6246
kacaloway	-11.6246
▁Lipay	-11.6246
woti	-11.6246
▁valohay	-11.6246
▁pipaini	-11.6246
PI	-11.6246
▁convi	-11.6246
itmoh	-11.6246
▁nisaepa	-11.6247
korkor	-11.6247
▁organization	-11.6247
likaot	-11.6247
▁sakales	-11.6247
▁Kakacawan	-11.6247
alipay	-11.6247
▁talapipaisingan	-11.6247
▁caloway	-11.6247
▁Lidaw	-11.6247
▁coenek	-11.6247
▁nngra	-11.6247
▁lakelal	-11.6247
▁tileg	-11.6247
▁malakapah	-11.6247
▁mapawpaw	-11.6247
▁malacinowas	-11.6247
▁pafoli	-11.6247
▁kakoreng	-11.6247
▁talacacodadan	-11.6247
pihiya	-11.6247
▁breath	-11.6247
▁pihala	-11.6247
▁mafolod	-11.6247
KAKA	-11.6247
▁papaloma	-11.6247
lotlot	-11.6247
▁Dihang	-11.6247
▁miolong	-11.6247
osidan	-11.6247
paliloc	-11.6247
▁KAPA	-11.6247
▁Tingalaw	-11.6247
alatokos	-11.6247
▁Haenen	-11.6247
▁ledong	-11.6247
hefong	-11.6247
▁tawinaan	-11.6247
▁Piolah	-11.6248
▁kakonah	-11.6248
▁transition	-11.6248
▁pakatingsa	-11.6248
chifafahi	-11.6248
▁encourage	-11.6248
▁ditek	-11.6248
▁kalavaw	-11.6248
▁masanekay	-11.6248
▁wakang	-11.6248
mbar	-11.6248
sitoper	-11.6248
▁marocek	-11.6248
▁masatok	-11.6248
▁Spirit	-11.6248
▁principle	-11.6248
▁TEACH	-11.6248
▁Tribe	-11.6248
▁Tariktik	-11.6248
▁Yu	-11.6248
▁shingfa	-11.6248
akarayan	-11.6248
▁provision	-11.6248
▁lodoten	-11.6248
▁mitingsa	-11.6248
▁trust	-11.6248
▁katengilan	-11.6248
▁support	-11.6248
▁viciw	-11.6248
ection	-11.6249
afolod	-11.6249
akatingsa	-11.6249
▁healed	-11.6249
▁Piala	-11.6249
▁paener	-11.6249
▁alayong	-11.6249
▁Pararid	-11.6249
imec	-11.6249
▁lalavo	-11.6249
▁Paratoh	-11.6249
▁malalen	-11.6249
▁lacinowas	-11.6249
▁Lamlo	-11.6249
▁rect	-11.625
▁feg	-11.625
▁tadafangcal	-11.625
▁fafaway	-11.625
▁awhile	-11.625
▁exit	-11.625
▁Omos	-11.625
lalikid	-11.625
▁padawdaw	-11.625
ikotem	-11.625
▁Taroko	-11.625
▁tarakaw	-11.625
tongih	-11.625
lalonah	-11.625
▁parovoan	-11.625
▁defense	-11.625
▁fiyaw	-11.625
▁Patala	-11.625
HAK	-11.625
▁misaepah	-11.625
▁riwang	-11.6251
▁patalakal	-11.6251
nacadan	-11.6251
▁impro	-11.6251
▁branches	-11.6251
siroma	-11.6251
▁milido	-11.6251
simila	-11.6251
▁mention	-11.6251
▁Makakeleng	-11.6251
▁letters	-11.6251
picaliw	-11.6251
▁nipivoting	-11.6252
▁service	-11.6252
▁satakid	-11.6252
OP	-11.6252
▁dangoy	-11.6252
damaen	-11.6252
▁sacrifice	-11.6252
▁lamelo	-11.6252
▁Simpo	-11.6252
▁Silawad	-11.6252
inorong	-11.6253
▁SAKE	-11.6253
▁Malalikel	-11.6253
▁offender	-11.6253
▁kariya	-11.6253
apag	-11.6253
ppression	-11.6253
▁pea	-11.6253
▁nipiadop	-11.6253
▁agreeable	-11.6253
▁coast	-11.6253
▁floated	-11.6254
▁Dadada	-11.6254
▁cafeng	-11.6254
YING	-11.6254
▁sinar	-11.6254
▁masowa	-11.6254
WL	-11.6254
▁sinpi	-11.6254
▁fodo	-11.6254
▁poki	-11.6255
▁Kita	-11.6255
▁examine	-11.6255
▁sight	-11.6255
▁Histor	-11.6255
▁Masadi	-11.6255
▁mipipihayan	-11.6255
▁noise	-11.6255
▁rafi	-11.6255
▁afterwards	-11.6255
eech	-11.6256
ligen	-11.6256
▁pasino	-11.6256
ciation	-11.6256
▁action	-11.6256
▁wikol	-11.6256
rusted	-11.6256
cokeroh	-11.6256
▁tenth	-11.6256
▁madadama	-11.6256
▁rawang	-11.6256
tangsa	-11.6256
▁macokacok	-11.6256
▁matatengteng	-11.6256
▁lalangaw	-11.6256
▁ciker	-11.6256
ipadag	-11.6257
▁maperar	-11.6257
eneral	-11.6257
▁sasaosi	-11.6257
tevo	-11.6257
▁pasin	-11.6257
▁mimisa	-11.6257
▁kalitosa	-11.6257
▁kakemaen	-11.6257
▁bott	-11.6257
▁Matekes	-11.6257
cipat	-11.6257
▁Teli	-11.6257
▁palamal	-11.6257
▁cooperat	-11.6258
kitoh	-11.6258
idateg	-11.6258
▁mafaliyos	-11.6258
tason	-11.6258
Kudasing	-11.6258
▁Tahepo	-11.6258
▁pawshing	-11.6258
▁katelang	-11.6258
▁tombs	-11.6258
▁pitatoy	-11.6258
▁citingsiya	-11.6258
▁destroyed	-11.6259
▁disappeared	-11.6259
▁elected	-11.6259
▁punished	-11.6259
▁katala	-11.6259
▁koreto	-11.6259
▁forgive	-11.6259
uce	-11.6259
rahker	-11.6259
▁cacorok	-11.6259
conihar	-11.6259
Arayom	-11.6259
▁patodong	-11.6259
▁Patikol	-11.626
▁sema	-11.626
▁pillow	-11.626
▁citiyad	-11.626
▁ciLapic	-11.626
▁lalok	-11.626
OUN	-11.626
Ex	-11.626
tawasi	-11.626
▁litoden	-11.626
parokod	-11.626
▁padeteng	-11.6261
vaher	-11.6261
▁anikak	-11.6261
▁poyo	-11.6261
▁kidodo	-11.6261
▁piongtokay	-11.6261
▁ladiw	-11.6261
▁Palita	-11.6261
▁secure	-11.6261
▁MIPA	-11.6261
▁Tanso	-11.6261
▁town	-11.6261
teroc	-11.6261
▁Mapis	-11.6262
▁Makapah	-11.6262
▁Hatira	-11.6262
dadahal	-11.6262
▁sadiheko	-11.6263
▁lomo	-11.6263
▁win	-11.6263
▁sacomod	-11.6263
▁pisop	-11.6263
galat	-11.6263
▁tatayni	-11.6263
▁pakatama	-11.6263
▁vaedet	-11.6264
▁kakiri	-11.6264
▁shore	-11.6264
yangi	-11.6264
▁flag	-11.6265
salongan	-11.6265
▁fowa	-11.6265
▁Dopoh	-11.6266
amangah	-11.6266
▁sapifalic	-11.6266
▁shalak	-11.6266
▁patolon	-11.6266
▁oppo	-11.6266
▁warak	-11.6267
▁setel	-11.6267
▁engaged	-11.6267
▁choyo	-11.6267
▁papacakay	-11.6268
▁korto	-11.6268
EW	-11.6268
keroh	-11.6268
▁leak	-11.6268
pasalil	-11.6268
▁Yosi	-11.6268
ikeda	-11.6269
▁Macidal	-11.6269
▁slick	-11.6269
▁malaholol	-11.6269
apetohan	-11.6269
rib	-11.6269
gayngay	-11.6269
▁nipalamlam	-11.627
▁PU	-11.627
▁pililafa	-11.627
ngoha	-11.627
▁bitten	-11.627
silsil	-11.627
▁kakereng	-11.6271
etim	-11.6271
▁ruler	-11.6271
▁Dongi	-11.6271
▁macicih	-11.6271
▁potal	-11.6271
▁mafolaw	-11.6272
▁danger	-11.6272
patorod	-11.6272
SH	-11.6272
▁Sonay	-11.6272
▁Ayal	-11.6272
▁fakici	-11.6273
feng	-11.6273
▁kafes	-11.6273
▁presen	-11.6273
▁kapolong	-11.6274
▁miteka	-11.6274
▁differently	-11.6274
▁ciPiday	-11.6274
▁Sakalamkamen	-11.6275
▁simaanay	-11.6275
▁Taku	-11.6275
▁fitaol	-11.6275
▁roho	-11.6275
▁hedot	-11.6275
▁term	-11.6276
▁leading	-11.6276
▁suffering	-11.6276
▁Alacecay	-11.6276
▁hinata	-11.6276
▁caroh	-11.6276
▁nipicaliw	-11.6276
CON	-11.6276
mitted	-11.6276
Kaping	-11.6276
▁vataan	-11.6276
▁tangso	-11.6276
▁pipakaenan	-11.6277
▁selected	-11.6277
asowalsowal	-11.6277
▁adidik	-11.6277
▁chaw	-11.6277
sacr	-11.6278
Patefo	-11.6278
▁nipatekeran	-11.6278
▁Adek	-11.6278
ecak	-11.6278
▁cilemed	-11.6279
▁offering	-11.6279
kakoma	-11.6279
▁Hayken	-11.6279
▁stre	-11.6279
▁nikamelaw	-11.628
ims	-11.628
▁workers	-11.628
▁kawanan	-11.628
▁mamilo	-11.628
▁bowl	-11.6281
▁fig	-11.6281
▁terri	-11.6281
selen	-11.6281
▁tanameng	-11.6281
Fayan	-11.6281
spir	-11.6281
▁Caho	-11.6282
▁mahofoc	-11.6282
▁micacak	-11.6282
matiyatiya	-11.6282
▁salifon	-11.6283
▁maramod	-11.6283
▁milekal	-11.6283
▁mipatiked	-11.6283
inien	-11.6283
▁miilang	-11.6283
▁misipasip	-11.6283
ilawad	-11.6283
▁freely	-11.6283
▁potaw	-11.6283
▁pipafeli	-11.6284
cihi	-11.6284
▁parawraw	-11.6284
lalikit	-11.6285
▁Mipana	-11.6285
lasofitayan	-11.6285
shamed	-11.6285
tokal	-11.6285
▁mipacakay	-11.6285
▁kangdaway	-11.6286
▁pakakorisiway	-11.6286
▁adidiay	-11.6286
iff	-11.6286
▁Siko	-11.6286
manner	-11.6287
hah	-11.6287
▁Matata	-11.6287
milalo	-11.6287
shiwan	-11.6288
▁pitengil	-11.6288
▁pakafa	-11.6288
▁kanika	-11.6288
▁sapicomod	-11.6288
atomes	-11.6288
▁helip	-11.6289
▁mifadahong	-11.6289
fongen	-11.6289
emhem	-11.6289
▁simanay	-11.629
▁songet	-11.629
lakacaw	-11.6291
cies	-11.6291
▁lalen	-11.6291
▁fayi	-11.6291
imola	-11.6292
xin	-11.6292
▁inaci	-11.6293
▁salipa	-11.6293
▁Hok	-11.6293
▁concerning	-11.6293
▁mafon	-11.6294
IPAOSA	-11.6294
omoal	-11.6295
tenon	-11.6295
acic	-11.6295
▁inhabited	-11.6295
▁evident	-11.6295
halate	-11.6296
pire	-11.6296
▁mirakat	-11.6297
▁pest	-11.6297
▁burdens	-11.6297
▁beach	-11.6298
▁masenger	-11.6298
edohan	-11.6298
▁ideas	-11.6299
▁mapili	-11.6299
▁rules	-11.6299
engal	-11.63
▁marari	-11.63
▁Ngayaw	-11.63
tsts	-11.63
▁salahok	-11.6301
▁nilepel	-11.6301
▁mataneng	-11.6301
siikoray	-11.6302
▁Malow	-11.6303
cavi	-11.6303
papadang	-11.6303
ikaen	-11.6304
▁lateng	-11.6304
▁Tatala	-11.6304
▁mahem	-11.6304
▁endur	-11.6305
linko	-11.6305
▁lalo	-11.6305
pinen	-11.6306
▁Sifo	-11.6307
▁kacidal	-11.6307
▁ciraraw	-11.6307
▁persi	-11.6307
▁malecavay	-11.6308
tedal	-11.6309
asenat	-11.631
itavokod	-11.631
▁lawal	-11.631
▁interesting	-11.6311
moco	-11.6312
▁cilah	-11.6312
▁mipatikol	-11.6312
sive	-11.6312
▁tava	-11.6313
▁sarepet	-11.6313
▁kaying	-11.6313
akaway	-11.6314
▁totom	-11.6314
▁intim	-11.6314
▁Hamanan	-11.6314
ngřa	-11.6315
▁macidalay	-11.6315
cakatan	-11.6316
caliva	-11.6316
▁maoripay	-11.6316
▁misasing	-11.6317
BY	-11.6317
▁Mahel	-11.6317
tapal	-11.6317
talokan	-11.6318
▁ciinaan	-11.6318
▁failed	-11.6319
terik	-11.6319
kacawan	-11.632
hengangay	-11.632
kawili	-11.6321
▁Masef	-11.6322
gener	-11.6322
shaped	-11.6322
▁stumbled	-11.6322
▁tavo	-11.6322
onelan	-11.6325
▁taroh	-11.6326
arous	-11.6326
▁Tayan	-11.6327
langto	-11.6328
sincere	-11.6328
cowacowa	-11.6329
syangen	-11.6329
fadic	-11.633
▁mahete	-11.633
▁Malalifet	-11.633
▁compan	-11.6331
ham	-11.6331
▁sakora	-11.6332
▁pacacoy	-11.6333
coday	-11.6333
asic	-11.6333
▁lead	-11.6334
isoikor	-11.6334
▁aches	-11.6334
aven	-11.6335
▁wata	-11.6335
▁masiwi	-11.6336
▁Matena	-11.6336
▁TANDA	-11.6337
oteng	-11.6337
▁kohpic	-11.6337
pacoken	-11.6338
▁matoem	-11.6338
▁tafi	-11.6339
poton	-11.6339
tatoyen	-11.6339
▁cikawasay	-11.6339
ifully	-11.6339
lahod	-11.634
olsol	-11.634
▁mikin	-11.6341
cengaw	-11.6341
sided	-11.6342
cacakan	-11.6343
icaliw	-11.6344
atonek	-11.6346
▁Isra	-11.6347
▁mavak	-11.6348
▁katawa	-11.6348
▁famili	-11.6348
▁Har	-11.6349
▁spl	-11.635
▁Masara	-11.635
▁nikanga	-11.635
▁pointed	-11.6351
HE	-11.6351
silamala	-11.6352
lav	-11.6353
▁matilid	-11.6355
▁Hakelon	-11.6355
nisan	-11.6356
sinanot	-11.6356
aeket	-11.6358
tingas	-11.6358
▁sasingen	-11.6359
▁Kristoan	-11.6361
▁malina	-11.6363
▁mapiki	-11.6363
kng	-11.6364
▁coco	-11.6364
▁makalat	-11.6364
▁remin	-11.6364
▁hanging	-11.6366
▁Law	-11.6366
▁Kaor	-11.6366
▁affairs	-11.6367
▁attacks	-11.6367
▁commands	-11.6367
▁efforts	-11.6367
▁sofo	-11.6367
atelo	-11.637
▁Ipih	-11.637
▁kavi	-11.6372
▁mafe	-11.6375
▁koemi	-11.6376
▁cure	-11.6378
romot	-11.6378
▁siraw	-11.6379
▁kalomaan	-11.638
arayas	-11.6381
▁parok	-11.6381
ngangay	-11.6382
▁crying	-11.6382
emana	-11.6383
chach	-11.6384
kokay	-11.6385
BO	-11.6385
▁kasolimet	-11.6386
▁Mafoti	-11.6387
▁defen	-11.6387
▁War	-11.6388
THERS	-11.6389
deci	-11.6389
lalad	-11.6389
ifod	-11.6389
▁Alang	-11.6391
▁avovo	-11.6391
▁offer	-11.6392
▁san	-11.6393
raremed	-11.6393
▁kaikoray	-11.6393
▁matenesay	-11.6393
▁Masaf	-11.6394
milikat	-11.6394
vil	-11.6395
SU	-11.6395
▁inasani	-11.6395
liloc	-11.6397
▁papatay	-11.6399
▁jumping	-11.64
agay	-11.6401
▁trial	-11.6402
▁matoni	-11.6402
pararamod	-11.6403
▁pitatalaan	-11.6403
▁LEADER	-11.6405
▁siro	-11.6405
▁barked	-11.6405
mmer	-11.6405
key	-11.6409
▁sanengneng	-11.6409
gahaw	-11.641
▁sapafeli	-11.641
▁tale	-11.6411
vity	-11.6411
TAIN	-11.6412
AMA	-11.6413
▁tomerepay	-11.6413
mation	-11.6414
oraraw	-11.6416
HI	-11.6419
angil	-11.642
onian	-11.642
▁sakanga	-11.6423
anced	-11.6424
▁pisek	-11.6425
LL	-11.6425
tatiw	-11.6425
sayil	-11.6427
▁kasasisolo	-11.6429
wilang	-11.643
akatosa	-11.6431
lidong	-11.6431
▁kamaya	-11.6432
▁sorry	-11.6433
impo	-11.6434
▁Matele	-11.6434
kansi	-11.6436
unity	-11.6436
▁Christians	-11.6437
▁boys	-11.6437
▁Matek	-11.6437
alawidang	-11.6438
▁Br	-11.644
▁begg	-11.6442
▁listened	-11.6442
ysin	-11.6444
sakasak	-11.6444
▁Cal	-11.6446
▁Aci	-11.6447
pakokot	-11.6448
fahoy	-11.6452
etip	-11.6452
minco	-11.6453
takod	-11.6453
▁natala	-11.6455
▁dengan	-11.6456
ikal	-11.6462
▁waw	-11.6463
yaro	-11.6465
▁rarakat	-11.6467
nengel	-11.6469
▁pado	-11.647
▁taring	-11.6473
▁anosa	-11.6473
tepong	-11.6474
ttle	-11.6477
abi	-11.6478
▁helper	-11.6478
ngos	-11.6484
lag	-11.6487
fariw	-11.6492
efel	-11.6492
etot	-11.6495
▁pikili	-11.6497
micocok	-11.6499
cilosid	-11.6501
rarid	-11.6502
▁Tag	-11.6502
nitoro	-11.6503
viro	-11.6503
hiw	-11.6504
▁malikakaay	-11.6504
▁naayaw	-11.6505
▁seiz	-11.6505
▁begins	-11.6507
▁grapes	-11.6507
▁stalks	-11.6507
▁standards	-11.6507
▁happens	-11.6509
▁planting	-11.6509
▁keda	-11.6513
waken	-11.6513
aengad	-11.6514
▁bite	-11.6516
▁taten	-11.6517
▁Ey	-11.6518
olahay	-11.6522
▁Pala	-11.6522
▁makoli	-11.6526
▁stain	-11.6526
kien	-11.6527
ITA	-11.6528
eres	-11.6529
▁milili	-11.653
▁ciciw	-11.6531
NG	-11.6538
lawlaw	-11.6539
ISAL	-11.654
▁nisasin	-11.6549
engang	-11.6551
▁Paca	-11.6559
pots	-11.6561
acang	-11.6562
▁Pana	-11.6564
ATAN	-11.6566
▁mitola	-11.6573
▁case	-11.6573
lasang	-11.6575
▁Pator	-11.6577
syong	-11.6579
▁Tako	-11.658
hepicay	-11.6583
▁makolo	-11.6587
▁mamic	-11.6591
▁inva	-11.6591
▁auto	-11.6599
▁harvesting	-11.6601
cofay	-11.6602
lokan	-11.6605
pakaorad	-11.6607
▁Pin	-11.6607
ested	-11.6609
ngero	-11.6616
▁nice	-11.6617
▁Ipay	-11.6618
fag	-11.662
▁miri	-11.6622
▁Pace	-11.6627
greed	-11.6631
ncing	-11.6636
sowaren	-11.6641
aledo	-11.6643
expected	-11.6643
▁maset	-11.6646
▁malic	-11.6653
lalifetan	-11.6655
▁understanding	-11.6655
fair	-11.6656
▁vodoyan	-11.6662
ism	-11.6664
▁Maliyo	-11.6664
▁Cira	-11.6665
awara	-11.6666
asad	-11.6668
acawa	-11.6669
▁patakodo	-11.6669
▁Lahc	-11.667
▁sito	-11.667
tangsolen	-11.6677
▁hangay	-11.6686
ddle	-11.6692
▁milongc	-11.6693
apalo	-11.6699
patalaheka	-11.6702
▁Milal	-11.6713
pisasing	-11.6714
fok	-11.6716
nengay	-11.6718
▁jobs	-11.6723
ofic	-11.6726
achonshing	-11.6728
pararaw	-11.6729
▁pacali	-11.6736
▁Hati	-11.6739
etc	-11.674
▁veil	-11.6749
▁Ama	-11.6754
atawat	-11.6754
▁pakomoda	-11.6755
osok	-11.676
ntang	-11.6761
pahemek	-11.6763
fiw	-11.6765
▁resting	-11.6767
▁MID	-11.6771
▁miting	-11.6774
▁sata	-11.6775
ONE	-11.6777
cadiw	-11.6778
▁Matoka	-11.6782
▁padangay	-11.6784
▁hitay	-11.6785
▁Afterward	-11.6792
tual	-11.6792
▁dodoen	-11.6794
taheka	-11.6796
▁sasek	-11.6796
AP	-11.68
RST	-11.6803
▁bla	-11.6804
anini	-11.6805
sacacay	-11.6805
▁makaen	-11.681
valah	-11.6812
tatata	-11.6818
▁Aya	-11.6832
▁kasid	-11.6836
▁ye	-11.6838
ders	-11.685
masadak	-11.6851
edec	-11.6852
koki	-11.6853
▁tataro	-11.6857
ikaorira	-11.6859
isahalaka	-11.686
▁maten	-11.6861
raran	-11.6869
dalan	-11.6871
▁loto	-11.6872
arakat	-11.6876
cerem	-11.6876
▁nocila	-11.6881
keter	-11.6887
ierce	-11.689
TIC	-11.6892
▁bru	-11.6895
▁faint	-11.6896
▁mimaliay	-11.6899
▁Masapa	-11.6899
nengan	-11.6905
walay	-11.6907
ndaway	-11.6912
lofa	-11.6913
ngaday	-11.6918
awhani	-11.6919
lalitemo	-11.6921
kaolahen	-11.6929
saliyot	-11.693
▁tafoan	-11.6931
patilo	-11.6932
ssembly	-11.6933
▁Tara	-11.6935
▁Olay	-11.6935
ntain	-11.6948
▁miliwal	-11.6949
iyen	-11.696
sakada	-11.6962
yawsh	-11.6971
beam	-11.6979
pakelag	-11.6986
▁teka	-11.7003
▁prev	-11.7007
▁Pak	-11.7007
teken	-11.7009
lalitemoh	-11.7013
TAR	-11.7014
▁saosi	-11.7027
▁pacon	-11.7029
sera	-11.7042
▁cons	-11.7051
edah	-11.7052
enek	-11.7059
▁piliya	-11.7064
▁kongk	-11.7064
ocya	-11.7066
xing	-11.7069
alod	-11.7081
samaanan	-11.7084
laramod	-11.7086
▁sapita	-11.7102
▁saro	-11.7104
iraradiw	-11.7107
▁lawa	-11.7111
▁sons	-11.7116
▁henian	-11.7126
▁confe	-11.7127
edong	-11.7129
▁Makaka	-11.7132
kang	-11.7149
Sag	-11.715
▁halil	-11.7156
▁Marep	-11.7158
eeves	-11.7159
▁tatin	-11.7162
felay	-11.7171
xecuti	-11.7193
▁dripp	-11.7205
aseka	-11.7207
due	-11.7227
▁Nor	-11.7232
pahafay	-11.7234
ture	-11.7239
nikaw	-11.7245
▁Nakaw	-11.7265
ipafeli	-11.7279
▁cida	-11.7289
icaedong	-11.7291
aidahi	-11.7293
arocek	-11.7311
akakawt	-11.7319
alesay	-11.732
likes	-11.733
▁tatemi	-11.7332
▁Po	-11.7338
ledek	-11.736
▁trad	-11.736
▁Maseka	-11.7369
AG	-11.7372
rik	-11.7372
ariw	-11.7375
▁satahe	-11.7382
RIG	-11.7387
▁Pafal	-11.7387
▁Papipatiko	-11.7393
apawpaw	-11.7405
▁kongch	-11.7436
▁miho	-11.7444
▁tyaw	-11.7447
kul	-11.7448
ware	-11.748
▁max	-11.7495
▁Par	-11.7507
aref	-11.7521
Taw	-11.7524
▁Pito	-11.7549
rtun	-11.7574
▁Hamaan	-11.7577
cakat	-11.758
▁Masadakay	-11.7605
pasadakay	-11.7633
▁PAFEN	-11.7641
mapi	-11.7652
latek	-11.7656
isimsim	-11.7671
micada	-11.7675
pipacemot	-11.7677
▁mitipo	-11.7687
▁plo	-11.7702
▁Matay	-11.7709
▁palang	-11.771
pasetek	-11.7718
▁bicho	-11.7739
▁Magal	-11.776
▁Tatelo	-11.7764
▁accus	-11.7776
▁milime	-11.778
ct	-11.7781
tangalay	-11.7783
ilam	-11.7788
▁fohaten	-11.7811
▁Haman	-11.7818
▁kilemel	-11.782
enok	-11.7825
nstitution	-11.7837
lah	-11.7853
▁Kinat	-11.7856
▁karoh	-11.7859
roclaim	-11.7881
▁sakaemed	-11.7889
kopit	-11.7891
▁skinn	-11.7891
istress	-11.7906
▁ciki	-11.7945
heka	-11.7956
▁excel	-11.797
SS	-11.7972
▁pipat	-11.7984
BOR	-11.8005
▁exp	-11.8008
pitilid	-11.804
oda	-11.805
▁Miso	-11.8054
remed	-11.807
macheng	-11.8083
ties	-11.8089
▁pakaha	-11.8092
elel	-11.8098
▁apologiz	-11.8105
iti	-11.8106
▁fahek	-11.8109
ita	-11.8138
awang	-11.8145
dodem	-11.8148
▁talen	-11.8152
ALAW	-11.8162
▁ign	-11.8163
▁nipisa	-11.8176
kahikoki	-11.8211
safaloco	-11.8211
dadakaw	-11.8226
▁cap	-11.823
AYAN	-11.8243
hoso	-11.8259
▁Matif	-11.8278
▁hamaan	-11.8318
pple	-11.8353
▁Mapec	-11.8365
mokon	-11.8377
olin	-11.8385
▁ceme	-11.8397
▁Patir	-11.8403
▁pav	-11.8404
satis	-11.842
▁mipagalat	-11.8457
taangayay	-11.847
mera	-11.8487
▁maraayay	-11.8492
fide	-11.8495
cokar	-11.85
emse	-11.8508
ilic	-11.8513
sasowasowal	-11.8523
liso	-11.8533
OW	-11.8542
▁madadema	-11.8552
ciye	-11.858
▁tin	-11.8594
laholoholol	-11.8598
idakaw	-11.8648
▁Late	-11.8657
teked	-11.8707
echa	-11.8717
laholol	-11.8754
▁Matefa	-11.8784
▁believ	-11.8798
▁Maman	-11.8823
lemed	-11.8833
ipananom	-11.8835
takotakod	-11.8838
safalat	-11.8855
ikay	-11.8856
▁HA	-11.8885
dafak	-11.8886
telian	-11.8887
▁kakerema	-11.8931
safangcal	-11.8941
▁mihec	-11.8968
hearted	-11.8969
▁mapacek	-11.8993
▁vado	-11.9073
dakaw	-11.9075
sinavelan	-11.9102
gger	-11.9104
▁sapima	-11.9108
evan	-11.913
kiri	-11.9136
isatapang	-11.9141
▁Fol	-11.9142
isarayaray	-11.9144
nir	-11.9149
TA	-11.9156
sofoc	-11.9166
omangic	-11.9203
▁Afa	-11.921
dox	-11.9232
soeso	-11.9252
salalan	-11.9259
pilicay	-11.931
▁lalik	-11.9311
▁mikon	-11.9318
daan	-11.9319
tofa	-11.9331
sariko	-11.9361
TAPA	-11.9388
eigh	-11.9388
▁Matale	-11.9418
orrow	-11.9425
moho	-11.9479
▁GI	-11.9504
▁sakaha	-11.9537
▁simo	-11.956
hecad	-11.9578
odoc	-11.9612
ngra	-11.963
▁Tade	-11.9651
▁patih	-11.9669
atsa	-11.9733
▁pacina	-11.974
▁manag	-11.9773
iyaniya	-11.9789
▁mirepe	-11.979
INA	-11.9792
▁Maroh	-11.9804
▁Tahi	-11.9842
edit	-11.9861
mrep	-11.9866
mangic	-11.9877
▁lile	-11.9891
faled	-11.9947
raecos	-11.9957
olatek	-11.9962
lecapo	-11.9967
eka	-11.9979
▁mipaka	-11.9979
atepada	-11.998
haf	-12.0052
▁masamaamaa	-12.0062
piciw	-12.0076
akawit	-12.0094
akalah	-12.01
lasofitay	-12.0101
▁misalala	-12.011
▁Pated	-12.0113
lamo	-12.0162
samaamaan	-12.0171
▁paseva	-12.0176
ahowid	-12.019
stead	-12.0191
▁malali	-12.0216
▁Tahad	-12.024
kalalak	-12.0291
flame	-12.0323
▁Mati	-12.0329
macidal	-12.04
lihaw	-12.0496
giha	-12.0499
ger	-12.0533
tahekal	-12.0562
▁conf	-12.058
merc	-12.0616
sawad	-12.0624
cheng	-12.069
remes	-12.0691
knowing	-12.0718
ataper	-12.0721
tokinih	-12.0739
alengaw	-12.0739
▁Malinga	-12.0742
▁kateke	-12.0761
isapan	-12.0813
lalanan	-12.0836
▁Matara	-12.0839
▁rev	-12.0845
LIM	-12.0854
sasinavel	-12.0876
▁palafangca	-12.0901
▁indi	-12.0903
▁Misatap	-12.0931
lacafay	-12.0933
akani	-12.0936
▁dut	-12.0963
ngtong	-12.1022
angsi	-12.1055
lilen	-12.1092
nok	-12.1105
▁safita	-12.1115
▁padadak	-12.1143
YAN	-12.1151
kamo	-12.116
▁Citaf	-12.1223
▁LALA	-12.1224
adengal	-12.1255
akahikoki	-12.1256
angeli	-12.1263
EAS	-12.1268
roop	-12.1272
iholol	-12.1273
nik	-12.1278
pitakaw	-12.1323
▁namaka	-12.1341
amoday	-12.136
pakahay	-12.1404
ides	-12.1422
radiw	-12.1458
▁Masenge	-12.1464
ortun	-12.1488
▁excelle	-12.1496
lux	-12.1502
pecih	-12.1519
elep	-12.1529
▁Maleca	-12.1554
▁Tele	-12.1568
▁mistre	-12.1584
▁sapiti	-12.1587
ASA	-12.1612
claim	-12.1619
▁constitut	-12.1684
OM	-12.1765
▁rel	-12.1784
ination	-12.1804
iliso	-12.1821
▁Hama	-12.1844
velin	-12.185
▁rapi	-12.1881
loloay	-12.1908
fade	-12.195
▁manage	-12.1954
maamaan	-12.1956
raroco	-12.1965
▁miowa	-12.1971
okod	-12.1974
FENG	-12.1976
umb	-12.1998
ough	-12.2006
▁viol	-12.2045
olsak	-12.2045
▁sapilep	-12.2079
DAY	-12.2079
▁sapacaka	-12.2134
itingsa	-12.2136
▁Miliy	-12.2222
▁misateke	-12.2227
katefad	-12.2237
reping	-12.224
▁Micora	-12.2242
\	-12.2247
allow	-12.2304
▁pinengne	-12.2333
▁CiPi	-12.2337
hatini	-12.2481
▁kapit	-12.2482
IGHT	-12.2492
caliwan	-12.25
lar	-12.2573
▁sapata	-12.2583
chengsh	-12.2594
▁Molo	-12.26
sakahengang	-12.2612
malale	-12.2613
▁Poh	-12.2727
▁halaf	-12.2732
ound	-12.2754
OHA	-12.277
vovo	-12.2783
rete	-12.2828
▁liv	-12.2849
▁13	-12.2851
cu	-12.2871
MO	-12.2872
widang	-12.2879
kakawt	-12.2883
lafang	-12.2889
▁mahapina	-12.2914
▁Mamana	-12.2921
comikay	-12.2938
capo	-12.2955
mokte	-12.2962
comod	-12.2965
mipod	-12.297
mika	-12.2996
ilid	-12.3055
hcalay	-12.3064
▁mateke	-12.3067
Mar	-12.3073
koliciw	-12.3075
kafong	-12.3075
▁paec	-12.3078
Loma	-12.308
diheko	-12.3081
kadit	-12.3084
likoda	-12.3086
▁mipakela	-12.3086
fess	-12.3086
lafi	-12.3094
healthy	-12.31
Ripon	-12.31
tanestes	-12.31
kafalawfawan	-12.31
remiremiad	-12.31
vadahong	-12.31
kaketi	-12.31
pitakcian	-12.31
malasingsi	-12.31
sasorit	-12.31
makavaso	-12.3102
kilag	-12.3103
Lapic	-12.3103
organiz	-12.3104
misa	-12.311
mangataay	-12.3112
takolaw	-12.3112
madademec	-12.3115
cleaning	-12.312
birth	-12.3122
responsive	-12.3122
pangcah	-12.3122
Amoy	-12.3122
karireng	-12.3122
Taloma	-12.3123
kinatosa	-12.3123
kick	-12.3133
fanges	-12.3135
kafang	-12.3135
7	-12.3136
pipitpit	-12.3136
collect	-12.3137
tiyad	-12.3137
fonos	-12.3138
Awa	-12.3139
miki	-12.3143
patedo	-12.3143
Right	-12.3145
clear	-12.3145
mipacok	-12.3145
lavii	-12.3146
filled	-12.3146
tadem	-12.3148
tamowan	-12.315
faliyos	-12.3152
Taypak	-12.3152
distance	-12.3152
chief	-12.3153
fangsis	-12.3154
salil	-12.3154
wadis	-12.3156
masamaan	-12.3158
karoray	-12.3158
katayalan	-12.3158
respond	-12.3159
mitangtang	-12.316
haci	-12.3161
kalaeno	-12.3161
broken	-12.3162
give	-12.3163
agreed	-12.3163
Fotod	-12.3166
Hongay	-12.3166
kiyafes	-12.3166
correct	-12.3166
hakhak	-12.3166
kofaw	-12.3167
heart	-12.3168
Panay	-12.3169
lalosidan	-12.3169
romadiw	-12.3169
taneng	-12.3169
stream	-12.3171
mifa	-12.3171
kiyami	-12.3172
Tala	-12.3172
▁saliyo	-12.3174
fakar	-12.3174
3	-12.3175
malingaday	-12.3177
papotal	-12.3177
mark	-12.3178
Taiwan	-12.3178
cacodadan	-12.3178
kawkaw	-12.3178
happy	-12.3179
sapisorit	-12.318
sepat	-12.318
boar	-12.3181
chiyo	-12.3181
Doci	-12.3182
spring	-12.3182
[	-12.3183
vayi	-12.3184
finawlan	-12.3185
miliyaw	-12.3185
mapolong	-12.3187
children	-12.3188
Why	-12.3189
wood	-12.319
Take	-12.319
fafoy	-12.319
grandmother	-12.319
fongoh	-12.3191
mimali	-12.3191
impic	-12.3192
kind	-12.3192
ociya	-12.3194
Kolas	-12.3195
Itira	-12.3196
together	-12.3196
what	-12.3196
midangoy	-12.3197
you	-12.3199
That	-12.3199
misanga	-12.32
but	-12.32
pakalic	-12.3202
Let	-12.3202
Nga	-12.3203
safaw	-12.3203
cangra	-12.3203
pasowal	-12.3204
kakarayan	-12.3204
their	-12.3205
Iraay	-12.3207
God	-12.3208
payso	-12.3208
pacaliwen	-12.3209
talakal	-12.321
mitilid	-12.3211
when	-12.3215
miholol	-12.3216
miliso	-12.3222
meat	-12.3223
pack	-12.3224
own	-12.3227
inted	-12.3229
front	-12.3231
Don	-12.3232
alty	-12.3234
▁Patol	-12.3243
yawc	-12.3246
lafii	-12.325
name	-12.3253
ikilim	-12.3256
wama	-12.3256
Aka	-12.3269
wina	-12.3273
Th	-12.3274
cima	-12.3277
▁Safa	-12.3284
sasela	-12.3295
▁miliwa	-12.3296
ution	-12.3305
panokay	-12.3307
have	-12.3307
CALL	-12.3308
hai	-12.3318
kaorira	-12.3319
plain	-12.334
▁nipita	-12.3373
palafang	-12.3399
kilim	-12.3406
▁mivala	-12.341
miala	-12.3438
riyar	-12.348
pping	-12.3488
▁mareme	-12.3494
milala	-12.3497
cingra	-12.3501
possible	-12.3516
padang	-12.3521
▁Masiw	-12.3529
henac	-12.354
tosor	-12.3553
▁machon	-12.3559
lengat	-12.3567
lted	-12.3585
▁BA	-12.3588
pateli	-12.3593
raraya	-12.3609
kemaen	-12.3617
pped	-12.3626
apimaan	-12.3633
▁Savang	-12.3644
▁Tahe	-12.366
pron	-12.3664
romakat	-12.37
asik	-12.3701
nanoma	-12.3706
galaway	-12.3714
iniyan	-12.3717
dev	-12.3724
emic	-12.3741
taga	-12.3749
bund	-12.3778
▁mitegi	-12.3778
▁Lah	-12.3789
▁Pacak	-12.3802
torod	-12.3813
aysin	-12.3822
TIN	-12.3833
▁vohec	-12.3853
ngshi	-12.3867
▁Misaroma	-12.3875
AGAYAT	-12.3883
wti	-12.3897
apadang	-12.3902
▁mangale	-12.3905
mash	-12.3916
iradom	-12.3926
kafilo	-12.3932
▁Malipaha	-12.3967
▁matastas	-12.399
▁sakacipina	-12.3993
icomodi	-12.3993
other	-12.3996
TI	-12.3999
▁tingal	-12.4012
kodak	-12.4038
▁parar	-12.405
LING	-12.4052
Aw	-12.4058
▁dadip	-12.4076
lamkamen	-12.4082
▁MISA	-12.4085
isafela	-12.4089
ecut	-12.4096
ocia	-12.4096
mifotig	-12.4097
citing	-12.4098
liyon	-12.4104
rough	-12.4108
karkar	-12.4109
lamen	-12.4134
anengan	-12.4141
▁Pati	-12.4145
meday	-12.4148
▁tact	-12.4151
▁hara	-12.4154
▁misalam	-12.4156
saselar	-12.4158
▁Mafeka	-12.4164
sasinga	-12.4167
X	-12.4569
我	-12.4578
。	-12.4578
一	-12.4578
你	-12.4578
去	-12.4578
起	-12.4578
跟	-12.4578
那	-12.4578
Z	-14.3016
*	-14.3017
$	-14.3018
J	-14.3019
z	-14.302
j	-14.3021
(	-14.3022
F	-14.3023
R	-14.3024
