<pad>	0
<unk>	0
<s>	0
</s>	0
<2pwn>	0
<2zh>	0
▁	-1.71755
▁a	-3.31137
,	-3.69139
.	-4.03341
。	-4.20927
?	-4.55858
的	-4.58506
▁na	-5.00649
▁toa	-5.07247
an	-5.10441
▁no	-5.11513
▁ta	-5.15736
▁tja	-5.36832
i	-5.42308
o	-5.45338
▁i	-5.48399
'	-5.49347
是	-5.55373
▁aya	-5.58054
▁sa	-5.58555
!	-5.59357
了	-5.62196
▁ti	-5.64411
a	-5.69737
▁anga	-5.72888
▁izoa	-5.80825
▁ko	-5.81049
▁azoa	-5.81756
有	-5.87078
▁ka	-5.89483
在	-5.90021
我	-5.91371
我們	-6.01079
en	-6.04559
e	-6.07478
▁ma	-6.08128
▁aico	-6.10051
▁so	-6.13099
嗎	-6.14685
▁aken	-6.1588
▁to	-6.1642
▁ki	-6.18003
▁si	-6.24322
▁noa	-6.24365
▁son	-6.25599
anga	-6.25943
"	-6.29521
▁kina	-6.3115
說	-6.3603
、	-6.36355
ko	-6.40404
▁oi	-6.41846
不	-6.44656
▁lja	-6.48566
▁itjen	-6.49773
▁aza	-6.50933
▁timadjo	-6.51173
會	-6.51235
▁ori	-6.51811
要	-6.5198
▁pa	-6.52127
你	-6.5213
▁ni	-6.52235
▁nia	-6.53742
ka	-6.56607
時	-6.56683
li	-6.58234
q	-6.60621
到	-6.62721
就	-6.64191
▁我	-6.64496
他	-6.65786
人	-6.65927
n	-6.67417
▁ika	-6.68307
▁aravac	-6.68563
▁'	-6.68802
來	-6.70645
▁sema	-6.72185
ng	-6.75314
▁inika	-6.7644
去	-6.76602
▁你	-6.76723
對	-6.77294
lo	-6.77501
▁toco	-6.77993
很	-6.80435
▁se	-6.80756
▁vovo	-6.82416
in	-6.82444
▁vaik	-6.82996
一	-6.83694
▁avan	-6.85255
nga	-6.86004
子	-6.86085
ki	-6.86324
▁我們	-6.87469
用	-6.87524
▁za	-6.87858
和	-6.89854
▁amen	-6.90667
so	-6.91235
上	-6.91673
▁nimadjo	-6.93766
▁kama	-6.94042
si	-6.94547
他們	-6.9578
g	-6.96204
;	-6.97618
▁po	-6.97891
沒有	-6.97955
sa	-6.97996
/	-6.98732
ma	-6.99039
tja	-7.00643
lja	-7.01894
na	-7.02165
▁saka	-7.02956
▁ken	-7.04092
好	-7.0448
ta	-7.05608
lj	-7.0821
▁kaka	-7.10164
aw	-7.11027
大	-7.11059
▁ljakoa	-7.12303
va	-7.13222
被	-7.13528
地	-7.14585
▁tiamadjo	-7.14764
▁anema	-7.15199
都	-7.16294
y	-7.16639
▁tazoa	-7.16838
▁o	-7.16853
la	-7.17635
k	-7.1866
u	-7.19567
l	-7.19577
v	-7.20455
qo	-7.20837
▁maka	-7.21649
著	-7.23088
部落	-7.23621
▁"	-7.2415
▁qinaljan	-7.2476
做	-7.25722
lji	-7.25788
co	-7.26151
也	-7.26214
za	-7.2645
ing	-7.27396
▁pasa	-7.27502
pa	-7.28047
▁mareka	-7.29041
小	-7.29343
▁ota	-7.29743
▁katoa	-7.31708
w	-7.32478
為	-7.3276
po	-7.33273
zoa	-7.34068
▁mano	-7.34445
▁ini	-7.34652
▁pai	-7.36
m	-7.36306
ro	-7.36405
吃	-7.36818
ci	-7.37581
vo	-7.37625
▁neka	-7.37778
r	-7.38032
可以	-7.38194
mo	-7.38233
從	-7.38248
ri	-7.38928
▁sini	-7.39029
把	-7.39119
▁sika	-7.39543
▁nama	-7.39605
qa	-7.39786
那	-7.40155
...	-7.40577
我們的	-7.40839
t	-7.42984
▁caocao	-7.45051
▁men	-7.45649
所	-7.45748
呢	-7.46173
帶	-7.46754
dj	-7.46788
▁他	-7.46914
c	-7.47605
她	-7.47617
av	-7.48263
~	-7.49309
▁vavayan	-7.49843
▁然後	-7.50025
這	-7.5017
ti	-7.50804
過	-7.50982
我的	-7.51158
ya	-7.52045
ljo	-7.52882
下	-7.53174
已經	-7.53862
:	-7.53881
你們	-7.53976
這樣	-7.54037
▁kemasi	-7.54105
▁zoa	-7.54508
se	-7.54838
d	-7.54907
水	-7.5606
mi	-7.56064
▁tjai	-7.56121
ga	-7.56122
▁co	-7.56416
▁mon	-7.56973
▁niamadjo	-7.5737
長	-7.57886
em	-7.57947
▁seman	-7.60077
後	-7.60693
什麼	-7.60778
看	-7.61029
」	-7.61215
▁ita	-7.61389
▁tjen	-7.61661
▁anan	-7.61772
oi	-7.61796
▁qa	-7.6196
▁tima	-7.63012
s	-7.63443
ay	-7.6349
pi	-7.63535
▁makaya	-7.65074
▁ao	-7.65091
▁imaza	-7.65257
家	-7.65509
的人	-7.66323
▁aljak	-7.67113
p	-7.67625
▁ngadan	-7.67652
▁kata	-7.68687
這個	-7.68779
媽媽	-7.69149
就是	-7.69724
「	-7.70073
之	-7.70075
▁paka	-7.70206
▁tji	-7.70792
再	-7.71205
開	-7.71726
▁pacon	-7.72028
山	-7.72771
▁pay	-7.72773
叫	-7.73808
▁sinsi	-7.73932
中	-7.74374
樹	-7.74488
而	-7.7468
吧	-7.7517
生	-7.7573
tjo	-7.75796
vi	-7.75995
to	-7.7653
▁cavilj	-7.7653
ce	-7.78097
▁maqati	-7.78733
no	-7.78777
多	-7.78845
在哪裡	-7.79107
dra	-7.79241
與	-7.80514
▁pina	-7.80663
因為	-7.80833
頭	-7.80843
el	-7.80935
▁tjara	-7.81114
:「	-7.81305
me	-7.81454
▁omaq	-7.8171
lje	-7.81916
ca	-7.82541
還	-7.83483
▁angata	-7.83573
▁e	-7.83578
z	-7.83637
小米	-7.84097
心	-7.84569
事	-7.84657
▁sakamaya	-7.84773
當	-7.85218
又	-7.85347
-	-7.85728
跟	-7.86404
▁ro	-7.86479
得	-7.8666
種	-7.86991
te	-7.8709
出	-7.87139
▁qadaw	-7.87229
請	-7.87285
▁所以	-7.87472
的時候	-7.87537
▁olja	-7.87618
天	-7.88029
年	-7.88231
之後	-7.88499
▁tjalja	-7.88597
想	-7.88934
分	-7.89723
往	-7.90398
nan	-7.90431
▁ca	-7.90503
go	-7.91691
工作	-7.9174
老	-7.91762
▁tjomaq	-7.92408
那個	-7.93032
▁那	-7.93107
啊	-7.93157
da	-7.93476
▁qao	-7.94201
ini	-7.94354
▁taza	-7.94397
▁sicoayan	-7.94514
們	-7.9453
▁kasicoayan	-7.94925
最	-7.95157
djo	-7.95663
▁keman	-7.95912
yan	-7.97101
走	-7.97122
爸爸	-7.9778
手	-7.98318
gi	-7.98347
zi	-7.99305
on	-7.99351
▁mare	-7.99443
▁maya	-7.99624
將	-8.00022
現在	-8.00086
van	-8.00444
ao	-8.00695
放	-8.0087
▁kai	-8.00915
▁mavan	-8.00947
一個	-8.01085
及	-8.01383
給	-8.0175
成	-8.02243
煮	-8.02729
tj	-8.02819
非常	-8.03016
▁ako	-8.03044
▁如果	-8.03696
▁這是	-8.0409
do	-8.04181
很多	-8.04351
▁tia	-8.05431
裡	-8.06162
住	-8.06244
先	-8.06898
就會	-8.07183
排灣族	-8.07454
es	-8.07714
▁masan	-8.08288
以	-8.08579
ken	-8.0862
ang	-8.08743
不會	-8.08765
qi	-8.09014
anan	-8.09242
▁namaya	-8.09268
▁pida	-8.0967
▁ramaljemaljeng	-8.10041
zo	-8.11075
拿	-8.11115
起	-8.11265
這些	-8.11779
aya	-8.11965
▁kini	-8.12185
▁aw	-8.12858
喜歡	-8.12997
▁mapoljat	-8.13265
▁kadjonangan	-8.13785
不是	-8.14578
打	-8.14597
▁gado	-8.14945
沒	-8.14965
▁kemoda	-8.14968
看到	-8.1534
老師	-8.15372
或	-8.15853
開始	-8.16323
回家	-8.16379
▁vaqo	-8.16528
▁sipa	-8.16745
▁kakodan	-8.17723
等	-8.17816
valj	-8.18603
▁nangoaq	-8.18638
教	-8.18796
處	-8.18896
包	-8.18955
ai	-8.19026
▁pi	-8.19194
草	-8.19485
▁tjengelay	-8.19599
還有	-8.1993
風	-8.19989
kan	-8.20465
新	-8.20543
讓	-8.20606
."	-8.20699
你的	-8.20935
▁qivo	-8.20937
買	-8.21118
妳	-8.21365
▁me	-8.21416
▁mana	-8.21893
▁sinan	-8.22015
▁qem	-8.22019
然後	-8.22031
外	-8.22163
▁masa	-8.22264
能	-8.22427
▁pazangal	-8.22817
izoa	-8.22942
ivo	-8.23004
的地方	-8.23049
問	-8.23175
母親	-8.23312
起來	-8.23315
芋頭	-8.23335
re	-8.23353
但是	-8.23789
所以	-8.24226
聽	-8.24571
▁ino	-8.25661
它	-8.25737
這裡	-8.26324
我要	-8.26458
▁但是	-8.26536
oa	-8.26619
men	-8.26797
不要	-8.26895
愛	-8.27047
自己	-8.27201
di	-8.27345
高	-8.2744
▁因為	-8.2786
malji	-8.27891
▁我的	-8.282
▁這	-8.28901
向	-8.28923
。」	-8.29603
alj	-8.30139
▁ravac	-8.30234
▁kana	-8.30237
▁mato	-8.30672
知道	-8.31159
man	-8.31281
錢	-8.31399
個	-8.31488
▁kipa	-8.32101
ong	-8.32143
頭目	-8.32564
▁vato	-8.32687
▁那個	-8.32951
還是	-8.33047
只有	-8.33088
一起	-8.33281
▁macaqo	-8.33376
一樣	-8.33535
san	-8.3354
▁tjorovo	-8.34037
▁itoa	-8.34156
▁nakoya	-8.35048
神	-8.35106
ola	-8.35408
▁sin	-8.35611
像	-8.367
女	-8.36903
▁liaw	-8.37206
這是	-8.37224
回	-8.37239
j	-8.37349
▁zaljom	-8.37642
老人家	-8.37662
過去	-8.37805
以前	-8.37868
▁kemeljang	-8.38269
▁mamazangiljan	-8.38372
dr	-8.38507
東西	-8.38618
才	-8.38769
我們要	-8.38944
是誰	-8.39246
大家	-8.39289
前	-8.39359
當時	-8.39421
▁tje	-8.39508
ni	-8.39746
▁toazoa	-8.39854
qaca	-8.3989
於	-8.40218
行	-8.40577
那些	-8.40626
▁pino	-8.40769
花	-8.4092
▁kati	-8.41219
各	-8.41415
菜	-8.41545
正在	-8.41618
ne	-8.41678
alja	-8.4187
家族	-8.42048
怎麼	-8.42164
▁maca	-8.42183
▁那是	-8.4221
我是	-8.42264
ali	-8.42571
▁siki	-8.42819
父親	-8.42822
魚	-8.42906
發	-8.43059
kay	-8.43073
兩	-8.43278
一直	-8.43934
動	-8.44241
▁kava	-8.44278
▁san	-8.44753
▁是的	-8.44858
若	-8.44892
取	-8.4491
ljan	-8.45451
▁amin	-8.45624
喔	-8.45659
▁inia	-8.45756
ding	-8.45827
快	-8.46167
族人	-8.46167
刀	-8.46358
到了	-8.46436
▁aicoa	-8.46626
朋友	-8.46806
使	-8.46824
受	-8.46911
ngan	-8.46949
村	-8.47035
▁kakedrian	-8.47552
他的	-8.47618
▁lima	-8.47676
意	-8.47703
但	-8.47754
結婚	-8.47773
如果	-8.47786
pacon	-8.48151
rava	-8.48436
olj	-8.48453
▁gakko	-8.48678
al	-8.48812
aq	-8.49249
oma	-8.49252
者	-8.49829
▁qo	-8.49859
▁dja	-8.49867
veli	-8.49922
比較	-8.50058
送	-8.50328
可	-8.50385
lang	-8.5047
常	-8.50589
▁sao	-8.50653
地瓜	-8.51158
▁請	-8.51165
▁namasan	-8.51467
三	-8.52027
如	-8.5208
▁kakedriyan	-8.52125
kai	-8.52711
點	-8.52745
▁paiso	-8.52768
火	-8.52824
▁oli	-8.5295
作	-8.53088
wa	-8.53351
avan	-8.53405
都是	-8.53534
啦	-8.53907
▁varong	-8.53993
▁kitolo	-8.54193
▁yo	-8.54374
木	-8.54472
itjen	-8.54587
▁atja	-8.55709
氣	-8.5581
nge	-8.55852
您	-8.55869
掉	-8.55874
▁taico	-8.5599
情	-8.56192
▁kasiv	-8.56212
▁mangetjez	-8.56348
並	-8.56406
物	-8.56581
▁drosa	-8.56638
▁matjaljaljak	-8.56683
一些	-8.56704
madjo	-8.56866
自	-8.56975
▁kalja	-8.57104
生活	-8.57114
tjen	-8.57245
▁ven	-8.57414
ar	-8.57436
話	-8.57869
不能	-8.57903
希望	-8.58246
原住民	-8.58374
抓	-8.58546
▁他們	-8.58643
難	-8.587
以後	-8.58762
▁ljemita	-8.59053
也是	-8.59253
tje	-8.59264
已	-8.59626
位	-8.59747
相	-8.59755
公	-8.59821
流	-8.5983
▁bolay	-8.59836
哥哥	-8.59836
▁djalan	-8.59839
族	-8.59851
傳統	-8.60215
aljo	-8.60281
yo	-8.60313
日	-8.60515
力	-8.60602
禮	-8.60623
▁saigo	-8.60644
▁kasiw	-8.61181
▁但	-8.61678
口	-8.61801
狗	-8.61834
名	-8.61928
▁patje	-8.61936
ek	-8.62013
真的	-8.62035
▁masi	-8.62162
米	-8.62177
學	-8.62502
iya	-8.62511
tji	-8.62622
dai	-8.62804
king	-8.6294
正	-8.63006
malj	-8.6306
拉	-8.63095
▁tjanoson	-8.63102
▁paiwan	-8.63151
adav	-8.63264
tolo	-8.63352
dro	-8.63427
▁maro	-8.63519
學校	-8.63529
今天	-8.63553
▁patagilj	-8.63605
那裡	-8.63707
重	-8.63739
蓋	-8.63911
▁izaino	-8.63932
下雨	-8.63991
vava	-8.64081
隻	-8.64226
ino	-8.64241
ap	-8.64483
wan	-8.6463
因	-8.64636
那麼	-8.64769
製作	-8.64773
aken	-8.6488
部落的	-8.65127
▁ina	-8.65133
有人	-8.65601
vavaw	-8.6607
賣	-8.66461
elj	-8.66712
太	-8.66884
vavav	-8.66887
ev	-8.66951
velj	-8.67063
▁pinaka	-8.67293
ceng	-8.67333
▁tjanoaken	-8.67333
▁kema	-8.67357
▁aota	-8.67596
路	-8.67668
用來	-8.67733
oan	-8.67736
不知道	-8.67764
iyo	-8.67834
回來	-8.681
kaka	-8.68104
▁semo	-8.68125
稱	-8.68126
十	-8.68289
lai	-8.68409
eng	-8.68468
2	-8.68516
▁qali	-8.68764
kina	-8.68862
飯	-8.68894
▁namakoda	-8.68975
▁veneli	-8.68993
山豬	-8.69046
邊	-8.69084
▁sengsengan	-8.69448
找	-8.69472
ak	-8.6949
maza	-8.69549
▁palisi	-8.69626
dri	-8.69733
▁當	-8.69804
玩	-8.69933
▁kakanen	-8.69952
完成	-8.70084
山上	-8.70144
▁這個	-8.7025
▁qadav	-8.70276
ljav	-8.70318
▁oqaljay	-8.70355
▁maza	-8.70408
maya	-8.70593
酒	-8.70667
乾	-8.70747
好像	-8.70819
採	-8.70819
omaq	-8.70835
太陽	-8.7084
熱	-8.71002
▁madjo	-8.71083
同	-8.7109
接	-8.71646
石	-8.71692
入	-8.71714
牛	-8.71727
指	-8.71739
苦	-8.7174
由	-8.71791
▁你們	-8.71814
seng	-8.71984
立	-8.72312
葉	-8.72539
▁kaw	-8.72573
燒	-8.72646
在這裡	-8.72946
全	-8.73127
關於	-8.73193
平	-8.7346
出來	-8.73563
很好	-8.73914
如此	-8.73944
四	-8.73956
cekelj	-8.73985
tjomaq	-8.74317
唱歌	-8.7444
lan	-8.74448
如何	-8.74482
眼	-8.74483
paq	-8.74492
cio	-8.7453
ljang	-8.74683
▁tjelo	-8.74841
▁cawcao	-8.75006
雨	-8.7544
▁kola	-8.75457
ven	-8.75646
衣服	-8.75651
▁makoda	-8.75829
oc	-8.75992
▁現在	-8.762
遠	-8.76244
▁masalo	-8.7626
▁sikataqaljan	-8.76375
h	-8.76509
kodral	-8.76525
vang	-8.76619
使用	-8.76676
▁toki	-8.76776
門	-8.76906
▁izoanga	-8.77204
鳥	-8.77227
妹妹	-8.77302
▁mangtjez	-8.77311
獵	-8.77453
teko	-8.77697
▁tjo	-8.77741
pan	-8.77892
▁你的	-8.77947
聲	-8.7818
keljang	-8.78219
需要	-8.78295
yaw	-8.7847
▁cemas	-8.7847
下來	-8.78577
▁ayatoa	-8.78629
工	-8.7871
更	-8.78881
son	-8.79033
部	-8.7917
▁zoma	-8.79226
光	-8.79237
學習	-8.79251
ika	-8.79257
可能	-8.79444
進	-8.79455
cadja	-8.79876
身	-8.79945
tjan	-8.79983
vai	-8.80062
合	-8.80211
肉	-8.80217
ed	-8.80283
▁vavayavayan	-8.80471
的工作	-8.80514
ceme	-8.80787
os	-8.80983
奶奶	-8.81027
zang	-8.81051
比	-8.81191
布	-8.81193
古	-8.81201
▁penoljat	-8.81204
ho	-8.81617
kesa	-8.81758
▁noaya	-8.81911
lav	-8.82094
cikel	-8.82114
滿	-8.82184
▁vin	-8.82264
▁nazoa	-8.82663
▁papo	-8.82675
sang	-8.82732
▁ra	-8.82828
ngoangoaq	-8.8304
原	-8.83042
▁poloq	-8.83045
法	-8.83121
明	-8.8316
一定	-8.83186
依	-8.83199
背	-8.83203
tan	-8.83205
有很多	-8.83246
▁mapida	-8.83292
完	-8.83485
aljay	-8.8362
oli	-8.83708
nia	-8.83859
dji	-8.84018
亮	-8.84025
早	-8.84116
vililj	-8.84167
戴	-8.84206
▁taqaljaqaljan	-8.84279
面	-8.84347
toa	-8.84645
方	-8.84791
傳	-8.85065
▁qin	-8.85261
▁posaladj	-8.85314
▁payoan	-8.85319
▁vasa	-8.85335
▁ana	-8.85373
▁qoma	-8.85479
其他	-8.85726
屋	-8.85956
▁而	-8.86051
元	-8.86293
少	-8.86509
穿	-8.86582
誰	-8.86837
▁itong	-8.86867
alap	-8.8699
▁pana	-8.87082
定	-8.87206
▁vavoa	-8.87228
色	-8.87315
香	-8.87342
呀	-8.87343
▁maitazoa	-8.87346
只要	-8.87482
▁pena	-8.87536
mon	-8.88037
▁不要	-8.88204
腳	-8.8821
理	-8.88361
牠	-8.88368
裝	-8.88383
喝	-8.88384
兄弟姊妹	-8.88405
痛	-8.8874
類	-8.88908
siya	-8.89316
▁mi	-8.89362
此	-8.89375
待	-8.89441
準備	-8.89477
一點	-8.89611
從前	-8.89623
dje	-8.89645
▁cem	-8.89657
▁matazoa	-8.89721
甚麼	-8.89735
▁kin	-8.89974
地方	-8.90069
間	-8.90091
很大	-8.90101
性	-8.90152
土地	-8.90164
除	-8.90189
er	-8.90548
)	-8.9056
為什麼	-8.90845
鄉	-8.91126
▁ayain	-8.91315
男	-8.91357
toco	-8.91419
國	-8.915
每	-8.91577
祭	-8.91641
vuvu	-8.91665
離開	-8.91689
!」	-8.91928
▁不是	-8.92104
▁liyaw	-8.92133
唱	-8.92155
▁ari	-8.92245
謝謝	-8.92521
家裡	-8.92683
aca	-8.92718
根	-8.92764
▁kacalisian	-8.92764
跳舞	-8.92772
sodjo	-8.93108
soso	-8.93161
只	-8.93292
sia	-8.93363
儀式	-8.93376
書	-8.93462
落	-8.93469
▁matja	-8.93484
as	-8.93563
明天	-8.93629
rong	-8.93732
豬	-8.9382
▁nomaya	-8.94123
▁nase	-8.94405
▁ljema	-8.94452
應該	-8.9476
美	-8.94904
母	-8.94986
講	-8.94995
▁sengesengan	-8.95017
▁oqaljai	-8.95018
▁maqacovocovong	-8.95019
這麼	-8.9502
▁vorasi	-8.9502
放在	-8.95086
▁「	-8.95242
ok	-8.95276
讀書	-8.95383
其	-8.95466
lay	-8.95528
▁nekanga	-8.95594
他們的	-8.95779
來的	-8.95902
親	-8.96121
▁那些	-8.96161
▁qemaljop	-8.96166
別	-8.96215
▁kivangavang	-8.96699
▁paconan	-8.96729
▁vali	-8.96815
都會	-8.96903
▁她	-8.9705
paqenetj	-8.97255
刺	-8.97305
南	-8.9732
檳榔	-8.97321
連	-8.97323
場	-8.97324
▁min	-8.97441
真	-8.97451
1	-8.97603
pal	-8.97649
▁kinsa	-8.97702
vovo	-8.9773
djalj	-8.97808
這樣說	-8.97874
▁macidilj	-8.98093
內	-8.98143
ono	-8.98204
收	-8.98439
▁koljelje	-8.9844
園	-8.98464
通	-8.98476
種植	-8.98494
▁maljimalji	-8.98531
▁sito	-8.98671
▁以前	-8.98694
▁cemel	-8.98725
▁gem	-8.98749
▁ya	-8.98917
換	-8.991
▁maitoco	-8.99205
▁maso	-8.99347
▁cin	-8.99353
sin	-8.99359
別人	-8.99583
▁pini	-8.99594
無	-8.99666
球	-8.99669
服	-8.99669
舞	-8.99675
▁votjolj	-8.99683
獵物	-8.99688
▁salasaladj	-8.99693
坐	-8.99752
那時	-8.99767
kodain	-8.99804
▁liav	-8.99813
▁mori	-8.99817
▁kemaco	-8.99903
達	-8.99921
is	-9.00351
的衣服	-9.00559
ori	-9.0057
車	-9.00678
主	-9.00726
阿	-9.00862
跑	-9.00876
即	-9.00883
K	-9.00884
▁今天	-9.00918
▁malap	-9.00923
▁tjama	-9.00967
之前	-9.00969
▁namatazoa	-9.01111
▁malji	-9.01125
ako	-9.01137
▁yi	-9.01524
祖母	-9.02094
莫凱依	-9.021
姊姊	-9.02101
照顧	-9.02103
好嗎	-9.02269
cavilj	-9.02367
▁saqetjo	-9.02557
volj	-9.02579
▁tai	-9.02587
▁tema	-9.02621
opo	-9.02762
paca	-9.02802
od	-9.03089
keri	-9.03117
我會	-9.03208
洗	-9.03275
任何	-9.03334
▁semenay	-9.03335
ic	-9.03356
sangas	-9.03373
▁tjaivililj	-9.03399
▁tjaimadjo	-9.03415
day	-9.03456
keljan	-9.0354
poljo	-9.03753
也有	-9.03833
▁paki	-9.03878
不好	-9.03957
piya	-9.04105
昨天	-9.04214
然	-9.04366
▁ljako	-9.04436
哪裡	-9.04469
傷	-9.04538
怕	-9.0457
陷阱	-9.0457
度	-9.04571
▁tjoko	-9.04572
liyav	-9.04581
▁tjanoamen	-9.04584
經過	-9.04599
語言	-9.04787
▁kanen	-9.04788
papongadan	-9.04893
我們家	-9.04905
ljeng	-9.05041
coay	-9.05187
原來	-9.05222
ita	-9.05272
它的	-9.05482
兒	-9.05699
晚	-9.05729
皮	-9.05795
8	-9.05839
蛋	-9.05839
彼此	-9.05839
ico	-9.05872
dan	-9.0599
▁nanga	-9.06096
▁inoan	-9.06118
kim	-9.06191
死	-9.06418
我就	-9.06621
成為	-9.06738
nema	-9.06828
變	-9.06896
祖先	-9.07018
歌	-9.07083
▁manasika	-9.0714
▁valjaw	-9.07164
tazoa	-9.07364
▁poaljak	-9.074
數	-9.07523
dring	-9.07563
我爸爸	-9.07571
▁tiaken	-9.0777
▁那時	-9.07775
▁sangoaq	-9.07888
安	-9.0808
有關	-9.08237
▁lema	-9.08354
海	-9.08392
養	-9.08411
份	-9.08411
▁(	-9.08431
▁naza	-9.08573
部落族人	-9.08665
cek	-9.08815
後來	-9.08953
palisi	-9.09065
剛	-9.09089
月	-9.09438
品	-9.09697
5	-9.09702
祭祀	-9.09723
▁qayaqayam	-9.09723
▁namaitazoa	-9.09723
政府	-9.09723
石頭	-9.09783
記得	-9.09787
那裏	-9.09814
sopo	-9.09835
galjo	-9.09977
yi	-9.09992
koda	-9.10254
aljan	-9.10327
是用來	-9.10358
tjez	-9.10413
解	-9.10513
女生	-9.10879
▁ayaing	-9.1094
量	-9.11018
oba	-9.1102
業	-9.11037
靈	-9.11045
沙	-9.1105
倒	-9.11051
湯	-9.11051
雞	-9.11052
長輩	-9.11054
▁gako	-9.11321
條	-9.11659
▁tjema	-9.11673
ot	-9.11692
那是	-9.11741
睡覺	-9.11767
eleng	-9.11799
時間	-9.11831
次	-9.11885
pai	-9.12095
人們	-9.12122
koya	-9.12175
二	-9.12374
drosa	-9.12378
amaya	-9.12387
筆	-9.12399
▁paqolid	-9.1242
zoko	-9.12434
文化	-9.12519
qodjalj	-9.12569
一個人	-9.1268
一次	-9.12766
▁tjasi	-9.13023
想要	-9.13296
道	-9.13455
qan	-9.13474
kiljivak	-9.13509
▁他是	-9.13524
我們會	-9.13535
卻	-9.13763
強	-9.13764
▁kirimo	-9.13765
kuljelje	-9.13766
▁kemesa	-9.13767
無法	-9.13781
做什麼	-9.13789
etj	-9.13849
ljai	-9.13896
共	-9.14183
▁pocekelj	-9.14304
代	-9.14423
?」	-9.14457
ilj	-9.14476
▁因此	-9.14502
▁kisa	-9.14608
深	-9.14697
!"	-9.14716
家人	-9.15022
食	-9.15079
▁masengseng	-9.15148
天氣	-9.15196
yanga	-9.15255
▁kinemenem	-9.15395
iyav	-9.15428
語	-9.15824
那樣	-9.15847
借	-9.15847
在那裡	-9.15891
tjeng	-9.16141
at	-9.16324
qaq	-9.16365
房子	-9.16381
感	-9.16412
加	-9.16428
不同	-9.16478
油	-9.16551
冷	-9.16551
配	-9.16552
▁kalevelevan	-9.16552
幫忙	-9.16556
▁qiljas	-9.16562
kong	-9.167
or	-9.16837
▁taota	-9.16862
▁kem	-9.16964
vec	-9.17153
五	-9.17155
▁namayatazoa	-9.17159
pu	-9.17716
婚	-9.17928
清	-9.17973
挖	-9.17975
蛇	-9.17975
▁tjanoitjen	-9.17992
我有	-9.18176
我可以	-9.18186
nangoaq	-9.18253
▁kasi	-9.18378
▁kivadaq	-9.1865
▁qe	-9.18849
▁izoanan	-9.18853
nasi	-9.18954
認	-9.19081
▁mazazangiljan	-9.19266
olja	-9.19338
世	-9.1936
望	-9.19411
堆	-9.19415
砍	-9.19418
4	-9.19419
好了	-9.19494
以及	-9.1952
taladj	-9.19578
▁maleva	-9.19595
▁kisan	-9.19613
var	-9.19651
▁vaiki	-9.19834
zowa	-9.19914
群	-9.2001
祖父	-9.20054
▁dri	-9.20274
的是	-9.20516
的話	-9.20781
醫生	-9.20805
努力	-9.20885
猴子	-9.20887
▁男名	-9.20889
vac	-9.20899
進行	-9.20918
就可以	-9.21004
qepo	-9.21262
oq	-9.21342
為了	-9.21348
▁sinipa	-9.21352
▁就是	-9.21583
▁naki	-9.21659
paveli	-9.21812
▁kiso	-9.22178
全部	-9.22273
離	-9.22315
隨	-9.22338
建	-9.22354
sisilj	-9.22379
lava	-9.22629
關	-9.22665
▁siho	-9.22697
ljaw	-9.22826
▁tjavolong	-9.22832
ngoa	-9.22884
的生活	-9.23064
田	-9.23101
結	-9.23574
一定會	-9.23636
vat	-9.23761
▁patja	-9.23796
信	-9.23846
提	-9.23861
飛	-9.2387
該	-9.2388
越	-9.23881
權	-9.23881
弟弟	-9.23882
▁qodjidjilj	-9.23885
▁qemodjalj	-9.23889
▁kisamolja	-9.23908
kedrikedri	-9.23912
是用	-9.23917
oro	-9.23922
動物	-9.23923
▁niya	-9.24224
▁tapoloq	-9.24232
▁marka	-9.24454
兩個	-9.24524
▁tjao	-9.24761
的孩子	-9.24824
▁zemoga	-9.2497
▁vaika	-9.25067
▁mata	-9.25137
▁老師	-9.25195
回去	-9.25239
在家	-9.25268
空	-9.25375
電	-9.25388
設	-9.25391
利	-9.25409
povaljaw	-9.25415
vala	-9.25418
▁vavoy	-9.2542
是我們	-9.25437
▁mayatoco	-9.25464
eci	-9.25469
▁semopo	-9.25554
▁qovalj	-9.25566
▁tjaljaljak	-9.25658
valit	-9.25768
▁tiamen	-9.25831
的事	-9.25919
你看	-9.26054
▁ljaki	-9.26152
因此	-9.2616
的東西	-9.26352
keljo	-9.26388
pen	-9.26421
▁ha	-9.26486
ljat	-9.26585
田裡	-9.2663
ima	-9.26892
kit	-9.26928
照	-9.26952
實	-9.26964
哭	-9.26969
彩	-9.2697
cevong	-9.26983
▁qadjaw	-9.26989
▁polingaw	-9.26989
kez	-9.27
▁sacemel	-9.27202
病	-9.2723
▁macay	-9.27281
volong	-9.2767
▁ama	-9.27781
etjo	-9.27953
▁sipo	-9.28095
gado	-9.28102
ljing	-9.28345
孩子們	-9.2843
日本	-9.28446
近	-9.28506
材	-9.28525
屬	-9.28529
集	-9.28529
kem	-9.2853
體	-9.28533
採收	-9.28533
較	-9.28535
北	-9.28543
笑	-9.28551
休息	-9.28552
木材	-9.28571
▁masolem	-9.28601
晚上	-9.28676
▁pasemalav	-9.28691
▁madrosa	-9.28832
▁vano	-9.28974
一下	-9.29031
是什麼	-9.2919
哪	-9.29209
iyan	-9.29233
形	-9.29287
qem	-9.29421
▁tjaocikel	-9.295
排灣	-9.29593
▁kedri	-9.29706
竹	-9.30048
白	-9.30091
林	-9.30109
曬	-9.3014
cengelj	-9.30156
狀	-9.30157
▁Moakay	-9.30157
咬	-9.30157
烤	-9.30157
臉	-9.30157
台灣	-9.30158
覺得	-9.30167
ljis	-9.30215
▁senai	-9.30239
很久	-9.3029
▁ke	-9.30294
▁inianga	-9.30316
那時候	-9.30326
自己的	-9.3039
▁djemaljon	-9.30409
▁tjoma	-9.30494
▁結果	-9.30529
sika	-9.30596
azoa	-9.30691
▁kinaco	-9.30729
tjai	-9.30777
交	-9.30887
▁sem	-9.30892
便	-9.30941
整	-9.31036
▁komalji	-9.31088
amen	-9.31125
方式	-9.31141
居	-9.31175
▁kacalisiyan	-9.31299
久	-9.31453
▁vena	-9.31467
本	-9.31524
習慣	-9.31579
上的	-9.31594
ngata	-9.31672
記	-9.31702
約	-9.31707
運	-9.31743
轉	-9.31789
未	-9.3179
vosam	-9.31793
節	-9.31863
學生	-9.31871
▁kivala	-9.32045
▁mapa	-9.32244
帶著	-9.3225
長大	-9.32256
olo	-9.3232
▁saljinga	-9.32791
sasaw	-9.32839
的時間	-9.33049
▁tjano	-9.3308
排灣族人	-9.33109
mayatazoa	-9.33213
願	-9.33423
綁	-9.3345
▁sonatj	-9.33453
家庭	-9.33571
互相	-9.33573
上學	-9.33634
gong	-9.33716
▁ljaceng	-9.33784
▁inianan	-9.33819
好多	-9.33858
▁nemanga	-9.33974
打獵	-9.34001
剛剛	-9.34066
▁我們就	-9.34194
塊	-9.34226
獵人	-9.34257
kaco	-9.34267
見	-9.34736
▁pata	-9.34789
▁tosa	-9.35091
黑	-9.35093
承	-9.35123
3	-9.35129
嫁	-9.35138
八	-9.35138
▁sevalitan	-9.35138
回答	-9.35146
身體	-9.35153
帽子	-9.35159
為何	-9.35181
竹子	-9.35191
▁kinaizoanan	-9.35256
▁taqed	-9.35304
ayan	-9.35307
是這樣	-9.35601
有一個	-9.3561
所有	-9.35742
mang	-9.35801
就是這樣	-9.35812
▁qaw	-9.35821
ol	-9.35839
lala	-9.35919
long	-9.36139
zaya	-9.36171
要去	-9.36181
vaik	-9.36261
種的	-9.36371
▁sana	-9.36418
歲	-9.36483
就像	-9.36564
▁tem	-9.36576
具	-9.36816
特	-9.36841
7	-9.36854
則	-9.36854
貴族	-9.36864
父母親	-9.3688
女兒	-9.36886
▁siaya	-9.36919
走路	-9.36925
▁lin	-9.36995
來了	-9.37066
0	-9.37087
因為我	-9.37496
kama	-9.37647
▁kamaya	-9.37664
樂	-9.37889
的部落	-9.38352
owa	-9.38435
▁sadjelong	-9.38463
排灣族的	-9.38469
▁kacoin	-9.38526
步	-9.38589
跳	-9.38589
選	-9.38599
selep	-9.38601
貓頭鷹	-9.38601
▁dripong	-9.38601
游	-9.38601
鐵	-9.38601
青蛙	-9.38602
忘記	-9.38602
▁vavoi	-9.38642
日本人	-9.38743
▁gang	-9.38807
caca	-9.38822
asav	-9.3888
ljay	-9.38882
▁madjolo	-9.38885
那位	-9.38905
kisedjam	-9.3905
caq	-9.39204
也會	-9.39252
varong	-9.39302
ha	-9.39419
樣	-9.39432
▁inpic	-9.39445
做的	-9.39759
▁你們的	-9.39841
▁macai	-9.39947
▁pacocon	-9.40038
告訴	-9.40132
▁這就是	-9.40196
▁camak	-9.40198
▁titjen	-9.4022
偷	-9.40298
輩	-9.40328
父母	-9.40369
▁vavolongan	-9.40379
拔	-9.40379
弄	-9.40379
格	-9.40379
橘子	-9.40386
▁baro	-9.40397
處理	-9.40426
▁milingan	-9.40467
有時候	-9.40672
coljo	-9.40674
povarong	-9.40695
▁sepatj	-9.40699
qinaljan	-9.40714
sio	-9.40739
才會	-9.4079
不用	-9.40819
▁ramaljeng	-9.40986
都有	-9.41162
給我	-9.41288
▁vecik	-9.41314
inaljan	-9.41378
食物	-9.41592
她的	-9.41595
cavo	-9.41633
coai	-9.41728
▁talem	-9.41822
▁sina	-9.41947
的傳統	-9.41967
aza	-9.42015
衣	-9.42158
捕	-9.42164
移	-9.42182
后	-9.42189
角	-9.42189
姐姐	-9.4219
社會	-9.42241
▁nongida	-9.42276
▁當我們	-9.42296
▁namaitoco	-9.42372
ran	-9.42385
▁tjengelai	-9.42447
有些	-9.4253
裡面	-9.42533
pazangal	-9.42654
coacoay	-9.42667
kav	-9.42706
saladj	-9.42838
ari	-9.42843
居住	-9.42849
zangal	-9.42988
▁tjiya	-9.43036
mano	-9.43236
留	-9.4328
幫我	-9.43303
在山上	-9.4331
我媽媽	-9.43554
pape	-9.43588
我沒有	-9.436
的文化	-9.43648
ring	-9.43873
ljiv	-9.43889
幾	-9.43891
輕	-9.43991
紅	-9.44018
片	-9.44022
保	-9.44024
戶	-9.44029
I	-9.44032
螃蟹	-9.44032
血	-9.44033
結束	-9.44034
男生	-9.44105
吃飯	-9.44167
葉子	-9.44235
▁sangasangasan	-9.44292
lima	-9.44482
▁djem	-9.44541
▁saoni	-9.4455
▁rem	-9.44673
不可以	-9.44679
oda	-9.44693
▁gin	-9.44758
要去哪裡	-9.44766
的方式	-9.44785
▁tison	-9.448
qad	-9.44884
vong	-9.44906
lisi	-9.44959
出現	-9.44965
我所	-9.45022
ligo	-9.45255
qivo	-9.45313
失	-9.45385
mak	-9.45443
最後	-9.45534
真的很	-9.45547
還在	-9.45712
還沒	-9.45771
野	-9.45888
害	-9.45897
談	-9.45907
▁temalem	-9.45911
▁temolo	-9.45911
靈媒	-9.45911
巫師	-9.45911
▁mamaw	-9.45924
舉行	-9.45925
同學	-9.45948
常常	-9.45959
▁tjenglay	-9.46005
kemoda	-9.46081
▁paday	-9.46155
▁vaiko	-9.46343
▁pe	-9.46385
種子	-9.46426
?"	-9.4646
yin	-9.46486
laing	-9.4649
rang	-9.465
▁tin	-9.4654
▁tjaljo	-9.46569
qepoan	-9.46681
件	-9.46782
名字	-9.47109
讓我們	-9.4722
▁可是	-9.47283
聽到	-9.47307
vela	-9.47309
教會	-9.47473
▁A	-9.4762
adja	-9.47623
分享	-9.47624
了嗎	-9.47703
切	-9.47715
等一下	-9.47735
羊	-9.47779
金	-9.478
式	-9.47806
萬	-9.47812
線	-9.47814
古勒樂	-9.47824
追	-9.47824
寫	-9.47824
雖然	-9.47826
本書	-9.4784
▁pairang	-9.47892
▁lami	-9.47916
pasa	-9.47931
▁tjay	-9.48048
如此說	-9.48189
跟著	-9.4819
zing	-9.48353
kaljava	-9.48595
das	-9.48726
走了	-9.48812
說話	-9.4883
kaw	-9.49242
用的	-9.4926
辦	-9.49541
機	-9.49597
epe	-9.49599
造	-9.49684
熟	-9.49709
求	-9.49711
台	-9.49757
東	-9.49759
黃	-9.49762
引	-9.49774
掛	-9.49775
▁qemodjaqodjalj	-9.49775
屏東	-9.49775
baru	-9.49776
▁dikilo	-9.49776
▁pacogan	-9.49776
細	-9.49776
▁milimilingan	-9.49776
議	-9.49776
午餐	-9.49776
頭髮	-9.49783
ciqaw	-9.49783
耕作	-9.49786
隨便	-9.49788
就這樣	-9.49921
出生	-9.49994
golj	-9.50226
▁而且	-9.50244
dodo	-9.50375
▁cemikel	-9.50376
palji	-9.50423
vaw	-9.50707
kelj	-9.50758
zoanga	-9.50795
vaqoan	-9.50852
故事	-9.50929
▁naico	-9.50962
ilja	-9.51156
ac	-9.51275
▁senay	-9.51414
看看	-9.51554
odra	-9.51576
念	-9.51626
pay	-9.5171
續	-9.51744
士	-9.51746
麻	-9.51756
敬	-9.51762
針	-9.51766
參與	-9.51786
▁voaq	-9.51882
pang	-9.52151
pali	-9.52228
也不	-9.52262
來自	-9.52283
的小米	-9.52285
▁seme	-9.52384
gan	-9.52455
pasedjam	-9.52483
一隻	-9.52773
只是	-9.52876
▁malje	-9.52918
alim	-9.52962
很高	-9.53087
拿來	-9.53199
知	-9.53415
▁pok	-9.53471
lu	-9.5359
果	-9.5366
區	-9.5371
土	-9.53714
舊	-9.53722
djaljon	-9.53732
文	-9.5374
藤	-9.53796
▁pinaiwanan	-9.53796
揹	-9.53796
網	-9.53796
paeles	-9.53797
qeloz	-9.53798
▁saviki	-9.53798
▁qatjovi	-9.53801
▁tjanomon	-9.53814
青年	-9.53821
婚禮	-9.53822
屬於	-9.53825
▁mar	-9.53847
過世	-9.53874
▁patjara	-9.53879
第	-9.53895
我們沒有	-9.53971
我們就	-9.53976
▁vaivaik	-9.53994
不知	-9.54139
就要	-9.54152
經歷	-9.54153
neka	-9.54154
總是	-9.54232
▁tapaw	-9.54259
kedri	-9.54317
有什麼	-9.5439
▁kivada	-9.54617
oy	-9.54623
幫	-9.54884
▁kato	-9.5501
▁alapen	-9.55077
vaqo	-9.55508
cior	-9.55672
▁kica	-9.55718
在那裏	-9.55792
床	-9.55838
義	-9.55848
▁mapo	-9.55849
圍	-9.55867
兄弟	-9.55868
魯	-9.55868
琉璃珠	-9.55869
祖靈	-9.55869
芒果	-9.55869
tjokotjoko	-9.55869
likoz	-9.5588
20	-9.5588
▁tjevota	-9.55886
owi	-9.55929
時候	-9.55954
▁kacaoan	-9.55992
inika	-9.56337
▁maq	-9.56358
年輕人	-9.56395
▁satja	-9.56431
家屋	-9.56459
lak	-9.56613
了很多	-9.56629
▁sisan	-9.56707
是在	-9.56724
M	-9.56811
▁papa	-9.56826
還要	-9.56857
▁pin	-9.56902
▁sizi	-9.5691
ljong	-9.57
去山上	-9.57344
部分	-9.57442
我已經	-9.57492
▁semaino	-9.57539
por	-9.57572
ljeme	-9.57873
忙	-9.57904
夜	-9.57918
aong	-9.57942
表	-9.57951
巴	-9.57978
六	-9.57981
T	-9.57981
睡	-9.57983
▁kinacavacavan	-9.57985
▁vinarongan	-9.57985
▁torivecan	-9.57985
工寮	-9.57988
▁semenai	-9.57994
▁qaliqali	-9.58003
肚子	-9.58005
nay	-9.58024
▁taiwan	-9.58029
gac	-9.58031
令人	-9.58051
才能	-9.58073
▁akomaya	-9.58087
的名字	-9.58124
▁pase	-9.58125
感到	-9.58187
▁masalot	-9.58262
▁kaki	-9.58324
看見	-9.58373
民	-9.58429
▁malo	-9.58506
我想	-9.58514
qati	-9.58526
在一起	-9.58618
▁kipo	-9.58672
去找	-9.5874
後面	-9.58772
▁namasi	-9.58818
tju	-9.58875
▁siva	-9.58877
拜訪	-9.58956
mai	-9.59039
mama	-9.59188
到這裡	-9.59191
▁rema	-9.59474
斷	-9.59568
外面	-9.5968
▁satje	-9.59732
言	-9.59784
變成	-9.60015
mangoaq	-9.60058
製	-9.60095
吹	-9.60119
壞	-9.60122
殺	-9.60134
西	-9.60138
▁kasaoni	-9.60139
煙	-9.60147
段	-9.60147
▁Cemas	-9.60147
壓	-9.60147
短	-9.60148
▁nimitja	-9.60148
▁palamo	-9.60149
問題	-9.60153
▁djemavac	-9.60153
織布	-9.60154
活動	-9.60166
發現	-9.60169
桌子	-9.60191
生病	-9.60207
maretimaljimalji	-9.60213
兒子	-9.60329
sema	-9.60357
mor	-9.60419
vecik	-9.60449
馬	-9.60484
▁tjin	-9.60531
kang	-9.60642
ina	-9.6075
是我	-9.60809
eke	-9.60826
▁qemo	-9.60911
qali	-9.60922
anema	-9.61095
▁kao	-9.61103
pasoso	-9.6118
請問	-9.61291
vad	-9.61317
你要	-9.6174
路上	-9.62007
期	-9.62174
miling	-9.62273
趕	-9.62301
妹	-9.62339
排	-9.6234
畫	-9.62342
雲	-9.62354
足	-9.62356
vocelelj	-9.62357
低	-9.62357
爬	-9.62357
功	-9.62358
幫助	-9.62363
參加	-9.62364
整理	-9.62376
▁vangalj	-9.62387
擔心	-9.62388
viri	-9.62395
多少	-9.62422
的族人	-9.62443
認為	-9.62461
出去	-9.62673
penetj	-9.62691
錯	-9.62757
我去	-9.63273
去買	-9.63417
▁namaka	-9.63438
一件	-9.63441
am	-9.63443
怎麼說	-9.6356
zeng	-9.63739
家的	-9.6376
zong	-9.63789
我們都	-9.63851
mas	-9.63992
料	-9.64027
現	-9.64032
▁rin	-9.64164
不一樣	-9.64206
這樣的	-9.64396
qeci	-9.64464
好吃	-9.64494
應	-9.64604
▁paljilji	-9.6461
爭	-9.64612
▁lizok	-9.64617
座	-9.64617
里	-9.64618
串	-9.64618
saceqalj	-9.64618
▁kinaqadavan	-9.64618
tjuku	-9.64628
今年	-9.64634
白色	-9.64637
工具	-9.64638
我們一起	-9.64655
kaleva	-9.64675
過來	-9.647
▁gata	-9.64734
前往	-9.64748
想念	-9.6476
▁hana	-9.64768
▁marekotj	-9.64779
大家都	-9.64808
▁semazoa	-9.64818
芋頭乾	-9.6483
▁kitolotolo	-9.64869
的家	-9.64966
▁male	-9.64994
心裡	-9.65037
一定要	-9.6527
casaw	-9.6531
一位	-9.65453
pocemel	-9.65502
孫子	-9.65598
▁tjemo	-9.656
ljivak	-9.65925
ringai	-9.65993
odan	-9.66147
voci	-9.66227
很少	-9.66354
▁vaikanga	-9.66375
的聲音	-9.66395
djelj	-9.66467
這種	-9.66528
▁sepa	-9.66535
caqoan	-9.66542
ege	-9.6656
qav	-9.66615
你會	-9.6662
男人	-9.66659
經	-9.66665
▁kemeljan	-9.66766
守	-9.6692
鬼	-9.66924
象	-9.66924
搖	-9.66927
橡皮擦	-9.66929
張	-9.6693
C	-9.6693
散	-9.6693
粉	-9.6693
▁cinonan	-9.6693
▁你有幾個	-9.66934
玉米	-9.66938
老鼠	-9.6695
過程	-9.66978
也許	-9.6698
▁namayatoco	-9.66994
▁qiladjan	-9.67023
這一	-9.67029
水果	-9.67038
不管	-9.67082
我們的部落	-9.67146
langeda	-9.67197
所有的	-9.67199
vak	-9.67262
曾	-9.6733
▁kisodjo	-9.67465
▁tjayao	-9.67504
▁pakata	-9.67678
特別	-9.68034
vor	-9.68059
▁niaken	-9.68087
她是	-9.68091
直	-9.68123
levan	-9.6813
許多	-9.68309
saljinga	-9.68505
tjorovo	-9.68635
你好	-9.69003
ayam	-9.69205
喪	-9.69237
▁pizoa	-9.69248
枝	-9.69253
任	-9.69286
觀	-9.69288
感謝	-9.69292
領	-9.69294
丟	-9.69296
擺	-9.69296
maljeveq	-9.69296
obo	-9.69296
▁pinayoanan	-9.69296
亂	-9.69296
粗	-9.69296
▁sirovetjek	-9.69297
qaqonoan	-9.69297
九	-9.69297
親戚	-9.69297
▁cemecemel	-9.69299
▁koisang	-9.693
聚集	-9.69305
直接	-9.69313
意義	-9.6932
ku	-9.69343
ladroq	-9.69352
▁qapolo	-9.69356
不論	-9.69367
時期	-9.69446
itong	-9.69562
mali	-9.69585
▁asaw	-9.6959
一年	-9.69612
遇到	-9.69631
sepatj	-9.6964
kisi	-9.69767
aico	-9.69816
▁於是	-9.69827
▁nitjen	-9.69835
族語	-9.69934
▁kimaya	-9.69975
ljeqo	-9.70152
去哪裡	-9.70178
▁timon	-9.70228
▁nona	-9.70942
都要	-9.70994
itjin	-9.7108
▁paljing	-9.71151
級	-9.71264
nemanga	-9.71414
▁mala	-9.71442
的小孩	-9.71496
產	-9.71511
管	-9.71547
▁ve	-9.71618
▁pavai	-9.71657
關係	-9.71696
必	-9.71706
9	-9.71708
洞	-9.71718
叫甚麼名字	-9.71721
系	-9.71721
▁baso	-9.71721
▁taqomaqanan	-9.71721
▁moakay	-9.71721
修	-9.71721
怎樣	-9.71722
▁sapitj	-9.71727
聚落	-9.71732
的意思	-9.71733
或許	-9.71743
小米糕	-9.71791
tarev	-9.7186
valjot	-9.71871
搬	-9.71879
住在	-9.71916
eljang	-9.71934
上面	-9.71959
▁malaing	-9.72104
▁kemasino	-9.72104
polo	-9.72132
ngeda	-9.72219
makoda	-9.72271
現在的	-9.72435
ljama	-9.72635
niya	-9.72667
看起來	-9.72743
poloq	-9.72806
tjaq	-9.73014
▁sisa	-9.73026
男方	-9.73049
▁maqa	-9.73067
一天	-9.73166
當家	-9.73237
你去	-9.73363
▁moni	-9.73394
去看	-9.73544
支	-9.73551
屋頂	-9.7359
picol	-9.73697
▁你有	-9.7384
▁nosa	-9.73956
活	-9.74067
農	-9.74072
calis	-9.74111
喜	-9.74168
課	-9.74178
靠	-9.74181
槍	-9.74189
站	-9.74191
規	-9.74191
讀	-9.74192
制	-9.74194
詞	-9.74194
tevetevelj	-9.74199
sedjaljep	-9.74205
百步蛇	-9.74205
Camak	-9.74205
差	-9.74205
防	-9.74206
報	-9.74206
▁patarevan	-9.74206
vetjek	-9.74207
祝福	-9.74207
▁notiav	-9.74209
▁mareqaliqali	-9.74209
大概	-9.74211
tjaljiqaca	-9.74212
糧食	-9.74212
▁semekez	-9.74217
19	-9.74219
第二	-9.74219
除喪	-9.7422
害怕	-9.74221
樹豆	-9.74229
coa	-9.74261
平地	-9.74293
不到	-9.74299
煮飯	-9.743
tjokovolj	-9.74312
▁secevong	-9.744
saqetjo	-9.74416
▁alapo	-9.7442
liaw	-9.74422
palje	-9.74595
tai	-9.74595
voc	-9.74725
半	-9.74732
發生	-9.74751
ota	-9.74847
djilj	-9.74877
sekez	-9.749
的水	-9.74949
女性	-9.75122
快樂	-9.75214
▁sinika	-9.75238
makaya	-9.75416
▁maino	-9.75595
▁anemaya	-9.75599
人口	-9.75611
發出	-9.75611
can	-9.75631
▁mavana	-9.75772
▁semamaza	-9.75908
par	-9.76005
imaza	-9.7604
paka	-9.76052
▁sipaka	-9.76121
都很	-9.76134
年輕	-9.76161
mac	-9.76212
改	-9.76243
▁seka	-9.76332
何	-9.76519
清楚	-9.76554
我來	-9.76569
鍋	-9.76647
裏	-9.76671
且	-9.76676
故	-9.76678
飾	-9.76686
命	-9.76692
河	-9.76717
掃	-9.76724
器	-9.76728
室	-9.7674
助	-9.76744
至	-9.76744
破	-9.76746
影	-9.76747
藏	-9.76747
摩托車	-9.7675
夾	-9.7675
涼	-9.76752
夫	-9.76752
致	-9.76752
勢	-9.76753
6	-9.76753
▁tasaoni	-9.76753
健康	-9.76754
推	-9.76754
▁qaciljai	-9.76754
▁zemiyan	-9.76757
比賽	-9.7676
muni	-9.76766
相信	-9.76785
▁pakatoa	-9.76867
▁meqaca	-9.7689
生氣	-9.76897
▁anemanema	-9.7712
認真	-9.77223
qalj	-9.77279
在部落	-9.77311
qadaw	-9.77638
maqacovong	-9.77936
存	-9.7795
ad	-9.78048
過了	-9.78179
nai	-9.78188
▁如果我們	-9.78258
的路	-9.78484
腳套	-9.78507
drema	-9.78693
yaken	-9.78737
到達	-9.78827
樹木	-9.78968
或是	-9.79018
我知道	-9.7903
kiyo	-9.79068
算	-9.79121
zin	-9.79123
ipo	-9.79139
mavan	-9.79242
kolj	-9.79266
程	-9.79297
伴	-9.7935
音	-9.79352
鬧	-9.79362
勞	-9.79367
哥兒們	-9.79368
▁djavadjavay	-9.79368
▁tiribi	-9.79368
掌	-9.79368
調	-9.79368
貓	-9.79368
脫	-9.79368
緊	-9.79368
蟲	-9.79368
▁nosaoni	-9.79368
粒	-9.79368
▁karakoda	-9.79368
鹿	-9.79368
臺灣	-9.79368
▁kakodakodan	-9.7937
▁kakitoloan	-9.79374
茅草	-9.79375
命名	-9.79386
採集	-9.79396
下面	-9.79507
敵人	-9.7953
接著	-9.79583
就算	-9.79608
那邊	-9.79633
▁noka	-9.7967
izoanan	-9.79688
幾歲	-9.79778
不再	-9.79793
ker	-9.79794
▁我們在	-9.79856
popicol	-9.79924
他是	-9.7999
▁maljia	-9.79996
ecev	-9.80066
valang	-9.80112
▁notja	-9.80172
▁hi	-9.80283
ru	-9.80308
▁我在	-9.80419
一起去	-9.80505
習俗	-9.80592
▁zazoa	-9.80689
isi	-9.80769
paiso	-9.80842
是從	-9.80871
ljem	-9.81012
yoma	-9.81042
paw	-9.81056
我們可以	-9.81074
cemel	-9.81461
qao	-9.81573
aljak	-9.81685
的名字是	-9.81692
emo	-9.81734
▁koba	-9.81742
kemasi	-9.81842
ngetj	-9.81843
我們來	-9.81882
必須	-9.81904
gav	-9.81984
藥	-9.82008
福	-9.82045
計	-9.82047
舒	-9.82048
紋	-9.82051
毛	-9.82052
獨	-9.82052
甜	-9.82052
▁djolis	-9.82052
瓶	-9.82053
▁hikoki	-9.82053
五年祭	-9.82053
慢慢	-9.82056
旁邊	-9.82058
▁cemacavo	-9.8206
▁zikang	-9.82061
▁cokoi	-9.82061
▁qadao	-9.82064
▁tacekeljan	-9.82064
▁女名	-9.82066
▁paiwanzoko	-9.82089
▁那個男人	-9.82089
受傷	-9.82098
▁有一天	-9.82108
▁velin	-9.82155
▁tjaya	-9.8217
我也	-9.82213
▁lemo	-9.82216
▁那是什麼	-9.82355
很多人	-9.8253
那個人	-9.82565
在我們	-9.8273
leva	-9.82745
ming	-9.82822
qina	-9.82912
的事情	-9.82914
我們是	-9.83001
百	-9.8309
的故事	-9.83233
是我的	-9.83456
yamen	-9.83567
ozip	-9.83596
謝謝你	-9.83651
ljak	-9.83692
有幾	-9.83715
▁nangoangoaq	-9.83889
su	-9.83937
總	-9.84221
draw	-9.84268
的朋友	-9.84311
他說	-9.84376
min	-9.84416
去了	-9.84508
djama	-9.84512
是很	-9.84643
ljayan	-9.84759
我的爸爸	-9.84778
搭	-9.84792
試	-9.84807
樑	-9.84807
蘭	-9.84811
圈	-9.84811
▁kodamono	-9.84811
抱	-9.84811
綠	-9.84811
singelit	-9.84811
質	-9.84811
mosalj	-9.84812
突然	-9.84814
表示	-9.84817
▁paravac	-9.8482
排灣語	-9.84821
▁mamav	-9.84825
重視	-9.84828
▁kaomaya	-9.84838
多少錢	-9.84842
能夠	-9.84847
▁momalj	-9.8485
進入	-9.84859
zoma	-9.84885
收成	-9.8489
太多	-9.84947
那個時候	-9.84951
ljavaran	-9.84972
長者	-9.84973
sarengoaq	-9.85048
▁pagaljo	-9.85151
我父親	-9.85207
▁dem	-9.85217
▁qipo	-9.85217
她們	-9.85303
tolotolo	-9.85328
enetj	-9.85415
頂	-9.85458
讓我	-9.85486
吃了	-9.85494
paola	-9.85564
gilj	-9.85587
的心	-9.85722
vavoa	-9.85876
很難	-9.86007
祭儀	-9.86046
ning	-9.86053
▁qacang	-9.86117
妳的	-9.86119
歌謠	-9.86123
女人	-9.86173
生了	-9.86515
elem	-9.8679
務	-9.87081
跟我說	-9.87198
很會	-9.8721
遇	-9.87239
假	-9.8738
聚	-9.87468
kio	-9.87486
套	-9.87493
目	-9.87584
擔	-9.87603
七	-9.8761
員	-9.87613
堂	-9.8762
舉	-9.87626
稻	-9.8763
戰	-9.87643
婆	-9.87648
暗	-9.87648
▁bolai	-9.87648
▁vincikan	-9.87648
擦	-9.87648
杯	-9.87648
災	-9.87648
▁kinacemekeljan	-9.87648
▁tacemekeljan	-9.87648
寶	-9.87648
沖	-9.87648
▁timitja	-9.87652
仍然	-9.87654
消失	-9.87654
專門	-9.87656
祭典	-9.87658
30	-9.87663
平民	-9.8767
▁cekoi	-9.8767
蓋房子	-9.87685
▁tjaisangas	-9.87707
如同	-9.87713
▁kinatjengelayan	-9.87794
langda	-9.87813
在這	-9.87853
早上	-9.8793
什麼時候	-9.87991
大武山	-9.88042
▁我們去	-9.88124
對於	-9.88152
▁sivaik	-9.88209
▁pidanga	-9.88299
▁cema	-9.88303
lip	-9.88343
不喜歡	-9.8844
poq	-9.88519
美麗	-9.88736
很好吃	-9.88744
poaljak	-9.88827
S	-9.88923
最好	-9.88939
nana	-9.88951
不行	-9.88969
▁ayaitjen	-9.8912
▁saqetjoan	-9.89225
madja	-9.89404
很痛	-9.89641
▁nima	-9.8966
pida	-9.89722
▁inaya	-9.89729
就有	-9.89889
sao	-9.89917
▁kaiv	-9.89927
tala	-9.89935
ljengoaq	-9.9007
nangoa	-9.90181
第一	-9.90234
▁poita	-9.90315
紅色的	-9.90329
人家	-9.90363
溪	-9.90415
tjong	-9.90458
結果	-9.90459
視	-9.90473
iko	-9.90522
歡	-9.90547
負	-9.90565
巾	-9.90568
濕	-9.90568
▁veljevelj	-9.90568
很漂亮	-9.90568
parimasodj	-9.90568
B	-9.90568
珠	-9.90568
▁pasosangas	-9.90568
善	-9.90568
簡單	-9.90569
kivangavangavang	-9.90569
▁comay	-9.90569
尤其	-9.90569
村莊	-9.9057
台東	-9.90576
制度	-9.90582
▁ljavek	-9.90583
河邊	-9.90588
▁qaciljay	-9.90588
經常	-9.90594
沒關係	-9.90603
頭飾	-9.90615
確實	-9.90641
kisomalji	-9.90662
▁我們有	-9.90693
的部分	-9.90745
qarot	-9.90775
▁qavai	-9.90873
▁kosi	-9.90882
的腳	-9.91088
方向	-9.91129
改變	-9.91158
lit	-9.91189
ngoaq	-9.91295
pon	-9.91297
▁sikodakoda	-9.91313
▁kika	-9.91492
的想法	-9.91556
▁pinoi	-9.91572
▁pasazoa	-9.91595
taw	-9.91711
kasiw	-9.91727
的土地	-9.9177
去學校	-9.91795
的樣子	-9.91813
dilj	-9.91865
▁tjaina	-9.91899
老人	-9.91982
你們有	-9.92088
死了	-9.92096
vatan	-9.92161
一條	-9.92203
也可以	-9.9225
tjelolj	-9.92369
都不	-9.9237
cem	-9.92453
的花	-9.9252
▁qalja	-9.92542
saka	-9.92578
lot	-9.92592
非常的	-9.9281
gakko	-9.92833
▁sikodan	-9.92879
ves	-9.92937
果實	-9.93018
曾經	-9.93056
▁ido	-9.93159
laoz	-9.93312
置	-9.93411
▁kala	-9.93435
確	-9.93483
epo	-9.93512
eqel	-9.93528
雙	-9.93534
卡	-9.93563
味	-9.93565
考	-9.93566
賜	-9.9357
雨停了	-9.93575
精	-9.93576
▁naqemati	-9.93576
▁oqaljaqaljai	-9.93576
▁varokor	-9.93576
廣	-9.93576
智	-9.93576
桑	-9.93576
號	-9.93576
載	-9.93576
惰	-9.93576
磨	-9.93576
顏色	-9.93576
遭	-9.93576
乾淨	-9.93579
講述	-9.93582
告知	-9.93583
祭拜	-9.93583
傳述	-9.93583
▁kiokai	-9.93584
小時候	-9.93585
尋找	-9.93589
▁tjaivilivililj	-9.93598
另外	-9.93599
poalang	-9.93605
村民	-9.93606
漢人	-9.9361
soljivat	-9.93621
odalj	-9.93632
前面	-9.93643
我不知道	-9.93664
擁有	-9.9367
acan	-9.93681
您們	-9.93718
稱為	-9.93726
何時	-9.93744
taqed	-9.93811
▁makodakoda	-9.9382
之處	-9.93838
家族的	-9.93843
▁marekaka	-9.93876
▁namacay	-9.93935
主要	-9.93953
zoanan	-9.9397
valji	-9.93973
kivadaq	-9.93983
camak	-9.94018
▁padai	-9.94038
我家	-9.941
就在	-9.94154
10	-9.94156
幾個	-9.9426
▁venali	-9.94349
vasa	-9.94461
▁pasaino	-9.94512
這就是	-9.94676
所以我	-9.94836
vao	-9.94867
你喜歡	-9.95136
mayan	-9.9515
eljev	-9.95264
toloan	-9.95385
qayam	-9.95467
源	-9.95626
▁malim	-9.9569
▁izoazoa	-9.95801
比較好	-9.95838
inoli	-9.95959
▁kivaqo	-9.96209
volovolong	-9.96302
▁mayanga	-9.96388
是由	-9.96415
容易	-9.96438
pavalit	-9.96539
忘了	-9.96574
青	-9.96614
tjing	-9.96631
告	-9.96665
編	-9.96673
商	-9.96674
▁zema	-9.96675
據	-9.96676
船	-9.96677
▁kadjamadjaman	-9.96677
▁pasemalaw	-9.96677
招	-9.96677
訂	-9.96677
辣	-9.96677
cemalivat	-9.96677
▁valjitjoq	-9.96677
介	-9.96677
累	-9.96677
▁pinaconan	-9.96677
▁tjemaocikel	-9.96677
序	-9.96677
腳踏車	-9.96677
遮	-9.96677
▁laqolj	-9.96677
端	-9.96677
警察	-9.96677
險	-9.96678
山羌	-9.96678
搭火車	-9.96679
阿姨	-9.96679
軍	-9.9668
可憐	-9.96684
遷移	-9.96685
決定	-9.96688
kacedas	-9.96695
▁qacaqaca	-9.96696
花環	-9.9671
vengetj	-9.96749
▁tiya	-9.96783
身分	-9.96798
rovo	-9.96989
很遠	-9.97048
那隻	-9.97078
▁kakodanan	-9.9716
▁nekanan	-9.97208
▁ayaya	-9.97234
▁venli	-9.97328
個人	-9.97486
上山	-9.97617
的食物	-9.97757
戴腳套	-9.97882
kanavalj	-9.97888
是原住民	-9.97933
每天	-9.97974
也沒有	-9.97978
seljang	-9.98138
給他	-9.98191
▁matoco	-9.98274
我很	-9.98321
醫院	-9.98332
▁palja	-9.98346
是非常	-9.98367
▁lem	-9.98397
收穫祭	-9.98481
volo	-9.98481
▁nasa	-9.98488
四個	-9.98489
那種	-9.98659
原來是	-9.98662
▁lina	-9.98768
客	-9.98877
就好	-9.99033
qoma	-9.99094
剛才	-9.99336
重要	-9.99464
這裡有	-9.9954
siyo	-9.9967
qed	-9.99673
玩耍	-9.99675
engan	-9.99704
院	-9.99714
許	-9.99726
calivat	-9.99753
袋	-9.99756
化	-9.9983
直到	-9.9984
遷	-9.99845
talido	-9.9985
適	-9.99856
▁Tj	-9.99864
碗	-9.99865
創	-9.99869
夏	-9.99873
右	-9.99874
▁lemi	-9.99877
▁migacalj	-9.99877
▁qezemezemetj	-9.99877
兄弟姐妹	-9.99877
惡	-9.99877
耶	-9.99877
djemameq	-9.99877
餓	-9.99877
技	-9.99877
撒	-9.99877
夫妻	-9.99878
阿美族	-9.99878
▁notiyaw	-9.99878
牙齒	-9.99879
負責	-9.99881
便宜	-9.99882
▁qemacovong	-9.99884
▁tiyamadjo	-9.99896
padjolo	-9.99897
成熟	-9.99932
vota	-9.99947
天空	-9.99957
▁好啊	-10
▁povaqoan	-10.0005
很美麗	-10.0007
▁kicaqoan	-10.002
做成	-10.0028
.....	-10.0077
▁你們家	-10.0077
可是	-10.0086
事情	-10.0088
▁因為我們	-10.0089
所謂的	-10.01
▁pacono	-10.0116
很快	-10.0118
了解	-10.012
▁Pa	-10.0121
▁napa	-10.0122
iljas	-10.0124
方便	-10.0146
savan	-10.0151
yar	-10.0153
▁koka	-10.0168
▁voa	-10.0176
P	-10.0182
iz	-10.0185
liyaw	-10.0209
▁malja	-10.0239
angan	-10.0243
angata	-10.0254
我喜歡	-10.0254
▁tori	-10.0283
長出	-10.0294
季節	-10.0303
糕	-10.0305
tjenglay	-10.0305
板	-10.0307
coayanga	-10.0311
tjalopon	-10.0311
價	-10.0316
貴	-10.0316
釀	-10.0317
簍	-10.0317
慢	-10.0317
坡	-10.0318
碎	-10.0318
盛	-10.0318
胖	-10.0318
麵	-10.0318
摘	-10.0318
▁malalomalj	-10.0318
逃	-10.0318
▁drail	-10.0318
Kapi	-10.0318
selapai	-10.0318
蜜蜂	-10.0318
禁忌	-10.0318
印	-10.0318
環境	-10.0319
預備	-10.0319
▁mara	-10.0319
▁maljavar	-10.032
植物	-10.032
平安	-10.0323
願意	-10.0323
老長者	-10.0323
運動	-10.0323
▁malada	-10.0324
▁venateq	-10.0327
一般	-10.0327
長輩們	-10.0327
後代	-10.0331
下次	-10.0332
masegeseg	-10.0332
出門	-10.0332
▁nasem	-10.0333
怎麼樣	-10.0338
▁當我	-10.0344
▁saliman	-10.0347
以為	-10.0349
ljaljak	-10.0351
▁macoljo	-10.036
先生	-10.0364
▁mekelj	-10.0374
▁karang	-10.038
qez	-10.0384
獵到	-10.0389
我們現在	-10.0396
跟我	-10.0401
失去	-10.0409
▁kisia	-10.0417
會唱歌	-10.0421
vawa	-10.0422
kapi	-10.0447
傳統的	-10.0451
▁nori	-10.047
我們也	-10.0479
kakodan	-10.0487
▁itjomaq	-10.0491
人類	-10.0493
要放	-10.0495
ying	-10.0505
會洗衣服	-10.052
koyakoya	-10.0521
就說	-10.0524
來到	-10.0524
子孫	-10.053
就去	-10.0535
有許多	-10.0549
中的	-10.0561
ngoangoa	-10.0562
▁venan	-10.0563
些	-10.0564
柱子	-10.0566
不同的	-10.0569
qeceng	-10.0574
而且	-10.0586
如果有	-10.059
▁pace	-10.0614
字	-10.0623
▁qaljaqalja	-10.0646
柱	-10.0648
父	-10.0655
婦	-10.0658
景	-10.0658
房屋	-10.0659
懷	-10.0659
示	-10.0659
躲	-10.066
隊	-10.066
治	-10.066
項	-10.066
牙	-10.066
息	-10.066
工廠	-10.066
單	-10.066
擊	-10.066
硬	-10.066
otobay	-10.066
vecekadan	-10.066
▁djoadjoay	-10.066
▁poljaljoyan	-10.066
▁tasicoayan	-10.066
燙	-10.066
陶壺	-10.066
太陽出來了	-10.066
急	-10.066
疼	-10.066
救	-10.066
djameq	-10.066
可惜	-10.0661
▁kakerian	-10.0661
得到	-10.0662
服飾	-10.0662
椅子	-10.0662
期待	-10.0662
農作物	-10.0662
物品	-10.0665
kincengelj	-10.0668
kitj	-10.0671
▁kemakan	-10.0671
kinemenem	-10.0672
▁qaqivo	-10.0673
放置	-10.0676
▁rangi	-10.0676
找到	-10.0676
sapoi	-10.0677
vavo	-10.0678
作為	-10.0682
小孩子	-10.0699
ljaving	-10.0702
傳統文化	-10.0702
因為他	-10.0705
deng	-10.0705
palingolj	-10.0709
ecilo	-10.0718
▁ikatjen	-10.0725
身上	-10.0729
月亮	-10.0729
▁那你	-10.0732
ngadan	-10.0753
以前的	-10.0762
saw	-10.0763
如果你	-10.0776
per	-10.0776
tjatjan	-10.0789
天上	-10.0811
say	-10.0813
時代	-10.0815
的儀式	-10.0819
▁saso	-10.0846
▁kineljan	-10.0858
小心	-10.0871
aco	-10.0878
▁oh	-10.0881
一邊	-10.0888
在學校	-10.0902
kiyan	-10.0917
當他們	-10.0919
▁cemi	-10.0922
ljavia	-10.0932
▁pasamaza	-10.0945
sini	-10.0946
▁pita	-10.0948
▁kitja	-10.0957
一把	-10.0963
另	-10.0973
rekotj	-10.0992
爸爸媽媽	-10.0993
teveljan	-10.0998
我先生	-10.0998
▁izo	-10.0999
顆	-10.1003
兩位	-10.1004
首	-10.1008
興	-10.1011
季	-10.1012
某	-10.1012
mare	-10.1013
境	-10.1014
射	-10.1014
沿	-10.1014
繞	-10.1014
pecongo	-10.1014
▁djavadjavai	-10.1014
▁kinacalisianan	-10.1014
▁siqoliqolip	-10.1014
▁takec	-10.1014
髒	-10.1014
▁mavacok	-10.1014
列	-10.1014
瘦	-10.1014
觸	-10.1014
星期	-10.1014
協助	-10.1015
編織	-10.1015
勇士	-10.1015
電腦	-10.1015
死亡	-10.1015
聘禮	-10.1015
晚餐	-10.1015
電話	-10.1016
居民	-10.1016
▁tjayamadjo	-10.1017
並且	-10.1017
怎麼會	-10.1017
趕快	-10.1018
▁macolja	-10.1018
▁dridri	-10.102
▁ljoang	-10.1022
▁tjalopong	-10.1022
女方	-10.1022
等待	-10.1024
不可	-10.1026
開車	-10.1028
▁palisiyan	-10.103
▁pitjo	-10.103
其實	-10.1031
媽媽說	-10.1035
▁sino	-10.1035
▁casav	-10.1045
kalj	-10.1051
▁savolovolong	-10.106
是否	-10.1062
kodakoda	-10.1065
部落裡	-10.1073
▁nekano	-10.1081
我都	-10.1092
vel	-10.1099
施	-10.1101
▁parot	-10.1101
好好	-10.1104
畫圖	-10.1109
sasing	-10.111
▁ikaken	-10.1112
▁teme	-10.1124
▁aradj	-10.1127
的地瓜	-10.113
ljoc	-10.1154
還沒有	-10.116
ayav	-10.1167
買了	-10.1195
▁這是我	-10.1198
▁kino	-10.1211
美麗的	-10.1221
asan	-10.124
朋友們	-10.1241
pacengceng	-10.1241
tema	-10.1248
的芋頭	-10.1249
很喜歡	-10.1278
cang	-10.1282
石板	-10.1289
ayanga	-10.1324
makeljang	-10.1334
有十	-10.1335
他就	-10.1349
▁koang	-10.1353
需	-10.1356
世界	-10.1358
停	-10.1365
qeljing	-10.1367
祖	-10.1371
順	-10.1372
邀請	-10.1375
雨傘	-10.1375
始	-10.1377
思	-10.1378
耕	-10.1379
刻	-10.1379
盡	-10.138
消	-10.138
U	-10.1381
穀	-10.1381
優	-10.1381
遊	-10.1381
哇	-10.1381
唉	-10.1381
madraodraw	-10.1381
哦	-10.1381
燈	-10.1381
餵	-10.1381
▁nakemaco	-10.1381
▁vorati	-10.1381
僅	-10.1381
撿	-10.1381
禱告	-10.1381
抽	-10.1381
▁sikamasan	-10.1381
獸夾	-10.1382
▁kavolongan	-10.1382
黑色的	-10.1382
▁kiposengsengan	-10.1382
南瓜	-10.1382
古樓	-10.1382
歡樂	-10.1382
aiyanga	-10.1383
木柴	-10.1383
教育	-10.1383
▁vengin	-10.1384
祖父母	-10.1385
有趣	-10.1386
力量	-10.1386
就開始	-10.1389
作物	-10.139
tjengelayan	-10.1391
再見	-10.1391
褲子	-10.1391
kaizoazoa	-10.1393
▁kasino	-10.1393
▁pitoa	-10.1394
▁qoljav	-10.1395
大約	-10.14
▁sedjelj	-10.1403
穿著	-10.1407
成年	-10.1413
▁djema	-10.1417
elay	-10.1436
liav	-10.144
我現在	-10.1447
ljelje	-10.145
viq	-10.1466
talem	-10.147
▁angaota	-10.1472
不斷	-10.1481
瑪家	-10.149
客人	-10.1495
她是我的	-10.1503
深山	-10.1503
▁imazai	-10.1515
ged	-10.1518
要做什麼	-10.1543
喜歡讀書	-10.1603
▁kani	-10.161
若是	-10.162
原住民族	-10.1621
想到	-10.1622
▁paro	-10.1627
▁kilalaing	-10.1631
沒有人	-10.1633
我的朋友	-10.1633
我叫	-10.1642
▁kitjo	-10.1648
然而	-10.1653
上方	-10.168
為我們	-10.1683
很熱	-10.1692
名稱	-10.1694
一家人	-10.1706
naw	-10.171
才有	-10.1715
ciyo	-10.1718
eljan	-10.1749
褲	-10.1752
今	-10.1753
▁ripon	-10.1754
的學校	-10.1755
獲	-10.1757
尋	-10.176
柴	-10.176
決	-10.1761
界	-10.1761
糧	-10.1761
團	-10.1761
拍	-10.1761
吵	-10.1762
葬	-10.1762
戀	-10.1762
替	-10.1762
滴	-10.1762
甘	-10.1762
態	-10.1762
醉	-10.1762
寬	-10.1762
復	-10.1762
財產	-10.1762
祈福	-10.1762
豐收	-10.1763
搭飛機	-10.1763
kinateveteveljan	-10.1763
放棄	-10.1763
下午	-10.1764
雙親	-10.1764
材料	-10.1764
的行為	-10.1764
適合	-10.1764
秋天	-10.1765
▁otobai	-10.1766
打掃	-10.1767
天氣如何	-10.1767
▁qemaong	-10.1767
vaong	-10.1771
多久	-10.1772
tavak	-10.1774
分別	-10.1775
▁kisaco	-10.1782
平地人	-10.1782
下方	-10.1783
▁angalj	-10.1788
很容易	-10.1792
在讀書	-10.1799
itje	-10.181
▁semaomaq	-10.1817
lalj	-10.1821
生長	-10.1823
傳說	-10.1827
重要的	-10.1834
孫女	-10.1841
剩下	-10.1858
pakeljang	-10.1886
▁niamen	-10.1893
除了	-10.1893
你怎麼	-10.1895
它們	-10.1898
ljingas	-10.192
▁navaik	-10.1921
不太	-10.1922
洗衣服	-10.1926
收穫	-10.1927
下去	-10.1927
zoga	-10.1939
taqaljan	-10.1942
ljavaljava	-10.1945
ked	-10.1957
▁semoso	-10.1962
▁kamayan	-10.1968
valivali	-10.1972
▁Sa	-10.1982
也要	-10.1994
▁我跟	-10.2004
抓到	-10.2005
sepo	-10.2007
走到	-10.2022
到底	-10.2023
temekel	-10.2023
會說族語	-10.2029
tjara	-10.2041
nemanema	-10.2058
剩	-10.206
podro	-10.2075
mu	-10.208
dreng	-10.2082
sangoaq	-10.2111
裡有	-10.2133
遺	-10.2136
qadav	-10.2139
呼	-10.2145
般	-10.2147
參	-10.2153
反	-10.2154
djalja	-10.2155
尊	-10.2156
割	-10.2157
弟	-10.2157
醒	-10.2157
圓	-10.2157
意思	-10.2157
顧	-10.2157
型	-10.2158
堅	-10.2158
▁masengeseng	-10.2158
斯	-10.2158
星星	-10.2158
聞	-10.2158
他是我的老師	-10.2158
幸	-10.2158
黏	-10.2158
途	-10.2158
cevocevong	-10.2158
[	-10.2158
▁nanemanemanga	-10.2158
djekec	-10.2158
禁止	-10.2158
證	-10.2158
▁tjianes	-10.2159
▁coacoai	-10.2159
項鍊	-10.2159
麻煩	-10.2159
穀倉	-10.2159
▁vitjoqan	-10.2159
▁djilong	-10.2159
記錄	-10.2159
長嗣	-10.2159
賺錢	-10.2159
▁koliw	-10.2159
▁temevela	-10.2159
真正的	-10.2159
不好意思	-10.216
農作	-10.216
尊重	-10.216
▁masantalj	-10.2161
djadjas	-10.2161
sapoy	-10.2161
跑步	-10.2161
cepeng	-10.2161
▁oqaljaqaljay	-10.2163
起床	-10.2164
pangtjez	-10.2165
▁qecilo	-10.2165
生產	-10.2166
變得	-10.217
▁kiaya	-10.2172
在家裡	-10.2173
或者	-10.2174
▁pimaza	-10.2176
第三	-10.2178
▁nemanemanga	-10.2183
▁poamin	-10.2183
akoazoa	-10.2194
的名字叫	-10.2195
▁sasangoaq	-10.2198
心想	-10.2199
sengsengan	-10.2199
你可以	-10.2205
▁pomaya	-10.2218
是這樣的	-10.2228
pavay	-10.2235
我的名字是	-10.2239
djalan	-10.2247
tjala	-10.2255
djamay	-10.2267
▁kisiya	-10.2274
aven	-10.2289
自然	-10.2293
▁ljia	-10.231
▁sikoda	-10.2317
要怎麼	-10.2326
tjelo	-10.2336
ur	-10.2339
哪一	-10.2355
我沒	-10.2367
▁pogo	-10.2368
才是	-10.2369
paljavak	-10.2395
名叫	-10.2396
但我	-10.242
就不會	-10.2422
ramaljeng	-10.2431
saloan	-10.2433
▁katje	-10.2433
再去	-10.2442
可以用來	-10.2451
孫	-10.2465
高興	-10.2484
olid	-10.2489
▁sasav	-10.249
留在	-10.2507
大武	-10.2521
剛好	-10.2535
要先	-10.2546
同時	-10.2548
▁kemo	-10.2551
令	-10.2558
絕	-10.2559
市	-10.2561
▁zemo	-10.2562
▁sane	-10.2566
鼠	-10.2566
典	-10.2569
持	-10.2569
豬肉	-10.2569
積	-10.257
熊	-10.257
標	-10.257
開心	-10.257
止	-10.257
倉	-10.257
準	-10.257
究	-10.2571
攤	-10.2571
富	-10.2571
豹	-10.2571
異	-10.2571
翠	-10.2571
⋯	-10.2571
▁cinalivatan	-10.2571
噴	-10.2571
▁raljiz	-10.2571
▁timaimanga	-10.2571
呦	-10.2571
搭公車	-10.2571
敘述	-10.2571
歸	-10.2571
絲	-10.2571
腰	-10.2571
雅	-10.2571
鼻笛	-10.2571
鉛筆	-10.2571
基	-10.2571
術	-10.2571
]	-10.2571
吹奏	-10.2571
臨	-10.2571
退	-10.2571
丈夫	-10.2571
討論	-10.2571
▁qaqomain	-10.2571
vokid	-10.2571
▁paramor	-10.2571
窗戶	-10.2571
房間	-10.2572
嚴重	-10.2572
sicoacoayan	-10.2572
ngdan	-10.2573
安排	-10.2573
▁qezong	-10.2573
同伴	-10.2573
提親	-10.2574
▁niyamadjo	-10.2576
製成	-10.2577
maca	-10.2578
▁sinitalem	-10.2578
只能	-10.2581
ljavak	-10.2581
會下雨	-10.2581
qolip	-10.2583
能力	-10.2585
中間	-10.2588
▁kiqaong	-10.2593
那兩位	-10.2594
我們的祖先	-10.2595
▁avanazoa	-10.2601
碰到	-10.2603
美好	-10.2603
實在	-10.2619
當中	-10.2624
各種	-10.2639
▁是啊	-10.2643
▁這時	-10.265
qic	-10.266
taihoko	-10.2663
棵樹	-10.2663
djek	-10.269
rangez	-10.2694
頭目家族	-10.2698
▁keljen	-10.27
pangalj	-10.2701
是如此	-10.2708
不得	-10.2747
▁izoaza	-10.275
tez	-10.276
真的是	-10.2763
pidalj	-10.2769
是不是	-10.2793
留下	-10.2808
拿去	-10.2814
qacovong	-10.2818
族群	-10.2824
▁djamai	-10.2829
cay	-10.2848
我們已經	-10.2857
cengceng	-10.2857
xx	-10.287
了許多	-10.2891
坐在	-10.2911
▁kemodanga	-10.2912
vaivaik	-10.2964
▁這裡的	-10.2966
矮	-10.2977
alalang	-10.2991
武	-10.2992
▁malivo	-10.2994
餐	-10.2998
護	-10.2999
佳	-10.2999
迎	-10.2999
德	-10.3
縣	-10.3
響	-10.3
職	-10.3001
溫	-10.3001
淚	-10.3001
句	-10.3001
哀	-10.3001
壺	-10.3001
夢	-10.3001
紅藜	-10.3001
顯	-10.3001
冒	-10.3001
剝	-10.3001
棒	-10.3001
千	-10.3001
炒	-10.3001
神話故事	-10.3001
Muni	-10.3001
嗯	-10.3001
混	-10.3001
缺	-10.3001
避	-10.3001
抬	-10.3001
益	-10.3001
茄	-10.3001
▁savavayan	-10.3001
犯	-10.3001
飼養	-10.3001
▁kadjalanan	-10.3001
感覺	-10.3002
▁notiaw	-10.3002
戰爭	-10.3002
鬧鬼	-10.3002
▁paveliveli	-10.3002
保存	-10.3002
相互	-10.3002
農田	-10.3003
高雄	-10.3003
訪問	-10.3003
殺豬	-10.3004
婦女	-10.3004
▁ljingav	-10.3004
傳承	-10.3005
原本	-10.3005
pedjeli	-10.3005
看電視	-10.3006
男性	-10.3006
▁karim	-10.3008
通常	-10.3009
籃子	-10.3009
相同	-10.301
地板	-10.3011
各位	-10.3013
▁otaota	-10.3014
農地	-10.3015
不停	-10.302
▁對啊	-10.3023
等等	-10.3025
▁maqolip	-10.3026
▁kacoing	-10.3029
小鳥	-10.3033
只好	-10.3035
大聲	-10.3038
天黑了	-10.3044
▁mave	-10.3055
kobav	-10.3056
cevolj	-10.3056
來吃	-10.3061
過年	-10.3063
▁nison	-10.3074
▁pinaro	-10.3081
kui	-10.3082
的日子	-10.3084
三個	-10.309
▁maljiyan	-10.3101
看著	-10.3109
的位置	-10.3113
50	-10.312
很勤勞	-10.3127
屋內	-10.3131
就把	-10.3148
▁makazayazaya	-10.3151
學會	-10.3169
開門	-10.3169
很長	-10.3192
我的孩子	-10.3196
送給	-10.3198
▁ngat	-10.32
成了	-10.3222
▁ljemi	-10.3224
儀	-10.325
isan	-10.3259
真是	-10.3261
qaong	-10.3273
qaci	-10.3277
▁ljina	-10.3298
人數	-10.3301
▁penana	-10.3306
▁他們有	-10.3315
ciyor	-10.3346
棵	-10.3349
▁kemin	-10.3363
回到	-10.3374
哪些	-10.3378
▁我們排灣族	-10.3378
他沒有	-10.3433
大家好	-10.3435
aciljay	-10.3443
裂	-10.3446
豆	-10.3446
電視	-10.3446
師	-10.3446
牽	-10.3447
循	-10.3449
慰	-10.3449
兄	-10.3449
肩	-10.3449
供	-10.3449
窗	-10.345
嘴	-10.345
獸	-10.345
責	-10.345
縫	-10.345
探	-10.345
壯	-10.345
▁drem	-10.345
吐	-10.345
靜	-10.345
lekelek	-10.345
qemoziqozip	-10.345
▁djinameq	-10.345
▁你今天從哪裡來	-10.345
Vais	-10.345
▁vavolovolongan	-10.345
斤	-10.345
嫩	-10.345
染	-10.345
瓦	-10.345
palalaot	-10.345
▁saozayan	-10.345
握	-10.345
汁	-10.345
▁giling	-10.345
▁venecik	-10.345
番石榴	-10.345
muakay	-10.345
牡丹	-10.345
▁koysang	-10.345
▁cemoljo	-10.345
選擇	-10.3451
▁kakesan	-10.3451
洗澡	-10.3451
tarivak	-10.3451
▁qemozimozip	-10.3451
▁qecengecengel	-10.3451
paroarot	-10.3452
▁kenama	-10.3452
ngowaq	-10.3452
器具	-10.3452
味道	-10.3452
天天	-10.3452
表達	-10.3453
那張椅子很	-10.3453
▁semoposopo	-10.3454
出去玩	-10.3454
衣物	-10.3455
▁paqeteleng	-10.3456
▁cemadja	-10.3456
完全	-10.3458
▁koljiljiljilji	-10.3461
▁pavayan	-10.3463
山林	-10.3463
sekaolj	-10.3465
matjo	-10.3466
意外	-10.3468
▁qemati	-10.3469
▁papocekelj	-10.3471
paqaljay	-10.3471
▁pacalivat	-10.3473
歲了	-10.3477
▁matjelo	-10.3478
kiqilja	-10.3488
不夠	-10.3489
mazazangiljan	-10.3499
其中	-10.3499
tjemalopong	-10.3507
驗	-10.3508
▁你明天	-10.3516
kaviri	-10.3524
qayaw	-10.3535
做事	-10.3537
▁dalo	-10.3539
受到	-10.354
kadr	-10.3542
他很	-10.3546
pene	-10.3553
部落的人	-10.3564
給我們	-10.3568
ayain	-10.3572
▁tjaljayan	-10.3573
▁paolan	-10.3581
存在	-10.3583
kemeljang	-10.3588
akaw	-10.3589
dip	-10.3589
花生	-10.3592
▁rosa	-10.3592
▁sikata	-10.3616
好朋友	-10.3628
說族語	-10.3632
sem	-10.3652
emoda	-10.3657
▁taicoa	-10.366
在台北	-10.3664
在睡覺	-10.3668
一隻狗	-10.3695
的習俗	-10.3702
otjav	-10.3707
apaz	-10.371
▁zaing	-10.3713
sangasangas	-10.3729
▁然後我們	-10.3761
我們排灣族的	-10.3762
他的名字是	-10.3766
▁maretimalji	-10.3774
kis	-10.3795
pina	-10.3847
生命	-10.3847
▁ljin	-10.3881
碰	-10.3884
capilj	-10.3902
lingolj	-10.3902
懂	-10.3913
答	-10.3918
雜	-10.3918
統	-10.3919
鬆	-10.392
騎	-10.392
斜	-10.3921
耳	-10.3921
預	-10.3921
羨慕	-10.3921
亞	-10.3921
繁	-10.3921
削	-10.3921
嚇	-10.3921
撞	-10.3921
▁cemovoq	-10.3921
▁kaljaljoljaljo	-10.3921
▁sivecivecik	-10.3921
▁vinaikan	-10.3921
叮嚀	-10.3921
嘛	-10.3921
旮拉魯	-10.3921
盒	-10.3921
篩	-10.3921
贈	-10.3921
陰	-10.3921
▁Moni	-10.3921
▁tjemenon	-10.3921
臭	-10.3921
剪	-10.3921
叢	-10.3921
罵	-10.3921
kuliw	-10.3921
▁vencik	-10.3921
伊	-10.3921
摸	-10.3921
稀	-10.3921
兵	-10.3921
層	-10.3921
▁kinakemodan	-10.3921
牧師	-10.3921
▁kemacalisi	-10.3921
芒草	-10.3921
Lja	-10.3921
埋葬	-10.3921
懷孕	-10.3921
車站	-10.3921
形容	-10.3922
▁vavowa	-10.3922
▁qaljic	-10.3922
醃肉	-10.3922
釣魚	-10.3922
鄰居	-10.3922
保護	-10.3922
祭司	-10.3922
吉靈	-10.3922
附近	-10.3922
執行	-10.3922
永遠	-10.3923
早餐	-10.3923
▁sasiq	-10.3923
課本	-10.3923
搬運	-10.3923
paseqeljing	-10.3923
飛機	-10.3923
▁maraljak	-10.3923
產業	-10.3923
▁kano	-10.3924
▁maljekoya	-10.3924
新化	-10.3925
壞掉	-10.3925
美食	-10.3926
▁namacai	-10.3926
▁qiladjo	-10.3926
捕魚	-10.3927
panadip	-10.3928
傷口	-10.3928
rai	-10.3929
▁kavalanga	-10.3929
▁kinljang	-10.3931
便當	-10.3933
你知道	-10.3933
水源	-10.3934
重新	-10.3937
▁veneng	-10.3942
qaljop	-10.395
▁saoqaljay	-10.3958
▁ljinay	-10.3963
▁palaing	-10.3965
不在家	-10.3972
對方	-10.3975
的房子	-10.3981
▁koljeljelje	-10.3988
跟你	-10.3994
▁lalang	-10.4009
rasi	-10.401
打開	-10.4024
大學	-10.4035
我的媽媽	-10.4039
我沒有在	-10.404
▁masodjo	-10.4042
matazoa	-10.4065
sikac	-10.4078
但是我們	-10.4086
▁kinasengseng	-10.4091
padjele	-10.4093
的書	-10.4097
▁他們會	-10.4099
coivan	-10.411
一家	-10.4164
uc	-10.4166
veto	-10.4171
非常好	-10.4181
特別的	-10.4184
▁Ma	-10.4184
▁kemasizoa	-10.4208
的原因	-10.4211
回來了	-10.4213
kasivan	-10.4223
▁azazoa	-10.4237
男女	-10.4254
我們不能	-10.4266
人民	-10.43
kic	-10.4306
將要	-10.4309
一半	-10.431
tavong	-10.4312
我們原住民	-10.4318
去田裡	-10.4329
幫你	-10.4344
完了	-10.4366
kiam	-10.438
日子	-10.4385
社	-10.439
▁din	-10.4395
▁sake	-10.4403
繩	-10.4404
▁moakai	-10.4411
該怎麼	-10.4411
salim	-10.4412
幹	-10.4412
育	-10.4412
終	-10.4413
織	-10.4413
玉	-10.4413
永	-10.4413
錄	-10.4413
固	-10.4413
附	-10.4414
備	-10.4414
acovocovong	-10.4414
姐	-10.4414
耀	-10.4415
模	-10.4415
buya	-10.4415
唸	-10.4415
燃	-10.4415
▁ljaqediqedi	-10.4415
▁sikasalialim	-10.4415
際	-10.4415
飲	-10.4415
▁maqepoqepo	-10.4415
伯	-10.4415
喚	-10.4415
棟	-10.4415
踩	-10.4415
鋸	-10.4415
小男孩	-10.4415
粽	-10.4415
餡	-10.4415
▁dikinay	-10.4415
憂	-10.4415
讚	-10.4415
豐年祭	-10.4415
逹	-10.4415
▁sevacaq	-10.4415
儲	-10.4415
幼	-10.4415
▁sarongoaq	-10.4415
予	-10.4415
各式各樣	-10.4415
的貓是黑色的	-10.4415
lingdjelj	-10.4415
貨	-10.4415
舅舅	-10.4415
▁pazoljo	-10.4415
娶	-10.4415
藉	-10.4415
占卜	-10.4415
歷史	-10.4415
陳述	-10.4415
沉	-10.4415
治療	-10.4415
▁paqaljai	-10.4415
停止	-10.4415
loseq	-10.4415
▁kalaingan	-10.4416
▁qemiladj	-10.4416
增加	-10.4416
ljaqedi	-10.4416
▁tevota	-10.4416
現代	-10.4417
分鐘	-10.4418
青菜	-10.4419
▁ljeteko	-10.4419
同樣	-10.442
吃飽	-10.442
刺球	-10.442
上班	-10.4421
裝滿	-10.4422
他們家有	-10.4422
▁mareqali	-10.4422
▁patjetoco	-10.4423
掉落	-10.4424
繩子	-10.4426
視為	-10.4426
omaomaq	-10.4427
polavay	-10.4431
起火	-10.4436
並不是	-10.444
▁vilivililjan	-10.444
▁salom	-10.4441
taiday	-10.4443
▁paqenetjo	-10.4448
ntalj	-10.4451
當然	-10.4452
不清楚	-10.4454
▁tjialj	-10.4457
米飯	-10.4459
紅色	-10.446
▁qemoma	-10.4465
明天要	-10.4467
▁katiaw	-10.4477
eqac	-10.448
國家	-10.4481
找到了	-10.4481
▁ljaviya	-10.4482
senav	-10.449
的生命	-10.4501
一起來	-10.4504
▁ljevavav	-10.4511
seqetj	-10.4513
事務	-10.4514
道路	-10.4522
聲音	-10.4534
在外面	-10.4537
mavali	-10.454
kora	-10.4543
aze	-10.4561
▁taito	-10.4569
aosoa	-10.459
qaljan	-10.4591
rakac	-10.4605
在都市	-10.4607
▁tekel	-10.4617
▁semenasenay	-10.4619
這件事	-10.4643
去教會	-10.4653
若不	-10.4659
家鄉	-10.466
oqaljay	-10.4685
caoan	-10.4695
▁kesain	-10.4695
▁semenasena	-10.4724
emodja	-10.4729
djomaken	-10.4734
看過	-10.4748
▁matjani	-10.4766
瑪	-10.4782
katj	-10.4805
temo	-10.4813
給你	-10.4813
去打獵	-10.4824
可以吃	-10.4825
那是我	-10.4841
小朋友	-10.4842
小米田	-10.4848
tjalje	-10.4859
gade	-10.4862
▁kivalj	-10.4866
ngol	-10.4887
mapoljo	-10.4892
互	-10.4894
kasiv	-10.4904
換工	-10.4906
▁gak	-10.4907
論	-10.4916
桌	-10.4924
▁ljaljeqel	-10.4926
環	-10.4928
鐘	-10.4929
秋	-10.493
展	-10.4932
繡	-10.4933
▁venate	-10.4933
資	-10.4933
媽	-10.4934
聖	-10.4934
L	-10.4934
補	-10.4934
奇	-10.4934
怪	-10.4934
費	-10.4934
似	-10.4934
忌	-10.4934
初	-10.4934
灰	-10.4934
爾	-10.4934
露	-10.4934
▁djemadjas	-10.4934
升	-10.4934
密	-10.4934
蝦	-10.4934
穿山甲	-10.4934
▁padjalim	-10.4934
▁salilim	-10.4934
仔細	-10.4934
極	-10.4934
ljemangoy	-10.4934
緣	-10.4934
▁pinoaljakan	-10.4935
廚房	-10.4935
遷徙	-10.4935
渴	-10.4935
遍	-10.4935
▁zirio	-10.4935
幣	-10.4935
興趣	-10.4935
的頭髮很長	-10.4935
紙	-10.4935
練習	-10.4935
onting	-10.4935
▁makatalj	-10.4935
▁minqot	-10.4935
kasintan	-10.4935
河川	-10.4935
跌倒	-10.4935
泥土	-10.4935
延續	-10.4935
輕鬆	-10.4935
安慰	-10.4936
提醒	-10.4936
無論	-10.4936
順利	-10.4936
許願	-10.4936
依循	-10.4936
獵獲	-10.4937
卡車	-10.4937
聊天	-10.4937
keljakeljang	-10.4937
裝飾	-10.4937
▁ravarava	-10.4937
▁ciqav	-10.4937
黃色	-10.4938
田園	-10.4939
▁我要買	-10.4939
玩具	-10.494
二十	-10.4941
▁womaq	-10.4942
帶雨傘	-10.4943
喪事	-10.4943
▁sitongan	-10.4944
溪水	-10.4944
山羊	-10.4947
白天	-10.4947
由於	-10.4948
▁mecevong	-10.4949
正在下雨	-10.4949
年代	-10.4949
袋子	-10.4952
▁comai	-10.4953
venarong	-10.4954
tjaljomaza	-10.4956
鍋子	-10.4956
我們大家	-10.4959
▁kicapilj	-10.496
田地	-10.4963
▁qivoivo	-10.4963
就是那樣	-10.4964
venala	-10.4964
最高	-10.4967
▁mavavoa	-10.4978
回到家	-10.4979
▁kipaiso	-10.498
不久	-10.4987
▁kipocemel	-10.4989
另一	-10.4991
▁kaizoanan	-10.5002
有哪些	-10.5021
這位	-10.5022
小米酒	-10.5027
奶奶說	-10.5029
▁kiayan	-10.5031
landa	-10.5035
很高興	-10.505
▁如果沒有	-10.5058
都可以	-10.5058
應該是	-10.5059
回部落	-10.5059
▁sazoain	-10.5065
石板屋	-10.5071
oram	-10.5091
並沒有	-10.5094
palalj	-10.5095
更好	-10.5109
▁kitjen	-10.5112
我們一起去	-10.5168
▁tjeza	-10.5169
也不會	-10.5187
去醫院	-10.5194
limalj	-10.5213
limalima	-10.5218
要小心	-10.5249
▁djoi	-10.5254
pocekelj	-10.5257
▁pakanan	-10.5269
一百	-10.5271
200	-10.5272
都市	-10.5285
今天要	-10.5299
請問你	-10.5322
家名	-10.5326
tjengelay	-10.5327
不錯	-10.5381
qinaljanan	-10.5426
中文	-10.5441
iladjan	-10.547
官	-10.5477
醫	-10.5478
拜	-10.5479
djamoq	-10.5479
訪	-10.5479
雄	-10.548
seleman	-10.548
非	-10.5481
牆	-10.5481
仍	-10.5481
茶	-10.5481
吉	-10.5481
恩	-10.5481
店	-10.5482
埋	-10.5482
披	-10.5482
姊妹	-10.5482
▁那些男孩子正在	-10.5483
刮	-10.5483
FormosanBank	-10.5483
kaledep	-10.5483
▁Koljiljiljilji	-10.5483
▁boya	-10.5483
▁cemekemekelj	-10.5483
▁voteqiteqilj	-10.5483
捆	-10.5483
知更鳥	-10.5483
聴	-10.5483
▁aravc	-10.5483
▁saqetjoqetjo	-10.5483
滑	-10.5483
鮮	-10.5483
塌	-10.5483
棉	-10.5483
琉	-10.5483
那些孩子在玩耍	-10.5483
▁sialangan	-10.5483
▁你們家有幾個	-10.5483
古勒勒	-10.5483
震	-10.5483
頸	-10.5483
Kuljelje	-10.5483
puljaljuyan	-10.5483
qerengan	-10.5483
滾	-10.5483
戲	-10.5483
vowaq	-10.5483
sarekoya	-10.5483
▁zemian	-10.5483
veric	-10.5483
土坂	-10.5483
商店	-10.5483
周圍	-10.5483
▁maipoq	-10.5483
▁kilimo	-10.5483
幾點鐘	-10.5483
嘴巴	-10.5483
▁至於	-10.5483
孤兒	-10.5483
▁gacaljo	-10.5483
▁vineli	-10.5484
▁qocengecengel	-10.5484
帶著雨傘	-10.5484
表現	-10.5484
▁vacalj	-10.5484
終於	-10.5485
火車站	-10.5485
laqot	-10.5485
▁kivalavala	-10.5486
▁masovaqo	-10.5486
celalaq	-10.5486
早期	-10.5486
打電話	-10.5487
明白	-10.5487
獲得	-10.5488
ricing	-10.5489
ingedjelj	-10.549
請給我	-10.549
▁metjorovo	-10.5491
方法	-10.5491
▁voyo	-10.5491
▁itaqeci	-10.5494
▁zemaing	-10.5495
▁maiso	-10.5496
遲到	-10.5496
▁mavekelj	-10.5498
大溪	-10.5498
▁masiaq	-10.5498
洗手	-10.5498
sekakoda	-10.55
起立	-10.5501
樹皮	-10.5502
▁seljavak	-10.5502
▁mapeljoq	-10.5503
更多	-10.5507
sezam	-10.5507
▁好吧	-10.5508
vecikan	-10.5509
▁pinizoa	-10.5513
從此	-10.5516
德文部落	-10.5518
▁semagado	-10.5527
車子	-10.5532
▁kilangeda	-10.5538
▁qadja	-10.5539
走吧	-10.554
▁velio	-10.5542
分享給	-10.5545
djadjalan	-10.5545
djeli	-10.5547
有一位	-10.5551
▁kipaola	-10.5553
告訴我們	-10.5561
▁我們稱	-10.5565
ljor	-10.5567
芋頭媽媽	-10.5605
把它	-10.561
當時我	-10.5617
▁sitoco	-10.5626
▁kisoso	-10.5637
們昨天去	-10.5649
garang	-10.5651
從哪裡	-10.5651
pavecik	-10.566
▁cemavo	-10.5715
很快就	-10.5731
tailj	-10.574
▁para	-10.5755
lalaing	-10.5759
一塊	-10.5791
kamangoaq	-10.5791
交換	-10.5793
mazamaza	-10.5806
navenala	-10.5812
tjevavav	-10.5815
coljan	-10.5817
像這樣	-10.5865
共有	-10.5875
eces	-10.5878
▁他們就	-10.5883
▁mangoaqan	-10.5883
vul	-10.5901
▁當時我們	-10.5923
叫做	-10.5928
seto	-10.594
rokoz	-10.5954
頭目家	-10.5959
sikatjelo	-10.5963
樣子	-10.5965
adaw	-10.5972
我很喜歡	-10.5993
男子	-10.6
隔	-10.6005
我的腳	-10.6032
述	-10.6042
家中	-10.6043
超	-10.6046
籃	-10.6051
kisamolja	-10.6052
(	-10.6053
A	-10.6054
kaikai	-10.6055
paqolid	-10.6056
salasaladj	-10.6058
值	-10.6059
享	-10.6059
左	-10.606
翻	-10.606
傘	-10.6061
專	-10.6061
輪	-10.6061
肥	-10.6061
鄰	-10.6061
姑	-10.6062
搗	-10.6062
鍊	-10.6062
sengesengan	-10.6062
烏	-10.6062
levelev	-10.6062
釋	-10.6062
D	-10.6062
吟	-10.6062
含	-10.6062
梳	-10.6062
尖	-10.6062
藝	-10.6062
叉	-10.6062
惹	-10.6062
的狀況	-10.6062
cidicidilj	-10.6062
paqateleng	-10.6062
simatjelj	-10.6062
▁Taiwan	-10.6062
很辛苦	-10.6062
盪	-10.6062
罰	-10.6062
餘	-10.6062
▁kaljaoragan	-10.6062
一段時間	-10.6062
查	-10.6062
獻	-10.6062
胎	-10.6062
託	-10.6062
ljameljam	-10.6062
女子名	-10.6062
姑婆芋	-10.6062
姿	-10.6062
尺	-10.6062
▁vavaoni	-10.6062
彈	-10.6062
蹲	-10.6062
▁kasasavan	-10.6062
厚	-10.6062
胸	-10.6062
▁pasanavalj	-10.6062
我忘了帶	-10.6062
檢查	-10.6062
郵局	-10.6062
客廳	-10.6062
殼	-10.6062
冰箱	-10.6062
papamaw	-10.6063
華	-10.6063
▁semopoljoan	-10.6063
▁tjarivavav	-10.6063
砍伐	-10.6063
雕刻	-10.6063
吵架	-10.6063
▁soalapen	-10.6063
領域	-10.6063
己經	-10.6063
藍色	-10.6063
racev	-10.6063
▁請問您	-10.6063
kiljaceng	-10.6063
▁tarar	-10.6064
充滿	-10.6064
標記	-10.6064
▁tinnaw	-10.6064
妻子	-10.6064
畫畫	-10.6064
樂器	-10.6064
▁pacoal	-10.6064
對我說	-10.6065
代表	-10.6065
生薑	-10.6066
▁那個女人	-10.6066
▁marekakakaka	-10.6066
▁pacikelen	-10.6067
▁valisaked	-10.6067
konian	-10.6069
建立	-10.6069
各樣	-10.6069
風吹	-10.607
隨意	-10.6071
▁qomaqan	-10.6071
kiokay	-10.6071
▁djemaolj	-10.6071
聽見	-10.6072
喝酒	-10.6072
一點點	-10.6073
我明天要去	-10.6074
▁inalap	-10.6074
▁malekotj	-10.6075
過夜	-10.6078
▁tapav	-10.6079
起身	-10.6081
▁cacavo	-10.6081
拿出來	-10.6082
忙著	-10.6083
▁savid	-10.6085
還需要	-10.6087
之間	-10.6088
造成	-10.6089
必須要	-10.6095
是醫生	-10.6099
ljeljeng	-10.61
本來	-10.6105
▁kemsa	-10.6108
機會	-10.6108
小山豬	-10.6109
drasi	-10.6111
▁vaikamen	-10.6112
▁kemodakoda	-10.6113
文字	-10.6121
▁ljakama	-10.6123
有一種	-10.6125
▁lemangda	-10.6133
▁nimon	-10.6151
▁pacacikel	-10.6157
年級	-10.6174
▁但是現在	-10.6184
itaita	-10.6191
▁因為他們	-10.6195
因為以前	-10.6199
一支	-10.6218
▁djemedje	-10.6239
kasalo	-10.6252
▁tjaoka	-10.6272
madjomak	-10.6316
peng	-10.6316
kam	-10.6321
帶走	-10.6337
mapasoso	-10.634
adjoq	-10.6353
你為什麼	-10.6379
五個	-10.641
心中	-10.6422
大家一起	-10.6425
還好	-10.6439
maqati	-10.6451
▁le	-10.6454
所謂	-10.6464
▁pakan	-10.648
勤勞	-10.6499
借你	-10.6516
才可以	-10.6526
▁siniaya	-10.6547
▁maljiya	-10.6547
angez	-10.6562
engez	-10.662
▁napena	-10.662
德文	-10.664
相關	-10.6642
sikeljang	-10.6643
tjavovo	-10.6643
房	-10.6664
巨	-10.6665
裙	-10.6667
覺	-10.6672
▁ramaljemaljen	-10.6673
春	-10.6674
森林	-10.6675
注	-10.6676
賽	-10.6676
龍	-10.6676
姆	-10.6677
嬰	-10.6677
姊	-10.6677
潭	-10.6677
易	-10.6677
增	-10.6677
捉	-10.6677
架	-10.6678
喊	-10.6678
孕	-10.6678
龜	-10.6678
甚至	-10.6678
彎	-10.6678
百合花	-10.6678
彷	-10.6678
腿	-10.6678
點鐘	-10.6678
R	-10.6678
cumay	-10.6678
召	-10.6678
慕	-10.6678
秀	-10.6678
臼	-10.6678
衝	-10.6678
魯凱族	-10.6678
叫什麼名字	-10.6678
岩	-10.6678
巨石部落	-10.6678
我的眼睛	-10.6678
扛	-10.6678
癢	-10.6678
苗	-10.6678
詩	-10.6678
鏡	-10.6678
Tjuku	-10.6678
▁Koljelje	-10.6678
▁ljakaraw	-10.6678
▁pazekatj	-10.6678
▁penayoanan	-10.6678
▁peniliq	-10.6678
▁qemaoqaong	-10.6678
咖	-10.6678
弓	-10.6678
親朋好友	-10.6678
酸	-10.6678
霧	-10.6678
▁你有幾隻	-10.6678
這張桌子很重	-10.6678
青少年	-10.6678
qaljoqaljop	-10.6678
刷	-10.6678
墊	-10.6678
墓	-10.6678
寒	-10.6678
崩	-10.6678
素	-10.6678
誠	-10.6678
▁koljaljao	-10.6678
弱	-10.6678
撫	-10.6678
胡	-10.6678
蒸	-10.6678
那對夫妻	-10.6678
valjetjok	-10.6678
▁ljowang	-10.6678
宴	-10.6678
帥	-10.6678
建築	-10.6678
李	-10.6678
罪	-10.6678
構	-10.6678
▁metad	-10.6678
▁kacawan	-10.6678
經濟	-10.6678
看不起	-10.6678
聯	-10.6678
政	-10.6678
湖	-10.6678
郎	-10.6678
倉庫	-10.6678
圖案	-10.6678
哭泣	-10.6678
抵	-10.6678
慶典	-10.6678
selapay	-10.6678
宣告	-10.6678
medrang	-10.6678
炎熱	-10.6678
害羞	-10.6678
距離	-10.6678
▁kakavelian	-10.6678
包括	-10.6678
斜坡	-10.6679
多麼	-10.6679
稅收	-10.6679
內容	-10.6679
▁sakino	-10.6679
冬天	-10.6679
護士	-10.6679
賜福	-10.6679
親友	-10.6679
禮俗	-10.6679
▁qerepos	-10.6679
聚在一起	-10.6679
破壞	-10.6679
團結	-10.668
▁qiniladjan	-10.668
▁mapasaqetjo	-10.668
佳平	-10.668
變化	-10.668
ligoligo	-10.6681
▁miseleman	-10.6681
parotavak	-10.6681
歌詞	-10.6681
conoq	-10.6681
Tjeljev	-10.6682
▁pinakazoanan	-10.6682
依靠	-10.6682
稻米	-10.6682
樹幹	-10.6682
sawni	-10.6682
從前時候	-10.6682
男士	-10.6682
zaleman	-10.6682
河流	-10.6683
▁pinenetjan	-10.6683
懂得	-10.6683
花朵	-10.6683
裂開	-10.6684
piliq	-10.6684
傳統領袖	-10.6685
山藥	-10.6687
夠用	-10.6687
鼻子	-10.6688
Akaw	-10.6689
出去的時候	-10.6689
邀	-10.6689
lema	-10.669
太太	-10.6691
他們天天看電視	-10.6691
▁qoljaw	-10.6692
ceviq	-10.6692
▁pangac	-10.6693
採收小米	-10.6694
哪一個	-10.6695
各自	-10.6696
述說	-10.6697
mapalak	-10.6697
一顆	-10.6697
稱呼	-10.6698
再次	-10.6699
牠們	-10.6699
kolavaw	-10.6703
得很好	-10.6705
走的路	-10.6706
▁patolo	-10.6706
相當	-10.6709
▁posao	-10.671
聚會	-10.6711
比較多	-10.6715
三天	-10.6723
valeng	-10.6725
▁zokoan	-10.673
▁katiav	-10.6734
我是學生	-10.6734
吃東西	-10.6741
最多	-10.6742
一面	-10.6745
tepi	-10.6758
長老	-10.6759
▁cinavo	-10.6764
真好	-10.6771
有三個	-10.6787
poljacengan	-10.6791
pacocon	-10.68
男子名	-10.6807
zek	-10.6808
安放	-10.6816
cevelj	-10.6818
▁kemava	-10.6825
emeze	-10.6856
▁sikasengseng	-10.6878
將它	-10.6901
整個	-10.6937
qalev	-10.6945
ngamen	-10.6978
tjaol	-10.6991
中午	-10.7028
tjakodai	-10.7042
每天都	-10.7083
▁zem	-10.7126
想法	-10.7136
位置	-10.7168
oljaolja	-10.718
▁kodakodain	-10.7181
是學生	-10.7186
peljo	-10.7191
sara	-10.7201
山裡	-10.7201
ayaza	-10.7203
▁我們今天	-10.7218
一個月	-10.7237
vangavangan	-10.7258
底	-10.7275
▁peno	-10.7275
qiladj	-10.7306
鼻	-10.7323
走過	-10.7326
領袖	-10.7326
飽	-10.7327
眾	-10.733
圖	-10.7332
洋	-10.7333
凡	-10.7333
擋	-10.7333
宜	-10.7333
島	-10.7333
隱	-10.7333
休	-10.7333
箭	-10.7333
竟	-10.7333
微	-10.7333
榮	-10.7333
壁	-10.7334
討	-10.7334
巫	-10.7334
窮	-10.7334
阻	-10.7334
蜂	-10.7334
營	-10.7334
悲	-10.7334
盤	-10.7334
速	-10.7334
擠	-10.7334
佩	-10.7334
卑	-10.7334
抹	-10.7334
琴	-10.7334
陷	-10.7334
paqoziqozip	-10.7334
▁calisilisi	-10.7334
▁kavoavoan	-10.7334
▁pinoljacengan	-10.7334
▁tjoabar	-10.7334
▁vinecikan	-10.7334
付	-10.7334
嘎	-10.7334
敲	-10.7334
柄	-10.7334
桶	-10.7334
漏	-10.7334
盆	-10.7334
縮	-10.7334
訝	-10.7334
跡	-10.7334
sakinu	-10.7334
▁cangiangi	-10.7334
▁kinacalisiyan	-10.7334
乖	-10.7334
徵	-10.7334
沒辦法	-10.7334
派	-10.7334
票	-10.7334
雪	-10.7334
▁patekoteko	-10.7334
▁venalivali	-10.7334
吞	-10.7334
夥	-10.7334
犁	-10.7334
逢	-10.7334
餅	-10.7334
▁zalangzang	-10.7334
扮	-10.7334
用左手	-10.7334
痕	-10.7334
▁pinaljavakan	-10.7334
昏	-10.7334
梗	-10.7334
熄滅	-10.7334
陶甕	-10.7334
魂	-10.7334
▁lialiav	-10.7334
巧	-10.7334
蘇	-10.7334
暫	-10.7334
釣竿	-10.7334
▁pinacayan	-10.7334
羽毛	-10.7334
▁qinoman	-10.7334
▁paotez	-10.7334
▁podringay	-10.7334
觀察	-10.7334
豐富	-10.7334
我今天從	-10.7334
▁djemomak	-10.7334
▁holic	-10.7334
耳環	-10.7334
呼喊	-10.7334
▁kinacemkeljan	-10.7334
糖果	-10.7334
區域	-10.7334
▁semagako	-10.7334
法律	-10.7334
▁ladroadroq	-10.7335
擋線	-10.7335
不見了	-10.7335
購買	-10.7335
▁kowang	-10.7335
▁kiyokai	-10.7335
100	-10.7335
▁vocolj	-10.7335
舒適	-10.7335
發芽	-10.7335
嬰兒	-10.7335
飛鼠	-10.7335
今年幾歲	-10.7335
papaolinga	-10.7336
▁kaosoa	-10.7336
石牆	-10.7336
薪水	-10.7336
▁vayk	-10.7336
Malala	-10.7336
設置	-10.7336
禮拜	-10.7336
口社	-10.7336
▁malevaleva	-10.7336
透過	-10.7337
求婚	-10.7337
▁vikong	-10.7338
管理	-10.7338
正確	-10.7338
春天	-10.7338
▁qavay	-10.7338
▁那個女孩子喜歡	-10.7339
水泥	-10.7339
▁kinesa	-10.7339
▁valong	-10.7339
目前	-10.7339
祖父祖母	-10.7339
先祖	-10.734
▁sangel	-10.734
最重要的	-10.7341
曬乾	-10.7341
▁palisilisi	-10.7341
年糕	-10.7342
▁qemepo	-10.7342
小小的	-10.7342
取名字	-10.7342
運氣	-10.7342
加入	-10.7342
▁medjama	-10.7342
大社	-10.7345
裙子	-10.7345
▁kitjaola	-10.7346
樹枝	-10.7346
kinisedjam	-10.7348
▁sinipoaljak	-10.7349
煮食	-10.735
▁makelo	-10.7352
▁kinodan	-10.7353
活著	-10.7353
kelay	-10.7354
比較快	-10.7354
▁sitjaocikel	-10.7355
▁madjele	-10.7356
女朋友	-10.7357
▁mavilad	-10.7357
舊部落	-10.7358
▁qaljiv	-10.7358
▁yitjen	-10.7359
▁matjatjo	-10.7359
地區	-10.736
放學	-10.7362
kasoi	-10.7362
vangas	-10.7363
▁paqeljing	-10.7363
▁kavala	-10.7366
整地	-10.7367
本家	-10.7371
而已	-10.7372
一切	-10.7372
▁kakaiyan	-10.7373
妳們	-10.7379
加上	-10.7382
▁padjaljon	-10.739
隔天	-10.7399
vais	-10.7411
▁kalakoda	-10.743
penaola	-10.7434
你是不是	-10.7438
個月	-10.7445
orag	-10.7449
aitoco	-10.7456
這邊	-10.7469
peljoq	-10.7472
lovad	-10.7495
macay	-10.75
▁cemapa	-10.7513
▁malom	-10.7538
來源	-10.7544
tadalj	-10.7548
veliyan	-10.7549
maitoco	-10.7554
patagilj	-10.759
caocao	-10.76
tjaocikel	-10.7601
cikecikel	-10.7603
polj	-10.7618
底下	-10.7626
mangetjez	-10.7629
cawcao	-10.7637
▁我有一隻	-10.7667
masalo	-10.7672
▁kison	-10.7675
這件	-10.776
三年	-10.7776
▁kinitolo	-10.7779
kisenay	-10.778
吃完	-10.7786
mapavalit	-10.7812
▁pizoain	-10.7836
借給	-10.7859
▁nakipa	-10.7861
為甚麼	-10.7862
aliyan	-10.7871
看病	-10.7896
▁sikodakodan	-10.7899
kep	-10.7903
否	-10.7941
夠	-10.7953
kiljaljava	-10.7955
歌唱	-10.7961
搬到	-10.7986
▁vale	-10.7989
vilad	-10.8013
習	-10.8025
瓜	-10.8026
挑	-10.803
聊	-10.8032
司	-10.8033
周	-10.8033
執	-10.8033
充	-10.8034
嚼	-10.8034
友	-10.8034
孤	-10.8035
腦	-10.8035
按	-10.8035
月桃	-10.8035
勇	-10.8035
協	-10.8035
卜	-10.8035
貧	-10.8035
占	-10.8036
忍	-10.8036
敢	-10.8036
牲	-10.8036
橋	-10.8036
騙	-10.8036
泡	-10.8036
警	-10.8036
膚	-10.8036
太麻里	-10.8036
唯	-10.8036
牢	-10.8036
英	-10.8036
齊	-10.8036
senasenai	-10.8036
zepezep	-10.8036
▁Poljaljoyan	-10.8036
▁djemavadjavac	-10.8036
▁kaljavevean	-10.8036
▁paiwoanzoko	-10.8036
▁soqelam	-10.8036
▁tinaleman	-10.8036
▁zidosia	-10.8036
▁那個男孩子正在	-10.8036
促	-10.8036
凱	-10.8036
捲	-10.8036
梨	-10.8036
無患子	-10.8036
甕	-10.8036
誤	-10.8036
▁Kolio	-10.8036
▁kininemeneman	-10.8036
▁tjemogot	-10.8036
差不多	-10.8036
的權利	-10.8036
耆老們	-10.8036
談戀愛	-10.8036
軟	-10.8036
Kuliu	-10.8036
克	-10.8036
摔	-10.8036
潔	-10.8036
臟	-10.8036
蓆	-10.8036
襲	-10.8036
躺	-10.8036
▁kemacalisiyanan	-10.8036
▁likoljaw	-10.8036
個小孩有幾	-10.8036
塑	-10.8036
月亮出來了	-10.8036
蓮	-10.8036
鎖	-10.8036
polingav	-10.8036
喻	-10.8036
搞	-10.8036
測	-10.8036
綑	-10.8036
腐	-10.8036
卑南族	-10.8036
減	-10.8036
診	-10.8036
侵	-10.8036
科	-10.8036
涵	-10.8036
貼	-10.8036
抱歉	-10.8036
岸	-10.8036
maciocior	-10.8036
▁pasovililj	-10.8036
湯匙	-10.8036
▁kemim	-10.8036
慶祝	-10.8036
彎曲	-10.8036
的民族	-10.8036
愈	-10.8036
們常常去探望祖父	-10.8036
amirika	-10.8036
左右	-10.8036
▁這是誰的	-10.8036
圖紋	-10.8036
的動作	-10.8036
影響	-10.8036
搖籃	-10.8037
▁paceged	-10.8037
既然	-10.8037
林班	-10.8037
▁maomalj	-10.8037
樑柱	-10.8037
考試	-10.8037
現今	-10.8037
▁rarasodjan	-10.8037
刺山藥	-10.8037
懷念	-10.8037
創造	-10.8037
圓形	-10.8037
▁caqev	-10.8037
計算	-10.8037
▁kolosi	-10.8038
例如	-10.8038
新芽	-10.8038
龍眼	-10.8038
▁接下來	-10.8038
▁lomamad	-10.8038
今天天氣好	-10.8038
▁kinisenayan	-10.8038
靠近	-10.8039
▁moakaikai	-10.8039
▁odong	-10.8039
每個	-10.8039
雙方	-10.8039
照片	-10.8039
森林裡	-10.804
故鄉	-10.804
▁valangaw	-10.804
aviyangan	-10.804
夜晚	-10.804
那隻狗	-10.804
▁pasaliv	-10.804
工程	-10.804
鞋子	-10.804
你怎麼知道	-10.8041
布料	-10.8041
▁上課	-10.8041
挑水	-10.8041
牽手	-10.8041
▁kiciol	-10.8042
找不到	-10.8042
數量	-10.8042
見面	-10.8042
首先	-10.8042
▁kipapaolingavo	-10.8042
djolat	-10.8043
▁temolotolo	-10.8043
▁tjiyamadjo	-10.8043
每次	-10.8043
成員	-10.8044
安全	-10.8045
金錢	-10.8045
海邊	-10.8045
方面	-10.8046
▁paokoz	-10.8046
頭頂	-10.8046
鳥類	-10.8046
▁haiya	-10.8047
講話	-10.8048
煮熟	-10.8048
tagiljan	-10.8048
不客氣	-10.8048
▁你怎麼了	-10.8049
ljaveljav	-10.8049
村落	-10.805
菜園	-10.805
作法	-10.805
每個人	-10.8052
arot	-10.8053
▁meljai	-10.8054
▁ripong	-10.8054
絕對	-10.8056
超過	-10.8056
祖先們	-10.8056
coni	-10.8063
▁padain	-10.8067
▁kemasicoay	-10.8068
被偷	-10.8069
馬上	-10.8069
kakodralan	-10.8072
很矮	-10.8075
起風	-10.8077
laroq	-10.8084
semevalj	-10.8086
eljep	-10.8094
就是如此	-10.8102
很重要的	-10.8117
傳統習慣	-10.8129
上方部落的	-10.8142
omol	-10.8143
sedjam	-10.8193
qazalj	-10.8217
存放	-10.8219
幾年	-10.8227
lapen	-10.8241
sangasang	-10.8281
▁satjezen	-10.8324
kasizoan	-10.8337
sakoc	-10.8356
nzio	-10.8363
的名字是什麼	-10.8382
taiki	-10.8398
全都	-10.8414
cekecek	-10.8418
▁kemac	-10.8441
到台北	-10.8445
kilaing	-10.8472
▁maqol	-10.848
tjoqalja	-10.8489
djele	-10.85
很開心	-10.8528
makazayazay	-10.8529
rasodjan	-10.8532
進屋	-10.8587
吃的東西	-10.8624
kinsa	-10.868
分給	-10.868
我們今天要去	-10.8735
vilivililj	-10.8739
solem	-10.8771
天天看電視	-10.8775
班	-10.878
薑	-10.8786
骨	-10.8787
童	-10.8787
亡	-10.8787
odjidjilj	-10.8789
嚴	-10.8789
樓	-10.8789
謝	-10.8789
鹽	-10.879
穴	-10.879
訴	-10.879
茂	-10.879
奶	-10.879
宣	-10.879
箱	-10.8791
耐	-10.8791
返	-10.8791
維	-10.8791
呈現	-10.8791
Eleng	-10.8791
▁gecel	-10.8791
戴著帽子	-10.8791
旱	-10.8791
汗	-10.8791
羅	-10.8791
鞭	-10.8791
utjung	-10.8791
晴	-10.8791
沙達以勒	-10.8791
蔭	-10.8791
薄	-10.8791
陣	-10.8791
鼓勵	-10.8791
muakai	-10.8791
莫凱伊	-10.8791
虎	-10.8791
drangadrang	-10.8791
polingalingav	-10.8791
▁bolabolay	-10.8791
▁hiapoda	-10.8791
▁mangtjengtjez	-10.8791
▁marezekatj	-10.8791
▁ngodjos	-10.8791
▁penaiwanan	-10.8791
▁pocekecekelj	-10.8791
▁sicaovan	-10.8791
▁venosam	-10.8791
冠	-10.8791
尤文生	-10.8791
Puljaljuyan	-10.8791
lanpav	-10.8791
三地門	-10.8791
我來找你	-10.8791
株	-10.8791
籠	-10.8791
sipoaljaljak	-10.8791
▁vakela	-10.8791
啃	-10.8791
封	-10.8791
液	-10.8791
演	-10.8791
穗	-10.8791
籬	-10.8791
勒	-10.8791
祢	-10.8791
蔓	-10.8791
造物者	-10.8791
cemelesai	-10.8791
tjoavangas	-10.8791
vikung	-10.8791
▁papizoanan	-10.8791
▁papoloqem	-10.8791
▁sipaveliveli	-10.8791
佔	-10.8791
鋪	-10.8791
mazeli	-10.8791
城	-10.8791
石壓式陷阱	-10.8791
▁notjaivililj	-10.8791
嫂	-10.8791
患	-10.8791
損	-10.8791
▁pariok	-10.8791
插	-10.8791
橫	-10.8791
甲	-10.8791
▁tjagaraos	-10.8791
▁sikavaljotan	-10.8791
没	-10.8791
sekaomalj	-10.8791
賽嘉	-10.8791
▁satjair	-10.8791
kiqadilj	-10.8791
政策	-10.8791
阻擋	-10.8791
老翁	-10.8791
qemaqivo	-10.8791
吸引	-10.8791
▁ljemengoaq	-10.8791
▁真羨慕	-10.8791
▁ngiaw	-10.8791
抗	-10.8791
烈	-10.8791
登記	-10.8791
▁qoljivangeraw	-10.8791
▁remokoz	-10.8791
宗教	-10.8791
陸	-10.8791
資源	-10.8791
足夠	-10.8791
▁qemalo	-10.8792
資料	-10.8792
思考	-10.8792
有五個人	-10.8792
▁djeljep	-10.8792
守護	-10.8792
在樹上	-10.8792
感恩	-10.8792
遺失	-10.8792
務農	-10.8792
思念	-10.8792
禮貌	-10.8792
▁kaomaqan	-10.8792
月桃葉	-10.8793
六個人	-10.8793
▁marevetjevetjek	-10.8793
公司	-10.8793
打雷	-10.8793
mazangilj	-10.8793
抓到獵物	-10.8793
ailjongan	-10.8793
收割	-10.8793
iljaqilja	-10.8793
semezam	-10.8793
賣完了	-10.8794
越來越多	-10.8794
多良	-10.8794
kaokao	-10.8794
立刻	-10.8794
背袋	-10.8794
語料	-10.8794
室內	-10.8795
釀酒	-10.8795
規定	-10.8795
必定	-10.8795
雜草	-10.8795
獵槍	-10.8796
遷村	-10.8796
值得	-10.8796
▁kemoang	-10.8797
qaoqaong	-10.8797
定居	-10.8798
以前的老人家	-10.8798
住院	-10.8799
有一個妹妹	-10.8799
野菜	-10.88
共同	-10.88
太好了	-10.8801
▁qetji	-10.8801
七天	-10.8801
cemakav	-10.8801
牛車	-10.8802
穿衣服	-10.8803
火車	-10.8803
死掉	-10.8803
哪個	-10.8803
voljoq	-10.8803
兩次	-10.8804
vekan	-10.8804
順著	-10.8806
巨人	-10.8807
▁vitjo	-10.8807
▁ljemiza	-10.8808
最近	-10.8808
被稱為	-10.8812
sakenge	-10.8812
遺忘	-10.883
▁tjaljezoa	-10.8833
volovol	-10.8836
產生	-10.884
世界上	-10.8841
▁kiomalj	-10.8843
tara	-10.8846
放假	-10.8859
ecap	-10.887
▁lokai	-10.8918
sekeljang	-10.8922
▁gosi	-10.8926
▁djisan	-10.8939
跟他說	-10.8941
幾位	-10.8972
sanangoaq	-10.8996
▁katjaisangas	-10.9047
seljengoaq	-10.9058
kolet	-10.9078
一起唱歌	-10.9108
tjaljozoa	-10.9108
ciyol	-10.9121
原因	-10.913
lakac	-10.9199
形成	-10.922
幾天	-10.9263
ngoq	-10.9264
senayan	-10.927
怎麼啦	-10.9289
非常謝謝	-10.9302
emasi	-10.9305
15	-10.9394
喜歡畫圖	-10.9395
馬路	-10.9439
jailjaking	-10.9447
tjengelai	-10.9488
mamazangiljan	-10.9496
kasengseng	-10.9513
▁pilima	-10.9515
inoino	-10.9528
▁namaqal	-10.954
天黑	-10.9544
siqaivo	-10.9551
djonangan	-10.9577
ngangai	-10.9585
lingaw	-10.9597
帽	-10.9597
谷	-10.9599
kipapaolingav	-10.96
泥	-10.9601
孩子喜歡畫圖	-10.9601
台北	-10.9603
▁sicoaya	-10.9603
己	-10.9605
ledje	-10.9605
例	-10.9605
聘	-10.9606
旁	-10.9606
麗	-10.9606
慶	-10.9607
齒	-10.9607
比特幣	-10.9607
曲	-10.9607
扁	-10.9607
寄	-10.9607
烏克蘭	-10.9607
舍	-10.9607
逐	-10.9607
效	-10.9607
鹹	-10.9607
mazazeli	-10.9607
′	-10.9607
▁qoljivangraw	-10.9607
ㄧ	-10.9607
哈	-10.9607
撒可寧可寧	-10.9607
清點家產	-10.9607
澀	-10.9607
bokesi	-10.9607
dongdong	-10.9607
gaogaw	-10.9607
kinemnem	-10.9607
▁binto	-10.9607
▁cemalivalivat	-10.9607
▁coqelalj	-10.9607
▁kazeljo	-10.9607
▁masolesolem	-10.9607
▁minlayalayap	-10.9607
▁pitjaivililj	-10.9607
▁qapedan	-10.9607
▁qinaciljai	-10.9607
▁semoasoap	-10.9607
▁voqavoqalj	-10.9607
▁woqaljai	-10.9607
奴	-10.9607
從事什麼工作	-10.9607
渣	-10.9607
熟悉	-10.9607
臥	-10.9607
踏	-10.9607
錶	-10.9607
tideq	-10.9607
▁saoqaljai	-10.9607
▁zinelio	-10.9607
基督	-10.9607
彩虹出來了	-10.9607
悶	-10.9607
戈	-10.9607
燻	-10.9607
蹤	-10.9607
ljegeay	-10.9607
▁moqami	-10.9607
▁pinaqenetj	-10.9607
朝	-10.9607
炸	-10.9607
▁pakirimo	-10.9607
▁valjevalj	-10.9607
奪	-10.9607
爛	-10.9607
疏	-10.9607
那間房子	-10.9607
lomedan	-10.9607
▁kisenai	-10.9607
▁sepaiwan	-10.9607
天天來這裡吃晚餐	-10.9607
舖	-10.9607
迫	-10.9607
djiqes	-10.9607
奔	-10.9607
星星出來了	-10.9607
杵	-10.9607
沒有辦法	-10.9607
vetek	-10.9607
宰	-10.9607
我還要買	-10.9607
爐灶	-10.9607
▁tjevos	-10.9607
址	-10.9607
梯	-10.9607
週	-10.9607
達仁鄉	-10.9607
巢	-10.9607
▁torako	-10.9608
莖	-10.9608
訓	-10.9608
▁kadjaman	-10.9608
▁你爸爸在哪裡	-10.9608
絨毛	-10.9608
▁matjalaw	-10.9608
嘆	-10.9608
▁qinaljop	-10.9608
道歉	-10.9608
繩索	-10.9608
似乎	-10.9608
閉	-10.9608
▁tjawcikel	-10.9608
▁pozangalan	-10.9608
隔壁	-10.9608
呼吸	-10.9608
▁teljar	-10.9608
▁tjanoaen	-10.9608
秋姑	-10.9608
乘涼	-10.9608
香菇	-10.9608
祈求	-10.9608
siqaqivo	-10.9608
射箭	-10.9608
sicowayan	-10.9608
▁siobai	-10.9608
祈願	-10.9608
▁piqai	-10.9608
膝蓋	-10.9608
洪水	-10.9608
穩定	-10.9608
鹽巴	-10.9608
西瓜	-10.9608
病毒	-10.9608
錄影	-10.9608
聖經	-10.9608
按照	-10.9609
答應	-10.9609
▁calavi	-10.9609
談論	-10.9609
peliv	-10.9609
銀行	-10.9609
▁maljavaljavar	-10.9609
semangatj	-10.9609
▁沒錯	-10.9609
▁vavecikan	-10.961
喝茶	-10.961
四點鐘	-10.961
守喪	-10.961
paparangez	-10.961
竹簍	-10.961
固定	-10.961
發展	-10.961
要買什麼	-10.961
ljavilo	-10.961
注意	-10.961
▁kisaseljang	-10.961
數字	-10.961
洗碗	-10.9611
▁kitjavililj	-10.9611
▁moakaikay	-10.9611
▁mitong	-10.9611
童年	-10.9612
認知	-10.9612
qezetj	-10.9612
骨頭	-10.9612
▁zangaq	-10.9612
情景	-10.9612
drikidrikitj	-10.9612
溪邊	-10.9612
▁ninpo	-10.9612
木板	-10.9613
眾多	-10.9613
zenger	-10.9613
交代	-10.9613
▁zoking	-10.9613
離婚	-10.9613
kakivangavangan	-10.9614
價錢	-10.9614
polami	-10.9614
lingac	-10.9614
一起去打獵	-10.9614
信主	-10.9614
▁ljevavaw	-10.9615
第一次	-10.9615
長官	-10.9615
大谷	-10.9616
教堂	-10.9616
ljakev	-10.9616
設立	-10.9617
反而	-10.9617
cekas	-10.9617
美國	-10.9618
calinga	-10.9619
▁ngiyav	-10.962
▁tjokez	-10.962
alidolido	-10.9621
阿公	-10.9621
▁pakazoanan	-10.9621
趕走	-10.9621
死者	-10.9621
▁taivang	-10.9622
maljelima	-10.9622
▁ziyan	-10.9624
▁semoap	-10.9625
tjomatjomaq	-10.9626
請求	-10.9629
庭院	-10.9641
ljelaoz	-10.9682
Api	-10.9685
怎麼辦	-10.9707
pongadan	-10.971
▁qara	-10.973
▁坐下	-10.9734
▁omaljen	-10.9758
肥料	-10.9816
asik	-10.9876
關愛	-10.9951
學校裡	-10.9953
▁那些女孩子喜歡	-10.9999
要吃什麼	-11.0084
穿戴	-11.0166
sekam	-11.0174
xxx	-11.0176
aitazoa	-11.0246
odakodan	-11.0247
▁kinivaqo	-11.0265
▁taihok	-11.0297
valid	-11.0313
eqetj	-11.0386
ngida	-11.0427
擁	-11.0468
patjezoa	-11.0486
客氣	-11.0486
sioljay	-11.0491
容	-11.0494
▁macidil	-11.0494
憐	-11.0495
薯	-11.0495
惜	-11.0495
貌	-11.0495
灣	-11.0495
吸	-11.0496
晨	-11.0496
森	-11.0496
尾	-11.0496
延	-11.0496
財	-11.0496
嘉	-11.0496
舅	-11.0496
尚	-11.0496
陳	-11.0497
冰	-11.0497
儒	-11.0497
捨	-11.0497
漸漸	-11.0497
複	-11.0497
培	-11.0497
降	-11.0497
嗚	-11.0497
奮	-11.0497
賞	-11.0497
布拉瑞陽	-11.0497
撥	-11.0497
添	-11.0497
爐	-11.0497
勉	-11.0497
啟	-11.0497
尿	-11.0497
核	-11.0497
秘	-11.0497
脆	-11.0497
Tjarivavav	-11.0497
djaladjalan	-11.0497
dravadrava	-11.0497
ljazalangezangan	-11.0497
ljazalangzangan	-11.0497
pakeciyo	-11.0497
pazangazangal	-11.0497
povaljavaljaw	-11.0497
tjaridrik	-11.0497
▁benoro	-11.0497
▁djemekep	-11.0497
▁dredretan	-11.0497
▁kasaony	-11.0497
▁liljoaljoas	-11.0497
▁liningdjelj	-11.0497
▁natemalido	-11.0497
▁temavelak	-11.0497
▁temoqolj	-11.0497
▁tjemenotjenon	-11.0497
▁tjevetjeveng	-11.0497
▁zemaizaing	-11.0497
▁zemiyaziyan	-11.0497
傾	-11.0497
太陽下山了	-11.0497
慮	-11.0497
振	-11.0497
飛來飛去	-11.0497
側	-11.0497
外省人	-11.0497
灑	-11.0497
謹	-11.0497
賓	-11.0497
▁mintjos	-11.0497
嘞嘞	-11.0497
扯	-11.0497
荷	-11.0497
zeliyan	-11.0497
▁Ripon	-11.0497
▁zipong	-11.0497
排香草	-11.0497
敞	-11.0497
銅	-11.0497
▁qarizang	-11.0497
▁颱風來了	-11.0497
太貴了	-11.0497
徑	-11.0497
旋	-11.0497
繫	-11.0497
腫	-11.0497
semotolodj	-11.0497
gemalalj	-11.0497
limozav	-11.0497
▁nomaitazoa	-11.0497
怒	-11.0497
肥皂	-11.0497
揮	-11.0497
masiljinay	-11.0497
▁tiamdjo	-11.0497
▁sagaran	-11.0497
欣賞	-11.0497
折返	-11.0497
▁siasing	-11.0497
▁kivanvan	-11.0497
makapalak	-11.0497
▁povasan	-11.0497
攻擊	-11.0497
組織	-11.0497
minseg	-11.0497
ljakarav	-11.0497
旅遊	-11.0497
忍耐	-11.0497
溫暖	-11.0497
▁tatiyaw	-11.0497
鈔	-11.0497
貴重的	-11.0497
牆壁	-11.0497
馬兒部落	-11.0497
澆水	-11.0497
▁masiyaq	-11.0497
榮耀	-11.0497
tedep	-11.0497
▁dremaiyan	-11.0497
爸爸和媽媽	-11.0497
tjaljapazangalan	-11.0497
▁siqono	-11.0497
▁notiao	-11.0497
信徒	-11.0498
南島語	-11.0498
婚姻	-11.0498
信仰	-11.0498
▁kavaloan	-11.0498
遙遠	-11.0498
Uljelje	-11.0498
台東縣	-11.0498
清晨	-11.0498
騎摩托車	-11.0498
▁paljeteko	-11.0498
▁navatj	-11.0498
djemeli	-11.0498
▁iris	-11.0498
▁semangas	-11.0498
djaqas	-11.0498
雲肩	-11.0498
沙凡	-11.0498
深潭	-11.0498
常常說族語	-11.0498
市區	-11.0498
嚼檳榔	-11.0498
氣候	-11.0498
▁temezeng	-11.0499
持續	-11.0499
姆阿	-11.0499
擔任	-11.0499
▁sodjosodjo	-11.0499
遺體	-11.0499
周邊	-11.0499
拍照	-11.0499
刺繡	-11.0499
順便	-11.0499
分佈	-11.0499
亡者	-11.0499
該怎麼辦	-11.0499
輪工	-11.0499
天天讀書	-11.0499
感謝祖靈	-11.05
▁vateq	-11.05
鋤頭	-11.05
teljip	-11.05
itaqeciqeci	-11.05
▁qecap	-11.05
翻動	-11.05
▁lokoc	-11.05
麻線	-11.05
農業	-11.05
有的比較	-11.0501
covoq	-11.0501
雙腳	-11.0501
蓋房屋	-11.0502
的品種	-11.0502
某物	-11.0502
失望	-11.0502
萬安	-11.0502
期間	-11.0503
機車	-11.0503
假日	-11.0503
它的葉子	-11.0503
▁langalj	-11.0503
▁zidai	-11.0504
▁tjanoita	-11.0504
故意	-11.0504
懂事	-11.0504
接續	-11.0505
▁amis	-11.0505
▁tjaymadjo	-11.0506
喜愛	-11.0506
pasalio	-11.0507
nglitan	-11.0508
▁toqolj	-11.051
▁mapolav	-11.0511
▁qepoqepo	-11.0511
▁congal	-11.0512
djomolj	-11.0513
maconoq	-11.0513
kaokav	-11.0517
▁kiosi	-11.0518
maljaloa	-11.0519
qalom	-11.0526
aivoan	-11.0528
pedi	-11.0537
用它來	-11.0538
pakaliav	-11.0541
pitjolj	-11.0541
▁patjavat	-11.0549
▁sarokoya	-11.0551
還給	-11.0555
pinaqop	-11.0559
取名	-11.0562
kicoal	-11.0568
sadjelong	-11.057
所說的	-11.0574
veneli	-11.0576
▁voljav	-11.0605
tekelen	-11.0608
▁salapel	-11.0639
▁tjaivilj	-11.064
valisake	-11.0651
atia	-11.0661
uvu	-11.069
kelo	-11.0696
evotj	-11.0745
sangatj	-11.0752
adid	-11.076
立柱	-11.0787
▁marasodj	-11.0811
▁pacacike	-11.0925
▁kivali	-11.0926
aselo	-11.1019
000	-11.1036
▁kinasizoan	-11.1172
▁djemet	-11.1179
雨季	-11.1315
良	-11.1469
髮	-11.1469
棄	-11.147
雷	-11.147
題	-11.147
俗	-11.1471
稅	-11.1472
既	-11.1472
域	-11.1472
毒	-11.1472
仰	-11.1472
臺	-11.1472
煩	-11.1472
鳴	-11.1472
糖	-11.1472
祝	-11.1472
去探望祖父	-11.1472
雕	-11.1473
Kacaw	-11.1473
暖	-11.1473
荒	-11.1473
蜜	-11.1473
納	-11.1473
局	-11.1473
2022	-11.1473
拉瓦爾	-11.1473
仁	-11.1473
壇	-11.1473
擾	-11.1473
肯	-11.1473
涸	-11.1473
虛	-11.1473
慎	-11.1473
漆	-11.1473
倆	-11.1473
宿	-11.1473
我忘記帶錢了	-11.1473
真是太棒了	-11.1473
砰	-11.1473
茲	-11.1473
博	-11.1473
咦	-11.1473
孔	-11.1473
掩	-11.1473
迷	-11.1473
▁vavauni	-11.1473
做記號	-11.1473
扇	-11.1473
攪	-11.1473
款	-11.1473
維持	-11.1473
老師要帶我們去	-11.1473
股	-11.1473
moakakai	-11.1473
palovelov	-11.1473
qezemetj	-11.1473
▁boksi	-11.1473
▁bonka	-11.1473
▁galiljegilj	-11.1473
▁kemavekav	-11.1473
▁kodresol	-11.1473
▁litagolj	-11.1473
▁miperper	-11.1473
▁povorasian	-11.1473
▁qiziyo	-11.1473
▁seValjolo	-11.1473
▁sinvaodjan	-11.1473
▁soqeljevi	-11.1473
▁tilibi	-11.1473
▁valjoaljot	-11.1473
▁vatjoljayan	-11.1473
▁vocelacelai	-11.1473
▁zidosiya	-11.1473
併	-11.1473
兄長們	-11.1473
嚐	-11.1473
暈	-11.1473
有繡琉璃珠的	-11.1473
立神主牌	-11.1473
賴	-11.1473
N	-11.1473
djinomak	-11.1473
edrekedr	-11.1473
▁djaljepan	-11.1473
▁semoqeljev	-11.1473
劃	-11.1473
古樂樂	-11.1473
妥	-11.1473
委	-11.1473
慕凱凱	-11.1473
溝	-11.1473
疲	-11.1473
稱之為	-11.1473
謙	-11.1473
迴	-11.1473
造物主	-11.1473
邪	-11.1473
鄉公所	-11.1473
鉤	-11.1473
阿拉伯	-11.1473
▁kaljaoraman	-11.1473
▁masanitalj	-11.1473
▁namapozangal	-11.1473
▁poqimang	-11.1473
生殖器	-11.1473
肚子餓了	-11.1473
贅	-11.1473
跳傳統舞	-11.1473
下次再來	-11.1473
拳	-11.1473
疑	-11.1473
趴	-11.1473
▁kazazaljan	-11.1473
別的顏色	-11.1473
淋	-11.1473
螺	-11.1473
▁kemikim	-11.1473
▁pomaljimalji	-11.1473
▁venely	-11.1473
他是我的哥哥	-11.1473
土石流	-11.1473
投	-11.1473
趁	-11.1473
tjaljaljaljaljak	-11.1473
▁ljaljevavav	-11.1473
筒	-11.1473
驅	-11.1473
liyaliyav	-11.1473
埔	-11.1473
猶	-11.1473
均	-11.1473
普	-11.1473
珍貴	-11.1473
▁pinavayan	-11.1473
拆	-11.1473
暑假	-11.1473
栽	-11.1473
的衣服是紅色的	-11.1473
kipakikim	-11.1473
▁matevelj	-11.1473
▁veve	-11.1473
▁picil	-11.1473
耳朵	-11.1473
獅子鄉	-11.1473
溫泉	-11.1473
爸媽	-11.1473
▁tjemamako	-11.1473
我有很多朋友	-11.1473
欺騙	-11.1473
zemzem	-11.1473
▁ljavaos	-11.1473
ljeveljev	-11.1473
年齡	-11.1473
ridrayan	-11.1473
尚武	-11.1473
從小就	-11.1473
喜悅	-11.1473
ljozem	-11.1473
▁sasekaoljan	-11.1473
奇怪	-11.1473
折斷	-11.1473
探訪	-11.1473
陪伴	-11.1473
鳴槍	-11.1474
▁penenetj	-11.1474
▁tjaizoazoa	-11.1474
臺東	-11.1474
ljovaq	-11.1474
洞穴	-11.1474
kongkoan	-11.1474
謠	-11.2036
候	-11.233
漢	-11.2542
肚	-11.2544
芽	-11.255
茅	-11.2552
桃	-11.2554
乘	-11.2554
姻	-11.2554
徒	-11.2554
星	-11.2554
羞	-11.2554
撐	-11.2554
勤	-11.2554
簡	-11.2554
乎	-11.2555
案	-11.2555
廢	-11.2555
忽	-11.2555
蒙	-11.2555
嘍	-11.2555
揉	-11.2555
唷	-11.2555
囉	-11.2555
塔	-11.2555
搶	-11.2555
赴	-11.2555
麥	-11.2555
剖	-11.2555
授	-11.2555
欠	-11.2555
翅	-11.2555
蔥	-11.2555
Y	-11.2555
墳	-11.2555
席	-11.2555
晶	-11.2555
牌	-11.2555
略	-11.2555
膽	-11.2555
蛀	-11.2555
f	-11.2555
吻	-11.2555
塞	-11.2555
崇	-11.2555
桿	-11.2555
棺	-11.2555
潮	-11.2555
焦	-11.2555
衡	-11.2555
踢	-11.2555
逗	-11.2555
呵	-11.2555
垂	-11.2555
妝	-11.2555
睜	-11.2555
篇	-11.2555
誇	-11.2555
趟	-11.2555
零	-11.2555
駕	-11.2555
勾	-11.2555
扔	-11.2555
賦	-11.2555
恐	-11.2555
揚	-11.2555
匯	-11.2555
溢	-11.2555
筌	-11.2555
蕨	-11.2555
鋒	-11.2555
恆	-11.2555
飢	-11.2555
皆	-11.2555
逝	-11.2555
攀	-11.2555
午	-11.3758
透	-11.3762
鋤	-11.3764
賺	-11.3766
祈	-11.3766
銀	-11.3766
醃	-11.3767
寮	-11.3767
拾	-11.3767
雖	-11.3767
突	-11.3767
折	-11.3767
束	-11.3767
坂	-11.3767
悅	-11.3767
須	-11.3767
甚	-11.3767
禁	-11.3767
陪	-11.3767
川	-11.3767
療	-11.3768
欺	-11.3768
浪	-11.3768
邵	-11.3768
笛	-11.3768
旗	-11.3768
吊	-11.3768
練	-11.3768
竿	-11.3768
悟	-11.3768
燕	-11.3768
衛	-11.3768
嘗	-11.3768
貪	-11.3768
衍	-11.3768
紮	-11.3768
緩	-11.3768
缸	-11.3768
詳	-11.3768
奉	-11.3768
掀	-11.3768
榕	-11.3768
沾	-11.3768
礙	-11.3768
吚	-11.3768
嚥	-11.3768
憾	-11.3768
批	-11.3768
拖	-11.3768
炭	-11.3768
矛	-11.3768
籤	-11.3768
跨	-11.3768
垢	-11.3768
嫌	-11.3768
撕	-11.3768
腸	-11.3768
雀	-11.3768
額	-11.3768
吠	-11.3768
污	-11.3768
祂	-11.3768
窩	-11.3768
扭	-11.3768
泛	-11.3768
租	-11.3768
諒	-11.3768
佛	-11.3768
省	-11.3768
援	-11.3768
隆	-11.3768
鬥	-11.3768
莫	-11.3768
伏	-11.3768
凝	-11.3768
訊	-11.3768
雉	-11.3768
威	-11.3768
默	-11.3768
敵	-11.5059
佈	-11.5145
釣	-11.5147
遙	-11.5147
律	-11.5147
穩	-11.5148
藍	-11.5148
距	-11.5148
巡	-11.5148
爸	-11.5149
登	-11.5149
組	-11.5149
仿	-11.5149
牧	-11.5149
哥	-11.5149
慣	-11.5149
貢	-11.5149
郵	-11.5149
健	-11.5149
史	-11.5149
什	-11.5149
孵	-11.5149
哨	-11.5149
售	-11.5149
屈	-11.5149
晃	-11.5149
欄	-11.5149
浸	-11.5149
激	-11.5149
獎	-11.5149
衷	-11.5149
頓	-11.5149
乏	-11.5149
劈	-11.5149
甩	-11.5149
筋	-11.5149
糟	-11.5149
閒	-11.5149
摩	-11.5149
誓	-11.5149
坦	-11.5149
孝	-11.5149
擅	-11.5149
柑	-11.5149
泊	-11.5149
碼	-11.5149
輛	-11.5149
辨	-11.5149
凹	-11.5149
剷	-11.5149
卸	-11.5149
汽	-11.5149
禿	-11.5149
腹	-11.5149
輾	-11.5149
駛	-11.5149
鼓	-11.5149
梁	-11.5149
肺	-11.5149
迪	-11.5149
餌	-11.5149
筍	-11.5149
鋼	-11.5149
丘	-11.5149
恥	-11.5149
祥	-11.5149
脂	-11.5149
蝕	-11.5149
贏	-11.5149
丁	-11.5149
伍	-11.5149
堵	-11.5149
曉	-11.5149
譯	-11.5149
甫	-11.5149
妙	-11.5149
轄	-11.5149
歇	-11.5149
繭	-11.5149
兇	-11.5149
尼	-11.5149
賭	-11.5149
縱	-11.5149
敗	-11.515
歷	-11.6454
椅	-11.6741
鞋	-11.6741
植	-11.6746
薪	-11.6746
購	-11.6749
奧	-11.675
姨	-11.675
跌	-11.675
伐	-11.6751
築	-11.6751
奏	-11.6751
袖	-11.6751
庫	-11.6751
旅	-11.6751
索	-11.6751
番	-11.6751
欣	-11.6751
疫	-11.6751
蕃	-11.6751
緒	-11.6751
私	-11.6751
纏	-11.6751
填	-11.6751
癒	-11.6751
販	-11.6751
悠	-11.6752
朗	-11.6752
*	-11.6752
判	-11.6752
峻	-11.6752
憩	-11.6752
撈	-11.6752
椿	-11.6752
浮	-11.6752
罐	-11.6752
霉	-11.6752
屑	-11.6752
愧	-11.6752
疤	-11.6752
舌	-11.6752
葛	-11.6752
螯	-11.6752
諱	-11.6752
赤	-11.6752
松	-11.6752
稍	-11.6752
舔	-11.6752
街	-11.6752
勁	-11.6752
哄	-11.6752
啼	-11.6752
塗	-11.6752
娃	-11.6752
役	-11.6752
措	-11.6752
暢	-11.6752
樁	-11.6752
樟	-11.6752
秤	-11.6752
笨	-11.6752
糊	-11.6752
膿	-11.6752
逮	-11.6752
邁	-11.6752
醜	-11.6752
鈴	-11.6752
鞘	-11.6752
丸	-11.6752
媳	-11.6752
擴	-11.6752
涉	-11.6752
着	-11.6752
砂	-11.6752
蔞	-11.6752
昔	-11.6752
梅	-11.6752
毀	-11.6752
畜	-11.6752
簿	-11.6752
純	-11.6752
蒼	-11.6752
蔴	-11.6752
鴨	-11.6752
窯	-11.6752
鈍	-11.6752
愚	-11.6752
末	-11.6752
頌	-11.6752
乳	-11.6752
悔	-11.6752
棚	-11.6752
鎮	-11.6752
漬	-11.6752
版	-11.6752
X	-11.6752
頒	-11.6752
哎	-11.6752
贖	-11.6752
轎	-11.6752
帳	-11.6752
率	-11.6752
趨	-11.6752
渡	-11.6752
x	-11.7946
庭	-11.8428
忘	-11.8623
趣	-11.8631
朵	-11.864
謂	-11.8655
昨	-11.8657
膝	-11.8659
淨	-11.8659
豐	-11.8659
謀	-11.8659
澡	-11.8659
泣	-11.866
怎	-11.866
丈	-11.866
限	-11.866
廳	-11.866
蛙	-11.866
泉	-11.866
府	-11.866
鄒	-11.866
攻	-11.866
菊	-11.866
殘	-11.866
吼	-11.8661
寧	-11.8661
章	-11.8661
屍	-11.8661
螫	-11.8661
康	-11.8661
寂	-11.8661
滅	-11.8661
賠	-11.8661
嚕	-11.8661
旦	-11.8661
儘	-11.8661
垡	-11.8661
憫	-11.8661
波	-11.8661
潞	-11.8661
犬	-11.8661
眠	-11.8661
翔	-11.8661
脊	-11.8661
膩	-11.8661
颳	-11.8661
\	-11.8661
偏	-11.8661
債	-11.8661
刨	-11.8661
卵	-11.8661
拓	-11.8661
敍	-11.8661
椎	-11.8661
檜	-11.8661
淘	-11.8661
皺	-11.8661
薦	-11.8661
誦	-11.8661
譽	-11.8661
頻	-11.8661
ㄚ	-11.8661
匹	-11.8661
吶	-11.8661
哩	-11.8661
嗅	-11.8661
噢	-11.8661
娛	-11.8661
娥	-11.8661
描	-11.8661
杖	-11.8661
淺	-11.8661
湊	-11.8661
秧	-11.8661
竊	-11.8661
絡	-11.8661
耙	-11.8661
腔	-11.8661
餒	-11.8661
駡	-11.8661
魄	-11.8661
鵝	-11.8661
凸	-11.8661
怨	-11.8661
拌	-11.8661
敏	-11.8661
梟	-11.8661
仙	-11.8661
侶	-11.8661
倫	-11.8661
岔	-11.8661
廟	-11.8661
惱	-11.8661
棍	-11.8661
猜	-11.8661
臘	-11.8661
赫	-11.8661
挺	-11.8661
晾	-11.8661
曝	-11.8661
濁	-11.8661
濃	-11.8661
繳	-11.8661
輸	-11.8661
障	-11.8661
曼	-11.8661
狂	-11.8661
蠢	-11.8661
説	-11.8661
》	-11.8661
峰	-11.8661
械	-11.8661
爪	-11.8661
肢	-11.8661
契	-11.8661
《	-11.8661
惑	-11.8661
懲	-11.8661
酬	-11.8661
冬	-12.0482
橘	-12.1011
嗣	-12.1017
祕	-12.102
炎	-12.102
菇	-12.102
察	-12.1021
擇	-12.1021
策	-12.1021
檢	-12.1021
灶	-12.1022
慘	-12.1022
腮	-12.1022
館	-12.1022
厄	-12.1022
哲	-12.1022
楠	-12.1022
熄	-12.1022
志	-12.1022
柔	-12.1022
勸	-12.1022
叮	-12.1022
懇	-12.1022
澤	-12.1022
瞧	-12.1022
蠻	-12.1022
仕	-12.1022
佑	-12.1022
勺	-12.1022
欲	-12.1022
監	-12.1022
籌	-12.1022
芭	-12.1022
輔	-12.1022
銷	-12.1022
戳	-12.1022
扳	-12.1022
控	-12.1022
攔	-12.1022
漲	-12.1022
瘤	-12.1022
胃	-12.1022
臂	-12.1022
苞	-12.1022
兼	-12.1022
喂	-12.1022
宇	-12.1022
寓	-12.1022
嶺	-12.1022
惠	-12.1022
戒	-12.1022
拐	-12.1022
搔	-12.1022
擬	-12.1022
朱	-12.1022
櫻	-12.1022
氓	-12.1022
痰	-12.1022
盧	-12.1022
眉	-12.1022
碩	-12.1022
碴	-12.1022
舟	-12.1022
菲	-12.1022
虧	-12.1022
蚱	-12.1022
蜢	-12.1022
謾	-12.1022
辭	-12.1022
逛	-12.1022
頁	-12.1022
鴞	-12.1022
仇	-12.1022
尹	-12.1022
栗	-12.1022
梔	-12.1022
燭	-12.1022
狹	-12.1022
瓢	-12.1022
裁	-12.1022
豪	-12.1022
贊	-12.1022
蹟	-12.1022
划	-12.1022
暴	-12.1022
估	-12.1022
准	-12.1022
屎	-12.1022
愁	-12.1022
扎	-12.1022
斥	-12.1022
欸	-12.1022
絆	-12.1022
飄	-12.1022
昇	-12.1022
巷	-12.1022
筏	-12.1022
袍	-12.1022
貯	-12.1022
囊	-12.1022
巳	-12.1022
掐	-12.1022
敷	-12.1022
虐	-12.1022
闖	-12.1022
咕	-12.1022
違	-12.1022
耗	-12.1022
爆	-12.1022
猛	-12.1022
麼	-12.409
妻	-12.4106
概	-12.4109
宗	-12.4114
括	-12.4114
莊	-12.4115
校	-12.4115
捐	-12.4116
尤	-12.4116
匙	-12.4116
希	-12.4116
濟	-12.4116
珍	-12.4116
陶	-12.4116
翼	-12.4117
嘔	-12.4117
簽	-12.4117
盟	-12.4117
獅	-12.4117
皂	-12.4117
乃	-12.4117
莎	-12.4117
─	-12.4117
碳	-12.4117
註	-12.4117
跪	-12.4117
拚	-12.4117
償	-12.4117
嘞	-12.4117
浴	-12.4117
截	-12.4117
瘡	-12.4117
舂	-12.4117
蓄	-12.4117
裸	-12.4117
募	-12.4117
咿	-12.4117
偉	-12.4117
吾	-12.4117
怯	-12.4117
摺	-12.4117
榻	-12.4117
槌	-12.4117
歪	-12.4117
汙	-12.4117
肝	-12.4117
菌	-12.4117
輝	-12.4117
霜	-12.4117
革	-12.4117
丹	-12.4117
揀	-12.4117
殿	-12.4117
蝨	-12.4117
蠶	-12.4117
%	-12.4117
傻	-12.4117
兆	-12.4117
勘	-12.4117
勝	-12.4117
匿	-12.4117
啄	-12.4117
婉	-12.4117
州	-12.4117
帖	-12.4117
弧	-12.4117
愉	-12.4117
慾	-12.4117
揪	-12.4117
斑	-12.4117
杓	-12.4117
淹	-12.4117
灌	-12.4117
炮	-12.4117
煎	-12.4117
症	-12.4117
瘋	-12.4117
癡	-12.4117
盈	-12.4117
碾	-12.4117
筐	-12.4117
簾	-12.4117
膏	-12.4117
臍	-12.4117
艷	-12.4117
萊	-12.4117
蟬	-12.4117
蟹	-12.4117
軌	-12.4117
鄭	-12.4117
酌	-12.4117
鈎	-12.4117
銳	-12.4117
鎚	-12.4117
鏟	-12.4117
陵	-12.4117
饒	-12.4117
鳩	-12.4117
拴	-12.4117
泠	-12.4117
劑	-12.4117
劣	-12.4117
坍	-12.4117
妮	-12.4117
嵐	-12.4117
捏	-12.4117
溼	-12.4117
滋	-12.4117
漩	-12.4117
舀	-12.4117
蕊	-12.4117
誌	-12.4117
諾	-12.4117
采	-12.4117
鬱	-12.4117
洛	-12.4117
霞	-12.4117
勃	-12.4117
嗨	-12.4117
坑	-12.4117
寵	-12.4117
梢	-12.4117
欉	-12.4117
芙	-12.4117
蛹	-12.4117
誘	-12.4117
穢	-12.4117
窪	-12.4117
綴	-12.4117
曳	-12.4117
琅	-12.4117
瑤	-12.4117
寸	-12.4117
綿	-12.4117
肆	-12.4117
炊	-12.4117
闊	-12.4117
逆	-12.4117
薩	-12.4117
憑	-12.4117
氏	-12.4118
穫	-12.4161
係	-12.8606
猴	-12.8607
洪	-12.8612
芒	-12.8613
努	-12.8615
耍	-12.8615
廠	-12.8615
歉	-12.8616
彼	-12.8616
顏	-12.8616
戚	-12.8616
飼	-12.8616
楚	-12.8616
疊	-12.8616
呈	-12.8616
絨	-12.8616
媒	-12.8616
禱	-12.8616
羽	-12.8616
塵	-12.8617
暑	-12.8617
寞	-12.8617
廚	-12.8617
刑	-12.8617
橙	-12.8617
俊	-12.8617
偵	-12.8617
蔡	-12.8617
ㄅ	-12.8617
倍	-12.8617
廓	-12.8617
牡	-12.8617
笳	-12.8617
銜	-12.8617
ㄈ	-12.8617
坎	-12.8617
宮	-12.8617
恤	-12.8617
慨	-12.8617
捧	-12.8617
昆	-12.8617
蕭	-12.8617
貞	-12.8617
逾	-12.8617
鏈	-12.8617
駐	-12.8617
○	-12.8617
凌	-12.8617
稚	-12.8617
蛆	-12.8617
衫	-12.8617
襯	-12.8617
J	-12.8617
{	-12.8617
}	-12.8617
ʼ	-12.8617
侮	-12.8617
俱	-12.8617
倂	-12.8617
傭	-12.8617
凶	-12.8617
剁	-12.8617
匆	-12.8617
咚	-12.8617
唔	-12.8617
夷	-12.8617
婿	-12.8617
峽	-12.8617
恭	-12.8617
慟	-12.8617
扒	-12.8617
掙	-12.8617
揍	-12.8617
撼	-12.8617
毆	-12.8617
淒	-12.8617
淮	-12.8617
溉	-12.8617
潛	-12.8617
瀝	-12.8617
燼	-12.8617
瑣	-12.8617
瓷	-12.8617
睏	-12.8617
睹	-12.8617
瞎	-12.8617
筵	-12.8617
箴	-12.8617
粘	-12.8617
粥	-12.8617
綻	-12.8617
縛	-12.8617
缷	-12.8617
聾	-12.8617
茸	-12.8617
藻	-12.8617
蜥	-12.8617
蝙	-12.8617
蝠	-12.8617
蟄	-12.8617
裘	-12.8617
襄	-12.8617
覽	-12.8617
誡	-12.8617
誼	-12.8617
諷	-12.8617
賀	-12.8617
賢	-12.8617
踐	-12.8617
軛	-12.8617
逼	-12.8617
郊	-12.8617
酪	-12.8617
鞏	-12.8617
饅	-12.8617
鬚	-12.8617
鷲	-12.8617
堤	-12.8617
啞	-12.8617
撤	-12.8617
芬	-12.8617
‧	-12.8617
嘟	-12.8617
垮	-12.8617
彙	-12.8617
拋	-12.8617
溜	-12.8617
玲	-12.8617
疹	-12.8617
瞪	-12.8617
繯	-12.8617
茁	-12.8617
蒲	-12.8617
蜈	-12.8617
靶	-12.8617
櫃	-12.8617
副	-12.8617
崗	-12.8617
恍	-12.8617
湧	-12.8617
澗	-12.8617
爲	-12.8617
瞞	-12.8617
窺	-12.8617
螢	-12.8617
逑	-12.8617
醺	-12.8617
靭	-12.8617
亦	-12.8617
吱	-12.8617
毫	-12.8617
脈	-12.8617
脚	-12.8617
航	-12.8617
港	-12.8617
劇	-12.8617
姜	-12.8617
籍	-12.8617
勻	-12.8617
憤	-12.8617
摻	-12.8617
麴	-12.8617
漸	-12.8617
F	-12.8618
鼾	-13.6435
鵲	-13.6436
鯊	-13.6437
鬃	-13.6438
髓	-13.6439
骯	-13.644
飪	-13.6441
隠	-13.6442
陡	-13.6443
铅	-13.6444
鐲	-13.6445
鎌	-13.6446
釦	-13.6447
釁	-13.6448
醋	-13.6449
酷	-13.645
鄙	-13.6451
遣	-13.6452
輯	-13.6453
踮	-13.6454
踝	-13.6455
赦	-13.6456
譬	-13.6457
諸	-13.6458
諧	-13.6459
評	-13.646
覬	-13.6461
覦	-13.6462
襪	-13.6463
蟒	-13.6464
蘢	-13.6465
蕩	-13.6466
蔽	-13.6467
蓉	-13.6468
萌	-13.6469
菖	-13.647
荊	-13.6471
艽	-13.6472
艘	-13.6473
舐	-13.6474
腕	-13.6475
肘	-13.6476
耘	-13.6477
罩	-13.6478
纜	-13.6479
纒	-13.648
繚	-13.6481
締	-13.6482
糠	-13.6483
簧	-13.6484
箖	-13.6485
箕	-13.6486
竭	-13.6487
窒	-13.6488
穹	-13.6489
稔	-13.649
礎	-13.6491
矩	-13.6492
睪	-13.6493
皿	-13.6494
瘩	-13.6495
疥	-13.6496
疙	-13.6497
疆	-13.6498
畚	-13.6499
瑚	-13.65
瑙	-13.6501
珊	-13.6502
獄	-13.6503
爍	-13.6504
燄	-13.6505
灘	-13.6506
瀕	-13.6507
滌	-13.6508
渦	-13.6509
沃	-13.651
殞	-13.6511
櫥	-13.6512
檔	-13.6513
槿	-13.6514
榜	-13.6515
楔	-13.6516
棘	-13.6517
桁	-13.6518
柿	-13.6519
杏	-13.652
昧	-13.6521
昌	-13.6522
旭	-13.6523
斟	-13.6524
擎	-13.6525
撇	-13.6526
摯	-13.6527
搜	-13.6528
捻	-13.6529
拙	-13.653
抛	-13.6531
抖	-13.6532
扣	-13.6533
憎	-13.6534
憊	-13.6535
恨	-13.6536
怖	-13.6537
弔	-13.6538
帕	-13.6539
巍	-13.654
峨	-13.6541
岳	-13.6542
岐	-13.6543
審	-13.6544
寡	-13.6545
孿	-13.6546
婪	-13.6547
娜	-13.6548
嗽	-13.6549
啤	-13.655
啜	-13.6551
哼	-13.6552
咳	-13.6553
呃	-13.6554
劍	-13.6555
冊	-13.6556
儼	-13.6557
倪	-13.6558
俏	-13.6559
侍	-13.656
亙	-13.6561
H	-13.6562
鶖	-13.6563
頰	-13.6564
雌	-13.6565
闢	-13.6566
閹	-13.6567
酋	-13.6568
迅	-13.6569
躁	-13.657
詐	-13.6571
蠟	-13.6572
藷	-13.6573
蕪	-13.6574
葡	-13.6575
萄	-13.6576
莧	-13.6577
腎	-13.6578
腋	-13.6579
粱	-13.658
筑	-13.6581
窖	-13.6582
矢	-13.6583
盞	-13.6584
申	-13.6585
瓣	-13.6586
瓊	-13.6587
璽	-13.6588
瑠	-13.6589
玄	-13.659
牟	-13.6591
煥	-13.6592
炬	-13.6593
炉	-13.6594
溺	-13.6595
氛	-13.6596
毯	-13.6597
歐	-13.6598
櫸	-13.6599
柵	-13.66
朔	-13.6601
曹	-13.6602
曙	-13.6603
昂	-13.6604
拯	-13.6605
惟	-13.6606
徹	-13.6607
庶	-13.6608
幻	-13.6609
屠	-13.661
宛	-13.6611
嫉	-13.6612
奢	-13.6613
央	-13.6614
囪	-13.6615
嚮	-13.6616
唇	-13.6617
凋	-13.6618
傅	-13.6619
伙	-13.662
亭	-13.6621
乓	-13.6622
乒	-13.6623
鷥	-13.6624
鶚	-13.6625
魔	-13.6626
顛	-13.6627
閱	-13.6628
郳	-13.6629
邏	-13.663
遜	-13.6631
迂	-13.6632
貿	-13.6633
豚	-13.6634
覓	-13.6635
蚫	-13.6636
蚤	-13.6637
薇	-13.6638
芧	-13.6639
胱	-13.664
遲	-13.6641
紐	-13.6641
糬	-13.6642
糞	-13.6643
篷	-13.6644
笆	-13.6645
瞬	-13.6646
瞌	-13.6647
盲	-13.6648
皇	-13.6649
痠	-13.665
痊	-13.6651
犄	-13.6652
爽	-13.6653
炫	-13.6654
澳	-13.6655
昭	-13.6656
撘	-13.6657
巒	-13.6658
姪	-13.6659
堪	-13.666
噶	-13.6661
喘	-13.6662
啪	-13.6663
叩	-13.6664
厥	-13.6665
冉	-13.6666
儐	-13.6667
Z	-13.6668
W	-13.6669
鷺	-13.667
饋	-13.6671
頑	-13.6672
陀	-13.6673
鐺	-13.6674
醬	-13.6675
轟	-13.6676
豫	-13.6677
裳	-13.6678
蚯	-13.6679
蚓	-13.668
萵	-13.6681
苣	-13.6682
脾	-13.6683
竄	-13.6684
瞄	-13.6685
瑯	-13.6686
焙	-13.6687
漱	-13.6688
滲	-13.6689
沸	-13.669
槓	-13.6691
楣	-13.6692
楓	-13.6693
棲	-13.6694
攝	-13.6695
撬	-13.6696
幽	-13.6697
帚	-13.6698
姟	-13.6699
嚏	-13.67
催	-13.6701
么	-13.6702
鱗	-13.6703
隸	-13.6704
閩	-13.6705
遞	-13.6706
跛	-13.6707
譜	-13.6708
謊	-13.6709
肋	-13.671
聆	-13.6711
纍	-13.6712
績	-13.6713
笠	-13.6714
禦	-13.6715
磚	-13.6716
疾	-13.6717
玻	-13.6718
犧	-13.6719
燉	-13.672
煞	-13.6721
澈	-13.6722
滷	-13.6723
洲	-13.6724
旺	-13.6725
搧	-13.6726
恕	-13.6727
崖	-13.6728
壽	-13.6729
塘	-13.673
嗡	-13.6731
咱	-13.6732
咀	-13.6733
鴿	-13.6734
鍬	-13.6735
裕	-13.6736
蠅	-13.6737
蟋	-13.6738
蟀	-13.6739
蛔	-13.674
臀	-13.6741
膨	-13.6742
竽	-13.6743
秩	-13.6744
汲	-13.6745
枕	-13.6746
搓	-13.6747
挨	-13.6748
拭	-13.6749
恢	-13.675
峭	-13.6751
嚷	-13.6752
僕	-13.6753
井	-13.6754
鰻	-13.6755
隧	-13.6756
豎	-13.6757
誕	-13.6758
蟑	-13.6759
螂	-13.676
蕗	-13.6761
蕎	-13.6762
葵	-13.6763
葚	-13.6764
胞	-13.6765
窄	-13.6766
眷	-13.6767
畏	-13.6768
燥	-13.6769
淡	-13.677
涕	-13.6771
欒	-13.6772
旨	-13.6773
拒	-13.6774
崙	-13.6775
妒	-13.6776
壤	-13.6777
嚨	-13.6778
兜	-13.6779
閣	-13.678
莓	-13.6781
苳	-13.6782
簷	-13.6783
瀑	-13.6784
拼	-13.6785
懼	-13.6786
懸	-13.6787
喉	-13.6788
陌	-13.6789
釘	-13.679
迦	-13.6791
蘋	-13.6792
荄	-13.6793
芎	-13.6794
脖	-13.6795
岱	-13.6796
黎	-13.6797
詛	-13.6798
蔬	-13.6799
膠	-13.68
脹	-13.6801
漿	-13.6802
柯	-13.6803
斧	-13.6804
征	-13.6805
嘲	-13.6806
咐	-13.6807
吩	-13.6808
允	-13.6809
誨	-13.681
蘿	-13.6811
蔔	-13.6812
艱	-13.6813
聰	-13.6814
紫	-13.6815
盼	-13.6816
棕	-13.6817
操	-13.6818
俄	-13.6819
荖	-13.682
筷	-13.6821
漁	-13.6822
杜	-13.6823
捷	-13.6824
嶼	-13.6825
奈	-13.6826
萎	-13.6827
競	-13.6828
穌	-13.6829
烹	-13.683
悼	-13.6831
彿	-13.6832
啡	-13.6833
厭	-13.6834
兔	-13.6835
伸	-13.6836
餚	-13.6837
桐	-13.6838
柚	-13.6839
咒	-13.684
鶊	-13.6841
稜	-13.6842
碌	-13.6843
池	-13.6844
嬤	-13.6845
垃	-13.6846
圾	-13.6847
覆	-13.6848
蜘	-13.6849
蛛	-13.685
蚊	-13.6851
蔗	-13.6852
瑞	-13.6853
焚	-13.6854
殖	-13.6855
掘	-13.6856
憶	-13.6857
貝	-13.6858
苧	-13.6859
姓	-13.686
裹	-13.6861
紛	-13.6862
研	-13.6863
砌	-13.6864
偶	-13.6865
驟	-13.6866
驕	-13.6867
蝸	-13.6868
蜻	-13.6869
蜓	-13.687
菸	-13.6871
廁	-13.6872
屁	-13.6873
閃	-13.6874
膀	-13.6875
斗	-13.6876
攜	-13.6877
嚀	-13.6878
鳳	-13.6879
酵	-13.688
芳	-13.6881
榴	-13.6882
蹈	-13.6883
符	-13.6884
殊	-13.6885
椒	-13.6886
旮	-13.6887
嬸	-13.6888
傲	-13.6889
G	-13.689
詢	-13.6891
蝶	-13.6892
蝴	-13.6893
瞭	-13.6894
危	-13.6895
遵	-13.6896
螞	-13.6897
慧	-13.6898
鐮	-13.6899
厲	-13.69
闆	-13.6901
泰	-13.6902
蟻	-13.6903
Q	-13.6904
驚	-13.6905
範	-13.6906
免	-13.6907
傍	-13.6908
懶	-13.6909
糯	-13.691
蕉	-13.6911
娘	-13.6912
+	-13.6913
紹	-13.6914
橡	-13.6915
耆	-13.6916
泳	-13.6917
紀	-13.6918
枯	-13.6919
狩	-13.692
韆	-13.6921
鞦	-13.6922
王	-13.6923
畢	-13.6924
虹	-13.6925
帝	-13.6926
播	-13.6927
階	-13.6928
烘	-13.6929
螃	-13.693
睛	-13.6931
況	-13.6932
辛	-13.6933
困	-13.6934
墾	-13.6935
璃	-13.6936
V	-13.6937
導	-13.6938
繼	-13.6939
識	-13.694
祀	-13.6941
颱	-13.6942
鷹	-13.6943
漂	-13.6944
悉	-13.6945
檳	-13.6945
澆	-13.6945
阱	-13.6946
羌	-13.6946
齡	-13.6946
翁	-13.6947
爺	-13.6947
鈸	-13.6947
鑼	-13.6947
叔	-13.6948
摧	-13.6949
杭	-13.6949
陽	-13.6949
鉛	-13.6949
躍	-13.6949
藜	-13.695
嚎	-13.695
褪	-13.695
仔	-13.695
屏	-13.695
徙	-13.695
芋	-13.695
偃	-13.695
傑	-13.695
凳	-13.695
愓	-13.695
撰	-13.695
毅	-13.695
氧	-13.695
癸	-13.695
窘	-13.695
荔	-13.695
遢	-13.695
鲁	-13.695
麓	-13.695
督	-13.695
勵	-13.695
羨	-13.695
鑰	-13.695
騰	-13.695
僵	-13.695
忠	-13.695
忤	-13.695
恪	-13.695
敖	-13.695
澎	-13.695
盹	-13.695
磐	-13.695
稟	-13.695
稿	-13.695
篤	-13.695
邋	-13.695
邦	-13.695
銹	-13.695
魅	-13.695
鴉	-13.695
ˊ	-13.695
傢	-13.695
唬	-13.695
嗇	-13.695
嗝	-13.695
嘿	-13.695
圳	-13.695
屯	-13.695
弗	-13.695
彰	-13.695
拘	-13.695
擱	-13.695
枉	-13.695
濤	-13.695
猫	-13.695
瞳	-13.695
縐	-13.695
蘆	-13.695
蝌	-13.695
躬	-13.695
邱	-13.695
鉗	-13.695
鑿	-13.695
敘	-13.695
晩	-13.695
橦	-13.695
檯	-13.695
濘	-13.695
濾	-13.695
瑩	-13.695
糾	-13.695
縁	-13.695
芝	-13.695
薛	-13.695
蚪	-13.695
黯	-13.695
融	-13.695
>	-13.695
|	-13.695
ˉ	-13.695
ˋ	-13.695
̇	-13.695
ㄇ	-13.695
ㄒ	-13.695
ㄛ	-13.695
ㄟ	-13.695
乍	-13.695
乩	-13.695
佰	-13.695
侣	-13.695
俐	-13.695
倖	-13.695
倘	-13.695
倚	-13.695
倦	-13.695
倨	-13.695
偽	-13.695
僚	-13.695
僱	-13.695
儉	-13.695
儕	-13.695
凅	-13.695
函	-13.695
刊	-13.695
别	-13.695
剃	-13.695
剔	-13.695
劉	-13.695
劫	-13.695
勳	-13.695
匍	-13.695
卷	-13.695
叨	-13.695
叭	-13.695
吝	-13.695
呧	-13.695
咆	-13.695
咪	-13.695
哮	-13.695
唆	-13.695
啾	-13.695
喇	-13.695
喧	-13.695
嘩	-13.695
嘮	-13.695
嘯	-13.695
嘻	-13.695
噎	-13.695
噓	-13.695
噪	-13.695
噫	-13.695
噬	-13.695
坊	-13.695
坵	-13.695
埃	-13.695
埤	-13.695
墨	-13.695
壑	-13.695
壢	-13.695
壩	-13.695
夭	-13.695
奠	-13.695
妁	-13.695
妄	-13.695
妨	-13.695
嫆	-13.695
嫚	-13.695
嬉	-13.695
嬬	-13.695
孟	-13.695
宙	-13.695
寛	-13.695
尬	-13.695
尷	-13.695
岬	-13.695
峯	-13.695
帯	-13.695
幅	-13.695
庇	-13.695
庝	-13.695
廊	-13.695
廏	-13.695
彌	-13.695
彫	-13.695
徽	-13.695
忱	-13.695
怠	-13.695
怡	-13.695
恁	-13.695
恃	-13.695
悽	-13.695
惋	-13.695
惕	-13.695
愣	-13.695
愫	-13.695
慌	-13.695
憋	-13.695
憲	-13.695
抉	-13.695
抑	-13.695
押	-13.695
拇	-13.695
挳	-13.695
挹	-13.695
捌	-13.695
揄	-13.695
揖	-13.695
揶	-13.695
搏	-13.695
搥	-13.695
摟	-13.695
撩	-13.695
撲	-13.695
攬	-13.695
斃	-13.695
晈	-13.695
晦	-13.695
暉	-13.695
暱	-13.695
曆	-13.695
朋	-13.695
杈	-13.695
构	-13.695
框	-13.695
梭	-13.695
椰	-13.695
楝	-13.695
榔	-13.695
榚	-13.695
槳	-13.695
槽	-13.695
橏	-13.695
檐	-13.695
櫛	-13.695
欖	-13.695
欽	-13.695
歎	-13.695
歧	-13.695
殮	-13.695
汆	-13.695
汔	-13.695
汰	-13.695
沫	-13.695
泵	-13.695
津	-13.695
洶	-13.695
浹	-13.695
淆	-13.695
渠	-13.695
湍	-13.695
溯	-13.695
溶	-13.695
滯	-13.695
漾	-13.695
潤	-13.695
濡	-13.695
濫	-13.695
瀉	-13.695
炳	-13.695
焉	-13.695
煉	-13.695
煤	-13.695
煱	-13.695
犢	-13.695
狄	-13.695
狡	-13.695
狼	-13.695
猪	-13.695
猾	-13.695
玖	-13.695
瑛	-13.695
瑰	-13.695
璀	-13.695
璨	-13.695
甦	-13.695
畝	-13.695
疚	-13.695
痴	-13.695
痺	-13.695
瘀	-13.695
瘁	-13.695
癇	-13.695
癌	-13.695
癩	-13.695
癲	-13.695
眨	-13.695
眩	-13.695
眶	-13.695
眸	-13.695
眺	-13.695
睞	-13.695
睫	-13.695
砧	-13.695
碑	-13.695
磊	-13.695
礦	-13.695
礫	-13.695
祉	-13.695
祗	-13.695
祛	-13.695
禍	-13.695
禾	-13.695
窟	-13.695
竣	-13.695
筴	-13.695
籐	-13.695
籮	-13.695
粑	-13.695
糨	-13.695
糸	-13.695
紊	-13.695
紓	-13.695
綘	-13.695
綺	-13.695
緬	-13.695
縷	-13.695
纖	-13.695
纞	-13.695
缝	-13.695
罕	-13.695
罷	-13.695
耽	-13.695
肅	-13.695
肇	-13.695
胭	-13.695
腆	-13.695
腺	-13.695
舜	-13.695
舵	-13.695
艦	-13.695
芼	-13.695
茼	-13.695
荽	-13.695
莉	-13.695
葦	-13.695
蒞	-13.695
蓬	-13.695
蕾	-13.695
薰	-13.695
蚌	-13.695
蚣	-13.695
蛭	-13.695
蜍	-13.695
蜴	-13.695
蝪	-13.695
蟆	-13.695
蟾	-13.695
蠂	-13.695
蠱	-13.695
蠺	-13.695
衆	-13.695
衲	-13.695
裔	-13.695
裨	-13.695
襁	-13.695
詹	-13.695
諳	-13.695
謎	-13.695
謔	-13.695
譴	-13.695
谁	-13.695
貫	-13.695
貶	-13.695
賄	-13.695
賒	-13.695
踡	-13.695
踰	-13.695
蹋	-13.695
軀	-13.695
輟	-13.695
辮	-13.695
酣	-13.695
酥	-13.695
鍛	-13.695
鑲	-13.695
鑽	-13.695
閂	-13.695
阮	-13.695
隙	-13.695
雇	-13.695
雛	-13.695
靄	-13.695
靦	-13.695
鞠	-13.695
韌	-13.695
韭	-13.695
韻	-13.695
頗	-13.695
顎	-13.695
饗	-13.695
馨	-13.695
駁	-13.695
騷	-13.695
驪	-13.695
骰	-13.695
鯨	-13.695
鰍	-13.695
鰥	-13.695
鵰	-13.695
麟	-13.695
齁	-13.695
龐	-13.695
〜	-13.695
帒	-13.695
梧	-13.695
槴	-13.695
逸	-13.695
饀	-13.695
E	-13.695
『	-13.695
』	-13.695
ㄜ	-13.695
丰	-13.695
俩	-13.695
俯	-13.695
勿	-13.695
匐	-13.695
呆	-13.695
喵	-13.695
喷	-13.695
噁	-13.695
壼	-13.695
姦	-13.695
宅	-13.695
寥	-13.695
悚	-13.695
托	-13.695
扶	-13.695
摳	-13.695
旯	-13.695
杞	-13.695
析	-13.695
枚	-13.695
柒	-13.695
柳	-13.695
椏	-13.695
淫	-13.695
瀧	-13.695
灼	-13.695
疱	-13.695
痣	-13.695
癈	-13.695
癖	-13.695
盾	-13.695
睦	-13.695
竇	-13.695
粟	-13.695
蛾	-13.695
蜙	-13.695
誒	-13.695
跤	-13.695
鉅	-13.695
閔	-13.695
霍	-13.695
黄	-13.695
企	-13.6951
呱	-13.6951
哺	-13.6951
干	-13.6951
慈	-13.6951
户	-13.6951
挽	-13.6951
斂	-13.6951
柩	-13.6951
桂	-13.6951
潑	-13.6951
熔	-13.6951
熾	-13.6951
獠	-13.6951
畔	-13.6951
矗	-13.6951
胝	-13.6951
胼	-13.6951
臧	-13.6951
葱	-13.6951
詪	-13.6951
豋	-13.6951
咻	-13.6951
媚	-13.6951
丐	-13.6951
乞	-13.6951
囚	-13.6951
墜	-13.6951
懊	-13.6951
暇	-13.6951
曠	-13.6951
聳	-13.6951
蛻	-13.6951
辜	-13.6951
馴	-13.6951
孩	-13.6951
迨	-13.6951
倡	-13.6951
卒	-13.6951
寨	-13.6951
嶠	-13.6951
挪	-13.6951
枋	-13.6951
柬	-13.6951
橇	-13.6951
漫	-13.6951
濺	-13.6951
稠	-13.6951
遼	-13.6951
b	-13.6952
扼	-13.6952
砲	-13.6952
祿	-13.6952
脅	-13.6952
賙	-13.6952
